'<pad>'
'<EOS>'
', _'
'._'
'_'
'a_'
'і_'
'в_'
'se_'
'у_'
'а_'
'v_'
'na_'
'je_'
'на_'
'y_'
'u_'
'з_'
'-_'
'и_'
'не_'
'i_'
'що_'
's_'
'. _'
' (_'
'o_'
'í_'
'?_'
'e_'
': _'
'я_'
'že_'
'to_'
'й_'
'é_'
'до_'
'та_'
' - _'
'є_'
'k_'
'z_'
'ти_'
'á_'
''_'
'm_'
'для_'
':_'
'ї_'
'do_'
'ю_'
't_'
'ів_'
'ů_'
'pro_'
'ě_'
'о_'
'е_'
'ou_'
'ий_'
'ми_'
'м_'
'це_'
'ý_'
'за_'
'як_'
'si_'
'"_'
'х_'
'V_'
'em_'
') _'
've_'
'1_'
'ch_'
')_'
'2_'
'ho_'
'l_'
'nebo_'
'ní_'
'!_'
'про_'
'від_'
'У_'
'jsou_'
'він_'
'jako_'
'jsem_'
'го_'
'A_'
'их_'
'або_'
',_'
'za_'
'ale_'
'ом_'
'3_'
'його_'
'ви_'
'ých_'
'5_'
'ою_'
'co_'
' – _'
'které_'
'- _'
'ь_'
'щоб_'
'які_'
' "_'
'od_'
'by_'
'ого_'
'ého_'
'byl_'
'po_'
'ce_'
' «_'
'ли_'
'Я_'
'mi_'
'tak_'
')._'
'ні_'
'4_'
'— _'
'být_'
'te_'
'jak_'
'вони_'
'але_'
'те_'
'року_'
'ої_'
'jeho_'
'aby_'
'ки_'
'ами_'
'6_'
'им_'
'ла_'
'který_'
'ють_'
'roce_'
'було_'
'ці_'
'час_'
'než_'
'був_'
'може_'
'la_'
'Це_'
'ся_'
'її_'
'бути_'
'І_'
';_'
'ій_'
'ка_'
'му_'
'також_'
'коли_'
'také_'
'li_'
'7_'
'„_'
'ж_'
'ky_'
'Je_'
'mu_'
'it_'
'так_'
'ня_'
'8_'
'10_'
' — _'
'/_'
'чи_'
'тому_'
'když_'
'них_'
'їх_'
'bylo_'
'bude_'
'..._'
'ння_'
'вона_'
'jí_'
'В_'
'0_'
'Він_'
'ах_'
'ze_'
'To_'
'už_'
'який_'
'má_'
'ím_'
'roku_'
'at_'
'того_'
'může_'
'А_'
' _'
'jsme_'
'(_'
'až_'
'n_'
'по_'
'" _'
'ть_'
'ще_'
'byla_'
'není_'
'Як_'
'ým_'
'«_'
'né_'
'ka_'
'), _'
'let_'
'uje_'
'své_'
'ně_'
'років_'
'можна_'
'все_'
'ové_'
'Але_'
'цього_'
'jen_'
'к_'
'більше_'
'ться_'
'році_'
'дуже_'
'ne_'
'буде_'
'ty_'
'якщо_'
'під_'
'має_'
'Jak_'
'була_'
'před_'
'із_'
'тільки_'
'життя_'
'Ми_'
'ém_'
'která_'
'’_'
'Ale_'
'то_'
'r_'
'ими_'
'вже_'
'ek_'
'jejich_'
'ení_'
' / _'
'вся_'
'Ви_'
'Na_'
'me_'
'20_'
'ється_'
'З_'
'ích_'
'il_'
'9_'
'можуть_'
'ku_'
'ci_'
'ість_'
'ок_'
'al_'
'де_'
'були_'
'Якщо_'
'На_'
'зі_'
'S_'
'мене_'
'вас_'
'12_'
'ний_'
'; _'
'ення_'
'»._'
'více_'
'mezi_'
'kde_'
'% _'
'kteří_'
'…_'
'ку_'
'tom_'
' \u _'
'будь_'
'ji_'
'"._'
'яка_'
'ům_'
'při_'
'ніж_'
'людей_'
'jste_'
'ještě_'
'," _'
'т_'
'нас_'
'15_'
'тися_'
'всі_'
'ání_'
'» _'
'vám_'
'б_'
'Pokud_'
'Co_'
'."_'
'lo_'
' „_'
'н_'
'ити_'
'без_'
'velmi_'
'через_'
'Не_'
'protože_'
'ech_'
'on_'
'mě_'
'себе_'
'd_'
'bez_'
'ому_'
'хто_'
'cí_'
'00_'
'všechny_'
'toho_'
'вати_'
'р_'
'vás_'
'tu_'
'mohou_'
'лише_'
'цьому_'
'після_'
'ovat_'
'ani_'
'tam_'
', — _'
'мені_'
'ються_'
'ách_'
'pak_'
'30_'
'тут_'
'багато_'
'с_'
'вам_'
'tím_'
'цей_'
'ují_'
'ke_'
'řekl_'
'něco_'
'I_'
'další_'
'11_'
'ті_'
'však_'
'ný_'
'нього_'
'Když_'
'при_'
'один_'
'h_'
'єю_'
'п_'
'ості_'
'но_'
'день_'
'er_'
'увати_'
'мо_'
'йому_'
'Що_'
' — _'
'навіть_'
'pouze_'
'mají_'
'000_'
'сть_'
' '
'ta_'
'první_'
'ost_'
'ním_'
'ly_'
'сказав_'
'між_'
'ování_'
'nás_'
'C_'
'ця_'
'pokud_'
'ny_'
'lidí_'
'byly_'
'ючи_'
'США_'
'ými_'
'měl_'
'budou_'
'За_'
'Вони_'
'tomu_'
'13_'
'ti_'
'. "_'
'інших_'
'ější_'
'zde_'
'můžete_'
'ami_'
' _'
'повинні_'
'можете_'
'mít_'
'kdy_'
'ями_'
'сь_'
'tomto_'
'свою_'
'ло_'
'c_'
'100_'
'світі_'
'této_'
'18_'
', - _'
'ися_'
'всіх_'
'ské_'
'K_'
'Так_'
'ální_'
'nic_'
'більш_'
'The_'
'ять_'
'той_'
'протягом_'
'мають_'
'podle_'
'již_'
'informace_'
'musí_'
'D'
'яких_'
'ним_'
'ив_'
'světě_'
'in_'
'el_'
'просто_'
'š_'
'tento_'
'osti_'
'lidé_'
'g_'
'proti_'
'de_'
'O_'
'25_'
'? _'
'16_'
' , _'
'ємо_'
'лися_'
'letech_'
'en_'
'den_'
'14_'
' ..._'
'часу_'
'там_'
'свої_'
'люди_'
'Чи_'
'všech_'
'stejně_'
'ová_'
'ná_'
'já_'
'ila_'
'Po_'
'D_'
' ._'
'рік_'
'té_'
'іть_'
'цієї_'
'свого_'
'дітей_'
'těchto_'
'svou_'
'několik_'
'50_'
'нам_'
'ten_'
'svého_'
'přes_'
'E_'
'17_'
'ну_'
'лася_'
'ати_'
'život_'
'ční_'
'ních_'
'nám_'
'i'
'dva_'
'24_'
'.“_'
'д_'
'г_'
'Для_'
'svůj_'
'st_'
'of_'
'jim_'
'Ve_'
'ш_'
'часто_'
'ції_'
'цю_'
'потрібно_'
'два_'
'ší_'
'její_'
'P_'
'тим_'
'немає_'
'знову_'
'І'
'tohoto_'
'teď_'
'tedy_'
'během_'
'bych_'
'яку_'
'собі_'
'роботи_'
'нічого_'
'ного_'
'vlastní_'
'pod_'
'ejte_'
'Tento_'
'Pro_'
'21_'
'ків_'
'завжди_'
'všichni_'
'společnosti_'
'V'
'U_'
'2014_'
'чому_'
'ування_'
'тоді_'
'сті_'
'місце_'
'зробити_'
'Вона_'
'ám_'
'nich_'
'měli_'
'2016_'
'ях_'
'саме_'
'йте_'
'třeba_'
'případě_'
'dnes_'
'?"_'
'інші_'
'роки_'
'би_'
'А'
'stále_'
'out_'
'nikdy_'
'asi_'
'L_'
'19_'
'кілька_'
'Ти_'
'života_'
'rok_'
'oval_'
'době_'
'com_'
'M_'
'світу_'
'свій_'
'ému_'
'země_'
'vaše_'
'p_'
'ie_'
'es_'
'E'
'2018_'
'цих_'
'питання_'
'мати_'
'tě_'
'svých_'
'práce_'
'ový_'
'máte_'
'ція_'
'тебе_'
'різних_'
'людини_'
'близько_'
'či_'
'ovi_'
'oblasti_'
'nou_'
'byli_'
'M'
'“_'
'їм_'
'ує_'
'такі_'
'У'
'us_'
'sebe_'
'nad_'
'le_'
'j_'
'děti_'
'dobře_'
'ace_'
'Z_'
'P'
'B_'
'зв_'
'ем_'
'Після_'
'Коли_'
'якого_'
'чого_'
'тепер_'
'ові_'
'неї_'
'допомогою_'
'будуть_'
'Його_'
'ího_'
'znamená_'
'x_'
'ský_'
'nu_'
'kdo_'
'jeden_'
'et_'
'USA_'
'G'
'40_'
'“ _'
'людина_'
'вши_'
'До_'
'ra_'
'později_'
'mnoho_'
'ili_'
'ala_'
'S'
'ії_'
'ія_'
'ься_'
'об_'
'ням_'
'ер_'
'Цей_'
'všechno_'
'vy_'
'právě_'
'proč_'
'proto_'
'my_'
'ing_'
'ali_'
'T_'
'Od_'
'2019_'
'ніколи_'
'ної_'
'днів_'
'В'
'člověk_'
'íte_'
'tyto_'
'nové_'
'dítě_'
'b_'
'ají_'
'щось_'
'пов_'
'над_'
'добре_'
'ам_'
'společnost_'
'práci_'
'možné_'
'ice_'
'ej_'
'Za_'
': "_'
', "_'
'– _'
'ім_'
'якому_'
'чі_'
'перед_'
'краще_'
'двох_'
'ženy_'
'víc_'
'téměř_'
'22_'
'2015_'
'... _'
'яке_'
'ців_'
'ені_'
'бо_'
'tři_'
'ství_'
'pod'
'něj_'
'lze_'
'byste_'
'N'
'2017_'
',“ _'
'", _'
'… _'
'єте_'
'ту_'
'ський_'
'ось_'
'ними_'
'л_'
'компанії_'
'О'
'čas_'
'vždy_'
'um_'
'příliš_'
'ec_'
'сьогодні_'
'разом_'
'зараз_'
'án_'
'ská_'
'města_'
'místo_'
'každý_'
'dokonce_'
'celý_'
'Takže_'
'Tak_'
'Proč_'
'K'
'2013_'
'2011_'
'ям_'
'участь_'
'став_'
'світ_'
'ить_'
'Тому_'
'často_'
'zařízení_'
'světa_'
'or_'
'ných_'
'nout_'
'moc_'
'cích_'
'cké_'
'Z'
'A'
'90_'
'треба_'
'ська_'
'своїх_'
'проти_'
'перший_'
'майже_'
'ець_'
'П'
'Однак_'
'č_'
'století_'
'různých_'
'program_'
'ků_'
'dobu_'
'U'
'! _'
'трохи_'
'тобі_'
'ство_'
'потім_'
'означає_'
'досить_'
'даних_'
'використовувати_'
'використання_'
'čí_'
'», _'
'» (_'
'zemi_'
'vody_'
'takže_'
'systému_'
'no_'
'nejlepší_'
'kolem_'
'eme_'
'což_'
'X_'
'істю_'
'ін_'
'теж_'
'таких_'
'ського_'
'слід_'
'сам_'
'пам_'
'ві_'
'ва_'
'ася_'
'Також_'
'М'
'Гаррі_'
'vé_'
'ových_'
'ovou_'
'jde_'
'f_'
'ete_'
'dělat_'
'an_'
'L'
'2010_'
'. '
'щодо_'
'тих_'
'или_'
'всього_'
'При_'
'část_'
'věci_'
'tí_'
'rychle_'
'období_'
'kem_'
'jte_'
'Já_'
'Byl_'
'B'
'програми_'
'можливість_'
'лікування_'
'знаю_'
'знайти_'
'ав_'
'y'
'va_'
'sti_'
'poslední_'
'První_'
'O'
'New_'
'таке_'
'собою_'
'роботу_'
'одним_'
'навчання_'
'лося_'
'здоров_'
'ей_'
'Крім_'
'Č'
'znovu_'
'vůbec_'
'různé_'
'pomocí_'
'nyní_'
'naší_'
'kvůli_'
'jsi_'
'budete_'
'Windows_'
'H_'
'чином_'
'рішення_'
'ра_'
'одного_'
'же_'
'вання_'
'Чому_'
'Ця_'
'vše_'
'včetně_'
'tady_'
'smrti_'
'ry_'
'opravdu_'
'nimi_'
'naše_'
'kterou_'
'jednou_'
'da_'
'Tato_'
'Jeho_'
'Do_'
'28_'
'200_'
' & _'
'історії_'
'серед_'
'дослідження_'
'далі_'
'vidět_'
'ující_'
'těch_'
'sobě_'
'přístup_'
'ni_'
'nevy'
'našich_'
'můžeme_'
'město_'
'měla_'
'jící_'
'dvě_'
'Už_'
'R_'
'I'
'G_'
'80_'
'60_'
'31_'
'23_'
'“._'
'швидко_'
'уть_'
'ували_'
'тисяч_'
'спосіб_'
'робити_'
'отримати_'
'ль'
'ен_'
'Всі_'
'Є_'
'ře_'
'íme_'
'udělat_'
'toto_'
'svět_'
'nový_'
'ké_'
'jiné_'
'jednoho_'
'X'
'Proto_'
'Google_'
'32_'
'2012_'
'–_'
'яти_'
'ч_'
'своє_'
'права_'
'кою_'
'ень_'
'дні_'
'відбувається_'
'ваші_'
'Та_'
'Т'
'К'
'З'
'ící_'
'získat_'
'tato_'
'sám_'
'stát_'
'ník_'
'nost_'
'nejsou_'
'kou_'
'jít_'
'W'
'T'
'Jsou_'
'05_'
' “_'
'• _'
'ують_'
'слова_'
'ри_'
'речі_'
'раніше_'
'раз_'
'ося_'
'ни_'
'знаходиться_'
'дня_'
'війни_'
'вав_'
'С'
'Росії_'
'žádné_'
'ění_'
'»_'
'w_'
'vá_'
'ru_'
'p'
'hlavní_'
'dne_'
'dispozici_'
'Lo'
'C'
'70_'
'26_'
' [_'
'сім_'
'стати_'
'проблеми_'
'об'
'ній_'
'наших_'
'місці_'
'місто_'
'кар_'
'зовсім_'
'України_'
'Роз'
'Про'
'ž_'
'trochu_'
'stal_'
'sebou_'
'od'
'ng_'
'n'
'městě_'
'jedním_'
'hodně_'
'e'
'Kdo_'
'H'
'Další_'
'їй_'
'ши_'
'чні_'
'ць_'
'ської_'
'сти_'
'най'
'міг_'
'лі_'
'жінок_'
'воно_'
'вали_'
'ěte_'
'zdarma_'
're'
'opět_'
'lidi_'
'g'
'funkce_'
'ené_'
'dní_'
']_'
'N_'
'2007_'
'цій_'
'управління_'
'різні_'
'разу_'
'особливо_'
'овий_'
'ль_'
'кількість_'
'комп_'
'допомогти_'
'во'
'ваш_'
'úplně_'
'vání_'
'války_'
'totiž_'
't'
'systém_'
'programu_'
'ostatní_'
'někdy_'
'nejen_'
'množství_'
'důležité_'
'bychom_'
'al'
'abyste_'
'Při_'
'Během_'
'2009_'
'століття_'
'он_'
'одна_'
'міста_'
'ку'
'дві_'
'годин_'
'весь_'
'варто_'
'Те'
'Ні_'
'člověka_'
'způsobem_'
'tuto_'
'problémy_'
'máme_'
'minut_'
'krát_'
'ické_'
'h'
'dvou_'
'druhé_'
'as_'
'Všechny_'
'.._'
'тя_'
'су'
'розвитку_'
'право_'
'початку_'
'ність_'
'необхідно_'
'найбільш_'
'кожного_'
'кожен_'
'да_'
'відео_'
'від'
'веб_'
'багатьох_'
'али_'
'Про_'
'Отже_'
'ЄС_'
'životě_'
'váš_'
'velký_'
'třetí_'
'sou'
'služby_'
's'
'roky_'
'onemocnění_'
'několika_'
'například_'
'můj_'
'místě_'
'místa_'
'jej_'
'iny_'
'ii_'
'ia_'
'hodin_'
'doby_'
'de'
'ací_'
'R'
'Od'
'Není_'
'Mar'
'існує_'
'цим_'
'уд'
'тів_'
'своєї_'
'назад_'
'можливо_'
'менше_'
'мав_'
'країн_'
'гри_'
'вашого_'
'бізнес_'
'Щоб_'
'Ці_'
'Тепер_'
'Проте_'
'říká_'
'zemí_'
'zejména_'
'zcela_'
'zboží_'
'velké_'
'vat_'
'ujte_'
'svém_'
'prostřednictvím_'
'použití_'
'poté_'
'obvykle_'
'obchodní_'
'nebylo_'
'lu'
'jestli_'
'chce_'
'celém_'
'at'
'J'
'29_'
' ('
'якій_'
'якої_'
'чоловік_'
'ту'
'такий_'
'ських_'
'поки_'
'ор_'
'ньому_'
'ник_'
'наші_'
'населення_'
'місті_'
'лення_'
'ком_'
'ко_'
'звичайно_'
'ено_'
'ена_'
'ає_'
'Україні_'
'С_'
'Під_'
'Мені_'
'Е'
'žena_'
've'
'tělo_'
'svým_'
'samozřejmě_'
'r'
'přímo_'
'pár_'
'pot'
'mám_'
'mnoha_'
'milionů_'
'dětí_'
'dalších_'
'ců_'
'chvíli_'
'ce'
'b'
'[_'
'Před_'
'Každý_'
'Jsem_'
'F'
'27_'
'06_'
' % _'
' $_'
'хочете_'
'три_'
'ські_'
'системи_'
'сайт_'
'працювати_'
'повинен_'
'очі_'
'ною_'
'новий_'
'можемо_'
'ею_'
'ений_'
'деяких_'
'дані_'
'випадку_'
'žen_'
'řízení_'
'času_'
'ú'
'x'
'ví_'
'val_'
'tra'
'přes'
'prostředí_'
'peníze_'
'osobní_'
'online_'
'něm_'
'některé_'
'někdo_'
'nutné_'
'nikdo_'
'nabízí_'
'méně_'
'možná_'
'jedna_'
'hry_'
'er'
'energie_'
'dál_'
'dlouho_'
'chcete_'
'cena_'
'ba_'
'Toto_'
'Podle_'
'Le'
': „_'
'02_'
')'
' '_'
'іншого_'
'якості_'
'ше_'
'часом_'
'ується_'
'ум'
'та'
'са_'
'пі'
'одному_'
'нових_'
'му'
'мося_'
'можу_'
'ки'
'ила_'
'значення_'
'деякі_'
'безпеки_'
'ації_'
'ані_'
'По_'
'Н'
'Š'
'řekla_'
'čtyři_'
'ál_'
'věku_'
'ur'
'strany_'
'ro'
'ri'
'pracovat_'
'počet_'
'oz'
'ního_'
'ného_'
'najít_'
'možnost_'
'mohli_'
'km_'
'jméno_'
'ed_'
'dostat_'
'celé_'
'To'
'Re'
'Pro'
'Pak_'
'Ko'
'99_'
'45_'
'08_'
'0'
'ґ'
'швидше_'
'ус'
'уже_'
'трьох_'
'такого_'
'стю_'
'створення_'
'стала_'
'ст_'
'своїм_'
'само_'
'працює_'
'повністю_'
'оскільки_'
'онлайн_'
'ова_'
'області_'
'нові_'
'наприклад_'
'набагато_'
'кон'
'ики_'
'зас'
'ження_'
'взагалі_'
'вересня_'
'Потім_'
'Від'
'é'
'základní_'
'způsob_'
'zase_'
'velice_'
'tiv'
'tehdy_'
'rámci_'
'pi'
'ori'
'ona_'
'neo'
'nebude_'
'jiných_'
'jenom_'
'je'
'ina_'
'hy_'
'ge_'
'du_'
'co'
'ar'
'aci_'
'University_'
'Ty_'
'Ne_'
'Možná_'
'Kromě_'
'Ka'
'F_'
'Dnes_'
'="_'
'500_'
'2005_'
'. (_'
') — _'
'іння_'
'частину_'
'хотів_'
'фі'
'ував_'
'тра'
'студентів_'
'п'
'нути_'
'нд'
'нашої_'
'мало_'
'мали_'
'лись_'
'ла'
'ився_'
'жінки_'
'га_'
'важливо_'
'Ю'
'Програма_'
'При'
'Л'
'За'
'Ді'
'Де'
'Ба'
'ž'
'ův_'
'ň_'
'číslo_'
'údaje_'
'zi'
'větší_'
'v'
'takové_'
'spolu_'
'služeb_'
'skutečnosti_'
'rukou_'
'ru'
'národní_'
'neu'
'muž_'
'm'
'lov'
'každé_'
'hned_'
'dy_'
'dolarů_'
'aplikace_'
'and_'
'Ri'
'Ra'
'Má_'
'Me'
'Harry_'
'Co'
': '
', '
'ю'
'чи'
'рівні_'
'разів_'
'про'
'понад_'
'обов_'
'ню_'
'но'
'могли_'
'ля_'
'ками_'
'знаєте_'
'зміни_'
'дійсно_'
'досі_'
'дозволяє_'
'гроші_'
'ган'
'вий_'
'великий_'
'будете_'
'Та'
'Не'
'Китай_'
'Д'
'Вам_'
'Багато_'
'ť_'
'čka_'
'zemích_'
'ze'
'zdraví_'
'začátku_'
'tisíc_'
'the_'
'son_'
'ského_'
'skupiny_'
're_'
'přesně_'
'přece_'
'pět_'
'pomoci_'
'ového_'
'om'
'odpověděl_'
'některých_'
'nemá_'
'největší_'
'měsíců_'
'lepší_'
'jší_'
'ic_'
'hu_'
'hi'
'dí_'
'dal_'
'bi'
'ané_'
'Spojených_'
'Je'
'Evropě_'
'4'
'2006_'
'", - _'
'!"_'
' -_'
' + _'
'інформацію_'
'єш_'
'ча_'
'цією_'
'хвилин_'
'тіла_'
'проблем_'
'правило_'
'ос'
'одно'
'ов'
'ні'
'нь_'
'ма_'
'ись_'
'ик_'
'знати_'
'захворювання_'
'занадто_'
'забезпечення_'
'дає_'
'даний_'
'групи_'
'ги_'
'вище_'
'важко_'
'ав'
'Хто_'
'Франції_'
'Ко'
'К_'
'Га'
'Ін'
'ří_'
'řešení_'
'údajů_'
'zda_'
'ti'
'ter'
'te'
'stránek_'
'právo_'
'patří_'
'oči_'
'ovali_'
'nebyl_'
'nachází_'
'mnohem_'
'lo'
'len'
'le'
'jednu_'
'is_'
'ilo_'
'hol'
'el'
'dělá_'
'av'
'Vy'
'VPN_'
'Tyto_'
'Su'
'Můžete_'
'Jsme_'
'Ja'
'Ano_'
'Android_'
'300_'
'2003_'
'01_'
' > _'
'—_'
'інформації_'
'інформація_'
'ьте_'
'стає_'
'сказати_'
'сама_'
'руки_'
'ран'
'пів'
'одну_'
'небудь_'
'не'
'нашого_'
'місяців_'
'місця_'
'момент_'
'мови_'
'мар'
'легко_'
'країні_'
'з'
'житті_'
'доларів_'
'відповідь_'
'ву'
'будинку_'
'боку_'
'ан_'
'Рі'
'П_'
'О_'
'М_'
'Від_'
'žít_'
'Ž'
'území_'
'ít_'
'ává_'
'át_'
'áno_'
'ána_'
'září_'
'základě_'
'začal_'
'vět'
'vědět_'
'vlastně_'
'ud'
'těla_'
'tri'
'stránky_'
'stala_'
'skutečně_'
'sem_'
'sama_'
'sa'
'poskytuje_'
'ovala_'
'ostí_'
'obou_'
'noci_'
'nez'
'mezinárodní_'
'me'
'listopadu_'
'gi'
'eš_'
'ena_'
'ej'
'dá_'
'doma_'
'd'
'ck_'
'c'
'a'
'\u_'
'Te'
'Na'
'Mezinárodní_'
'Let'
'Ku'
'Jo'
'Hor'
'As'
': «_'
'3'
'2008_'
'2000_'
'1990_'
'11'
'ьо'
'хочу_'
'фе'
'усіх_'
'усі_'
'три'
'то'
'таким_'
'стосується_'
'сказала_'
'самі_'
'рівень_'
'роль_'
'робить_'
'ро'
'ніби_'
'нового_'
'нашому_'
'країни_'
'йти_'
'ин_'
'ж'
'діяльності_'
'ду_'
'грати_'
'води_'
'ваших_'
'Через_'
'Саме_'
'Пі'
'Ну_'
'Ла'
'Кор'
'Г'
'Ва'
'žádný_'
'ány_'
'zas'
'un'
'umění_'
'uk'
'tví_'
'sami_'
'rad'
'prostě_'
'používat_'
'pomoc_'
'podařilo_'
'pa'
'on'
'ob'
'nt'
'nej'
'neboť_'
'nas'
'men'
'ma_'
'll'
'la'
'kterém_'
'kov'
'kon'
'ka'
'jedné_'
'in'
'il'
'id'
'ha_'
'ez'
'existuje_'
'ep'
'díky_'
'dokud_'
'dobré_'
'dob'
'am'
'alo_'
'Y_'
'Fi'
'? — _'
'2020_'
'. _'
'. [+]_'
'іноді_'
'яким_'
'що'
'ща'
'частина_'
'хоча_'
'хоч_'
'ха'
'уватися_'
'ті'
'ти'
'території_'
'смерті_'
'своєму_'
'ря'
'роз'
'програма_'
'полі'
'повинна_'
'ована_'
'нням_'
'можливості_'
'лі'
'крові_'
'ин'
'ду'
'бор'
'без'
'бачив_'
'ація_'
'анти'
'англ_'
'аб'
'Я'
'Ха'
'Х'
'Один_'
'Ар'
'šel_'
'říct_'
'ět'
'čky_'
'čin'
'června_'
'čení_'
'ík_'
'át'
'áme_'
'většina_'
'válce_'
'uv'
'tu'
'tro'
'to'
'ter_'
'tan'
'stalo_'
'slova_'
'problém_'
'potřeba_'
'potom_'
'pohled_'
'pan'
'ou'
'nějaké_'
'ným_'
'ni'
'nav'
'muže_'
'lety_'
'ledna_'
'ju'
'hu'
'her_'
'he'
'film_'
'ent'
'ed'
'dvěma_'
'bu'
'ar_'
'Vý'
'Více_'
'TNT_'
'Společnost_'
'Pe'
'Nový_'
'Nej'
'Ne'
'Myslím_'
'Mo'
'Man'
'For'
'EU_'
'Du'
'?“_'
'21'
'2001_'
'09_'
'”._'
'іше_'
'язані_'
'ього_'
'школи_'
'чотири_'
'чний_'
'хоче_'
'фа'
'усього_'
'тро'
'січня_'
'ства_'
'слово_'
'си'
'самого_'
'руку_'
'приблизно_'
'при'
'почав_'
'послуги_'
'повідомлення_'
'ових_'
'овані_'
'ніхто_'
'нес'
'наш_'
'мо'
'млн_'
'липня_'
'куди_'
'ке'
'зо'
'знання_'
'зазвичай_'
'жінка_'
'жити_'
'дитини_'
'ди_'
'галузі_'
'бу'
'бо'
'ар_'
'ався_'
'Ще_'
'Новий_'
'Лі'
'Кожен_'
'Деякі_'
'Будь_'
'Б'
'Адже_'
'Її_'
'školy_'
'ět_'
'části_'
'začala_'
'vý_'
'van'
'uji_'
'tv'
'taky_'
'státech_'
'ste'
'slovo_'
'sle'
'situaci_'
'rád_'
'rodiny_'
'ran'
'použít_'
'pol'
'podnikání_'
'pocit_'
'ova_'
'ode'
'o'
'němu_'
'nější_'
'nice_'
'neza'
'nepo'
'mé_'
'moje_'
'k'
'jiného_'
'jich_'
'jež_'
'jev'
'j'
'it'
'fi'
'f'
'ený_'
'ek'
'dříve_'
'děje_'
'dost_'
'di_'
'ck'
'chtějí_'
'ační_'
'abychom_'
'Y'
'Samozřejmě_'
'Například_'
'Jako_'
'Ho'
'Ha'
'Facebook_'
'En'
'Di'
'Be'
'24'
'2002_'
'2'
'186'
'07_'
'04_'
'.... [-]_'
' » _'
'історію_'
'ір'
'ід_'
'і'
'є'
'язку_'
'червня_'
'че_'
'частини_'
'хочуть_'
'фільм_'
'ф_'
'університету_'
'трі'
'тор'
'т'
'ське_'
'становить_'
'словами_'
'система_'
'секс_'
'род'
'результаті_'
'ре'
'під'
'правда_'
'пер'
'осіб_'
'організму_'
'обличчя_'
'нні_'
'нею_'
'нами_'
'навколо_'
'нав'
'мм_'
'ло'
'ласка_'
'курс_'
'клієнтів_'
'клі'
'й'
'жовтня_'
'еп'
'ев'
'діти_'
'ген'
'гар'
'вір'
'всьому_'
'використовується_'
'видів_'
'березня_'
'бер'
'ається_'
'ання_'
'Україна_'
'Сі'
'Сьогодні_'
'Ре'
'По'
'Пере'
'Мо'
'Ка'
'Ж'
'ží_'
'ěl_'
'ď_'
'če_'
'Čína_'
'zo'
'změnit_'
'zav'
'yt'
'výsledky_'
'vytvořit_'
'vlády_'
'večer_'
'verze_'
'utí_'
'těhotenství_'
'trhu_'
'tní_'
'su'
'sociální_'
'ských_'
'sen'
'se'
'prvním_'
'proces_'
'ov'
'oba_'
'málo_'
'mohla_'
'mohl_'
'mo'
'mal'
'lu_'
'lidem_'
'let'
'les'
'ku'
'ko_'
'iPhone_'
'et'
'eri'
'domu_'
'dat_'
'cílem_'
'cký_'
'chtěl_'
'che'
'ceny_'
'cenu_'
'celou_'
'budu_'
'budeme_'
'bo'
'an'
'aktivní_'
'abych_'
'Zá'
'Všichni_'
'Většina_'
'Vi'
'Také_'
'Si'
'Ruska_'
'Při'
'Pra'
'Pod'
'My_'
'Microsoft_'
'II_'
'Car'
'Bůh_'
'Bylo_'
'Bu'
'Bar'
'?" _'
'?'
'57_'
'42_'
'.)_'
','
'іп'
'іншими_'
'ігри_'
'єр_'
'ша_'
'числі_'
'частиною_'
'цями_'
'ци'
'центр_'
'ути_'
'ур'
'тисячі_'
'сі'
'сон_'
'ска'
'с'
'річ_'
'рі'
'продукти_'
'причин_'
'почали_'
'період_'
'пара'
'па'
'отримав_'
'основі_'
'освіти_'
'однієї_'
'нів_'
'ну'
'ники_'
'нев'
'на'
'мій_'
'мовою_'
'мною_'
'мед'
'літ'
'лен'
'кі'
'культури_'
'кар'
'канал_'
'к'
'и'
'зображення_'
'емо_'
'діяльність_'
'ді_'
'дан'
'д'
'гі'
'гу'
'гор'
'ві'
'вшись_'
'волосся_'
'вих_'
'вибрати_'
'біля_'
'більшість_'
'бізнесу_'
'ать_'
'аж_'
'Т_'
'Сер'
'Об'
'Німеччини_'
'Нью_'
'До'
'Бра'
'Бог_'
'Європі_'
'Європи_'
'štěstí_'
'šen'
'ří'
'ři_'
'ři'
'íš_'
'áním_'
'zpět_'
'znalosti_'
'zen'
'ys'
'webu_'
'vývoj_'
'vr'
'vin'
'tě'
'ty'
'světové_'
'studium_'
'stane_'
'snad_'
'setkání_'
'rá'
'ruce_'
'rd'
'příznaky_'
'přijde_'
'práva_'
'pn'
'ován_'
'organizace_'
'op'
'obsahuje_'
'nových_'
'nového_'
'nem'
'nat'
'nakonec_'
'nad'
'mí'
'mil'
'ká_'
'května_'
'kterých_'
'kle'
'jménem_'
'jinak_'
'jaké_'
'ja'
'ity_'
'ion_'
'informací_'
'ia'
'hrát_'
'han'
'gu'
'fo'
'fa'
'dům_'
'dát_'
'druhý_'
'došlo_'
'dom'
'dny_'
'cu'
'celého_'
'ber'
'bar'
'až'
'aly_'
'ak'
'aj'
'We'
'Tohle_'
'Ten_'
'Se'
'Poté_'
'Pi'
'No_'
'Mám_'
'Mi'
'Mal'
'La'
'Kde_'
'Ještě_'
'Hu'
'Hotel_'
'Díky_'
'Bo'
'? - _'
'35_'
'25'
'03_'
'"'
' ... _'
'” _'
'“, _'
'їжі_'
'інше_'
'язок_'
'щастя_'
'шлях_'
'чоловіків_'
'чних_'
'хвороби_'
'харчування_'
'увагу_'
'ув_'
'туди_'
'транс'
'тись_'
'типу_'
'тижнів_'
'тем'
'статті_'
'стало_'
'справді_'
'син'
'світло_'
'своїй_'
'рі_'
'ряд_'
'ра'
'продуктів_'
'пра'
'почати_'
'пон'
'побачити_'
'плат'
'перше_'
'она_'
'оз'
'нову_'
'нер'
'насправді_'
'мала_'
'ма'
'л'
'компанія_'
'иці_'
'итися_'
'зробив_'
'знаємо_'
'дії_'
'досвід_'
'група_'
'говорити_'
'віці_'
'відповідно_'
'високо'
'виконання_'
'біл'
'брати_'
'ат_'
'ані'
'ал_'
'автомобілів_'
'абсолютно_'
'Че'
'Хоча_'
'Фа'
'Ф'
'Тут_'
'Тоді_'
'Ро'
'Р'
'Наприклад_'
'На'
'Ме'
'Ло'
'Да'
'Б_'
'Ал'
'žil_'
'škola_'
'ši'
'šest_'
'října_'
'července_'
'č'
'í'
'ál'
' % _'
' '
'změny_'
'zdrojů_'
'začít_'
'wa'
'vzdělávání_'
'vyšší_'
'vu_'
'ver'
'us'
'ujeme_'
'uj'
'tří_'
'tru'
'tolik_'
'tohle_'
'stává_'
'studia_'
'sov'
'sm'
'si'
'příběh_'
'před'
'problémů_'
'pravidla_'
'pořádku_'
'pozornost_'
'pov'
'posledních_'
'pe'
'ovšem_'
'os_'
'nějaký_'
'nosti_'
'no'
'nichž_'
'mě'
'musíte_'
'mnou_'
'mm_'
'metrů_'
'man'
'lou'
'kurz_'
'kr'
'kolik_'
'jo'
'jiný_'
'jedno'
'ing'
'ily_'
'hor'
'hod'
'ga'
'ením_'
'en'
'domů_'
'design_'
'da'
'cem_'
'bohat'
'ara'
'ad'
'York_'
'Val'
'Ukrajině_'
'Sa'
'Pu'
'Pen'
'Op'
'Ob'
'Někteří_'
'Li'
'Kon'
'Jen_'
'He'
'Gi'
'Ge'
'Fe'
'Fa'
'Da'
'Chcete_'
'Am'
'36_'
'1970_'
'190'
'15'
'., _'
'. - _'
'" (_'
' - '
'їд'
'їв_'
'ї'
'ію_'
'яд'
'ючись_'
'ька_'
'шо'
'шен'
'шар'
'чо'
'ун'
'тобто_'
'таки_'
'суд'
'се'
'своїми_'
'своєю_'
'сайті_'
'результати_'
'постійно_'
'першим_'
'останній_'
'ора_'
'ови'
'нув_'
'номер_'
'мін'
'мі'
'ми'
'менш_'
'маємо_'
'ман'
'людину_'
'лу'
'лав'
'кінця_'
'йні_'
'зі'
'знають_'
'зна'
'замовлення_'
'забезпечує_'
'жу_'
'жаль_'
'ек'
'дро'
'допоможе_'
'допомагає_'
'доведеться_'
'дати_'
'готові_'
'відразу_'
'всім_'
'вирішив_'
'виробництва_'
'ватися_'
'вала_'
'бол'
'ас'
'ант'
'альний_'
'ак'
'аби_'
'Ш'
'Цього_'
'Ц'
'Хо'
'Усі_'
'Су'
'Ра'
'Ор'
'Ні'
'Мон'
'Звичайно_'
'Де_'
'Д_'
'Все_'
'Є'
'životní_'
'řen'
'ř_'
'ář_'
'áte_'
'zá'
'znám'
'zeptal_'
'zemřel_'
'vědy_'
'věc_'
'výše_'
'vláda_'
'vlasy_'
'vl'
'videa_'
'ven'
'vašich_'
'vají_'
'va'
'ul_'
'týden_'
'studenty_'
'stavu_'
'stav_'
'současné_'
'snadno_'
'skupina_'
'schopnost_'
'rozhodnutí_'
'ret'
'ra'
'prosince_'
'procesu_'
'potřeby_'
'poprvé_'
'peněz_'
'otec_'
'osobních_'
'or'
'oh'
'oc'
'náš_'
'název_'
'následující_'
'nk'
'ne'
'naši_'
'moci_'
'mat'
'malé_'
'ma'
'lí'
'lok'
'line_'
'lan'
'kraj'
'ko'
'iště_'
'há'
'host'
'hal'
'finanční_'
'eu'
'ená_'
'dítěte_'
'dra'
'dovednosti_'
'dostal_'
'docela_'
'di'
'bá'
'brzy_'
'ano_'
'akce_'
'ad_'
'Vy_'
'VI'
'Tam_'
'Q'
'Před'
'Protože_'
'Poslední_'
'Ná'
'No'
'Nebo_'
'NE'
'Ma'
'Jeden_'
'Bi'
'6'
'46_'
'28'
'1999_'
'1998_'
'1992_'
'14'
'1'
'.'
') — _'
' $ _'
'іт'
'ір_'
'ів'
'являється_'
'ювати_'
'школі_'
'школа_'
'цію_'
'ху'
'фото_'
'успіху_'
'усе_'
'умови_'
'умовах_'
'тур'
'том_'
'тиждень_'
'тан'
'сі_'
'сто'
'стане_'
'сні'
'систему_'
'само'
'са'
'ру_'
'роках_'
'розп'
'пішов_'
'причини_'
'працюють_'
'пот'
'повно'
'питань_'
'перші_'
'ор'
'ової_'
'ового_'
'ному_'
'наскільки_'
'народження_'
'над'
'місяць_'
'місць_'
'метою_'
'мер'
'майбутнє_'
'лін'
'лю'
'льний_'
'кур'
'кра'
'колір_'
'книги_'
'км_'
'кажучи_'
'знав_'
'залишається_'
'заклад'
'жен'
'жа'
'ет_'
'ем'
'електро'
'досліджень_'
'допомоги_'
'дода'
'добро'
'ден'
'грошей_'
'гра_'
'га'
'всю_'
'вис'
'використовуються_'
'ве'
'атися_'
'ар'
'аль'
'ала_'
'адже_'
'Фі'
'Скільки_'
'Серед_'
'Росія_'
'Ось_'
'Навіть_'
'Люди_'
'Кар'
'Зараз_'
'Завантажити_'
'Ел'
'Більшість_'
'Італії_'
'ža'
'šk'
'říci_'
'ře'
'ějším_'
'článku_'
'činnosti_'
'červen'
'čen'
'ární_'
'začíná_'
'zahrad'
'webových_'
'w'
'všem_'
'výzkumu_'
'up'
'tů_'
'těžké_'
'tá'
'tor_'
'tion_'
'ta'
'síly_'
'straně_'
'stn'
'skou_'
'sel'
'sedm_'
'sal'
'rt_'
'roli_'
'rodiče_'
'ro_'
'představ'
'procent_'
'pravdu_'
'potřebné_'
'pora'
'pom'
'ple'
'ově_'
'opatření_'
'okamžitě_'
'ok'
'odpověď_'
'oblastech_'
'nt_'
'normální_'
'ng'
'neměl_'
'nejvíce_'
'ned'
'nebyla_'
'nc'
'mp'
'mně_'
'mn'
'lní_'
'lev'
'letiště_'
'lad'
'konci_'
'koliv_'
'jíst_'
'ivní_'
'ip'
'ig'
'hlavním_'
'globální_'
'gen'
'for_'
'emi_'
'dále_'
'dr'
'do'
'chování_'
'bal'
'as'
'anti'
'ana_'
'album_'
'Ti'
'Teď_'
'Ta'
'Sv'
'Sm'
'Sch'
'Pře'
'Program_'
'Nov'
'Nikdy_'
'MBA_'
'Go'
'Ga'
'Excel_'
'De'
'Ad'
'Ab'
'>_'
'75_'
'65_'
'5'
'44_'
'41_'
'34_'
'26'
'1991_'
'188'
'187'
'150_'
'13'
'' _'
'!" _'
'! — _'
'! - _'
'!'
'…'
'іх_'
'іта'
'історія_'
'існування_'
'ід'
'ян'
'ь'
'чі'
'чного_'
'чна_'
'чим_'
'ц'
'хі'
'хо'
'хи'
'хар'
'фер'
'уз'
'тру'
'травня_'
'трав'
'тер'
'тварин_'
'стали_'
'ста'
'сов'
'сили_'
'рт'
'розмір_'
'процес_'
'проте_'
'прода'
'прис'
'поган'
'повернувся_'
'по'
'олі'
'оло'
'ності_'
'неза'
'мі_'
'моделі_'
'мит'
'маю_'
'м'
'лікар'
'кс'
'крім_'
'компаній_'
'кого_'
'каже_'
'ити'
'ини_'
'ина_'
'змінити_'
'завдання_'
'ей'
'еб'
'довго_'
'десять_'
'дер'
'дар'
'гол'
'відчуття_'
'відповів_'
'включає_'
'вер'
'великою_'
'вдалося_'
'ваша_'
'більшості_'
'будинок_'
'ають_'
'ач'
'анд'
'То_'
'Там_'
'Ру'
'Па'
'Май'
'Кі'
'Ке'
'Гор'
'Велика_'
'šť_'
'ští_'
'še_'
'ňuje_'
'čil_'
'závislosti_'
'zákon_'
'zvláštní_'
'zuje_'
'zobrazení_'
'zat'
'zap'
'zal'
'z'
'xi'
'www_'
'we'
'vý'
'vím_'
'vážně_'
'vo'
'vi'
'vesmíru_'
'ven_'
'ur_'
'up_'
'uměl'
'umožňuje_'
'um'
'ul'
'ub'
'u'
'tímto_'
'typy_'
'trh_'
'ton'
'technologie_'
'takový_'
'sítě_'
'sí'
'stál'
'studenti_'
'sti'
'stejné_'
'spa'
'sp'
'soud'
'sn'
'sch'
'ráno_'
'rán'
'rt'
'ročně_'
'rozvoj_'
'rovněž_'
'rn'
'rk'
'příležitosti_'
'pří'
'prvních_'
'prohlásil_'
'pravděpodobně_'
'pra'
'pořád_'
'politické_'
'ovým_'
'ovány_'
'ovací_'
'osoba_'
'opo'
'og'
'nn'
'neod'
'nemůže_'
'mělo_'
'léky_'
'lit'
'lidmi_'
'leží_'
'kůže_'
'ky'
'kup'
'kre'
'kor'
'knihy_'
'kin'
'jejím_'
'ist'
'internetu_'
'hodiny_'
'hle_'
'hlavou_'
'har'
'ha'
'gg'
'funkci_'
'fu'
'firmy_'
'fin'
'ex'
'est'
'dívka_'
'du'
'druh_'
'deset_'
'data_'
'cit'
'ci'
'cestu_'
'bratr'
'az'
'ati'
'atd_'
'ant'
'and'
'W_'
'Vě'
'Ve'
'Tě'
'TV_'
'Ste'
'Star'
'Spa'
'Sou'
'Ru'
'Roz'
'Pa'
'Ot'
'Německu_'
'Některé_'
'Nicméně_'
'Ni'
'Nejlepší_'
'Mon'
'Mezi_'
'Mari'
'Lu'
'Lidé_'
'Jejich_'
'IC'
'Hlavní_'
'CA'
'Byla_'
'Ber'
'? "_'
'1996_'
'00'
' »_'
' -- _'
'”_'
'іт_'
'іс'
'інший_'
'іна_'
'ін'
'ім'
'ємося_'
'єм_'
'ячи_'
'я'
'ює_'
'ювання_'
'ьт'
'ьому_'
'ький_'
'ші_'
'форми_'
'техніки_'
'така_'
'сів_'
'ську_'
'суспільства_'
'ступінь_'
'спів'
'спі'
'спро'
'справа_'
'служби_'
'скільки_'
'силу_'
'серії_'
'сайту_'
'руху_'
'ром_'
'ринку_'
'рен'
'результат_'
'пізніше_'
'проект_'
'проведення_'
'под'
'пи_'
'перших_'
'пере'
'пан'
'очей_'
'основних_'
'орі'
'оп'
'одне_'
'нім'
'нці_'
'нове_'
'недо'
'н'
'мережі_'
'марк'
'мабуть_'
'лік'
'ле'
'кінці_'
'кі_'
'купити_'
'країнах_'
'команди_'
'ком'
'кан'
'ка'
'ич'
'им'
'зи_'
'зброї_'
'запо'
'залиша'
'зав'
'за'
'ет'
'ест'
'еро'
'енергії_'
'елі'
'ез'
'дівчина_'
'думаю_'
'дерев_'
'де'
'горі'
'г'
'віку_'
'відпочинку_'
'вид_'
'вд'
'вартість_'
'ва'
'будемо_'
'безкоштовно_'
'б'
'аст'
'ан'
'авто'
'Ци'
'Фе'
'Ус'
'Тривалість_'
'То'
'Пос'
'Польщі_'
'Пл'
'Перший_'
'Пам_'
'Оп'
'Ново'
'Землі_'
'Далі_'
'Гі'
'Вол'
'Бо'
'Іспанії_'
'řadě_'
'ř'
'ňte_'
'ěn'
'ěji_'
'ě'
'čist'
'činnost_'
'či'
'úrovni_'
'íků_'
'íd'
'átor_'
'ár'
'Á'
'zároveň_'
'zkušenosti_'
'zhruba_'
'zdravotní_'
'zatímco_'
'zahrnuje_'
'zah'
'věcí_'
'vě_'
'vě'
'vzduchu_'
'vz'
'vybrat_'
'vní_'
'vn'
'vil'
'vedle_'
'uvnitř_'
'uti'
'uni'
'tým_'
'tý'
'tur'
'trval'
'tor'
'tky_'
'světlo_'
'subjekt'
'státy_'
'státní_'
'srdce_'
'správ'
'spr'
'společností_'
'součástí_'
'současn'
'slunce_'
'sledovat_'
'ském_'
'ska_'
'situace_'
'sil_'
'rž'
'rychl'
'ryb'
'rozdíl_'
'res'
'raz'
'působí_'
'prý_'
'pravda_'
'pracovní_'
'používá_'
'postavení_'
'pop'
'platí_'
'per'
'pek'
'pal'
'pacient'
'ováno_'
'ot'
'ost'
'osoby_'
'opa'
'odn'
'nění_'
'nějakou_'
'nástroje_'
'nut'
'nul'
'net'
'nepro'
'neměli_'
'neb'
'naprosto_'
'nap'
'měsíc_'
'míst_'
'má'
'myslí_'
'muži_'
'mon'
'mezinárodních_'
'menší_'
'mak'
'líbí_'
'léčby_'
'ln'
'li'
'ký_'
'kur'
'kromě_'
'konce_'
'kan'
'jí'
'jediný_'
'ič'
'iz'
'iv'
'ij'
'hy'
'hotely_'
'hon'
'hlavně_'
'go_'
'gn'
'ey_'
'ech'
'ec'
'ds_'
'domácí_'
'der'
'ct'
'cm_'
'cká_'
'chod'
'cho'
'ch'
'cel'
'bn'
'bezpečnost_'
'bez'
'aš'
'am_'
'ale'
'ak_'
'ah'
'ab'
'Zde_'
'Vz'
'Vol'
'Vl'
'Uni'
'Sto'
'Spojené_'
'So'
'Ro'
'Právě_'
'Po'
'Nové_'
'Naše_'
'Máme_'
'Ji'
'Jaké_'
'J_'
'In'
'Fu'
'Evropy_'
'Ci'
'Cel'
'Ani_'
'64_'
'49_'
'38_'
'33_'
'22'
'1989_'
'1948_'
'12'
', – _'
') '
'%._'
'%, _'
'іш'
'іншим_'
'іг'
'єру_'
'євро_'
'яє'
'яться_'
'яр'
'якби_'
'юється_'
'юся_'
'ьої_'
'ьні_'
'ьм'
'шу_'
'ши'
'ш'
'чин'
'ц_'
'хтось_'
'фільму_'
'уючи_'
'успішно_'
'університет_'
'тіло_'
'тор_'
'сюди_'
'сум'
'студенти_'
'сту'
'стер'
'соціальних_'
'систем_'
'сал'
'рів_'
'рот'
'рм'
'речей_'
'проблема_'
'пре'
'працював_'
'потрібен_'
'потреби_'
'поста'
'плі'
'пла'
'першого_'
'перша_'
'переда'
'охорон'
'ото'
'ом'
'обладнання_'
'о'
'ном_'
'непри'
'наша_'
'нас'
'називається_'
'називають_'
'містить_'
'молод'
'мод'
'мого_'
'минулого_'
'мат'
'май'
'магазин'
'лікаря_'
'лів'
'лу_'
'лон'
'лад'
'культур'
'кращих_'
'концерт'
'ков'
'квітня_'
'ква'
'кап'
'кам_'
'йтеся_'
'иться_'
'ип'
'иб'
'зрозуміти_'
'знаходяться_'
'землі_'
'захисту_'
'завдяки_'
'заб'
'жі_'
'енд'
'ель_'
'ед'
'дів'
'допомогу_'
'доз'
'дн'
'дин'
'держави_'
'години_'
'гн'
'ги'
'віз'
'всередині_'
'вплив_'
'влади_'
'витрати_'
'вит'
'випадках_'
'визначення_'
'вибір_'
'великих_'
'вб'
'вашої_'
'вами_'
'бі_'
'бачити_'
'батьки_'
'багато'
'аш'
'ато'
'ап'
'ана_'
'американськ'
'алі'
'аз'
'а'
'Ту'
'СРСР_'
'Р_'
'Протягом_'
'От'
'Нові_'
'Му'
'Мор'
'Можливо_'
'Ли'
'Й'
'Е_'
'Дуже_'
'Во'
'Більше_'
'Буд'
'Бо_'
'Ан'
'Ам'
'Аль'
'Ад'
'žení_'
'žen'
'šení_'
'š'
'ření_'
'ď'
'čí'
'ča'
'ími_'
'íky_'
'én'
'Ú'
'zprávy_'
'zor'
'zd'
'zako'
'zahraničí_'
'východní_'
'víte_'
'ví'
'vzhled_'
'vynikající_'
'vrátil_'
'video_'
'vi_'
'velikosti_'
'vaší_'
'val'
'uzavřen'
'typu_'
'tvoří_'
'tou_'
'tom'
'tin'
'th_'
'teorie_'
'takového_'
'takovou_'
'su_'
'stí_'
'stran_'
'sta'
'společně_'
'spojen'
'spl'
'sně'
'snaží_'
'skoro_'
'rozv'
'roz'
'rol'
'přírodní_'
'případech_'
'přišel_'
'přibližně_'
'proti'
'prosím_'
'prostředky_'
'programy_'
'produktů_'
'prob'
'pro'
'prav'
'pr'
'poměrně_'
'podporu_'
'plyn'
'plně_'
'paní_'
'pan_'
'otce_'
'olo'
'ol'
'oficiální_'
'odst'
'obyvatel_'
'oblast_'
'níci_'
'ném_'
'nsk'
'neš'
'nes'
'našeho_'
'nab'
'muset_'
'možnosti_'
'mor'
'mlad'
'mi'
'mer'
'lin'
'kt'
'království_'
'kdyby_'
'kaz'
'jazyk_'
'jaký_'
'jak'
'ito'
'iná'
'ins'
'im'
'ický_'
'ho'
'hlavních_'
'historii_'
'fon'
'est_'
'dy'
'dveře_'
'dosáhnout_'
'dos'
'dopis_'
'dnů_'
'cky_'
'chi'
'cen'
'března_'
'byt'
'blok'
'be'
'ař'
'ap'
'aný_'
'aniž_'
'af'
']._'
'] _'
'Země_'
'YouTube_'
'USD_'
'TO'
'SS'
'Q_'
'Pr'
'Nem'
'My'
'Is'
'Con'
'At'
'Arm'
'AL'
'AC'
'8'
'600_'
'55_'
'40'
'37_'
'32'
'29'
'1997_'
'189'
', „_'
'ірн'
'якусь_'
'яко'
'якийсь_'
'ще'
'шн'
'чоловіка_'
'чно_'
'чист'
'чий_'
'честь_'
'чен'
'че'
'центрі_'
'фотографії_'
'ура'
'упа'
'ук'
'уж'
'термін_'
'тен'
'температур'
'тво'
'такою_'
'ському_'
'сторони_'
'сти'
'стал'
'співа'
'спитав_'
'світла_'
'свободу_'
'св'
'рон'
'розк'
'рг'
'президента_'
'практично_'
'послуг_'
'полягає_'
'показує_'
'пок'
'подобається_'
'повітря_'
'пацієнтів_'
'от'
'останні_'
'оро'
'організації_'
'опо'
'оні'
'она'
'ок'
'од'
'ов_'
'обох_'
'обл'
'ніч_'
'нула_'
'ни'
'нення_'
'науков'
'настільки_'
'наді'
'нагород'
'місяці_'
'місцем_'
'мільйонів_'
'мову_'
'мил'
'машини_'
'лікар_'
'лей'
'лась_'
'кількості_'
'кри'
'користувача_'
'кол'
'кожному_'
'кожна_'
'клуб_'
'йдеться_'
'ині_'
'ид'
'зло'
'застосування_'
'замість_'
'жив'
'жан'
'ере'
'ели'
'економічн'
'другий_'
'дол'
'десят'
'головою_'
'гла'
'віт'
'віл'
'відповіді_'
'відповідальність_'
'вперше_'
'во_'
'вка_'
'вдома_'
'вана_'
'вал'
'бур'
'бе'
'бан'
'аючи_'
'ард'
'аж'
'Ч'
'Університет_'
'Тільки_'
'Тож_'
'Таким_'
'Пу'
'Пре'
'Пе'
'Наш_'
'Ма'
'Ку'
'Кл'
'Йому_'
'Згідно_'
'Зв'
'Зб'
'Ер'
'Діти_'
'Джо'
'День_'
'Ві'
'Бен'
'Ав'
'Існує_'
'živ'
'ším_'
'ši_'
'řadu_'
'ěr'
'ěl'
'ďte_'
'ček_'
'če'
'ý'
'úspěchu_'
'ó'
'ír'
'él'
'áš_'
'áni_'
'ák'
'ád'
'zpátky_'
'zatím_'
'zaměřen'
'zaměstnanců_'
'zad'
'ym'
'yk'
'všechna_'
'víme_'
'vést_'
'válka_'
'vysoké_'
'vypadá_'
'vojsk'
'vliv_'
'vlastním_'
'vede_'
'učení_'
'ujete_'
'události_'
'tisk'
'tik'
'takových_'
'takov'
'svými_'
'svému_'
'střední_'
'států_'
'styl_'
'str'
'stojí_'
'stažení_'
'staré_'
'start_'
'srpna_'
'spor'
'spolupráci_'
'spolupráce_'
'sní'
'směrem_'
'slu'
'seznam_'
'sek'
'sad'
'ruské_'
'přitom_'
'přijat'
'přid'
'přev'
'pán'
'prů'
'prostor_'
'projektu_'
'pracoval_'
'pos'
'pomůže_'
'podobné_'
'paměti_'
'ož'
'očí_'
'ována_'
'ote'
'ope'
'oo'
'oj'
'odv'
'odpovídá_'
'oddělení_'
'obsah_'
'obl'
'obe'
'něho_'
'níž_'
'názvem_'
'námi_'
'nu'
'noc_'
'nest'
'nejs'
'nechat_'
'nebezpečí_'
'nd'
'napo'
'měn'
'mého_'
'myslel_'
'mužů_'
'mus_'
'mu'
'mra'
'mohlo_'
'mimo_'
'mikro'
'metr'
'mar'
'lépe_'
'lá'
'list'
'kv'
'kurzy_'
'kurzu_'
'kul'
'kom'
'klo'
'kla'
'ke'
'jejichž_'
'jedná_'
'isk'
'is'
'ion'
'ická_'
'ib'
'ian_'
'hr'
'hodnoty_'
'gu_'
'fil'
'eň_'
'ev'
'ených_'
'eny_'
'ent_'
'eno_'
'eli_'
'ea'
'důvodů_'
'důvodu_'
'dé'
'dv'
'druhy_'
'druhou_'
'dro'
'dochází_'
'denní_'
'cn'
'chv'
'chci_'
'budeš_'
'bla'
'bet'
'ať_'
'avšak_'
'avi'
'au'
'ation_'
'ate'
'ast'
'ard'
'ang'
'ag'
'ac'
'Za'
'Vám_'
'Va'
'Ukrajiny_'
'Tehdy_'
'Sta'
'RA'
'Počet_'
'Porn_'
'Poh'
'Per'
'Online_'
'On_'
'Název_'
'Nepo'
'Mnoho_'
'Ki'
'Kategorie_'
'Ju'
'IN'
'III_'
'Hi'
'Gra'
'Evropské_'
'Ed'
'Dom'
'Do'
'DA'
'Business_'
'Bro'
'Blo'
'Ben'
'Auto'
'Ag'
'AN'
'> _'
'66_'
'54_'
'31'
'30'
'250_'
'185'
'120_'
'1000_'
'...'
'!“_'
' ​​_'
'“ (_'
'історичн'
'існують_'
'інша_'
'інт'
'інг'
'яється_'
'ята'
'яв'
'ютер'
'ют'
'ьний_'
'ьна_'
'ші'
'шляху_'
'ша'
'чим'
'цілей_'
'цар'
'хи_'
'фото'
'формі_'
'фо'
'фарб'
'фактор'
'усім_'
'уйте_'
'уваги_'
'точки_'
'торі'
'топ'
'технології_'
'теле'
'тва_'
'тар'
'сут'
'супер'
'су_'
'столітті_'
'стан_'
'стан'
'сс'
'ско'
'складу_'
'складається_'
'симптоми_'
'сильн'
'села_'
'світ'
'сад'
'ру'
'російськ'
'ролі_'
'ризику_'
'пісні_'
'піді'
'підтримки_'
'підприємства_'
'підда'
'підвищення_'
'прояв'
'прос'
'пропонує_'
'продукт_'
'програм_'
'прог'
'пров'
'прин'
'приймати_'
'потрібна_'
'потребують_'
'порушення_'
'поп'
'помер_'
'позиції_'
'події_'
'пода'
'пові'
'перебува'
'партнер'
'офіційно_'
'ові'
'овано_'
'ночі_'
'ноги_'
'нен'
'наук_'
'нат'
'народився_'
'напевно_'
'намагається_'
'найкращий_'
'найближч'
'мір'
'мікро'
'мої_'
'мою_'
'могла_'
'метрів_'
'методи_'
'ме'
'лось_'
'лив'
'ли'
'лет'
'кіно'
'кількох_'
'країну_'
'кор'
'кові_'
'ката'
'кандидат'
'йт'
'иш'
'ично'
'ис'
'из'
'иг'
'ива'
'зуб'
'зон'
'золот'
'знає_'
'значно_'
'зм_'
'зи'
'здається_'
'зви'
'завда'
'жіноч'
'журналіст'
'жу'
'жовт'
'жо'
'жи'
'ес'
'ерт'
'ент'
'енні_'
'ене_'
'діє_'
'ді'
'дя'
'думку_'
'думати_'
'дому_'
'дитину_'
'декілька_'
'гу_'
'грудня_'
'груд'
'готелі_'
'голос_'
'год'
'говорить_'
'відомо_'
'відділ'
'відда'
'відбу'
'вп'
'вол'
'вки_'
'вимагає_'
'вийти_'
'види_'
'вид'
'взяти_'
'вз'
'величезн'
'ве_'
'біло'
'боротьби_'
'благо'
'безліч_'
'батьків_'
'батько_'
'атор_'
'ати'
'ано_'
'аний_'
'ал'
'ада'
'ад'
'Японії_'
'Хіба_'
'Те_'
'Тво'
'Такі_'
'Студенти_'
'Спочатку_'
'Під'
'Ос'
'Ни'
'Най'
'Кра'
'Ки'
'Кал'
'И'
'Зд'
'Дослідження_'
'Гра'
'Го'
'Ге'
'Гар'
'Америки_'
'Ак'
'Ісуса_'
'Інші_'
'žádnou_'
'žije_'
'že'
'ště'
'špatně_'
'škol'
'še'
'řídit_'
'řád'
'ěd'
'čím_'
'článek_'
'čku_'
'čem_'
'čase_'
'Často_'
'ávat_'
'átor'
'»'
'získal_'
'zápas'
'zákon'
'zvířat_'
'zranění_'
'zpo'
'změn'
'zločin'
'zbraní_'
'zam'
'zajímavé_'
'zab'
'yn'
'wi'
'většinu_'
'většinou_'
'vývoje_'
'výběr_'
'váh'
'vztahu_'
'vyz'
'vytvoření_'
'vyst'
'vyp'
'vyho'
'vrátit_'
'voz'
'voják'
'vnitřní_'
'vln'
'viděl_'
'už'
'uvedl_'
'use'
'umístěn'
'ui'
'udělal_'
'tře'
'těle_'
'týmu_'
'týdnů_'
'typ_'
'top'
'tn'
'tivní_'
'tit_'
'til_'
'th'
'ten'
'takto_'
'sá'
'stěn'
'státu_'
'studie_'
'studentů_'
'stránkách_'
'st'
'ss_'
'spojení_'
'software_'
'smysl_'
'slo'
'sla'
'ským_'
'skupin'
'ske'
'ska'
'schopnosti_'
'schopn'
'sam'
'rádi_'
'rop'
'rod'
'ris'
'rid'
'půl_'
'příčin'
'případ_'
'při'
'především_'
'pře'
'pás'
'ps_'
'průběhu_'
'prost'
'praxi_'
'pracují_'
'počátku_'
'poz'
'post'
'port'
'politiky_'
'pohyb'
'pochází_'
'pob'
'plánu_'
'plán_'
'ploch'
'plný_'
'plav'
'plat'
'partner'
'oř'
'ované_'
'ovaly_'
'ov_'
'otevřen'
'ostatním_'
'os'
'om_'
'okolo_'
'oblečení_'
'někteří_'
'návrh_'
'nápady_'
'ná'
'nutí_'
'novým_'
'novou_'
'nov'
'nik'
'nepře'
'nep'
'nač'
'nal'
'najednou_'
'mění_'
'míru_'
'mír_'
'mot'
'moderní_'
'model_'
'mluvit_'
'minulosti_'
'ly'
'lt'
'l'
'ká'
'kva'
'kulturní_'
'kost'
'kop'
'konečně_'
'komunikace_'
'kg_'
'každého_'
'kariéru_'
'kar'
'jn'
'jist'
'inu_'
'if'
'ide'
'hot'
'hledat_'
'hlas_'
'here'
'fer'
'eti'
'ence_'
'eli'
'ela_'
'eko'
'eg'
'dý'
'dá'
'dur_'
'duch'
'dlo_'
'disk'
'din'
'der_'
'denně_'
'dan'
'cov'
'ckých_'
'ckou_'
'chrám'
'chov'
'chl'
'cha'
'cemi_'
'ca'
'bran'
'bol'
'bo_'
'ben'
'barvy_'
'ba'
'aplikaci_'
'alkoholu_'
'alespoň_'
'ající_'
'Zv'
'Wi'
'Web'
'Wa'
'Víte_'
'Váš_'
'Vzhledem_'
'Vyp'
'Ver'
'Ven'
'Velmi_'
'Vaše_'
'VA'
'UN'
'Tur'
'Studenti_'
'Saint_'
'SP'
'SE'
'SA'
'Rad'
'Pří'
'Ph'
'Par'
'Pal'
'Om'
'Národní_'
'Nyní_'
'NA'
'Med'
'Jste_'
'Jenže_'
'Její_'
'Jedná_'
'Ivan'
'International_'
'Inter'
'IT'
'Hra'
'Hl'
'Hel'
'Har'
'HD_'
'Francie_'
'Fo'
'Ex'
'EC'
'Die'
'Cor'
'Chy'
'Bud'
'Brit'
'Boží_'
'Boha_'
'Ba'
'Ale'
':'
'91_'
'88_'
'72_'
'3D_'
'36'
'2004_'
'1939_'
'184'
'100'
'10'
'/ _'
'* _'
');_'
'): _'
'", "_'
' …_'
' = _'
' ... +_'
' -'
' ( _'
'їхні_'
'іші_'
'іти_'
'іншу_'
'іншої_'
'іншому_'
'інф'
'іка'
'із'
'єри_'
'єн'
'яс'
'якість_'
'якою_'
'якими_'
'язково_'
'язан'
'ьних_'
'шість_'
'шир'
'шим_'
'чу'
'чн'
'членів_'
'члени_'
'чки_'
'ціна_'
'ці'
'хотіли_'
'ход'
'формат'
'файли_'
'уються_'
'ут'
'уро'
'університеті_'
'увазі_'
'уб'
'ття_'
'точно_'
'тиск_'
'тин'
'тер_'
'тенденці'
'телефон'
'те'
'твор'
'тв'
'ся'
'стояв_'
'стей_'
'сталося_'
'сприйма'
'справу_'
'спо'
'список_'
'слав'
'скла'
'сказали_'
'сил'
'си_'
'серце_'
'рідн'
'роман'
'рол'
'розі'
'розуміння_'
'ров'
'робочих_'
'робота_'
'робите_'
'роб'
'ро_'
'ринк'
'рим'
'ри'
'раптом_'
'рамках_'
'рал'
'рав'
'пропонують_'
'проектів_'
'проб'
'принцип'
'принаймні_'
'прийняти_'
'приз'
'приве'
'приб'
'прем_'
'пошуку_'
'починається_'
'посі'
'поспіша'
'поруч_'
'показник'
'подивитися_'
'пова'
'поб'
'планет'
'план'
'перш_'
'перет'
'переваги_'
'пацієнта_'
'пар'
'пап'
'пакет'
'охорони_'
'оф'
'отримання_'
'останнього_'
'основні_'
'он'
'однією_'
'овин'
'обі'
'обслуговування_'
'обр'
'ня'
'нор'
'новини_'
'нка_'
'нижче_'
'нест'
'непо'
'необхідні_'
'нг'
'нашій_'
'наслідки_'
'народу_'
'найбільших_'
'назву_'
'надає_'
'моя_'
'мозку_'
'можливостей_'
'мов_'
'ме_'
'мати'
'майбутньому_'
'людьми_'
'любов_'
'лю_'
'льн'
'лл'
'крок_'
'кро'
'країна_'
'коро'
'користувачів_'
'коло_'
'колись_'
'книжк'
'кат'
'карти_'
'йк'
'йд'
'ира'
'ину_'
'ил'
'ив'
'зустрічі_'
'зустріча'
'зу_'
'зокрема_'
'зобов_'
'зне'
'знаєш_'
'зем'
'здатні_'
'зд'
'заявив_'
'заяв'
'захист_'
'зат'
'засобів_'
'запас'
'зал'
'займа'
'заго'
'заг'
'забезпечити_'
'жн'
'жит'
'еч'
'ефективність_'
'енс'
'енням_'
'еж'
'дізнатися_'
'думав_'
'досягти_'
'дон'
'дов'
'дк'
'дитина_'
'двері_'
'даними_'
'давно_'
'графі'
'грав'
'гон'
'голову_'
'говорив_'
'го'
'гам'
'він'
'війну_'
'ву_'
'вт'
'встановлен'
'встав'
'вр'
'впливу_'
'вої_'
'вк'
'випадки_'
'використовують_'
'вийшов_'
'вида'
'вигляд_'
'виб'
'вважає_'
'вався_'
'біт'
'біо'
'біль_'
'брон'
'брав_'
'блю'
'бачили_'
'бар'
'бажання_'
'ах'
'арі'
'анс'
'ано'
'ани'
'Христа_'
'Ті'
'Ск'
'Сан_'
'СА'
'Рей'
'Пор'
'Под'
'Пар'
'Ок'
'Оз'
'Нам_'
'Мі'
'Може_'
'Ми'
'Марк'
'Мар'
'Ман'
'Кон'
'Йорку_'
'Зап'
'Завдяки_'
'Ди'
'Ден'
'Відео_'
'Бр'
'Бога_'
'Без'
'Їх_'
'Ї'
'Індії_'
'žádná_'
'žn'
'žk'
'ůr'
'ů'
'šn'
'šle'
'škole_'
'ša'
'řeč'
'ěř'
'ěné_'
'čísla_'
'čního_'
'členů_'
'Článek_'
'ýn'
'út'
'úspěch_'
'úroveň_'
'íř'
'íz'
'íci_'
'éz'
'ést_'
'áž'
'Í_'
'zítra_'
'zz'
'zvýšit_'
'zvýšení_'
'způsobil'
'zobraz'
'začali_'
'zar'
'zak'
'yš'
'yp'
'yl'
'ya_'
'vždycky_'
'vůči_'
'výrob'
'výrazně_'
'výměn'
'válku_'
'vá'
'vztahy_'
'vzal_'
'vyš'
'vytvořen'
'vysoce_'
'vyhrál_'
'vyb'
'voda_'
'velkou_'
'vel'
'vaši_'
'vašeho_'
'uveden'
'ust'
'upo'
'týká_'
'témat'
'tán'
'tvrdí_'
'tov'
'tomuto_'
'tisíce_'
'text_'
'technické_'
'tas'
'tar'
'takhle_'
'systémy_'
'svo'
'střed'
'stranu_'
'stra'
'stejný_'
'sta_'
'spíše_'
'sport'
'směr'
'smus_'
'sklad'
'sh_'
'sen_'
'různ'
'ruk'
'rov'
'rit'
'republiky_'
'případů_'
'přik'
'přep'
'přem'
'představit_'
'pu'
'pryč_'
'prvního_'
'prot'
'pros'
'profesionální_'
'pracuje_'
'poč'
'potřebuje_'
'pomáhá_'
'polo'
'pokročil'
'pokračovat_'
'pokoj_'
'podmínky_'
'po'
'plu'
'pln'
'platform'
'pat'
'pane_'
'pad'
'oš'
'ovými_'
'ovy_'
'ovn'
'otázky_'
'osob_'
'oni_'
'ole'
'oje'
'oi'
'občas_'
'obtížné_'
'obraz'
'něn'
'několikrát_'
'ní'
'nástroj_'
'nevím_'
'neviděl_'
'net_'
'nesmí_'
'nemožné_'
'nemohl_'
'nejr'
'nebudou_'
'nce_'
'narození_'
'narodil_'
'nar'
'napsal_'
'nalezen'
'naj'
'měsíce_'
'místní_'
'místnosti_'
'mé'
'myslím_'
'myslet_'
'my'
'musel_'
'mozku_'
'mov'
'mohly_'
'modelu_'
'mo_'
'mne_'
'metody_'
'materiál_'
'materiál'
'man_'
'malých_'
'lý_'
'lék'
'lik'
'lib'
'lep'
'ld'
'král'
'kou'
'kot'
'koncert'
'komp'
'komis'
'kat_'
'jd'
'jasné_'
'ií_'
'iu'
'ité_'
'ino'
'ic'
'hru_'
'hranice_'
'hraje_'
'hov'
'hodn'
'hlavy_'
'her'
'had'
'gra'
'gin'
'geo'
'gar'
'gan'
'ga_'
'francouzsk'
'foto'
'formě_'
'firm'
'ečk'
'ety_'
'es'
'eren'
'epi'
'eni_'
'energii_'
'end'
'ee'
'dosud_'
'dopad'
'dle_'
'dit_'
'diet'
'den'
'datum_'
'císař'
'cr'
'chyby_'
'chud'
'cestě_'
'centru_'
'car'
'běžn'
'bě'
'bývá_'
'bílé_'
'budoucnost_'
'brán'
'bro'
'bra'
'boj_'
'bit'
'bezpečn'
'auto_'
'ato'
'armády_'
'ari'
'ani'
'aktivity_'
'akt'
']]'
'Ze'
'Yorku_'
'Wil'
'Vin'
'Video_'
'Van'
'Ul'
'US'
'Tím_'
'Tru'
'Tra'
'Tr'
'Ti_'
'TE'
'Sy'
'Sl'
'Shi'
'Rusku_'
'Res'
'Ren'
'Pre'
'Ov'
'Net'
'Nav'
'Máte_'
'Mor'
'Mat'
'MA'
'Kra'
'Kolik_'
'John'
'Jestliže_'
'Jde_'
'Gu'
'Er'
'Em'
'EM'
'Dos'
'Design_'
'Des'
'Cena_'
'CH'
'Art'
'Apple_'
'All'
'AS'
'@ _'
'< _'
'95_'
'85_'
'800_'
'43_'
'400_'
'39_'
'37'
'35'
'1995_'
'1994_'
'1987_'
'1980_'
'1974_'
'191'
'179'
'-'
'+ _'
'*_'
'&#_'
'" '
' ° _'
' \\ _'
' ... [+]_'
'Ґ'
'їсти_'
'їжу_'
'іє'
'ішим_'
'ітні'
'іо'
'інтернет_'
'інк'
'іл'
'ік'
'ійн'
'ізо'
'іа'
'єкти_'
'ято'
'яні_'
'яно'
'яг'
'ючі_'
'шу'
'шляхом_'
'шл'
'ше'
'чне_'
'чка_'
'чита'
'чергу_'
'чека'
'часів_'
'ча'
'ч'
'цілому_'
'цілком_'
'церкви_'
'центра'
'хочемо_'
'хе'
'фільтр'
'форму_'
'фар'
'уш'
'уч'
'уст'
'ус_'
'ува'
'у'
'тієї_'
'точ'
'торгов'
'тон'
'тов'
'тип_'
'тил'
'тепло'
'темн'
'твій_'
'танк'
'таку_'
'тав'
'ській_'
'супереч'
'суду_'
'суб'
'стійк'
'стрі'
'страх'
'сторінку_'
'столиці_'
'стилі_'
'старо'
'ст'
'співпраці_'
'спа'
'слід'
'служб'
'син_'
'серпня_'
'сен'
'сек'
'самому_'
'різно'
'різко_'
'російсько'
'ром'
'розумі'
'розс'
'розд'
'роду_'
'родини_'
'родин'
'рк'
'решт'
'р'
'пс'
'проти'
'продукту_'
'програм'
'провести_'
'проблему_'
'природи_'
'препаратів_'
'правила_'
'прав'
'пошт'
'почуття_'
'починає_'
'почина'
'політики_'
'поле_'
'подій_'
'подібн'
'пов'
'побачив_'
'першій_'
'перес'
'переважно_'
'партії_'
'пан_'
'ош'
'оч'
'отримувати_'
'ота'
'ост'
'ос_'
'орн'
'організм_'
'ора'
'операції_'
'оне'
'оль'
'ол'
'однаков'
'обіця'
'обо'
'обміну_'
'нічн'
'нот'
'новин'
'ників_'
'нет'
'нема_'
'народ'
'написав_'
'місяця_'
'музики_'
'мп'
'моє_'
'мл'
'мент'
'мен'
'межі_'
'мато'
'мали'
'літа'
'лінія_'
'ліз'
'люд'
'льно_'
'логії_'
'лк'
'лан'
'критик'
'користь_'
'конфлікт'
'контроль_'
'комп'
'команд'
'коло'
'кожної_'
'картк'
'йс'
'йо'
'йний_'
'йна_'
'ита'
'ит'
'иста'
'ика'
'зу'
'зору_'
'знач'
'зможете_'
'землю_'
'зверта'
'зб'
'заці'
'заходи_'
'заход'
'запис'
'залежить_'
'зай'
'зава'
'жир'
'живо'
'же'
'еться_'
'ери_'
'ера_'
'ен'
'ела'
'ел_'
'діл'
'дій_'
'дів_'
'дя_'
'душі_'
'дуть_'
'друзів_'
'доступ_'
'документа'
'довго'
'довгий_'
'до'
'дивно_'
'ди'
'дз'
'десь_'
'державн'
'декількох_'
'двічі_'
'дат'
'дам'
'групі_'
'громад'
'гро'
'гра'
'готов'
'гл'
'гер'
'гені'
'ге'
'газу_'
'відповідає_'
'всій_'
'вс'
'впевнен'
'волос'
'водо'
'вода_'
'вого_'
'влення_'
'власник'
'влад'
'вил'
'вивчення_'
'версія_'
'великі_'
'великої_'
'вважається_'
'вач'
'ванн'
'валися_'
'вагітності_'
'буду_'
'ба_'
'ба'
'ась_'
'англійської_'
'академічн'
'ай'
'азі'
'ага'
'ави'
'Ча'
'Українськ'
'Ти'
'Стар'
'Ста'
'Сел'
'Сам'
'СТ'
'Рос'
'Прок'
'Прав'
'Поз'
'Перша_'
'Отож_'
'Основн'
'Нехай_'
'Нас'
'Назва_'
'Міс'
'Мін'
'Мій_'
'Мат'
'Мал'
'Мак'
'Майже_'
'Л_'
'Кількість_'
'Кер'
'Йо'
'Зна'
'Дякую_'
'Ду'
'Дон'
'Гот'
'Г_'
'Вод'
'Вас_'
'Бі'
'Без_'
'Євро'
'žit'
'žensk'
'ťov'
'švédsk'
'ština_'
'št'
'šil'
'šest'
'Ša'
'říkají_'
'řad'
'ňa'
'ň'
'čně_'
'čních_'
'účet_'
'ús'
'ín'
'ér_'
'ér'
'ém'
'ávání_'
'ám'
'ák_'
'áb'
'Í'
'zůstat_'
'zájem_'
'zábav'
'zvířata_'
'zt'
'způsoben'
'zpracování_'
'známé_'
'značky_'
'zn'
'zlat'
'zko'
'zk'
'zjistit_'
'zjistili_'
'zení_'
'zdá_'
'začaly_'
'ysl'
'ye'
'yd'
'xa'
'vědom'
'výzkum_'
'výlet'
'výkon_'
'vítěz'
'vámi_'
'vzácn'
'vzor'
'využít_'
'vyt'
'vyj'
'vych'
'vrchol'
'vol'
'viz'
'vit'
'velká_'
'uz'
'utn'
'určen_'
'uprostřed_'
'umí'
'ulici_'
'ukrajinsk'
'ukončení_'
'ukazuje_'
'uh'
'těžk'
'též_'
'tzv_'
'tvrd'
'troj'
'trans'
'ton_'
'tobě_'
'tich'
'teprve_'
'tek_'
'techniky_'
'tebe_'
'tat'
'tajn'
'sv_'
'střel'
'stá'
'struktur'
'strana_'
'stav'
'správně_'
'spotřeb'
'spolu'
'spolehliv'
'spoj'
'spo'
'součást_'
'současnosti_'
'soused'
'so'
'sladk'
'sku_'
'skládá_'
'sex_'
'sebe'
'sat_'
'růst_'
'rs'
'rozhodl_'
'roze'
'rní_'
'ram'
'q'
'příležitost_'
'překlad'
'pí'
'péči_'
'pát'
'právní_'
'prok'
'prohlášení_'
'pri'
'prezidenta_'
'pp'
'pou'
'potřebovat_'
'postupně_'
'postav'
'polovině_'
'pokoj'
'poho'
'pohlaví_'
'podp'
'plod'
'pevn'
'pen'
'par'
'ow'
'ovaný_'
'oun'
'otázka_'
'oslav'
'orn'
'ora'
'oni'
'ol_'
'oko'
'okamžiku_'
'ohledu_'
'odlišn'
'odešel_'
'odbor'
'oci'
'obě'
'obraz_'
'objevil_'
'objevil'
'obchodu_'
'nč'
'nými_'
'náročn'
'národ'
'nst'
'ns_'
'nky_'
'nezbytn'
'neustále_'
'nepří'
'nepři'
'nepod'
'nena'
'nemoci_'
'nemo'
'nedo'
'nech'
'navíc_'
'naučit_'
'nast'
'např_'
'nan'
'měst'
'měly_'
'ms'
'mrtv'
'motor'
'mluví_'
'ml'
'mis'
'ministerstv'
'miliony_'
'ment'
'manžel'
'malý_'
'léč'
'láska_'
'lád'
'lodě_'
'lidské_'
'lat'
'kód_'
'kterému_'
'ks'
'konec_'
'kolo'
'koli_'
'kol'
'kok'
'kniha_'
'kn'
'kce_'
'karty_'
'kanál_'
'jména_'
'jiným_'
'jezd'
'jehož_'
'jednání_'
'jednotky_'
'jar'
'iče'
'ivo'
'iti'
'ir'
'ili'
'ies_'
'ie'
'icí_'
'ických_'
'ian'
'hudební_'
'hro'
'hranici_'
'hrad'
'hra_'
'hotelu_'
'hodnocení_'
'hl'
'funguje_'
'ft_'
'fotografie_'
'fe'
'fakt_'
'ečn'
'experiment'
'eo'
'ede'
'eck'
'ebn'
'eb_'
'důvod_'
'děl'
'děd'
'déle_'
'dává_'
'dvou'
'dvoj'
'dubna_'
'ds'
'dot'
'dostala_'
'don_'
'dolů_'
'doktor'
'dok'
'doc'
'dobro'
'dnešní_'
'dne'
'dia'
'desát'
'desk'
'del'
'cíl_'
'cy_'
'cvičení_'
'chá'
'cht'
'chodí_'
'chlap'
'cha_'
'cesty_'
'cestou_'
'cesta_'
'cer'
'celá_'
'celo'
'bezpečné_'
'bank'
'autor'
'ane'
'amerických_'
'ade'
'Zr'
'Ya'
'XP_'
'Win'
'WEB_'
'Vždy_'
'Vás_'
'Up'
'Ukrajina_'
'Ukraine_'
'The'
'Tele'
'Tak'
'Ta_'
'TR'
'Spo'
'Skupina_'
'She'
'Sha'
'Sar'
'SC'
'Rusko_'
'Ros'
'Pán'
'Pá'
'Post'
'Paříži_'
'Pat'
'Pan'
'OSN_'
'Nu'
'Nic_'
'Nez'
'Nes'
'Nep'
'Navíc_'
'Město_'
'Mil'
'Mas'
'Mad'
'Les'
'Lan'
'LE'
'Kom'
'Ken'
'Kdy_'
'Jižní_'
'Jin'
'Ježíš_'
'Itálie_'
'Ins'
'Her'
'Gre'
'Fan'
'Děti_'
'Dě'
'City_'
'Centr'
'Bal'
'Au'
'AR'
'?!_'
'? '
'96_'
'77'
'53_'
'52_'
'51_'
'50'
'48_'
'180_'
'+_'
') - _'
') (_'
'& _'
'#_'
'" - _'
' £ _'
' ='
'’ _'
'іших_'
'інтер_'
'імперії_'
'ік_'
'ідеї_'
'єра_'
'ял'
'які'
'язаних_'
'юр'
'юд'
'ькі_'
'ької_'
'щення_'
'шкіри_'
'шись_'
'ший_'
'швидкість_'
'чя_'
'чорно'
'чок_'
'чих_'
'числа_'
'чат'
'частині_'
'часи_'
'ціл'
'ційн'
'церква_'
'це'
'хан'
'фін'
'фт'
'формування_'
'файлів_'
'ф'
'ую_'
'учн'
'учасників_'
'ути'
'унікальн'
'уникнути_'
'тю_'
'туп'
'труб'
'трима'
'триває_'
'тре'
'тижня_'
'технологій_'
'теся_'
'тепл'
'талі'
'сучасн'
'стіни_'
'стя'
'структур'
'сто_'
'сте'
'створити_'
'стані_'
'спочатку_'
'списку_'
'спал'
'спад'
'сором'
'собак_'
'со'
'смерт'
'сма'
'сли'
'склада'
'скаже'
'сир'
'сервіс'
'секрет'
'саму_'
'самостійно_'
'самов'
'рх'
'рта'
'російських_'
'розчин'
'розумію_'
'розмір'
'розвиток_'
'рог'
'роблять_'
'рит'
'рик'
'риб'
'рет'
'ресурсів_'
'рес'
'рекорд'
'рейтинг'
'революці'
'рев'
'рахунок_'
'рат'
'ракет'
'радіо'
'піти_'
'пік'
'підт'
'підк'
'пу_'
'пу'
'пропозиції_'
'продаж_'
'програму_'
'проведен'
'пробу'
'присутні'
'природн'
'прилад'
'приклад'
'прив'
'президент_'
'представник'
'предмет'
'прагне_'
'правов'
'прав_'
'поширен'
'потребує_'
'постави'
'популярн'
'пома'
'польсько'
'пожеж'
'подиви'
'пого'
'повільно_'
'пн'
'плава'
'плав'
'пи'
'перспектив'
'персонал'
'переклад'
'переглядів_'
'переваг'
'пацієнт'
'очн'
'оти'
'осо'
'основному_'
'ору_'
'ори'
'органів_'
'орган'
'операційн'
'опер'
'оновлення_'
'оми'
'озна'
'одночасно_'
'обу'
'обмежен'
'ню'
'нки_'
'ником_'
'ника_'
'незр'
'нез'
'неви'
'нашим_'
'наче_'
'національн'
'наступного_'
'нар'
'напрям'
'напад'
'належить_'
'найкраще_'
'найвищ'
'назви_'
'наз'
'надто_'
'надзвичайно_'
'наве'
'місі'
'місцевих_'
'міс'
'міжнародних_'
'мур'
'молодих_'
'можеш_'
'мова_'
'метод_'
'мб'
'математики_'
'ман_'
'мама_'
'літак_'
'людині_'
'люва'
'льні_'
'льни'
'льна_'
'ливо_'
'лер'
'лений_'
'лек'
'кілометрів_'
'кції_'
'кул'
'кредитн'
'красив'
'користувач'
'контролю_'
'конс'
'кольору_'
'колекці'
'класу_'
'ким_'
'карт'
'кал'
'казино_'
'каз'
'йде_'
'исти'
'ист'
'ир'
'ило_'
'илися_'
'ик'
'иди'
'ивн'
'иви'
'зробили_'
'зоні_'
'значен'
'знаходи'
'знайдете_'
'здоров'
'здатність_'
'згідно_'
'захворювань_'
'заради_'
'зара'
'запису_'
'зан'
'зам'
'залежності_'
'закону_'
'заклика'
'задоволення_'
'зад'
'загрожує_'
'загинули_'
'забира'
'життєв'
'жений_'
'етк'
'ети'
'еред'
'еньк'
'енн'
'електронної_'
'екран'
'діть_'
'діста'
'дій'
'дур'
'дума'
'дум'
'допомога_'
'доп'
'док'
'дозволя'
'дизайну_'
'дизайн_'
'дав_'
'да'
'гот'
'голосів_'
'голові_'
'головний_'
'гаряч'
'гарн'
'галере'
'вісім_'
'вільно_'
'вікна_'
'відр'
'відповіла_'
'відносини_'
'відмінн'
'відмов'
'відкрит'
'вч'
'все'
'вор'
'вов'
'внаслідок_'
'вищ'
'виш'
'виходить_'
'витяг'
'вислови'
'вирішити_'
'виробник'
'випадків_'
'вип'
'вийшла_'
'визначити_'
'видно_'
'вигра'
'ви'
'великими_'
'вважаються_'
'вашому_'
'вати'
'варіант_'
'вані_'
'бі'
'бут'
'будинки_'
'бри'
'брат'
'бра'
'бот'
'борг'
'болі'
'блі'
'ближче_'
'бли'
'безпосередньо_'
'бар_'
'аються_'
'атмосфер'
'ат'
'арт'
'апарат'
'аеропорту_'
'адресу_'
'ад_'
'аг'
'Ян'
'Які_'
'Що'
'Швеції_'
'Чехії_'
'Ху'
'Тро'
'Трамп_'
'Тор'
'Теле'
'Суд'
'Стра'
'Сто'
'Створення_'
'Ст'
'Сп'
'Сво'
'Са'
'Раніше_'
'Просто_'
'Пом'
'Пол'
'Пер'
'Останні_'
'Особливо_'
'Німеччині_'
'Німеччина_'
'Нік'
'Немає_'
'Нап'
'Можна_'
'Мер'
'Мел'
'Марі'
'Лю'
'Кри'
'Кожна_'
'Категорія_'
'И_'
'Ед'
'Дівчина_'
'Друг'
'Др'
'Головна_'
'Гер'
'Гал'
'Ви'
'Вес'
'Вар'
'Британії_'
'Бар'
'Бал'
'Ана'
'Австралії_'
'Аб'
'Ісус_'
'Історія_'
'Інформація_'
'Іноді_'
'žila_'
'žd'
'žaludku_'
'Žen'
'ůj'
'ších_'
'šu'
'šti'
'španělsk'
'šetř'
'šaty_'
'Še'
'řádu_'
'řá'
'řil_'
'řeky_'
'ňovat_'
'ěn_'
'ějších_'
'částečně_'
'čte'
'čt'
'člen'
'červené_'
'Če'
'ýt_'
'úžasn'
'účel'
'úz'
'února_'
'ö'
'óza_'
'ících_'
'ä'
'áž_'
'áze'
'án'
'álního_'
'álních_'
'áli'
'áh'
'ádě'
'ác'
'», — _'
'°_'
'zůstal'
'zřejmě_'
'získání_'
'zí_'
'závod'
'závisí_'
'západní_'
'zvan'
'ztrát'
'zrovna_'
'zr'
'zp'
'zní_'
'znamení_'
'zme'
'zlepš'
'zdroje_'
'zda'
'zavr'
'zast'
'zasedání_'
'ykl'
'ych'
'xe'
'webové_'
'věřit_'
'významn'
'význam_'
'výsledkem_'
'výsledek_'
'výrobce_'
'výkon'
'víkend'
'vál'
'vzdělání_'
'vyšl'
'vyč'
'vysokou_'
'vy'
'vodě_'
'vodu_'
'vodní_'
'vod'
'vládn'
'vlastní'
'viz_'
'viděli_'
'vidíte_'
'video'
'velikost_'
'vedoucí_'
'vašem_'
'var'
'uše'
'uš'
'uč'
'ut'
'ura'
'univerzitě_'
'uch'
'uc'
'ua'
'tříd'
'tý_'
'tí'
'tá_'
'tt'
'tráv'
'tr'
'tně_'
'tlačítko_'
'tlak_'
'tku_'
'tj_'
'til'
'tic'
'termín'
'tele'
'tel_'
'tel'
'svět'
'svá_'
'sub'
'sty_'
'stup'
'studentům_'
'stud'
'stu'
'stránce_'
'stro'
'str_'
'starost'
'správné_'
'soukrom'
'soudu_'
'son'
'sol'
'směru_'
'skutečnost_'
'sin'
'silou_'
'shi'
'sh'
'seznamu_'
'server'
'semen'
'sedm'
'seda'
'schopen_'
'samo'
'sa_'
'rát'
'rychlé_'
'rozměr'
'rodin'
'ric'
'restaurace_'
'republika_'
'ren'
'realit'
'ras'
'ral'
'rak'
'půd'
'přítomnost_'
'případ'
'připraven'
'přeprav'
'přeh'
'představitel'
'předs'
'předměty_'
'přechod'
'písm'
'pá'
'put'
'pti'
'ps'
'průmyslu_'
'právní'
'prvé_'
'provést_'
'prostoru_'
'prop'
'prom'
'profesor'
'produkty_'
'produkt_'
'produkt'
'pramen'
'pořad'
'počasí_'
'pozdě_'
'pově'
'povrchu_'
'používán'
'použit'
'potenciál_'
'pomo'
'pole_'
'pokus'
'podívat_'
'podnik'
'pobřeží_'
'pla'
'pin'
'ph'
'park_'
'pacientů_'
'oví_'
'ovu_'
'ovan'
'ouch'
'osl'
'ory_'
'organizací_'
'oper'
'oná'
'ona'
'odpor'
'odch'
'odborník'
'ochranu_'
'obrázek_'
'obrá'
'obrat'
'obdržel'
'ně'
'následujících_'
'nár'
'náhle_'
'nová_'
'nižší_'
'nit'
'nesl'
'nese_'
'ner'
'nemohou_'
'nemají_'
'nejd'
'nehod'
'nazývá_'
'nadšen'
'mýt'
'myšlení_'
'myš'
'myslíte_'
'mysl'
'musím_'
'muslim'
'možností_'
'most_'
'mono'
'modré_'
'modely_'
'mladý_'
'mit'
'ministr'
'ment_'
'matka_'
'manželství_'
'lů_'
'léta_'
'lyn'
'lv'
'logie_'
'log'
'licenc'
'lic'
'letoun'
'lení_'
'křesťan'
'kého_'
'kách_'
'květin'
'kvality_'
'kultur'
'kryt'
'koč'
'kové_'
'kostel'
'končí_'
'kont'
'konc'
'koloni'
'knihovn'
'klient'
'ken'
'každou_'
'kat'
'kam_'
'kal'
'jm'
'jistě_'
'jistý_'
'ji'
'jednom_'
'jednoduché_'
'jakém'
'jakou_'
'ička_'
'ista_'
'ismu_'
'ise'
'intern'
'instituce_'
'inn'
'inf'
'ile'
'ik'
'ih'
'ign'
'iOS_'
'hub'
'hromad'
'hrd'
'hodnot'
'hm'
'hlediska_'
'hit'
'historie_'
'hin'
'hem'
'ham'
'gl'
'get'
'ger'
'ft'
'filmu_'
'fik'
'ffe'
'eč'
'ev_'
'ero'
'enz'
'enn'
'eh'
'dřív_'
'dět'
'děláme_'
'dělo'
'dě'
'díla_'
'dí'
'drž'
'druhů_'
'druhého_'
'dospěl'
'domě_'
'dokáže_'
'dohod'
'dle'
'dk'
'dil_'
'demo'
'dav'
'daně_'
'církve_'
'cím_'
'cíle_'
'cz_'
'ctví_'
'cin'
'cháp'
'chtěli_'
'cest'
'cení_'
'bí'
'bys_'
'buď_'
'bu_'
'bre'
'bojovat_'
'bod'
'bio'
'bili'
'bel'
'be_'
'barva_'
'ass'
'art'
'ao'
'americký_'
'ace'
'['
'Záv'
'Zobrazit_'
'Zo'
'Zna'
'Zemi_'
'Wh'
'War'
'Vše_'
'Vys'
'Var'
'Ur'
'Uk'
'Ud'
'US_'
'Tř'
'Tri'
'Tor'
'Takové_'
'Str'
'Stejně_'
'Stahnout'
'St'
'Spojen'
'Sc'
'Ruskem_'
'Rus'
'Prostě_'
'Později_'
'Pov'
'Pot'
'Pom'
'Pla'
'Pas'
'Or'
'Ok'
'Odpověď_'
'Německa_'
'Nor'
'Nik'
'Nic'
'Neu'
'Nejs'
'Naš'
'Nat'
'Může_'
'Můj_'
'Měli_'
'Měl_'
'Mí'
'Mu'
'Mohl'
'Min'
'Mc'
'Mag'
'Lin'
'Lib'
'Ká'
'Kv'
'Kur'
'Kre'
'Kor'
'Ke_'
'Ke'
'Jo_'
'Jestli_'
'Japonsku_'
'Japonsko_'
'Jan_'
'Ir'
'Inform'
'IP_'
'IP'
'Existuje_'
'Dra'
'Domů_'
'Dis'
'Dev'
'Del'
'Datum_'
'Dal'
'DO'
'Cy'
'Cu'
'Cr'
'Col'
'Chr'
'Cha'
'Can'
'Bl'
'Bez_'
'Ban'
'BO'
'Až_'
'Ať_'
'Ang'
'Ali'
': “_'
'9'
'86'
'76_'
'53'
'49'
'47_'
'41'
'33'
'23'
'1993_'
'1977_'
'1972_'
'1963_'
'1950_'
'1947_'
'1944_'
'182'
'17'
'. — _'
'. -_'
'+'
'"> _'
' € _'
' • _'
' ?_'
' %'
'💐 _'
'ією_'
'іч'
'іти'
'іс_'
'іншій_'
'інфекції_'
'інтер'
'індивідуальн'
'імені_'
'ільн'
'іку'
'іб'
'єдну'
'ячи'
'яті_'
'яти'
'ятайте_'
'яни'
'ян_'
'якось_'
'якомога_'
'ягн'
'яга'
'юч'
'ютер_'
'юс'
'ювал'
'ьє'
'ьов'
'ько'
'ьке_'
'щі_'
'шукати_'
'шта'
'шк'
'шин'
'чів_'
'чудово_'
'чува'
'чорн'
'число_'
'чекає_'
'чай'
'ціни_'
'цікав'
'цька_'
'цин'
'циклу_'
'цен'
'цем_'
'хіт'
'художник'
'хороший_'
'хвилин'
'фізично'
'фігур'
'функціональн'
'фундамент'
'фр'
'форт'
'форма_'
'фактично_'
'уявити_'
'учен'
'ута'
'установ'
'уряд'
'уні'
'унд'
'ука'
'увал'
'тям_'
'тяж'
'туа'
'тривало'
'тривал'
'тож_'
'технічн'
'технологічн'
'тему_'
'такої_'
'такому_'
'таблиц'
'студентам_'
'стро'
'стр'
'створив_'
'старі_'
'стандарт'
'спробу'
'сприя'
'справжній_'
'способом_'
'спл'
'спин'
'спеціальних_'
'сон'
'сом_'
'сол'
'сни'
'слуха'
'слу'
'слов'
'скри'
'скор'
'ситуацію_'
'сил_'
'серіал'
'серйозно_'
'середньому_'
'сексуальн'
'світової_'
'світло'
'ріш'
'річ'
'рівн'
'ряд'
'рух'
'руб'
'рс'
'розширення_'
'розроб'
'розповісти_'
'розмовля'
'рож'
'рні'
'реєстрації_'
'речовини_'
'ремонт'
'рел'
'режим_'
'раці'
'рам'
'разі_'
'рази_'
'пін'
'підхід_'
'підтримку_'
'підприємств'
'підп'
'прямо_'
'проходить_'
'продукції_'
'програмі_'
'провідн'
'провів_'
'проводити_'
'приємн'
'пристроїв_'
'прист'
'прип'
'прийма'
'придума'
'приватн'
'правильно_'
'правил_'
'пояснив_'
'пошти_'
'почала_'
'поступово_'
'пос'
'порожн'
'пора'
'попередньо'
'політичн'
'полу'
'покращ'
'показан'
'позбавлен'
'поз'
'пож'
'податк'
'подав'
'погляд'
'погано_'
'повстання_'
'поведінк'
'пове'
'пля'
'площ'
'пис'
'першу_'
'перероб'
'перемогу_'
'певно'
'парламент'
'параметри_'
'пано'
'ощ'
'очима_'
'оча'
'офіційно'
'офіс'
'отримують_'
'от_'
'острова_'
'основ'
'освіту_'
'освіт'
'організація_'
'онн'
'ож'
'одяг_'
'одяг'
'оду'
'ого'
'ова'
'обій'
'обід'
'німецько'
'нє_'
'нт_'
'нт'
'нку_'
'непр'
'необхідн'
'нена'
'немов_'
'нг_'
'науки_'
'наступний_'
'напр'
'найн'
'назвою_'
'навчальних_'
'навча'
'навички_'
'навантаження_'
'міт'
'місцево'
'містер'
'міст'
'міністр'
'між'
'муть_'
'мус'
'мост'
'мор'
'моло'
'модель_'
'мовив_'
'метал'
'маєте_'
'мані'
'манд'
'ліцензі'
'ляк'
'лютого_'
'лок'
'лиц'
'лин'
'кут'
'кс_'
'кредит'
'коштів_'
'кот'
'коре'
'континент'
'кова_'
'ко'
'ключов'
'клас_'
'квартир'
'кв'
'категорії_'
'камін'
'камен'
'казав_'
'йно_'
'йно'
'йних_'
'ймовірно_'
'иц'
'зріл'
'зростання_'
'зніма'
'зникл'
'значн'
'зміню'
'змін'
'зміг_'
'змі'
'змо'
'зма'
'злочин'
'зли'
'зим'
'зен'
'зе'
'зві'
'зван'
'зва'
'збільшен'
'збит'
'збира'
'зберегти_'
'запа'
'заліз'
'закон_'
'загинув_'
'завод'
'завершен'
'завантаження_'
'жни'
'живуть_'
'жер'
'ета'
'ера'
'ені'
'емі'
'емоційн'
'економічного_'
'економіки_'
'еві_'
'ево'
'е'
'думки_'
'дрі'
'дружина_'
'дружин'
'достатньо_'
'досвіду_'
'дор'
'допомагають_'
'додаток_'
'додатков'
'добу_'
'дис'
'директор'
'дим'
'див'
'джен'
'дерева_'
'дел'
'дек'
'двоє_'
'дво'
'двадцять_'
'дал'
'губ'
'гру_'
'громадян_'
'готу'
'голови_'
'гай'
'віта'
'вільно'
'військово'
'вій_'
'відчувати_'
'відст'
'відс'
'відрізня'
'відносин_'
'встановити_'
'вранці_'
'вперед_'
'вночі_'
'вно'
'вни'
'вм'
'влада_'
'включаючи_'
'вих'
'виражен'
'виклада'
'визнача'
'вигляді_'
'виг'
'вибори_'
'вечора_'
'верт'
'вен'
'великим_'
'веж'
'вар'
'важливим_'
'вав'
'в'
'більшу_'
'більш'
'білий_'
'бік_'
'бій'
'бібліотек'
'букв'
'буду'
'буд'
'бува'
'бру'
'болю_'
'блок'
'битв'
'берег'
'безпечно'
'безп'
'бачу_'
'бач'
'банк'
'ау'
'аре'
'анськ'
'анг'
'анал'
'адреса_'
'аві'
'автор'
'Який_'
'Швидк'
'Чорно'
'Чим_'
'Часто_'
'Ур'
'Треба_'
'Тер'
'Тем'
'Сте'
'Спо'
'Софі'
'Со'
'Се'
'Святого_'
'Св'
'РА'
'Пізніше_'
'Пра'
'Пот'
'Поп'
'Показати_'
'Плат'
'Пла'
'Пан'
'Одна_'
'Ніхто_'
'Нова_'
'Наші_'
'Н_'
'Мене_'
'Мед'
'Марія_'
'Марс'
'Лів'
'Лише_'
'Ле'
'Кін'
'Кро'
'Крас'
'Комі'
'Компанія_'
'Кат'
'КА'
'Зо'
'Зе'
'Згодом_'
'Закон'
'Зак'
'Заг'
'Зав'
'Дан'
'Давайте_'
'Гу'
'Гру'
'Гре'
'Господ'
'Вір'
'Воно_'
'Вис'
'Виб'
'Великої_'
'Ве'
'Ваші_'
'Ваш'
'Був_'
'Бре'
'Бон'
'Бер'
'Батьк'
'Анти'
'Азії_'
'Італія_'
'Іс'
'Інтер'
'živo'
'žili_'
'ži'
'žel'
'šť'
'štěn'
'školení_'
'říkal_'
'říjnu_'
'řidič'
'řady_'
'Řek'
'ěla_'
'číst_'
'čín'
'čtyř'
'čtvrt'
'čné_'
'členy_'
'černé_'
'Čím_'
'ýs'
'účt'
'úspěšně_'
'ívání_'
'íl'
'íkov'
'ícím_'
'íc'
'éni'
'áři_'
'áz'
'ával_'
'É'
'}'
'získá'
'získala_'
'záznam'
'závisl'
'zásob'
'zve'
'zv'
'zu'
'známý_'
'zna'
'zlo'
'zit_'
'zh'
'zdroj'
'zc'
'zač'
'zan'
'za'
'yo'
'ylo'
'yb'
'ya'
'vůdc'
'věz'
'výši_'
'výzv'
'výrobu_'
'výrobky_'
'vých_'
'vítězství_'
'váno'
'vzpomín'
'vznikl'
'vyšetřování_'
'vyv'
'vysl'
'vypadat_'
'vyn'
'vym'
'vozu_'
'vou_'
'vor'
'vlád'
'vidím_'
'vid'
'vesnice_'
'vali_'
'užitečné_'
'užitečn'
'usm'
'určitě_'
'určit_'
'určen'
'upr'
'un_'
'uměleck'
'ukázal_'
'ukr'
'udrž'
'ud_'
'těl_'
'ture'
'tup'
'trp'
'trh'
'tras'
'tka_'
'titul_'
'tetování_'
'test'
'teln'
'telefonu_'
'technologi'
'síti_'
'sílu_'
'syna_'
'syn_'
'syn'
'sví'
'svoji_'
'stáva'
'státní'
'stylu_'
'stroje_'
'stroj'
'ster'
'stanice_'
'standard'
'stan'
'spánku_'
'spočívá_'
'společenství_'
'spi'
'současně_'
'souladu_'
'soukromé_'
'soud_'
'soubory_'
'složky_'
'sli'
'skutečn'
'sklen'
'silnou_'
'silnici_'
'siln'
'sice_'
'sha'
'severní_'
'set'
'sekund'
'sedí_'
'sc'
'rů_'
'rys'
'ry'
'rva'
'ruský_'
'ruku_'
'rp'
'rou'
'roh'
'rodinn'
'rodina_'
'roc'
'regul'
'rea'
'rd_'
'původu_'
'půl'
'příští_'
'příčiny_'
'přítele_'
'přístupu_'
'připraven_'
'připomíná_'
'připojení_'
'přijít_'
'přesta'
'předpoklad'
'předpis'
'přední_'
'pěti_'
'pust'
'pul'
'práv'
'prv'
'prov'
'protest'
'projekt_'
'programů_'
'prezident_'
'praxe_'
'pravo'
'poš'
'počtu_'
'pozna'
'pozitivní_'
'považován'
'používají_'
'potřebný'
'potřeb'
'postel'
'populace_'
'pon'
'poměr'
'polovina_'
'pokračoval_'
'pokoje_'
'pohod'
'podzim_'
'podobě_'
'podmínk'
'pe_'
'past'
'pac'
'ožen'
'ovoce_'
'ovo'
'ovin'
'ovaného_'
'ouš'
'otro'
'oto'
'otc'
'ostr'
'oru_'
'ore'
'operace_'
'ons_'
'onal'
'oly'
'oli'
'ola'
'okolností_'
'ohl'
'oha'
'odpovědnost_'
'odoln'
'odo'
'odh'
'ochrany_'
'och'
'obyčejn'
'obnovit_'
'obchod_'
'oa'
'nějak_'
'nýbrž_'
'níže_'
'ními_'
'níku_'
'návrat'
'náv'
'nát'
'následně_'
'náměstí_'
'náboženství_'
'ny'
'niv'
'neví'
'nev'
'neuro'
'nesta'
'nesmí'
'nelze_'
'nejprve_'
'nejmenší_'
'nejdůležitějších_'
'negativní_'
'nec'
'nebyly_'
'nastav'
'nak'
'nadále_'
'městem_'
'mín'
'moři_'
'modul'
'mobilní_'
'mk'
'mg_'
'matky_'
'materiály_'
'mask'
'mail'
'léčba_'
'lékaře_'
'lon'
'logi'
'lně_'
'll_'
'lis'
'link'
'lil'
'lel'
'lah'
'kři'
'kým_'
'kuchyně_'
'kterého_'
'ks_'
'krátké_'
'kruh'
'krok'
'koupit_'
'korun'
'koně_'
'kontaktu_'
'konkrétní_'
'komplex'
'kole'
'knihu_'
'knih_'
'kmen'
'kles'
'ki'
'kd'
'každém_'
'kap'
'kancelář'
'jinou_'
'jem'
'jejího_'
'jedno_'
'jediná_'
'jedinc'
'jat'
'jasn'
'jakým_'
'iá'
'ite'
'ině_'
'inova'
'ine'
'individuální_'
'imi'
'ici_'
'ici'
'ich'
'hvězd_'
'hrub'
'hospodářsk'
'hn'
'hlav'
'hlas'
'hl_'
'gr'
'front'
'firma_'
'extra'
'evropské_'
'ett'
'etov'
'eně_'
'enti'
'elektro'
'ele'
'ejší_'
'edi'
'dětem_'
'dělá'
'dívky_'
'díl'
'dvakrát_'
'don'
'dní'
'dnech_'
'dn'
'dla_'
'dis'
'diagnóz'
'del_'
'dec'
'dala_'
'dal'
'cykl'
'ct_'
'cl'
'chů'
'chorob'
'chal'
'centrum_'
'cc'
'buňky_'
'buňk'
'budovy_'
'bub'
'bon'
'bolesti_'
'bojov'
'blog'
'blo'
'bitv'
'bazén'
'barv'
'ban'
'aso'
'are'
'ard_'
'anou_'
'anglicky_'
'ai'
'agent'
'adu_'
'adresu_'
']'
'Zp'
'Zi'
'Začal'
'Zatímco_'
'Zat'
'You'
'XI'
'Wo'
'Wiki'
'Wal'
'Vždycky_'
'Vá'
'Velikost_'
'Ut'
'Um'
'Ub'
'Tý'
'Téměř_'
'Typ_'
'Tu'
'Tro'
'Trans'
'Tom'
'Th'
'Test'
'Tady_'
'Svat'
'Street_'
'Stra'
'Sn'
'Slovensk'
'Sho'
'Sat'
'Sam'
'ST'
'Republic_'
'RU'
'Přej'
'Předchozí_'
'Posl'
'Port'
'Polsk'
'Pol'
'Podívejte_'
'Pod_'
'Plat'
'Part'
'Pac'
'PO'
'PE'
'Ost'
'Os'
'Ol'
'Oh'
'Office_'
'Někdy_'
'Návrh_'
'Nikdo_'
'News'
'Ned'
'Nap'
'Můžeme_'
'Měla_'
'Muž_'
'Master_'
'Management_'
'MP'
'MI'
'Len'
'Kř'
'KO'
'Jí'
'Jd'
'Jan'
'Jak'
'Informace_'
'IS'
'IR'
'IO'
'Hr'
'Home_'
'Ham'
'HT'
'Group_'
'GP'
'Euro'
'ES_'
'Copyright_'
'Cla'
'CS'
'CE'
'Byli_'
'Bul'
'Bat'
'BMW_'
'BC'
'Austrálie_'
'Ar'
'Američan'
'Ala'
'Al'
'Ak'
'Air_'
'Ac'
'AM'
'@_'
'82'
'80'
'73'
'700_'
'69_'
'67_'
'60'
'58_'
'48'
'43'
'27'
'20'
'1981_'
'1941_'
'1920_'
'181'
'166'
'.[_'
'.: _'
'. ... [+]_'
', «_'
', (_'
'):_'
'%_'
'!»_'
'!!'
'! '
' >_'
'… '
'”'
'їт'
'їл'
'їзди'
'їв'
'іший_'
'ічні_'
'іться_'
'істот'
'інь_'
'інтернет'
'інструменти_'
'інструмент_'
'інструкці'
'інн'
'інженер'
'інд'
'інакше_'
'ілю'
'іза'
'ідо'
'ідея_'
'іде'
'іда'
'ігор_'
'ібн'
'єт'
'єм'
'єктів_'
'єкт'
'європейськ'
'єв'
'яє_'
'ях'
'якась_'
'як'
'язки_'
'язана_'
'явилися_'
'яв_'
'юн'
'юйте_'
'ького_'
'ьких_'
'ьд'
'щороку_'
'шум'
'шся_'
'шоу_'
'шок_'
'шкіл_'
'шкоди_'
'широко_'
'швидкості_'
'шах'
'шанс_'
'чут'
'чу_'
'чорний_'
'човн'
'чник'
'членом_'
'червон'
'чемпіон'
'част'
'чар'
'чав_'
'цінн'
'цікаво_'
'цтво_'
'цифр'
'центру_'
'хід_'
'ходи'
'хні'
'хл'
'хв'
'хал'
'ха_'
'фірм'
'філ'
'фотографій_'
'фор'
'фон'
'фи_'
'фестивал'
'фел'
'файл'
'уємо_'
'усти'
'урн'
'ура_'
'упе'
'увалися_'
'убити'
'тіс'
'тц'
'тува'
'третій_'
'трет'
'травм'
'торгівлі_'
'тора_'
'тон_'
'том'
'тно'
'тни'
'тки_'
'тк'
'тити_'
'тиму'
'тиме_'
'тивн'
'тестування_'
'територі'
'терапії_'
'тел'
'тварини_'
'тварина'
'тал'
'тай'
'схож'
'сфері_'
'стільки_'
'стру'
'стратегії_'
'стра'
'стоїть_'
'сторінка_'
'стор'
'стиль_'
'статус_'
'стату'
'станції_'
'стандарти_'
'ста_'
'спробувати_'
'справи_'
'справжньо'
'справжн'
'справ_'
'способів_'
'споруд'
'сподоба'
'союз'
'солдат'
'сне'
'смерть_'
'слів_'
'сла'
'склад'
'сист'
'символ'
'сильно_'
'сиді'
'середньої_'
'сер'
'селі_'
'світов'
'різноманітн'
'рівно'
'руш'
'руками_'
'рук_'
'руд'
'рт_'
'розташован'
'розробки_'
'розміщен'
'розв_'
'робітник'
'роботі_'
'роблю_'
'рну'
'ризик_'
'рж'
'речовин_'
'рец'
'ресурси_'
'ресурс'
'ресторан'
'релігійн'
'революції_'
'рд'
'раху'
'ранку_'
'рами_'
'раку_'
'рай'
'раді'
'рад'
'раб'
'пізно_'
'підводн'
'підвищен'
'півд'
'пус'
'психо'
'професійно'
'професор'
'прок'
'проживання_'
'проекту_'
'програмного_'
'проводять_'
'приїжджа'
'прич'
'прит'
'прим'
'прикр'
'прийом_'
'призначення_'
'пошук'
'пошкоджен'
'походження_'
'похи'
'потяг'
'потреб_'
'потр'
'посу'
'посад'
'поняття_'
'поліції_'
'полю'
'поло'
'покину'
'позицію_'
'подібні_'
'подруг'
'подр'
'повідоми'
'повтор'
'повинно_'
'побачи'
'побач'
'пло'
'пити_'
'пита'
'письменник'
'пил'
'печ'
'переб'
'пах'
'патологі'
'пасажир'
'парку_'
'падіння_'
'оє'
'оцін'
'ох'
'останніх_'
'особист'
'особа_'
'особ'
'оренд'
'організмі_'
'орг'
'онов'
'олю'
'окремо_'
'одразу_'
'одні_'
'одно_'
'одиниц'
'од_'
'огі'
'ог'
'ову_'
'ований_'
'обран'
'оборони_'
'ніш'
'ніч'
'ніт'
'нями_'
'нял'
'носі'
'нок_'
'низько'
'неймовірн'
'незначн'
'незважаючи_'
'невелики'
'наявності_'
'нара'
'нан'
'намагався_'
'належать_'
'належа'
'найс'
'найбільший_'
'назва_'
'надал'
'нада'
'міш'
'міня'
'мільйони_'
'міжнародної_'
'молоді_'
'могил'
'мов'
'мн'
'мистецтва_'
'мислення_'
'мети_'
'мережу_'
'менши'
'мел'
'медичн'
'машин'
'матеріалів_'
'матері_'
'матері'
'маршрут'
'маленько'
'маленьк'
'ліки_'
'ляч'
'ляці'
'ляд'
'людям_'
'людськ'
'людиною_'
'любові_'
'люблю_'
'льськ'
'лом'
'логі'
'лит'
'листа_'
'лиз'
'ливо'
'кін'
'кімнат'
'курс'
'куль'
'крізь_'
'критичн'
'кращ'
'кори'
'конкур'
'колишні'
'колектив'
'код'
'клас'
'квіти_'
'картин'
'камер'
'каб'
'йський_'
'йн'
'йл'
'йдуть_'
'иця_'
'иво'
'ивни'
'зігра'
'зува'
'зрозумів_'
'зор'
'знімк'
'знищити_'
'зни'
'знань_'
'знали_'
'знак'
'знайом'
'знайден'
'змін_'
'зможе_'
'змов'
'зл'
'зк'
'земля_'
'здійсню'
'згодом_'
'зг'
'збро'
'заходів_'
'заснований_'
'заряд'
'заробля'
'зар'
'запла'
'запитання_'
'зап'
'замов'
'залоз'
'залишився_'
'залишаються_'
'жодної_'
'жодного_'
'живе_'
'жал'
'еш_'
'ефекту_'
'еті'
'ето'
'етап'
'еся_'
'ерів_'
'ерн'
'ер'
'ену_'
'енк'
'електричн'
'екстр'
'ека'
'дія_'
'дія'
'діа'
'думаєте_'
'дськ'
'друзями_'
'друж'
'другого_'
'дра'
'досягнення_'
'доступні_'
'доступн'
'досконал'
'дороги'
'домови'
'дом'
'документів_'
'дозволу_'
'дозвол'
'додому_'
'довелося_'
'довг'
'дл'
'диха'
'дик'
'дивився_'
'джерело_'
'джа'
'дерев'
'денн'
'далеко_'
'дай'
'давн'
'гін'
'гру'
'гран'
'господар'
'гори'
'голос'
'головних_'
'гео'
'гел'
'гармоні'
'галь'
'вірус_'
'вірн'
'вільн'
'війна_'
'відрізняється_'
'відповісти_'
'відповідати_'
'відповідальності_'
'відп'
'відома_'
'відновлення_'
'відкрито'
'відзнача'
'відвідувачів_'
'відбуваються_'
'вів_'
'вчи'
'втрат'
'встановлю'
'вою_'
'волог'
'вник'
'влітку_'
'вклад'
'виявили_'
'вираз'
'випадок_'
'вимог_'
'використовує_'
'виконувати_'
'вик'
'визначен'
'вивчити_'
'виве'
'вибух'
'верх'
'велику_'
'вел'
'вве'
'вашій_'
'вашу_'
'важливий_'
'ваго'
'бін'
'білі'
'біж'
'будівлі_'
'будівельн'
'будів'
'бренд'
'брат_'
'боя'
'бою_'
'бла'
'бет'
'безумовно_'
'безкоштовні_'
'безкоштовн'
'бездротов'
'бачите_'
'бас'
'бал'
'атр'
'архів'
'ана'
'ама'
'ам'
'ально_'
'актор'
'активність_'
'ай_'
'ажа'
'аеропорт'
'ади'
'автомобіль_'
'автоматичн'
'Шве'
'Ша'
'Ш_'
'Чоловік_'
'Чо'
'Чер'
'Час_'
'Хар'
'Франція_'
'Тра'
'Тобто_'
'Спа'
'Слов'
'Син'
'Сен'
'Сек'
'Сан'
'Річ'
'Росією_'
'Російськ'
'Розроб'
'Роб'
'Республіки_'
'Праг'
'Поч'
'Поста'
'Перш_'
'Перевір'
'Пара'
'Ол'
'Ніч'
'Ніколи_'
'Но'
'Нео'
'Нев'
'Наша_'
'НАТО_'
'Мік'
'Мас'
'Март'
'МА'
'Люд'
'ЛА'
'Кур'
'Корол'
'Конс'
'Кол'
'Кла'
'Китаї_'
'Карл'
'Канад'
'Кан'
'Кам'
'Зокрема_'
'Зас'
'Завантаж'
'Ен'
'Дізнайтеся_'
'Док'
'Джордж'
'Джек'
'Дж'
'ДНК_'
'Гітлер'
'Гроші_'
'Гл'
'Ген'
'Вже_'
'Ван'
'Бе'
'Банк'
'Ара'
'Англі'
'Американськ'
'Інтернеті_'
'Інді'
'žijí_'
'žal'
'šího_'
'ší'
'ště_'
'špatné_'
'školu_'
'škod'
'šat'
'šance_'
'šach'
'Švédsk'
'řečeno_'
'řekne_'
'Ř'
'ňoval'
'ěli_'
'ěle'
'ěj'
'Ě'
'ču'
'člověkem_'
'čko'
'černo'
'čeká_'
'Číny_'
'ýval'
'ýv'
'účinky_'
'úvod'
'útok_'
'úst'
'úspor'
'úh'
'ón'
'ív'
'íta'
'íku_'
'ét'
'ář'
'áv'
'ádá_'
'}}{{_'
'zůstávají_'
'základních_'
'zy_'
'zvíř'
'zvykl'
'zvyk'
'zvon'
'zru'
'způsob'
'zpráva_'
'zpráv'
'známo_'
'zničen'
'znamena'
'znalostí_'
'zl'
'zkušeností_'
'zkus'
'zi_'
'zelen'
'zazn'
'zajímav'
'zajištění_'
'zabít_'
'ys_'
'web'
'way_'
'všude_'
'všemi_'
'všeho_'
'víd'
'váz'
'vzork'
'využívá_'
'využití_'
'vytr'
'vysoká_'
'vys'
'vypo'
'vyl'
'vydán'
'vt'
'vra'
'vost'
'voln'
'volby_'
'vola'
'vním'
'vlastnosti_'
'vky_'
'vik'
'vhodn'
'vest'
'verzi_'
'ver_'
'venku_'
'vedou_'
'vedení_'
'vatel'
'užívat_'
'uživatelé_'
'uživatel'
'uální'
'určité_'
'urč'
'unie_'
'umožnil'
'uma'
'ulární_'
'ult'
'uli'
'třídy_'
'tří'
'třicet_'
'těmi_'
'těhotn'
'téma_'
'tém'
'tz'
'typick'
'tvář_'
'tvor'
'tvo'
'tun'
'tuc'
'ts_'
'trest'
'tradiční_'
'tmav'
'ting_'
'tina_'
'tim'
'term'
'tenk'
'telné_'
'tek'
'technologií_'
'tam'
'tal_'
'tal'
'sítí_'
'sídl'
'série_'
'světl'
'svi'
'such'
'stán'
'stál_'
'styl'
'studovat_'
'stránku_'
'stránka_'
'strav'
'strach_'
'stov'
'stoup'
'stop'
'stin'
'stejn'
'star'
'sse'
'spousta_'
'sportovní_'
'společn'
'spokojen'
'speciální_'
'souboru_'
'sociálních_'
'soch'
'sob'
'snížení_'
'smu_'
'smrtí_'
'smrt_'
'smr'
'služb'
'složit'
'složek_'
'slov_'
'slav'
'sl'
'sky_'
'skupinou_'
'sklo'
'skal'
'sit'
'silný_'
'silnice_'
'serv'
'ser'
'selhání_'
'seděl'
'sedl'
'schov'
'sche'
'sb'
'san'
'samostatné_'
'různými_'
'rát_'
'rychlost_'
'rozšíření_'
'rozvod'
'roztomil'
'rozpad'
'rozp'
'rozk'
'rozhodně_'
'rozhodn'
'rot'
'rostliny_'
'ros'
'román'
'role_'
'rnu'
'rm'
'rie'
'režimu_'
'rem_'
'rekord'
'rek'
'ref'
'reakce_'
'raj'
'rada_'
'qui'
'půjčk'
'příčinou_'
'příjm'
'přáteli_'
'připravit_'
'připojil'
'přijmout_'
'přijal'
'přichází_'
'přib'
'předtím_'
'předpokláda'
'přednost_'
'pěš'
'pěst'
'pěl'
'pěkně_'
'péče_'
'pátek_'
'pání_'
'py_'
'publikova'
'psan'
'průměrn'
'práv_'
'prvky_'
'prst'
'profes'
'produktu_'
'proces'
'princip'
'pres'
'pravidelně_'
'požádal'
'požadavky_'
'počítače_'
'pozici_'
'pozi'
'pova'
'potřebujeme_'
'potravin_'
'posl'
'populární_'
'pondělí_'
'pomalu_'
'poly'
'pok'
'poje'
'podob'
'podniky_'
'podn'
'pochopit_'
'planet'
'placen'
'pir'
'peč'
'pet'
'pers'
'para'
'padl'
'ořil'
'oči'
'označen'
'ovní'
'ovl'
'ovatel'
'oucí_'
'otázku_'
'oste'
'ostatními_'
'ostatních_'
'orů_'
'oro'
'org_'
'ord'
'orbit'
'opustit_'
'oprav'
'operační'
'onu_'
'omo'
'omezení_'
'omezen'
'ome'
'olej_'
'okno_'
'oka'
'ok_'
'oji'
'odpovědět_'
'odpovědn'
'odpovědi_'
'odmít'
'odi'
'oběti_'
'obv'
'obrovsk'
'obor'
'obnov'
'oble'
'objev'
'obce_'
'nů_'
'německá_'
'někde_'
'nízk'
'níky_'
'nář'
'národů_'
'nálad'
'nád'
'novém_'
'novo'
'nos_'
'nomin'
'nit_'
'nim_'
'nikoho_'
'nijak_'
'než'
'neú'
'nezn'
'neutr'
'nesp'
'nen'
'nemusí_'
'nek'
'nejvyšší_'
'nejv'
'nejlepších_'
'nechá'
'nechce_'
'nechal_'
'nebudete_'
'nd_'
'naplněn'
'namí'
'nah'
'nabí'
'mód'
'muzeum_'
'mr'
'motiv'
'molekul'
'mod'
'mluví'
'mistr'
'mini'
'min'
'miluj'
'miliard_'
'mem_'
'maximální_'
'mato'
'majitel'
'líb'
'lí_'
'lékařsk'
'lé_'
'lé'
'love'
'listy_'
'lig'
'lidských_'
'liber'
'ley_'
'letí_'
'led_'
'lb'
'kámen_'
'kurzů_'
'kum'
'kterými_'
'krátk'
'krásné_'
'královsk'
'král_'
'krve_'
'kroky_'
'krok_'
'kritik'
'kož'
'koš'
'kování_'
'kontrol'
'konf'
'koncem_'
'kolen'
'kolej'
'kola_'
'klub'
'klasick'
'klad'
'ker'
'kartu_'
'kampaně_'
'kamarád'
'kam'
'jších_'
'jízd'
'jsk'
'js'
'jmenova'
'jmen'
'jižní_'
'jiná_'
'jejích_'
'jede'
'išť'
'ital'
'isté_'
'isto'
'iss'
'investor'
'inter'
'intenzivní_'
'ina'
'ik_'
'ihned_'
'ien'
'id_'
'háze'
'hvězdičkové_'
'ht_'
'ht'
'hráčů_'
'hrozn'
'hrdin'
'hračky_'
'horší_'
'hormon'
'hled'
'hlavu_'
'hlasov'
'historick'
'heslo_'
'he_'
'gui'
'gt'
'gre'
'graf'
'go'
'ght'
'ger_'
'gam'
'fran'
'fotografií_'
'fotbal'
'form'
'fond'
'evn'
'etn'
'etik'
'estr'
'ert'
'enu'
'enou_'
'eln'
'ekt'
'důvěr'
'důvody_'
'důsledku_'
'děl_'
'dě_'
'dán'
'dám'
'druhu_'
'druh'
'doz'
'doslova_'
'dol'
'dobrý_'
'dno'
'dlouhý_'
'dlouhou_'
'dl'
'dil'
'dev'
'design'
'dek'
'dar'
'dalším_'
'cyklus_'
'cova'
'cou'
'con'
'com'
'ckého_'
'civilizac'
'civil'
'chytr'
'chu_'
'chráněn'
'chránit_'
'chova'
'chat'
'certifikát'
'centra_'
'centr'
'cen_'
'bře'
'běžné_'
'bě_'
'bus'
'budoucnosti_'
'bud'
'bri'
'boty_'
'bot'
'bomb'
'bezpečnosti_'
'bes'
'baterie_'
'bas'
'aň'
'ače'
'az_'
'avo'
'aut'
'atr'
'atn'
'ativ'
'armáda_'
'ari_'
'aných_'
'ank'
'ance_'
'ana'
'americké_'
'all_'
'alit'
'alist'
'aku'
'aktivit'
'ager'
'aa'
'`_'
'Změn'
'Zlat'
'Zem'
'Zdr'
'Zd'
'Zajímav'
'Zach'
'Zab'
'Věd'
'Výsledky_'
'Vysok'
'Volvo_'
'Vid'
'Velké_'
'Velká_'
'Vaš'
'Uv'
'Trump_'
'Tre'
'Tou'
'Syn'
'Stro'
'Sti'
'Spr'
'Soud'
'Sim'
'Serv'
'Ser'
'SR'
'Ron'
'Rom'
'Robert_'
'Ran'
'RT'
'Přís'
'Přij'
'Ps'
'Prod'
'Power_'
'Por'
'Poprvé_'
'Poli'
'Pohlaví_'
'Pl'
'PA'
'On'
'ON_'
'Něco_'
'Nex'
'Nan'
'Name_'
'Nakonec_'
'NT'
'NI'
'NA_'
'Mě'
'Myslí'
'Musím_'
'Moskv'
'Moje_'
'Mod'
'Mno'
'Mikael_'
'Meta'
'Max_'
'MO'
'ME_'
'Log'
'Lisbeth_'
'Lis'
'Life_'
'Leon'
'LO'
'Kyjev'
'Kos'
'Kontakt'
'Kle'
'Kat'
'Kar'
'Kan'
'Kam'
'Josef'
'Jos'
'John_'
'Jedno'
'Jaký_'
'JA'
'Inf'
'Indie_'
'Histori'
'Hav'
'Han'
'Gua'
'Gro'
'Gri'
'Gen'
'Fre'
'Fil'
'FS_'
'FA'
'Evropa_'
'Es'
'EC_'
'Děkuji_'
'Dáv'
'Dá'
'Dva'
'Dub'
'Dostupné_'
'Dokonce_'
'Den'
'Dea'
'DA_'
'Czech_'
'Cou'
'Cho'
'Chl'
'Chi'
'Chceme_'
'Char'
'Ce'
'Cat'
'Cal'
'CO'
'CC'
'Bude_'
'Britsk'
'Boj'
'Bet'
'Bel'
'BA_'
'Av'
'Autopůjčovna_'
'Ant'
'Andre'
'An'
'Aby_'
'=_'
'://_'
'98_'
'95'
'92'
'89_'
'87_'
'86_'
'82_'
'81_'
'79_'
'78'
'7'
'65'
'64'
'63_'
'56_'
'55'
'45'
'42'
'38'
'34'
'1984_'
'1983_'
'1976_'
'1960_'
'1946_'
'1945_'
'1943_'
'164'
'01'
'.”_'
'...._'
') – _'
'('
'&_'
'$ _'
' № _'
' [[_'
' [...]_'
' : _'
' . _'
' - "_'
' +'
'→ _'
'‘_'
'їха'
'ішо'
'ічних_'
'ічний_'
'іці'
'іц'
'іст'
'іну_'
'інтерес_'
'інтерес'
'інст'
'іноземни'
'інновації_'
'інвест'
'імунн'
'імп'
'іло'
'ідею_'
'ідей_'
'івн'
'іве'
'іан'
'єр'
'єднання_'
'єдиний_'
'єдин'
'євре'
'яч'
'ятнадцят'
'ятки_'
'ям'
'якісн'
'язаний_'
'являє_'
'ющ'
'юридичн'
'ьськ'
'ьо_'
'ьми_'
'ьма'
'ьк'
'щі'
'щу'
'щит'
'щин'
'щаслив'
'штраф'
'штаті_'
'шов'
'шни'
'шлях'
'шла'
'шки_'
'широк'
'шил'
'шев'
'чує'
'чули_'
'чоловічо'
'чоловіком_'
'чик_'
'череп'
'червоно'
'чер'
'чені_'
'чени'
'частіше_'
'частково_'
'цінності_'
'ціль'
'ційни'
'цифрово'
'циклі'
'цикл_'
'ца'
'хімічн'
'хс'
'храм'
'хотіла_'
'хороші_'
'хлопців_'
'хвороб'
'хвилю'
'хвилину_'
'характеристики_'
'фінансово'
'фільмів_'
'фільмі_'
'фізики_'
'фф'
'функції_'
'функцій_'
'фун'
'фу'
'французьк'
'фонд'
'фол'
'фл'
'факт_'
'уючи'
'усьому_'
'уряд_'
'уре'
'управлінні_'
'упи'
'уп'
'уму_'
'умов_'
'ули'
'удар'
'уванням_'
'уван'
'увала_'
'тування_'
'тт'
'тськ'
'тр'
'тори_'
'товариств'
'товари_'
'тобою_'
'тні_'
'тні'
'тку_'
'тко'
'тихо_'
'тис'
'типів_'
'тимуть_'
'тик'
'тий_'
'тест_'
'термо'
'телефону_'
'твори'
'тах_'
'тарі'
'тарн'
'танцю'
'такими_'
'табор'
'сільськ'
'ськими_'
'схо'
'суспільстві_'
'сува'
'студії_'
'стражда'
'стом'
'стовп'
'стипенді'
'стин'
'стел'
'стеж'
'створює_'
'ством_'
'стають_'
'статис'
'старі'
'стану_'
'стабільн'
'спільнот'
'спільни'
'спільн'
'співробітників_'
'спу'
'справ'
'спостеріга'
'спорт'
'споживач'
'споживання_'
'спині_'
'сп'
'союзу_'
'соціально_'
'сос'
'сонячн'
'сну_'
'сму'
'сліп'
'службов'
'слаб'
'скр'
'складно_'
'складає_'
'ски'
'скарб'
'скажу_'
'ск_'
'ситуації_'
'ситуаці'
'системі_'
'сигнал'
'сері'
'серц'
'середовища_'
'сервер'
'сел'
'секретар'
'сб'
'сан'
'самостійн'
'сайтів_'
'річки_'
'ріс'
'різниця_'
'різн'
'різк'
'різ'
'рід'
'рівня_'
'ріа'
'руха'
'рус'
'руках_'
'рук'
'руйнівн'
'рськ'
'рост'
'рослин'
'розподіл'
'розві'
'робот'
'рис'
'ринок_'
'реч'
'рекомендаці'
'рек'
'регулярн'
'рег'
'реальність_'
'рва'
'рац'
'пір'
'піл'
'підтверди'
'підпис'
'підключен'
'підготов'
'підвищити_'
'північно'
'північ'
'південно'
'публічн'
'психологі'
'професіонал'
'професійних_'
'прот'
'пропону'
'промов'
'проми'
'прожива'
'проектом_'
'приєдна'
'пристрій_'
'присвячен'
'принести_'
'приму'
'прийшов_'
'прийняття_'
'призначений_'
'премії_'
'представлен'
'праці_'
'прапор'
'практични'
'практичн'
'практик'
'прави'
'пп'
'поширення_'
'почув_'
'поч'
'пох'
'потрібн'
'потенційн'
'постачальники_'
'поряд_'
'поро'
'порно'
'попра'
'поперед'
'політик'
'політ'
'поля_'
'покоління_'
'покаж'
'подія'
'поділи'
'поділ'
'подібни'
'подорожі_'
'поговорити_'
'погляд_'
'повідомля'
'повні'
'поверхні_'
'повернути_'
'пляшк'
'плив'
'питанн'
'писа'
'пив'
'печінк'
'печер'
'пес'
'першої_'
'перетворю'
'перер'
'переп'
'перелі'
'переказ'
'перей'
'передов'
'перевірки_'
'перевірити_'
'перебувають_'
'пен'
'пе'
'патр'
'пане_'
'пале'
'палац'
'оя'
'оцінка'
'оц'
'отру'
'отримали_'
'ота_'
'остей_'
'останньо'
'особисто'
'особи_'
'основно'
'осв'
'орт'
'організаці'
'ону_'
'онс'
'оновлен'
'ологічн'
'ол_'
'округ'
'одо'
'одній_'
'одержа'
'ове_'
'ованих_'
'обсяг'
'обробк'
'образ'
'обидві_'
'нути'
'нуд'
'нувся_'
'нті'
'нта'
'нс'
'носи'
'нової_'
'нн'
'нк'
'нит'
'ник'
'неск'
'нео'
'неможливо_'
'нел'
'незабаром_'
'негативно'
'невід'
'невда'
'неба'
'наявн'
'нач'
'наці'
'настро'
'населен'
'нарешті_'
'напи'
'намага'
'найбільше_'
'назавжди_'
'надцят'
'надання_'
'навчитися_'
'навчального_'
'навпаки_'
'місячн'
'міськ'
'міжнародного_'
'міжнародний_'
'міжнародн'
'мої'
'моєї_'
'мось_'
'моря_'
'морськ'
'моно'
'монастир'
'моменту_'
'молодий_'
'мобільних_'
'мно'
'мк'
'миру_'
'мир_'
'мертв'
'менеджер'
'медичної_'
'мах'
'матч_'
'матеріал_'
'математичн'
'масов'
'масл'
'малюнк'
'мало'
'мак'
'майбутнього_'
'мад'
'літніх_'
'літн'
'ліній'
'ліні'
'лікарня'
'лідери_'
'лідер'
'ліво'
'лян'
'лют'
'лов'
'ливим_'
'лев'
'кіно_'
'кінець_'
'курсу_'
'купо'
'купи'
'кти'
'кру'
'крат'
'корупці'
'коротк'
'користуватися_'
'корист'
'корисн'
'контракт'
'контр'
'коней_'
'конверт'
'комплексн'
'командир'
'команда_'
'колі'
'коледж'
'коле'
'коди'
'ково'
'книгу_'
'книг_'
'кни'
'клієнт'
'клітини_'
'клітин'
'клінічн'
'класичн'
'кида'
'ках_'
'кас'
'карн'
'календар'
'каза'
'кажуть_'
'кав'
'кабел'
'йся_'
'йм'
'йки_'
'йв'
'ищ'
'ичні_'
'иф'
'ито'
'исн'
'инськ'
'ина'
'иму'
'имо_'
'иків_'
'ика_'
'ивши_'
'ивні_'
'зьк'
'зр'
'зовнішньо'
'зображен'
'зні'
'знов_'
'зниз'
'знижк'
'знайшли_'
'змінив'
'зму_'
'зит'
'зил'
'здатний_'
'здавалося_'
'згада'
'звичайн'
'зверн'
'звел'
'збуд'
'збирає'
'заявк'
'зації_'
'захист'
'захисн'
'заст'
'засновник'
'запуск'
'запис_'
'залишив_'
'залиш'
'зали'
'закінчення_'
'загальн'
'завантаж'
'забути_'
'заборони'
'жува'
'жертв'
'жел'
'жев'
'ефективн'
'ефект_'
'еф'
'етн'
'ері'
'ео'
'енськ'
'енни'
'ених_'
'ени'
'енерго'
'елі_'
'еля'
'ельні'
'електронн'
'ект'
'експерт'
'економ'
'еди'
'ега'
'евн'
'діяти_'
'діо'
'дім_'
'ділов'
'дякую_'
'дь'
'душ'
'дрібни'
'друга_'
'дре'
'дощ'
'досяг'
'доступу_'
'дос'
'допоможуть_'
'домі'
'доктор_'
'додатки_'
'договор'
'довір'
'дован'
'дний_'
'дни'
'дитиною_'
'дина'
'дивитися_'
'дж'
'дещо_'
'державі_'
'державної_'
'державного_'
'деб'
'дах'
'даному_'
'давайте_'
'гірш'
'громадянськ'
'грам'
'готель_'
'гостей_'
'головним_'
'головне_'
'головн'
'голова_'
'говорять_'
'гляд_'
'геть_'
'гей'
'гат'
'віч'
'вітамін'
'віс'
'вік_'
'відш'
'відчути_'
'відт'
'відсутність_'
'відстань_'
'відсотків_'
'відправи'
'відповідал'
'відомі_'
'відомий_'
'відом'
'відновлен'
'відкрити_'
'віддален'
'відбудеться_'
'вчител'
'входить_'
'вход'
'вулиці_'
'втрача'
'втрати_'
'вте'
'вруч'
'ворож'
'ворог'
'вори'
'волі_'
'вок'
'воду_'
'водою_'
'внес'
'власні_'
'власну_'
'власних_'
'вл'
'включають_'
'вказу'
'виявля'
'вич'
'виходу_'
'виход'
'виставк'
'висот'
'високою_'
'вирішили_'
'вирішення_'
'вироб'
'вир'
'випущен'
'випро'
'виника'
'вина'
'вимір'
'вимоги_'
'вилуч'
'використовуємо_'
'викону'
'виконав'
'виключ'
'виклика'
'викид'
'визначи'
'вижи'
'виділен'
'видим'
'видал'
'виготовля'
'вивча'
'вибором_'
'вжива'
'вересні_'
'величин'
'великого_'
'вед'
'вашим_'
'ваше_'
'варіанти_'
'варі'
'вантаж'
'вано'
'ван'
'важливе_'
'важлив'
'вагітн'
'бір'
'бувають_'
'божевільн'
'бог'
'бов'
'бив'
'бері'
'беруть_'
'бере_'
'бата'
'басейн'
'баро'
'ача'
'ацію_'
'ата_'
'аспект'
'аси'
'анальний_'
'аліст'
'альна_'
'ало'
'акц'
'активно'
'аде'
'автомобілі_'
'автобус'
'абсолютн'
'Яко'
'Як'
'Щ'
'Шо'
'Чар'
'Ціна_'
'Цікав'
'Церква_'
'Центральн'
'Хлоп'
'Усе_'
'Тома'
'Том_'
'Тобі_'
'Тан'
'ТО'
'Сучасн'
'Список_'
'Сон'
'См'
'Слід_'
'Ска'
'Світ_'
'Російської_'
'Рим'
'Рег'
'РФ_'
'Піс'
'Проблем'
'Початок_'
'Порт'
'Полі'
'Поки_'
'Показ'
'Подивіться_'
'Питання_'
'Ост'
'Основні_'
'Одно'
'Од'
'ОС'
'ООН_'
'Нов'
'Національн'
'Найп'
'Найбільш'
'Наз'
'Наді'
'Нав'
'Наб'
'НО'
'Москві_'
'Москви_'
'Молод'
'Лісбет_'
'Лін'
'Лондоні_'
'Лас'
'Куб'
'Крим'
'Комп'
'Китаю_'
'Кас'
'Знач'
'Знай'
'Змін'
'Звісно_'
'Зві'
'Зам'
'Зал'
'Жу'
'Жа'
'Дов'
'Дз'
'Деп'
'Гран'
'Господь_'
'Голо'
'Ган'
'Він'
'Віктор'
'Відповідно_'
'Вч'
'Всього_'
'Вперше_'
'Вп'
'Використання_'
'Вз'
'Великий_'
'Вел'
'Вд'
'Важливо_'
'Біблії_'
'Бул'
'Бу'
'Бро'
'Бос'
'Бол'
'Бож'
'Бого'
'Бла'
'Акт'
'Азіатська_'
'Азі'
'Автор'
'Або_'
'Іран'
'Ім'
'ží'
'žádn'
'žov'
'žlut'
'ženu_'
'želez'
'Žádný_'
'Žid'
'Že_'
'Ů'
'ťte_'
'šéf'
'štít'
'špičk'
'špatný'
'šlo_'
'šli_'
'šit'
'šesti_'
'šanci_'
'řízen'
'řít'
'říc'
'řik'
'Řecko_'
'Řeck'
'ňují_'
'ňk'
'ěst'
'ěno_'
'ěna_'
'čtí_'
'čov'
'čním_'
'členem_'
'činí_'
'češtin'
'čeká'
'časov'
'časopisu_'
'Či'
'Červen'
'Čas_'
'ývá_'
'ýle'
'ýk'
'ü'
'účtu_'
'účetní'
'účastník'
'účast'
'útoku_'
'úspěšn'
'úrovně_'
'úr'
'úkol_'
'ú_'
'ón_'
'íž'
'íš'
'ívá_'
'íval_'
'ís'
'íně_'
'ín_'
'íka_'
'íj'
'íb'
'év'
'áše'
'áza'
'ásl'
'áp'
'álně_'
'álním_'
'áhn'
'áda'
'zůstává_'
'zí'
'záva'
'záv'
'západ'
'zám'
'zákazníky_'
'zra'
'způsoby_'
'způsobit_'
'změnil'
'změn_'
'zkoušky_'
'zka'
'zer'
'zen_'
'zdě'
'zdál'
'zbraně_'
'začn'
'začalo_'
'zauj'
'zastup'
'zasla'
'yho'
'wo'
'win'
'web_'
'věčn'
'věrn'
'vědí_'
'věd'
'výšk'
'výz'
'výt'
'výsledků_'
'výs'
'výroby_'
'výrazn'
'výp'
'výhody_'
'výhod'
'výbuch'
'vír'
'více'
'vé'
'vztah_'
'vznik'
'vzdělávací'
'vyvinut'
'vytá'
'vytváří_'
'vytváření_'
'vytvořil'
'vysvětlit_'
'vyroben'
'vyk'
'vyhra'
'vydal_'
'vyd'
'vrátí_'
'vrací_'
'volné'
'vodo'
'vnější_'
'vlá'
'vlivem_'
'vlaku_'
'vk'
'vin_'
'vidíme_'
'viditeln'
'veškeré_'
'venkov'
'velkým_'
'velkého_'
'velko'
'velk'
'vele'
'vedl_'
'vedením_'
'vazb'
'uživatelů_'
'učn'
'uvedl'
'uvedených_'
'ute'
'upl'
'upe'
'upa'
'und'
'umožňují_'
'ukov'
'uklid'
'událostí_'
'událost_'
'uce'
'ubo'
'třída_'
'tř'
'těm_'
'těles'
'týdny_'
'tón'
'tuhle_'
'trž'
'trénink'
'trá'
'trvá_'
'trvat_'
'tre'
'touhu_'
'tou'
'tot'
'tm'
'tlum'
'tle'
'tla'
'tko'
'tip'
'tho'
'thi'
'tes_'
'temn'
'tem_'
'televize_'
'telefonní_'
'telefon_'
'tele_'
'teen'
'tah'
'tac'
'sí_'
'symboli'
'sy'
'světla_'
'svobodu_'
'svobodn'
'svaz'
'sval'
'středověk'
'stát'
'stvím_'
'stva_'
'stv'
'studií_'
'student_'
'strávil_'
'strom'
'stroj_'
'stres_'
'stre'
'strategick'
'sto_'
'sto'
'stic'
'stavb'
'stanovi'
'stanoven'
'stanici_'
'sra'
'spát_'
'správný'
'správná_'
'spojené_'
'spodní_'
'soukromí_'
'souborů_'
'soubor_'
'som'
'snah'
'snadné_'
'smích'
'smlouvy_'
'sma'
'slyšet_'
'službu_'
'složení_'
'slovy_'
'slov'
'skř'
'skému_'
'skvělé_'
'skvěl'
'skupinu_'
'skr'
'ski'
'sing'
'silně_'
'sil'
'sho'
'sexuální_'
'sexu'
'severo'
'sestra_'
'sak'
'sah'
'rét'
'ré'
'ráda_'
'ručn'
'ruských_'
'rusk'
'rukama_'
'rub'
'rsk'
'rozšíř'
'rozvíjí_'
'rozumí'
'rozs'
'rozliš'
'rozhraní_'
'rozh'
'rozb'
'rovno'
'ron'
'román_'
'rokem_'
'robot'
'rob'
'rni'
'riziko_'
'rem'
'reform'
'rece'
'rec'
'rb'
'rav'
'rat_'
'rap'
'ral_'
'raket'
'raději_'
'rac'
'původní_'
'přís'
'přírod'
'přím'
'příl'
'příkladem_'
'příklad_'
'přání_'
'přičemž_'
'přived'
'přirozený_'
'připojen'
'přines'
'přijímá'
'představuje_'
'představení_'
'předseda_'
'přec'
'publikac'
'psych'
'průměru_'
'provádí_'
'provozu_'
'prostřed'
'prostor'
'prosinci_'
'propa'
'prohlížeč'
'profil_'
'produkce_'
'produk'
'procent'
'premiér_'
'pre'
'pravi'
'pravděpodobn'
'prací_'
'pracovník'
'pracovních_'
'pracoval'
'poškození_'
'počíta'
'pozice_'
'pozdní'
'povinnost_'
'používání_'
'používan'
'používal'
'potřebují_'
'potlač'
'potenciál'
'posíl'
'posádk'
'postaven'
'poskytování_'
'poskyt'
'poruch'
'porozumění_'
'por'
'popis'
'poněkud_'
'pomohl_'
'pomal'
'poloviny_'
'policist'
'pole'
'pokyn'
'pokusil'
'pohřb'
'pohár_'
'pohl'
'podě'
'podv'
'podstatě_'
'podobně_'
'podobn'
'podnik_'
'podmínek_'
'podiv'
'pláž'
'plát'
'planetě_'
'plan'
'pl'
'pit'
'pil'
'pevně_'
'peri'
'per_'
'part'
'papež'
'památk'
'pa_'
'ožit_'
'očima_'
'označ'
'ozen'
'oxid'
'ox'
'ovna_'
'ovlivňuje_'
'ovi'
'ove'
'ovaných_'
'our'
'otá'
'otn'
'ostrov'
'osm_'
'ose'
'ors'
'orgánů_'
'organism'
'opatrn'
'ons'
'ono'
'one'
'oku'
'okres'
'okr'
'ohrožen'
'oficiálně_'
'oficiální'
'ofi'
'odstranit_'
'odp'
'odkaz'
'odeb'
'odborné_'
'ochotn'
'obř'
'občané_'
'obyvatel'
'obtíž'
'oboru_'
'oblastí_'
'obecně_'
'obchod'
'něte_'
'němž_'
'něl'
'nějších_'
'nějaká_'
'níků_'
'ník'
'nástrojů_'
'nárůst'
'náp'
'nále'
'nákup_'
'náklady_'
'nádhern'
'nác'
'novými_'
'novinář'
'novink'
'nohy_'
'ning_'
'nie_'
'nevz'
'nesmírně_'
'nese'
'nervov'
'ner_'
'nepřátel'
'nepl'
'neob'
'nemáte_'
'nemocn'
'největších_'
'nejvyšší'
'nejméně_'
'nejdůležitější_'
'nedošlo_'
'nedostatk'
'neda'
'nebe'
'našli_'
'navštív'
'navzájem_'
'navržen_'
'nastavení_'
'nastaven'
'napad'
'naopak_'
'naleznete_'
'nahoru_'
'nabízejí_'
'na'
'měř'
'měsíci_'
'městech_'
'mých_'
'míry_'
'mužem_'
'muž'
'musíme_'
'ms_'
'mpi'
'modr'
'modern'
'mnohé_'
'mm'
'mlh'
'mimink'
'mil_'
'mezi'
'metod'
'mel'
'medi'
'mb'
'matick'
'mate'
'mani'
'maj'
'mail_'
'léčit_'
'lét'
'lék_'
'léh'
'lásky_'
'lán'
'ls_'
'lož'
'loď_'
'lové_'
'log_'
'lka_'
'livost'
'limit'
'lie_'
'lidu_'
'lidstv'
'lidský_'
'lidov'
'lež'
'letectv'
'les_'
'lem_'
'lej'
'lc'
'lav'
'lam'
'lac'
'ků'
'kříž'
'káva'
'kyt'
'květ'
'kuř'
'kus'
'kultury_'
'krásný_'
'krás'
'královn'
'krá'
'krvi_'
'krut'
'krku_'
'koupeln'
'kostela_'
'konzum'
'kontaktní_'
'kontakt'
'konstrukce_'
'konal'
'komunity_'
'komunika'
'kompl'
'komentáře_'
'kojen'
'koho'
'klá'
'každá_'
'kariéry_'
'kapel'
'kanály_'
'kalhot'
'jit'
'jení_'
'jem_'
'jel'
'jednotliv'
'jediné_'
'jedinečné_'
'jedin'
'jazyky_'
'jaký'
'jakmile_'
'ičky_'
'ič_'
'ivé_'
'ive'
'iva'
'itě_'
'itelné_'
'itel'
'isty_'
'istick'
'ir_'
'io_'
'io'
'internetových_'
'internet_'
'institucí_'
'inov'
'ini'
'info_'
'ine_'
'ilo'
'iku'
'ika_'
'ight'
'ick'
'há_'
'hvězdy_'
'hrob'
'hova'
'hou_'
'hostin'
'horsk'
'horní_'
'hmotnost_'
'hlás'
'hloub'
'hledá'
'hlavního_'
'hladin'
'hes'
'herec_'
'hem_'
'hel'
'harmoni'
'gy_'
'gran'
'got'
'gol'
'gno'
'generac'
'ge'
'gard'
'galaxie_'
'gal'
'fyzické_'
'funkcí_'
'fs'
'fr'
'fotografi'
'flo'
'filmy_'
'filmov'
'fal'
'faktorů_'
'fakta_'
'fakt'
'eř'
'export'
'evropských_'
'evropsk'
'erv'
'eru_'
'ers_'
'erg'
'ept'
'eně'
'eno'
'elov'
'elné_'
'ein'
'efekt'
'eb'
'džu'
'důstojník'
'důležitý_'
'důkazy_'
'dů'
'dřevěn'
'dělají_'
'díle'
'duše_'
'duš'
'druž'
'drog_'
'dostali_'
'dor'
'doporučení_'
'doporuč'
'dokonale_'
'doj'
'dohody_'
'dni'
'dlouhé_'
'dl_'
'div'
'dit'
'diplom'
'deš'
'designu_'
'deseti_'
'dem_'
'dej'
'day_'
'date'
'cům_'
'cítí_'
'cítit_'
'cookie_'
'chybě'
'chuť_'
'chs'
'chladn'
'chceš_'
'chceme_'
'cestujících_'
'cent'
'celosvětov'
'celkem_'
'cele'
'cat'
'běže'
'býval'
'bí_'
'by'
'budoucí_'
'bru'
'brojen'
'bral'
'bož'
'box_'
'bodů_'
'bod_'
'blízkosti_'
'blízko_'
'blond'
'ble_'
'ble'
'biologick'
'bin'
'bezplatn'
'ber_'
'barvu_'
'barev_'
'banky_'
'ažen'
'aň_'
'azy'
'azen'
'automobilů_'
'auto'
'atomov'
'atom'
'ata_'
'asl'
'ask'
'apo'
'ape'
'apa'
'anc'
'americk'
'ama_'
'aliz'
'akutní_'
'aktuální_'
'akr'
'akc'
'agres'
'ae_'
'ady_'
'adr'
'ado'
'aci'
'Zemřel_'
'Ze_'
'Zb'
'Zaj'
'XVIII_'
'World_'
'Wood'
'Všechno_'
'Vietnam'
'Vel'
'VO'
'VE'
'Uživatel'
'Uč'
'Us'
'Ukrajinsk'
'USB_'
'UK_'
'Tři_'
'Tímto_'
'Top_'
'Tl'
'Thomas'
'Thajsk'
'Team'
'Tat'
'Tal'
'TI'
'Světov'
'Sur'
'Spe'
'Software_'
'Smích_'
'Smrt_'
'Smart'
'Sko'
'Sexy_'
'Severní_'
'Sen'
'Sea'
'Scr'
'Science_'
'School_'
'Samo'
'SO'
'SMS_'
'SI'
'SD_'
'Rá'
'Rozhodnutí_'
'Roll'
'Práv'
'Prom'
'Prohl'
'Poč'
'Pos'
'Porn'
'Pon'
'Polska_'
'Pok'
'Play_'
'Park'
'PT'
'PC_'
'Otec_'
'Ori'
'Opera'
'Open'
'OS_'
'Německ'
'Náš_'
'Nová_'
'Nev'
'Nauč'
'Nad'
'Nachází_'
'NO'
'NATO_'
'Mont'
'Mnozí_'
'Mluv'
'Mir'
'Micro'
'Mezi'
'Mer'
'Mel'
'Me_'
'Martin_'
'Mars'
'Mark'
'Maria_'
'Mají_'
'Mac'
'MS_'
'MA_'
'Ltd_'
'Londýně_'
'Lit'
'LI'
'Květiny_'
'Kter'
'Kru'
'Krista_'
'Knih'
'Kel'
'Kdyby_'
'Kal'
'Já'
'Jiné_'
'Jedin'
'Izrael'
'Internet_'
'Indi'
'In_'
'IA'
'Hy'
'Hot_'
'Hon'
'Hol'
'Hned_'
'Hm'
'Hitler'
'Hermion'
'Hea'
'Hal'
'HD'
'HA'
'Gon'
'Global_'
'Free_'
'Frank'
'Francouzsk'
'Francii_'
'Fire'
'Fair'
'Exp'
'Eli'
'ES'
'ER'
'Dů'
'Děl'
'Dr'
'Doufám_'
'Dop'
'Don'
'Dobrý_'
'Dne_'
'Dia'
'DS'
'DE_'
'Comm'
'Casino_'
'Ca'
'CM'
'CE_'
'Bě'
'Británie_'
'Br'
'Bor'
'Bon'
'Bohem_'
'Bit'
'Bio'
'Bern'
'Berlín'
'Beach_'
'Bas'
'BA'
'Avšak_'
'Ass'
'Asijské_'
'Ari'
'Argentin'
'Are'
'Arab'
'And'
'Amatér'
'AT_'
'AP'
'AD'
'AB'
'AA'
'?»_'
';'
'97'
'85'
'68_'
'54'
'450_'
'350_'
'1982_'
'193'
'1900_'
'183'
'163'
'16'
'137'
'122'
'101_'
'02'
'. .'
'-]_'
'( _'
' … _'
' —'
' · _'
' "'
'�'
'… [+] _'
'… "_'
'“, „_'
'“'
'ґе'
'їхня_'
'їн'
'їзд'
'ію'
'істотн'
'істин'
'іспанськ'
'існувал'
'існува'
'існ'
'іро'
'іні'
'інформаційних_'
'інфекці'
'інтелект'
'інтегр'
'інструмент'
'інс'
'іне'
'інвестор'
'інвестиційн'
'імі'
'іли_'
'іли'
'ізму_'
'ідеально'
'єрі_'
'єктив'
'єдн'
'єдиною_'
'єдино'
'яче'
'ятниц'
'ятдесят'
'ясн'
'яскраві'
'ярн'
'японськ'
'янськ'
'янка_'
'яне'
'ямі_'
'якісь_'
'якісни'
'яй'
'язн'
'язик'
'яз'
'явся_'
'явищ'
'явиться_'
'явил'
'явився_'
'ючо'
'юк'
'юз'
'ья'
'ьйон'
'ьг'
'щодня_'
'щини_'
'шука'
'шту'
'штат_'
'шт'
'шос'
'шов_'
'шли_'
'шкір'
'школах_'
'шка_'
'шка'
'шел'
'шан'
'чітко_'
'чч'
'чої_'
'чоловіки_'
'чогось_'
'чку_'
'чко'
'читання_'
'чись_'
'чеськ'
'черг'
'червони'
'чемпіонат'
'чекаю'
'чекати_'
'часі_'
'частк'
'частин'
'чарівни'
'чарівн'
'чан'
'ціон'
'цілі_'
'цікавить'
'цікави'
'цят'
'цям_'
'цьки'
'цит'
'цв'
'хів'
'художн'
'християн'
'хотілося_'
'хороши'
'холодно'
'ходити_'
'хм'
'хвал'
'хати_'
'характеру_'
'х'
'фінансові_'
'фінанс'
'філософ'
'футбол'
'функція_'
'функці'
'фокус'
'фла'
'факти_'
'уявл'
'ущ'
'учнів_'
'учит'
'участі_'
'утриму'
'уся_'
'ускладн'
'уси'
'урі'
'уряду_'
'уникати_'
'уля'
'улюблен'
'ульт'
'уль'
'укр'
'укладен'
'уй'
'узяв_'
'удов'
'увійшл'
'уванн'
'тіт'
'тіл'
'тій_'
'тяг'
'тю'
'тті_'
'трус'
'труднощі_'
'тривалість_'
'трива'
'третьо'
'тощо_'
'товар'
'тл'
'тиц'
'тит'
'тис_'
'типи_'
'тижні_'
'тет'
'термін'
'теракт'
'теорія_'
'телес'
'текс'
'театр_'
'творі'
'тво_'
'тверд'
'тварин'
'таємниц'
'татуювання_'
'тами_'
'талант'
'таблетки_'
'таб'
'сія_'
'сіт'
'сімейн'
'сяг'
'ською_'
'східн'
'схем'
'сфо'
'сучасних_'
'сусід'
'супроводжу'
'сумнів'
'сук'
'суботу_'
'стіна'
'стін_'
'стіл_'
'стів_'
'ступеня_'
'струм'
'страшн'
'страв'
'стоя'
'стороні_'
'сторону_'
'стис'
'стимул'
'стил'
'стві_'
'створ'
'старий_'
'стара_'
'стандартн'
'стався_'
'співробітник'
'справі_'
'спр'
'спостерігати_'
'спокійн'
'спожива'
'спові'
'спалах'
'соціальн'
'сор'
'сок'
'собор'
'собак'
'соб'
'сно'
'смертн'
'см_'
'слабк'
'сл'
'скі'
'складних_'
'сильні_'
'сильний_'
'сила'
'сид'
'серйозн'
'середовищі_'
'середній_'
'середн'
'сервіс_'
'секунд_'
'свідом'
'свята_'
'сам'
'рішень_'
'ріл'
'рій_'
'різними_'
'ряду_'
'рядк'
'рух_'
'російський_'
'росту_'
'росл'
'рос'
'розуміють_'
'розт'
'розповіда'
'розміру_'
'розділі_'
'розділя'
'розділ'
'розвиваються_'
'розвивати_'
'розваг'
'розва'
'розби'
'робоч'
'рну_'
'рни'
'рл'
'рин'
'рид'
'ретельно_'
'рест'
'реп'
'редактор'
'регіону_'
'регіональн'
'реальному_'
'реагу'
'рах'
'рас'
'ранні'
'рак'
'району_'
'район'
'раз'
'раді_'
'пішли_'
'пісн'
'підход'
'підтримує_'
'підрозділ'
'підписа'
'підніма'
'підня'
'підкресл'
'підготовки_'
'підвищу'
'пут'
'птахів_'
'процесі_'
'прото'
'протесту'
'проп'
'промовив_'
'пром'
'прокл'
'прокат'
'продовжу'
'продовжи'
'продава'
'програмою_'
'провінці'
'проводяться_'
'провод'
'проблемою_'
'причиною_'
'приход'
'прихован'
'пристрої_'
'природі_'
'природні_'
'природний_'
'припа'
'принцип_'
'прил'
'приклад_'
'прийнят'
'приймає_'
'придба'
'пригод'
'приго'
'прибуток_'
'прет'
'прест'
'премі'
'представниц'
'представляти_'
'правос'
'правильно'
'поїздки_'
'поїзд'
'пої'
'поєднує_'
'почува'
'початково'
'походить_'
'потрібні_'
'потрапля'
'пото'
'постійн'
'послідовн'
'посла'
'посил'
'порівняно_'
'порівня'
'порі'
'пору'
'порт'
'пор'
'помо'
'помилки_'
'помилк'
'помил'
'померли'
'польськи'
'половині_'
'половин'
'поли'
'покращити_'
'покр'
'покла'
'покарання_'
'показують_'
'позиці'
'позитивно'
'подорож_'
'подорож'
'подив'
'подан'
'повіри'
'повідомлень_'
'повторю'
'поверх'
'повертається_'
'поверта'
'поблизу_'
'плеч'
'пле'
'пластиков'
'планує'
'планування_'
'плану_'
'печінки_'
'першою_'
'переїха'
'перетвори'
'перетворення_'
'перерва'
'пережива'
'передбачен'
'передачі_'
'переговор'
'переглянути_'
'перевіря'
'перево'
'певні_'
'пасажирів_'
'пас'
'паро'
'парк_'
'пал'
'пак'
'очікування'
'охо'
'офі'
'отрима'
'оте'
'острові_'
'остаточно_'
'останнє_'
'остання_'
'ором_'
'ори_'
'організува'
'організацій_'
'оптиміз'
'оплат'
'опису'
'онськ'
'онер'
'ології_'
'ола'
'оку'
'окси'
'окр'
'ой'
'озброєн'
'оді'
'одруж'
'однак_'
'одж'
'оголошен'
'оги'
'ову'
'ово_'
'овим_'
'обраний_'
'областях_'
'обира'
'оби_'
'обережні'
'ніяких_'
'нь'
'нці'
'нувати'
'нту'
'нтов'
'нте'
'норма'
'номер'
'ново'
'новими_'
'нови'
'ництв'
'низьк'
'низк'
'неч'
'неприємно'
'неправильн'
'неможлив'
'немовля'
'нелегк'
'нек'
'нейтральн'
'негайно_'
'нег'
'небезпечни'
'неб'
'нашу_'
'нашою_'
'наше_'
'нах'
'нафти_'
'нати'
'наступні_'
'наступному_'
'наступним'
'наступн'
'наступ'
'настрій_'
'наслідк'
'направл'
'напої_'
'наповн'
'напо'
'написати_'
'написан'
'налаштування_'
'найчастіше_'
'найкращо'
'найд'
'найбільш'
'надзвичайн'
'надається_'
'надан'
'наві'
'набір_'
'набу'
'наб'
'міцн'
'місцях_'
'місти'
'містечк'
'мів_'
'музе'
'мс'
'моєму_'
'море_'
'моні'
'мол'
'можливи'
'можлив'
'модул'
'мм'
'млрд_'
'миті_'
'мить_'
'мис'
'механізм'
'методів_'
'мета'
'мес'
'мертвих_'
'менш'
'мемо'
'межах_'
'медицини_'
'маєш_'
'маєт'
'машину_'
'матиме_'
'матеріал'
'мана'
'мам'
'малю'
'майстр'
'майстерн'
'лікарі_'
'лікарні_'
'лід'
'ліг'
'ляр'
'ляда'
'лює_'
'лювати_'
'любител'
'любив_'
'льов'
'льні'
'льної_'
'льних_'
'лот'
'лос'
'лом_'
'лого'
'лоб'
'лиши'
'листопада_'
'лист'
'липні_'
'лим'
'лива_'
'лив_'
'леті'
'лері'
'лено_'
'ленд'
'ледь_'
'легко'
'легк'
'ландськ'
'ламент'
'кіст'
'кімнати_'
'кількістю_'
'кіль'
'курсів_'
'куп'
'кування_'
'кувал'
'крок'
'кровот'
'крим'
'крила_'
'крил'
'крив'
'крем'
'кре'
'кращі_'
'кош'
'кохан'
'костюм'
'кос'
'корпоративн'
'королев'
'короб'
'корабель_'
'коп'
'конфі'
'контракт_'
'контексті_'
'конте'
'конкурент'
'конкретно'
'коміс'
'кому_'
'компонент'
'компетен'
'компанію_'
'коментар_'
'код_'
'ковий_'
'кован'
'кну'
'книга_'
'км'
'клітин_'
'кли'
'кле'
'класі'
'класи'
'кла'
'кислот'
'кий_'
'керівник'
'керування_'
'квітів_'
'квітні_'
'каю'
'каш'
'кати_'
'картини_'
'кард'
'капітан'
'каналі'
'канал'
'камінь_'
'кадр'
'кад'
'кав_'
'йці_'
'йтесь_'
'йська_'
'йп'
'йом'
'ймовірн'
'йма'
'ича'
'иці'
'их'
'иту'
'исті'
'исто'
'ину'
'ино'
'ине'
'инг'
'име'
'или'
'илася_'
'зірок_'
'зустрічається_'
'зустрі'
'зупини'
'зупин'
'зробила_'
'зроби'
'зрад'
'зов'
'зня'
'значно'
'знайде'
'знайд'
'зміст'
'змінюється_'
'зміну_'
'змінил'
'змушений_'
'зможуть_'
'зменшення_'
'злі'
'зир'
'зин'
'зерн'
'зер'
'здатн'
'згор'
'звісно_'
'звідки_'
'звук'
'звичайно'
'збірн'
'збільшується_'
'збільшити_'
'збільш'
'зберігати_'
'збере'
'західн'
'захистити_'
'зах'
'зате_'
'засоби_'
'засоб'
'заснован'
'запропонувати_'
'запропонував_'
'заповід'
'заповн'
'запл'
'запиту'
'запитав_'
'запита'
'заняття_'
'занур'
'заміж_'
'залуч'
'залишити_'
'залиши'
'залежн'
'закінчив'
'закінч'
'закрива'
'закох'
'законом_'
'законо'
'законни'
'закони_'
'закл'
'зака'
'займаю'
'зайв'
'зазнача'
'задоволен'
'зада'
'загроз'
'загального_'
'зага'
'завтра_'
'заводу_'
'забуд'
'жінкою_'
'жі'
'жодних_'
'жодна_'
'жні'
'жки_'
'життям_'
'жив_'
'жені_'
'жда'
'жати'
'еш'
'ечн'
'ефективно_'
'ети_'
'етапі_'
'еса_'
'епі'
'енції_'
'енц'
'ент_'
'еної_'
'ено'
'емн'
'ема'
'ельс'
'елементи_'
'елемент'
'експорт'
'експериментальн'
'експеримент'
'економічних_'
'економічний_'
'екологічн'
'еді'
'еде'
'его'
'дієт'
'дію'
'дір'
'дідус'
'дід'
'дядьк'
'дю'
'дух'
'думаєш_'
'думала_'
'дружини_'
'дри'
'доходи'
'дох'
'дот'
'доступни'
'дослідницьк'
'дослідник'
'дослідн'
'дослідження'
'дорі'
'домашні'
'документи_'
'доки_'
'додатк'
'договір_'
'догляд'
'дно_'
'дитячи'
'дить'
'диви'
'джерела_'
'дження_'
'деталі_'
'детальн'
'держава'
'депутат'
'депо'
'департамент'
'ден_'
'демо'
'дев_'
'двома_'
'дверей_'
'дали_'
'далек'
'дала_'
'гурт_'
'гуманітарн'
'гріх'
'груп_'
'гри'
'грецьк'
'гре'
'гравці_'
'гр'
'гою_'
'гостро'
'гост'
'горо'
'гови'
'глобально'
'гло'
'герої'
'гемо'
'гад'
'вітер_'
'віро'
'вільний_'
'вікно_'
'військових_'
'віді'
'відчин'
'відч'
'відсутні'
'відсутності_'
'відстані_'
'відре'
'відпочива'
'відповідн'
'відомих_'
'віднос'
'відкриття_'
'відео'
'відділення_'
'відгуки_'
'відвідування_'
'відби'
'вів'
'вчинк'
'вті'
'втратити_'
'втратил'
'втом'
'всіма_'
'всяк'
'всюди_'
'встановлення_'
'вста'
'вро'
'врах'
'вплива'
'вою'
'воді'
'вогонь_'
'вниз_'
'вна_'
'вмира'
'властивості_'
'власне_'
'владу_'
'виявляється_'
'виявлено_'
'вияви'
'виті'
'вису'
'виступає_'
'високу_'
'висо'
'висловлюва'
'висл'
'виробництво_'
'виробл'
'вироби_'
'випустив_'
'випробува'
'вино_'
'винн'
'вимов'
'використовуватися_'
'використовува'
'використані_'
'виконує_'
'виконан'
'викликає_'
'викликати_'
'визнання_'
'визнан'
'виживання_'
'виготов'
'вибух_'
'вибору_'
'взаємоді'
'взаємо'
'взаємн'
'вет'
'вести_'
'весн'
'версії_'
'версію_'
'вельми_'
'велика_'
'вез'
'ведуть_'
'веде_'
'введен'
'вважають_'
'вбив'
'ват'
'варіантів_'
'ваний_'
'вало_'
'важливі_'
'важ'
'біс'
'біблі'
'бю'
'бус'
'будівництво_'
'будувати_'
'буває_'
'брюнетка_'
'бро'
'бре'
'браузер'
'боротися_'
'боре'
'бой'
'бни'
'бн'
'бля'
'блог'
'бит'
'би'
'бен'
'бел'
'бакалавр'
'бажан'
'багат'
'аєм'
'ає'
'аю_'
'ач_'
'ату'
'атор'
'атн'
'атаку'
'арти'
'армії_'
'ара_'
'ара'
'анці'
'анн'
'англійською_'
'англійськ'
'аналіз_'
'амі'
'американському_'
'альні_'
'альних_'
'альбому_'
'аль_'
'алу'
'ало_'
'алкогол'
'але'
'алася_'
'акумулятор'
'акул'
'активно_'
'активни'
'актив'
'акс'
'аза'
'адвокат'
'агент'
'ава_'
'Ши'
'Ше'
'Чудов'
'Чого_'
'Червон'
'Частин'
'Ціл'
'Церкви_'
'Х_'
'Фу'
'Франциско_'
'Фран'
'Фо'
'ФЛОРИСТОМ_'
'Уяв'
'Україн'
'Уві'
'Три_'
'Три'
'Трет'
'Транс'
'Той_'
'Тим_'
'ТР'
'Сх'
'Стр'
'Станом_'
'Стан'
'Стал'
'Справ'
'Союз_'
'Система_'
'Сирії_'
'Сид'
'Середня_'
'Секс_'
'Свят'
'Сал'
'СС'
'Розм'
'Рим_'
'Рекоменд'
'Радянсько'
'РУ'
'РС'
'Північної_'
'Південн'
'Причин'
'Прип'
'Прий'
'Президент_'
'Правила_'
'Пода'
'Повн'
'Перші_'
'Перс'
'Перед_'
'Пен'
'Пас'
'Парижі_'
'Пал'
'Офіційний_'
'Останній_'
'Опубліковано_'
'Оле'
'Одного_'
'Ого'
'Нідерланди_'
'Ниж'
'Невже_'
'Натисніть_'
'Нар'
'Найкраще_'
'Найкращ'
'Найбільше_'
'Навіщо_'
'Місто_'
'Міністерство_'
'Міл'
'Може'
'Мог'
'Микола'
'Мик'
'Медичн'
'Маль'
'Мала'
'Лікування_'
'Ліз'
'Лен'
'Лег'
'Лев'
'Кілька_'
'Кос'
'Конф'
'Команд'
'Коле'
'Квіти_'
'КО'
'КВІТІВ_'
'Зни'
'Зелен'
'Зах'
'Заст'
'Зар'
'Закон_'
'Зазвичай_'
'Загальн'
'Жовт'
'Емм'
'Екс'
'Ек'
'Дух'
'Дос'
'Доб'
'Див'
'Державн'
'Дел'
'Дві'
'ДОСТАВКУ_'
'Грі'
'Гри'
'Гаряча_'
'Віт'
'Відом'
'Вчені_'
'Влад'
'Висок'
'Виробники_'
'Вер'
'Вен'
'Велико'
'Велик'
'Ваш_'
'Варт'
'Важко_'
'Біо'
'Біль'
'Біл'
'Біблі'
'Божо'
'Берлін'
'Бере'
'Бел'
'Баб'
'Арм'
'Ап'
'Анн'
'Алл'
'Аз'
'Аг'
'Інтернет_'
'Інститут_'
'Ізраїл'
'ІНТЕРНЕТ_'
'Європу_'
'Європейський_'
'Єв'
'žím'
'žáda'
'žní_'
'živý'
'životu_'
'ženě_'
'žeh'
'ůž'
'ůz'
'ův'
'ůsta'
'ůdc'
'ťan'
'ť'
'šířen'
'štění_'
'špi'
'špatn'
'šo'
'škol_'
'širokou_'
'šamp'
'Španělsk'
'řů_'
'říše_'
'říš'
'říč'
'římsk'
'řídí_'
'řeči_'
'řez'
'řel'
'ředitel'
'řazen'
'řada_'
'Řekl_'
'Ře'
'ěž'
'ěč'
'ěs'
'ělo'
'čů_'
'číslic'
'čík'
'částí_'
'čtyři'
'čtenáře_'
'čnost_'
'čn'
'čit_'
'četl_'
'čet_'
'česk'
'čerstv'
'černá_'
'čemu_'
'čelit_'
'čele'
'čel'
'časopis'
'časn'
'Člověk_'
'České_'
'Černá_'
'Čer'
'ýr'
'úředn'
'účinn'
'úvěr'
'úto'
'úpln'
'úmrtí_'
'úct'
'íž_'
'íč'
'ít'
'ínk'
'ímá'
'íma'
'íkem_'
'áš'
'áče'
'ází'
'ázn'
'ával'
'ás'
'árny_'
'ály_'
'áhl_'
'Účin'
'Úvodní_'
'», – _'
'» — _'
'» '
'· _'
'} '
'zůstal_'
'získali_'
'získa'
'zážitk'
'závěru_'
'závi'
'zás'
'zánět'
'zákony_'
'základn'
'zákazník'
'záchvat'
'záchran'
'zvědav'
'zvýšen'
'zvuk_'
'zvládn'
'zvedl_'
'zu_'
'zpěv'
'zpravidla_'
'zpeč'
'zován'
'zodpovědn'
'znát'
'známky_'
'zničil'
'zneuž'
'značně_'
'značné_'
'značn'
'znalost'
'změní_'
'změnily_'
'změnil_'
'zmize'
'zlom'
'zlatý'
'zkr'
'zjistí_'
'zim'
'zhorš'
'zho'
'zdrojem_'
'zdr'
'zbytk'
'zbr'
'zbl'
'začátek_'
'začne_'
'zastaven'
'zaruč'
'započ'
'zapotřebí_'
'zaplatit_'
'zane'
'zaměstnanci_'
'založen_'
'zaklád'
'zajistit_'
'zaj'
'zahájení_'
'zahájen'
'zahl'
'zade'
'zaci_'
'zachování_'
'zabýva'
'yz'
'yv'
'ypt'
'you'
'yc'
'xon'
'wor'
'vů'
'vším_'
'vězení_'
'většině_'
'věl'
'věk'
'věděl_'
'věděl'
'vědomí_'
'výživ'
'významu_'
'výzkum'
'vývoj'
'výstavb'
'výstav'
'výrobků_'
'vým'
'východě_'
'výborn'
'víš_'
'víz'
'vít'
'víry_'
'vého_'
'vážn'
'válečn'
'vzít_'
'vztah'
'vzn'
'vzdálenosti_'
'vyžadovat_'
'vyzkouše'
'vyvinul'
'vytváře'
'vysvětl'
'vystup'
'vysokým_'
'vyrobil'
'vypr'
'vypl'
'vyko'
'vyh'
'vydáv'
'vydání_'
'vydat_'
'vychází_'
'vyber'
'vybavení_'
'vybaven'
'vtip'
'vstup'
'vs_'
'vrh'
'vraž'
'voř'
'volně_'
'vojenské_'
'vodou_'
'vod_'
'vnitr'
'vlož'
'vlasů_'
'vlastních_'
'vlastností_'
'vic'
'veřejn'
'večeři_'
'vezm'
'vesmír_'
'ves'
'velitel'
'veliko'
'veden'
'vděčn'
'vaš'
'varuj'
'uživatele_'
'uži'
'uši_'
'učitel_'
'učitel'
'uznáv'
'uznání_'
'uza'
'ux'
'uvědom'
'uvádí_'
'utá'
'utrp'
'uta'
'usn'
'usa'
'určitý'
'uro'
'urac'
'univerzita_'
'univerzit'
'umě'
'ument'
'ulo'
'ule_'
'uko'
'ukl'
'uhlík'
'uděl'
'ude'
'ucí'
'uby'
'ube'
'tš'
'třiceti'
'třetím_'
'třemi_'
'třeb'
'těší'
'těn'
'téhož_'
'tvůj_'
'tvořil'
'tvar_'
'tvar'
'tuře_'
'turnaje_'
'turnaj'
'turn'
'tun_'
'tuk'
'ts'
'transp'
'trajekt'
'trag'
'toxic'
'touž'
'touto_'
'tori'
'tonu_'
'tol'
'toku_'
'tních_'
'tli'
'tito_'
'tisíci'
'tis'
'tili_'
'tické_'
'text'
'terén'
'terapie_'
'terap'
'teploty_'
'tepl'
'technik'
'tav'
'tank'
'taková_'
'tak'
'sít'
'séri'
'sán'
'synt'
'symp'
'světu_'
'světov'
'svr'
'svoje_'
'svazu_'
'super'
'sup'
'sud'
'střev'
'stř'
'stín'
'stvořen'
'stvo_'
'stupn'
'studoval'
'studi'
'student'
'stráž'
'struktury_'
'stolu_'
'stimul'
'ster_'
'stejnou_'
'stačí_'
'stará_'
'staly_'
'ss'
'sráž'
'správnou_'
'spoustu_'
'spolupracovat_'
'sperm'
'souvis'
'soutěž_'
'soustřed'
'souhlas'
'snížit_'
'sniž'
'snažíme_'
'směšn'
'směn'
'smá'
'smy'
'smartphon'
'slá'
'slove'
'sloup'
'slib'
'sleduj'
'sledování_'
'slavnost'
'ská'
'skvělý_'
'skvrn'
'skutečné_'
'skrýva'
'skrze_'
'skop'
'sis_'
'sion'
'shromáždění_'
'shromážděn'
'sezóně_'
'sezón'
'sest'
'sed'
'sděl'
'scén'
'schod'
'samé_'
'samotn'
'růž'
'rý'
'rám'
'rádi'
'rychlost'
'rušt'
'ruč'
'rti'
'rs_'
'rr'
'roční_'
'roč'
'rozsahu_'
'rozma'
'rozhoduj'
'rozhodla_'
'rozdělen'
'rozděl'
'rozdíl'
'rova'
'rodí_'
'rodné'
'rní'
'rizik'
'rin'
'rik'
'rgi'
'reálném_'
'revoluce_'
'rev'
'resta'
'reli'
'redak'
'recenze_'
'rce'
'rc'
'raž'
'rava_'
'rat'
'raf'
'radost_'
'původně_'
'pův'
'působil_'
'půjd'
'příznak'
'přístroje_'
'příspěvk'
'příslušn'
'přípravě_'
'případné_'
'příležitostí_'
'příklad'
'příjem'
'přišli_'
'přišla_'
'přiv'
'přistá'
'přisp'
'přip'
'přin'
'přil'
'přijal_'
'přih'
'přidal'
'přeži'
'přesto_'
'přenos'
'překr'
'překladatel'
'přek'
'představil'
'představen'
'předcháze'
'pó'
'písemn'
'pus'
'pta'
'psycholog'
'průvod'
'průmyslov'
'prázdné'
'prsa'
'prož'
'prošl'
'provádění_'
'prováděn'
'provádě'
'proveden'
'protokol'
'pror'
'propojen'
'proná'
'programování_'
'produc'
'proda'
'prod'
'probl'
'primární_'
'pravomoc'
'pracov'
'požár'
'požehnání_'
'pošt'
'pořádá'
'počk'
'pozor_'
'poznání_'
'povstání_'
'povrch'
'povinnost'
'považuje_'
'považova'
'pouh'
'potěš'
'potr'
'poto'
'potenciální_'
'posu'
'postup_'
'poslat_'
'poskytnut'
'poskytnout_'
'porovná'
'poro'
'porn'
'popula'
'polože'
'poloh'
'policie_'
'policejní_'
'poli_'
'pokoji_'
'poko'
'pokladn'
'pohybuje_'
'pohr'
'poh'
'podíle'
'poda'
'poch'
'plánování_'
'plá'
'plic'
'plet'
'plak'
'pis_'
'pilulk'
'patr'
'patologi'
'pato'
'patnáct'
'patent'
'pas'
'pap'
'pani'
'pak'
'padesát_'
'očekává'
'oče'
'oč'
'oznámil_'
'oznámen'
'ovém_'
'ová'
'ovládání_'
'ovlivnit_'
'ota_'
'ot_'
'osobu_'
'osob'
'osmi'
'osm'
'oruč'
'orgány_'
'organizaci_'
'opustil_'
'opustil'
'oně'
'onov'
'onen'
'oma'
'ologie_'
'ologick'
'oli_'
'oleje_'
'ola_'
'okolí_'
'okna_'
'oj_'
'ohn'
'ohledně_'
'ogen'
'of'
'oděv'
'odváž'
'odve'
'odstranění_'
'odpoč'
'odpovídají'
'odpoví'
'odpo'
'odměn'
'odl'
'odkazy_'
'odk'
'oddíl'
'ochrání_'
'oceánu_'
'ocen'
'obětí_'
'oběd'
'občany_'
'občan'
'obyvatelstva_'
'obsahu_'
'obrázku_'
'obrovský_'
'obr'
'obn'
'oblíbený'
'oblíbené_'
'oblouk'
'objevuj'
'objeven'
'objekt'
'obecn'
'obchodě_'
'obchodní'
'oba'
'něm'
'někoho_'
'něk'
'názv'
'názor_'
'názor'
'návštěv'
'návrh'
'následova'
'národy_'
'nápad_'
'nádob'
'nutně_'
'nud'
'nte'
'nství_'
'nský_'
'nského_'
'nož'
'novin'
'nou'
'nosí'
'ností_'
'nos'
'nor'
'nom'
'nohou_'
'noh'
'nin'
'nil_'
'nické_'
'nger'
'neř'
'neče'
'nezávisl'
'neznám'
'nezapome'
'neuvěřiteln'
'nesouhlas'
'nesm'
'nesl_'
'nepom'
'nepa'
'neomezen'
'neměla_'
'nemáme_'
'nemoc_'
'nemluv'
'neli'
'nejstarší'
'nejsem_'
'nejm'
'nejlépe_'
'nejed'
'neh'
'nedov'
'necít'
'nebezpečn'
'nebe_'
'nda'
'našem_'
'navrh'
'nasazen'
'naraz'
'napí'
'naps'
'nalé'
'najde'
'nabídky_'
'můžu_'
'měsíční'
'měrn'
'mým_'
'mý'
'místem_'
'místech_'
'média_'
'máš_'
'muzea_'
'museli_'
'mus'
'mul'
'možno_'
'motor_'
'moto'
'most'
'mol'
'modlitb'
'mladé_'
'ml_'
'mix'
'minuty_'
'minut'
'minerál'
'min_'
'mimořádn'
'milova'
'milión'
'milion_'
'miliardy_'
'miliard'
'migra'
'mez'
'meta'
'men_'
'mechanick'
'maz'
'masa_'
'mas'
'manželk'
'managementu_'
'malá_'
'lídr'
'léčiv'
'léčen'
'létě_'
'léta'
'lékařské_'
'lékař_'
'látky_'
'lát'
'lor'
'logické_'
'lní'
'lla_'
'liší_'
'liz'
'liv_'
'liv'
'literární'
'ligy_'
'lidského_'
'lidská_'
'lia'
'lez'
'leu'
'lette'
'letní_'
'letecké_'
'lesa_'
'ler'
'lekt'
'lehké_'
'lehk'
'lednu_'
'lede'
'lač'
'lar'
'land'
'křič'
'kře'
'kód'
'káz'
'kávy_'
'kát'
'kuj'
'ktor'
'kterým_'
'krásn'
'krví_'
'kro'
'krize_'
'kriti'
'kraji_'
'kořen'
'koz'
'kouzeln'
'kosmick'
'kono'
'koncept'
'koncentrac'
'komunit'
'komunikaci_'
'komplexní_'
'kompa'
'komor'
'koment'
'kombinace_'
'kombinac'
'koho_'
'kně'
'klíčový'
'klíč_'
'kláves'
'klikn'
'kl_'
'kl'
'kk'
'kdybych_'
'každý'
'každodenní'
'kategorie_'
'kata'
'kami_'
'kamer'
'kamen'
'kali'
'jím_'
'jídla_'
'jících_'
'jiném_'
'jiho'
'jezer'
'jen'
'jednot'
'jedinečn'
'jazyka_'
'jater_'
'japonský'
'japonsk'
'jakékoli_'
'jakou'
'ja_'
'iš_'
'ičn'
'ize'
'izaci_'
'izace_'
'iv_'
'itelé_'
'iteln'
'itel_'
'ita_'
'isu'
'ist_'
'ismus_'
'isl'
'iro'
'inu'
'interiéru_'
'integr'
'inte'
'instal'
'inovativní_'
'inform'
'infekce_'
'impo'
'im_'
'ille'
'ill'
'ild'
'ikov'
'iga'
'ifi'
'ident'
'ide_'
'ictví_'
'icky_'
'ich_'
'hů'
'hře_'
'hán'
'hvězda_'
'hust'
'hus'
'hráči_'
'hráč_'
'hrab'
'hou'
'hork'
'hom'
'hodinu_'
'hodin'
'hod_'
'hob'
'hně'
'hnu'
'hlo'
'hladiny_'
'hlad'
'herc'
'hepatitid'
'hen'
'hb'
'gól'
'gy'
'gs_'
'gram_'
'gor'
'gon'
'genetick'
'generální'
'gene'
'fází'
'fázi_'
'fáze_'
'fy'
'fotograf'
'finále_'
'finančních_'
'ff_'
'ff'
'fen'
'federace_'
'fe_'
'far'
'fakulty_'
'fakult'
'eň'
'eče'
'exp'
'existovat_'
'etické_'
'esl'
'ese'
'erz'
'enu_'
'ens'
'enh'
'energetick'
'endo'
'enci'
'enc'
'emoce_'
'emi'
'ell'
'elektronický'
'ekonomik'
'ekonomické_'
'ekonomick'
'ego'
'efektivní_'
'edl'
'důležitý'
'důležitou_'
'dřev'
'dělal'
'dítětem_'
'dít'
'dávají_'
'dáv'
'dárk'
'dálk'
'dvaceti'
'duševní_'
'dt'
'dsk'
'drží_'
'drobn'
'dre'
'drak'
'dočasn'
'dova'
'dou'
'dostupn'
'dostatek_'
'dostane_'
'dosažení_'
'dopředu_'
'doplňk'
'dop'
'domovem_'
'dolar_'
'dokázal'
'dokončen'
'dodavatel'
'doda'
'dobrá_'
'dobr'
'dlouhodobé_'
'divadelní_'
'die_'
'dic'
'devět_'
'detek'
'dem'
'delší_'
'deb'
'daňov'
'daný'
'dalšího_'
'daleko_'
'cor'
'col'
'ckém_'
'cio'
'chybí_'
'chtěla_'
'chtít_'
'chr'
'chlo'
'chlapce_'
'chladi'
'cestování_'
'centrální_'
'ca_'
'bývalý_'
'bytost'
'bus_'
'budova'
'bs'
'bratra_'
'br'
'bouře_'
'bos'
'boje_'
'boh'
'body_'
'blízk'
'blesk'
'blb'
'bk'
'benz'
'bav'
'barevné_'
'bal_'
'aři'
'azuj'
'ay'
'ava'
'autě_'
'autor_'
'automaticky_'
'auta_'
'ateln'
'atel'
'astro'
'ast_'
'asi'
'ash'
'ark'
'argument'
'arch'
'app'
'ano'
'anic'
'angličtina_'
'amerického_'
'americká_'
'amatér_'
'alt'
'alov'
'alkoholi'
'alkohol_'
'ald'
'akademické_'
'agentury_'
'admi'
'adil'
'ada_'
'ada'
'aco'
'ach'
'\\_'
'\'
'Získejte_'
'Zás'
'Zu'
'Zpráv'
'Zná'
'Znovu_'
'Zn'
'Zkuste_'
'Zemřel'
'Zas'
'Wi_'
'West'
'Vždyť_'
'Věř'
'Vědci_'
'Výběr_'
'Vytvořte_'
'Voj'
'Vláda_'
'Vit'
'Videa_'
'Velký_'
'Veg'
'Ved'
'Un'
'Ultra_'
'UR'
'UC'
'Ty'
'Tvo'
'Tureck'
'Times_'
'Tho'
'Ter'
'Technick'
'TE_'
'Sýrii_'
'Systems_'
'Stá'
'Studie_'
'Studi'
'Stran'
'Stačí_'
'Stan'
'Sr'
'Sport'
'Spolu'
'Son'
'Sol'
'Slo'
'Sla'
'Sku'
'Sever'
'Sed'
'Se_'
'San_'
'Samsung_'
'Rů'
'Roc'
'Robert'
'Ric'
'Republik'
'Rea'
'RS'
'RF'
'RC_'
'Qua'
'Qu'
'Původn'
'Příčin'
'Přišl'
'Připrav'
'Přesto_'
'Představ'
'Prů'
'Prov'
'Prosím_'
'Proc'
'Praha_'
'Pou'
'Potřeb'
'Potom_'
'Post_'
'Pop'
'Plus_'
'Plu'
'Pic'
'Pet'
'Pay'
'Palm'
'PS_'
'Out'
'Otevř'
'Oni_'
'Ona_'
'Off'
'Obsah'
'Obs'
'Obje'
'OS'
'ON'
'OM'
'OB'
'Následující_'
'Náh'
'Nádhern'
'Než'
'Neza'
'News_'
'New'
'Nemůže'
'Nemoh'
'Nebyl'
'Naši_'
'Naz'
'Narodil_'
'Najít_'
'Místo_'
'Musíme_'
'Možnost'
'Mistr'
'Miluj'
'Mill'
'Mid'
'Mexik'
'Mercedes_'
'Men'
'May'
'Mapa_'
'Mai'
'Mac_'
'MS'
'Léčba_'
'Ly'
'Linux_'
'Lil'
'Lev'
'Leg'
'Lea'
'Lar'
'La_'
'Kyjev_'
'Ky'
'Kurz'
'Králov'
'Kro'
'Kr'
'Kou'
'Konce'
'Kol'
'Kli'
'Kl'
'Každá_'
'Kanad'
'Kali'
'Jul'
'Jsi_'
'Již_'
'Jenom_'
'Jane'
'Iz'
'Inte'
'Insta'
'Hz_'
'House_'
'Hospod'
'Had'
'HTML_'
'HO'
'Gr'
'Gal'
'GO'
'Free'
'Fr'
'Fot'
'Ford_'
'Flo'
'Fla'
'Fl'
'Fi_'
'Ferr'
'Fal'
'Factory_'
'FS'
'FO'
'Ele'
'El'
'Eko'
'Egyp'
'Dy'
'Druhý_'
'Dr_'
'Dou'
'Dlouh'
'Dec'
'De_'
'Dav'
'Dan'
'DVD_'
'DE'
'Círk'
'Cup'
'Cre'
'Corporation_'
'Charl'
'Cest'
'Cast'
'Cas'
'Carl'
'Cam'
'CP'
'CK'
'Bílý_'
'Bíl'
'By'
'Bus'
'Bri'
'Brat'
'Bra'
'Black'
'Big_'
'Band'
'BR'
'BE'
'Asie_'
'Ap'
'Anti'
'Andr'
'Alf'
'Alb'
'Age_'
'AI'
'AG_'
'94_'
'93_'
'83'
'74_'
'73_'
'63'
'61_'
'59_'
'58'
'51'
'39'
'200'
'1986_'
'1971_'
'1969_'
'1968_'
'1967_'
'1966_'
'1964_'
'1958_'
'1952_'
'1930_'
'1919_'
'172'
'171'
'1500_'
'101'
'03'
'.  _'
'.....'
'.)._'
'.) _'
'+, _'
'). _'
'''
'# _'
'!»'
'! "_'
'   '
' ..'
' &'
' #_'
' "._'
'← _'
'„'
'” '
'ґрунт'
'ґа'
'ґ_'
'Ґр'
'їхній_'
'їхньої_'
'їхньо'
'іще_'
'іши'
'ічно'
'іх'
'іу'
'іто'
'ітн'
'італі'
'історичних_'
'істи_'
'існи'
'ірні_'
'інтерфейс'
'інтерв'
'іни_'
'індустрі'
'інду'
'імператор'
'імена_'
'імен'
'ілі'
'ільно'
'іль'
'іле'
'іла_'
'ійськ'
'ій'
'ізна'
'ізаці'
'ідеальни'
'івсько'
'івня'
'івник'
'івк'
'єтес'
'єпископ_'
'ячі_'
'ячо'
'яч_'
'яції_'
'яці'
'яте'
'ят'
'ясувати_'
'яп'
'яні'
'янь'
'яний_'
'яни_'
'яна_'
'яки'
'язує'
'язниц'
'язк'
'язатися_'
'язання_'
'яза'
'ядерни'
'явилася_'
'яблук'
'юють_'
'ючих_'
'ючий_'
'юча_'
'юсь_'
'юдн'
'ював'
'юва'
'ью'
'ьц'
'ьств'
'ьом'
'ьної_'
'ьного_'
'ьно_'
'ько_'
'ьга'
'ьб'
'ы'
'щонайменше_'
'щоденн'
'щина_'
'щи'
'щасливим'
'шукає'
'шувати_'
'штучни'
'штов'
'шою_'
'шоколад'
'шкідливи'
'школу_'
'шкоду'
'ших_'
'широко'
'ширен'
'шення_'
'швидко'
'шаблон'
'чітк'
'чю_'
'чують'
'чутлив'
'чужи'
'чудови'
'чудов'
'чоловік'
'чним'
'члена'
'член_'
'чисто'
'чистий_'
'чик'
'четверт'
'чері_'
'черв'
'чення_'
'чашк'
'частота'
'частот'
'чал'
'цілісн'
'ціло'
'цікавим'
'цю'
'цьов'
'цукров'
'цо'
'цифров'
'цею_'
'церкв'
'церемоні'
'центри'
'цент'
'хува'
'хтар'
'хт'
'хронічн'
'християнськ'
'хос'
'хорошо'
'холод'
'холе'
'ходу_'
'хня_'
'хн'
'хмар'
'хлопець_'
'хві'
'хвори'
'харчов'
'хардкор_'
'характер_'
'фінал'
'філософі'
'фізіо'
'фізичних_'
'фронт'
'фрагмент'
'фотограф'
'форум'
'фортец'
'форма'
'фашист'
'фахівців_'
'фат'
'фаз'
'учи'
'учасник'
'уча'
'уться_'
'усу'
'успі'
'усн'
'уска'
'усвідомлю'
'ург'
'урахуванням_'
'упр'
'упо'
'упив'
'унікальний_'
'уну'
'улюблени'
'уло'
'ула'
'ул'
'уе'
'угоди_'
'угод'
'уга'
'уг'
'увійти_'
'увати'
'уваж'
'ув'
'уальн'
'уа'
'тілом_'
'тіка'
'тя'
'тюр'
'турнір'
'туристичн'
'турбу'
'тун'
'туман'
'туалет'
'трьо'
'троянд'
'тром'
'тримати_'
'тренування_'
'трапля'
'трансформ'
'традиції_'
'точн'
'тона_'
'тол'
'товарів_'
'товар_'
'тован'
'тний_'
'тлі_'
'тканин'
'тка'
'тично'
'тисячу_'
'тиску_'
'тимчасово'
'тими_'
'тиме'
'тив'
'технічно'
'техніку_'
'тері'
'терміно'
'терапі'
'тера'
'теперішн'
'теорії_'
'теоретичн'
'тент'
'теми_'
'темати'
'телефон_'
'текстов'
'театру_'
'таці'
'тато_'
'тат'
'танн'
'тала'
'таж'
'сір'
'сімей'
'сільського'
'сюр'
'сюжет'
'сько_'
'ським_'
'сценарі'
'схопи'
'схоже_'
'схова'
'сх'
'сф'
'суміш'
'сумісн'
'суму_'
'суль'
'сул'
'судо'
'суди'
'судді'
'сувор'
'стін'
'стіль'
'стілець_'
'студент'
'стріл'
'струн'
'строг'
'стриб'
'стосовно_'
'сторінки_'
'сторін_'
'сторонні'
'сторона'
'столі'
'столиц'
'стк'
'стих'
'стика'
'створює'
'створил'
'створенн'
'створена_'
'ств'
'стар'
'стануть_'
'станом_'
'стадії_'
'стад'
'ставлення_'
'став'
'срібн'
'спілкуватися_'
'спілк'
'спрямов'
'спробував_'
'сприяє_'
'сприятлив'
'справедлив'
'способи_'
'способ'
'спорту_'
'спортивно'
'спон'
'спокійно_'
'споку'
'сподіває'
'спог'
'спит'
'спир'
'специфі'
'спец'
'спершу_'
'спер'
'спати_'
'спас'
'сотні_'
'сот'
'сорт'
'соро'
'сонця_'
'сонце'
'собаки_'
'сний_'
'снаряд'
'сміх'
'смок'
'сми'
'смачн'
'смаку'
'слі_'
'слухати_'
'служит'
'служ'
'сло'
'ску'
'скорочення_'
'складають'
'скел'
'скасува'
'скарг'
'ситуація_'
'сити'
'системн'
'сирій'
'сина'
'симптомів_'
'симптом'
'символі'
'силіконов'
'сила_'
'сив_'
'серця_'
'серп'
'серйозни'
'середні'
'сенс'
'сем'
'село_'
'селищ'
'свіч'
'світо'
'свіж'
'свято'
'свободи_'
'сат'
'самотн'
'самогуб'
'сами'
'сай'
'саду_'
'рії_'
'річка_'
'рівні'
'ряту'
'рю'
'рці'
'руці_'
'рут'
'рука_'
'руйну'
'рублів_'
'рту'
'рп'
'роти_'
'розшири'
'розширен'
'розум_'
'розряд'
'розроблений_'
'розпочав'
'розповідь_'
'розпл'
'розпад'
'розмов'
'розл'
'розкрит'
'розділен'
'розду'
'розглядають'
'розг'
'розвивається_'
'розвива'
'родо'
'родич'
'рован'
'робив_'
'рно'
'рн'
'рил'
'риз'
'рибо'
'реєстра'
'реформ'
'республік'
'ремі'
'рекомендується_'
'рекомендуємо_'
'рейс'
'результатів_'
'результатами_'
'резерв'
'режимі_'
'реди'
'ред'
'регулярно_'
'реалізаці'
'реальн'
'реакції_'
'реакція_'
'ре_'
'рак_'
'районі_'
'радянськ'
'рада'
'пішки_'
'піхот'
'підходить_'
'підтриму'
'підтримка_'
'підстав'
'підручник_'
'підраху'
'підр'
'підписан'
'підлітк'
'підляга'
'підлогу_'
'підлоги_'
'підготува'
'підготовку_'
'пух'
'пти'
'пта'
'психічн'
'прі'
'прями'
'процесу_'
'процесор'
'процес'
'процедуру_'
'процедур'
'проходи'
'професі'
'просту'
'просто'
'простих_'
'пропо'
'прони'
'проміж'
'пройш'
'пройти_'
'проекти_'
'продоволь'
'продовжує_'
'продовжити_'
'продажу_'
'прогресу'
'програмне_'
'провел'
'прова'
'приїхал'
'приї'
'приємно_'
'приходить_'
'пристраст'
'природних_'
'природа_'
'природ'
'припус'
'припини'
'принтер'
'приносит'
'приміщен'
'примі'
'прийти_'
'прийняті_'
'прий'
'призначен'
'призвести_'
'приду'
'придбати_'
'придатн'
'приг'
'приводу_'
'приватно'
'приваблив'
'представників_'
'праце'
'прагне'
'правильн'
'поєдну'
'пояснення_'
'пош'
'почу'
'почне'
'почн'
'початок_'
'почат'
'поход'
'потужні'
'потужни'
'поту'
'потрапил'
'поставити_'
'посм'
'посилен'
'посилання_'
'поселен'
'порядку_'
'поря'
'порту'
'порт_'
'популярно'
'попл'
'попа'
'пообіця'
'поміщ'
'помітили_'
'помі'
'помр'
'помира'
'помилко'
'поме'
'пом_'
'поліцейськ'
'політичних_'
'політику_'
'польо'
'покупц'
'показу'
'показали_'
'показав_'
'позначен'
'позитивн'
'поза_'
'поживн'
'подію_'
'подума'
'подолати_'
'подвійн'
'подарува'
'подальш'
'погірш'
'погр'
'погодил'
'погоди'
'погода_'
'погляну'
'пог'
'пово'
'повноважен'
'повз'
'поверхн'
'повернеться_'
'повернення_'
'поведінки_'
'поваг'
'пневмоні'
'плям'
'плю'
'площі_'
'плаття_'
'пиш'
'писати_'
'пет'
'періоду_'
'персональні_'
'перс'
'переміщ'
'перемі'
'перемог'
'переконан'
'перекона'
'передбача'
'перед'
'перего'
'перегляду_'
'перевір'
'перева'
'перев'
'перебуває_'
'пера'
'пейзаж'
'певного_'
'певнен'
'пат'
'партнера'
'параметр'
'парад'
'пальц'
'пали'
'пала'
'па_'
'очи'
'очевидно_'
'очевид'
'оцінки_'
'оцінити_'
'офіцер'
'отримує'
'отримаєте_'
'оти_'
'отже_'
'отв'
'осі'
'острів_'
'островів_'
'остр'
'ости'
'особливості_'
'особисто_'
'основний_'
'основи_'
'осла'
'орієнтаці'
'оров'
'оригінал'
'орд'
'організм'
'організ'
'опі'
'опублікован'
'опро'
'опозиції_'
'опит'
'опин'
'опи'
'операцій_'
'оператор'
'оном'
'омн'
'олів'
'олен'
'окуляри_'
'окрім_'
'окру'
'окремо'
'окреми'
'око'
'океан'
'оз_'
'оди'
'оде'
'ографі'
'огра'
'оголосил'
'огляда'
'огляд_'
'ога'
'овує_'
'овува'
'овою_'
'овому_'
'оване_'
'ображ'
'обра'
'оборонн'
'обмеження_'
'облікового_'
'облік'
'обладнан'
'обидва_'
'оберта'
'обережн'
'обер'
'нії_'
'ніяк_'
'ньо'
'нч'
'нул'
'нува'
'нти'
'нськ'
'ноч'
'ност'
'нос'
'нормальни'
'номі'
'нож'
'нові'
'новою_'
'нню_'
'нно'
'ниц'
'нз'
'нестач'
'неспо'
'нері'
'непере'
'неод'
'необхідних_'
'необхідна_'
'необ'
'неділ'
'недостатньо_'
'невидим'
'невеликі_'
'невелик'
'небезпеки_'
'національних_'
'наукових_'
'нау'
'наступни'
'настав'
'наркотик'
'напрямку_'
'нано'
'намір'
'нам'
'налічу'
'наль'
'належн'
'накл'
'найкращим_'
'найвідоміши'
'називаю'
'назван'
'надісла'
'надійн'
'надій'
'надход'
'надаю'
'нагляд'
'нагадує_'
'навкол'
'нава'
'наближ'
'мічн'
'міф'
'місцевості_'
'місцев'
'містер_'
'міста'
'міст_'
'мірн'
'міністра_'
'мінім'
'міні'
'мінн'
'мільярд'
'мільйона_'
'мільйон'
'мік'
'міжнародні_'
'мід'
'музичн'
'музику_'
'музикант'
'музик'
'мт'
'мськ'
'мрії_'
'мрія'
'моїх_'
'мотор'
'моро'
'монітори'
'монт'
'мона'
'моделей_'
'модел'
'мові_'
'мовча'
'мовн'
'мовит'
'мистецтв'
'минулому_'
'минул'
'мешка'
'механік'
'метр'
'методу_'
'мет'
'мер_'
'меню_'
'менеджмент'
'межами_'
'медсестр'
'меблі_'
'матір_'
'матч'
'матеріальн'
'масштаб'
'маркетингов'
'мане'
'мал'
'максимально_'
'майданчик'
'майбутніх_'
'магіст'
'ліф'
'літератури_'
'літератур'
'літак'
'лісо'
'лінії_'
'лім'
'ліберал'
'ляється_'
'ляю'
'лят'
'лял'
'ляга'
'люч'
'людсько'
'люблять_'
'люб'
'льот'
'лт'
'лод'
'логічн'
'лихо'
'лик_'
'ливість_'
'лено'
'лежа'
'легше_'
'лег'
'лат'
'ласт'
'ланд'
'лам'
'лак'
'кіне'
'кіло'
'кція_'
'кухн'
'курси_'
'купувати_'
'культурни'
'кував'
'ктор'
'ктн'
'кси'
'кроки_'
'кров_'
'кризи_'
'краї'
'кращого_'
'крас'
'кої'
'кошти_'
'котрі_'
'котрий_'
'космічни'
'космо'
'королівськ'
'коридор'
'кордон_'
'кораблі_'
'координа'
'контролювати_'
'контакт_'
'консультант'
'конструк'
'консерват'
'конкретних_'
'конд'
'кона'
'компоненти_'
'коментарі_'
'команді_'
'командува'
'кольор'
'колоні'
'колишн'
'кок'
'коз'
'кожній_'
'кожн'
'ког'
'ковк'
'кнув_'
'кнопку_'
'кне'
'клю'
'клуб'
'клавіш'
'кк'
'кин'
'керівництвом_'
'керую'
'квітк'
'квитки_'
'квит'
'квартири_'
'кваліфікаці'
'католи'
'кате'
'карту_'
'карта_'
'камера_'
'кала'
'каж'
'кава'
'кабінет'
'йських_'
'йог'
'йної_'
'йного_'
'йне'
'йн_'
'ймовірність_'
'йка_'
'йде'
'ия'
'ична_'
'ицьк'
'ифіка'
'итись_'
'иро'
'инт'
'иком_'
'икан'
'ий'
'изу'
'иза'
'иж'
'ида'
'иві'
'зії_'
'зіркові_'
'зір_'
'зій'
'зустріч'
'зрі'
'зручно_'
'зроста'
'зробить_'
'зра'
'зовнішніх_'
'зовні_'
'зован'
'знял'
'зну'
'знищ'
'зникає_'
'зниження_'
'знена'
'знайомств_'
'знай'
'зна_'
'зміцн'
'змогу_'
'зменшу'
'зменши'
'злов'
'зити_'
'земної_'
'земно'
'зелен'
'здійснювати'
'здійсни'
'здоровим_'
'здоровий_'
'здобув_'
'здобу'
'здивува'
'здатністю_'
'здал'
'згадує'
'згадав_'
'зга'
'звіту'
'звіт_'
'звільнення_'
'звільнен'
'зво'
'звичайний_'
'звича'
'звернутися_'
'зведен'
'зве'
'зваж'
'збо'
'зберігання_'
'зберіга'
'збереження_'
'збережен'
'збагну'
'заявля'
'заявил'
'заш'
'західні'
'захопи'
'захищати_'
'затрима'
'затрим'
'засі'
'засуд'
'заступник'
'застосува'
'застосовується_'
'застосов'
'заснована_'
'засв'
'запроси'
'запропонован'
'заощад'
'замінити_'
'зама'
'залізничн'
'залі_'
'залишил'
'залишатися_'
'закінчил'
'закуп'
'закри'
'закохан'
'зайшов_'
'зайнят'
'займається_'
'зазначив_'
'зазначи'
'зазна'
'заздалегідь_'
'заз'
'загрозу_'
'заголов'
'загл'
'загибел'
'загальної_'
'загально'
'завоюва'
'забувайте_'
'забу'
'заарештован'
'жую'
'журнал'
'жні_'
'жителів_'
'жирн'
'жин'
'жили_'
'живих_'
'жива'
'жено'
'жд'
'жахлив'
'жав'
'жа_'
'еї'
'ец'
'ефектів_'
'ету_'
'етичн'
'етик'
'ете_'
'есу'
'естр'
'еру'
'ерськ'
'ерс'
'ери'
'епер_'
'енці'
'енту'
'еного_'
'еними_'
'ензі'
'енергію_'
'енергетичн'
'емоці'
'елю'
'елемент_'
'експлуатації_'
'експ'
'еже'
'ег'
'еволюці'
'еви'
'ева_'
'дію_'
'дітям_'
'дістатися_'
'дін'
'ділянк'
'ділян'
'діли'
'дізнаєт'
'дізна'
'дібн'
'діал'
'діагностики_'
'діагноз_'
'духовн'
'думають_'
'дуж'
'друку'
'друк'
'друзі_'
'дру'
'дотримуватися_'
'доставка_'
'дорозі_'
'дорожн'
'дорог'
'допоміг_'
'допомож'
'допомага'
'доповід'
'доповню'
'доповн'
'допит'
'домі_'
'домог'
'домашніх_'
'домашньо'
'дом_'
'документ_'
'доктора_'
'доказ'
'дозволяють_'
'дозволит'
'додатків_'
'додати_'
'доводилося_'
'дове'
'доби_'
'доби'
'доба'
'дихання_'
'дитяч'
'дит'
'дискусі'
'диск'
'динамічн'
'динамік'
'дивовижн'
'дивн'
'дива'
'джет'
'деякими_'
'деяк'
'дехто_'
'деться_'
'десяти'
'депресії_'
'дент'
'демократії_'
'демократі'
'демо_'
'дд'
'двом'
'двигун'
'два'
'дв'
'дає'
'дають_'
'даю'
'давнин'
'давал'
'гір_'
'гіпо'
'гімн'
'гідн'
'гурт'
'гуман'
'гуля'
'грі_'
'групов'
'груп'
'громадсько'
'графік'
'граф'
'граду'
'госп'
'горизонт'
'гора_'
'гоно'
'головного_'
'говорит'
'гоб'
'гнів'
'гна'
'глянув_'
'глибин'
'гли'
'герцог'
'герой_'
'гас'
'гарантує_'
'гарант'
'гал'
'газо'
'гада'
'вічі_'
'віце_'
'віст'
'вірус'
'вірити_'
'військової_'
'військов'
'війні_'
'візьм'
'візит_'
'візит'
'відігра'
'відчу'
'відсот'
'відпуст'
'відправля'
'відпочинок_'
'відповідний_'
'відповідають_'
'відповід'
'відпо'
'відображен'
'відношення_'
'відновлю'
'відміну_'
'відкрил'
'віддав'
'відвідува'
'відвідати_'
'відве'
'відва'
'відбувати'
'вчити'
'вчин'
'вчені_'
'вц'
'вуха'
'вуз'
'вугле'
'втік'
'втрачає_'
'втр'
'всієї_'
'вступа'
'вст'
'всесвітньо'
'врятува'
'врод'
'впо'
'впли'
'впевнені_'
'впав_'
'воєн'
'воді_'
'водя'
'водн'
'вогню_'
'вні_'
'вні'
'внутрішніх_'
'внутрішні'
'вміст_'
'влаштува'
'властив'
'вкрай_'
'включені_'
'включ'
'вказа'
'виявлен'
'виявилос'
'виши'
'виховання_'
'витрима'
'вито'
'вистач'
'вистав'
'високий_'
'висновку_'
'виснаж'
'висвітл'
'вирішують'
'виріш'
'виріз'
'виробництв'
'випуска'
'випробування_'
'виправдан'
'виплат'
'випи'
'вино'
'виникнення_'
'вин'
'вимог'
'вимагати'
'вила'
'використовуючи_'
'використан'
'виконати_'
'виключно_'
'викликають_'
'вийде_'
'визначає_'
'виділити_'
'виду_'
'видання_'
'видан'
'видалити_'
'видав'
'виві'
'вив'
'взя'
'вечірк'
'весел'
'верхн'
'версі'
'величезно'
'велик'
'вдал'
'вгору_'
'ввести_'
'вважаю_'
'вважали_'
'вбит'
'вбил'
'вбивств'
'ває_'
'варт'
'вард'
'валют_'
'валося_'
'вала'
'важке_'
'вагін'
'вагу_'
'вi'
'білих_'
'біженців_'
'біга'
'бюджет_'
'бул'
'будівля_'
'бс'
'брехн'
'брато'
'бояться_'
'боротьб'
'бомб'
'бок'
'бож'
'бні_'
'блен'
'бити_'
'безс'
'безпек'
'безл'
'бачимо_'
'батьків'
'батька_'
'батареї_'
'бала'
'бактерії_'
'бактерій_'
'бай'
'базу'
'базов'
'бази_'
'багати'
'ая'
'аче'
'аті_'
'атк'
'атичн'
'ата'
'асоціаці'
'аса'
'ас_'
'арх'
'арте'
'аромат'
'арно'
'арни'
'армі'
'аркуш'
'ари_'
'апостол'
'ань_'
'ану_'
'анк'
'аних_'
'американського_'
'американський_'
'ального_'
'альни'
'алкоголь_'
'али'
'аку'
'активі'
'акт'
'айте_'
'ае'
'аді'
'адрес'
'адміністративно'
'адапту'
'агр'
'аго'
'авіаці'
'авторитет'
'автономн'
'автоматично_'
'авто_'
'Яким'
'Якби_'
'Шу'
'Шен'
'Чорний_'
'Чорн'
'Чоловіки_'
'Чита'
'Чис'
'Чемпіонат'
'Це'
'Хоч_'
'Хол'
'Харрі_'
'Фінансов'
'Філь'
'Фре'
'Франк'
'Фр'
'Фотограф'
'Форму'
'Фор'
'Фер'
'Федера'
'Управління_'
'Упр'
'Уо'
'Ті_'
'Туреччини_'
'Тип_'
'Таїланд'
'Тар'
'ТЕ'
'Східно'
'Східн'
'Студент'
'Спіл'
'Спос'
'Сполучених_'
'Союзу_'
'Соціальн'
'Сонця_'
'Словаччин'
'Скаж'
'Сим'
'Сил'
'Си'
'Світ'
'Сві'
'Сар'
'Само'
'Сала'
'Сайт_'
'Сад'
'СР_'
'Рус'
'Рон_'
'Род'
'Роберт_'
'Римськ'
'Ри'
'Результати_'
'Ред'
'Разом_'
'Рада_'
'РИ'
'Північно'
'Південної_'
'Проце'
'Прост'
'Продук'
'Програм'
'Природн'
'Приблизно_'
'Президент'
'Правил'
'Пр'
'Пошук_'
'Почина'
'Посл'
'Попередн'
'Поло'
'Пог'
'Пові'
'Повер'
'Першо'
'Переклад'
'Парт'
'Пари'
'Пап'
'Остр'
'Останн'
'Особист'
'Обл'
'Нью'
'Неп'
'Нем'
'Недо'
'Небе'
'Наступного_'
'Наст'
'Насправді_'
'Найбільш_'
'Над'
'Нагадаємо_'
'Місі'
'Місяць_'
'Місце'
'Мінімальн'
'Міжнародна_'
'Між_'
'Мол'
'Можлив'
'Михайл'
'Мексик'
'Має_'
'Машин'
'Матер'
'Маг'
'Мабуть_'
'МО'
'Лікар_'
'Лу'
'Лор'
'Лондон'
'Лист'
'Ленін'
'Латві'
'Ла_'
'Куп'
'Куди_'
'Кре'
'Кращий_'
'Королівств'
'Кореї_'
'Коре'
'Конституці'
'Кому'
'Коментарі_'
'Коло'
'Книга_'
'Кен'
'Квіт'
'Кв'
'Катало'
'Каж'
'Каб'
'Йос'
'Йорк'
'Й_'
'Зірк'
'Зроби'
'Зр'
'Земля_'
'Західно'
'Замість_'
'Жінк'
'Життя_'
'Ерік'
'Ем'
'Експ'
'Дід'
'Діа'
'Дур'
'Думаю_'
'Другий_'
'Домашн'
'Додат'
'Дні'
'Дитин'
'Дивіться_'
'Джу'
'Джейн_'
'Джей'
'Дже'
'Два_'
'Дв'
'Дата_'
'ДЕ'
'Гуа'
'Гра_'
'Гост'
'Голос'
'Глобальн'
'Герміон'
'Ганд'
'Гадаю_'
'Віта'
'Віль'
'Вілл'
'Вік'
'Візьміть_'
'Віз'
'Відкрити'
'Відв'
'Втім_'
'Все'
'Вс'
'Воро'
'Внутрішн'
'Використову'
'Вик'
'Визнач'
'Вид'
'Великобритані'
'Вашингтон'
'Ваша_'
'Вал'
'ВО'
'Бук'
'Будів'
'Будьте_'
'Бор'
'Бл'
'Безкоштовн'
'БО'
'БА'
'Африці_'
'Асамбле'
'Ас'
'Ангел'
'Анал_'
'Америка_'
'Альф'
'Ай'
'Автомобіль_'
'Їм_'
'Їй_'
'Істин'
'Іспанія_'
'Інст'
'Інд'
'Ізраїлю_'
'Ізраїль_'
'Івана_'
'ІН'
'Європейського_'
'́_'
'žív'
'žár'
'žádost_'
'žádném_'
'žuj'
'žid'
'žené_'
'ženou_'
'železnic'
'železn'
'žebří'
'žděn'
'Že'
'ůže_'
'ůst'
'ťu'
'šťastný_'
'šá'
'šv'
'štá'
'štiny_'
'štin'
'šova'
'šin'
'šel'
'Švédsku_'
'Ště'
'Španělsku_'
'Šp'
'řím_'
'říkali_'
'říka'
'řu'
'řov'
'řiv'
'řit_'
'řin'
'řila_'
'řešen'
'řep'
'řek'
'ředitele'
'ředitel_'
'řa'
'Říká_'
'Ří'
'Řidič_'
'ňuj'
'ňov'
'ňo'
'ěň'
'ěk_'
'ější'
'ěhl_'
'ěh'
'čísl'
'čínské_'
'čímž_'
'čár'
'čtě'
'čtvrté'
'čokolád'
'čný_'
'čný'
'články_'
'člověku_'
'činy_'
'čil'
'četn'
'čer'
'čep'
'čekal_'
'čeka'
'čeho_'
'čce_'
'čast'
'čaj'
'Čeština_'
'Čes'
'Čekal'
'ýšl'
'ýš'
'ým'
'ýl'
'ýho_'
'účinek_'
'účastnil'
'účast_'
'ústav'
'ústa_'
'úspěch'
'úlo'
'úkolů_'
'údržb'
'údolí_'
'íčk'
'íze'
'íti'
'írají_'
'éma_'
'ék'
'ářů_'
'ářské_'
'ázel'
'ávám'
'átu_'
'átka_'
'áte'
'ást'
'ánské_'
'ánov'
'álu_'
'álen'
'áhl'
'ády_'
'ádk'
'áda_'
'áck'
'Út'
'Ústavní'
'Úst'
'»?_'
'»)'
'|_'
'{_'
'zúčastnil'
'zóny_'
'zím'
'zář'
'záznamu_'
'závažn'
'zástupce_'
'zástupc'
'zástup'
'záruk'
'zápis'
'zálo'
'zákonů_'
'zákona_'
'základny_'
'zákazníků_'
'zvýšil'
'zvý'
'zvuky_'
'zvukov'
'zvolen'
'zvol'
'zuby_'
'ztrác'
'ztratil'
'ztracen'
'zrak'
'způsobuje_'
'zpív'
'zprávu_'
'zpro'
'zovat_'
'známý'
'zni'
'značk'
'znač'
'znamenalo_'
'znal'
'znak_'
'znak'
'zmín'
'zmí'
'zmizel'
'zm'
'zlé_'
'zli'
'zku'
'zjistil'
'zjevn'
'zjednoduš'
'zin'
'zepta'
'zemřel'
'zemř'
'země'
'zem_'
'zdv'
'zbývá_'
'zbytek_'
'zbavi'
'zba'
'zažil'
'zaš'
'začínají_'
'zavře'
'zavol'
'zavede'
'zastavit_'
'zasa'
'zaps'
'zapomín'
'zapomněl'
'zapn'
'zaměři'
'zaměstnance_'
'zamí'
'založen'
'zajíma'
'zajištěn'
'zahájil'
'zahrnu'
'zahrnova'
'zahraniční_'
'zahr'
'zadní_'
'zachy'
'zachrán'
'zachova'
'zabránil'
'zabrán'
'zabe'
'yče'
'yr'
'ynu'
'yle'
'yer'
'ycen'
'xu'
'xist'
'wer_'
'vůz_'
'všim'
'všecko_'
'vře'
'věž'
'věří_'
'věřitel'
'vější_'
'vědeckých_'
'věd_'
'včas'
'výzkumný'
'vývoji_'
'výstř'
'výstup'
'výskyt'
'výrobní_'
'výraz_'
'výl'
'výkonný'
'východ_'
'vítr_'
'ván_'
'vze'
'vzdělávací_'
'vzduch'
'vyžaduje_'
'vyšel_'
'vyzv'
'vyvol'
'využíván'
'využívají_'
'využi'
'vysílání_'
'vysvětli'
'vystav'
'vysoký_'
'vysoko_'
'vyso'
'vyrá'
'vyrovn'
'vyr'
'vypu'
'vypro'
'vyprav'
'vypn'
'vypla'
'vypadají_'
'vyměn'
'vyma'
'vyléč'
'vylouč'
'vylo'
'vyhna'
'vyhlásil'
'vyhl'
'vyda'
'vybr'
'vstup_'
'vstoupil'
'vstal_'
'vs'
'vrstv'
'vrcholu_'
'vpřed'
'vozidla_'
'vozidel_'
'vov'
'voli'
'voleb'
'vojensk'
'vní'
'vlastnictví_'
'vlastni'
'vlas'
'vkl'
'vis'
'virtuální'
'vir'
'vhodné_'
'veřejné_'
'veřejné'
'ves_'
'velkých_'
'vedlo_'
'vedlejší'
'vedl'
'vd'
'varova'
'vaný_'
'vale'
'vají'
'užívání_'
'uží'
'uši'
'ušetř'
'učí_'
'učit_'
'učební'
'uzí'
'uzn'
'uve'
'uva'
'utím_'
'utu'
'uspě'
'uspořáda'
'určité'
'urn'
'upře'
'upraven'
'uploadu_'
'uo'
'unt'
'univerzity_'
'univerzit_'
'umělc'
'umírá_'
'umír'
'ula_'
'ukázat_'
'ujícím'
'ug'
'udu_'
'udrže'
'uda'
'uct'
'ubn'
'třetin'
'těžký_'
'těžko_'
'těž'
'tění_'
'těmto_'
'tělem_'
'tým'
'týkající_'
'týdne_'
'tát'
'táhl'
'tábor'
'typů_'
'typ'
'tvím_'
'tvrdě_'
'tvorbě_'
'tvaru_'
'tužk'
'trůn'
'tribu'
'trestný'
'trend'
'tr_'
'továrn'
'touha_'
'tos'
'tore'
'tok_'
'tka'
'tk'
'tiš'
'tivně_'
'titul'
'tit'
'tiny_'
'tid'
'tický_'
'tická_'
'tick'
'tf'
'tex'
'teror'
'teri'
'teori'
'teoretické_'
'temnot'
'telný'
'televizní_'
'telem_'
'tehdejší'
'ted_'
'tec'
'tax'
'tane'
'talent'
'tajemník'
'tajem'
'tabul'
'tab'
'sy_'
'svědk'
'svě'
'svaté'
'svat'
'stří'
'střelec'
'střech'
'stěž'
'stáhnout_'
'styk'
'strávil'
'stru'
'stromů_'
'stranách_'
'stranou_'
'stovky_'
'stol'
'stoj'
'stl'
'stické'
'stejném_'
'stejná_'
'starší_'
'starý_'
'staro'
'starat_'
'standardní_'
'ssa'
'srovnání_'
'spěch'
'spíš_'
'spí'
'spál'
'spách'
'spuštění_'
'spu'
'spotřebitel'
'sportu_'
'spon'
'spolupracuje'
'společné_'
'společenské_'
'spla'
'spis'
'specifick'
'specializ'
'spe'
'spad'
'sovětský'
'souvislosti_'
'sop'
'soli'
'softwaru_'
'sobotu_'
'snímky_'
'sné_'
'sno'
'snažil'
'snadn'
'smích_'
'smutn'
'smet'
'slí'
'slunci_'
'sloužil_'
'slep'
'slad'
'skutečný_'
'skončí'
'sko_'
'sklenic'
'skladb'
'skla_'
'skl'
'sk'
'silné_'
'silikonové_'
'sili'
'signál'
'ship_'
'sfé'
'sestr'
'sestav'
'ses_'
'sem'
'sedí'
'sedmi'
'seb'
'sdruž'
'sco_'
'schválen'
'sběr'
'sbírk'
'sbír'
'saz'
'samého_'
'samostatn'
'růstu_'
'růst'
'ráz'
'rál'
'rz'
'ryby_'
'rve'
'rum'
'ruká'
'rud'
'rozšířil'
'rozsáhl'
'rozr'
'rozpočet_'
'rozpo'
'rozlo'
'rozl'
'rozhodování_'
'rozho'
'rozezn'
'rozen'
'rozd'
'rostl'
'rodu'
'rodinné_'
'rně_'
'rky_'
'rita_'
'rie_'
'ria'
'rh'
'rg'
'režisér'
'režim_'
'reáln'
'rezi'
'resl'
'rese'
'reprezenta'
'rent'
'rel'
'reklamy_'
'reklam'
'registr'
'recept_'
'reagova'
'rba'
'razn'
'race'
'que_'
'půjde_'
'pší'
'přízniv'
'přítomnosti_'
'přítomn'
'přístup'
'přístroj_'
'přípravk'
'příprav'
'přátelé_'
'přátel_'
'přá'
'přišl'
'přizpůsobit_'
'přizn'
'přitažliv'
'přirozené'
'připravuje_'
'připraveni_'
'připomína'
'přinést_'
'přináší_'
'přinejmenším_'
'přikáz'
'přijíma'
'přije'
'přidáv'
'přidat_'
'převa'
'přet'
'přesunu'
'přestup'
'přestal'
'přesn'
'přeruš'
'překvapi'
'představí'
'představova'
'předsedo'
'přednášk'
'předn'
'předmětů_'
'předlož'
'předk'
'předem_'
'předchozí'
'pěv'
'pěstování_'
'pít_'
'písmena_'
'pé'
'pyt'
'pu_'
'pto'
'psa'
'průzkum'
'průmyslové_'
'provozní'
'provedena_'
'proudu_'
'proud'
'prostředků_'
'prosp'
'prosa'
'propag'
'pronik'
'prol'
'prokázal'
'projevuj'
'projev'
'projektů_'
'projekty_'
'program'
'prodáva'
'prodejn'
'prodej_'
'probíhá_'
'probíhal'
'problémem_'
'primá'
'prezentov'
'prez'
'pravidl'
'pravdiv'
'praktik'
'prakticky_'
'požád'
'požadavků_'
'požadavk'
'požad'
'poštovní_'
'pořídi'
'poř'
'pozorova'
'poznat_'
'povolení_'
'považovány_'
'použil'
'potřebujete_'
'potrav'
'pota'
'posto'
'postižen'
'posta'
'posou'
'poskytovatel'
'poruč'
'poruchy_'
'porozumě'
'porazil'
'ponechá'
'pomáhal'
'pomáh'
'polsk'
'polovi'
'politiku_'
'politika_'
'politik'
'politických_'
'politici_'
'pokut'
'pokrok_'
'pokračoval'
'pokr'
'pokouš'
'poklad'
'pohá'
'podíl_'
'podstatn'
'podrobn'
'podpory_'
'podporova'
'podobný'
'podniku_'
'podnikatel'
'pochopi'
'pochopení_'
'pobýval'
'pobytu_'
'pobo'
'poblíž_'
'plány_'
'plynu_'
'plo'
'plná_'
'platnost'
'platební_'
'planety_'
'pis'
'pij'
'phy'
'pho'
'pevné_'
'pes'
'perfektní_'
'peněž'
'pem_'
'pec'
'pc'
'patřil'
'partnerství_'
'partner_'
'panen'
'palub'
'pada'
'pacienta_'
'ožn'
'oži'
'ošetření_'
'ošetř'
'oři'
'oční'
'očekávat_'
'ozo'
'ovější'
'ovství_'
'ovlivň'
'ovce_'
'ovaným_'
'ovaná_'
'out'
'oup'
'otázk'
'oti'
'otevřít_'
'otevř'
'ota'
'osvětlen'
'osvobozen'
'osud'
'osobně_'
'osk'
'originál'
'organiz'
'opravit_'
'opi'
'operací_'
'opera'
'opakují'
'ony_'
'onis'
'onick'
'one_'
'omn'
'omi'
'olympijský'
'ole_'
'oku_'
'okraji_'
'okolní'
'okn'
'okamžik_'
'ohromn'
'odz'
'odra'
'odpočinku_'
'odní_'
'odno'
'odit_'
'odhal'
'odešl'
'odejít_'
'odehrává_'
'ochran'
'oceán'
'oceněn'
'ocel'
'obět'
'obrátit_'
'obrovské_'
'obnoven'
'oblíben'
'obličej_'
'obličej'
'obklop'
'objektiv'
'objednávk'
'obje'
'obchodov'
'něčem'
'něný'
'německ'
'nějaký'
'něj'
'nízko'
'nímu_'
'níka_'
'nástup'
'nástroj'
'násob'
'nárok_'
'náprav'
'nápoj_'
'námořní'
'nálež'
'nákladn'
'náklad'
'náhr'
'náhodou_'
'nácti'
'nz'
'nutno'
'nter'
'ns'
'nován'
'nosit_'
'nosi'
'norm'
'nka_'
'niko'
'nika'
'nicméně_'
'nici_'
'nic'
'nezávislost_'
'nezá'
'neznamená_'
'nezbytné_'
'nevěř'
'neustál'
'neus'
'nesn'
'nerozum'
'nepřed'
'nepouž'
'neposl'
'nepos'
'nepatří_'
'neobvykl'
'nemohl'
'nemocí_'
'nem_'
'nel'
'nekonečn'
'nejčastěji_'
'nejvý'
'nejle'
'nehr'
'neexistuje_'
'neděli_'
'neděl'
'nedostate'
'nedosta'
'nedop'
'nechtě'
'nebudeme_'
'nebo'
'naším_'
'nazýván'
'nazýv'
'navštívit_'
'navrhl_'
'nau'
'nato'
'nastoupil'
'naruš'
'narozen'
'naro'
'napětí_'
'najdete_'
'nahrá'
'naději_'
'naděje_'
'nacháze'
'nabízen'
'nabídn'
'mž'
'mů'
'měření_'
'míč_'
'míst'
'mírov'
'mí_'
'mát'
'mám'
'mál'
'myšlenky_'
'mysli_'
'mysli'
'muze'
'mut'
'musela_'
'mt'
'mořsk'
'moře_'
'mozek_'
'moudrý'
'moji_'
'moderního_'
'modelů_'
'mocn'
'mnozí_'
'mnoho'
'mme'
'mlék'
'mlá'
'mluv'
'mladá_'
'mise_'
'minc'
'milovat_'
'milion'
'mili'
'metaboli'
'mes'
'medvěd'
'med'
'mbo'
'maxim'
'matce_'
'mast'
'maso'
'mapě_'
'mapu_'
'malíř'
'malo'
'magi'
'mag'
'lži'
'lů'
'líbil'
'léků_'
'lékařů_'
'lékaři_'
'lékařem_'
'lásku_'
'lásk'
'lásce_'
'lá_'
'lymf'
'luv'
'lub'
'lt_'
'lovat'
'lot'
'los'
'lokalit'
'logo'
'lodi_'
'lod'
'lněn'
'lno'
'lm'
'lli'
'lk'
'liš'
'ličk'
'livé_'
'lis_'
'linky_'
'lidsk'
'lidn'
'lh'
'lf_'
'lf'
'letý_'
'ler_'
'lek'
'legrace_'
'legend'
'lec'
'latinsk'
'land_'
'lak'
'lab'
'kým'
'kém_'
'káv'
'kám_'
'kytic'
'květnu_'
'kvalitní_'
'kus_'
'kulturní'
'krátkodob'
'krátce_'
'krásná_'
'krále_'
'krvácení_'
'kruhu_'
'krou'
'kriz'
'krevní'
'krev_'
'kresl'
'kraje_'
'ková_'
'kovi_'
'kouř'
'kous'
'koupí'
'koul'
'kosm'
'kos'
'korupc'
'konzulta'
'konve'
'kontroly_'
'kontrolu_'
'kontrolova'
'kontakt_'
'konkur'
'konferenci_'
'konference_'
'kone'
'kond'
'komunismu_'
'komunikovat_'
'komerční'
'koleg'
'knihovny_'
'knih'
'kni'
'klíč'
'kluk'
'klubu_'
'kloub'
'klidn'
'kj'
'kilometr'
'kci'
'kavárn'
'kart'
'kapitol'
'kapalin'
'kanálu_'
'kanál'
'kandid'
'kabin'
'kab'
'jó'
'jídlo_'
'jídl'
'já'
'jur'
'jský'
'jov'
'jní_'
'jmenuje_'
'jmenován'
'jistá_'
'jinými_'
'jiní_'
'jihu_'
'jest_'
'jeskyn'
'jenž_'
'jemný'
'jeli'
'jejíž_'
'jejím'
'jednoduchý'
'jedn'
'jed'
'jdu_'
'jasný_'
'jakýkoli'
'jakéhokoli_'
'jaká_'
'jakoby_'
'ičku_'
'ičk'
'izov'
'ivý_'
'ití_'
'itov'
'itat'
'isko'
'ira'
'ips_'
'inženýr'
'investovat_'
'int'
'institut'
'inovac'
'inkoust'
'ink'
'informoval'
'informační_'
'informační'
'informati'
'infekcí_'
'indi'
'imp'
'ilet'
'ile_'
'iky_'
'ije'
'ido'
'idl'
'identi'
'ics_'
'ického_'
'hřích'
'hé_'
'hvězd'
'hudby_'
'hrál'
'hru'
'hrad_'
'hovoři'
'hotov'
'hodnota_'
'hnout_'
'hna'
'hmotnost'
'hleda'
'hle'
'hlavě_'
'hlado'
'historické_'
'hez'
'herní_'
'haz'
'hardcore_'
'gur'
'gov'
'gori'
'gment'
'geno'
'genní_'
'generál'
'fém'
'fá'
'fyzik'
'funkční_'
'fun'
'fro'
'francouzský_'
'fotk'
'formy_'
'forma_'
'ford'
'finan'
'filtr'
'filmů_'
'fie'
'festival_'
'fest'
'feno'
'feder'
'falešn'
'faktory_'
'fa_'
'ež'
'explo'
'existují_'
'exi'
'ew'
'evropským_'
'evropské'
'eva'
'eur_'
'etri'
'etický'
'eth'
'eta'
'ess_'
'ess'
'ersk'
'ern'
'erb'
'era_'
'era'
'ené'
'ente'
'enky_'
'enka_'
'enk'
'enin'
'eni'
'energií_'
'energi'
'emen'
'email'
'ema'
'em'
'ely_'
'els'
'elný'
'elno'
'elli'
'elle'
'elektroni'
'elektrický'
'elekt'
'ejí_'
'eji_'
'eho_'
'ecké_'
'důležitější_'
'důchod'
'dů_'
'dře'
'děv'
'dětský'
'dětmi_'
'děkuj'
'dívat_'
'díva'
'dávno_'
'dávk'
'dáva'
'dámy_'
'dus'
'dum'
'dubnu_'
'drže'
'dráh'
'drá'
'dry'
'druhým_'
'druhá_'
'drog'
'dri'
'dová'
'dovoleno'
'dovedností_'
'doved'
'dou_'
'dostáva'
'dostatečně_'
'dostatečn'
'dosahuje_'
'dopravy_'
'doprav'
'doporučuje_'
'dopo'
'dopad_'
'domácí'
'domy_'
'domov'
'domníva'
'dolní_'
'dokument_'
'doktorsk'
'dokonč'
'dokonalý'
'dojde_'
'dohromady_'
'dodává'
'dodá'
'dodrž'
'dodal_'
'dna'
'dli'
'dla'
'divok'
'distribuc'
'disku'
'digitální'
'dialog'
'dh'
'dge'
'deva'
'detail'
'depres'
'dent'
'dceru_'
'dcera_'
'daří_'
'daném_'
'dam'
'dali_'
'dac'
'církevní'
'církev_'
'cího_'
'cév'
'cz'
'cyklu_'
'cus'
'cukru_'
'cukr'
'ctr'
'cosi_'
'cokoli_'
'cla'
'cks_'
'cker_'
'cizí_'
'cih'
'chyti'
'chyt'
'chyst'
'chyb'
'chvilku_'
'chu'
'chrá'
'chronick'
'chodit_'
'chn'
'chleba_'
'cher_'
'char'
'cet'
'cestovní'
'celkové'
'celk'
'can'
'cam'
'cal_'
'březnu_'
'běž'
'běh'
'bílá_'
'bál'
'byt_'
'burg'
'bur'
'buněk_'
'budov'
'brá'
'bruneta_'
'britské_'
'bou'
'bor'
'bonus'
'bolest_'
'bolest'
'boj'
'bohužel_'
'blondýnka_'
'bit_'
'bis'
'bibli'
'bi_'
'bezpečí_'
'bezpečnostní'
'bb'
'barvou_'
'bankov'
'band'
'bac'
'bab'
'automatick'
'autobus'
'atu_'
'atmosfér'
'atitid'
'atické_'
'atick'
'atelů_'
'ate_'
'asn'
'ary_'
'arov'
'archi'
'arabsk'
'aplikova'
'aplikací_'
'aná'
'anto'
'anonymn'
'anglick'
'analýzu_'
'analýz'
'analy'
'ams'
'amin'
'ambic'
'amat'
'alo'
'alizace_'
'alismu'
'alia'
'ali'
'alb'
'akcí_'
'akademický'
'aka'
'ající'
'ah_'
'adě'
'ads'
'adres'
'ací'
'abys_'
'absolvent'
'abs'
'abl'
'abil'
'Zřejmě_'
'Západní_'
'Základ'
'Značky_'
'Zko'
'Zařízení_'
'Zastav'
'Zahra'
'Yobt'
'Xiaomi_'
'XX_'
'XXX'
'XVI'
'Work'
'Word'
'Wea'
'Was'
'WS_'
'Vů'
'Vývojka_'
'Výbor'
'Víš_'
'Vím_'
'Víd'
'Ví'
'Válka_'
'Vyhl'
'Vstup'
'Vra'
'Volkswagen_'
'Vo'
'Vn'
'Vis'
'Vintage_'
'Viděl'
'Vezměte_'
'Veli'
'Vaši_'
'VE_'
'VB'
'Uz'
'Určitě_'
'Ukrajinců_'
'UP'
'Typ'
'Twitter_'
'Turecko_'
'Tube_'
'Tube'
'Tu_'
'Tom_'
'Tim'
'Text'
'Tep'
'Ten'
'Teen'
'Technology_'
'Techn'
'Tea'
'Tan'
'Taj'
'Tahle_'
'TA'
'Sí'
'Sá'
'Swi'
'Svět'
'Své'
'Svatý_'
'Super'
'Stát'
'Strá'
'Stor'
'Stat'
'Starší_'
'Star_'
'Stal'
'Srbsk'
'Spi'
'Space_'
'Souč'
'Sof'
'Snaží'
'Smlouv'
'Smith'
'Slov'
'Skype_'
'Sit'
'Sing'
'Sest'
'Sem'
'Sant'
'Sami'
'Sala'
'Saf'
'Rychlost_'
'Ryb'
'Ruské_'
'Rozv'
'Rozhod'
'Roy'
'Rou'
'Ron_'
'Roku_'
'Rodi'
'Rob'
'Richard'
'Rev'
'Red_'
'Rece'
'Rakousku_'
'Rady_'
'Rac'
'RO'
'RE'
'Que'
'Přít'
'Příl'
'Příklad'
'Přá'
'Přitom_'
'Přin'
'Přibližně_'
'Přestože_'
'Přest'
'Přesně_'
'Přes_'
'Představte_'
'Putin'
'Pt'
'Průměrná_'
'Profes'
'Prim'
'Pres'
'Prah'
'Poř'
'Pozor'
'Pozn'
'Poz'
'Používá'
'Použití_'
'Poro'
'Pont'
'Pomoc'
'Pokaždé_'
'Pojďme_'
'Poj'
'Podívej'
'Podpora_'
'Podobn'
'Poc'
'Plá'
'Play'
'Pin'
'Pavel_'
'Park_'
'Pad'
'PR_'
'Oz'
'Ox'
'Outlook_'
'Ostatní_'
'Open_'
'Opa'
'One_'
'Oc'
'Obra'
'Obl'
'Obchodní_'
'Oba_'
'Německo_'
'Něk'
'NÁ'
'Novinky_'
'Note'
'Nort'
'Norsk'
'Nokia_'
'Nezapomeňte_'
'Nevy'
'Největší'
'Nejvyšší'
'Nejv'
'Nedo'
'Necht'
'Nebude'
'Nebo'
'Neb'
'National_'
'Napsal'
'NU'
'NASA_'
'Můž'
'Měsíc'
'Městsk'
'Máš_'
'Mus'
'Motor'
'Mot'
'Mobil'
'Ml'
'Mini'
'Mila'
'Mik'
'Mich'
'Matka_'
'Marie_'
'Mam'
'Make'
'Maj'
'MU'
'MT'
'M1'
'Love_'
'Los_'
'Long'
'Light'
'Lid'
'Liber'
'Langdon_'
'Lab'
'LM'
'LA_'
'Krát'
'Krist'
'Korej'
'Korea_'
'Konf'
'Kome'
'Kolekce_'
'Koh'
'Kn'
'Ker'
'Kdybych'
'Kap'
'KA'
'Jun'
'Jméno_'
'Jiho'
'Ježíše_'
'Jess'
'Jeruzalém'
'Jedním_'
'Jaká_'
'Jack'
'Izraele_'
'Intern'
'Intel_'
'Institut'
'Ind'
'Imp'
'Id'
'IV_'
'IPhone_'
'IF'
'IELTS_'
'ID'
'Hou'
'Holl'
'Hledá'
'Hlas'
'Hill'
'Hagrid'
'HR'
'Gold_'
'God'
'Glob'
'Game_'
'Gab'
'GT'
'GPS_'
'GE'
'GB_'
'Fun'
'Fri'
'Francouz'
'Forex_'
'Fis'
'Fin'
'Film'
'Filip'
'Fer'
'FI'
'Exe'
'Evropská_'
'Ev'
'Eng'
'Egyptě_'
'Edit'
'ER_'
'EN'
'EL'
'Dětsk'
'Děj'
'Dív'
'Dvě_'
'Dvou'
'Dvo'
'Druh'
'Dream'
'Dov'
'Dot'
'Dospívající_'
'Dopravní_'
'Doku'
'Dok'
'Dod'
'Doc'
'Dobrá_'
'Disk'
'Det'
'Denn'
'Dejte_'
'Data'
'Dar'
'Dam'
'DP'
'DN'
'Cít'
'Cro'
'Což_'
'Country_'
'Cons'
'Com'
'College_'
'Cle'
'Chtěl_'
'Chrome_'
'Christi'
'Chla'
'Chan'
'Cesta_'
'Center_'
'Celkem_'
'Camp'
'CI'
'CD_'
'CD'
'CB'
'Bur'
'Budete_'
'Brzy_'
'Brusel'
'Brun'
'Bre'
'Bože_'
'Bou'
'Boo'
'Bol'
'Bohužel_'
'Blí'
'Black_'
'Bin'
'Belgi'
'Barcelon'
'BS'
'BIO'
'Autor'
'Autom'
'Austrálii_'
'Ark'
'Ard'
'App'
'Aplikace_'
'Anální_'
'Anna_'
'Anglie_'
'Ane'
'Anders'
'Anal'
'Ana'
'Ameriky_'
'Americe_'
'Amazon_'
'Amar'
'Ama'
'Alle'
'All_'
'Alexandr'
'Albu'
'Airlines_'
'Air'
'Ahoj_'
'Adri'
'Admi'
'Ach_'
'Acc'
'AR_'
'AG'
'AF'
'99'
'97_'
'92_'
'90'
'89'
'87'
'77_'
'75'
'62'
'56'
'1975_'
'1965_'
'1962_'
'1959_'
'1956_'
'1954_'
'1953_'
'1942_'
'1938_'
'1935_'
'1934_'
'1932_'
'1929_'
'1925_'
'1917_'
'1912_'
'19'
'180'
'162'
'161'
'144'
'143'
'140_'
'135'
'125_'
'125'
'124_'
'112'
'108'
'102'
'.»_'
'- "_'
'%)'
'%'
'$_'
'". _'
' →_'
' № _'
' | _'
' {\\_'
' ['
' :: _'
' /'
' )'
' !_'
'★'
'€'
'….'
'…"_'
'”, _'
'”, '
'” (_'
'“ '
'‘ _'
'— «_'
'​'
'ґр'
'ґа_'
'їхнім'
'їхати_'
'їст'
'іян'
'ія'
'іша_'
'ічну_'
'ічни'
'іф'
'іте'
'італійськ'
'істі'
'історі'
'істо'
'іспит'
'іслам'
'іра'
'ініці'
'іні_'
'інчен'
'інфраструктур'
'інформаційн'
'інформа'
'інтенсивно'
'інтенсивн'
'інтеграці'
'інститут'
'іноземн'
'інженері'
'індивід'
'індекс'
'інг_'
'іна'
'імунітет'
'імпо'
'імо_'
'іми_'
'ільк'
'іль_'
'ійних_'
'ійк'
'ізни'
'іжн'
'ідні'
'ідни'
'ідеальн'
'ігров'
'іграх_'
'іга'
'іг_'
'івського_'
'івськ'
'івлі_'
'івка_'
'івер'
'іат'
'єпископ'
'єнт'
'ємни'
'ємн'
'єднати_'
'єднани'
'єг'
'європейської_'
'європейських_'
'єврейськ'
'єва_'
'яю'
'ящен'
'яційн'
'ятт'
'ятник'
'ятк'
'ясо_'
'ясо'
'ясно_'
'ясни'
'яскраво'
'яскрави'
'яск'
'яну_'
'яла_'
'якраз_'
'якнай'
'яки_'
'язі'
'язнен'
'яжн'
'ядерної_'
'явн'
'явл'
'явище_'
'ює'
'ючу_'
'юридично'
'юри'
'юнак'
'юміні'
'юки_'
'юванн'
'ювали_'
'юв'
'юб'
'ьці'
'ьс'
'ьор'
'ьови'
'ьну_'
'ьно'
'ьним'
'ьник'
'ьни'
'ькій_'
'ьку_'
'ьки_'
'ы_'
'щів_'
'щур'
'щоміся'
'щир'
'щим'
'щено'
'щени'
'щен'
'шукають_'
'шук'
'шті_'
'шпигун'
'шп'
'шні'
'шлюбі'
'шлюб'
'шло_'
'шлив'
'шкіра_'
'шкільн'
'шку'
'школ'
'шиї_'
'шити_'
'шини_'
'шими_'
'шест'
'шенн'
'швидки'
'шведськ'
'шаф'
'чіп'
'чутки_'
'чуж'
'чудовий_'
'чув_'
'чотирьох_'
'чорна_'
'чолі'
'чну_'
'чною_'
'чк'
'чити_'
'читачі'
'читати_'
'чистим'
'численних_'
'численн'
'чисельніст'
'чинн'
'чинити_'
'четвер'
'чесько'
'чест'
'чес'
'черев'
'червоні'
'червоний_'
'чено'
'чем_'
'чекають_'
'частин_'
'часно_'
'часн'
'ціною_'
'ціно'
'цінност'
'цін_'
'цілковито'
'цілий_'
'цького_'
'цу'
'цтва_'
'цир'
'цилі'
'цер'
'центральн'
'цел'
'цев'
'царств'
'хіба_'
'художні'
'худ'
'хро'
'християнсько'
'християн_'
'хрип'
'хресто'
'хреб'
'хочеться_'
'хорош'
'хоп'
'холодни'
'хол'
'ході_'
'ходить_'
'хову'
'хован'
'хова'
'хов'
'хну'
'хліб'
'хлопчик_'
'хлопчик'
'хлопця'
'хли'
'хворі'
'хворо'
'хвил'
'хат'
'характерн'
'характеристик_'
'хай_'
'фінансування_'
'фінансови'
'фінансов'
'фізичні_'
'фут'
'функцію_'
'функціонує_'
'фрукти_'
'фрукт'
'французько'
'француз'
'франк'
'фра'
'фотос'
'фотографі'
'форматі'
'форм'
'фон_'
'флорист'
'флор'
'фле'
'фермент'
'ферм'
'феодал'
'федера'
'фахівець_'
'фас'
'фан'
'фальшив'
'фактом_'
'факт'
'факс'
'файла'
'уєте_'
'ує'
'ущен'
'ушу'
'уши'
'учням'
'учили'
'учи_'
'учасниц'
'ухи'
'ухвал'
'уха'
'утрима'
'утник'
'утн'
'утворю'
'утворення_'
'усіма_'
'успішно'
'успішни'
'усміх'
'усе'
'урний_'
'урз'
'управлін'
'упов'
'уо'
'університетів_'
'університет'
'унок_'
'унк'
'уна'
'ульс'
'українськ'
'україн'
'указ'
'уйтес'
'уздовж_'
'узб'
'уві'
'уве'
'увач'
'увальн'
'увався_'
'уар'
'тісно'
'тє'
'тян'
'тч'
'тх'
'тури_'
'тул'
'тс'
'труби_'
'тримав'
'трик'
'тренер'
'трен'
'трас'
'трапил'
'транспорту_'
'транспортних_'
'традиція'
'традиці'
'точні'
'точни'
'торськ'
'торн'
'торка'
'ток_'
'ток'
'тн'
'тла'
'тичний_'
'тична_'
'тичн'
'тифік'
'тинг'
'тивно_'
'течі'
'тесь_'
'тесту'
'тестостерону_'
'тест'
'терп'
'терорист'
'терміново'
'теор'
'температури_'
'теля'
'телефонн'
'тект'
'тексті'
'тексту_'
'тей'
'тег'
'твоєму_'
'творч'
'таємниці_'
'тату'
'тати_'
'танці'
'тан_'
'такс'
'так'
'сіс'
'сім'
'сіл'
'сіда'
'сіа'
'сьогоднішні'
'сцен'
'сход'
'схильні_'
'схил'
'схеми_'
'схвален'
'сферах_'
'сучасному_'
'сухи'
'сух'
'суті_'
'сусідів_'
'сусідн'
'суспільство_'
'супутников'
'сумн'
'суми_'
'суве'
'сувати_'
'сті'
'ступені'
'стук'
'студента_'
'строк'
'стри'
'стрес_'
'стратегі'
'страждає_'
'стосунки_'
'стосунк'
'сторіч'
'стол'
'стично'
'стичн'
'стисн'
'стероїд'
'стен'
'створено_'
'створен'
'стверджує_'
'статі_'
'стаття_'
'статт'
'статей_'
'старши'
'старих_'
'станцій_'
'становил'
'станови'
'стадіон'
'ставить'
'ставити_'
'стави'
'спільно_'
'спілкування_'
'співпрацюва'
'спрямовані'
'справа'
'спортивн'
'спонсор'
'сподіваюс'
'сподіва'
'сповн'
'сплав'
'спить_'
'спеціальні'
'спеціальний_'
'спектр_'
'соціальні_'
'соціальну_'
'соціального_'
'сором_'
'соль'
'солодк'
'собака_'
'смі'
'смо'
'сме'
'смак_'
'слові'
'словник'
'скро'
'скоп'
'ском'
'складно'
'складними_'
'складни'
'скасувати_'
'скар'
'сканд'
'ск'
'сит'
'системою_'
'синдром'
'сильни'
'силою_'
'сик'
'сигар'
'сес'
'серійн'
'серцем_'
'сертифікаці'
'сертифікат'
'середньовіч'
'середи'
'сервері'
'серб'
'сер_'
'секторі'
'сектор'
'сексуально'
'сезону_'
'сезон'
'се_'
'світлі_'
'свідчи'
'свідч'
'свідомості_'
'священик'
'святкува'
'свят'
'своє'
'свин'
'сар'
'самих_'
'сайти_'
'рія_'
'річно'
'річний_'
'річку_'
'рін'
'різноманітні_'
'різни'
'рідкіс'
'рідко_'
'рідин'
'рід_'
'рів'
'руйнується_'
'руж'
'рр_'
'росіян'
'рослин_'
'ропо'
'роком_'
'розумієте_'
'розуміє_'
'розуміти_'
'розумо'
'розташування_'
'розташовува'
'розташований_'
'розташоване_'
'розстріл'
'розробля'
'розроблен'
'розробк'
'розроби'
'розрахунк'
'розпочат'
'розпоч'
'розповіла_'
'розпові'
'розповсюдж'
'розміщу'
'розмісти'
'розмови_'
'розм'
'розлад'
'розкаж'
'розділ_'
'роздр'
'розглян'
'розглядає'
'розгляда'
'розви'
'розв'
'розб'
'робітни'
'робіт_'
'робочому_'
'роботою_'
'робото'
'робиш_'
'робимо_'
'робили_'
'рно_'
'рна_'
'риємц'
'риси_'
'ризики_'
'ризиками_'
'рива'
'рив'
'решт_'
'репр'
'релігії_'
'реконструкці'
'реклам'
'рез'
'режиму_'
'регіоні_'
'регулювання_'
'регулюва'
'реб'
'реалізації_'
'реальності_'
'реальни'
'реакці'
'реа'
'рдо'
'раї'
'раєт'
'рахунку_'
'рахунки_'
'рати_'
'ранньо'
'радий_'
'ради_'
'пістолет'
'підійшл'
'підтримувати_'
'підтрима'
'підтверджу'
'підручник'
'підприємці'
'підозр'
'підліток_'
'піде'
'підвищенн'
'підвал'
'підби'
'півтора_'
'південь_'
'пш'
'пусти'
'пунктів_'
'пункт_'
'птом'
'псува'
'психічно'
'пряму'
'проявляє'
'процесор_'
'процеси_'
'проц'
'проходять_'
'профіль_'
'профілакти'
'професійним_'
'професійни'
'професійн'
'проф'
'протокол'
'противни'
'простір_'
'просторі_'
'простий_'
'просте'
'прост'
'пропорці'
'пропозиці'
'пропаганд'
'промисловості_'
'промислово'
'промен'
'прокину'
'проки'
'проект'
'продукці'
'продуктивні'
'продукта'
'проду'
'продемонструва'
'продан'
'прогрес'
'програ'
'прогноз'
'провідни'
'проводил'
'проблемами_'
'проби'
'причина'
'прихову'
'прихильн'
'притяг'
'присутності_'
'пристроя'
'пристро'
'прискор'
'природного_'
'припинити_'
'припин'
'приніс_'
'принесл'
'приміщення_'
'прикрас'
'прикладів_'
'прик'
'прийшли_'
'прийшла_'
'прийому_'
'прийня'
'прийде_'
'призначені_'
'призе'
'призводить_'
'приготувати'
'приготування_'
'приголомшлив'
'пригад'
'привіта'
'прибутк'
'прибува'
'прес_'
'препарат'
'прекрасни'
'прекрасн'
'президентськ'
'президентом_'
'представляє'
'представит'
'предмети_'
'працівників_'
'працівники_'
'працівник'
'практику'
'прагну'
'правово'
'право'
'правління_'
'правильни'
'правильне_'
'правди'
'правд'
'поєднує'
'поєдна'
'поясни'
'пояс'
'пощасти'
'пошуках_'
'поштою_'
'починати_'
'почало'
'почал'
'поц'
'похован'
'потрібний_'
'потребу'
'потреба'
'поточн'
'постійним'
'постраждали'
'постра'
'постачальник'
'поставля'
'поставлен'
'пост'
'послу'
'посили'
'посила'
'поси'
'порядок_'
'портрет'
'порошк'
'пороз'
'пород'
'пори'
'поразк'
'популярний_'
'попроси'
'попро'
'попередніх_'
'попередні'
'поміча'
'помітит'
'помір'
'пом'
'політични'
'поліпш'
'полів'
'поль'
'половини_'
'половина_'
'полковник'
'полегш'
'пол'
'покриття_'
'покрит'
'поко'
'поклик'
'покласти_'
'поклада'
'поклав'
'показати_'
'познайоми'
'поза'
'поділяють'
'подушк'
'подорожува'
'подивився_'
'подвійни'
'подати_'
'подальшого_'
'поглядом_'
'поглина'
'повітрян'
'повідомляє_'
'повідомил'
'повід'
'повторно'
'повод'
'повну_'
'повернулася_'
'побудована_'
'побудован'
'побачите_'
'пляжі'
'пли'
'плен'
'плащ'
'плач'
'платіж'
'платити_'
'плати_'
'планувал'
'план_'
'пишу'
'питанням'
'письмово'
'пир'
'першому_'
'персональних_'
'перешкод_'
'перешкод'
'переход'
'перех'
'перепис'
'перео'
'перенос'
'перенес'
'перен'
'переміщення_'
'перем'
'переконатися_'
'перекладач'
'перек'
'переймен'
'переду'
'передн'
'передає_'
'передава'
'перевищ'
'перевер'
'переве'
'первинн'
'перв'
'пені'
'пел'
'пект'
'пед'
'певний_'
'певни'
'паті'
'парті'
'парт'
'пароль_'
'парк'
'паперу_'
'панува'
'пальн'
'паз'
'паву'
'оши'
'оше'
'очу'
'очолював_'
'очоли'
'очок_'
'очис'
'очен'
'оцінюва'
'оціню'
'оці'
'охоп'
'оха'
'офіційний_'
'офіційни'
'оформлення_'
'оформ'
'отримала_'
'отр'
'осто'
'останнім_'
'останн'
'особливі'
'особливий_'
'особисті'
'оснащен'
'осл'
'освітн'
'оса'
'орії_'
'орс'
'орма'
'орм'
'орк'
'орит'
'оригінальни'
'оре'
'опус'
'оптим'
'оприлюдн'
'опитування_'
'опис_'
'опис'
'опинил'
'оперативн'
'опе'
'онування_'
'ону'
'омат'
'ома_'
'оль_'
'олив'
'оли'
'олет'
'оле'
'околиц'
'око_'
'оки'
'ока_'
'ока'
'ой_'
'ознака'
'озиці'
'озирну'
'одружи'
'один'
'одил'
'одав'
'ода'
'огляд'
'огл'
'овую'
'овс'
'овор'
'овно'
'овн'
'овл'
'ович_'
'овик'
'овані'
'ованої_'
'овано'
'обіг'
'обстанов'
'обставини_'
'обставин_'
'обст'
'обслуговува'
'обс'
'обоє_'
'обмінни'
'обмі'
'обли'
'обговори'
'обговоренн'
'ніякого_'
'нія'
'ніст'
'ніс_'
'німецьк'
'нікому_'
'нікого_'
'нік'
'няти'
'нят'
'нчи'
'нц'
'нтаж'
'нсько'
'нс_'
'носо'
'носити_'
'носа_'
'норми_'
'норм_'
'ноп'
'номери_'
'нол'
'нога'
'новому_'
'нова'
'ннях_'
'нний_'
'нни'
'нко'
'нка'
'ниць'
'нир'
'нин'
'низьки'
'несправедлив'
'несе_'
'нерухом'
'неприємні'
'непов'
'необхідності_'
'необхідний_'
'ненавид'
'нем'
'неймовірно'
'незнайом'
'незвичайн'
'незалежно_'
'незалежно'
'незаконно'
'незадов'
'недолік'
'недавн'
'негативни'
'негативн'
'невідом'
'небо_'
'небезпек'
'нду'
'ндр'
'нга'
'наявність_'
'наче'
'національної_'
'національним'
'національний_'
'нацист'
'нафт'
'наукови'
'натовп'
'натисніть_'
'насто'
'настан'
'наст'
'насолоджуватися_'
'насиль'
'наса'
'народил'
'народжу'
'народжени'
'народжен'
'народ_'
'наречено'
'напів'
'напоїв_'
'написана_'
'напе'
'нападу_'
'наміри_'
'нами'
'намагатис'
'нала'
'нако'
'наклад'
'наки'
'наказа'
'наказ_'
'найш'
'найст'
'найр'
'найменш'
'найкращі_'
'найкращих_'
'найдорожч'
'найгірши'
'найголовніш'
'найважливіши'
'найваж'
'називати_'
'називал'
'назива'
'назвали_'
'надих'
'надають_'
'надавал'
'нагаду'
'наг'
'навчальний_'
'нави'
'набра'
'наби'
'місько'
'місцеві_'
'міститься_'
'мірою_'
'мінімальни'
'міне'
'мілі'
'мільярдів_'
'міл'
'міжнародно'
'міжнародним'
'мушу_'
'муси'
'муль'
'музей_'
'мудр'
'моїм_'
'мото'
'моти'
'морськи'
'морально'
'моральн'
'мора'
'мон'
'молочн'
'молоко'
'молодо'
'молекул'
'мозок_'
'можливо'
'можливе_'
'моди_'
'могутн'
'мовити_'
'мобільні'
'мобільного_'
'мобільн'
'мл_'
'миш'
'мистецтво'
'мислив'
'мирни'
'мирн'
'минуле_'
'мешканців_'
'мешкан'
'меч'
'механізм_'
'меться_'
'методик'
'мети'
'метаболізм'
'мережа_'
'мереж_'
'мен_'
'медіа_'
'медикамент'
'мг_'
'маючи_'
'машин_'
'матчі_'
'матр'
'матични'
'матери'
'маса'
'мас'
'мано'
'мамою_'
'малі'
'маленькі_'
'макро'
'магістра_'
'магні'
'маг'
'ліч'
'літо_'
'літературн'
'літака_'
'лісу_'
'ліст'
'лісови'
'ліп'
'ліна_'
'лізаці'
'ліжк'
'лях_'
'ляться_'
'ляти_'
'лютому_'
'людської_'
'людства_'
'любить_'
'любити_'
'любил'
'льт'
'льод'
'льня'
'льного_'
'льним_'
'лук'
'лоп'
'лока'
'лові'
'ловл'
'лиш'
'лих'
'листопаді_'
'листи_'
'лист_'
'лила'
'лик'
'лесбіянки_'
'лені_'
'лем_'
'лежав_'
'легенд'
'ламп'
'лазерн'
'кішк'
'кінч'
'кінцевому_'
'кінцеви'
'кінце'
'кімнаті_'
'кімната_'
'ківськ'
'кухо'
'куто'
'курса'
'купл'
'культурно'
'культурн'
'кук'
'ктивн'
'кріп'
'кроків_'
'крича'
'кристал'
'крипт'
'кримінальн'
'крик'
'кризу_'
'красн'
'крадіжк'
'коч'
'котр'
'котл'
'космос'
'корі'
'корпус_'
'короткий_'
'короля_'
'корол'
'користується_'
'користувалися_'
'корисні_'
'корисно'
'корисних_'
'кордонів_'
'кордоном_'
'кордон'
'копа'
'коня_'
'концеп'
'конфіденційності_'
'конференці'
'контролю'
'контроль'
'контроле'
'контакту'
'контакти_'
'конструкцій'
'конкурс_'
'конкретн'
'комітет'
'комусь_'
'комунікацій'
'комуні'
'компроміс'
'компа'
'комерційни'
'коментар'
'коме'
'комах'
'коліна_'
'колишнього_'
'кожні_'
'кожний_'
'коду_'
'кової_'
'кнул'
'клієнтам_'
'клієнта_'
'клітк'
'клімат_'
'клубу_'
'класни'
'класифікаці'
'кладн'
'кишені_'
'кише'
'китн'
'кит'
'кисн'
'кинут'
'керує_'
'керу'
'кера'
'кер'
'кель'
'кг_'
'кві'
'кає_'
'кач'
'карто'
'картину_'
'карб'
'капіталі'
'кані'
'канадськ'
'кампанії_'
'кампані'
'кажу_'
'каво_'
'йшов_'
'йські_'
'йсь'
'йні'
'йле'
'йдіть_'
'иш_'
'ичні'
'ицею_'
'ит_'
'ису'
'иск'
'иру'
'ирн'
'ири'
'ипа'
'има_'
'ильніш'
'ила'
'иков'
'икал'
'изм_'
'ижн'
'иден'
'иву_'
'зірки_'
'зірка'
'зір'
'зін'
'зізна'
'зіа'
'зя'
'зустрічаються_'
'зупиня'
'зручн'
'зростаюч'
'зрос'
'зрозумі'
'зроблено_'
'зразк'
'зп'
'зовнішні'
'зображень_'
'знім'
'знят'
'зний_'
'значить_'
'знахідк'
'знан'
'знала_'
'знайшов_'
'знайомих_'
'знадобит'
'змінювати_'
'зміна'
'змушен'
'зменшується_'
'зменшити_'
'зм'
'зла_'
'зич'
'зик'
'зивн'
'зелени'
'здійснен'
'здібност'
'здогад'
'здивувал'
'зди'
'здат'
'здалося_'
'здава'
'зда'
'згоди'
'згод'
'згадува'
'звіт'
'звільнити_'
'звільни'
'звуча'
'зворуш'
'зворотно'
'звичк'
'збільшення_'
'збіга'
'збудува'
'збору_'
'збирається_'
'збираю'
'заче'
'зача'
'захід_'
'захоче'
'захоплюва'
'захо'
'захищен'
'захвор'
'зафіксу'
'зауваження_'
'затримал'
'зати'
'затверди'
'затверджен'
'засіб_'
'застосуванн'
'застосовувати_'
'застосовува'
'заста'
'заснув'
'заск'
'зароб'
'зареєстр'
'запусти'
'запрошу'
'запровад'
'запобігання_'
'запитан'
'записан'
'заперечу'
'заперечив_'
'запевн'
'запах'
'запал'
'заохочу'
'занят'
'заміни'
'замін'
'замо'
'замку_'
'залізниц'
'залишиться_'
'залишилося_'
'залишили_'
'зала'
'зал_'
'законодавство'
'зако'
'закликав_'
'зайняти'
'займає_'
'зазначен'
'зазнав'
'задні'
'задля_'
'загиблих_'
'заві'
'завер'
'завданням_'
'завгодно_'
'забува'
'забруднен'
'забра'
'забор'
'забезпечують_'
'жінці_'
'жує_'
'жує'
'журналістів_'
'журнал_'
'жорстоко'
'жорсток'
'жорстки'
'жодн'
'жовч'
'жності_'
'жно'
'жл'
'жк'
'житло'
'жиру_'
'жил'
'живий_'
'живемо_'
'жертву_'
'жена_'
'жає_'
'жанр'
'жак'
'еці_'
'ефективного_'
'ефективний_'
'ефекти_'
'етів_'
'етнічн'
'есій'
'есл'
'есен'
'ес_'
'еріг'
'еріал'
'ері_'
'ерш'
'еру_'
'ером_'
'еро_'
'ерм'
'ерин'
'еренці'
'ережн'
'ерв'
'еран'
'епідемі'
'епох'
'епо'
'енергі'
'ене'
'емоції_'
'емні_'
'ельф'
'ельн'
'елл'
'елен'
'елементів_'
'електронно'
'електронни'
'електроенергі'
'екіпаж'
'ектр'
'екто'
'експон'
'експлуат'
'економік'
'еко'
'екзо'
'екз'
'езі'
'еваку'
'дітьми_'
'діт'
'дійшл'
'дійсно'
'дізнатись_'
'дівчину_'
'дівчинк'
'дівчат_'
'діаг'
'дяга'
'дюйм'
'дс'
'дрібні_'
'другу_'
'другому_'
'друго'
'друг_'
'драм'
'дошк'
'досягнут'
'досягл'
'доставк'
'дослідників_'
'дослід'
'доросло'
'дорослих_'
'дорогоцінн'
'допо'
'доньк'
'домо'
'домага'
'долі_'
'дозволили_'
'додаткових_'
'додав_'
'довіряти_'
'довіря'
'довід'
'добр'
'добов'
'доб'
'дно'
'дниц'
'днем_'
'дитячо'
'дитя'
'дитині_'
'дити_'
'дисциплін_'
'дискомфорт'
'директор_'
'дипломн'
'дизайнер'
'дивл'
'див_'
'джу'
'джин'
'джерелом_'
'дже'
'дж_'
'деякий_'
'дешевш'
'детал'
'дет'
'десятків_'
'десятки_'
'десяти_'
'дес'
'державних_'
'державний_'
'депресі'
'дено'
'демонт'
'дез'
'дедалі_'
'двигуна'
'двер'
'дба'
'дату_'
'дальн'
'дава'
'гія_'
'гір'
'гіперт'
'гіп'
'гів'
'густи'
'гус'
'грі'
'групу_'
'групами_'
'груб'
'громадськи'
'грає'
'графа_'
'грамот'
'готовий_'
'готелю_'
'гормональн'
'гормон'
'гомо'
'голосува'
'голоси_'
'голоду_'
'голод'
'головно'
'голов'
'годині_'
'годинник'
'годи'
'говорю_'
'говорили_'
'говори'
'гов'
'гнізд'
'гнучк'
'гма'
'гляну'
'глядач'
'гляд'
'глобальни'
'глибоко_'
'глибок'
'глад'
'гет'
'гепатит'
'генетичн'
'ген_'
'гарячо'
'гарне'
'галуз'
'газети_'
'гав'
'вічно'
'вічне_'
'вітр'
'вірусн'
'вірно_'
'віри_'
'віри'
'віна_'
'віко'
'військови'
'вій'
'відіграє_'
'відчут'
'відчувають_'
'відхил'
'відповідно'
'відповідальн'
'відомості_'
'відомого_'
'відомо'
'відомим'
'відображає'
'відносно_'
'відн'
'відмінност'
'відмовля'
'відмовил'
'відл'
'відкрити'
'відкриває'
'відкри'
'відкл'
'відки'
'відзнач'
'відгу'
'відг'
'відвідуван'
'відбулося_'
'відбулася_'
'вят'
'вчен'
'вчасно_'
'вця'
'вхід'
'вує'
'вую'
'вул'
'втрачен'
'втрати'
'вторг'
'вступ_'
'встиг_'
'врятувати_'
'вре'
'вразлив'
'враження_'
'вправи_'
'впоратися_'
'впливають_'
'впадає_'
'восьм'
'володі'
'вок_'
'вод'
'внутрішньо'
'вниц'
'вний_'
'внен'
'вмі'
'власніст'
'власної_'
'власно'
'власників_'
'власний_'
'включити_'
'включен'
'вказує_'
'вказано'
'виїз'
'виявлення_'
'вищої_'
'вищо'
'вища_'
'виходи'
'витрачає'
'витрач'
'витратити_'
'виступил'
'виступав_'
'виступ_'
'виступ'
'виставл'
'виси'
'вирішує'
'вирішувати_'
'виробнич'
'виправд'
'виповни'
'випад'
'винятков'
'вину'
'виникн'
'виникл'
'виникає_'
'вимогам_'
'вимкн'
'вими'
'вимагають_'
'вима'
'вилікувати_'
'використовували'
'використати_'
'виконують_'
'викона'
'викли'
'викла'
'вийд'
'визнав'
'визна'
'виділя'
'видобу'
'виготовлення_'
'вигод'
'вигна'
'виглядал'
'вивчати_'
'вибран'
'виборах_'
'вибор'
'вибирати_'
'виби'
'вибач'
'взяли_'
'взяв_'
'взуття_'
'вживати_'
'вживання_'
'вечер'
'весілля_'
'весели'
'велич'
'велет'
'ведмідь_'
'вдається_'
'вда'
'вго'
'вважати'
'вважа'
'вбити_'
'вбивство_'
'вають'
'ваю'
'ваш'
'вані'
'вань_'
'вантажів'
'вано_'
'вани'
'валюти_'
'вальник'
'валь'
'вакцин'
'вай'
'важливу_'
'важкі'
'важко'
'вад'
'бічн'
'біологічно'
'більші'
'більшою_'
'більший_'
'бізнес'
'бідни'
'бідн'
'бігти_'
'бюро'
'бутні'
'бурк'
'будинків_'
'брі'
'брудн'
'британський_'
'британськ'
'брит'
'брати'
'брал'
'бр'
'боці_'
'бонус_'
'бойови'
'бода'
'блука'
'блискуч'
'блискавк'
'благодійн'
'бере'
'бей'
'безпо'
'безпечн'
'безнадійн'
'бачиш_'
'бачить_'
'бачення_'
'бат'
'банківськи'
'банку_'
'бал_'
'бак'
'байдуже_'
'базі_'
'баз'
'бажаєте_'
'бажа'
'баг'
'бабусі_'
'баб'
'аємо_'
'афр'
'аут'
'аудіо'
'аті'
'атори_'
'ативн'
'ате'
'астро'
'асто'
'асоці'
'арі_'
'археологічн'
'аро'
'арний_'
'аргумент'
'апт'
'апи'
'апе'
'аніст'
'анті'
'античн'
'антиб'
'анти_'
'анта_'
'ансько'
'аном_'
'анов'
'анек'
'ане'
'англійська_'
'аналізу_'
'аналогі'
'амент'
'амб'
'аля'
'альф'
'альної_'
'альбом'
'алергі'
'акції_'
'активні'
'актер'
'акт_'
'академі'
'ак_'
'азіатськ'
'азу'
'ажен'
'аже'
'аду'
'адн'
'аджу'
'адапт'
'ада_'
'агресі'
'агат'
'автомобіл'
'авк'
'аварії_'
'авал'
'ава'
'абс'
'аа'
'Щодня_'
'Школа_'
'Швидкість_'
'Шанха'
'Шановні_'
'Шан'
'Чоловіч'
'Член'
'Читати_'
'Чехія_'
'ЧН'
'Центральна_'
'Центр'
'Христо'
'Христ'
'Хре'
'Хорош'
'Хорват'
'Хен'
'Хел'
'Хе'
'Філіп'
'Футбол'
'Фро'
'Форма'
'Флори'
'Флоренці'
'Фед'
'Ун'
'Ук'
'Тіло_'
'Туре'
'Трен'
'Традиці'
'Тихо'
'Тис'
'Технічн'
'Техас'
'Тесто'
'Тере'
'Тві'
'Такий_'
'Сім_'
'Сідн'
'Схож'
'Сход'
'Сума'
'Сум'
'Стіл'
'Стів'
'Стріл'
'Сторон'
'Стол'
'Стаття_'
'Спів'
'Спортивн'
'Сподіваюся_'
'Сподіва'
'Спершу_'
'Сор'
'Сні'
'Сн'
'Сміх_'
'Слуха'
'Сл'
'Скор'
'Скажіть_'
'Систем'
'Серед'
'Сербі'
'Сем_'
'Світл'
'Саха'
'Санкт_'
'Сав'
'Різн'
'Росію_'
'Розумі'
'Розмір_'
'Риз'
'Ремонт_'
'Рем'
'Рек'
'Реа'
'Раді'
'Ради_'
'Рад'
'РО'
'Підтрим'
'Підп'
'Підк'
'Пів'
'Путін_'
'Процитовано_'
'Проф'
'Пропозиці'
'Прихо'
'Прист'
'Принц'
'Принаймні_'
'Привіт_'
'Прив'
'Прем'
'Президентом_'
'Працю'
'Похо'
'Потр'
'Пол_'
'Погод'
'Повітря'
'Поверне'
'Пи'
'Петро_'
'Петра_'
'Петр'
'Перше_'
'Парламент'
'Пане_'
'Палі'
'Пала'
'Пак'
'Павло'
'Пав'
'Оч'
'Ох'
'Отримайте_'
'Особлив'
'Освіт'
'Організа'
'Онлайн_'
'Олександр_'
'Обо'
'Обидв'
'Об_'
'Німеччин'
'Нігерії_'
'Норвегі'
'Нор'
'Ном'
'Новини_'
'Нес'
'Незважаючи_'
'Неза'
'Наш'
'Наці'
'Науков'
'Наука_'
'Нат'
'Наскільки_'
'Нас_'
'Народи'
'Нарешті_'
'Наприкінці_'
'Налаштува'
'Найс'
'Найд'
'Найв'
'Над_'
'НН'
'НК'
'НД'
'НА_'
'НА'
'Місяц'
'Міністерства_'
'Мініст'
'Міжнародно'
'Міжнародний_'
'Міжнародн'
'Музе'
'Муд'
'Моя_'
'Моск'
'Модель'
'Минуло'
'Мет'
'Мері'
'Маю'
'Марс_'
'Мам'
'Макс'
'Мад'
'Літ'
'Ля'
'Людина_'
'Любов_'
'Луї'
'Лук'
'Лесбі'
'Лео'
'Латинськ'
'ЛЬ'
'Кіл'
'Курс_'
'Крит'
'Країн'
'Користувач'
'Конце'
'Контр'
'Контакт'
'Колись_'
'Кожно'
'Кожний_'
'Книги_'
'Кнехт'
'Київ'
'Керівництво_'
'Карл_'
'Канада_'
'Каме'
'Каліфорні'
'Казахс'
'Кав'
'КН'
'ИН'
'Зрештою_'
'Золот'
'Зображення_'
'Знову_'
'Знає'
'Змага'
'Земл'
'Зеланді'
'Здається_'
'Звідки_'
'Зве'
'Захи'
'Зат'
'Заснов'
'Запро'
'Запит'
'Замо'
'Залиши'
'Зали'
'Закінчи'
'Закарпат'
'Зай'
'Заб'
'ЗС_'
'ЗМІ_'
'ЗА'
'Жіноч'
'Ефективн'
'Екстр'
'Економіка_'
'Ей'
'Ев'
'ЕС_'
'ЕН'
'Дія_'
'Дін'
'Дівчата_'
'Дякуємо_'
'Другої_'
'Дорог'
'Допом'
'Докладніше_'
'Дозвол'
'Догов'
'Довг'
'Добре_'
'Дн'
'Дитяч'
'Джона'
'Держав'
'Дере'
'Демо'
'Деко'
'Дек'
'Девід_'
'Давид'
'ДР_'
'ДО'
'Гус'
'Гум'
'Гро'
'Греції_'
'Гон'
'Головни'
'Гол'
'Гов'
'Герміона_'
'Генрі'
'ГО'
'Вільям'
'Відповідь_'
'Відм'
'Ву'
'Втр'
'Всесвіт'
'Воз'
'Вн'
'Вкл'
'Виявл'
'Вист'
'Вип'
'Використовуйте_'
'Виберіть_'
'Весь_'
'Верховн'
'Верхн'
'Венесуел'
'Вед'
'Вег'
'Веб_'
'Ван_'
'Валентина_'
'Вале'
'Ваг'
'ВА'
'ВІ'
'Більш_'
'Біло'
'Білий_'
'Було_'
'Будинок_'
'Брюссел'
'Британія_'
'Британськ'
'Бразилії_'
'Болгарі'
'Бой'
'Божий_'
'Бло'
'Близько_'
'Бей'
'Безп'
'Безкоштовні_'
'Бас'
'Багат'
'Ах'
'Африк'
'Ау'
'Атлант'
'Аст'
'Антоні'
'Анд'
'Але'
'Автор_'
'Австрії_'
'Італійськ'
'Ісла'
'Інш'
'Інф'
'Інакше_'
'Іл'
'Із_'
'Іде'
'Ігр'
'Івано'
'Єдин'
'Єгипт'
'Європа_'
'Євангелі'
'žák'
'žádal'
'žá'
'žsk'
'žný'
'žního_'
'žno'
'žko'
'živý_'
'živé_'
'životního_'
'životnost'
'životn'
'živote'
'žití'
'žijící'
'žij'
'žie_'
'židovské'
'židl'
'žená'
'železniční_'
'žad'
'Žádné_'
'Život_'
'Živ'
'Židů'
'ůsob'
'ůl'
'ťo'
'ťa'
'šťastn'
'ším'
'štíhl'
'ští'
'što'
'špinavý'
'šní_'
'šlechtic'
'šla'
'škálu_'
'šku_'
'škr'
'školní_'
'škody_'
'ško'
'široký_'
'široké_'
'šim'
'šik'
'šav'
'Švýcarsku_'
'Švejk'
'Št'
'Šl'
'Ši'
'řízn'
'říká'
'říjen_'
'říd'
'řát'
'řádně_'
'řádku_'
'řské'
'řsk'
'řn'
'řis'
'řice'
'řešit_'
'řeknu_'
'řekn'
'řejn'
'ředn'
'řeck'
'řadou_'
'Říma'
'Říka'
'Řekni_'
'Řekn'
'Řekla_'
'ŘE'
'ňsk'
'ňován'
'ěšn'
'ěš'
'ěti'
'ěný_'
'ěny_'
'ěmi_'
'ěhoval'
'ěhn'
'ěhl'
'ěch'
'ďá'
'ďarsk'
'čítá'
'číta'
'čísel_'
'částe'
'část'
'čá'
'čtvrtý'
'čování_'
'člán'
'členové_'
'čká'
'čiš'
'čit'
'čisté_'
'činn'
'četné_'
'české'
'čes'
'červnu_'
'čerstvé'
'čelist'
'čekat_'
'časy_'
'častější'
'častěji_'
'častn'
'časopis_'
'čase'
'čaroděj'
'čaj_'
'Čís'
'Čt'
'Člen'
'Černý_'
'Ča'
'ývají_'
'ýc'
'úředníci_'
'úřad_'
'úřad'
'účinnost_'
'účely_'
'účelem_'
'účastníci_'
'úzko'
'úvah'
'útoky_'
'úterý_'
'ústavu_'
'úst_'
'úspěchy_'
'úprav'
'úplné_'
'únoru_'
'únik'
'úna'
'úmysl'
'úmluv'
'úloh'
'údaj'
'óz'
'ód'
'ó_'
'íží'
'íře_'
'íček_'
'ívat_'
'ívají'
'íst'
'írov'
'íná'
'ína_'
'ílá'
'íle'
'íl_'
'ík'
'íjej'
'íce_'
'íbil'
'éž'
'éři_'
'éru_'
'éri'
'éka'
'édi'
'éd'
'áže_'
'ášen'
'ášel'
'ářství_'
'ářsk'
'áře_'
'ází_'
'ázán'
'áván'
'ávk'
'áty_'
'átsk'
'átorů_'
'átk'
'árníc'
'árn'
'ánský'
'áni'
'áne'
'álo'
'áka_'
'áje'
'áha'
'ádí'
'áce'
'Ús'
'Úmluv'
'Úd'
'×'
'Írán'
'», «_'
'» - _'
'·'
'©_'
'_'
'zůsta'
'zů'
'zřídka_'
'zřejmé_'
'zře'
'zír'
'zích_'
'zážitek_'
'záz'
'závěs'
'závěr'
'závislost'
'záto'
'zásil'
'zásady_'
'západu_'
'západním'
'západ_'
'záměr'
'záležitosti_'
'záležitost_'
'zálež'
'základ'
'zák'
'zájm'
'záhad'
'zády_'
'zví'
'zvážit_'
'zvyšuje_'
'zvuku_'
'zvr'
'zvláště_'
'zvláštním'
'zvláštní'
'zveřejněn'
'zuř'
'zují'
'zub'
'ztráty_'
'ztráta_'
'ztratí'
'způsobů'
'zpravodajs'
'zpracováv'
'zova'
'zol'
'známá_'
'znovu'
'znečiš'
'znal_'
'znaků_'
'znaky_'
'změně_'
'změ'
'zmínka_'
'zmaten'
'zma'
'zlepšit_'
'zle'
'zlaté_'
'zký_'
'zkušenost'
'zkušební_'
'zkouma'
'zivn'
'zili'
'zil'
'zeno_'
'zemřela_'
'zem'
'zelený'
'zek_'
'zdůrazňuj'
'zdát_'
'zdánliv'
'zdu'
'zdrá'
'zdravý'
'zdravé_'
'zdob'
'zdi'
'zbytečn'
'zbyl'
'zbraň_'
'zbož'
'zb'
'zaznamena'
'zavád'
'zatk'
'zasáhl'
'zastáva'
'zastav'
'zapomenout_'
'zapad'
'zao'
'zanecha'
'zaměstná'
'zaměstnan'
'zamy'
'zamilova'
'založené'
'založená_'
'založena_'
'zakáza'
'zakle'
'zakladatel'
'zajímavých_'
'zají'
'zajišťuj'
'zahraniční'
'zadrže'
'zachránil'
'zachová'
'zace_'
'zabal'
'yw'
'yslet_'
'ysk'
'yl_'
'ye_'
'xHamster'
'ws_'
'wn'
'with_'
'wh'
'vůn'
'vůli_'
'vůdce_'
'všeobecn'
'všech'
'vří'
'věznic'
'větší'
'věr'
'věnovat_'
'věk_'
'vědecké_'
'vče'
'výzva_'
'výzkumné_'
'výuk'
'výstava_'
'výsl'
'výrok'
'výrobců'
'výrobc'
'výpočt'
'výk'
'výjimkou_'
'výjime'
'výhrad'
'výhled'
'výcvik'
'výchov'
'východ'
'výběru_'
'výběr'
'výbor_'
'výbor'
'vína_'
'váž'
'váš'
'váze_'
'vár'
'vány_'
'vzájemn'
'vztahuje'
'vzrušen'
'vzrostl'
'vzpomen'
'vznikla_'
'vzdálený'
'vzdá'
'vzd'
'vzala_'
'vza'
'vyž'
'vyšetřova'
'vyřeši'
'vyčerp'
'vyvola'
'využíva'
'vytvoří_'
'vysíl'
'vystř'
'vystoupení_'
'vysoký'
'vyskyt'
'vysk'
'vyráběn'
'vyrábě'
'vyrobeno_'
'vyro'
'vyprávě'
'vypoč'
'vyplýv'
'vypadal'
'vypad'
'vymý'
'vyhýb'
'vyhn'
'vyhledáva'
'vyhled'
'vydě'
'vydrž'
'vybírá'
'vybudova'
'vybrané_'
'vybral'
'vuj'
'vteřin_'
'vsta'
'vské'
'vrtulník'
'vrhl'
'voze'
'von_'
'von'
'volání'
'volný_'
'vojáků_'
'vojáci_'
'vo_'
'vněn'
'vnějších_'
'vnějš'
'vnímat_'
'vno'
'vnitřn'
'vnitř'
'vna'
'vládě_'
'vlk'
'vlivn'
'vlhkost'
'vlastn'
'vku_'
'vič'
'vitamín'
'vidí_'
'vhodný_'
'večer'
'vesnic'
'veliké_'
'vc'
'vaz'
'variant'
'vag'
'vac'
'uživatelům_'
'uživatelsk'
'uštěn'
'uště'
'ušt'
'ušn'
'ušk'
'učinil'
'učin'
'učil_'
'učen'
'uče'
'uznal'
'uzl'
'uze'
'uzavření_'
'uvědomil_'
'uvádě'
'uvedený_'
'uvaž'
'utv'
'uto'
'utkání'
'utku_'
'utek'
'ut_'
'ustanovení_'
'uspořádání_'
'uspokoj'
'uso'
'uslyšel'
'uskuteč'
'usil'
'určuje_'
'určit'
'určeny_'
'určena_'
'uráž'
'ure_'
'uražen'
'upřímn'
'upují_'
'uprchlíky_'
'upozorn'
'umírají'
'umožní_'
'umo'
'ume'
'uly_'
'ulu'
'ukázala_'
'ukázal'
'ukončí'
'ujme_'
'ujist'
'uin'
'uf'
'uel'
'ue'
'udělá_'
'udělali_'
'udělala_'
'udržet_'
'uchováv'
'uchov'
'ucho'
'ubytování_'
'ubl'
'uac'
'tři'
'třes'
'třech_'
'těžkým'
'těžce_'
'těstí_'
'těsn'
'těmito_'
'tělu_'
'týče_'
'týdn'
'táta_'
'tální'
'tvůrc'
'tvé_'
'tvář'
'tvrzen'
'turistick'
'tud'
'tter'
'tského_'
'tsk'
'trvání_'
'trubky_'
'trpěl'
'trpí_'
'trn'
'trest_'
'trenér'
'trav'
'transakc'
'tradiční'
'trad'
'toč'
'tové_'
'tová'
'toval'
'tova'
'too'
'tomy_'
'tok'
'tný'
'tní'
'tnost'
'tmavé'
'tlo'
'tlaku_'
'tl_'
'tkáně_'
'tivní'
'titule'
'tiskové_'
'tis_'
'tion'
'time_'
'tický'
'ticho'
'tha_'
'tha'
'tečn'
'teče'
'textu_'
'textové'
'teroristick'
'tera'
'teplotě_'
'teplotu_'
'teplo'
'tepeln'
'tep'
'tentokrát_'
'tenhle_'
'telů_'
'televizi_'
'televiz'
'telefony_'
'technický_'
'technic'
'tech'
'tebo'
'tea'
'tch'
'tap'
'takovým_'
'takovém_'
'tajemství_'
'tablet'
'sý'
'system'
'synov'
'syndrom_'
'symbolem_'
'sw'
'světový'
'světové'
'světelných_'
'světe'
'svědč'
'svědom'
'svědectví_'
'svá'
'sve'
'stůl_'
'stříl'
'střík'
'střídav'
'střet'
'stě'
'stížnost'
'stí'
'stvu_'
'stupňů_'
'stupně_'
'stráv'
'strop'
'stromy_'
'stresu'
'strašně_'
'strat'
'strann'
'stova'
'ston'
'stipendi'
'steroid'
'step'
'ste_'
'stař'
'staví'
'staveb'
'stavby_'
'state'
'starý'
'starověk'
'stanov'
'stanic'
'stahov'
'srpnu_'
'srpen_'
'srdeční'
'srdci_'
'spusti'
'správn'
'spravedlnost'
'spravedliv'
'sportov'
'sponzor'
'spolk'
'společného_'
'společenský'
'spol'
'spojuje_'
'spojit'
'splnění_'
'splnit_'
'spisovatel'
'spektr'
'specialist'
'speci'
'součást'
'souvisejících_'
'související_'
'soustav'
'soukromé'
'souhlasí'
'sot'
'sof'
'snímk'
'sna'
'smí'
'smyslu_'
'smysln'
'smysl'
'smluvní'
'smlouvu_'
'sme'
'slyšel_'
'sly'
'služební'
'služba_'
'sluneční_'
'složk'
'složité_'
'slouží'
'slouč'
'sledoval'
'sledov'
'slaví_'
'slavné'
'slabý_'
'slab'
'skupin_'
'skryté_'
'skoči'
'skov'
'skončila_'
'skon'
'sko'
'sklá'
'sk_'
'sj'
'singl_'
'sim'
'sia'
'shrn'
'she'
'seš'
'seznámi'
'seznám'
'sex'
'server_'
'seriálu_'
'seri'
'sebevražd'
'sdělení_'
'sdílet_'
'sdíl'
'scház'
'schv'
'schopni_'
'sbírka_'
'sav'
'samotný'
'samotné_'
'samostatně_'
'růžov'
'rči'
'rýž'
'ráv'
'rány_'
'ráj'
'rá_'
'rze'
'rytm'
'rychleji_'
'rvá'
'ruského_'
'ruky_'
'rty_'
'rte'
'rst'
'ročník_'
'ročil'
'rozšiřuj'
'rozvíjet_'
'rozvoje_'
'roztok'
'rozta'
'rozpa'
'rozm'
'rozhovoru_'
'rozhodnout_'
'rozhodli_'
'rovnou_'
'rovna'
'rota'
'rostou'
'rostlin_'
'roste_'
'romanti'
'rom'
'rodičů_'
'rodič'
'rodině_'
'rny_'
'rm_'
'rl'
'rk_'
'rig'
'resp'
'republice_'
'reproduk'
'repre'
'report'
'rent_'
'rekreační'
'rekonstru'
'reklamní'
'rehabilita'
'red_'
'rect'
'recenz'
'realizov'
'reakci_'
'raň'
'račn'
'ravo'
'ravi'
'rami'
'rameno_'
'ramene'
'ramen'
'rakousk'
'raketo'
'rady_'
'radio'
'racova'
'raci'
'rab'
'que'
'původní'
'působ'
'půdy_'
'pů_'
'příštích_'
'příz'
'přív'
'přítelkyn'
'přístroj'
'přístavu_'
'přístav'
'příslušný'
'přísah'
'přípravku_'
'přínos'
'přímé_'
'příkaz_'
'přídav'
'příběhy_'
'příbuzný'
'příbuzn'
'příb'
'přátele_'
'přizpůsoben'
'přitahuje_'
'přistup'
'přistoupi'
'přirozeně_'
'přirozen'
'připrav'
'připomen'
'připojit_'
'připo'
'přinesla_'
'přinesl'
'přijímat_'
'přijetí_'
'přežil'
'přezdív'
'převl'
'převe'
'přesvědčen_'
'přepín'
'přenáše'
'přemýšlel_'
'přemýšle'
'překvapení_'
'překvapen'
'přeje'
'přej'
'předčasn'
'předáv'
'předán'
'předv'
'představují_'
'předpokládá'
'předeps'
'přede'
'předchozí_'
'předch'
'přeb'
'pět'
'písn'
'píseň_'
'pí_'
'pánové_'
'pádem_'
'pád'
'pyšn'
'py'
'pustil'
'publikován'
'ptal_'
'psát_'
'psychologick'
'pso'
'pse'
'průl'
'prázdnou_'
'právnick'
'prvn'
'prvků_'
'prste'
'prozra'
'prováz'
'provozova'
'provoz_'
'provedení_'
'proved'
'proud_'
'prota'
'propust'
'pronásledova'
'proměn'
'prokáza'
'projít_'
'projevy_'
'projekt'
'proj'
'prohlá'
'proh'
'prog'
'prodá'
'produkov'
'prodluž'
'prodlouž'
'prodejce_'
'procház'
'probíhají'
'problému_'
'prezidentem_'
'prezentac'
'prevenc'
'premiér'
'prefer'
'pravé_'
'pracuj'
'pracovníci_'
'požaduj'
'požadovaný'
'požadova'
'pořádek_'
'pořáda'
'počítač_'
'počáteční'
'počtem_'
'pozván'
'pozoru'
'poznamena'
'pozitivní'
'pozemsk'
'pozemk'
'pozadí_'
'pový'
'pová'
'povzbuz'
'povinn'
'považuj'
'povahy_'
'používáte_'
'použity_'
'použij'
'pouště'
'pout'
'pouhých_'
'potřebuj'
'potřeboval_'
'potvrzen'
'potvrdil'
'potraviny_'
'potom'
'potkal'
'posílení_'
'posvátn'
'postupů_'
'postupy_'
'postupu'
'postupem_'
'postgraduální_'
'postel_'
'postavili_'
'post_'
'poslu'
'posledním_'
'poslední'
'poslal_'
'poskytuj'
'poskytovat_'
'pose'
'porušení_'
'poruš'
'portugalsk'
'porod'
'poradit_'
'popí'
'popr'
'poplatk'
'pono'
'pomáhat_'
'pomohla_'
'pomohl'
'polární'
'polic'
'poli'
'pokusit_'
'pokrýv'
'pokryt'
'pokračování_'
'pokles'
'pokl'
'pojmenov'
'poj'
'pohodl'
'pohledem_'
'pohled'
'pohlavní_'
'podívá'
'podíval'
'podání_'
'podvod'
'podruhé_'
'podrobno'
'podporuje_'
'podpora_'
'podniknout_'
'podmínkách_'
'podk'
'podezření_'
'pocity_'
'pochybnost'
'pochyb'
'pochod'
'poc'
'pneumoni'
'plí'
'plánuje'
'plánovan'
'plán'
'plukovník'
'plug'
'ploš'
'plot'
'plné_'
'pití_'
'pito'
'pistol'
'pilo'
'pil_'
'pie'
'pevnost'
'pes_'
'pel'
'patrně_'
'pati'
'parlamentu_'
'parlament'
'parkování_'
'park'
'parametr'
'papír_'
'panov'
'paměť'
'památ'
'palác'
'paliv'
'padn'
'padesát'
'oškliv'
'ořech'
'očí'
'ozval_'
'ozv'
'oznámil'
'označení_'
'oznam'
'ozn'
'oze_'
'oze'
'ově'
'ováním_'
'ovu'
'ovláda'
'ovladače_'
'ovky_'
'ovk'
'ova'
'ouž'
'ouše'
'ous_'
'oupi'
'oucí'
'otř'
'otázek_'
'oty'
'otu_'
'otočil_'
'otevření_'
'otevřel'
'osvědčen'
'osvo'
'ostrovů_'
'ostrove'
'ostn'
'ostat'
'osobním_'
'osobn'
'oso'
'osi'
'osad'
'ort_'
'orm'
'orientac'
'orgán_'
'organizační_'
'organiza'
'orga'
'orem_'
'ora_'
'optim'
'opti'
'oprávněn'
'opravu'
'opozi'
'opor'
'opla'
'opl'
'opis'
'opil'
'opic'
'opatř'
'opakova'
'omy'
'omezov'
'omezeno'
'olí'
'oltář'
'olit'
'olin'
'old'
'okupac'
'okruh'
'ohy'
'ohro'
'ografi'
'ogi'
'oe'
'ody_'
'odvětví_'
'odvol'
'odtud_'
'odsu'
'odstran'
'odsouzen'
'odráž'
'odpočinek_'
'odpověděl'
'odpově'
'odpoledne_'
'odpad'
'odm'
'odj'
'odil'
'odes'
'odehráva'
'oddělen'
'odborníka_'
'odb'
'oct'
'ochrann'
'oceň'
'ocelov'
'obě_'
'občanů_'
'občansk'
'obáv'
'obz'
'oby'
'obvod'
'obu'
'obt'
'obsažen'
'obsahující'
'obsahovat_'
'obrázky_'
'obrazovky_'
'obrany_'
'obrann'
'obo'
'obi'
'obec_'
'obdrž'
'obd'
'nž'
'nš'
'něž_'
'něčím_'
'německý'
'některým_'
'někter'
'něko'
'nějak'
'návštěvě_'
'návštěvy_'
'návštěvník'
'návrhu_'
'následuj'
'následov'
'následn'
'násilí_'
'násil'
'nás'
'nápo'
'námě'
'námořnictv'
'nám'
'náhradní_'
'náhodn'
'nádrž'
'nádraží'
'náct_'
'nze_'
'nuly_'
'nuj'
'nty_'
'nto'
'nta'
'novinář_'
'nove'
'non'
'nno'
'nne'
'nku_'
'niče'
'nič'
'nist'
'nig'
'nick'
'neúspěch'
'nezávislý'
'nezná'
'nezměn'
'nezajím'
'nevě'
'nevíme_'
'nevyhnu'
'nevr'
'neuděl'
'nesou'
'nesná'
'neslyš'
'nesk'
'neroz'
'nepřízniv'
'nepřítel_'
'nepřest'
'nepor'
'neodpověděl'
'nená'
'nenaš'
'nemůžeme_'
'neměn'
'nemělo_'
'nemám_'
'nelíbí_'
'nekon'
'nejú'
'nejz'
'největším_'
'nejvíc_'
'nejste_'
'nejspíš'
'nejslavnější'
'nejrychlejší_'
'nejpo'
'nejp'
'nejnovější_'
'nejnižší'
'nejlepším_'
'nejist'
'neje'
'nejdříve_'
'nejc'
'nejbližší'
'neht'
'neexistoval'
'nee'
'nedostal_'
'nedokáže'
'nedokázal'
'necháp'
'nechtěl_'
'nechte_'
'nechcete_'
'nebyli_'
'nebezpečné'
'ndi'
'nde'
'nb'
'našt'
'našl'
'naš'
'naří'
'nazývan'
'nazývají_'
'naznačuj'
'naz'
'navštívil_'
'naváza'
'navržen'
'naučil'
'nasta'
'napsat_'
'napro'
'napl'
'namo'
'name'
'nam'
'nakl'
'nahrávk'
'nadř'
'nadcházející'
'nabídku_'
'nabídka_'
'mš'
'měřít'
'mět'
'městsk'
'měr_'
'míře_'
'místní'
'mír'
'mínění_'
'mém_'
'médií_'
'mán'
'máln'
'myšlenk'
'musi'
'muse'
'mud'
'mrz'
'mrt'
'možných_'
'možný_'
'možno'
'močov'
'mou_'
'moment_'
'mokr'
'moh'
'mobilních_'
'mobil'
'mněl_'
'množstvím_'
'mládež'
'mladší_'
'mladík'
'miz'
'mistr_'
'minulé'
'ministra_'
'minimálně_'
'minimální'
'mina'
'milov'
'milost'
'mic'
'mezinárodního_'
'mezinárodn'
'met'
'meri'
'menopauz'
'mem'
'melan'
'maximáln'
'matur'
'matku_'
'materiálu_'
'masáž'
'masivn'
'marketingu_'
'marketing'
'mark'
'mari'
'mar_'
'map'
'manželsk'
'manžel_'
'mand'
'manažer_'
'maminka_'
'malého_'
'malova'
'malou_'
'majetk'
'lň'
'lých_'
'lístk'
'líbit_'
'létá'
'léd'
'láz'
'látka'
'lák'
'láhve_'
'láhev_'
'lus'
'lun'
'lte_'
'lsk'
'lova'
'loup'
'loni'
'lodí_'
'llow'
'litu'
'litr'
'lito'
'ling'
'lina'
'lin_'
'lim'
'lik_'
'lid'
'levně'
'levný'
'letá_'
'letov'
'letos_'
'letišt'
'leteck'
'letadle'
'lese_'
'lesbička_'
'lekci_'
'lehce_'
'leh'
'legální_'
'ledn'
'lech'
'leb'
'lea'
'lau'
'lat_'
'laskav'
'lamp'
'lace_'
'kůži_'
'kříže'
'kří'
'kých_'
'kání_'
'kytar'
'kysel'
'kvalita'
'kvalit'
'kvalifikovan'
'kupo'
'kula'
'kuch'
'kub'
'kte'
'krátký_'
'krádež'
'kru'
'krk'
'kritické_'
'krimin'
'krevní_'
'kreativní_'
'kreativ'
'kovov'
'kovo'
'kovi'
'kovat_'
'koval'
'koupil'
'kotě_'
'kotl'
'korek'
'kore'
'kopc'
'koná_'
'konzul'
'konzerva'
'kontrast'
'kontakty_'
'kontaktovat_'
'konstrukt'
'konst'
'konkrétn'
'konfigur'
'konají_'
'komunist'
'komunikační_'
'komuni'
'kompatibil'
'komentář_'
'kolegy'
'kod'
'kocour'
'kníže'
'knu'
'km'
'klíčov'
'klášter'
'klima'
'klientů_'
'klidné_'
'klid_'
'klesající'
'klen'
'king_'
'king'
'kilo'
'kick'
'kh'
'ket'
'kes_'
'kdybys'
'každo'
'každ'
'kategorii_'
'kategori'
'kardinál'
'kapsy_'
'kaps'
'kapitán'
'kapacitu_'
'kapacit'
'kancelářsk'
'kalendář_'
'kalendář'
'kal_'
'kak'
'kaj'
'jš'
'jízdn'
'jádr'
'jské'
'jo_'
'jn_'
'jižn'
'jiz'
'jisto'
'jindy_'
'jin'
'jim'
'jezero_'
'jenže_'
'jel_'
'jedná'
'jednotlivce_'
'jednotka_'
'jednodušší_'
'jednoduše_'
'jednoduch'
'jedl'
'jc'
'jasně_'
'jasno'
'jakýchkoli'
'jakož_'
'jakoukoli_'
'jader'
'jack'
'jablko_'
'ištěn'
'išt'
'ičt'
'ivě_'
'ivně'
'ivn'
'itější'
'itý'
'itu_'
'itr'
'itiv'
'itelný'
'istik'
'isti'
'islav'
'ire'
'iov'
'ioti'
'ionář'
'ionáln'
'investice_'
'investi'
'internetové'
'interak'
'inteligence_'
'inteligen'
'int_'
'instrukt'
'insti'
'inspirov'
'inspir'
'inj'
'inis'
'inen'
'indick'
'imu'
'iml'
'imi_'
'ilumin'
'iká'
'iko'
'ike'
'ikat'
'ika'
'ijsk'
'ier'
'iel'
'identifikov'
'identifika'
'idea'
'ida'
'ica_'
'iam'
'iPad_'
'hůl'
'hřeben'
'hypot'
'hyper'
'hvězdičk'
'humani'
'huj'
'hudebník'
'hudba_'
'http_'
'hrůz'
'hrách_'
'hrozb'
'hrn'
'hrdina_'
'hran'
'hraj'
'hradu_'
'hoře'
'hoř'
'hové_'
'hovor'
'hotovost'
'hotel_'
'hotel'
'hospodá'
'hospod'
'horké_'
'hokej'
'hodnost'
'hnutí_'
'hluboko'
'hlub'
'hlu'
'hleděl_'
'hledání_'
'hlava_'
'hlasu'
'hk'
'hil'
'hel_'
'hea'
'hav'
'hat'
'has'
'haj'
'gun'
'gua'
'gramů_'
'gramu_'
'gram'
'grafick'
'grad'
'gio'
'ges'
'gat'
'gan_'
'fyzikální'
'fungo'
'free'
'francouzské_'
'fra'
'fotoaparát'
'fotbalový'
'fort'
'forn'
'formát'
'formálně_'
'formulář_'
'formul'
'formu_'
'formo'
'fore'
'flix_'
'fle'
'fla'
'firem_'
'finanční'
'financí_'
'financování_'
'filozofi'
'film'
'fikace_'
'fic'
'fektivn'
'fek'
'fanoušk'
'fan'
'eš'
'eři'
'eze'
'ext'
'expo'
'existující'
'existence_'
'excelenc'
'evní_'
'euro'
'etř'
'etě'
'etí_'
'etu_'
'ets'
'ester'
'ervat'
'erov'
'ern_'
'ere_'
'enější'
'eným_'
'ený'
'enství_'
'ensk'
'ene'
'ena'
'emocionální_'
'emo'
'emní'
'emat'
'elu_'
'elo_'
'elektrické'
'elektri'
'elegantn'
'eld'
'ela'
'ekonomi'
'ekc'
'ející'
'eet'
'edn'
'edl_'
'edito'
'ebr'
'dův'
'důsledk'
'důkladn'
'důkaz'
'dři'
'děvčat'
'dětství_'
'dětské'
'děn'
'dělní'
'dělal_'
'ději'
'dýchání_'
'dílo_'
'dávn'
'dávkování_'
'dár'
'dynamick'
'dveří'
'dveřmi_'
'dvacet_'
'duši_'
'duchovní_'
'drogy_'
'dro_'
'dové_'
'dovolil'
'dovolen'
'dovol'
'dovo'
'dovnitř_'
'dovednost'
'doufá'
'dosáhl_'
'dostupný'
'dosti_'
'dostalo_'
'dost'
'dospělých_'
'dosah'
'doru'
'dorazil'
'dopravní_'
'doporučujeme_'
'doplněn'
'dopln'
'dopisy_'
'dopis'
'dopadn'
'donu'
'domén'
'domácích_'
'domov_'
'domn'
'domin'
'dole_'
'dokáž'
'dokumentů_'
'dokumentu_'
'dokumentac'
'dokončení_'
'dokl'
'dojem_'
'dohled'
'doh'
'dodávky_'
'dodáva'
'dobrovolní'
'dobrovoln'
'dobrou_'
'dobo'
'dně_'
'dni_'
'dnešního_'
'dneš'
'dm'
'dlu'
'dlouho'
'dlen'
'dku_'
'divo'
'divn'
'diviz'
'divadel'
'diva'
'dispon'
'disp'
'disciplíny_'
'diplomat'
'dino'
'dila_'
'digitální_'
'dig'
'diagram_'
'dg'
'deště'
'desítky_'
'desít'
'dest'
'demokratick'
'demokracie_'
'deme_'
'dekora'
'deg'
'db'
'datov'
'databázi_'
'databáze_'
'dar_'
'dalšími_'
'dají_'
'daj'
'cítím'
'cítil_'
'císařské'
'církv'
'cílov'
'cíl'
'cát'
'cvič'
'cuti'
'cs'
'cookies_'
'ckým_'
'cku_'
'cko'
'cke'
'cizí'
'cie_'
'chý'
'cház'
'chybn'
'chy_'
'chvíl'
'chro'
'chová'
'chop'
'chol'
'chodi'
'chle'
'chemické'
'chari'
'cestující_'
'cestova'
'cený'
'cená'
'centrem_'
'cast'
'cas'
'cal'
'břich'
'břehu_'
'bělo'
'bývalé'
'bý'
'bílý_'
'bíl'
'báz'
'básník'
'bylin'
'bydle'
'buďte_'
'bun'
'bul'
'budoucnu_'
'brát_'
'brání'
'bránit_'
'bron'
'bratř'
'brambory_'
'brad'
'bouři'
'bour'
'borov'
'bojí'
'blíže_'
'blízké_'
'bláz'
'blu'
'bli'
'bl'
'bič'
'bezv'
'bezpečnostní_'
'bezp'
'bezdrátov'
'berg'
'bere'
'bek_'
'bed'
'baz'
'baro'
'balíček_'
'bakalářsk'
'bak'
'ačních_'
'ačk'
'ač'
'azov'
'azit'
'azi'
'ay_'
'avě_'
'aví'
'avé_'
'aven'
'ava_'
'autora_'
'automobilov'
'automobil'
'aus'
'atel_'
'astronom'
'asp'
'asijský'
'asijské_'
'arova'
'armád'
'archiv'
'architektur'
'arc'
'arb'
'anů_'
'aně_'
'anální_'
'any_'
'anu'
'antise'
'ansk'
'anov'
'angličtiny_'
'anglické_'
'anebo_'
'anděl'
'ande'
'analýza_'
'amu'
'ame'
'alerg'
'ala'
'aktiva_'
'aktiv'
'akcionář'
'akci_'
'akademie_'
'aje_'
'aj_'
'ail_'
'ail'
'ahuje_'
'adí_'
'adn'
'adl'
'adi'
'acen'
'absolvoval'
'absolvov'
'abe'
'], _'
'\\ _'
'Zásad'
'Zároveň_'
'Zápa'
'Základní_'
'Zábav'
'Zvláštní_'
'Ztra'
'Zm'
'Zl'
'Zjist'
'Zim'
'Zh'
'Zept'
'Zbr'
'Začát'
'Začněte_'
'Zamě'
'Zam'
'Zak'
'ZDARMA_'
'Yahoo_'
'XXI'
'XM'
'Wonder'
'William'
'White'
'Všeobecn'
'Vš'
'VĚ'
'Výroba_'
'Východní_'
'Výcho'
'Vítejte_'
'Víme_'
'Váno'
'Vzal'
'Vyh'
'Vyd'
'Vs'
'Vr'
'Vlast'
'Viv'
'Vil'
'Vik'
'Vie'
'Vede'
'Vac'
'Urban'
'Upr'
'Univerzit'
'United_'
'Uměl'
'Udělá'
'UT'
'Třetí_'
'Tw'
'Tvrd'
'Tv'
'Turk'
'Tun'
'Trv'
'Travel'
'Tradi'
'Tomáš_'
'Tit'
'Timo'
'Tich'
'Tha'
'Texas_'
'Tet'
'Termín'
'Tentokrát_'
'Tar'
'Tab'
'TS'
'TP'
'TN'
'TM'
'TC'
'Svou_'
'Sun'
'Suite'
'Střel'
'Stáhněte_'
'Stu'
'Stev'
'Staré_'
'Staro'
'Společn'
'Spodní_'
'Spl'
'Sp'
'Sovětské'
'Sovět'
'South'
'Sony_'
'Soci'
'Snadn'
'Sna'
'Smo'
'Sled'
'Sle'
'Sky'
'Skotsk'
'Skl'
'Sk'
'Siln'
'Sig'
'Shrom'
'Seznam_'
'Sev'
'Setká'
'Seri'
'Sedm'
'Sec'
'Sav'
'Sand'
'San'
'Sal'
'SU'
'ST_'
'STR'
'STO'
'STI'
'SL'
'SK'
'SB'
'Rum'
'Rozto'
'Rozd'
'Rovněž_'
'Rok'
'Roh'
'Rod'
'Rez'
'Ref'
'Ray'
'RW'
'RT_'
'RI'
'Pů'
'Přír'
'Příp'
'Přidá'
'Přem'
'Překlad'
'Předpokládá'
'Předpo'
'Py'
'Pur'
'Průvod'
'První'
'Proti'
'Prote'
'Prost'
'Pros'
'Prop'
'Promiň'
'Proje'
'Priva'
'Prio'
'Pri'
'Praze_'
'Pravid'
'Pravd'
'Powe'
'Postupně_'
'Postav'
'Poskyt'
'Portugalsk'
'Pomocí_'
'Pomo'
'Policie_'
'Poku'
'Pojď'
'Pods'
'Podrobn'
'Podporuje'
'Podp'
'Podn'
'Pip'
'Photo'
'Phil'
'Phe'
'Petro'
'Peter_'
'Pete'
'Peking'
'Paříž'
'Paris_'
'Parad'
'Pant'
'Pane_'
'Pamatuj'
'Palestin'
'PM'
'PI'
'PDF_'
'Otázk'
'Otevřen'
'Osobn'
'Organizace_'
'Org'
'Opravd'
'Oprav'
'Oliv'
'Of_'
'Obecn'
'OR'
'OO'
'OF_'
'Něm'
'Návštěv'
'Násled'
'Nákup'
'Novi'
'Not'
'Nin'
'Night_'
'Nicola'
'Nevím_'
'Neum'
'Nest'
'Ner'
'Neměl'
'Nemám_'
'Nel'
'Nejčastěji_'
'Nechc'
'Nech'
'Navštivte_'
'Navrh'
'Natur'
'Nast'
'Nas'
'Napa'
'Naopak_'
'Nach'
'ND'
'NC'
'Měs'
'Mé'
'Má'
'Musí_'
'Muse'
'Mun'
'Mr'
'Moz'
'Mou'
'Most'
'Mora'
'Mono'
'Moj'
'Mohou_'
'Model_'
'Mode'
'Moc'
'Mlad'
'Minu'
'Milo'
'Merk'
'Media_'
'Maximální_'
'Materi'
'Mate'
'Martin'
'Malé_'
'Malajsi'
'Mak'
'Machine'
'Lásk'
'Lze_'
'Luck'
'Lon'
'Lock'
'Live_'
'Liv'
'Litv'
'Lidsk'
'Lesbičk'
'Lei'
'Latest'
'Lang'
'Lady_'
'LL'
'LED_'
'Kč'
'Kéž_'
'Květin'
'Kul'
'Kub'
'Krá'
'Krymu_'
'Koč'
'Koupi'
'Kouk'
'Kop'
'Komise_'
'Klíč'
'Kin'
'Kata'
'Karl'
'Kapit'
'Kand'
'KVĚTIN'
'KT'
'Just'
'Jud'
'Jinak_'
'Jen'
'Jelikož_'
'Jednodu'
'Jedna_'
'Jediný_'
'Jean'
'Java_'
'Jasn'
'Jar'
'Japonská_'
'Jack_'
'Izraeli_'
'Italian'
'It'
'Isl'
'Inova'
'Inn'
'Im'
'IQ_'
'IM'
'IL'
'IB'
'Hydr'
'Hvězd'
'Hus'
'Hrát_'
'Hry_'
'Hra_'
'Hospodin_'
'Horký_'
'Hold'
'Hodnot'
'Hn'
'Hlav'
'Hen'
'Has'
'Harrymu_'
'Hans'
'HI'
'Greg'
'Grand_'
'Gramm'
'Gor'
'Good_'
'Go_'
'Gla'
'Gl'
'Georgi'
'GM'
'GL'
'Fushí'
'Fro'
'Fotograf'
'Form'
'Forest_'
'Flor'
'FR'
'FF_'
'FE'
'FC'
'Existují_'
'Exc'
'Eva'
'Erika_'
'Eri'
'Ep'
'English_'
'Elmhurst_'
'Elektr'
'Ear'
'EH'
'EF'
'EA_'
'Dům_'
'Dánsk'
'Dun'
'Duch'
'Dostal'
'Dor'
'Doporučené_'
'Donald'
'Doktor_'
'Dne'
'Divo'
'Dem'
'Deb'
'Day_'
'Daily_'
'DR'
'DNA_'
'Cí'
'Cri'
'Cop'
'Cookie'
'Conf'
'Cl'
'Chybí_'
'Chtěla_'
'Chicag'
'Che'
'Chci_'
'Chat'
'Cert'
'Celkový_'
'Card'
'Cap'
'CR'
'CO_'
'CA_'
'Bá'
'Byly_'
'Budeme_'
'Bru'
'Brazílie_'
'Braz'
'Brad'
'Božího_'
'Bos'
'Bod'
'Blue'
'Blondýnk'
'Blog_'
'Bla'
'Billboard_'
'Bill'
'Bezpečnost'
'Bezp'
'Beck'
'Bay'
'Bak'
'Bad'
'BI'
'Awa'
'Avi'
'Arábi'
'Arc'
'Ara'
'App_'
'Antoni'
'Ann'
'Angelina_'
'Angeles_'
'Anavar_'
'Americký_'
'Americká_'
'Americk'
'Alt'
'Albert'
'Al_'
'Aktu'
'Akc'
'Ah_'
'Africe_'
'Ae'
'Ado'
'Adam'
'Abych'
'AU'
'?”'
'<_'
'918'
'91'
'850_'
'840'
'81'
'802_'
'79'
'76'
'74'
'71'
'70'
'68'
'66'
'59'
'57'
'52'
'5000_'
'480_'
'47'
'44'
'380'
'3000'
'260'
'256_'
'234'
'230'
'227'
'203'
'202'
'201'
'1985_'
'1978_'
'197'
'196'
'1957_'
'1951_'
'1937_'
'1927_'
'1926_'
'1924_'
'1923_'
'1922_'
'1904_'
'177'
'168'
'151'
'149'
'128'
'123'
'120'
'119'
'118_'
'110_'
'105'
'103'
'08'
'04'
'.“ (_'
'.“ '
'./'
'... ['
'.. _'
'.. '
'." '
'. [-]_'
'. ..._'
'- '
', “_'
'*'
'); _'
'). '
''._'
'"?_'
'".'
'"), _'
' ‚_'
' »'
' « _'
' © _'
' :)'
' :'
' + '
' %._'
'﻿_'
'−_'
'↑ _'
'№'
'…“_'
'“)'
'‚ _'
'–'
'ґон'
'ґер_'
'їхніх_'
'їхню_'
'їхнього_'
'їх'
'їсть_'
'їсти'
'їм'
'їжджа'
'їжа_'
'їда'
'ієнт'
'ішою_'
'ішн'
'ічна_'
'ітет'
'італійських_'
'істота_'
'істичн'
'істину_'
'істини_'
'іст_'
'іспанської_'
'існуючі_'
'існуюч'
'іск'
'ірк'
'іоти'
'іоні'
'іон'
'іо_'
'ініціатив'
'інтуї'
'інтереси_'
'інтелектуальн'
'інсул'
'інструментом_'
'інститут_'
'інолог'
'інок_'
'іноземц'
'інов'
'іно'
'інноваційн'
'інко'
'індій'
'індивідуальний_'
'інди'
'інвестицій_'
'інвалід'
'іналь'
'імун'
'ілі_'
'ільш'
'ілл'
'ікс'
'іков'
'іки_'
'ійна_'
'ійм'
'ізоляці'
'ізольован'
'ізов'
'ізн'
'ізм'
'ідіо'
'ідн'
'ідентично'
'ідентифіка'
'ідеал'
'іграш'
'івськи'
'івна_'
'івл'
'івки_'
'іван'
'івал'
'іб_'
'іатур'
'іанс'
'іаліз'
'єтнам'
'єс'
'єро'
'єнн'
'єн_'
'ємось_'
'ємно'
'єл'
'єкці'
'єкта_'
'єднан'
'єдиним'
'єві'
'європейсько'
'євр'
'яють_'
'ячих_'
'яче_'
'яча'
'ятор'
'ятий_'
'ятає'
'яст'
'ярі'
'японськи'
'яну'
'янн'
'янин'
'ямо'
'ялис'
'яли_'
'якш'
'якогось_'
'якесь_'
'язу'
'язов'
'язниця_'
'язкови'
'язати_'
'яжіть'
'ядерн'
'яві'
'являють'
'являт'
'явити'
'ява_'
'яблу'
'ююч'
'юються_'
'ючи'
'юче_'
'ютері_'
'ютерни'
'ютера_'
'юрі'
'юрисдикції_'
'юре'
'юм'
'юк_'
'юватися_'
'юват'
'юа'
'ьч'
'ьф'
'ьован'
'ьне_'
'ьн'
'ьки'
'ьва'
'ьби_'
'ьба'
'щільні'
'щорічн'
'щоденни'
'щитовид'
'щик'
'щеп'
'щасливий_'
'ща_'
'шістнадцят'
'шує'
'шува'
'штучн'
'што'
'штату_'
'штат'
'штани_'
'штаб'
'шпа'
'шор'
'шоку'
'шого_'
'шнього_'
'шкільно'
'шкідлив'
'шкода_'
'шифрува'
'шив'
'шер'
'швидкісн'
'швидк'
'шви'
'швейцар'
'шве'
'шв'
'шахт'
'шати'
'шану'
'шанси_'
'шано'
'шай'
'шав'
'чутливіст'
'чудові_'
'чудово'
'чуд'
'чування_'
'чуван'
'чотирнадцят'
'чорного_'
'чорним'
'чомусь_'
'чоловіч'
'чов'
'чної_'
'членами_'
'член'
'чищ'
'читач'
'читай'
'число'
'числ'
'чино'
'чинник'
'чини_'
'чини'
'чимало_'
'чивши_'
'чеш_'
'чех'
'чесно'
'чекаємо_'
'чекали_'
'чеви'
'чає'
'чат_'
'часо'
'ціну'
'цінність_'
'цін'
'цілях_'
'цілу'
'ціли'
'цікавіш'
'цікавіст'
'цікаві_'
'цікавих_'
'ційні_'
'ціа'
'ця'
'цюва'
'цькі'
'цьк'
'цукр'
'цук'
'цні'
'цифрових_'
'цито'
'цитат'
'цин_'
'цикло'
'цивільн'
'центрів_'
'цег'
'цвіт'
'хірургічн'
'хір'
'хіп'
'хрест_'
'хре'
'хот'
'хор'
'хом_'
'холодильник'
'ходять_'
'ходи_'
'ховаю'
'хлопці_'
'хлоп'
'хитр'
'хворобу_'
'хвороб_'
'хвилі_'
'характеристик'
'характеризується_'
'хання_'
'хав_'
'фіні'
'фільми_'
'філь'
'фікс'
'фікован'
'фізи'
'фі_'
'футболі'
'футбольно'
'футбольни'
'фро'
'фраз'
'фотографія'
'формуєт'
'формулю'
'формул'
'формува'
'формо'
'формальн'
'форм_'
'фло'
'фестивалі_'
'фермер'
'фер_'
'феномен'
'фахівця_'
'фантасти'
'фал'
'факультеті'
'факультет_'
'фактів_'
'факторів_'
'уяви'
'ушн'
'учні_'
'уче'
'учасники_'
'уц'
'ух'
'уум'
'уті'
'утт'
'уточн'
'уто'
'утні'
'утвори'
'утворен'
'ут_'
'усіє'
'усун'
'уста'
'успіх_'
'усвідомлен'
'уру_'
'урс'
'уроків_'
'урок_'
'ури_'
'урб'
'упн'
'упивши'
'уперед'
'уп_'
'унікальни'
'університетсько'
'універсальн'
'уник'
'уни'
'умова'
'умов'
'уми'
'умент'
'ум_'
'улярні'
'улюблені'
'улю'
'улас'
'улам'
'ул_'
'українську_'
'українсько'
'українськи'
'укла'
'узі'
'узбережжя_'
'ужи'
'уді'
'удж'
'уде'
'удар_'
'угор'
'угоду_'
'увімкн'
'увійшов_'
'убі'
'убн'
'убл'
'убив'
'уба'
'тінь_'
'тін'
'тілі'
'тіли'
'тій'
'тягн'
'тютюн'
'тує_'
'турист'
'туриз'
'турбува'
'турбо'
'ття'
'трудов'
'труднощ'
'троп'
'тримай'
'трид'
'тривог'
'триватиме_'
'трив'
'триб'
'треті'
'тренува'
'трапляється_'
'транспорту'
'транспортн'
'транспорт'
'транск'
'традиційни'
'традиційн'
'тою_'
'точності_'
'точка_'
'тором_'
'торгівл'
'торгу'
'торг'
'тонн'
'тонки'
'токсичні'
'токсичн'
'товх'
'товст'
'товару_'
'тньо'
'тник'
'тне'
'тлив'
'тканини_'
'тиш_'
'тичні_'
'тични'
'тих'
'тисячоліт'
'тир'
'типов'
'тизм'
'тижнев'
'технічні_'
'технічних_'
'техніка_'
'технік'
'технологія_'
'технологі'
'терпі'
'тероризм'
'терміну_'
'територіях_'
'територію_'
'тера_'
'теолог'
'тені'
'темряві_'
'телефону'
'телеканал'
'телевізійни'
'телевіз'
'телебачення_'
'тек'
'театр'
'тві'
'творчі'
'творен'
'твердо_'
'таємни'
'таш'
'тато'
'тата'
'тари'
'танов'
'тальни'
'таль'
'такій_'
'тi'
'сії_'
'сіри'
'сіньк'
'сіль'
'сьогоднішньо'
'сьо'
'ськ'
'сцена'
'схожи'
'сході_'
'сходу_'
'сходи'
'сховати'
'сформован'
'сфери_'
'сучасні'
'сучасної_'
'сучасного_'
'сучасними_'
'сухо'
'суспільно'
'супутник'
'супроти'
'супров'
'суперечки_'
'сумніву_'
'сумлінн'
'судно'
'судит'
'суд_'
'суб_'
'суа'
'стінк'
'стільці'
'студентсько'
'студент_'
'сту_'
'стс'
'стріляти_'
'стріля'
'структура'
'строков'
'стриптиз'
'стриж'
'страшно'
'страшенно_'
'страхування_'
'стратегічн'
'стратегій_'
'страт'
'страждають_'
'страждань_'
'стояли_'
'стояла_'
'сторінці_'
'сторінк'
'стороною_'
'стоп'
'столу_'
'столо'
'столик'
'стовбур'
'стичні'
'стикає'
'стик'
'стерон'
'стери'
'стере'
'стежити_'
'стег'
'створюють_'
'створюю'
'створювати_'
'створений_'
'стверджу'
'статусу_'
'статичн'
'статистик'
'статево'
'статеви'
'старші_'
'старшо'
'старт'
'старом'
'стародавн'
'старим_'
'старе'
'станція'
'становище'
'стано'
'станемо'
'стандарта'
'стажування'
'стадія'
'ставл'
'ставк'
'ставитися_'
'ставал'
'става'
'срібл'
'спільно'
'співробітництва_'
'співпрацю'
'співп'
'спуст'
'спромо'
'спроби_'
'сприяння_'
'спричиня'
'спричинит'
'спричинен'
'сприйнят'
'спрацювал'
'спрац'
'справи'
'спостерігається_'
'спостерігають'
'спостерігал'
'спостережен'
'спортсмени_'
'спортсмен'
'спортом_'
'спонден'
'спол'
'споко'
'сподарськ'
'спогади_'
'сплат'
'сплан'
'спис'
'спинк'
'спини'
'спеціалізу'
'спеціаліз'
'спеціального_'
'спеціально_'
'спеціальн'
'спеці'
'специфікаці'
'спеку'
'спальн'
'спадщини_'
'спадко'
'соціалізм'
'соціалі'
'соціальної_'
'соціальни'
'соц'
'сорок_'
'сонячної_'
'со_'
'снідан'
'сно_'
'сна'
'смішн'
'сміття_'
'смілив'
'смертельн'
'смартфон'
'смаком_'
'слідувати_'
'слі'
'слухає'
'служіння_'
'служити_'
'служив_'
'службі_'
'словом_'
'словац'
'слен'
'слави_'
'скульпт'
'скорочує'
'скороти'
'скоро_'
'скористатис'
'склянк'
'скло'
'скле'
'складі_'
'складов'
'складніше_'
'складні_'
'складні'
'складан'
'скин'
'скеп'
'скарж'
'скан'
'сказано'
'скаже_'
'скаж'
'сич'
'систем'
'синів_'
'сині'
'синтез_'
'синтез'
'сином_'
'симп'
'сильніше_'
'сило'
'сидіти_'
'сидіння'
'сидячи'
'сив'
'сечов'
'сет'
'сесі'
'сестри'
'серйозно'
'середовищ'
'середнього_'
'середини_'
'серед'
'серди'
'сенсі_'
'сенс_'
'семи_'
'семестр'
'сель'
'селе'
'секунду_'
'сектора'
'сексуальна_'
'сексуал'
'сексу_'
'сезоні_'
'світови'
'світли'
'світит'
'світи'
'свідчить_'
'свідченням'
'свідчення_'
'свідомість_'
'свідк'
'священн'
'священика_'
'святі'
'святого_'
'святку'
'святих_'
'свобод'
'свер'
'сва'
'сар_'
'сані'
'сант'
'санкцій_'
'сана'
'самій_'
'самі'
'самої_'
'самим_'
'сав'
'річну_'
'річниц'
'рік'
'різном'
'різницю_'
'рівнях_'
'рівняння_'
'рятува'
'рян'
'рядок_'
'рядков'
'рш'
'руїн'
'ручн'
'руч_'
'руч'
'рухається_'
'рухатис'
'рукою_'
'руко'
'руг'
'рування_'
'рува'
'рто'
'рств'
'рр'
'рої'
'роу'
'росіяни_'
'рослинн'
'роками_'
'рок_'
'рок'
'розширю'
'розчаруван'
'розумінні_'
'розуміл'
'розумні'
'розумни'
'розумн'
'розташува'
'розслідува'
'розслаб'
'розріза'
'розрив'
'розрахован'
'розрахов'
'розпочали_'
'розпоряд'
'розповідати'
'розповідав_'
'розповів'
'розміщені_'
'розмірів_'
'розмову_'
'розмнож'
'розма'
'розлучен'
'розкішни'
'розкішн'
'розкоп'
'розклад'
'розгорта'
'розго'
'розгляду_'
'розгл'
'розвинен'
'розвиватися_'
'розбуд'
'розбит'
'роз_'
'рожу'
'рожев'
'роди'
'робочо'
'робочий_'
'робиться_'
'рні_'
'рності_'
'рка_'
'рич'
'риц'
'риту'
'рити'
'риса'
'рий_'
'рив_'
'риби_'
'рибал'
'риба_'
'реєстр'
'речовина_'
'речен'
'рецепт'
'референ'
'рес_'
'реніш'
'рення'
'ренн'
'реме'
'реліз'
'рекомендують'
'рекоменд'
'рекламн'
'реклама_'
'результату_'
'результат'
'резо'
'режисер'
'редині_'
'реда'
'ред_'
'регіонах_'
'регіон_'
'регіон'
'регі'
'регуля'
'регул'
'реалізу'
'реалі'
'реальні_'
'реакцій_'
'реактор'
'рдан'
'рбов'
'рб'
'рає_'
'раю'
'рацію_'
'раціональн'
'ратифік'
'ратися_'
'расо'
'расн'
'раптово_'
'раптов'
'рано_'
'рани_'
'ранд'
'раль'
'район_'
'разово'
'радіс'
'радянськи'
'раду'
'радості_'
'радо'
'радн'
'радикальн'
'равл'
'рави'
'пішла_'
'піт'
'після'
'піс'
'пір_'
'пілот'
'пізн'
'підійд'
'підходя'
'підходи'
'піду'
'підтримують'
'підтримува'
'підтримати_'
'підтриман'
'підтвердженн'
'підсумку_'
'підсум'
'підставі_'
'підсилю'
'підсві'
'підс'
'підприємниц'
'підпо'
'підписали'
'піднім'
'підм'
'підло'
'підко'
'підземн'
'підготовлен'
'підго'
'підвів'
'підвод'
'підв'
'пція_'
'пустел'
'пункту'
'пуль'
'пул'
'публіку'
'публікаці'
'публік'
'птаха'
'псо'
'психологічно'
'психологічни'
'прізвищ'
'прямі'
'прям'
'пру'
'прощ'
'прошу_'
'прошепоті'
'прочитати_'
'проч'
'процесів_'
'процедури_'
'проходили_'
'прохо'
'проха'
'професійної_'
'протистоя'
'протилежно'
'протилежн'
'протиза'
'протест'
'просування_'
'просува'
'прості_'
'простяг'
'просторо'
'простор'
'прости'
'прослух'
'просит'
'просим'
'просил'
'пророк'
'проро'
'пропустит'
'пропонується_'
'пропонуємо_'
'пропозицію_'
'пропа'
'проникнення'
'проко'
'пройшли_'
'прой'
'проз'
'прож'
'проектуванн'
'проектами_'
'продуктивн'
'продовжується_'
'продовжувати_'
'продовжен'
'продають_'
'продажі'
'продав_'
'прогуля'
'програмування_'
'проголосу'
'прогноз_'
'провідних_'
'провока'
'проводиться_'
'проводит'
'проводи'
'проведено_'
'провал'
'проаналіз'
'причин'
'приходу_'
'прихильник'
'пристрасть_'
'пристос'
'прислуха'
'прискорю'
'природни'
'припиняється_'
'припинення_'
'припадає_'
'принципу_'
'принципом_'
'принц_'
'принц'
'прикрі'
'приклади_'
'прийом'
'прийнято_'
'прийняти'
'прийняли_'
'призначи'
'призначено_'
'призначають'
'призвел'
'призведе_'
'приділ'
'привітн'
'приві'
'привод'
'приватних_'
'прива'
'прибул'
'препарати_'
'препарат_'
'прекрасні'
'прекрасно_'
'презент'
'представляють_'
'представи'
'предки_'
'пред_'
'працівника'
'праця'
'працюємо_'
'працюю'
'працювали_'
'працювала_'
'працюва'
'прац'
'прагнут'
'праві'
'правом'
'правн'
'правильний_'
'поїхал'
'поїхав_'
'поїздка_'
'поєднання_'
'пояснює'
'пояснювати_'
'поясню'
'появи'
'поширюється_'
'поширю'
'почутт'
'почул'
'почуваю'
'починаючи_'
'починають_'
'початком_'
'початков'
'почався_'
'поцілу'
'похмур'
'похвалити'
'потік_'
'потрапляє_'
'потрапив_'
'поточно'
'потер'
'потенціал_'
'потенціал'
'постійні'
'поступи'
'поступ'
'посту'
'постріл'
'постачальників_'
'постача'
'поставк'
'поспі'
'посол'
'посмішк'
'посміхну'
'послідовник'
'послуха'
'послугу_'
'послуга'
'посланн'
'посаду_'
'порівнянні_'
'порці'
'порушує_'
'порушу'
'портфель_'
'порта'
'породи'
'поради_'
'поради'
'популярністю_'
'популярні_'
'популярних_'
'попул'
'попри_'
'попо'
'попит'
'попередити_'
'попередження_'
'попаданн'
'поні'
'понов'
'понеділок_'
'понде'
'поміч'
'помітн'
'поміт'
'помст'
'помилився_'
'поліція_'
'поліцейськи'
'політично'
'політе'
'поліпшити_'
'поліпшення_'
'поляр'
'поляк'
'полягал'
'польоту_'
'полонен'
'положення_'
'положен'
'полк'
'поле'
'покій'
'покі'
'покупку_'
'покупк'
'покрива'
'покоєн'
'покликав'
'показал'
'познача'
'позна'
'позитивний_'
'позбутися_'
'позбавляє_'
'позб'
'позад'
'поет'
'подібного_'
'подякувати_'
'подумал'
'подумав_'
'подроб'
'подоланн'
'подоба'
'подо'
'подзвони'
'подвійне_'
'подв'
'подається_'
'податко'
'подат'
'подарунок_'
'подару'
'подали'
'подал'
'погроз'
'погоди_'
'погоджую'
'поглину'
'повітрі_'
'повітряни'
'повіт'
'повідомленн'
'повсякденн'
'повстан'
'повний_'
'повни'
'повне'
'повертаю'
'повернут'
'повернулися_'
'повернули_'
'повернув_'
'поверну'
'поверне'
'поведінці_'
'побічні_'
'побіг'
'побудува'
'побува'
'побо'
'побачил'
'пну'
'пляж'
'плюс_'
'плом'
'плоди_'
'плечі_'
'плече_'
'плет'
'плення_'
'племена'
'плацебо_'
'платформа'
'платформ'
'пласти'
'планів_'
'планува'
'плантаці'
'плано'
'планети_'
'планет_'
'плакати_'
'пка_'
'пиша'
'пит'
'письмов'
'письм'
'пильн'
'пило'
'пива_'
'печера_'
'періодичн'
'періоди'
'пері'
'першими_'
'перу'
'персонажі'
'персонажа'
'пери'
'перешкоди'
'переч'
'перехід_'
'переходит'
'перетворила'
'перетворен'
'перестал'
'переста'
'переслідуван'
'пересліду'
'перера'
'перепов'
'переможці'
'перемож'
'перекри'
'перекон'
'перейти_'
'переза'
'пережит'
'пережил'
'переж'
'передчасн'
'передбачити_'
'передбачає_'
'передач'
'перегляди_'
'переглядати_'
'перегляда'
'перевірк'
'переважа'
'перебіг'
'перебувати_'
'пенсійн'
'пекл'
'педагог'
'певні'
'певної_'
'певн'
'патичн'
'пати'
'паст'
'парфум'
'пару_'
'партія'
'партнерс'
'пара_'
'паперо'
'папер'
'пані_'
'пані'
'панчох'
'панел'
'пальців_'
'паль'
'палк'
'палич'
'палив'
'палат'
'пакува'
'падає_'
'пада'
'пад'
'пагорб'
'оїд'
'ою'
'очікувати_'
'очікува'
'очко'
'очки_'
'очка'
'очищенн'
'очищ'
'очити'
'оцінок_'
'оце'
'охоплює_'
'охоплю'
'охолоджен'
'охоло'
'офіційн'
'оу'
'отів_'
'отримує_'
'отримува'
'отримає'
'оточую'
'оточен'
'осів'
'ося'
'остров'
'остат'
'особливу_'
'особливого_'
'особливи'
'особлив'
'особистість_'
'особистост'
'особам'
'основу_'
'основним'
'осип'
'осеред'
'осел'
'освічен'
'освітленн'
'орієнтован'
'оря'
'орськ'
'орот'
'орон'
'оригінальн'
'ордонн'
'органічн'
'організову'
'організаціях_'
'органи_'
'оральний_'
'опік'
'опублікува'
'опра'
'опол'
'оповідання'
'опові'
'опл'
'описан'
'операція'
'операці'
'опал'
'опа'
'онії_'
'онів'
'оня'
'онт'
'онос'
'онколог'
'они_'
'они'
'оналі'
'онал'
'оміс'
'омов'
'омо'
'ометр'
'оме'
'оманітн'
'оман'
'олії_'
'олічн'
'олімп'
'олод'
'ологія_'
'олов'
'оли_'
'окупи'
'окупа'
'окса'
'окре'
'оком_'
'околиця'
'океану_'
'озуміл'
'означало_'
'ознаки_'
'ознак_'
'ознайомит'
'озит'
'озер'
'озв'
'оза'
'ожиріння_'
'оді_'
'одя'
'одовж_'
'одн'
'одити'
'одина'
'одержу'
'огоро'
'оголошує'
'оголо'
'оген'
'овій_'
'овувати_'
'овуванн'
'овський_'
'овоч'
'овольн'
'овол'
'овний_'
'овни'
'овка'
'овину_'
'овими_'
'овац'
'ованим'
'обійм'
'обходи'
'обуд'
'обстріл'
'обстеження_'
'обробляти'
'обрано'
'образ_'
'оборо'
'обмін_'
'обмежу'
'обмежи'
'облікови'
'обличчі_'
'облен'
'область_'
'областей_'
'обкл'
'обговорюва'
'обг'
'оба'
'ніякої_'
'нішн'
'ніше_'
'ніть'
'нін'
'німці'
'німецьких_'
'німецьким'
'ніл'
'ніку'
'ніза'
'ніжн'
'ніде'
'ніда'
'нігт'
'ніг_'
'нів'
'няв'
'ньки'
'ньк'
'нште'
'нш'
'нуть'
'нут'
'нуль'
'нулися_'
'нули_'
'нувши_'
'нувал'
'нсі'
'нський_'
'нстр'
'нст'
'ноутбук'
'нормально_'
'нормально'
'нормальн'
'ног'
'новим_'
'нове'
'нован'
'нова_'
'ннями_'
'нкі'
'нич'
'ниці_'
'нинішн'
'нині_'
'ника'
'низький_'
'нижн'
'ниж'
'нещас'
'нещ'
'нехай_'
'неф'
'нетр'
'нетерп'
'неспр'
'неса'
'неро'
'нервово'
'нервов'
'непод'
'неодноразово_'
'необхідно'
'немо_'
'немо'
'нейро'
'незалежність_'
'незалежності_'
'незалежни'
'неду'
'недоста'
'недос'
'недалеко'
'нед'
'невідомо_'
'невинн'
'невдов'
'небес'
'небезпечні'
'небезпечною_'
'небезпечними_'
'небезпечн'
'небагато_'
'ндинк'
'ндер'
'нащад'
'нащ'
'наш'
'начальни'
'національного_'
'науково_'
'наука'
'натяк'
'натя'
'натхнен'
'натурал'
'натр'
'натисну'
'насос'
'насол'
'наслід'
'насильства_'
'нарі'
'народно'
'народни'
'народит'
'народилася_'
'народжуються_'
'нарко'
'напружен'
'напруг'
'наполяга'
'наполеглив'
'напол'
'написа'
'нап'
'нао'
'намір_'
'намагаються_'
'намагаюс'
'намагалис'
'нама'
'нали'
'налаштувати_'
'налашту'
'накопичен'
'нака'
'найпр'
'найпопулярніши'
'найпо'
'наймо'
'найкра'
'найгірш'
'найв'
'найбільшо'
'назовні_'
'називає_'
'називав'
'названо_'
'назвав_'
'назва'
'надію_'
'надійні'
'надійни'
'наду'
'надм'
'надлиш'
'надаємо_'
'надати_'
'нагрів'
'нагор'
'наголос'
'нагоду_'
'нага'
'навіщо_'
'навчит'
'навчи'
'навчаю'
'навчанн'
'навчальні_'
'навчальним'
'навчальн'
'навчал'
'навколишньо'
'набо'
'міцно_'
'місія_'
'місячно'
'місячни'
'міркуван'
'міністерств'
'мінімум_'
'міні_'
'мінюва'
'мінус'
'міно'
'мінно_'
'мільярда_'
'мікроелемент'
'мігрантів_'
'міг'
'мух'
'мут'
'мусульманськ'
'муніципал'
'мульти'
'музичних_'
'музеї_'
'мс_'
'мріє'
'мрію'
'мр'
'мпере'
'мотива'
'мос'
'морі_'
'морсько'
'море'
'монтаж'
'монс'
'монети'
'моменти_'
'момент'
'мом_'
'молодіжн'
'молодши'
'молитися_'
'молитв'
'мокту'
'моделю'
'могло_'
'мові'
'мовні'
'мовляв_'
'мовил'
'мова'
'мки'
'мисл'
'мир'
'механічн'
'мету'
'метро_'
'метро'
'метричн'
'метра'
'методами_'
'мете'
'металу_'
'мета_'
'мережев'
'мережа'
'мера'
'мені'
'менструа'
'менс'
'меже'
'меж'
'медичні'
'медично'
'медичних_'
'медит'
'меди'
'медаль_'
'мега'
'мбу'
'мба'
'машина_'
'маш'
'мац'
'матус'
'масштабу'
'масштабн'
'маст'
'маск'
'масаж_'
'маро'
'марно_'
'маркетинг'
'маркет'
'мар_'
'мандрівник'
'малюк_'
'малюва'
'маль'
'маленьких_'
'маленький_'
'максимум_'
'максимально'
'максимальни'
'максимальн'
'макет'
'майт'
'майс'
'майбутні_'
'маз'
'магі'
'магнітн'
'мав'
'лія_'
'ліц'
'літній_'
'літер'
'лісі'
'ліс'
'ління_'
'лімф'
'лікуванн'
'лікувальн'
'лікува'
'ліжку_'
'лідерів_'
'лідерс'
'лід_'
'ляє_'
'ляв'
'люється_'
'люють'
'люс'
'люкс'
'людських_'
'любите_'
'люби'
'льств'
'льки_'
'лучен'
'лух'
'луна'
'лум'
'лою_'
'лотере'
'лонк'
'ложк'
'логія_'
'логічно'
'логічни'
'лога_'
'лови'
'лкі'
'лиця_'
'литися_'
'листів'
'листо'
'лиск'
'лий_'
'ливіш'
'ливі_'
'ливи'
'лесбі'
'лена_'
'лем'
'лежн'
'лежить_'
'лежать_'
'леді_'
'лед'
'легені'
'леген'
'ле_'
'латин'
'лати'
'лата'
'ласн'
'лас'
'ланцюг'
'лами_'
'лайн'
'лаг'
'лабораторії_'
'лабораторі'
'лаб'
'кіш'
'кістки_'
'кіс'
'кінь_'
'кінс'
'кільце'
'кілько'
'кій'
'ків'
'кціон'
'кухні_'
'курорт'
'курк'
'курит'
'купує'
'купа'
'кулі_'
'культ'
'кулак'
'кувати_'
'куб'
'кто'
'ктик'
'кт_'
'кт'
'ксі'
'кськ'
'крісл'
'крут'
'кругл'
'крово'
'кров'
'критері'
'креативн'
'країнами_'
'кращий_'
'кратичн'
'красу'
'краса_'
'крамни'
'край_'
'край'
'крав'
'кр'
'коштува'
'кошту'
'кошик'
'кохання_'
'коха'
'кота_'
'космічн'
'корінн'
'корт'
'корпораці'
'короткі_'
'королівств'
'король_'
'коричнев'
'користувач_'
'користування_'
'корисним'
'корейськ'
'кордоні_'
'кораблів_'
'корабля_'
'копіюва'
'концерн'
'концепції_'
'концентрація'
'конфлікті'
'конференції_'
'контраст'
'контакт'
'консул'
'конструкція'
'конституці'
'консолі'
'конн'
'конкуренто'
'конве'
'комітету_'
'комісії_'
'комір'
'комфортн'
'комуністичн'
'комунікаці'
'кому'
'композит'
'комплекту'
'комплексі'
'комплек'
'компенсаці'
'компанією_'
'компаніям'
'комерційн'
'комеді'
'комбінації_'
'команду_'
'кольоров'
'кольори_'
'кольора'
'колонії_'
'колива'
'колекції_'
'колег_'
'колго'
'кола_'
'кожну_'
'кожним_'
'кодування_'
'кові'
'кову'
'ковськ'
'ковн'
'кових_'
'кови'
'коа'
'княз'
'кн'
'кліні'
'клімату_'
'кля'
'ключі'
'ключових_'
'клуби_'
'клу'
'клопот'
'клапан'
'кладовищ'
'клад'
'клав'
'кл'
'кишень'
'китайсько'
'китайськи'
'китайськ'
'кинул'
'кинув_'
'килим'
'кивну'
'кет_'
'керівництво_'
'кері'
'керувати'
'кейн'
'квартирі_'
'квар'
'кає'
'кафе'
'католицько'
'категорій_'
'катало'
'кара_'
'капітан_'
'капіталу_'
'капі'
'капелюх'
'канцлер'
'канс'
'кано'
'камеру_'
'камери_'
'калькулятор_'
'калорій'
'кало'
'кай'
'казати_'
'каг'
'кави_'
'йшло'
'йшли_'
'йш'
'йсько'
'йор'
'йомк'
'йович'
'йов'
'йня'
'йник'
'ймо'
'йли'
'йз'
'йду'
'ищення_'
'ишні'
'ичний_'
'ични'
'ичне'
'ичк'
'ицтв'
'ифік'
'иті'
'итель'
'ител'
'ите_'
'ите'
'истану_'
'иса'
'ирі'
'ині'
'инул'
'иною_'
'инн'
'инки_'
'инал'
'имі'
'име_'
'иль'
'илос'
'илов'
'икі'
'ику_'
'икам'
'икав_'
'изон'
'изо'
'идів_'
'идат'
'ившись_'
'ивим'
'иває'
'иваю'
'зітхнув'
'зіткну'
'зірко'
'зібран'
'зібрал'
'зібрав'
'зустрітися_'
'зустріти_'
'зусиль_'
'зусилля_'
'зупинитис'
'зупинити_'
'зум'
'зувати'
'зручніш'
'зруйнован'
'зрозуміла_'
'зроблени'
'зробл'
'зразок_'
'зосереджен'
'зосеред'
'зоо'
'зон_'
'зомбі_'
'золото_'
'зок'
'зод'
'зовнішн'
'зняти_'
'зняв_'
'зню'
'зно'
'знищення_'
'знижується_'
'знижу'
'знева'
'знаюч'
'значні_'
'знаходити_'
'знаходите'
'знаходження_'
'знаменито'
'знак_'
'знайшла'
'знайоми'
'змішаних_'
'змішан'
'зміст_'
'змінює_'
'змінит'
'змінили_'
'змушує_'
'змусити_'
'змуси'
'змозі_'
'зможемо_'
'змогли_'
'зме'
'змага'
'зля'
'злочин_'
'злам'
'зйомки_'
'зино'
'земле'
'земе'
'зелено'
'здійснюється_'
'здійснення_'
'здорові'
'здобич'
'здивован'
'здатна_'
'здавався_'
'зд_'
'згодні_'
'згадк'
'звідт'
'звідси_'
'звуч'
'звуки_'
'звук_'
'зворотн'
'звинувачу'
'звинувачен'
'звик'
'звертатися_'
'звернути_'
'звернув'
'званн'
'збір'
'збільшува'
'збільшила'
'зброє'
'збройни'
'збор'
'зберігається_'
'зберігає_'
'зберігаються_'
'зберігаю'
'збер'
'заяви'
'зачин'
'зач'
'зацікавлені'
'зацікави'
'захоплюючи'
'захоплю'
'захоплення'
'захоплен'
'заході'
'захищені'
'захищає'
'захища'
'захисник'
'заф'
'зауважив_'
'затя'
'затр'
'заток'
'застосовують'
'застосовуватис'
'застер'
'застав'
'заспокої'
'заспокою'
'засму'
'заслуговує'
'заслуг'
'заручник'
'зарплат'
'зарод'
'заробити_'
'зареєстрованим'
'зараження_'
'запі'
'запуску_'
'запу'
'запрошен'
'запобігти_'
'запобіга'
'запиті'
'запитала_'
'запит_'
'записів_'
'запису'
'запи'
'заперечи'
'запах_'
'запас_'
'запалення_'
'зано'
'занепа'
'зане'
'замі'
'замовлен'
'замислю'
'залишилас'
'залишалося_'
'залишали'
'залежа'
'закінчує'
'закінчую'
'закінчити_'
'закінчили'
'закінчен'
'закритих_'
'закрит'
'закохався_'
'законі'
'законн'
'закладі'
'зак'
'зайняли_'
'зайняв'
'займатися_'
'зажада'
'задум'
'задовольнити_'
'задн'
'задав'
'загуб'
'загрозою_'
'загот'
'загину'
'загальну_'
'загальних_'
'загал'
'загадков'
'зави'
'завершити'
'заверши'
'заве'
'завдань_'
'завд'
'заважає_'
'заваг'
'зав_'
'забув_'
'забороня'
'заборонено_'
'заборонен'
'забит'
'забезпечен'
'забезпеч'
'забар'
'заарештува'
'жінку_'
'жінкам'
'жя_'
'жорсткі'
'жорстк'
'жна_'
'життє'
'жителі_'
'жира'
'жила'
'живлення'
'живим'
'живи'
'жет'
'жест'
'жер_'
'женні_'
'женням'
'жених_'
'жає'
'жах_'
'жах'
'жання_'
'жаб'
'еґ'
'ея'
'ешт'
'ецько'
'ефір'
'ефективно'
'ефективним_'
'етап_'
'есі'
'есь_'
'естер'
'есн'
'еска'
'еріть_'
'ерти'
'ерств'
'ерпн'
'ерп'
'ерна'
'ерл'
'ерк'
'ереж'
'ерг'
'ерба'
'ерб'
'ерал'
'епоха_'
'еня'
'енто'
'ентно'
'енергетик'
'ена'
'емо'
'ематик'
'ельно'
'ело'
'елив'
'елення_'
'електром'
'електричних_'
'елект'
'елег'
'еле'
'ел'
'експерти'
'експерименту'
'екск'
'екс_'
[...]
