'<pad>'
'<EOS>'
', _'
'._'
'the_'
'a_'
'_'
'to_'
'of_'
'and_'
's_'
'in_'
'v_'
'se_'
'is_'
'-_'
'na_'
'that_'
'for_'
'je_'
'y_'
''_'
'že_'
'by_'
'I_'
'o_'
'on_'
'?_'
'e_'
'i_'
'. _'
'The_'
'it_'
'u_'
'be_'
'with_'
'/_'
' (_'
'you_'
't_'
'are_'
'as_'
'pro_'
'k_'
'do_'
': _'
'í_'
'this_'
'not_'
') _'
'was_'
'm_'
' - _'
'at_'
'é_'
'have_'
'from_'
'z_'
'an_'
'or_'
'we_'
'á_'
've_'
'will_'
'Hotel_'
'ing_'
'ou_'
'd_'
' – _'
'ch_'
'has_'
'which_'
'si_'
'hotel_'
'za_'
' _'
'ed_'
'!_'
'all_'
'které_'
'jsou_'
'ě_'
'ů_'
'can_'
'A_'
'’_'
'ho_'
'jako_'
'1_'
'European_'
'their_'
'would_'
'aby_'
'but_'
'2_'
'ý_'
'nebo_'
'It_'
'me_'
'l_'
'em_'
'ale_'
'EU_'
'our_'
'its_'
'jsem_'
'also_'
'more_'
'they_'
'ých_'
'one_'
'3_'
'very_'
'In_'
'been_'
'This_'
'být_'
'(_'
'V_'
'n_'
'mi_'
' ._'
'es_'
'ní_'
'co_'
'should_'
'were_'
'tak_'
'like_'
'po_'
'We_'
'your_'
',_'
'no_'
'there_'
'ly_'
'out_'
'; _'
'To_'
'ého_'
'about_'
'5_'
'only_'
'my_'
'bude_'
'4_'
':_'
'up_'
'so_'
'od_'
'other_'
'který_'
'ze_'
'if_'
'r_'
'než_'
'he_'
'li_'
'jak_'
'must_'
'what_'
'You_'
'time_'
'má_'
'která_'
'"_'
'had_'
'Commission_'
' , _'
'us_'
'than_'
'te_'
'la_'
'ce_'
'..._'
')._'
'al_'
'who_'
'when_'
'new_'
'just_'
'však_'
'good_'
'countries_'
'into_'
'room_'
'Je_'
'), _'
'musí_'
'such_'
' "_'
'But_'
'his_'
'jí_'
'také_'
'people_'
'ím_'
'er_'
'ým_'
'jen_'
'States_'
'Europe_'
'jejich_'
'some_'
'them_'
'de_'
'need_'
'jsme_'
'ng_'
'No_'
'President_'
'byl_'
'této_'
're_'
' „_'
'these_'
'Komise_'
'now_'
'jeho_'
'after_'
'mezi_'
'could_'
'any_'
'right_'
'bylo_'
'6_'
'Member_'
'ne_'
'use_'
'Union_'
'well_'
'stay_'
'... _'
'rooms_'
'world_'
'není_'
'ům_'
'Mr_'
'en_'
'most_'
'% _'
'byla_'
'7_'
'když_'
';_'
'know_'
'com_'
'00_'
'pokoje_'
'may_'
'between_'
'over_'
'při_'
'because_'
'years_'
'let_'
'toho_'
'make_'
'země_'
'mu_'
'way_'
'where_'
'bych_'
'24_'
'ke_'
'může_'
'S_'
'už_'
'hostů_'
'even_'
'ty_'
'pokud_'
'Hodnocení_'
'0_'
'své_'
')_'
'nám_'
'many_'
'If_'
'What_'
'here_'
'10_'
'two_'
' “_'
'first_'
'see_'
'8_'
'location_'
'Booking_'
'economic_'
'uje_'
'před_'
'take_'
'And_'
'those_'
'proti_'
'ovat_'
'work_'
'tomu_'
'tím_'
'That_'
'staff_'
'system_'
'shall_'
'vám_'
'státy_'
'much_'
'reviews_'
'Evropské_'
'" _'
'made_'
'g_'
'get_'
'US_'
'report_'
'ém_'
'important_'
'Council_'
'her_'
'h_'
'protože_'
'policy_'
'country_'
'20_'
'tu_'
'c_'
'né_'
'him_'
'ové_'
'podle_'
'how_'
'financial_'
'oblasti_'
'ještě_'
'EUR_'
'market_'
'ky_'
'want_'
'velmi_'
'Article_'
'ně_'
'Pokud_'
'being_'
'mě_'
'tohoto_'
'think_'
'am_'
'."_'
'budou_'
'He_'
'Parliament_'
'ání_'
'9_'
'year_'
'support_'
'unie_'
'down_'
'roce_'
'free_'
'able_'
'le_'
'said_'
'il_'
'too_'
'další_'
'under_'
'p_'
'hotelu_'
'go_'
'There_'
'within_'
'mají_'
'ování_'
'city_'
'tom_'
'2008_'
'C_'
'All_'
'political_'
' [[_'
'ci_'
' ..._'
'více_'
'long_'
'cí_'
'ích_'
'information_'
'same_'
'before_'
'ani_'
'opatření_'
'tento_'
'Co_'
'ji_'
'jste_'
'back_'
'public_'
'day_'
'byly_'
'against_'
' — _'
' / _'
'roku_'
'per_'
'ion_'
'kteří_'
'ení_'
'tyto_'
'both_'
'všech_'
'did_'
'English_'
'těchto_'
'then_'
'own_'
'naši_'
'ými_'
'což_'
'centre_'
'Rooms_'
'mít_'
'již_'
'Na_'
'China_'
'through_'
'předsedající_'
'2009_'
'international_'
'As_'
'great_'
'všechny_'
'used_'
'pouze_'
'When_'
'jsi_'
'bez_'
'global_'
'až_'
'Room_'
'set_'
'ka_'
'national_'
'located_'
'ku_'
'case_'
'possible_'
'proto_'
'“ _'
'For_'
'kde_'
'll_'
'15_'
'či_'
'finanční_'
'does_'
'dnes_'
'ému_'
'order_'
'say_'
'They_'
'part_'
'12_'
'government_'
'Tento_'
'ují_'
'ech_'
'don_'
'area_'
'služba_'
'tomto_'
'rád_'
'případě_'
'non_'
'nařízení_'
'' _'
'tedy_'
'st_'
'while_'
'mohou_'
'available_'
'breakfast_'
'still_'
'rámci_'
'rights_'
'without_'
'kdy_'
'energy_'
'rozhodnutí_'
'United_'
'ost_'
'. - (_'
'less_'
'Zařízení_'
'zemí_'
'social_'
'Service_'
'pobytu_'
'place_'
'zejména_'
'ám_'
'help_'
'last_'
'jež_'
'close_'
'50_'
'number_'
'including_'
'guest_'
'Když_'
'she_'
'stále_'
'point_'
'service_'
'away_'
'Jak_'
'offers_'
'D_'
'třeba_'
'Bar_'
'30_'
'lo_'
'ách_'
'Ale_'
'tion_'
'pane_'
'možné_'
'států_'
'level_'
'high_'
'course_'
' % _'
'politiky_'
'ti_'
'growth_'
'far_'
'today_'
'USA_'
'really_'
'T_'
'kterou_'
'jde_'
' & _'
'change_'
'ation_'
'Pane_'
'zákazníci_'
'posílají_'
'11_'
'ek_'
'come_'
'power_'
'el_'
'So_'
' | _'
'řízení_'
'small_'
'example_'
'000_'
'. - _'
'data_'
'ES_'
'submitted_'
'next_'
'development_'
'Ne_'
'měla_'
'find_'
'view_'
'access_'
' _'
'” _'
'best_'
'’ _'
'|_'
'pak_'
'already_'
'ry_'
'measures_'
'Czech_'
'členských_'
'její_'
'bychom_'
'160_'
'nové_'
'ější_'
'crisis_'
'byste_'
'man_'
'got_'
'pokojů_'
'osti_'
'ním_'
'means_'
'tato_'
'ta_'
'ers_'
'business_'
'economy_'
'den_'
'2007_'
'č_'
'ten_'
'night_'
'měl_'
'end_'
'customers_'
'společnosti_'
'services_'
'já_'
'ies_'
'better_'
'Business_'
'costs_'
'ble_'
'rs_'
'human_'
'Fax_'
'during_'
'children_'
'believe_'
'2006_'
'why_'
'svou_'
'nás_'
'b_'
'law_'
'large_'
'three_'
'tuto_'
'state_'
'life_'
'problem_'
'měli_'
'Facilities_'
'friendly_'
'cannot_'
'lidí_'
'š_'
'vás_'
'each_'
'off_'
' ( _'
'little_'
'heart_'
'something_'
'put_'
'few_'
'comfortable_'
'again_'
'et_'
'around_'
'particular_'
'něco_'
'fact_'
'Regulation_'
'taken_'
'going_'
' '_'
'products_'
'ment_'
'therefore_'
'old_'
'modern_'
'every_'
'&#_'
'kdo_'
'clear_'
'another_'
'dne_'
'Guest_'
'rovněž_'
'never_'
'security_'
'trhu_'
'systému_'
'paní_'
'ila_'
'excellent_'
'děti_'
'L_'
'since_'
'real_'
'question_'
'list_'
'language_'
'future_'
'Všechny_'
'Rady_'
'dobře_'
'term_'
'main_'
'current_'
'clean_'
'ami_'
'always_'
'práva_'
'left_'
'základě_'
'evropské_'
'- _'
'zde_'
'trade_'
'tam_'
'včetně_'
'different_'
']] _'
'P_'
'whether_'
'ny_'
'například_'
'internet_'
'Evropská_'
'minutes_'
'However_'
'x_'
'price_'
'musíme_'
'hours_'
'řešení_'
'ční_'
'Z_'
'přístup_'
'&_'
'ts_'
'star_'
'program_'
'yang_'
'using_'
'ské_'
'needs_'
'form_'
'během_'
'based_'
'práv_'
'interest_'
'central_'
'Oh_'
'America_'
'nic_'
'money_'
'become_'
'abychom_'
'situation_'
'Desk_'
'provide_'
'prostředí_'
'krize_'
'avi_'
'lze_'
'dispozici_'
'zařízení_'
'směrnice_'
'práce_'
'nad_'
'? _'
'větší_'
'ons_'
'ný_'
'25_'
'process_'
'enough_'
'pomoci_'
'mnoho_'
'jim_'
'helpful_'
'dan_'
'citizens_'
'O_'
'svých_'
'nabízí_'
'however_'
'areas_'
' '
'role_'
'name_'
'common_'
'pod_'
'nice_'
'given_'
'major_'
'informace_'
'full_'
'Russia_'
'EC_'
'... ..._'
'walk_'
'vlastní_'
'protection_'
'nyní_'
'State_'
'France_'
'Community_'
'tě_'
'strany_'
'American_'
'second_'
'první_'
'ensure_'
'risk_'
'právě_'
'ná_'
'further_'
'action_'
'14_'
'," _'
'value_'
'provided_'
'světě_'
'result_'
'might_'
'decision_'
'systém_'
'souladu_'
'rate_'
'podporu_'
'necessary_'
'Ano_'
'um_'
'give_'
'zda_'
'working_'
'following_'
'facilities_'
'especially_'
'One_'
'Evropě_'
'100_'
'private_'
'least_'
'globální_'
'Kdy_'
'zemích_'
'toto_'
'th_'
'právní_'
'návrh_'
'food_'
'Do_'
'tady_'
'rules_'
'problems_'
'period_'
'důležité_'
'vlády_'
'stát_'
'station_'
'měly_'
'„_'
'look_'
'family_'
'Toto_'
'On_'
'New_'
'My_'
'E_'
'called_'
'íme_'
'nou_'
'jící_'
'home_'
'Tak_'
'40_'
'legal_'
'Já_'
'13_'
'ra_'
'ních_'
'nt_'
'needed_'
'lidé_'
'health_'
'rok_'
'16_'
'naše_'
'km_'
'issue_'
'done_'
'transport_'
'teď_'
'systems_'
'neboť_'
'můžete_'
'jiné_'
'ej_'
'K_'
'veřejné_'
'recepci_'
'Ve_'
'Proto_'
'Group_'
'členské_'
'zemi_'
'věci_'
'růst_'
'Tato_'
'2010_'
'ted_'
'run_'
'příliš_'
'možná_'
'f_'
'Hostelsclub_'
'skupiny_'
'mezinárodní_'
'ic_'
'agreement_'
'Smoking_'
'words_'
'open_'
'near_'
'nbsp_'
'issues_'
'air_'
'short_'
'jeden_'
'ie_'
'found_'
'Nekuřácké_'
'2004_'
'18_'
'části_'
'water_'
'third_'
'sector_'
'přicestoval_'
'řekl_'
'markets_'
'Directive_'
'B_'
'parlamentu_'
'making_'
'She_'
'recent_'
'ných_'
'nich_'
'institutions_'
'certain_'
'These_'
'Jo_'
'Court_'
'vysoké_'
'town_'
'terms_'
'sociální_'
'2005_'
'ubytování_'
'start_'
'ity_'
'Společenství_'
'Pro_'
'London_'
'Úschovna_'
'person_'
'období_'
'mnohem_'
'M_'
'Centre_'
'j_'
'hodinová_'
'At_'
'stojí_'
'problémy_'
'odst_'
'ever_'
'ala_'
'women_'
'svého_'
'region_'
'reception_'
'ovi_'
'mnoha_'
'easy_'
'aid_'
'Evropa_'
'! _'
'často_'
'stejně_'
'růstu_'
'energie_'
'II_'
'úrovni_'
'problém_'
'million_'
'byli_'
'building_'
'služby_'
'proposal_'
'pomocí_'
'doing_'
'Za_'
'skutečně_'
'nejsou_'
'men_'
'led_'
'ge_'
'check_'
'basis_'
'Breakfast_'
'čl_'
'způsobem_'
'prices_'
'di_'
'account_'
'Trezor_'
'writing_'
'things_'
'line_'
'cích_'
'DE_'
'změny_'
'ující_'
'státech_'
'single_'
'policies_'
'ová_'
'době_'
'With_'
'respect_'
'ate_'
'Safety_'
'Friendly_'
'.”_'
'“._'
'takže_'
'prostřednictvím_'
'mean_'
'increase_'
'didn_'
'Yes_'
'Non_'
'ící_'
'zavazadel_'
'show_'
'often_'
'hope_'
'effective_'
'authorities_'
'Our_'
'Internet_'
'17_'
'znamená_'
'resources_'
'quality_'
'proč_'
'ia_'
'budget_'
'): _'
'situated_'
'možnost_'
'ili_'
'debate_'
'dalších_'
'D'
'Commissioner_'
'war_'
'restaurant_'
'investment_'
'force_'
'dva_'
'capital_'
'Debian_'
'mohl_'
'letech_'
'hard_'
'conditions_'
'companies_'
'\u_'
'Yeah_'
'whole_'
'times_'
'specific_'
'present_'
'ions_'
'cílem_'
'bar_'
'Jsem_'
'approach_'
'Evropy_'
'Committee_'
'particularly_'
'parking_'
'once_'
'méně_'
'hospodářské_'
'call_'
'How_'
'velké_'
'thing_'
'regard_'
'politické_'
'equipment_'
'bank_'
'among_'
'Výtah_'
'Treaty_'
'Topení_'
'Front_'
'Check_'
'čas_'
'téměř_'
'though_'
'přímo_'
'odvětví_'
'městě_'
'dětí_'
'druhé_'
'continue_'
'climate_'
'90_'
'zajistit_'
'total_'
'svůj_'
'several_'
'rather_'
'que_'
'moci_'
'low_'
'cooperation_'
'centrum_'
'Republic_'
'R_'
'Evropského_'
'Airport_'
'vláda_'
'seznam_'
'ns_'
'matter_'
'jednání_'
'group_'
'dále_'
'banks_'
'Germany_'
'reason_'
'ního_'
'nikdy_'
'místo_'
'ceny_'
'ally_'
'Prádelna_'
'Pokojová_'
'Parlamentu_'
'sure_'
'rates_'
'máme_'
'control_'
'ago_'
'Western_'
'22_'
'ší_'
'w_'
'všichni_'
'nejen_'
'mohla_'
'itself_'
'governments_'
'general_'
'Půjčovna_'
'především_'
'position_'
'having_'
'hand_'
'díky_'
'dohody_'
'debt_'
'Gay_'
'Central_'
' $_'
'vote_'
'kind_'
'jiných_'
'days_'
'Storage_'
'19_'
' ... _'
'víc_'
'site_'
'local_'
'kou_'
'ise_'
'foreign_'
'Public_'
'27_'
'vá_'
'thought_'
'tell_'
'ových_'
'key_'
'euro_'
'environment_'
'cases_'
'airport_'
'Kopírka_'
'Hour_'
'society_'
'pomoc_'
'pan_'
'page_'
'kan_'
'By_'
'té_'
'taking_'
'světa_'
'státu_'
'skutečnosti_'
'offer_'
'members_'
'hostels_'
'eme_'
'ar_'
'Tyto_'
'yet_'
'přes_'
'programu_'
'každý_'
'ive_'
'age_'
'accommodation_'
'Well_'
'G_'
'Box_'
'zprávy_'
'zcela_'
'vůči_'
'právo_'
'production_'
'ni_'
'lepší_'
'ké_'
'industry_'
'big_'
'bezpečnosti_'
'ají_'
'Deposit_'
'znovu_'
'situace_'
'práci_'
'nových_'
'nebude_'
'body_'
'ať_'
'asked_'
'research_'
'nemůže_'
'kvůli_'
'include_'
'either_'
'dokonce_'
'TV_'
'Restaurant_'
'Good_'
'zpráva_'
'together_'
'ting_'
'soukromé_'
'son_'
'situaci_'
'light_'
'feel_'
'banky_'
'ace_'
'Článek_'
'tax_'
'schůze_'
'provides_'
'poor_'
'ous_'
'moc_'
'budeme_'
'application_'
'Why_'
'Park_'
'vé_'
'vy_'
'pracovní_'
'mohli_'
'care_'
'Proč_'
'Po_'
'Bank_'
'straně_'
'safety_'
'ochranu_'
'everything_'
'early_'
'concerned_'
'almost_'
'M'
'General_'
' [_'
'seen_'
'greater_'
'extra_'
'experience_'
'bed_'
'F_'
'ění_'
'úsilí_'
'states_'
'služeb_'
'samozřejmě_'
'regional_'
'ma_'
'fully_'
'cost_'
'Restaurace_'
'Podle_'
'Luggage_'
'Heating_'
'B'
'2013_'
'2000_'
'management_'
'century_'
'bankety_'
'accordance_'
'Where_'
'Rental_'
'Paní_'
'French_'
'žádné_'
'until_'
'tisk_'
'subject_'
'parties_'
'nout_'
'les_'
'klimatu_'
'financování_'
'efforts_'
'beautiful_'
'Not_'
'After_'
'60_'
'procedure_'
'otázky_'
'noc_'
'keep_'
'da_'
'U'
'ální_'
'unii_'
'trh_'
'rychle_'
'použití_'
'pool_'
'organizace_'
'ohledem_'
'nároky_'
'našich_'
'likely_'
'ice_'
'důsledku_'
'celém_'
'bit_'
'asi_'
'] _'
'N'
'Laundry_'
'"._'
'pay_'
'oval_'
'os_'
'model_'
'ize_'
'chtěl_'
'charged_'
'celkem_'
'[_'
'Ty_'
'Private_'
'Just_'
'Elevator_'
'zprávu_'
'tři_'
'special_'
'remain_'
'quite_'
'písemně_'
'pánové_'
'nothing_'
'kdyby_'
'house_'
'ent_'
'ali_'
'activities_'
'ECB_'
'Chinese_'
'2011_'
'2001_'
'vždy_'
'rozvoj_'
'podmínky_'
'past_'
'některých_'
'nový_'
'months_'
'later_'
'gas_'
'distance_'
'car_'
'avšak_'
'část_'
'standard_'
'product_'
'orgány_'
'několik_'
'náklady_'
'nadále_'
'mělo_'
'military_'
'leaders_'
'impact_'
'finančních_'
'difficult_'
'credit_'
'2003_'
'themselves_'
'red_'
'makes_'
'design_'
'Snídaně_'
'Now_'
'Indeed_'
' ‘_'
'side_'
'ors_'
'několika_'
'naší_'
'ily_'
'five_'
'evropských_'
'etc_'
'date_'
'create_'
'class_'
'ary_'
'Rezervace_'
'Pokoje_'
'Paris_'
'Linux_'
'C'
'ž_'
'článku_'
'zároveň_'
'welcome_'
'views_'
'století_'
'spolupráce_'
'four_'
'du_'
'address_'
'actually_'
'Let_'
'Francie_'
'workers_'
'walking_'
'vyšší_'
'true_'
'talk_'
'regulation_'
'reduce_'
'quiet_'
'plan_'
'outside_'
'můžeme_'
'known_'
'framework_'
'attention_'
'HDP_'
'Čistírna_'
'stop_'
'others_'
'natural_'
'lot_'
'billion_'
'appropriate_'
'act_'
'V'
'Photocopying_'
'N_'
'ího_'
'wish_'
'svým_'
'strong_'
'reach_'
'politiku_'
'opportunity_'
'občanů_'
'některé_'
'minute_'
'meet_'
'higher_'
'field_'
'developing_'
'cena_'
'behalf_'
'bad_'
'Organizace_'
'Musíme_'
'?"_'
'21_'
' ) _'
'snížení_'
'package_'
'opinion_'
'longer_'
'hvězdičky_'
'cíle_'
'center_'
'adopted_'
'above_'
'U_'
'Parlament_'
'všechno_'
'principle_'
'poslední_'
'otázku_'
'lidských_'
'funds_'
'file_'
'economies_'
'dvě_'
'democracy_'
'court_'
'b'
'aut_'
'Služba_'
'House_'
'various_'
'týkající_'
'told_'
'střední_'
'step_'
'pravidla_'
'posledních_'
'perfect_'
'ohledně_'
'města_'
'implementation_'
'front_'
'doby_'
'cy_'
'centrální_'
'Obama_'
'F'
'Denní_'
'politika_'
'návrhu_'
'nichž_'
'mám_'
'ling_'
'hospodářství_'
'history_'
'dosáhnout_'
'dolarů_'
'direct_'
'deal_'
'Windows_'
'Služby_'
'Services_'
'Meeting_'
'Hey_'
'80_'
'žehlení_'
'text_'
'společnost_'
'solution_'
'software_'
'smoking_'
'ring_'
'required_'
'reform_'
'rapporteur_'
'provisions_'
'prostředky_'
'guests_'
'face_'
'basic_'
'ba_'
'Madam_'
'L'
'Komisi_'
'FR_'
'type_'
'souvislosti_'
'smlouvy_'
'requirements_'
'relevant_'
'questions_'
'progress_'
'postižené_'
'místě_'
'mg_'
'leave_'
'individual_'
'education_'
'dy_'
'child_'
'W'
'Lisbon_'
'23_'
'wrong_'
'sem_'
'pokoj_'
'ness_'
'nejlepších_'
'mimo_'
'languages_'
'jasně_'
'ilo_'
'gonna_'
'důvodu_'
'ask_'
'Italy_'
'Iran_'
'GDP_'
'Dobře_'
'2014_'
'říct_'
'týká_'
'tí_'
'towards_'
'party_'
'kontrolu_'
'jménem_'
'idea_'
'dobu_'
'K'
'International_'
'East_'
'zvýšení_'
'zdrojů_'
'ying_'
'společně_'
'significant_'
'resolution_'
'prostory_'
'pokoji_'
'podpory_'
'něj_'
'mohly_'
'množství_'
'half_'
'demand_'
'choice_'
'anything_'
'VIP_'
'G'
'Chcete_'
'Banquet_'
'údajů_'
'íte_'
'ways_'
'udělat_'
'trhy_'
'svět_'
'rest_'
'pana_'
'ného_'
'jej_'
'informací_'
'income_'
'hlasování_'
'forward_'
'community_'
'P'
'Is_'
',” _'
'“, _'
'činnosti_'
'veřejných_'
'serious_'
'přičemž_'
'nakonec_'
'move_'
'meeting_'
'jednou_'
'hlavní_'
'est_'
'drive_'
'changes_'
'came_'
'agree_'
'T'
'Some_'
'Okay_'
'God_'
'thank_'
'seems_'
'legislation_'
'kterým_'
'internal_'
'Už_'
'PL_'
'India_'
'Guests_'
'28_'
'tělesně_'
'top_'
'test_'
'společné_'
'počet_'
'ostatní_'
'obchodu_'
'fiscal_'
'equipped_'
'ené_'
'ekonomiky_'
'bring_'
'World_'
'West_'
'Very_'
'Spojené_'
'Spain_'
'Design_'
'31_'
'.._'
'values_'
'size_'
'přijmout_'
'představuje_'
'oil_'
'níž_'
'mohlo_'
'milionů_'
'essential_'
'celé_'
'bezpečnost_'
'26_'
'vzhledem_'
'tímto_'
'turn_'
'spolupráci_'
'soon_'
'shower_'
'různých_'
'project_'
'lidi_'
'improve_'
'effect_'
'due_'
'complete_'
'bus_'
'book_'
'amount_'
'70_'
'word_'
'vůbec_'
'thus_'
'ský_'
'sice_'
'rule_'
'připojení_'
'play_'
'ovšem_'
'nekuřácké_'
'navíc_'
'live_'
'interests_'
'held_'
'existuje_'
'dál_'
'dvou_'
'directly_'
'decisions_'
'ck_'
'apply_'
'O'
'La_'
'J'
'Evropský_'
'základní_'
'traditional_'
'ter_'
'takové_'
'státní_'
'společností_'
'personal_'
'ostí_'
'národní_'
'nce_'
'lead_'
'land_'
'employment_'
'clearly_'
'brought_'
'Unie_'
'Rada_'
'Evropskou_'
'Enterprise_'
'City_'
'An_'
'život_'
'zprávě_'
'train_'
'stability_'
'současné_'
'nutné_'
'looking_'
'behind_'
'", _'
'took_'
'provést_'
'morning_'
'ments_'
'ků_'
'groups_'
'final_'
'democratic_'
'coming_'
'cen_'
'capacity_'
'Z'
'Of_'
'Dry_'
'Car_'
'A'
'2012_'
'won_'
'voted_'
'ustanovení_'
'simply_'
'regions_'
'peace_'
'jedné_'
'competition_'
'Newspapers_'
'Cleaning_'
'zvláštní_'
'zdraví_'
'ubytoven_'
'sebe_'
'responsibility_'
'relations_'
'recently_'
'proposed_'
'projects_'
'programme_'
'muset_'
'media_'
'late_'
'komfortně_'
'job_'
'investice_'
'ideal_'
'goods_'
'exchange_'
'dámy_'
'dobré_'
'cultural_'
'authority_'
'Jen_'
'Ironing_'
'způsob_'
'všem_'
'většina_'
'uvedené_'
'těch_'
'ton_'
'strategy_'
'road_'
'proposals_'
'population_'
'podmínek_'
'platí_'
'love_'
'lost_'
'komise_'
'komfortní_'
'directive_'
'der_'
'anti_'
'abych_'
'R'
'OSN_'
'Israel_'
'zboží_'
'zatímco_'
'ví_'
'vat_'
'předsedo_'
'procesu_'
'požadavky_'
'obchodní_'
'návrhy_'
'lety_'
'letiště_'
'beds_'
'additional_'
'achieve_'
'S'
'Není_'
'Klimatizace_'
'Japan_'
'2002_'
'ya_'
'treatment_'
'street_'
'sti_'
'share_'
'prosím_'
'plán_'
'někdo_'
'else_'
'Fund_'
'žádný_'
'Čína_'
'výše_'
'try_'
'totiž_'
'standards_'
'spending_'
'results_'
'reasons_'
'přístupu_'
'p'
'nachází_'
'ls_'
'ful_'
'existing_'
'established_'
'currently_'
'bathroom_'
'along_'
'allow_'
'across_'
'Při_'
'Office_'
'More_'
'Greece_'
'Express_'
'“_'
'wanted_'
'understand_'
'trying_'
'splňuje_'
'spaces_'
'similar_'
'sea_'
'related_'
'případech_'
'pracovních_'
'potential_'
'ový_'
'm'
'larger_'
'hlediska_'
'entire_'
'door_'
'del_'
'charge_'
'cause_'
'border_'
'availability_'
'aci_'
'York_'
'Vzhledem_'
'UN_'
'Takže_'
'Mrs_'
'H_'
'German_'
'Exchange_'
'EN_'
'CD_'
'Annex_'
'údaje_'
'young_'
'ter'
'svém_'
'space_'
'skutečnost_'
'shopping_'
'safe_'
'prostředků_'
'proces_'
'positive_'
'nu_'
'nemá_'
'fine_'
'fight_'
'emissions_'
'company_'
'addition_'
'While_'
'Spojených_'
'May_'
'usnesení_'
'translation_'
'tohle_'
'table_'
'stránky_'
'ship_'
'regionální_'
'předsednictví_'
'pressure_'
'ového_'
'osob_'
'obsahuje_'
'nuclear_'
'mind_'
'gentlemen_'
'environmental_'
'da'
'budete_'
'benefit_'
'below_'
'Mám_'
'Come_'
'British_'
'Best_'
'500_'
'zeměmi_'
'ujeme_'
'tions_'
'r'
'přihlášení_'
'probably_'
'post_'
'největší_'
'miliard_'
'lack_'
'krizi_'
'increased_'
'included_'
'hodnoty_'
'f'
'double_'
'ding_'
'atmosphere_'
'Your_'
'X_'
'Thank_'
'Možná_'
'žen_'
'velice_'
'range_'
'poverty_'
'můj_'
'mého_'
'member_'
'ings_'
'head_'
'growing_'
'fotografii_'
'fall_'
'evidence_'
'dost_'
'Myslím_'
'Díky_'
'35_'
'�_'
'života_'
'říci_'
'zajištění_'
'vše_'
'vytvoření_'
'technical_'
'supply_'
'sense_'
'return_'
'require_'
'předpisy_'
'podání_'
'ochrany_'
'network_'
'negara_'
'jejichž_'
'ian_'
'enjoy_'
'dostupné_'
'doesn_'
'designed_'
'culture_'
'chce_'
'balance_'
'Who_'
'Terasa_'
'Grand_'
'CS_'
'Are_'
': '
'ími_'
'zahraniční_'
'works_'
'technology_'
'takes_'
'style_'
'spolu_'
'ská_'
'points_'
'ovala_'
'ká_'
'kterých_'
'kliknete_'
'kem_'
'freedom_'
'export_'
'ds_'
'cities_'
'benefits_'
'administration_'
'Minister_'
'E'
'Disabled_'
'December_'
'účelem_'
'án_'
'zvětší_'
'x'
'vyžaduje_'
'strategie_'
'ses_'
'phone_'
'patří_'
'osobu_'
'odhlášení_'
'moment_'
'hear_'
'evropského_'
'contact_'
'considered_'
'concerning_'
'beach_'
'Směnárna_'
'Out_'
'Kingdom_'
'Jako_'
'45_'
'války_'
'version_'
'ství_'
'stalo_'
'spacious_'
'rizika_'
'rise_'
'remains_'
'podniky_'
'opravdu_'
'lower_'
'jehož_'
'involved_'
'historic_'
'exkurzí_'
'enable_'
'developed_'
'bezpečnostní_'
'alone_'
'active_'
'Německo_'
'Expresní_'
'Británie_'
'Airconditioning_'
'whose_'
'ut'
'talking_'
'směrem_'
'ráda_'
'roli_'
'purpose_'
'právních_'
'please_'
'oblastech_'
'ným_'
'názoru_'
'nezbytné_'
'nejlepší_'
'místa_'
'myslím_'
'levels_'
'jobs_'
'hold_'
'fundamental_'
'dělat_'
'answer_'
'add_'
'ací_'
'Then_'
'North_'
'Bush_'
'--_'
'َ_'
'week_'
'success_'
'smyslu_'
'ského_'
'předpisů_'
'provádění_'
'prohlášení_'
'politik_'
'peníze_'
'oblastí_'
'nelze_'
'famous_'
'document_'
'comes_'
'certainly_'
'according_'
'ability_'
'Palace_'
'Members_'
'Byl_'
'4hvězdičkový_'
'3hvězdičkový_'
'200_'
'zájmu_'
'y'
've'
'setting_'
'self_'
'rozvoje_'
'request_'
'pár_'
'pravděpodobně_'
'popular_'
'parts_'
'nová_'
'nost_'
'n'
'instituce_'
'importance_'
'financí_'
'emi_'
'des_'
'ance_'
'americké_'
'although_'
'Y_'
'H'
'území_'
'went_'
'upon_'
'steps_'
'současnosti_'
'saw_'
'restaurants_'
'priority_'
'practice_'
'pořádku_'
'plně_'
'ohledu_'
'malé_'
'jednu_'
'infrastructure_'
'favour_'
'everyone_'
'demokracie_'
'ano_'
'W_'
'South_'
'Moreover_'
'Kromě_'
'JavaScript_'
'First_'
'1999_'
'%._'
'vání_'
'vytvořit_'
'va_'
'světové_'
'solidarity_'
'ru_'
'reforms_'
'property_'
'nd_'
'kolem_'
'jednoho_'
'features_'
'eurozone_'
'ec_'
'cílů_'
'currency_'
'cké_'
'civil_'
'actions_'
'Tour_'
'Square_'
'Ri'
'Ma'
'June_'
'Don_'
'CO2_'
'.“_'
'če_'
'zasedání_'
'zapotřebí_'
'wide_'
'síly_'
'společenství_'
'potravin_'
'otázka_'
'nature_'
'máte_'
'minut_'
'living_'
'ký_'
'installation_'
'happened_'
'former_'
'effects_'
'e'
'dari_'
'computer_'
'ca_'
'Ti'
'Even_'
'29_'
'vím_'
'viz_'
'via_'
'tes_'
'sustainable_'
'stanoví_'
'ských_'
'rozpočtu_'
'rezervace_'
'ovali_'
'omezení_'
'lépe_'
'ini_'
'industrial_'
'forces_'
'emisí_'
'ekonomické_'
'ženy_'
'ře_'
'využít_'
'ul_'
'typu_'
'tomuto_'
'quickly_'
'počtu_'
'perhaps_'
'opportunities_'
'lidem_'
'jasné_'
'indeed_'
'hour_'
'hot_'
'ground_'
'die_'
'consumers_'
'conflict_'
'c'
'abyste_'
'Star_'
'Only_'
'No'
'Iraq_'
'From_'
'32_'
'životního_'
'čí_'
'zlepšení_'
'zase_'
'výši_'
'ves_'
'un_'
'study_'
'regionu_'
'pra'
'official_'
'lives_'
'ladies_'
'inflation_'
'independent_'
'hosty_'
'heard_'
'extremely_'
'elegant_'
'context_'
'War_'
'Street_'
'Od'
'Currency_'
'. '
', "_'
', '
'času_'
'velký_'
'vaše_'
'taky_'
'stejné_'
'ss_'
'shown_'
'rozsahu_'
'průmyslu_'
'promote_'
'použijte_'
'poté_'
'parlament_'
'osoby_'
'nad'
'míru_'
'málo_'
'jestli_'
'era_'
'cut_'
'consider_'
'agricultural_'
'ad_'
'IMF_'
'úroveň_'
'áním_'
'zdroje_'
'webu_'
'trochu_'
'throughout_'
'status_'
'sorry_'
'sm_'
'roky_'
'předseda_'
'protect_'
'professional_'
'plánu_'
'packages_'
'message_'
'getting_'
'finance_'
'ců_'
'concerns_'
'ated_'
'aniž_'
'added_'
'Ireland_'
'Inn_'
'I'
'řešit_'
'íš_'
'ít_'
'speak_'
'someone_'
'sektoru_'
'sed_'
'referred_'
'prevent_'
'potřeba_'
'parkování_'
'paragraph_'
'nější_'
'negotiations_'
'jít_'
'ina_'
'floor_'
'důvod_'
'chci_'
'challenges_'
'budu_'
'agreed_'
'activity_'
'Terrace_'
'Rusko_'
'III_'
'Here_'
'Brussels_'
'Asia_'
' ('
'ž'
'áme_'
'zpoplatněny_'
'věc_'
'výsledky_'
'video_'
'van'
'unique_'
'unemployment_'
'systémy_'
'svobody_'
'sing_'
'sectors_'
'saying_'
'procedures_'
'pravidel_'
'powers_'
'potřebuje_'
'photo_'
'otázce_'
'office_'
'náš_'
'nej'
'místní_'
'majority_'
'largest_'
'ist_'
'internetové_'
'ine_'
'ické_'
'hodin_'
'historical_'
'ením_'
'ejte_'
'effort_'
'došlo_'
'dokud_'
'created_'
'convenient_'
'comfort_'
'carried_'
'ané_'
'Spa_'
'Since_'
'Russian_'
'Ko'
'Great_'
'Book_'
'Al'
'Ahoj_'
'01_'
'Španělsko_'
'ň_'
'zásadní_'
'význam_'
'vliv_'
'ure_'
'snad_'
'reference_'
'read_'
'principles_'
'použít_'
'ok_'
'obavy_'
'nástroje_'
'neo'
'jenž_'
'gave_'
'důsledky_'
'dítě_'
'domestic_'
'dlouho_'
'compromise_'
'budoucnosti_'
'base_'
'Staff_'
'Se'
'Click_'
'.'
'čím_'
'článek_'
'át_'
'výdajů_'
'vr'
'visit_'
'untuk_'
'types_'
'toward_'
'team_'
'spíše_'
'prospěch_'
'prezident_'
'pravdu_'
'postavení_'
'podniků_'
'platnost_'
'metres_'
'menu_'
'knowledge_'
'jte_'
'instantly_'
'increasing_'
'i'
'huge_'
'election_'
'decades_'
'circumstances_'
'chvíli_'
'beyond_'
'average_'
'attractions_'
'accept_'
'San_'
'Party_'
'NATO_'
'Madrid_'
'Du'
'%, _'
'řadě_'
'Ú'
'zpět_'
'ze'
'veřejného_'
'trhů_'
'tolik_'
'supported_'
'starší_'
'součástí_'
'simple_'
'pozornost_'
'online_'
'ona_'
'om'
'note_'
'nevy'
'nebylo_'
'nebyl_'
'monetary_'
'moje_'
'matters_'
'mail_'
'ler_'
'l'
'jší_'
'existují_'
'events_'
'el'
'důvodů_'
'dát_'
'dosud_'
'cíl_'
'ant_'
'aly_'
'Yet_'
'RE'
'Le_'
'Hlídání_'
'ští_'
'získat_'
'výboru_'
'vzdělávání_'
'tebe_'
'te'
'sám_'
'sh_'
'různé_'
'ro_'
'relating_'
'reached_'
'politických_'
'ovou_'
'opět_'
'obvykle_'
'objective_'
'ob'
'nedávno_'
'míst_'
'kromě_'
'komisaři_'
'king_'
'každém_'
'iny_'
'ii_'
'follow_'
'ete_'
'emerging_'
'efficient_'
'domů_'
'death_'
'cal_'
'bod_'
'assistance_'
'ah_'
']]._'
'Te'
'Také_'
'Presidency_'
'Korea_'
'Jsou_'
'Fi_'
'Doprava_'
'ána_'
'zbraní_'
'výrobků_'
'vést_'
'source_'
'school_'
'requires_'
'received_'
'přitom_'
'pracovat_'
'poskytnout_'
'pokračovat_'
'partners_'
'ováním_'
'násilí_'
'možnosti_'
'mis'
'les'
'learning_'
'konkrétní_'
'jo_'
'jedná_'
'jedna_'
'influence_'
'ha_'
'goes_'
'formulář_'
'ence_'
'd'
'consequences_'
'concern_'
'beginning_'
'aware_'
'argument_'
'anyone_'
'agreements_'
'Y'
'Pod'
'Navíc_'
'Government_'
'Europeans_'
'Děkuji_'
'Decision_'
'Although_'
'Africa_'
'95_'
'37_'
''._'
'ány_'
'wants_'
'vážně_'
'stayed_'
'stand_'
'send_'
'příjmy_'
'proceedings_'
'problému_'
'politickou_'
'park_'
'paid_'
'občany_'
'nákladů_'
'nya_'
'novou_'
'nižší_'
'net'
'mentioned_'
'mar'
'jiného_'
'integration_'
'instead_'
'hotels_'
'ha'
'eš_'
'external_'
'expected_'
'dat_'
'consumption_'
'celou_'
'began_'
'Turkey_'
'Please_'
'October_'
'Nice_'
'Garden_'
'Č'
'íci_'
'zemědělství_'
'zdá_'
'vztahu_'
'vzdělání_'
'ur_'
'ue_'
'tri'
'tic_'
'thinking_'
'takový_'
'stran_'
'slova_'
'sebou_'
'regarding_'
'ran'
'previous_'
'od'
'nástroj_'
'ning_'
'nikdo_'
'ni'
'nem'
'nejméně_'
'naprosto_'
'najít_'
'míry_'
'mission_'
'met_'
'killed_'
'kapitálu_'
'jaké_'
'ir_'
'friend_'
'eurozóny_'
'dosažení_'
'ded_'
'completely_'
'break_'
'assessment_'
']], _'
'UK_'
'Ten_'
'Rád_'
'Ob'
'November_'
'January_'
'IT_'
'14'
'06_'
'životní_'
'Číny_'
'vnitřní_'
'velkou_'
'students_'
'sobě_'
'shows_'
'seem_'
'sazby_'
'response_'
'přesně_'
'pre_'
'potřebujeme_'
'politics_'
'pod'
'ovaly_'
'okay_'
'obou_'
'němž_'
'někdy_'
'net_'
'moral_'
'mark_'
'ly'
'limited_'
'leading_'
'království_'
'krok_'
'it'
'hodně_'
'highly_'
'eyes_'
'ex_'
'dostat_'
'domácí_'
'chcete_'
'became_'
'ační_'
'anti'
'Wi_'
'Teď_'
'Official_'
'Look_'
'Italian_'
'Ha'
'Gra'
'Child_'
'300_'
'čtyři_'
'à_'
'zhruba_'
'zavedení_'
'výzkumu_'
'vztahy_'
'vedení_'
'třetí_'
'týče_'
'swimming_'
'snaží_'
'rt_'
'rozšíření_'
'risks_'
'rich_'
'receive_'
'plus_'
'places_'
'orgánů_'
'nikoli_'
'ko_'
'k'
'innovation_'
'himself_'
'funding_'
'fiskální_'
'en'
'deficit_'
'cím_'
'chtějí_'
'centru_'
'boj_'
'alespoň_'
'Such_'
'St_'
'Skupina_'
'September_'
'Rome_'
'Perorální_'
'Many_'
'Iráku_'
'Get_'
'CA'
'Bylo_'
'Agreement_'
'2015_'
'., _'
'ěji_'
'če'
'značné_'
'věcí_'
'vstupenek_'
'technologií_'
'státům_'
'serve_'
'se'
'reality_'
'prostě_'
'později_'
'potřebují_'
'pleasant_'
'offered_'
'nebudou_'
'nearby_'
'našeho_'
'mé_'
'maintain_'
'kov'
'ka'
'jinak_'
'ism_'
'investic_'
'hodnocení_'
'gs_'
'grounds_'
'game_'
'father_'
'fa'
'expect_'
'er'
'ena_'
'effectively_'
'easily_'
'dopravy_'
'dead_'
'daně_'
'criteria_'
'contains_'
'cheap_'
'card_'
'cally_'
'ations_'
'applied_'
'aim_'
'X'
'Všichni_'
'See_'
'Popis_'
'Itálie_'
'Evropu_'
'Dnes_'
'Avšak_'
'Amsterdam_'
'75_'
'žádná_'
'zabezpečení_'
'yn'
'www_'
'umožní_'
'těmto_'
'tvrdí_'
'tní_'
'stavu_'
'speed_'
'sound_'
'sama_'
'režimu_'
'podporovat_'
'partnerství_'
'panu_'
'oblast_'
'nimi_'
'month_'
'laid_'
'labor_'
'konci_'
'ko'
'jednat_'
'j'
'institucí_'
'hospodářský_'
'ging_'
'dříve_'
'consumer_'
'connection_'
'complex_'
'ces_'
'bot_'
'bility_'
'avoid_'
'ar'
'Smlouvy_'
'Per'
'Os'
'Old_'
'Kdo_'
'John_'
'GNU_'
'42_'
''' _'
' /_'
'členskými_'
'činnost_'
'zřejmě_'
'záležitosti_'
'violence_'
'třídy_'
'terrorism_'
'ten'
'six_'
'sent_'
'search_'
'riziko_'
'responsible_'
'relation_'
'regime_'
'reduction_'
'produktů_'
'pri'
'per'
'patients_'
'ován_'
'obyvatel_'
'kroky_'
'jednotlivých_'
'initiative_'
'hospodářskou_'
'happen_'
'felt_'
'et'
'equal_'
'ely_'
'ekonomika_'
'dollar_'
'dohodu_'
'desk_'
'decided_'
'daleko_'
'communication_'
'ci'
'cestách_'
'cenu_'
'bu'
'ans_'
'annual_'
'achieved_'
'Vážený_'
'Shop_'
'Rodinné_'
'Před_'
'Plaza_'
'Od_'
'Microsoft_'
'George_'
'Bu'
'Because_'
'33_'
'2'
'16'
'00'
' ,,_'
'о'
'změnu_'
'worked_'
'white_'
'wellness_'
'wait_'
'vědět_'
'výrobky_'
'v'
'ul'
'tomorrow_'
'thanks_'
'sociálního_'
'sis_'
'sion_'
'sil_'
'section_'
'rozdíl_'
'properly_'
'produce_'
'problémů_'
'pozměňovací_'
'potřeby_'
'politice_'
'ovací_'
'okamžitě_'
'offering_'
'např_'
'měsíců_'
'mother_'
'kernel_'
'joint_'
'inter'
'intended_'
'inside_'
'in'
'happy_'
'h'
'failed_'
'event_'
'establish_'
'enter_'
'dialogue_'
'develop_'
'defined_'
'de'
'cover_'
'contribute_'
'content_'
'confidence_'
'changed_'
'challenge_'
'at'
'ana_'
'agenda_'
'advanced_'
'adopt_'
'Sauna_'
'Protože_'
'PT_'
'National_'
'MMF_'
'Free_'
'Description_'
'Convention_'
'Babysitting_'
'07_'
'.)_'
', “_'
'* _'
')'
'žádost_'
'Čištění_'
'ád'
'zůstává_'
'zásady_'
'zvýšit_'
'změn_'
'zam'
'w'
'vnitrostátní_'
'vede_'
'va'
'ukáže_'
'tví_'
'transfer_'
'technologie_'
'task_'
'sir_'
'series_'
'review_'
'religious_'
'recovery_'
'ready_'
'příležitost_'
'přijetí_'
'providing_'
'prosince_'
'president_'
'powerful_'
'podpora_'
'on'
'objectives_'
'obchod_'
'nor_'
'nebyla_'
'nastavení_'
'mě'
'ms_'
'materials_'
'lly_'
'len'
'konečně_'
'kon'
'každé_'
'iv'
'increasingly_'
'ial_'
'har'
'hands_'
'ge'
'formy_'
'evropský_'
'establishment_'
'es'
'efficiency_'
'dí_'
'dvěma_'
'damage_'
'cross_'
'contribution_'
'commitment_'
'commercial_'
'caused_'
'buffet_'
'bazén_'
'als_'
'Trek_'
'Stejně_'
'Pre'
'Maybe_'
'Jsi_'
'Inter'
'Další_'
'Co'
'Chci_'
'ňuje_'
'základních_'
'změnit_'
'ya'
'worth_'
'worse_'
'warm_'
'vě'
'ut_'
'usually_'
'users_'
'user_'
'uji_'
'turned_'
'tor'
'successful_'
'sometimes_'
'snadno_'
'skupina_'
'schopnost_'
'save_'
'rámec_'
'running_'
'remember_'
'rd_'
'programů_'
'produced_'
'prezidenta_'
'prepared_'
'performance_'
'peaceful_'
'nesmí_'
'nejvyšší_'
'nearly_'
'mo'
'ma'
'lad'
'kontroly_'
'jenom_'
'is'
'image_'
'helped_'
'gen'
'fixed_'
'firmy_'
'fire_'
'fair_'
'expenditure_'
'ess_'
'elements_'
'elections_'
'dopad_'
'dalším_'
'coffee_'
'code_'
'claim_'
'board_'
'al'
'Today_'
'Ticket_'
'Therefore_'
'Security_'
'Saint_'
'Most_'
'Le'
'Ka'
'July_'
'Jeho_'
'His_'
'Fitness_'
'Family_'
'Can_'
'). _'
' : _'
' -- _'
' ) , _'
'‘_'
'čin'
'úvahu_'
'yourself_'
'window_'
'trust_'
'tool_'
'sítě_'
'společného_'
'skou_'
'sen'
'reports_'
'release_'
'regards_'
'pět_'
'out'
'odpovědnost_'
'názor_'
'news_'
'nemusí_'
'nemají_'
'máš_'
'minimum_'
'milk_'
'loss_'
'listopadu_'
'limits_'
'ho'
'guarantee_'
'furnished_'
'forms_'
'for'
'focus_'
'finally_'
'energetické_'
'duty_'
'dob'
'dengan_'
'che'
'carbon_'
'build_'
'avast_'
'alternative_'
'acts_'
'Pře'
'Mar'
'Jestliže_'
'Finally_'
'Development_'
'Da'
'DVD_'
'08_'
'čních_'
'čem_'
'áte_'
'zájem_'
'vin'
'velkých_'
'umožňuje_'
'ste'
'sta'
'so'
'reformy_'
'programy_'
'programmes_'
'používání_'
'pom'
'pokroku_'
'peněz_'
'ované_'
'options_'
'nového_'
'neza'
'nepo'
'mapě_'
'looked_'
'kill_'
'kam_'
'jméno_'
'ji'
'includes_'
'gone_'
'extent_'
'dobrý_'
'discrimination_'
'difference_'
'chování_'
'cestu_'
'celý_'
'built_'
'born_'
'allowed_'
'ad'
'a'
'Vý'
'USD_'
'Tra'
'Ra'
'Při'
'Ni'
'Journal_'
'En'
'Dr_'
'De'
'Church_'
'Amerika_'
'48_'
'34_'
'1990_'
',“ _'
'ť_'
'září_'
'zne'
'změně_'
'voice_'
'tor_'
'tive_'
't'
'strategic_'
'spa_'
'shuttle_'
'sa_'
'rozvojové_'
'rov'
'programs_'
'postup_'
'post'
'pokrok_'
'persons_'
'otherwise_'
'ostatních_'
'osobní_'
'ory_'
'older_'
'návrhů_'
'mezi'
'maximum_'
'levé_'
'learn_'
'kg_'
'kept_'
'granted_'
'garden_'
'friends_'
'finančního_'
'dra'
'dostatečně_'
'doporučení_'
'dní_'
'dalam_'
'centra_'
'calls_'
'be'
'Výboru_'
'Tri'
'Suite_'
'Právě_'
'Pi'
'PO'
'Lo'
'Ku'
'Ještě_'
'De_'
'Berlin_'
'55_'
' ''_'
'р'
'závazky_'
'woman_'
'významné_'
'výsledek_'
'využívat_'
'volby_'
'vidět_'
'verze_'
'vel'
'tudíž_'
'threat_'
'telephone_'
'taková_'
'stí_'
'sti'
'started_'
'soudu_'
'scale_'
'round_'
'ropy_'
'režim_'
'res_'
'reasonable_'
'reakce_'
'reading_'
'příležitosti_'
'přistýlky_'
'pretty_'
'pre'
'posílení_'
'podporuje_'
'operation_'
'oo'
'ol'
'og'
'obrovské_'
'nýbrž_'
'nev'
'nebyly_'
'measure_'
'maintenance_'
'lovely_'
'lines_'
'krát_'
'join_'
'immigration_'
'hu_'
'hi'
'hal'
'guy_'
'ga_'
'facing_'
'ensuring_'
'ekonomiku_'
'deep_'
'creation_'
'conference_'
'competent_'
'ch'
'cestě_'
'aspects_'
'Zahrada_'
'Spanish_'
'Second_'
'Prime_'
'Poland_'
'OK_'
'Middle_'
'Located_'
'Latin_'
'Jo'
'Ho'
'Egypt_'
'Během_'
'Britain_'
') (_'
'( _'
'řadu_'
'ď_'
'čímž_'
'úplně_'
'úlohu_'
'zájmy_'
'zaměstnanců_'
'yt'
'written_'
'web_'
'vlastně_'
'variety_'
'useful_'
'tro'
'thumbnail_'
'tehdy_'
'starting_'
'stars_'
'smrti_'
'seznamu_'
'ruce_'
'regulations_'
'reduced_'
'record_'
'pravomoci_'
'pocit_'
'overall_'
'odpověď_'
'nějaké_'
'ná'
'nez'
'nemohou_'
'nav'
'mid_'
'looks_'
'lo'
'leadership_'
'kterém_'
'knows_'
'knew_'
'jiný_'
'io_'
'investors_'
'ing'
'expensive_'
'daní_'
'crime_'
'cosy_'
'chtěla_'
'chceme_'
'bo'
'ani'
'ai_'
'ahead_'
'Zpráva_'
'Web_'
'Villa_'
'Station_'
'Shuttle_'
'Ro'
'Resort_'
'Pen'
'Op'
'Me'
'Lisabonské_'
'Kosovo_'
'Er'
'EL_'
'Beach_'
'According_'
'2020_'
'10'
' . _'
'–_'
'ěte_'
'Í_'
'zařízených_'
'zat'
'vládní_'
'uvnitř_'
'uvedených_'
'týden_'
'tried_'
'training_'
'ton'
'tn'
'stávajících_'
'sts_'
'soud_'
'selection_'
'scientific_'
's'
'rising_'
'qua'
'přesto_'
'prvním_'
'prost'
'pla'
'ped_'
'original_'
'národních_'
'nu'
'nosti_'
'nikoliv_'
'nam'
'movement_'
'mně_'
'metro_'
'mal'
'každého_'
'jedním_'
'je'
'intervention_'
'internetu_'
'implement_'
'hodinu_'
'fear_'
'except_'
'documents_'
'despite_'
'dar'
'cur'
'covered_'
'choose_'
'car'
'black_'
'bal'
'av'
'an'
'aims_'
'Vy_'
'Velká_'
'Tohle_'
'THE_'
'Shoe_'
'Pro'
'Plný_'
'Par'
'NA'
'Je'
'ES'
'Cal'
'Byla_'
'ících_'
'át'
'zvířat_'
'zdravotní_'
'za'
'whom_'
'výdaje_'
'voting_'
'uni'
'ukazuje_'
'též_'
'travel_'
'to'
'tam'
'systémů_'
'svobodu_'
'summit_'
'sse'
'sle'
'scope_'
'rt'
'rozvojových_'
'při'
'průmysl_'
'pravda_'
'povinnost_'
'používat_'
'port_'
'podíl_'
'oz'
'ot_'
'občanům_'
'něm_'
'no'
'neexistuje_'
'měst_'
'millions_'
'methods_'
'map_'
'links_'
'limit_'
'lidská_'
'li'
'kých_'
'ical_'
'hol'
'hodnotu_'
'ez'
'ey_'
'ene'
'děje_'
'draft_'
'direction_'
'degree_'
'cu'
'boji_'
'bohužel_'
'assets_'
'applicable_'
'appear_'
'amendments_'
'alo_'
'aimed_'
'Vy'
'To'
'Re'
'People_'
'Other_'
'Opera_'
'Naše_'
'Mu'
'Li'
'ER'
'Del'
'Che'
'Austria_'
'ři'
'řada_'
'členským_'
'ó'
'zb'
'zaměstnanosti_'
'yb'
'vývoj_'
'váš_'
'ven_'
'vehicles_'
'učinit_'
'uch'
'tým_'
'th'
'spojení_'
'smlouva_'
'ski_'
'sites_'
'rady_'
'případ_'
'průběhu_'
'projektu_'
'ping_'
'payments_'
'okamžitou_'
'navzdory_'
'nas'
'moderní_'
'massive_'
'lov'
'letter_'
'jaký_'
'identity_'
'ide_'
'id_'
'giving_'
'fishing_'
'fish_'
'fe'
'distribution_'
'cuisine_'
'competitive_'
'compared_'
'budoucnost_'
'begin_'
'akan_'
'ak_'
'Za'
'Vím_'
'University_'
'Shine_'
'Pe'
'Pa'
'Nej'
'Ju'
'EHS_'
'Bo'
'Be'
'Aby_'
'38_'
'150_'
' )._'
' ) ._'
'л'
'říká_'
'ějším_'
'čního_'
'člověk_'
'úrovně_'
'úrokové_'
'ö'
'ává_'
'zi_'
'z'
'weeks_'
'vir'
'určitě_'
'unless_'
'terorismu_'
'technologies_'
'served_'
'ser'
'scheme_'
'ročně_'
'ro'
'relationship_'
'příležitostí_'
'poskytuje_'
'plant_'
'planet_'
'oral_'
'ones_'
'obětí_'
'nicméně_'
'ner_'
'neod'
'ned_'
'musím_'
'music_'
'monitoring_'
'mnou_'
'manage_'
'kého_'
'kol_'
'hranice_'
'green_'
'g'
'fuel_'
'followed_'
'fen'
'fast_'
'expressed_'
'existence_'
'evening_'
'eti'
'establishing_'
'entry_'
'em'
'ei'
'dis'
'conditioning_'
'buy_'
'back'
'apartmá_'
'aktivní_'
'adults_'
'[[_'
'Ver'
'Ukraine_'
'Ste'
'Software_'
'Saw_'
'Ru'
'Nyní_'
'Nic_'
'Mon'
'Like_'
'Ke'
'Is'
'Har'
'Ge'
'Full_'
'EN'
'Cor'
'Ar'
'Apartments_'
': „_'
'...._'
'.'_'
' + ._'
'ština_'
'řečeno_'
'ěl'
'úspěch_'
'ík_'
'áv'
'Á'
'zaktivujete_'
'ys_'
'wa'
'využívání_'
'victims_'
'velká_'
'uvádí_'
'supposed_'
'substance_'
'studies_'
'stane_'
'stage_'
'směrnici_'
'slovy_'
'science_'
'sa'
'rozvoji_'
'reported_'
'ras'
'představují_'
'péče_'
'pu'
'productivity_'
'presented_'
'pojištění_'
'path_'
'participation_'
'ována_'
'ov'
'organisations_'
'oni_'
'nebezpečí_'
'nc'
'míře_'
'mu'
'medical_'
'meaning_'
'lá'
'lies_'
'ket'
'jelikož_'
'ium_'
'investments_'
'institutional_'
'illegal_'
'hospodářského_'
'hle_'
'hlasovat_'
'gives_'
'generally_'
'fy_'
'fondu_'
'fo'
'eu'
'ele'
'dobrou_'
'district_'
'din'
'determined_'
'demokratické_'
'cího_'
'cs_'
'critical_'
'construction_'
'cold_'
'campaign_'
'by'
'br'
'bol'
'bio'
'ava'
'approved_'
'ana'
'am'
'administrative_'
']._'
'Tu'
'Their_'
'TE'
'Stra'
'Sta'
'Radě_'
'Palestinian_'
'March_'
'Jacuzzi_'
'Indie_'
'GBP_'
'El'
'Do'
'Cel'
'Arab_'
'Ani_'
'39_'
'197'
'196'
'15'
'1'
'02_'
' ?_'
'и'
'řádu_'
'číslo_'
'čí'
'účely_'
'álně_'
'západní_'
'zo'
'zemím_'
'wing_'
'wine_'
'wasn_'
'war'
'většinu_'
'věst_'
'výzkum_'
'vládu_'
'veškeré_'
'val_'
'uses_'
'určité_'
'und_'
'uh'
'téma_'
'tvoří_'
'transparency_'
'tra'
'target_'
'strategii_'
'statement_'
'soubor_'
'sou'
'snížit_'
'skupin_'
'si'
'server_'
'selected_'
'regulatory_'
'qui'
'pěti_'
'posouzení_'
'poprvé_'
'par'
'ow_'
'operating_'
'národů_'
'normal_'
'nar'
'mohu_'
'mobility_'
'mezinárodních_'
'luxurious_'
'lidské_'
'laws_'
'lat'
'kterého_'
'konce_'
'isn_'
'instruments_'
'improving_'
'impossible_'
'im_'
'ici'
'gar'
'film_'
'exactly_'
'encourage_'
'ej'
'du'
'disk_'
'demokracii_'
'correct_'
'ck'
'cen'
'bro'
'bodies_'
'attack_'
'art_'
'areálu_'
'applicant_'
'analysis_'
'allows_'
'allowing_'
'affected_'
'So'
'SA'
'Prague_'
'Mediterranean_'
'Kde_'
'Justice_'
'IT'
'Hol'
'Her'
'Gu'
'Go_'
'Gentoo_'
'Economic_'
'Bude_'
'Au'
'Ad'
': "_'
'52_'
'30'
'ř'
'ěr'
'ďte_'
'čist'
'zvláště_'
'zu'
'zní_'
'zajistí_'
'waste_'
'vá'
'vzít_'
'vlád_'
'vhodné_'
'vají_'
'uz'
'union_'
'ti'
'suite_'
'sufficient_'
'sub'
'su'
'stylish_'
'stránek_'
'star'
'současně_'
'solutions_'
'republiky_'
'rd'
'příloze_'
'prostoru_'
'proper_'
'potřebné_'
'pokojích_'
'ple'
'pe'
'ovány_'
'option_'
'opening_'
'o'
'někteří_'
'nech'
'me'
'machine_'
'lí'
'lu'
'liked_'
'let'
'keeping_'
'justice_'
'independence_'
'implementing_'
'ik'
'ideální_'
'he'
'goal_'
'globálního_'
'financing_'
'files_'
'dohoda_'
'diskuse_'
'denně_'
'default_'
'dangerous_'
'colleagues_'
'chance_'
'budoucí_'
'banking_'
'anebo_'
'amendment_'
'adequate_'
'Young_'
'Vol'
'Thus_'
'Those_'
'Soukromé_'
'Sm'
'Sea_'
'SV_'
'Rights_'
'Pot'
'Obchod_'
'Má_'
'Musím_'
'Mexico_'
'Manhattan_'
'Lu'
'Greek_'
'Fi'
'Dra'
'Dan'
'Archer_'
'AR'
'? - _'
'58_'
'44_'
'22'
'05_'
'у'
'žít_'
'ží_'
'úkol_'
'ární_'
'ál_'
'Úř_'
'Írán_'
'zřejmé_'
'zítra_'
'zt'
'zahájení_'
'vody_'
'var'
'under'
'týkajících_'
'super'
'strana_'
'stated_'
'st'
'sources_'
'soudržnosti_'
'sociálních_'
'shops_'
'seemed_'
'příslušné_'
'případů_'
'prosperity_'
'practical_'
'pov'
'politická_'
'plynu_'
'plans_'
'placed_'
'operations_'
'občanské_'
'obligations_'
'nutí_'
'nts_'
'naopak_'
'lidmi_'
'lebih_'
'ks_'
'jejím_'
'jedno_'
'instrument_'
'hned_'
'her'
'eat_'
'dárky_'
'dveře_'
'dospělí_'
'dnešní_'
'di'
'details_'
'convert_'
'continued_'
'closed_'
'claims_'
'ca'
'budoucnu_'
'bre'
'boy_'
'bor'
'boot_'
'bodě_'
'bar'
'arrival_'
'applies_'
'applications_'
'ade'
'Zvukotěsné_'
'Wireless_'
'Uni'
'Sou'
'Social_'
'ST'
'Roz'
'Royal_'
'Perhaps_'
'Kdyby_'
'Každý_'
'He'
'Global_'
'Furthermore_'
'Each_'
'Dále_'
'DI'
'Col'
'Barcelona_'
'April_'
'Affairs_'
'7'
'09_'
'ť'
'Š'
'Řecko_'
'čísla_'
'činí_'
'či'
'úřadující_'
'én'
'Íránu_'
'zen'
'zařízenými_'
'zatím_'
'zacházení_'
'wife_'
'wealth_'
'vys'
'voleb_'
'tě'
'truth_'
'trip_'
'trans'
'tourist_'
'tis'
'thousands_'
'the'
'terrace_'
'tele'
'tan'
'sv'
'studie_'
'ster'
'spent_'
'spe'
'snižování_'
'sn'
'slow_'
'sitting_'
'screen_'
'says_'
'ry'
'reducing_'
'předtím_'
'před'
'purposes_'
'proti'
'prostor_'
'pro'
'pouhých_'
'pou'
'parents_'
'otázek_'
'oproti_'
'opposition_'
'obě_'
'občané_'
'obecně_'
'nými_'
'modul'
'middle_'
'method_'
'managed_'
'link_'
'leaving_'
'kompletní_'
'jestliže_'
'interesting_'
'instalaci_'
'individuals_'
'hy_'
'hlavních_'
'girl_'
'gi'
'gets_'
'funkce_'
'eva'
'důvody_'
'doma_'
'dk'
'cra'
'corporate_'
'condition_'
'competitiveness_'
'burden_'
'boje_'
'bez'
'bear_'
'banka_'
'ba'
'attacks_'
'ali'
'Vi'
'Un'
'Town_'
'Tady_'
'Su'
'Sha'
'RO_'
'RA'
'Před'
'Nations_'
'Například_'
'NEW_'
'NE'
'Man'
'Lake_'
'Jsme_'
'Ja'
'During_'
'Chtěl_'
'47_'
'31'
'23'
' –, _'
'с'
'е'
'ův_'
'ři_'
'června_'
'účinné_'
'é'
'zjistit_'
'zemědělské_'
'zahraničí_'
'wo'
'weapons_'
'věku_'
'vztahuje_'
'vo'
'ver_'
'understanding_'
'tří_'
'tá'
'ty'
'tu'
'tr'
'touto_'
'touch_'
'suvenýry_'
'sur'
'supporting_'
'sun'
'správné_'
'soudní_'
'set'
'satellite_'
'sami_'
'rozpočet_'
'rozhodně_'
'rest'
'reservation_'
'relaxing_'
'railway_'
'příjmů_'
'producers_'
'povinnosti_'
'pot'
'postupu_'
'positions_'
'pon'
'polo'
'police_'
'podstatě_'
'plat'
'pe_'
'pat'
'pa'
'ovým_'
'officials_'
'odpovědi_'
'oa'
'noise_'
'neměla_'
'negative_'
'nechat_'
'nation_'
'muže_'
'mit'
'minulosti_'
'meant_'
'malých_'
'ln'
'legislative_'
'latest_'
'las_'
'klasifikovaný_'
'jiným_'
'jejích_'
'ja'
'introduced_'
'integrated_'
'infrastruktury_'
'implemented_'
'id'
'ia'
'hy'
'hod'
'fresh_'
'fond_'
'fantastic_'
'důležitá_'
'domnívám_'
'dit_'
'decide_'
'daily_'
'ct_'
'cop'
'consensus_'
'conclusion_'
'click_'
'advance_'
'Wi'
'Swimming_'
'Star'
'Rom'
'Putin_'
'První_'
'Pos'
'Pool_'
'Or_'
'Netherlands_'
'LE'
'IP_'
'IN'
'Asian_'
'Art_'
'Am'
'African_'
'99_'
'20'
' -_'
'ي_'
'ztráty_'
'změna_'
'zah'
'wonderful_'
'výsledků_'
'vyřešit_'
'vynikající_'
'vrátit_'
'vlastních_'
'up'
'ub'
'trzích_'
'traffic_'
'tools_'
'tidak_'
'tal'
'su_'
'stávající_'
'ss'
'správy_'
'smysl_'
'sleep_'
'sla'
'select_'
'sektor_'
'příklad_'
'prvé_'
'provision_'
'prior_'
'politicians_'
'podpořit_'
'ovn'
'okamžiku_'
'oc'
'oba_'
'nut'
'noci_'
'nit_'
'nena'
'ned'
'nations_'
'mini_'
'mil'
'migration_'
'mention_'
'medium_'
'maximální_'
'manner_'
'man'
'literature_'
'kur'
'jednoduše_'
'jakož_'
'interested_'
'institution_'
'iniciativy_'
'ili'
'hřiště_'
'hand'
'fla'
'exercise_'
'ený_'
'ená_'
'dá_'
'dos'
'dor'
'dom'
'dluhu_'
'discussion_'
'differences_'
'dialogu_'
'dark_'
'contemporary_'
'closely_'
'cesty_'
'celkové_'
'attempt_'
'asking_'
'arms_'
'adoption_'
'absence_'
'Zv'
'Unfortunately_'
'Pra'
'Policy_'
'Pan'
'Pak_'
'Net'
'Mo'
'J_'
'HA'
'Go'
'Francii_'
'Financial_'
'Ca'
'BO'
'Americans_'
'87_'
'56_'
'49_'
'1997_'
'17'
'м'
'žádnou_'
'ších_'
'šk'
'šel_'
'ří_'
'řekla_'
'čtí_'
'členů_'
'čelí_'
'Členské_'
'účast_'
'zed_'
'začít_'
'worry_'
'výjimkou_'
'vý_'
'vypadá_'
'vou_'
'ver'
'vedoucí_'
'uvedeného_'
'us'
'ukončení_'
'těmito_'
'treaty_'
'treated_'
'tou_'
'ties_'
'shi'
'rostoucí_'
'rizik_'
'resort_'
'remove_'
'rejected_'
'queries_'
'ps_'
'produkty_'
'priorities_'
'pozitivní_'
'postoj_'
'poslanci_'
'pokles_'
'po'
'plnění_'
'pleased_'
'pis'
'pi'
'payment_'
'ost'
'omezen'
'nějaký_'
'nímu_'
'nástrojů_'
'námi_'
'nul'
'neměl_'
'namely_'
'moře_'
'moving_'
'mechanism_'
'material_'
'leader_'
'ku'
'krizí_'
'ke'
'ill_'
'il'
'if'
'ideas_'
'ht'
'hor'
'generation_'
'firms_'
'fer'
'ero'
'ek'
'easier_'
'dělá_'
'draw_'
'dinner_'
'deseti_'
'couldn_'
'corruption_'
'core_'
'collapse_'
'co'
'chu_'
'cho'
'chceš_'
'brzy_'
'ber'
'bath_'
'baru_'
'aro'
'apartments_'
'amerických_'
'amenities_'
'af'
'Zároveň_'
'WTO_'
'Výbor_'
'USS_'
'Turkish_'
'TI'
'Svatební_'
'Sen'
'Sal'
'Ren'
'Přesto_'
'Phlox_'
'Měli_'
'Máme_'
'ME'
'MA'
'LI'
'Komisí_'
'Izrael_'
'IV_'
'February_'
'DE'
'Bre'
'Bez_'
'Ber'
'Bel'
'Bal'
'Articles_'
'88_'
'29'
'25'
'žádosti_'
'še'
'Číně_'
'ét'
'zůstat_'
'zdůraznit_'
'zavést_'
'zav'
'zap'
'yš'
'xi'
'worst_'
'výroby_'
'víme_'
'vztahů_'
'vyplývá_'
'vstupu_'
'vojenské_'
'vní_'
'utí_'
'uplatňování_'
'těž'
'testing_'
'story_'
'stock_'
'ster_'
'stanovisko_'
'stanovení_'
'spolupracovat_'
'speech_'
'societies_'
'slovo_'
'sel'
'schopnosti_'
'rural_'
'removed_'
'případně_'
'přílohy_'
'přibližně_'
'přesvědčen_'
'published_'
'právního_'
'protest'
'projekty_'
'pořád_'
'poskytování_'
'politický_'
'plné_'
'planning_'
'para_'
'para'
'organizací_'
'org_'
'oprav'
'onal_'
'ochraně_'
'obligation_'
'obchodních_'
'neu'
'networks_'
'nes_'
'neob'
'nejprve_'
'nehod'
'mn'
'minimální_'
'min_'
'metrů_'
'menší_'
'malý_'
'lé'
'lt'
'linked_'
'labour_'
'kulturní_'
'kolik_'
'každou_'
'jících_'
'jinými_'
'immediately_'
'immediate_'
'http_'
'hit_'
'ger_'
'ger'
'fázi_'
'fal'
'failure_'
'equivalent_'
'ených_'
'drop_'
'den'
'col'
'cohesion_'
'března_'
'bys_'
'businesses_'
'break'
'bodu_'
'ban'
'až'
'asi'
'aku'
'affect_'
'XviD_'
'Si'
'Polish_'
'Location_'
'Jestli_'
'Israeli_'
'Instead_'
'Gar'
'Ga'
'Ex'
'Evropském_'
'Euro_'
'Domnívám_'
'Des'
'Bezdrátové_'
'Barroso_'
'Bad_'
'August_'
'92_'
'59_'
'28'
'198'
' > _'
' -, _'
'т'
'žení_'
'čním_'
'členského_'
'ón_'
'áno_'
'způsoby_'
'způsobil'
'zone_'
'znění_'
'zi'
'zaměstnanost_'
'založené_'
'zachování_'
'zabránit_'
'yes_'
'willing_'
'vnitrostátních_'
'vi'
'ur'
'těm_'
'typical_'
'trading_'
'tours_'
'taxes_'
'subsidies_'
'stri'
'stress_'
'stav_'
'standing_'
'správně_'
'společnou_'
'spoken_'
'spojen'
'souboru_'
'sme'
'sil'
'seriously_'
'seeking_'
'sebe'
'sal'
'ric'
'renovated_'
'recession_'
'rea'
'přesvědčení_'
'přestože_'
'publication_'
'processing_'
'press_'
'practices_'
'pracovníků_'
'počátku_'
'používá_'
'postupy_'
'pacientů_'
'oznámení_'
'odp'
'och'
'obědu_'
'něž_'
'nucen'
'nap'
'moved_'
'luxury_'
'lu_'
'lose_'
'liv'
'listed_'
'lin'
'lie_'
'kvality_'
'kle'
'ju'
'jinde_'
'jaderných_'
'ized_'
'ita'
'install_'
'hodnot_'
'hing_'
'gh'
'gal'
'fruit_'
'farmers_'
'fakt_'
'factors_'
'expectations_'
'energii_'
'eck'
'dov'
'dosaženo_'
'dodržování_'
'daňové_'
'continues_'
'commitments_'
'comments_'
'combination_'
'can'
'box_'
'booking_'
'ber_'
'aut'
'absolutely_'
'Zá'
'Většina_'
'Tre'
'Stan'
'Soundproofed_'
'SS'
'SM'
'Ruska_'
'Neu'
'Mil'
'Mezi_'
'Mer'
'Ki'
'Fin'
'Doufám_'
'Com'
'Captain_'
'Any_'
'://_'
'65_'
'64_'
'60'
'36_'
'3'
'237'
','
'а'
'životě_'
'žen'
'Ž'
'ším_'
'škol'
'šest_'
'ü'
'ímu_'
'ä'
'|| _'
'zákona_'
'začátku_'
'všeho_'
'výsledkem_'
'válce_'
'vyš'
'village_'
'unií_'
'udělal_'
'ud'
'territory_'
'takových_'
'síť_'
'sy_'
'svými_'
'svá_'
'stá'
'staying_'
'spotřebitelů_'
'sign_'
'shared_'
'sha'
'separate_'
'seek_'
'sch'
'sazeb_'
'sauna_'
'sat_'
'roční_'
'requested_'
'recommend_'
'ran_'
'pursuant_'
'prováděn'
'promise_'
'prav'
'pr'
'používají_'
'poslanců_'
'port'
'politického_'
'podobě_'
'playing_'
'pin'
'pil'
'picture_'
'partner_'
'pada_'
'ovy_'
'ovaných_'
'ova_'
'outcome_'
'orgán_'
'organisation_'
'opened_'
'ok'
'nezávislost_'
'newly_'
'nevz'
'nest'
'nepří'
'neměli_'
'neither_'
'našem_'
'napo'
'najdete_'
'naděje_'
'musíte_'
'mluvit_'
'miliardy_'
'med_'
'loď_'
'leží_'
'leisure_'
'kot'
'ker'
'judgment_'
'jiná_'
'jediným_'
'ite_'
'ised_'
'involves_'
'introduction_'
'installed_'
'initiatives_'
'ine'
'increases_'
'ier'
'hvězdičkami_'
'host_'
'guarantees_'
'goals_'
'function_'
'fondy_'
'faster_'
'ery_'
'ers'
'eny_'
'earlier_'
'dol'
'creating_'
'consideration_'
'comprehensive_'
'charming_'
'charges_'
'changing_'
'carry_'
'carefully_'
'borders_'
'bankovní_'
'ating_'
'ari'
'appeal_'
'animal_'
'Víš_'
'Val'
'Turecko_'
'Tom'
'Tan'
'TO'
'Nev'
'Nap'
'Může_'
'Můj_'
'Mor'
'Mezinárodní_'
'Mac'
'Jde_'
'ISO_'
'Hu'
'Google_'
'Given_'
'Fed_'
'England_'
'Earth_'
'Chi'
'Centrum_'
'Also_'
'Ab'
'43_'
'39'
'26'
'21'
'-- _'
'ějších_'
'člen_'
'účinnosti_'
'ér'
'ám'
'álních_'
'zv'
'začíná_'
'začal_'
'zač'
'yl'
'věd'
'víte_'
'využití_'
'vyk'
'vu_'
'ujících_'
'udržet_'
'těžké_'
'tržní_'
'tel_'
'technické_'
'takového_'
'takovou_'
'stone_'
'stanovené_'
'square_'
'snaze_'
'sledování_'
'sledovat_'
'sky_'
'seven_'
'rp'
'ria_'
'ri_'
'ri'
'přes'
'pán'
'provozu_'
'prot'
'projektů_'
'produkce_'
'possibility_'
'pos'
'oči_'
'otázkou_'
'ori'
'ole'
'obvious_'
'ními_'
'nov'
'notes_'
'nit'
'neš'
'nezaměstnanosti_'
'mimořádně_'
'meetings_'
'lli'
'lea'
'lan'
'ky'
'konec_'
'koli_'
'jn'
'jakým_'
'itu_'
'item_'
'integrace_'
'import_'
'ier_'
'ie'
'humanitární_'
'hodnota_'
'hlavu_'
'highest_'
'globalizace_'
'games_'
'fungování_'
'fort'
'forget_'
'fellow_'
'ela_'
'dí'
'doufám_'
'doubt_'
'dostal_'
'dohodě_'
'doba_'
'dluh_'
'dlouhodobé_'
'demands_'
'decline_'
'coordination_'
'concept_'
'con_'
'chránit_'
'buildings_'
'ble'
'bi'
'balíček_'
'balcony_'
'autor'
'auto'
'akce_'
'agentury_'
'ada_'
'aci'
'Ví'
'Tím_'
'Two_'
'PRO'
'Ostatní_'
'Once_'
'Ol'
'Někteří_'
'Některé_'
'Nicméně_'
'Navzdory_'
'Nad'
'Its_'
'Human_'
'Hej_'
'Excellent_'
'Evropským_'
'Euro'
'Ernst_'
'Enjoy_'
'Did_'
'Conference_'
'Ben'
'Before_'
'BA'
'Argentina_'
'AL'
'AIDS_'
'85_'
'1996_'
' %_'
'– _'
'říkal_'
'října_'
'částí_'
'členy_'
'úřad_'
'účinky_'
'ís'
'zákon_'
'zp'
'zd'
'yo'
'win_'
'whatever_'
'website_'
'ware_'
'výbor_'
'vzájemně_'
'večer_'
'vehicle_'
'uran'
'unt'
'um'
'třetích_'
'truly_'
'tou'
'tin'
'tan_'
'státních_'
'studi'
'structure_'
'stations_'
'spolu'
'součást_'
'sort_'
'sob'
'snahy_'
'shed_'
'sam'
'rukou_'
'ries_'
'rezervovat_'
'representative_'
'ren'
'regulace_'
'raised_'
'původu_'
'potom_'
'posílit_'
'postupů_'
'populace_'
'pohledu_'
'omezit_'
'okolností_'
'odůvodnění_'
'ode'
'ochotn'
'nti'
'nově_'
'nepro'
'nedo'
'mění_'
'mor'
'mnohé_'
'lodi_'
'list'
'lay_'
'lav'
'la'
'ká'
'kop'
'kar'
'kan'
'jo'
'jistě_'
'jich_'
'inform_'
'ility_'
'ih'
'ify_'
'hrát_'
'ges_'
'geo'
'fore'
'foot_'
'firm_'
'fire'
'ffe'
'eth'
'eni'
'elected_'
'ekonomických_'
'ejí_'
'ef'
'dle_'
'disease_'
'dialog_'
'der'
'dalšími_'
'criminal_'
'committee_'
'committed_'
'collective_'
'cká_'
'chudoby_'
'cha'
'cem_'
'bodem_'
'ben'
'balíčku_'
'au_'
'au'
'amounts_'
'aktiv_'
'ain_'
'agencies_'
'YORK_'
'Vo'
'Set_'
'Prosím_'
'Potřebujeme_'
'PSE_'
'PPE_'
'PE'
'PC_'
'Místo_'
'Mat'
'MO'
'La'
'Itálii_'
'High_'
'HIV_'
'Eastern_'
'Bur'
'Bicycle_'
'Balíčky_'
'AD'
'50'
'41_'
'35'
'13'
'0'
'- (_'
'šlo_'
'ši'
'šen'
'ět_'
'členský_'
'činností_'
'úspěšn'
'ú'
'ín'
' % _'
'zásadě_'
'znám'
'ys'
'wouldn_'
'wor'
'welfare_'
'warming_'
'vždycky_'
'vývoje_'
'víš_'
'voters_'
'vnější_'
'vis_'
'vi_'
'uš'
'una_'
'ujte_'
'tly_'
'tera'
'tebou_'
'takto_'
'subjekty_'
'stuff_'
'stu'
'sto'
'sport_'
'společných_'
'specifically_'
'sharing_'
'secure_'
'rozdělení_'
'rou'
'rop'
'ron'
'rh'
'referendum_'
'reagovat_'
'prom'
'projevu_'
'primary_'
'potřeb'
'pohled_'
'podpoře_'
'podařilo_'
'pit'
'pet'
'partnership_'
'paper_'
'pan'
'pa_'
'oř'
'odstranění_'
'nění_'
'ném_'
'navržen'
'měnové_'
'míra_'
'mí'
'mysli_'
'mužů_'
'muž_'
'možností_'
'mos'
'mezinárodním_'
'mainly_'
'látky_'
'lou'
'ley_'
'kt'
'kat_'
'jakmile_'
'issued_'
'hu'
'hair_'
'gro'
'gre'
'governance_'
'gap_'
'functioning_'
'ft_'
'fi'
'families_'
'factor_'
'eye_'
'evropskou_'
'error_'
'entirely_'
'enjoys_'
'english_'
'electricity_'
'een_'
'ect'
'drink_'
'dobrá_'
'died_'
'deset_'
'described_'
'decorated_'
'controls_'
'containing_'
'celého_'
'cel'
'capable_'
'broad_'
'blood_'
'bit'
'behavior_'
'bab'
'ative_'
'asset_'
'aspect_'
'approval_'
'ang_'
'ama_'
'alt'
'aj'
'agriculture_'
'ages_'
'acce'
'Vis'
'Vice_'
'Va'
'Trade_'
'Tha'
'Ta'
'Světové_'
'Soviet_'
'Situated_'
'Sho'
'Section_'
'SE'
'SA_'
'Residence_'
'RI'
'Pří'
'Přestože_'
'Pri'
'Návrh_'
'Měl_'
'Moje_'
'Mc'
'Její_'
'Golf_'
'Georgia_'
'Ed'
'Dv'
'Dop'
'Dom'
'Dalším_'
'Car'
'Bridal_'
'Brazil_'
'Bar'
'Až_'
'Ať_'
'Ačkoliv_'
'Agency_'
'?" _'
'93_'
'81_'
'6'
'32'
'24'
'1998_'
'"'
'б'
'ř_'
'čn'
'úřadu_'
'úst'
'ár'
'án'
'zí_'
'zrušení_'
'zpráv_'
'zaveden'
'zation_'
'vz'
'vyt'
'vybavení_'
'vlastnictví_'
'vis'
'vaší_'
'uvést_'
'una'
'ug'
'typ_'
'trial_'
'tory_'
'toilet_'
'tobolka_'
'thi'
'television_'
'technological_'
'targets_'
'tar'
'ta'
'subs'
'srdci_'
'spread_'
'spočívá_'
'spend_'
'související_'
'smaller_'
'slib'
'ským_'
'sko_'
'silné_'
'shot_'
'sanctions_'
'roze'
'roz'
'rot'
'rol'
'rn'
'rk'
'rio'
'reakci_'
'raise_'
'rad'
'race_'
'příští_'
'pí'
'péči_'
'py_'
'porušení_'
'poděkovat_'
'pension_'
'opposite_'
'op'
'om_'
'obchodování_'
'nějakou_'
'nz'
'normy_'
'nejvíce_'
'nejdříve_'
'nea'
'nast'
'najevo_'
'na'
'má'
'myslí_'
'ms'
'mou_'
'modified_'
'mm_'
'mistake_'
'merely_'
'mechanisms_'
'maybe_'
'maintained_'
'loved_'
'lidu_'
'levné_'
'ledna_'
'kup'
'konat_'
'kitchen_'
'jejího_'
'jed'
'jar'
'ist'
'informed_'
'inflace_'
'ideally_'
'ická_'
'hro'
'hotelových_'
'holding_'
'hm'
'hip_'
'guys_'
'gra'
'ght_'
'ga'
'fungovat_'
'fondů_'
'follows_'
'fitness_'
'feeling_'
'fan'
'expression_'
'exist_'
'eur_'
'ethnic_'
'era'
'enormous_'
'ec'
'east_'
'driving_'
'dovolit_'
'dohod_'
'decade_'
'dea'
'dan'
'dal'
'dad_'
'creditors_'
'cre'
'contrast_'
'continuing_'
'contain_'
'concluded_'
'command_'
'club_'
'clo'
'che_'
'cesta_'
'ce'
'cal'
'bes'
'bed'
'architecture_'
'ara'
'appears_'
'app'
'actual_'
'accounts_'
'Ze'
'West'
'Velké_'
'Vaše_'
'Tvrdá_'
'Super'
'Souvenirs_'
'Solarium_'
'Samozřejmě_'
'Radou_'
'Prostor_'
'OJ_'
'My'
'Met'
'Japonsko_'
'Japanese_'
'Island_'
'Hi'
'Gre'
'Gift_'
'Fo'
'Every_'
'Dů'
'Despite_'
'DO'
'DA'
'Comp'
'Ci'
'Bruselu_'
'Bra'
'Barack_'
'Area_'
'Another_'
'96_'
'91_'
'86_'
'73_'
'37'
'-'
'!"_'
'živ'
'ža'
'čínské_'
'částky_'
'áš_'
'áz'
'zpátky_'
'znamenat_'
'work'
'watch_'
'vět'
'východní_'
'vol'
'určitých_'
'určení_'
'urgent_'
'ubytovny_'
'tting_'
'swa'
'surprise_'
'střet'
'structural_'
'staré_'
'stanovit_'
'sr'
'spoke_'
'spojených_'
'specified_'
'species_'
'sko'
'ska_'
'sights_'
'sides_'
'sets_'
'seeing_'
'samotné_'
'ráno_'
'rozprava_'
'rozdíly_'
'rod'
'ris'
'rightly_'
'revi'
'ret'
'requirement_'
'representatives_'
'represent_'
'relatively_'
'působí_'
'příslušných_'
'push_'
'prakticky_'
'počítače_'
'physical_'
'pad'
'ově_'
'otázkách_'
'osobních_'
'omi'
'of'
'následující_'
'nt'
'notice_'
'noisy_'
'nik'
'nejde_'
'nd'
'my'
'mov'
'motion_'
'mol'
'mne_'
'mladých_'
'ml_'
'mine_'
'miliony_'
'micro'
'mezinárodního_'
'menga'
'kuřáky_'
'kus'
'koliv_'
'kal'
'jaderné_'
'insurance_'
'ig'
'hostel_'
'hospodářská_'
'hen'
'hell_'
'happens_'
'han_'
'hal_'
'gh_'
'gen_'
'gas'
'gan'
'furniture_'
'fu'
'forced_'
'female_'
'feature_'
'extreme_'
'extensive_'
'ev'
'ese_'
'equality_'
'enforcement_'
'emise_'
'důvěru_'
'důležitou_'
'dro'
'dojde_'
'dm'
'dealing_'
'danger_'
'congratulate_'
'conduct_'
'compliance_'
'chu'
'chal'
'cestou_'
'cer'
'category_'
'cash_'
'calling_'
'cable_'
'bul'
'budgetary_'
'bu_'
'bohatství_'
'blo'
'biggest_'
'avo'
'associated_'
'ant'
'americký_'
'advantage_'
'adjustment_'
'accepted_'
'ac'
'aa'
'Would_'
'Will_'
'Var'
'Ur'
'Unii_'
'Tro'
'Thanks_'
'Ta_'
'Sk'
'Server_'
'Sam'
'SP'
'Rozhodnutí_'
'Rovněž_'
'Por'
'Pok'
'Po'
'Note_'
'Nikdy_'
'Nebo_'
'Martin_'
'Ji'
'Jejich_'
'Irish_'
'In'
'Hello_'
'Gro'
'Gi'
'Executive_'
'El_'
'EEC_'
'Croatia_'
'Bro'
'Br'
'Bor'
'Blo'
'Bi'
'Afghánistánu_'
'AD_'
'?!_'
'78_'
'72_'
'4'
'', _'
'žena_'
'šla_'
'škod'
'ěné_'
'člověka_'
'členství_'
'července_'
'ý'
'út'
'ó_'
'éry_'
'è'
'ás'
'| _'
'zy_'
'zná'
'zení_'
'zan'
'zabývat_'
'yp'
'worldwide_'
'weak_'
'wall_'
'všechna_'
'věnovat_'
'výrobu_'
'výkonu_'
'vyv'
'vyst'
'vysokou_'
'vysoce_'
'ving_'
'vidím_'
'veřejnosti_'
'ven'
'vas'
'valid_'
'uv'
'uměl'
'uh_'
'tv'
'ts'
'tru'
'trouble_'
'tom'
'thereby_'
'tel'
'stří'
'státě_'
'strukturální_'
'strengthening_'
'strength_'
'str'
'stala_'
'stabilitu_'
'spirit_'
'souborů_'
'smlouvu_'
'showed_'
'ruku_'
'rozporu_'
'represents_'
'regulační_'
'reform'
'raz'
'rank'
'příjezdu_'
'pří'
'pryč_'
'prov'
'problémem_'
'prime_'
'presence_'
'prepare_'
'požádat_'
'požadavek_'
'povol'
'pohybu_'
'podobné_'
'plány_'
'personnel_'
'passed_'
'paměti_'
'označen_'
'ot'
'ostrov'
'os'
'orgánu_'
'ore'
'opo'
'onto_'
'oko'
'odpad'
'ode_'
'obzvláště_'
'obe'
'názory_'
'numbers_'
'nezv'
'nemůžu_'
'names_'
'nab'
'mý'
'místních_'
'mír_'
'mus_'
'možno_'
'min'
'lit_'
'lhůty_'
'lau'
'largely_'
'kolo'
'jisté_'
'jejíž_'
'island_'
'ir'
'inu_'
'ink'
'inde'
'ics_'
'hr'
'hovořit_'
'helping_'
'glo'
'gain_'
'fra'
'flu'
'fli'
'fle'
'extend_'
'experts_'
'evaluation_'
'enk'
'employees_'
'emo'
'ema'
'element_'
'economists_'
'dů'
'druhou_'
'dny_'
'div'
'difficulties_'
'devices_'
'detailed_'
'dalšího_'
'cuts_'
'crucial_'
'courses_'
'copy_'
'consistent_'
'communities_'
'character_'
'cars_'
'bá'
'bri'
'binding_'
'berg_'
'bars_'
'article_'
'appeared_'
'apparent_'
'acting_'
'accession_'
']_'
'Zd'
'Ye'
'War'
'Syria_'
'Sub'
'Soud'
'Sarkozy_'
'Roma_'
'Pat'
'Part_'
'Packed_'
'Over_'
'Nevertheless_'
'NL_'
'Musí_'
'Minutes_'
'Lunches_'
'LO'
'LA'
'Kor'
'Hyper_'
'Hamas_'
'Ger'
'EC'
'Dal'
'Cu'
'Cap'
'Can'
'CE_'
'CE'
'CC'
'Ban'
'At'
'Asii_'
'Ameriky_'
'67_'
'5'
'46_'
'33'
'27'
'201'
'195'
'193'
' %._'
'“'
'к'
'з'
'žit'
'ště'
'ří'
'řá'
'ře'
'členové_'
'účinnost_'
'íz'
'í'
'áž'
'základ_'
'zu_'
'zlepšit_'
'zbraně_'
'zahrnuje_'
'zad'
'west_'
'výzvy_'
'výhody_'
'východě_'
'vítám_'
'vyp'
'vládě_'
'virus_'
'vedle_'
'upgrade_'
'uk'
'události_'
'uc'
'tů_'
'tradition_'
'tobě_'
'tent'
'tea_'
'tax'
'suitable_'
'stin'
'stejný_'
'sta_'
'sporu_'
'south_'
'son'
'sně'
'snadné_'
'sie'
'shift_'
'ser_'
'schopni_'
'rámce_'
'rz'
'rybolovu_'
'rob'
'repair_'
'relax_'
'refer_'
'rat'
'radio_'
'quarter_'
'přispět_'
'přispěl'
'přinejmenším_'
'přijala_'
'předmětem_'
'pros'
'propad'
'procent_'
'politikou_'
'pokr'
'plays_'
'pl'
'peč'
'perfectly_'
'osoba_'
'osm'
'ort'
'operational_'
'operace_'
'ont'
'oni'
'ond'
'ol_'
'odpovídající_'
'odi'
'ns'
'nedostatek_'
'měsících_'
'měst'
'multi_'
'motor'
'mostly_'
'mode_'
'mladší_'
'mikro'
'membership_'
'marketing_'
'manžel'
'latter_'
'kritik'
'km'
'kids_'
'ki'
'kali'
'jícím_'
'jistý_'
'jediný_'
'ita_'
'instalace_'
'industries_'
'incentives_'
'hra'
'hnutí_'
'hardware_'
'greatest_'
'gli'
'generace_'
'functions_'
'fun_'
'front'
'everywhere_'
'entitled_'
'důležitý_'
'dy'
'drží_'
'drivers_'
'dr'
'dostanete_'
'dopady_'
'dluhopisů_'
'developments_'
'dané_'
'courts_'
'clock_'
'chosen_'
'causes_'
'cas'
'burg_'
'bur'
'budeš_'
'bon'
'bohat'
'becomes_'
'baby_'
'appreciate_'
'aných_'
'ann'
'amerického_'
'ale'
'air'
'ag'
'ada'
'Země_'
'Vám_'
'Vienna_'
'Ten'
'Right_'
'Rad'
'Q_'
'Přes'
'Plat'
'Paul_'
'Pan_'
'Opravdu_'
'Ne'
'NT'
'NO'
'Mont'
'Masáže_'
'Mal'
'Luc'
'Kon'
'Klingon_'
'Kar'
'Jistě_'
'IS_'
'Health_'
'Gaza_'
'ED'
'Don'
'Dep'
'Dar'
'Close_'
'CO'
'Bri'
'57_'
'400_'
'. (_'
'#_'
'”'
'školy_'
'škody_'
'řen'
'ňovat_'
'čel'
'úrokových_'
'úd'
'áb'
'á'
'}}) _'
'závazek_'
'zá'
'zvýšen'
'zvyšuje_'
'zpo'
'známky_'
'zm'
'zast'
'zace_'
'wan'
'věděl_'
'vědom'
'výp'
'vých_'
'vý'
'vztah_'
'vznikl'
'vstup_'
'vra'
'vo_'
'vn'
'vid'
'určen'
'uložen'
'uk_'
'tradiční_'
'tlak_'
'til'
'tik'
'test'
'telné_'
'tahun_'
'surveillance_'
'surrounding_'
'summer_'
'stává_'
'stál'
'student_'
'strengthen_'
'stranu_'
'stal_'
'stable_'
'společný_'
'spokojen'
'směr'
'skutečný_'
'skutečností_'
'sku_'
'sin'
'silnější_'
'signs_'
'severe_'
'ses'
'sad'
'rozšířen'
'rodiny_'
'res'
'relativně_'
'rapidly_'
'ral'
'přítomn'
'provedení_'
'potřebu_'
'postupně_'
'poorest_'
'pointed_'
'podnikání_'
'plyn'
'parliamentary_'
'over'
'ourselves_'
'osvědčení_'
'opa'
'ongoing_'
'ochrana_'
'němu_'
'nějak_'
'ny'
'nn'
'nemůžeme_'
'nejv'
'native_'
'mysl'
'minister_'
'mes_'
'mat'
'lle'
'lam'
'lab'
'kům_'
'kor'
'konfliktu_'
'ked_'
'jin'
'jednoznačně_'
'jednotlivé_'
'jazyk_'
'items_'
'iso'
'isk'
'ill'
'ik_'
'ied_'
'ida'
'housing_'
'ham_'
'gu'
'greenhouse_'
'globalization_'
'gel'
'fs_'
'formal_'
'figure_'
'fields_'
'feed_'
'express_'
'ets_'
'ert'
'equity_'
'entered_'
'enjoyed_'
'ende'
'emi'
'ee'
'economics_'
'důvodem_'
'dě'
'dé'
'dvoulůžkový_'
'drá'
'druhý_'
'dop'
'dollars_'
'dolar_'
'doctor_'
'doc'
'dit'
'device_'
'determine_'
'determination_'
'dep'
'dd'
'cutting_'
'counter_'
'conclusions_'
'comply_'
'com'
'cin'
'chl'
'celá_'
'byť_'
'bratr'
'books_'
'bojovat_'
'bel'
'ato'
'ast'
'appointed_'
'ane_'
'ambi'
'alle'
'aktiv'
'ající_'
'ain'
'advice_'
'addressed_'
'ably_'
'Zb'
'VI'
'Uh_'
'Time_'
'TO_'
'Subject_'
'Saudi_'
'Romania_'
'Q'
'Pu'
'Pr'
'Můžu_'
'Muslim_'
'Mohu_'
'MI'
'Language_'
'Kosmetika_'
'Jin'
'Jelikož_'
'Hal'
'HU_'
'Frankfurt_'
'Foundation_'
'Em'
'Edition_'
'Costa_'
'Club_'
'Chceme_'
'Center_'
'Camp'
'Bol'
'BE'
'Authority_'
'94_'
'77_'
'/ _'
'... '
'...'
'… _'
'—_'
'і'
'že'
'št'
'řádně_'
'čele_'
'České_'
'účinek_'
'účasti_'
'ús'
'ón'
'íc'
'ía_'
'Úřední_'
'získání_'
'závisí_'
'zákon'
'zer'
'zdarma_'
'zdaleka_'
'zbytek_'
'zaměřen'
'wireless_'
'všude_'
'výrazně_'
'vzájemné_'
'vzp'
'vyžadují_'
'vytváření_'
'vozidla_'
'voz'
'verzi_'
'vašeho_'
'vac'
'uzavřen'
'uvedl_'
'urban_'
'ual_'
'ua'
'tvář_'
'tvrd'
'tur'
'transparentnosti_'
'tk'
'tem_'
'tech_'
'tab'
'sílu_'
'sídl'
'submit_'
'strongly_'
'stronger_'
'speaking_'
'soutěž_'
'soused'
'sought_'
'složky_'
'skutečnou_'
'shod'
'sestav'
'sdělení_'
'schválení_'
'rá'
'rte'
'rozsáhlé_'
'roste_'
'rokem_'
'regular_'
'ref'
'rap'
'přináší_'
'přep'
'představit_'
'předn'
'pěšky_'
'písm_'
'průzkum'
'průmyslové_'
'prů'
'prove_'
'proud_'
'promluvit_'
'prokázal'
'projekt_'
'presidential_'
'pred'
'pozdě_'
'porušování_'
'poněvadž_'
'pomůže_'
'politici_'
'polite_'
'pokračoval'
'podobn'
'podnik'
'pes_'
'perspective_'
'percent_'
'pem'
'partition_'
'parti'
'ož'
'output_'
'ou'
'origin_'
'organization_'
'ony_'
'oli'
'oficiální_'
'odv'
'odpovědnosti_'
'odn'
'obecn'
'něhož_'
'nízké_'
'ník_'
'nádraží_'
'novým_'
'nk_'
'nepod'
'nat'
'named_'
'nal'
'myslíš_'
'muži_'
'multi'
'models_'
'mk'
'minut'
'ming_'
'mid'
'memory_'
'materiálů_'
'mandate_'
'látek_'
'lounge_'
'logi'
'lní_'
'lie'
'kým_'
'května_'
'kterému_'
'kontextu_'
'konference_'
'ki_'
'kes_'
'jimž_'
'jev'
'jednot'
'jedinou_'
'jasný_'
'ja_'
'ish_'
'ional_'
'involving_'
'investiční_'
'informační_'
'improvements_'
'impressive_'
'imposed_'
'ible_'
'hrd'
'hlavním_'
'harus_'
'grant_'
'ged_'
'funkci_'
'formě_'
'flexible_'
'firem_'
'fell_'
'falling_'
'extra'
'exclusive_'
'ekonomice_'
'efektivní_'
'děláš_'
'děkuji_'
'déle_'
'druhů_'
'download_'
'dot'
'dispute_'
'diskusi_'
'design'
'deliver_'
'definition_'
'define_'
'deficits_'
'defend_'
'dal_'
'cíli_'
'contrary_'
'con'
'communications_'
'combined_'
'cký_'
'chyt'
'cap'
'cancer_'
'buď_'
'bud'
'booked_'
'boasts_'
'bigger_'
'bea'
'balanced_'
'ač'
'attractive_'
'ances_'
'alive_'
'aktualizace_'
'Zatímco_'
'Wo'
'Win'
'UR'
'UPS_'
'Ts'
'Tor'
'Times_'
'Take_'
'Table_'
'System_'
'Stále_'
'Strategy_'
'See'
'Sat'
'Sand'
'Peter_'
'PR'
'Ná'
'Nikdo_'
'Můžete_'
'Mi'
'Men'
'Maria_'
'Mari'
'Mag'
'KO'
'Jedno_'
'Jedna_'
'IS'
'IA'
'Golden_'
'FR'
'FI'
'Cons'
'Con'
'Code_'
'Clinton_'
'Civil_'
'Chu'
'CAMBRIDGE_'
'Auto'
'Americe_'
'AN'
'8'
'250_'
'/'
'); _'
'"?_'
'! '
'“ (_'
'п'
'řídí_'
'ěz'
'ět'
'článkem_'
'účtován_'
'ústav'
'úmluvy_'
'zápis_'
'zvě'
'zodpovědnost_'
'zkušenosti_'
'zjevně_'
'zemědělských_'
'zastavit_'
'zas'
'yeah_'
'weight_'
'walls_'
'vůli_'
'většině_'
'vědomí_'
'výrobě_'
'výrobku_'
'výběr_'
'vytvářet_'
'vybrat_'
'votes_'
'vital_'
'vet'
'velkým_'
'unacceptable_'
'un'
'ult'
'ukázala_'
'ui'
'týdnů_'
'tém'
'troj'
'transparent_'
'totally_'
'terrorist_'
'talks_'
'takhle_'
'svému_'
'supports_'
'suites_'
'suffering_'
'substances_'
'subsidiarity_'
'stroj'
'strach_'
'storage_'
'stimulus_'
'statements_'
'stan'
'ssa'
'spotřebitele_'
'splňující_'
'sp'
'souvisejících_'
'southern_'
'službu_'
'skills_'
'silný_'
'signed_'
'seri'
'seat_'
'scar'
'river_'
'rid'
'revenue_'
'resulting_'
'republika_'
'rein'
'raw_'
'rat_'
'rada_'
'que'
'příštích_'
'představitelé_'
'předchozí_'
'pur'
'prvního_'
'promoting_'
'projev'
'profit_'
'produkci_'
'preventing_'
'prec'
'pp'
'pova'
'poskytovat_'
'pop'
'pole_'
'podv'
'podniku_'
'poch'
'plo'
'platit_'
'pea'
'owing_'
'oprávněn'
'one'
'omo'
'obtain_'
'obsahu_'
'objem_'
'object_'
'název_'
'návštěv'
'následujících_'
'nights_'
'nevím_'
'neví'
'nen'
'negativní_'
'ndi'
'nci'
'monitor_'
'ml'
'mise_'
'machines_'
'léta_'
'licence_'
'lia'
'ler'
'ld'
'lake_'
'kul'
'krokem_'
'kre'
'kové_'
'jícího_'
'intellectual_'
'inovace_'
'inflaci_'
'indicated_'
'imports_'
'ile'
'ich_'
'ian'
'hundred_'
'hrozí_'
'hov'
'hospitality_'
'hlas'
'hl_'
'hi_'
'heading_'
'haven_'
'happening_'
'go'
'gent'
'flo'
'flight_'
'fisheries_'
'fail_'
'faced_'
'extended_'
'exposed_'
'explain_'
'existovat_'
'ew'
'ens_'
'eng'
'elo'
'ekonomického_'
'dív'
'dá'
'drinks_'
'dostupnost_'
'dokáže_'
'docela_'
'diversity_'
'disaster_'
'dip'
'dining_'
'dia'
'detail_'
'des'
'definitely_'
'defe'
'declared_'
'declaration_'
'debat'
'cor'
'convinced_'
'constitute_'
'concrete_'
'compensation_'
'clients_'
'cení_'
'cemi_'
'careful_'
'capitalism_'
'candidate_'
'but'
'brání_'
'brán'
'brings_'
'bra'
'automaticky_'
'ati'
'atel'
'ate'
'atd_'
'articles_'
'arrived_'
'arrangements_'
'ane'
'\\_'
'Zu'
'Wiki'
'Washington_'
'Wa'
'Uv'
'Us'
'Tennis_'
'Tal'
'Takový_'
'Sr'
'Sisko_'
'Shi'
'SO'
'Rusku_'
'Reco'
'Portugal_'
'Pop'
'Open'
'OL'
'NH_'
'Mus'
'Min'
'Lou'
'Kadeřnictví_'
'Ir'
'Indian_'
'Hong_'
'Having_'
'Geneva_'
'GA'
'Fu'
'Fran'
'Foreign_'
'Federal_'
'Dutch_'
'Dovolte_'
'Dec'
'DS9_'
'Ch'
'Both_'
'Babylon_'
'Ba'
'BR'
'Atlantic_'
'Ali'
'Africe_'
'AT'
'68_'
'2hvězdičkový_'
'1995_'
'1994_'
'1980_'
'192'
'11'
'04_'
'+_'
')(_'
'('
'й'
'žije_'
'šíření_'
'šího_'
'špatné_'
'řady_'
'ňují_'
'ějšího_'
'částečně_'
'čtvrt'
'čtení_'
'čen'
'úspěchu_'
'údajně_'
'ör'
'ív'
'ína'
'ícím_'
'ést_'
'získal_'
'způsoben'
'zor'
'zodpovědn'
'zing_'
'začne_'
'zavedl'
'založení_'
'zal'
'wider_'
'who'
'věstník_'
'významný_'
'vulnerable_'
'viděl_'
'vedlo_'
'vaši_'
'vatel'
'underground_'
'unde'
'ule'
'uhlí_'
'tí'
'tvrzení_'
'tup'
'tude_'
'transition_'
'tj_'
'tit'
'tim'
'theory_'
'tha'
'tests_'
'surrounded_'
'střel'
'strop'
'stro'
'starost'
'spravedlnosti_'
'spojené_'
'soil_'
'smluv_'
'skutečné_'
'skupinu_'
'skeptic'
'silně_'
'significantly_'
'signal_'
'sic'
'sho'
'shape_'
'sation_'
'sales_'
'sale_'
'různ'
'rychleji_'
'run'
'ruling_'
'rs'
'rozp'
'respond_'
'resolve_'
'registration_'
'reforem_'
'recommended_'
'půl_'
'přístav'
'přírod'
'přípravku_'
'přání_'
'připraveni_'
'překážky_'
'předsedy_'
'přece_'
'ptá'
'pti'
'ps'
'průměrn'
'prostorách_'
'prop'
'proof_'
'produktu_'
'prodej'
'pracuje_'
'pořad'
'postelí_'
'poskytnut'
'politically_'
'podaří_'
'platform'
'pel'
'past'
'pass_'
'ovalo_'
'outdoor_'
'ously_'
'oteplování_'
'osi'
'opi'
'operators_'
'oh'
'oddělení_'
'obsah_'
'obo'
'nás'
'nutná_'
'nk'
'neustále_'
'nes'
'neroz'
'nere'
'nek'
'navrhuje_'
'můžeš_'
'mých_'
'mutual_'
'mountain_'
'moderate_'
'mme'
'metody_'
'mental_'
'mem'
'mela'
'mass_'
'mas'
'lodí_'
'lk'
'lis'
'lim'
'lig'
'liberal_'
'legitimate_'
'learned_'
'leads_'
'late'
'kum'
'ks'
'krá'
'komisařko_'
'klasifikován_'
'kaz'
'katastrof'
'jednotn'
'jednotky_'
'jedno'
'iz'
'ivní_'
'ivi'
'itelné_'
'isa'
'involvement_'
'indoor_'
'improvement_'
'impa'
'images_'
'hundreds_'
'humanitarian_'
'hrad'
'host'
'hon'
'holiday_'
'hl'
'heads_'
'gri'
'gram'
'geni'
'gains_'
'fucking_'
'flexibility_'
'fix_'
'finančním_'
'fil'
'eventually_'
'ere'
'entrance_'
'enti'
'ends_'
'emergency_'
'elsewhere_'
'eight_'
'eh'
'ega'
'eco'
'důkazy_'
'dítěte_'
'dvůr_'
'dubna_'
'drug_'
'dotčen'
'dostala_'
'dojem_'
'dodávek_'
'discussions_'
'discuss_'
'ction_'
'crew_'
'cou'
'corresponding_'
'contract_'
'conducted_'
'conditioned_'
'comfortably_'
'cla'
'cing_'
'centrally_'
'bí'
'bydlení_'
'broken_'
'block_'
'believed_'
'beg'
'bat'
'aze'
'ay_'
'avi'
'ap'
'anta'
'ancient_'
'ala'
'ai'
'acceptable_'
'abuse_'
']]_'
'Zejména_'
'Zdá_'
'Všechno_'
'Váš_'
'Ve'
'Ut'
'Use_'
'USB_'
'Ty'
'The'
'TP_'
'TA_'
'Sp'
'Sna'
'Regional_'
'ROM_'
'Protocol_'
'Pom'
'Pojď_'
'Německu_'
'Never_'
'Nem'
'NI'
'ND'
'Můžeme_'
'Mě'
'Monetary_'
'Mini'
'Main_'
'Lázeňské_'
'Last_'
'Kr'
'Konečně_'
'Jer'
'Jedním_'
'Jedná_'
'Jaké_'
'Jadzia_'
'Jack_'
'IC'
'Home_'
'Hi_'
'Ham'
'Fluoxetine_'
'Far'
'Existuje_'
'Est'
'Es'
'EM'
'Dámy_'
'Dos'
'Debianu_'
'DPH_'
'Cože_'
'Congress_'
'Colo'
'Children_'
'Char'
'Cen'
'CI'
'Bay_'
'Ala'
'Ah'
'?'
'79_'
'34'
'194'
'03_'
', [_'
', '_'
') '
'({{_'
' ``_'
' "'
' !_'
'ِ_'
'н'
'г'
'žalob'
'štěn'
'šetření_'
'šesti_'
'řídit_'
'řet'
'ěn'
'čné_'
'čky_'
'čka_'
'čení_'
'úvěrů_'
'óz'
'ór'
'íne'
'zůstal'
'zpravodaj_'
'značně_'
'zločin'
'zdr'
'začátek_'
'zar'
'zahrad'
'zach'
'wn_'
'whereas_'
'welcoming_'
'vě_'
'vývoji_'
'vítěz'
'více'
'vámi_'
'vyšetřování_'
'vyjádřit_'
'vyhnout_'
'vstup'
'vision_'
'vie'
'vic'
'uživatelů_'
'uč'
'uznání_'
'upřímn'
'uns'
'unre'
'undertaking_'
'uli'
'tře'
'tvůj_'
'tvoje_'
'tre'
'top'
'temporary_'
'telefon'
'svat'
'sus'
'sun_'
'stornována_'
'stn'
'stabilní_'
'sports_'
'spl'
'soft_'
'snažit_'
'slo'
'sl'
'ském_'
'situations_'
'shit_'
'sex_'
'securities_'
'schválen'
'schopen_'
'sca'
'rti'
'rre'
'rozt'
'rozsáhl'
'rozpočtové_'
'rozhraní_'
'romantic_'
'rim'
'restructuring_'
'restore_'
'residence_'
'represented_'
'replaced_'
'refugees_'
'reflect_'
'rec'
'reaching_'
'rc'
'rati'
'rapid_'
'příprav'
'příkladem_'
'příjmu_'
'přilehlém_'
'převod'
'přeprav'
'předpokladu_'
'pě'
'pá'
'prohlásil_'
'profits_'
'predict'
'povolen'
'povinností_'
'potřebovat_'
'por'
'poptávky_'
'poptávka_'
'poklesu_'
'pokl'
'poděkoval_'
'phase_'
'ped'
'paying_'
'pages_'
'pace_'
'ováno_'
'ovláda'
'organizations_'
'ola'
'officer_'
'obrovský_'
'něn'
'někoho_'
'něk'
'nutno_'
'numerous_'
'nta'
'nsi'
'ng'
'nepře'
'nemám_'
'nekon'
'nda'
'natolik_'
'nabídky_'
'měny_'
'myself_'
'multiple_'
'mra'
'motiv'
'mobile_'
'mnozí_'
'messages_'
'mereka_'
'menc'
'lád'
'lus'
'los_'
'lift_'
'letišt'
'lak'
'lai'
'komisař_'
'kid_'
'kh'
'každá_'
'kat'
'kandidát'
'jinou_'
'jejímž_'
'jednotliv'
'io'
'inovací_'
'initial_'
'ina'
'ille'
'identify_'
'identified_'
'houses_'
'hou'
'hospodářských_'
'hnout_'
'hmot'
'hly_'
'hlavního_'
'head'
'harm_'
'hardly_'
'hall_'
'guidelines_'
'glass_'
'fun'
'fourth_'
'fossil_'
'formou_'
'flat_'
'facts_'
'fac'
'eš'
'evropským_'
'eura_'
'ern'
'eri'
'entity_'
'ent'
'dose_'
'dopravu_'
'domov'
'dolů_'
'dokumenty_'
'dohledu_'
'documentation_'
'dochází_'
'discussed_'
'disco'
'discerning_'
'dev'
'desetiletí_'
'demonstrated_'
'dej'
'defense_'
'decor_'
'daughter_'
'dam'
'cí'
'cro'
'combat_'
'coby_'
'client_'
'citliv'
'cit'
'chyb_'
'brother_'
'bringing_'
'boys_'
'boost_'
'bodů_'
'bn'
'bly_'
'bin'
'bic'
'bers'
'becoming_'
'ban_'
'autorit'
'ard_'
'ard'
'ality_'
'adopting_'
'accessible_'
'abo'
'ab'
']] [[_'
'Zo'
'Zaprvé_'
'Zadruhé_'
'Ya'
'White_'
'Welcome_'
'Wall_'
'WA'
'Vz'
'Veřejné_'
'Venkovní_'
'Tho'
'Tab'
'Sv'
'Sto'
'Starfleet_'
'Sil'
'Santa_'
'Sa'
'SC'
'Problém_'
'PC'
'PA'
'Open_'
'On'
'OR'
'Nor'
'Nes'
'Měla_'
'Máš_'
'Muslims_'
'Luxembourg_'
'Lebanon_'
'Kin'
'Jízda_'
'Jean_'
'Had'
'GI'
'Flo'
'Federation_'
'Fa'
'Evropané_'
'Energy_'
'Di'
'Designated_'
'DVDRip_'
'Christ_'
'Bože_'
'Board_'
'Asi_'
'Američané_'
'AB'
'98_'
'9'
'83_'
'69_'
'62_'
'1991_'
'1989_'
'120_'
'06'
'* / _'
'" '
'šéf'
'štěstí_'
'šok'
'šn'
'šanci_'
'š'
'ěním_'
'ď'
'čná_'
'činy_'
'čemu_'
'úřady_'
'ø'
'éra_'
'ávat_'
'závislosti_'
'závazné_'
'záležitost_'
'zveřejněn'
'zve'
'zruš'
'změnám_'
'zko'
'zdravotnictví_'
'zaš'
'začali_'
'začala_'
'zapojení_'
'zaměstnání_'
'wonder_'
'windows_'
'widely_'
'wea'
'water'
'wake_'
'wages_'
'všeobecn'
'věřitel'
'významu_'
'výnosy_'
'vyn'
'vyh'
'vydání_'
'vpřed_'
'volume_'
'volbách_'
'vládních_'
'vhodn'
'vessels_'
'van_'
'uživatele_'
'učitel'
'usual_'
'upraven'
'une_'
'undoubtedly_'
'umožnit_'
'umi'
'ular_'
'ud_'
'tzv_'
'trpí_'
'trend_'
'tonight_'
'tick'
'textu_'
'terorist'
'tal_'
'suffered_'
'stra'
'stor'
'stanoviska_'
'spoustu_'
'soutěže_'
'sm'
'ski'
'ships_'
'she'
'sed'
'sb'
'sazb'
'runs_'
'rozv'
'rozm'
'rozhodnutím_'
'revenues_'
'restrictions_'
'repeated_'
'repa'
'realize_'
'realis'
'rb'
'radi'
'půdy_'
'přijít_'
'přijata_'
'předložila_'
'pus'
'právu_'
'prst'
'proveden'
'protected_'
'pron'
'proměn'
'prohl'
'prezident'
'praxi_'
'pravomocí_'
'pozornosti_'
'povolení_'
'postupem_'
'postoje_'
'policymakers_'
'podob'
'podepsal'
'pn'
'players_'
'played_'
'pek'
'pas'
'partnery_'
'participate_'
'orn'
'ordinary_'
'oma'
'oj'
'ohrožen'
'og_'
'ochranné_'
'obtained_'
'not'
'neznamená_'
'nezbytná_'
'nesmírně_'
'ner'
'negotiating_'
'nedávné_'
'nah'
'měsíce_'
'město_'
'mínění_'
'myslel_'
'musela_'
'motorway_'
'mono'
'metod'
'mbi'
'lé_'
'lum'
'lobby_'
'liší_'
'lists_'
'ling'
'lib'
'letos_'
'lep'
'launched_'
'lap'
'kultury_'
'komp'
'kolegové_'
'kol'
'kin_'
'kas'
'jíž_'
'jednom_'
'jedině_'
'jakou_'
'ičn'
'ismus_'
'ip'
'invest_'
'inu'
'ino_'
'infl'
'inclusion_'
'improved_'
'impose_'
'ika_'
'ici_'
'hů'
'hry_'
'hladin'
'histori'
'here'
'ham'
'grew_'
'golf_'
'glad_'
'gender_'
'gate_'
'fund_'
'fuck_'
'formu_'
'formed_'
'foot'
'fin'
'figures_'
'far'
'exports_'
'experienced_'
'excessive_'
'exceptional_'
'examples_'
'erg_'
'enterprises_'
'eno_'
'enlargement_'
'end'
'emerge_'
'ement_'
'edl'
'dolaru_'
'dodavatel'
'divided_'
'directed_'
'depend_'
'delay_'
'daňových_'
'cti'
'crimes_'
'cri'
'cov'
'couple_'
'counter'
'cool_'
'contracts_'
'contested_'
'conflicts_'
'compa'
'closer_'
'cies_'
'chudých_'
'chtěli_'
'chtít_'
'chov'
'chlap'
'chief_'
'chemical_'
'bou'
'blízko_'
'bis'
'battle_'
'audio_'
'armád'
'army_'
'argue_'
'apartment_'
'aný_'
'ambitious_'
'alo'
'age'
'abys_'
'[ _'
'Whether_'
'Wellness_'
'Wait_'
'Uk'
'Translation_'
'Tele'
'TA'
'Sun'
'Sch'
'Sar'
'SIS_'
'SI'
'Rou'
'Roman'
'Pol_'
'Ot'
'Obchody_'
'OF_'
'Nov'
'Mezi'
'MP'
'Lar'
'Kong_'
'Ken'
'Joint_'
'Jak'
'Islam_'
'Irsku_'
'Information_'
'Indii_'
'Gri'
'Gran_'
'Gen'
'Dun'
'Dobrá_'
'Dnešní_'
'Demo'
'Cit'
'Cho'
'Charter_'
'Chapter_'
'Brit'
'Arc'
'Aparthotel_'
'Anti'
'Ak'
'Act_'
'AC'
'89_'
'82_'
'54_'
'51'
'43'
'41'
'2030_'
', „_'
'**'
'''_'
'%_'
'…'
'‑_'
'ت_'
'ы'
'в'
'ší'
'šli_'
'šle'
'č'
'ír'
'ávání_'
'ák'
'Í'
'zůstávají_'
'záznam'
'závisl'
'zásad_'
'zákaz_'
'zájmů_'
'zr'
'zoufal'
'znak'
'zma'
'zit'
'zajímav'
'zachovat_'
'ym'
'yho_'
'yesterday_'
'ws_'
'write_'
'wood'
'wer'
'warning_'
'ward_'
'wanna_'
'waiting_'
'věří_'
'většiny_'
'ví'
'ván'
'válka_'
'vyč'
'vytvořen'
'vypo'
'vym'
'vyl'
'vyb'
'vy'
'vražd'
'voluntary_'
'visiting_'
'vely_'
'ved_'
'usa'
'ures_'
'unsu'
'unlikely_'
'united_'
'ultimately_'
'tán'
'twice_'
'turistika_'
'tsk'
'travellers_'
'trap'
'transactions_'
'track_'
'tourism_'
'tip'
'tické_'
'tepl'
'tend_'
'sí'
'superb_'
'summitu_'
'successfully_'
'succeed_'
'substantial_'
'stí'
'strom'
'strategií_'
'strategies_'
'stol'
'sten'
'staly_'
'ssi'
'srdce_'
'sporů_'
'snížen'
'smlouvě_'
'sma'
'slep'
'skin_'
'sk'
'sight_'
'sia_'
'sf'
'setkání_'
'session_'
'sep'
'sens'
'selhání_'
'sche'
'sau'
'ré'
'rychlost_'
'rra'
'rozhodnout_'
'ros'
'root_'
'remained_'
'rely_'
'recommendations_'
'ral_'
'rail_'
'přišel_'
'přidělen'
'přest'
'přeshraniční_'
'pát'
'pás'
'prvky_'
'protecting_'
'promised_'
'processes_'
'pres'
'precisely_'
'poz'
'považuje_'
'pouhé_'
'postaven'
'poskytují_'
'poskytne_'
'pose'
'porad'
'polovinu_'
'polohu_'
'politicky_'
'policie_'
'pol'
'podporují_'
'podnět'
'pochyb'
'pochopit_'
'pln'
'player_'
'phi'
'personál_'
'permanent_'
'pc'
'pacient'
'očekávání_'
'očekávat_'
'overlooking_'
'ov_'
'our'
'oti'
'oste'
'ostatními_'
'osobně_'
'osm_'
'odst'
'objekt'
'náměstí_'
'nte_'
'nte'
'nictví_'
'neú'
'nezá'
'neutr'
'nde'
'nato'
'naleznete_'
'nac'
'nabíze'
'murder_'
'mr'
'mot'
'mléka_'
'minority_'
'meta'
'mere_'
'mer_'
'menu'
'men'
'mem_'
'mel'
'map'
'mala'
'líto_'
'log_'
'lla'
'listen_'
'lini'
'lil'
'letecké_'
'land'
'kontakt'
'konflikt_'
'kok'
'klíčových_'
'klíčové_'
'kla'
'ker_'
'kami_'
'kamen'
'justified_'
'judicial_'
'jsk'
'jes'
'ivo'
'ior'
'inh'
'infringement_'
'infla'
'inequality_'
'immigrants_'
'ians_'
'hromad'
'hot'
'holk'
'hof_'
'hled'
'hlad'
'hem'
'hed_'
'heavy_'
'harmoni'
'grow_'
'gon'
'fyzick'
'ful'
'ft'
'focused_'
'finding_'
'fighting_'
'ffi'
'facilitate_'
'ečn'
'ext'
'expansion_'
'expand_'
'exceed_'
'eu_'
'ett'
'estimated_'
'estate_'
'erl'
'ered_'
'energií_'
'enc'
'eln'
'eli'
'edn'
'eastern_'
'dynamic_'
'dvora_'
'dri'
'drawn_'
'dorf_'
'dojít_'
'dnů_'
'disku_'
'diskriminace_'
'diseases_'
'disa'
'digital_'
'dial_'
'desire_'
'depends_'
'deli'
'del'
'dealt_'
'daň_'
'cut'
'crises_'
'considerable_'
'component_'
'cn'
'chybí_'
'chyba_'
'channels_'
'caught_'
'cation_'
'castle_'
'capita_'
'bonds_'
'blame_'
'background_'
'atu'
'art'
'argument'
'argued_'
'animals_'
'ami'
'amazing_'
'ak'
'ah'
'ae'
'adalah_'
'abroad_'
'aba'
'] '
'Zat'
'Wor'
'Vířivka_'
'Vysoký_'
'Verts_'
'Venice_'
'VST_'
'Text_'
'TS'
'Switzerland_'
'Sweden_'
'Stop_'
'Sti'
'Som'
'Small_'
'Set'
'Ruskem_'
'Roman_'
'Research_'
'Res'
'Prop'
'Port'
'Pol'
'Palestin'
'Nu'
'Nová_'
'Next_'
'Network_'
'Nejs'
'Nas'
'Na'
'Monte'
'Massage_'
'Mad'
'Lidé_'
'Lei'
'Legal_'
'Lang'
'Jste_'
'Jižní_'
'Jednou_'
'Imp'
'IP'
'Hy'
'Have_'
'Han'
'Florence_'
'Europ'
'Emi'
'Dokonce_'
'Dam'
'Cli'
'Chceš_'
'Case_'
'Canada_'
'Bulgaria_'
'Budeme_'
'Brazílie_'
'Bill'
'Belgi'
'Beauty_'
'Beau'
'Bank'
'Az'
'Ash'
'Arab'
'An'
'Afrika_'
'Ac'
'Abe'
'ALE_'
';'
'71_'
'63_'
'54'
'215'
'0s_'
'02'
'. _'
'.. _'
'- '
'қ'
'е_'
'да'
'žijí_'
'špatně_'
'Ře'
'čně_'
'člen'
'čisté_'
'četn'
'čelit_'
'čase_'
'ývá_'
'účetní_'
'úlohy_'
'íž'
'íl'
'získá'
'závěry_'
'závěr_'
'závazků_'
'záruky_'
'zvýší_'
'zvláštních_'
'ztrát'
'zre'
'známé_'
'zneužívání_'
'zle'
'zkušeností_'
'zes'
'zahraničních_'
'yon'
'xml_'
'wit'
'webových_'
'všemi_'
'vše'
'věřím_'
'vězení_'
'významně_'
'významným_'
'vývoz_'
'vítězství_'
'vzájemn'
'vytváří_'
'vysvětlení_'
'vysoká_'
'vyskyt'
'vyjádřil_'
'vyj'
'vybaven'
'vsk'
'volného_'
'volební_'
'vk'
'victory_'
'venkov'
'vedou_'
'val'
'už'
'ux_'
'uvědom'
'ury_'
'unp'
'univerzity_'
'une'
'ue'
'tří'
'tun'
'treat_'
'travel'
'transportation_'
'tradice_'
'totéž_'
'tongue_'
'tiv'
'tiny_'
'teri'
'tea'
'tap'
'takovém_'
'tai'
'sítí_'
'supervision_'
'suggest_'
'stře'
'státního_'
'státem_'
'stran'
'ste_'
'stanice_'
'standardy_'
'srovnání_'
'spravedlnost_'
'spa'
'soustav'
'souhlas_'
'soubory_'
'snižuje_'
'slu'
'sli'
'skvělé_'
'sized_'
'settlement_'
'sensitive_'
'sen_'
'sell_'
'saved_'
'rozsah_'
'rozpravy_'
'rozhodl_'
'rozh'
'rma'
'ride_'
'rge'
'rezerv'
'responsibilities_'
'rem'
'relative_'
'regionů_'
'recognize_'
'reci'
'rch'
'rating_'
'raději_'
'race'
'přistěhovalectví_'
'předpokládá_'
'pursue_'
'právem_'
'prvotřídního_'
'produk'
'prison_'
'presidency_'
'premi'
'praxe_'
'poněkud_'
'podl'
'plants_'
'pick_'
'ph'
'patient_'
'parliaments_'
'ovém_'
'ove'
'ought_'
'organ'
'opposed_'
'odraz'
'obs'
'obranu_'
'objeví_'
'nízko'
'názor'
'následně_'
'nábožensk'
'novém_'
'nos'
'nf'
'nezávislé_'
'nesprávn'
'nejm'
'nechá'
'nastaven'
'nan_'
'mů'
'měř'
'muy_'
'mo_'
'mnoh'
'mm'
'minor_'
'milionu_'
'mic'
'metr'
'mer'
'meat_'
'mba'
'materiály_'
'manager_'
'majetku_'
'lék'
'luxusní_'
'lub'
'lom'
'lit'
'lek'
'kva'
'kova'
'kost'
'konkrétně_'
'kli'
'ken'
'joined_'
'jezd'
'jakékoliv_'
'jakožto_'
'jadern'
'iti'
'ith'
'ising_'
'ise'
'investigation_'
'inn'
'iness_'
'impl'
'ij'
'ified_'
'ica'
'hum'
'hledání_'
'hle'
'heat_'
'gy'
'guess_'
'grand'
'govern'
'generated_'
'gan_'
'flows_'
'fi_'
'fe_'
'esa'
'equi'
'ended_'
'ena'
'electronic_'
'ekonomik_'
'ejší_'
'ejme_'
'ear'
'důraz_'
'druhu_'
'dre'
'dou'
'dopad'
'dobro'
'do'
'dno'
'dly_'
'dio'
'dependent_'
'demon'
'demi'
'dee'
'debian_'
'db'
'count'
'contributed_'
'confirm_'
'conf_'
'collection_'
'colleague_'
'cle'
'cke'
'chy_'
'chat_'
'chan'
'bridge_'
'breach_'
'bottom_'
'bond_'
'blok'
'bli'
'bisa_'
'bilateral_'
'bil'
'auto_'
'atte'
'ata'
'arrive_'
'arguments_'
'apart_'
'aná_'
'ano'
'and'
'amo'
'amended_'
'ama'
'alternativ'
'aliance_'
'aho'
'aging_'
'afternoon_'
'adresu_'
'ado'
'Zn'
'Vir'
'Sur'
'Summit_'
'Son'
'Sko'
'Severní_'
'Serbia_'
'School_'
'Rh'
'Rep'
'Rea'
'Radu_'
'Prob'
'Pou'
'Portage_'
'Pl'
'Picard_'
'Palm'
'Pakistan_'
'Pad'
'Over'
'Nez'
'Nemá'
'Mos'
'Mel'
'Man_'
'LD'
'King_'
'Jedin'
'Jar'
'Izraele_'
'Inc'
'IR'
'Hyde_'
'Hel'
'GNOME_'
'GE'
'Frank'
'Forum_'
'Fire'
'Ele'
'Day_'
'Cra'
'Coo'
'Common_'
'Cold_'
'Christian_'
'Cat'
'CD'
'Bridge_'
'Bla'
'Barber_'
'Ant'
'Ann'
'AM'
'66_'
'61_'
'12'
'.“ _'
'. „_'
''''
'" (_'
'，_'
'• _'
'ң_'
'қа'
'н_'
'ла'
'životy_'
'Že_'
'ů'
'řád_'
'řád'
'ření_'
'ňování_'
'čku_'
'ão_'
'zůstane_'
'zásah'
'záruk'
'záměr'
'záležitostí_'
'základního_'
'zov'
'znatelný_'
'zli'
'zisky_'
'zim'
'zemřel'
'zem'
'zel'
'zda'
'zavádění_'
'zajist'
'zahrnut'
'zahrnovat_'
'yz'
'xa'
'winning_'
'wind_'
'všeobecné_'
'významnou_'
'výběru_'
'válku_'
'vze'
'vyžadovat_'
'využívají_'
'vystaven'
'vysoko'
'vyjádření_'
'voj'
'vládou_'
'vlivu_'
'visa_'
'uvedeny_'
'ust'
'ura'
'uplatnit_'
'universities_'
'unity_'
'unit_'
'understood_'
'und'
'unable_'
'umístěn'
'ukazují_'
'uju_'
'ujete_'
'ues_'
'udržiteln'
'u'
'týkají_'
'turning_'
'turist'
'trillion_'
'transfers_'
'tivní_'
'ting'
'till_'
'tia'
'tho'
'territorial_'
'temperature_'
'telling_'
'taught_'
'tasks_'
'tah'
'světového_'
'structures_'
'store_'
'stopped_'
'stocks_'
'spá'
'správným_'
'spi'
'sor_'
'sold_'
'snížil'
'snah'
'smus_'
'sightseeing_'
'shodn'
'shadow_'
'sey_'
'sek'
'seas'
'schválil'
'sala'
'rů_'
'rádi_'
'rub'
'ru'
'rom'
'rhetoric_'
'respected_'
'residential_'
'renewable_'
'rejection_'
'regularly_'
'regiony_'
'regarded_'
'reg'
'recognise_'
'recese_'
'ratio_'
'rapporteurs_'
'rant'
'ramen'
'raising_'
'původní_'
'působnosti_'
'půl'
'příspěvek_'
'případy_'
'přínos_'
'příkaz'
'přijíma'
'přijde_'
'přid'
'převážně_'
'přet'
'představoval'
'pásm'
'průmyslových_'
'prázdn'
'prospect_'
'prosazování_'
'promotion_'
'programming_'
'producing_'
'prob'
'prioritou_'
'primarily_'
'prezidentem_'
'preparation_'
'pping_'
'pozici_'
'potraviny_'
'poměrně_'
'položku_'
'pokus'
'pojm'
'ploch'
'plnit_'
'pli'
'planned_'
'piece_'
'permit_'
'pend'
'partner'
'pal'
'pain_'
'oznámen'
'ox'
'ownership_'
'ow'
'overt'
'ovatel'
'otevřen'
'opakovaně_'
'okraj'
'odráží_'
'odil'
'occurred_'
'oběti_'
'obě'
'něte_'
'ní'
'nástup'
'námořní_'
'náležit'
'nutně_'
'ností_'
'nimiž_'
'nil_'
'nespo'
'nesou'
'neli'
'nejhorší_'
'necessarily_'
'nebezpečn'
'neb'
'mud'
'mp'
'movie_'
'motor_'
'modem_'
'mena'
'mbo'
'maritime_'
'mand'
'lí_'
'lož'
'lor'
'local'
'lic'
'lehk'
'launch_'
'lady_'
'ktu'
'kritérií_'
'kritéria_'
'konkurenční_'
'kole_'
'kita_'
'jádra_'
'jun'
'jeví_'
'isi'
'interface_'
'institut'
'inc'
'ila'
'ien'
'household_'
'hou_'
'hlavně_'
'hidden_'
'heim_'
'gua'
'gold_'
'generate_'
'fuels_'
'free'
'fied_'
'ff_'
'feet_'
'faktory_'
'faith_'
'ež'
'ez_'
'extension_'
'erov'
'eného_'
'enta'
'encouraged_'
'eg'
'důležitost_'
'důkazů_'
'důchod'
'dění_'
'dvou'
'dvacet_'
'dumping_'
'druhy_'
'dream_'
'drawing_'
'dovozu_'
'dosažen'
'dopis'
'dohled_'
'dl'
'dite'
'dim'
'destroyed_'
'destroy_'
'dera'
'demokratů_'
'deficit'
'deaths_'
'daňov'
'dav'
'cům_'
'cts_'
'credible_'
'corner_'
'contained_'
'consultation_'
'considers_'
'concentration_'
'components_'
'compl'
'coalition_'
'ckých_'
'ckého_'
'cky_'
'cis'
'circu'
'chá'
'chudobě_'
'checked_'
'chart'
'characteristics_'
'celkového_'
'cc'
'carrying_'
'cards_'
'busy_'
'bug_'
'budování_'
'brát_'
'boot'
'bod'
'blízkosti_'
'bert'
'bee'
'beauty_'
'authorisation_'
'atau_'
'approximately_'
'ape'
'ants_'
'ange'
'ang'
'alit'
'alist'
'aktuální_'
'aktivity_'
'agentura_'
'agentur'
'agend'
'afraid_'
'affairs_'
']'
'Ze_'
'Zav'
'Yu'
'Within_'
'Wei'
'Více_'
'Vie'
'Up'
'UT'
'Tě'
'Tr'
'Tar'
'Sunday_'
'Sol'
'Sin'
'Sim'
'Sheraton_'
'Sec'
'Science_'
'Sav'
'SK_'
'Rot'
'Report_'
'RO'
'Pán'
'Pov'
'Poslední_'
'Popular_'
'Polsku_'
'Pokoj_'
'Pla'
'Ph'
'Partnership_'
'Park'
'Om'
'Not'
'Nepo'
'Nebyl'
'Naopak_'
'Mé'
'Miss_'
'Mimo'
'Merc'
'Mea'
'May'
'Leg'
'Lan'
'Kra'
'Kla'
'Kat'
'Jasně_'
'Jam'
'Irsko_'
'IF'
'Hotels_'
'Has'
'HE'
'Gran'
'Gaze_'
'Firefox_'
'Euros'
'ENT_'
'Dis'
'Democrats_'
'David_'
'Dat'
'Cy'
'Cou'
'Charles_'
'Cham'
'Cer'
'Británii_'
'Bohužel_'
'BI'
'Al_'
'Air_'
'Air'
'AU'
': “_'
'97_'
'53_'
'142_'
'!'
' )_'
'的'
'ра'
'ме'
'ži'
'šť_'
'ša'
'říká'
'řit_'
'řad'
'Řekl_'
'ňte_'
'ěs'
'čtyř'
'čtvrti_'
'čeká_'
'čast'
'ýv'
'účtu_'
'účinně_'
'účet_'
'února_'
'íř'
'ím'
'éri'
'áze'
'áni_'
'zákonn'
'zz'
'zvířata_'
'zvuk'
'zpracování_'
'znalostí_'
'zna'
'zlo'
'zero_'
'zabít_'
'yd'
'wise_'
'webové_'
'web'
'weather_'
'warm'
'wage_'
'všeobecně_'
'vědí_'
'vzor'
'vysvětlit_'
'vyrábě'
'vyjádřen'
'vyjednávání_'
'vozidel_'
'voln'
'vod'
'vlastního_'
'vlak'
'vedoucí'
'vedla_'
'vast_'
'variant'
'vané_'
'vala_'
'uze'
'uvedla_'
'uru'
'update_'
'unc'
'umění_'
'ula_'
'ukázal_'
'uhl'
'uděl'
'týdny_'
'tématu_'
'tul'
'trvat_'
'trvale_'
'trval'
'troops_'
'trees_'
'tov'
'tisíc_'
'threats_'
'terrible_'
'teplot'
'tentokrát_'
'televiz'
'techniky_'
'talked_'
'tahu'
'tackle_'
'síťov'
'supplies_'
'superior_'
'sugar_'
'sub_'
'stic'
'steri'
'stands_'
'spr'
'spotřeby_'
'společná_'
'spo'
'speakers_'
'span'
'souč'
'souhlasil'
'soudních_'
'somewhat_'
'sol'
'ska'
'sions_'
'sin_'
'shut_'
'selling_'
'scrutiny_'
'sample_'
'samotný'
'roční'
'rozb'
'reálné_'
'returned_'
'restored_'
'republice_'
'reporting_'
'replace_'
'remarkable_'
'rela'
'reject_'
'regulaci_'
'refurbished_'
'reflected_'
'redi'
'recognized_'
'recognition_'
'read'
'react'
'rakovin'
'rain'
'radical_'
'rac'
'quick_'
'příjem_'
'připravil'
'přinést_'
'přijal_'
'předv'
'předložit_'
'pís'
'punish'
'pun'
'pul'
'proximity_'
'promi'
'prodej_'
'prod'
'pravo'
'pracoval'
'považuji_'
'potentially_'
'posílen'
'postel'
'poskytnutí_'
'poptávku_'
'politickým_'
'podporován'
'podobně_'
'podnikatel'
'plánování_'
'platnosti_'
'peri'
'percentage_'
'peoples_'
'patent'
'passengers_'
'pari'
'pag'
'ováni_'
'ovo'
'ous'
'ott'
'oslav'
'organizaci_'
'ore_'
'oppose_'
'opatřením_'
'ons'
'ohled'
'odkud_'
'oddíl'
'obyvatelstva_'
'obd'
'obchod'
'nákladn'
'nty_'
'nou'
'norm'
'none_'
'nezaměstnanost_'
'nejvýše_'
'nejlépe_'
'napříč_'
'monitor'
'modelu_'
'mistr'
'minulý_'
'minul'
'minibar_'
'mili'
'miles_'
'migra'
'medicine_'
'matka_'
'mati'
'mali'
'léč'
'lékařsk'
'luv'
'lots_'
'loo'
'loc'
'load_'
'll'
'liti'
'lik'
'leaves_'
'ld_'
'lang'
'lag'
'ktor'
'konkurenceschopnosti_'
'konkurenceschopnost_'
'kombinaci_'
'koloni'
'klimatické_'
'kapitál_'
'jádro_'
'jk'
'jimiž_'
'jemn'
'jednotné_'
'jediná_'
'jedinečn'
'jaká_'
'ií_'
'ious_'
'iot'
'inter_'
'integraci_'
'int'
'infrastruktur'
'index_'
'impe'
'ime_'
'ihned_'
'ic'
'há_'
'hyper'
'hotel'
'hn'
'hlavy_'
'hlas_'
'historick'
'hire_'
'hes_'
'guide_'
'gru'
'gree'
'grafi'
'gradually_'
'gle_'
'funguje_'
'fri'
'fre'
'flood'
'figur'
'explore_'
'experiment'
'everybody_'
'euro'
'esi'
'ering_'
'ere_'
'equally_'
'epi'
'ep'
'eo'
'emphasis_'
'eme'
'email_'
'elektro'
'ede'
'eb'
'dům_'
'dává_'
'dávky_'
'dvakrát_'
'držet_'
'druh_'
'drah'
'dokumentu_'
'dokument'
'doktor'
'dní'
'dni_'
'divorce_'
'distribuce_'
'diss'
'dise'
'discovered_'
'delivery_'
'deci'
'database_'
'customs_'
'cru'
'cování_'
'continental_'
'connected_'
'completed_'
'comment_'
'coal_'
'cia'
'chud'
'checks_'
'cent_'
'cent'
'bun'
'bránit_'
'broader_'
'bet_'
'belief_'
'bedroom_'
'beaches_'
'bak'
'bahwa_'
'ax'
'automobil'
'automatically_'
'author_'
'attitude_'
'assess_'
'apa'
'answers_'
'ans'
'amp'
'aki'
'agr'
'advantages_'
'adres'
'achieving_'
'acen'
'Yo'
'Wall'
'Věř'
'Vážená_'
'Vás_'
'Voyager_'
'Velmi_'
'Until_'
'Tv'
'Thi'
'TNG_'
'St'
'Special_'
'Souhlasím_'
'Socialist_'
'Sn'
'San'
'Ron'
'River_'
'Ref'
'Ran'
'Rakousko_'
'Představ'
'Portugalsko_'
'Ok'
'Nothing_'
'Nor_'
'New'
'Nav'
'Myslíš_'
'Mnoh'
'Mas'
'Mary_'
'Mart'
'Mark'
'Lord_'
'Lin'
'Law_'
'Kas'
'Jenže_'
'Jeden_'
'Islamic_'
'Inte'
'Ins'
'Hele_'
'Hand'
'Green_'
'Globální_'
'Francisco_'
'FS'
'Ev'
'Empire_'
'EF'
'Dne_'
'Denmark_'
'DNA_'
'Chamber_'
'Ce'
'CON'
'By'
'Bus'
'Black_'
'Aud'
'Att'
'As'
'Art'
'And'
'Ama'
'Alpha_'
'Alliance_'
'AS'
'800_'
'74_'
'600_'
'59'
'48'
'40'
'1992_'
'190'
'ْ_'
'но'
'ži_'
'žensk'
'Žád'
'šťastn'
'šov'
'širší_'
'ši_'
'šest'
'říš'
'řízen'
'říkám_'
'Řecku_'
'ňa'
'ěž'
'ěst'
'ěl_'
'část'
'členském_'
'činitel'
'čet_'
'čekat_'
'úpravy_'
'únik'
'úkolem_'
'ê'
'ér_'
'ášen'
'áva'
'átk'
'É_'
'závěru_'
'zástupce_'
'zám'
'zákony_'
'zákonem_'
'zrovna_'
'způsobuje_'
'zpravodaj'
'zpomal'
'zjištění_'
'zjistil_'
'zdrojem_'
'zavá'
'zastavil'
'zaměřené_'
'zahrnují_'
'yr'
'wrote_'
'winter_'
'wind'
'weigh'
'wai'
'vůdc'
'výzkumn'
'výrobce_'
'vyr'
'vyko'
'vt'
'vlastním_'
'vit'
'visual_'
'vin_'
'veškerý'
'vest'
'verb'
'veden'
'vat'
'vali_'
'učení_'
'uzn'
'uvedeno_'
'utn'
'usm'
'usi'
'use'
'unfortunately_'
'umí'
'uit'
'udržitelný_'
'ude'
'třebaže_'
'tělo_'
'tz'
'typy_'
'tranquil'
'tors_'
'tně_'
'tito_'
'text'
'tersebut_'
'ters_'
'termín'
'term'
'tender_'
'tch_'
'taste_'
'sí_'
'svoje_'
'svobod'
'survey_'
'stvím_'
'stránka_'
'stranou_'
'stavební_'
'stav'
'stanovených_'
'spíš_'
'splnit_'
'sovereign_'
'souvisí_'
'sotva_'
'solid_'
'skému_'
'skvěl'
'sit'
'signál_'
'shromáždění_'
'sestr'
'senát'
'scen'
'sankce_'
'san'
'samy_'
'rozvinutých_'
'rozumí_'
'rozhodla_'
'rozhod'
'rock_'
'rl'
'rin'
'restricted_'
'restauraci_'
'resource_'
'resistance_'
'rese'
'remaining_'
'recognised_'
'reco'
'realizaci_'
'rar'
'rak'
'příběh_'
'přizpůsobení_'
'připomínky_'
'připomína'
'přenos_'
'předmět'
'předložen'
'přechodn'
'pár'
'purchase_'
'pu_'
'právním_'
'právech_'
'prvních_'
'provádět_'
'protest_'
'proportion_'
'prol'
'prodeje_'
'premiér_'
'pravomoc_'
'prach'
'pož'
'považují_'
'použitím_'
'posi'
'poll'
'pokrytí_'
'podívat_'
'podnik_'
'plyn_'
'pečlivě_'
'pat_'
'passenger_'
'partly_'
'pam'
'paliv_'
'pala'
'ovými_'
'ovk'
'ostr'
'ostatním_'
'osob'
'osa'
'organism'
'ono'
'ong'
'okolí_'
'ogi'
'oe'
'odstavci_'
'odpovídá_'
'odo'
'odhodlání_'
'občas_'
'obyčejn'
'obtížné_'
'obnovitelných_'
'nů_'
'němuž_'
'něl'
'někter'
'nárok_'
'nse'
'norma'
'non'
'nim_'
'nijak_'
'ngan_'
'new'
'nesta'
'nepřijatelné_'
'nepři'
'nepov'
'nemělo_'
'nemocnic'
'nelegální'
'nel_'
'neh'
'nedá'
'nda_'
'nahr'
'měsíc_'
'mín'
'musel_'
'multilateral_'
'morální_'
'monitorování_'
'modest_'
'ministr'
'milion'
'migrants_'
'mi'
'metal'
'met'
'meng'
'mechanismy_'
'married_'
'mail'
'los'
'lob'
'loans_'
'liš'
'lid_'
'legitimit'
'le'
'lc'
'lah'
'lac'
'kvalitní_'
'král'
'kroků_'
'kr'
'kou'
'kopi'
'komplexní_'
'knih'
'kategorie_'
'kart'
'kanál'
'kancelář'
'kam'
'jí'
'judge_'
'jiném_'
'jel'
'jednolůžkový_'
'jednoduché_'
'jediné_'
'ively_'
'itel'
'ists_'
'inte'
'instance_'
'indicate_'
'imagine_'
'illi'
'ikan_'
'hydro'
'hrozbu_'
'hranici_'
'hotelov'
'homes_'
'hole_'
'hod_'
'hlás'
'hlavou_'
'hlav'
'heart'
'gym_'
'guaranteed_'
'gni'
'globálních_'
'globalizaci_'
'gin'
'geographical_'
'genuine_'
'fraud_'
'francouzské_'
'format_'
'firm'
'filled_'
'fault_'
'expert'
'exe'
'exclusively_'
'exception_'
'evropští_'
'eurozóně_'
'enz'
'enu'
'entities_'
'eno'
'elit'
'ekonomický_'
'ee_'
'eci'
'ease_'
'ea_'
'děl'
'dynami'
'dvoj'
'duties_'
'drž'
'dru'
'driver_'
'dočasn'
'dovednost'
'dotace_'
'doors_'
'don'
'domu_'
'dokument_'
'dodatečné_'
'dobr'
'dnem_'
'dn'
'dli'
'dla_'
'divi'
'disturb'
'display_'
'disket'
'diplomatic_'
'dez'
'desp'
'ders_'
'depending_'
'delivered_'
'delicious_'
'dek'
'decent_'
'dece'
'debates_'
'dcer'
'dala_'
'criticism_'
'credibility_'
'count_'
'coordinated_'
'contributions_'
'considering_'
'connections_'
'complicated_'
'complaint_'
'color_'
'coa'
'clu'
'cid'
'cht'
'chozí'
'cca'
'categories_'
'cancelled_'
'cab'
'bs'
'browser_'
'boom_'
'board'
'blíž'
'bill_'
'bezpečí_'
'bezpečnostních_'
'berk'
'base'
'balíčků_'
'ball_'
'bah'
'bag'
'awarded_'
'aw'
'autonom'
'audit'
'ass_'
'aside_'
'as'
'are'
'architektur'
'antivirus_'
'anc'
'analýzy_'
'americká_'
'ambiciózní_'
'allocation_'
'allocated_'
'allies_'
'alergiky_'
'ako'
'aka'
'agency_'
'adu_'
'adjusted_'
'adapt_'
'actors_'
'abi'
'Západu_'
'Wolf'
'Výroba_'
'Vl'
'Ven'
'Transport_'
'Syn'
'Sus'
'Stru'
'Spojenými_'
'Sorry_'
'Should_'
'Sac'
'ST_'
'Rec'
'Really_'
'RT'
'Příprav'
'Pěší_'
'Poté_'
'Pie'
'Paříž'
'Oxford_'
'Outdoor_'
'Oh'
'Ode'
'OU'
'Náš_'
'Nařízení_'
'Mur'
'Mol'
'Maxim'
'Market_'
'ME_'
'Lze_'
'Ky'
'Keynes_'
'Kel'
'Joe_'
'Jan_'
'Izraelem_'
'Invest'
'Image_'
'ID_'
'Hun'
'Hlasování_'
'HO'
'Gam'
'Food_'
'Firstly_'
'FI_'
'FA'
'Excel'
'Eng'
'ET_'
'EHP_'
'Done_'
'Di_'
'Den'
'Dad_'
'Cur'
'Copenhagen_'
'CS'
'Bio'
'Apartamentos_'
'Among_'
'Amendment_'
'Ada'
'AP'
'AI'
'="_'
'51_'
'1993_'
'0100'
'$_'
' €_'
'…_'
'’._'
'ты'
'žk'
'život'
'řeší_'
'ěny_'
'ěk'
'ěj'
'částka_'
'čov'
'články_'
'členem_'
'ýt_'
'útok_'
'úspěšně_'
'áty_'
'zásadu_'
'zákazu_'
'zotavení_'
'značn'
'zmr'
'zjištěn'
'zin'
'zho'
'zh'
'zdál'
'zařízen'
'začlenění_'
'zaručen'
'zaplatit_'
'zane'
'zabránil'
'zab'
'yer_'
'wm'
'wines_'
'whi'
'warp_'
'vš'
'většinou_'
'vývojář'
'výsledku_'
'výraz'
'výhrad'
'výhledem_'
'výborn'
'vyd'
'vrátí_'
'von_'
'vodní_'
'vl'
'vise'
'versions_'
'vers'
'velkého_'
'vedly_'
'variable_'
'vani'
'valuable_'
'vai'
'vad'
'uře_'
'učiněn'
'uvědomit_'
'uspořádání_'
'urč'
'upt'
'upper_'
'upn'
'uplatňovat_'
'universal_'
'ukončena_'
'uj'
'udržitelného_'
'udrž'
'těla_'
'typick'
'tras'
'tlaku_'
'tional_'
'tig'
'thereof_'
'therapy_'
'terrorists_'
'takovým_'
'síla_'
'systémem_'
'symbol_'
'středisk'
'stunning_'
'struktury_'
'struggle_'
'streets_'
'straight_'
'stop'
'sting_'
'stejnou_'
'statistics_'
'staro'
'ssion_'
'správu_'
'souhlasit_'
'soudního_'
'sophisticated_'
'solve_'
'sod'
'sní'
'slov'
'skrze_'
'sklo'
'ske'
'sive_'
'sit_'
'sing'
'silnic'
'sh'
'serves_'
'serveru_'
'senior_'
'sec'
'sděl'
'schopností_'
'scenario_'
'sav'
'saun'
'sar'
'san_'
'samostatn'
'rž'
'rusk'
'rus'
'rozvíjející_'
'rozhodování_'
'rf'
'revoluce_'
'rever'
'reso'
'rent_'
'rent'
'remind_'
'religion_'
'reliable_'
'rek'
'reces'
'realit'
'quer'
'přírodní_'
'přizpůsob'
'připravit_'
'připraveny_'
'přinese_'
'přijme_'
'přev'
'přesvědčen'
'předsed'
'pěkn'
'putting_'
'put'
'pt'
'prý_'
'právními_'
'prá'
'provádí_'
'provozní'
'protokolu_'
'prosazovat_'
'profile_'
'probíhá_'
'precise_'
'požár'
'požadavků_'
'pozor'
'pozice_'
'povinn'
'používán'
'potenciálu_'
'possibly_'
'poskytovatel'
'porovnání_'
'pomalu_'
'pomal'
'položky_'
'poho'
'podep'
'pobřeží_'
'platný'
'platby_'
'plain_'
'pilot_'
'picturesque_'
'phrases_'
'personally_'
'periods_'
'patro'
'pati'
'parlamentem_'
'paragraphs_'
'pap'
'pali'
'pale'
'pak'
'oživení_'
'oš'
'označení_'
'oy'
'ows_'
'ovi'
'ovaný_'
'oup'
'ote'
'ota_'
'orders_'
'operate_'
'operací_'
'opera'
'opatrn'
'oi'
'ohrožení_'
'oddělen'
'oby'
'obviously_'
'obsahující_'
'obnovy_'
'objemu_'
'obchodním_'
'obc'
'ník'
'návrat_'
'nárůst_'
'nápad_'
'náboženství_'
'nutnost_'
'novinář'
'notified_'
'nom'
'nge'
'nezávisl'
'ney_'
'neur'
'nesl'
'nepochybně_'
'nepl'
'neměly_'
'nemocn'
'nemo'
'nejpo'
'nedostatečn'
'nebe'
'našimi_'
'nač'
'nazva'
'navr'
'naturally_'
'napsal_'
'nan'
'namísto_'
'nalézt_'
'naléhavě_'
'místnosti_'
'myšlenku_'
'musejí_'
'mus'
'movements_'
'mene'
'mb'
'masa_'
'marin'
'lékař'
'lua'
'love'
'lot'
'losses_'
'lla_'
'lise_'
'lez'
'leg'
'ledn'
'led'
'lar'
'landscape_'
'lah_'
'kvalitu_'
'kurz'
'kurt_'
'kterými_'
'krátkodobé_'
'krásn'
'kraj'
'konce'
'kod'
'kne'
'klub'
'klimatických_'
'kl'
'jízd'
'jurisdiction_'
'jmenova'
'jd'
'jazyky_'
'jat'
'jak'
'interior_'
'ingu_'
'implies_'
'idl'
'husband_'
'hur'
'hranic_'
'hraje_'
'horší_'
'holidays_'
'hodiny_'
'hid'
'hazard'
'hat_'
'handle_'
'had'
'gov'
'god'
'globálním_'
'fur'
'funny_'
'frequency_'
'fou'
'fit_'
'fill_'
'fat'
'explained_'
'exists_'
'existenci_'
'examine_'
'evropská_'
'evo'
'eto'
'este'
'esta'
'esl'
'entertainment_'
'ens'
'enou_'
'engaged_'
'energetických_'
'energetickou_'
'enda'
'elo_'
'eli_'
'elektrické_'
'educational_'
'economically_'
'ebo'
'ead'
'důvěry_'
'důležitější_'
'dělají_'
'duch'
'držel'
'druh'
'dostali_'
'dopadů_'
'dopadu_'
'dobrého_'
'distribu'
'disciplin'
'digit'
'dic'
'destruction_'
'deriv'
'deploy'
'denní_'
'defin'
'defence_'
'decisive_'
'dating_'
'dalo_'
'ct'
'correctly_'
'contradict'
'condemn'
'conclude_'
'civilní_'
'chi'
'cher'
'char'
'certificate_'
'cenov'
'cate'
'calculated_'
'býval'
'bytost'
'bran'
'brain_'
'bomb'
'bohaté_'
'boat_'
'bi_'
'besar_'
'bere'
'bedrooms_'
'bedding_'
'barriers_'
'azi'
'aven'
'ave'
'ates_'
'ata_'
'assume_'
'ase'
'argumenty_'
'arch'
'ara_'
'anywhere_'
'announced_'
'angl'
'aga'
'advertising_'
'adult_'
'Working_'
'Wen'
'We'
'Věřím_'
'VE_'
'Under_'
'UN'
'Tell_'
'Tam_'
'Sy'
'Swiss_'
'Suites_'
'Spa'
'Show_'
'Shops_'
'Scotland_'
'Ros'
'Robert_'
'Rest'
'Reserve_'
'Ram'
'Qui'
'Právní_'
'Prom'
'Program_'
'Pres'
'Post'
'Poly'
'Polsko_'
'Podívej_'
'Plu'
'Pil'
'Paul'
'Palestine_'
'Obl'
'Obamov'
'Oba_'
'OP_'
'Německa_'
'Nové_'
'Ner'
'Neo'
'Nemůžeme_'
'Nea'
'Naproti_'
'NG'
'NA_'
'Máte_'
'Moscow_'
'Mercure_'
'Mars'
'Mami_'
'Maastricht_'
'Los_'
'Lod'
'Leto'
'Let'
'Las_'
'Kur'
'Kol'
'Kha'
'Jesus_'
'Jenom_'
'Jack'
'Int'
'Installation_'
'Il'
'IM'
'Hostel_'
'Hor'
'Golfové_'
'Give_'
'G20_'
'Fun'
'Frontex_'
'Free'
'Fra'
'Form'
'Finanční_'
'Fe'
'FE'
'Existují_'
'Employment_'
'EL'
'EI'
'EEA_'
'EA'
'Domini'
'Dobrý_'
'Data_'
'Cyprus_'
'Cast'
'Big_'
'Belarus_'
'Barb'
'Bah'
'BER'
'Ay'
'Association_'
'Asi'
'Ale'
'Afghanistan_'
'Af'
'? '
'700_'
'69'
'58'
'52'
'44'
'38'
'191'
'130_'
' –'
'“ – _'
'ст'
'ж'
'žá'
'žd'
'ůsta'
'ůd'
'říkají_'
'řil_'
'řešením_'
'řel'
'řek'
'ředn'
'řed'
'ěř'
'ěna_'
'čtvrtin'
'černo'
'ček_'
'ča'
'Če'
'úmyslu_'
'úkolů_'
'úkoly_'
'úh'
'íva'
'ítá'
'íti'
'íků_'
'ík'
'ída'
'és_'
'él'
'áč'
'ával'
'ást'
'Á_'
'´_'
'získa'
'závod'
'závazn'
'zásob'
'zás'
'zák'
'zábav'
'zvyšování_'
'zvolen'
'zra'
'zovat_'
'zobrazen'
'zničen'
'změněn'
'zl'
'zk'
'zhroucení_'
'zdrav'
'zařazení_'
'zaznamenal'
'zaslouží_'
'zaměstnanci_'
'zajišťuje_'
'zachránit_'
'zabij'
'zabezpeč'
'ysl'
'youth_'
'yk'
'xt'
'xo'
'widespread_'
'vůdce_'
'vů'
'věz'
'výzvu_'
'významn'
'vzhůru_'
'vyř'
'vyvinul'
'využit'
'vystoupení_'
'vypu'
'vyloučen'
'vyhlídk'
'vych'
'vrt'
'volný_'
'vodu_'
'vlastnosti_'
'visible_'
'virtually_'
'violent_'
'vil'
'venkova_'
'vary_'
'vag'
'uštěn'
'uvedený_'
'utility_'
'usti'
'určitý_'
'určitá_'
'určena_'
'ung_'
'ung'
'uncon'
'uncertainty_'
'událostí_'
'ubo'
'těn'
'tz_'
'ture_'
'tube_'
'trvalé_'
'trestní'
'trestné_'
'tran'
'tlačítko_'
'tit_'
'til_'
'threatened_'
'thinks_'
'terminal_'
'tep'
'temp'
'technika_'
'teaching_'
'tar_'
'tant'
'tank'
'tang'
'tand'
'takový'
'svoji_'
'surface_'
'supplement'
'suddenly_'
'středních_'
'stv'
'studené_'
'stud'
'strengthened_'
'strange_'
'sto_'
'stick_'
'stejným_'
'stanoven'
'správní_'
'spot_'
'společenstvím_'
'současnou_'
'sousední'
'souhlasím_'
'sor'
'sněmovně_'
'službách_'
'skoro_'
'sili'
'side'
'sick_'
'showing_'
'sending_'
'segment'
'seconds_'
'secara_'
'seats_'
'sea'
'schopna_'
'schopn'
'savings_'
'saving_'
'sakra_'
'různými_'
'rva'
'rok'
'roads_'
'rn_'
'riz'
'rit'
'risk'
'respective_'
'resolutions_'
'reserves_'
'reserve_'
'reo'
'renewed_'
'ren_'
'remote_'
'rel'
'registr'
'regionech_'
'referenční_'
'ree'
'red'
'raci'
'quota_'
'quis'
'quarters_'
'přístupem_'
'příslušn'
'přípravky_'
'přímé_'
'přím'
'přizpůsobit_'
'přitažliv'
'přistěhovalců_'
'připraven_'
'připomenout_'
'přip'
'přem'
'přej'
'předkláda'
'přechod_'
'pře'
'pushed_'
'psa'
'proz'
'proud'
'prospects_'
'prosinci_'
'producer_'
'považovat_'
'potřeb_'
'potenciální_'
'potenciál_'
'posílil'
'postih'
'postav'
'posilování_'
'pora'
'poly'
'pokláda'
'podporou_'
'podat_'
'pochází_'
'pochopitelně_'
'plod'
'pleasure_'
'pevně_'
'parlamentní_'
'parametr'
'parameters_'
'papers_'
'panoramic_'
'očekáva'
'owe'
'ověř'
'ovlivn'
'ovan'
'otevření_'
'otevřené_'
'osu'
'ork'
'orienta'
'op_'
'olí'
'okr'
'offs'
'odpovědn'
'odmítl'
'odhal'
'odhad'
'obět'
'občan'
'obyvatele_'
'obsa'
'obnovitelné_'
'obnov'
'objevil_'
'objev'
'obil'
'níci_'
'nář'
'náv'
'nárok'
'náprav'
'náhrad'
'náboženské_'
'ntra'
'nted_'
'novin'
'north_'
'nobody_'
'nke'
'nin'
'nick'
'nge_'
'nevyhnuteln'
'neuro'
'nesses_'
'nerovnost_'
'nejdůležitější_'
'nejd'
'nef'
'nedokáže_'
'nder_'
'našim_'
'naznačuje_'
'nano'
'naléhav'
'nahoru_'
'nahl'
'nacházejí_'
'nabíd'
'mírn'
'myslet_'
'museli_'
'mpe'
'mount'
'module_'
'mluv'
'miz'
'ministr_'
'ministers_'
'mimo'
'mezer'
'medi'
'mechanismus_'
'mate'
'match_'
'lur'
'lst'
'logick'
'logical_'
'llo'
'live'
'line'
'limit'
'lights_'
'legislativní_'
'legally_'
'lati'
'laboratoř'
'káv'
'krátko'
'krv'
'kro'
'koč'
'kousek_'
'korupce_'
'kontra'
'konal'
'kom'
'kolegy_'
'klíčovou_'
'kladn'
'kin'
'kil'
'keys_'
'kdykoliv_'
'kc'
'karty_'
'kampaně_'
'kabel'
'jímž_'
'jní'
'jmen'
'jist'
'jednacího_'
'jdeme_'
'jam'
'iční_'
'ization_'
'ismu_'
'involve_'
'invest'
'institucionální_'
'ino'
'ini'
'informován'
'informa'
'individuální_'
'incomes_'
'incentive_'
'ils_'
'ile_'
'iklim_'
'ignore_'
'iga'
'ido'
'identit'
'identical_'
'ický_'
'ib'
'humanity_'
'hoř'
'hotelů_'
'hodin'
'hmotnostních_'
'hlo'
'hlasů_'
'het_'
'hem_'
'hate_'
'harmonisation_'
'hang'
'handling_'
'gá'
'governmental_'
'gne'
'functional_'
'frequently_'
'flow_'
'finished_'
'financ'
'filtr'
'fate_'
'falls_'
'failures_'
'facility_'
'faces_'
'eň'
'exporte'
'explo'
'exit_'
'exa'
'evi'
'ese'
'escape_'
'ents_'
'eni_'
'engage_'
'energetiky_'
'enci'
'emp'
'eliminate_'
'elektřiny_'
'ekonomickou_'
'edge_'
'ed'
'economist_'
'eb_'
'eas'
'děj'
'duše'
'držitel'
'dryer_'
'drugs_'
'drobn'
'dress'
'dové'
'dovolte_'
'dosáhl_'
'dostupn'
'dospěl'
'dokončení_'
'dodávky_'
'dnech_'
'diskutovat_'
'dishes_'
'disc'
'dimension_'
'dig'
'destabiliz'
'dere'
'depo'
'damn_'
'dali_'
'cry'
'crat'
'covers_'
'cot'
'conventional_'
'conveniently_'
'conv'
'controlled_'
'contr'
'continent_'
'constitutional_'
'constitution_'
'constantly_'
'constant_'
'computers_'
'competence_'
'combating_'
'clothes_'
'cli'
'classes_'
'claimed_'
'ckou_'
'chod'
'ching_'
'chen_'
'cet'
'cestující_'
'certainty_'
'centrálních_'
'celní_'
'cell_'
'celkový_'
'cast'
'cad'
'běh'
'bývá_'
'bývalé'
'bow'
'boj'
'boh'
'bla'
'bir'
'bij'
'bb'
'bagi_'
'ačkoli_'
'award_'
'autobus'
'authorised_'
'aus'
'ateln'
'aspekty_'
'aso'
'arte'
'aries_'
'argu'
'archive'
'appro'
'applying_'
'ande'
'amin'
'americkou_'
'amen'
'agents_'
'aged_'
']]'
'Západ_'
'Zná'
'Zem'
'Without_'
'Which_'
'Water'
'Wan'
'Though_'
'Thailand_'
'Tenisový_'
'Takové_'
'TH'
'Spi'
'Slov'
'Slo'
'Simpl'
'Ser'
'Secretary_'
'SMEs_'
'Rule_'
'Rozprava_'
'Ret'
'Regula'
'Rece'
'Quality_'
'Qua'
'Ping_'
'Para'
'Pam'
'PL'
'Or'
'Oddíl_'
'OS_'
'ON'
'OM'
'Něco_'
'Násled'
'NC'
'Mis'
'Milan_'
'Mid'
'MS_'
'Lisboa_'
'Lisabonskou_'
'License_'
'Lev'
'Lau'
'Krytý_'
'Kom'
'Kan'
'Jane'
'JE'
'It'
'Informace_'
'IBM_'
'Hungary_'
'Holy_'
'Holiday_'
'Hl'
'Harry_'
'Gru'
'Gor'
'GUE_'
'GM'
'Funds_'
'For'
'FC'
'Eli'
'Ei'
'EG'
'Dor'
'Doh'
'Director_'
'Department_'
'Democratic_'
'DC_'
'Course_'
'Cha'
'Carlo'
'CIA_'
'CH'
'Bez'
'Bay'
'BL'
'Available_'
'Aug'
'Asie_'
'Ari'
'Arabia_'
'Applause_'
'App'
'About_'
'84_'
'76_'
'70'
'53'
'47'
'36'
'200'
'19th_'
'178'
'03'
',' _'
'*'
') – _'
' – – – _'
' – – _'
' °_'
'” – _'
'žu'
'žn'
'žit_'
'ťov'
'špatný'
'šp'
'šku_'
'široké_'
'širok'
'še_'
'Španělsku_'
'řil'
'řej'
'ěla_'
'čt'
'článků_'
'čk'
'ýho_'
'ústavy_'
'úprav'
'újm'
'íránské'
'íd'
'ék'
'álního_'
'ále_'
'áda'
'É'
'zvlášť_'
'ztratil'
'zrcadl'
'zo_'
'znepokojiv'
'znam'
'znal'
'zmínil_'
'zku'
'zdroji_'
'zbytečn'
'zavol'
'zat_'
'zapa'
'zaměřit_'
'zaměřil'
'založena_'
'zaj'
'zahájil'
'xin'
'wer_'
'watching_'
'warrant'
'většího_'
'včera_'
'výživ'
'vývozu_'
'výst'
'výhled_'
'víz'
'vého_'
'vážné_'
'vzala_'
'vyžadoval'
'vyzv'
'vyvážen'
'využívá_'
'vytvářejí_'
'vytvoří_'
'vystav'
'vypadal'
'vyhrazen'
'vyhl'
'vydáva'
'voličů_'
'voliči_'
'voices_'
'vnitro'
'vln'
'vhodná_'
'veřejnost_'
'vesmíru_'
'verz'
'vent'
'velko'
'velikosti_'
'vedením_'
'vec'
'vašich_'
'uvolněn'
'uveden'
'uto'
'určených_'
'urn'
'upu'
'ups'
'upozornit_'
'upozornil_'
'uplatňován'
'uplatnění_'
'upa'
'univerzit'
'units_'
'unce'
'ulici_'
'uka'
'uhlíku_'
'udržel'
'ude_'
'ube'
'těmi_'
'tý_'
'té'
'tun_'
'tric'
'trib'
'tree_'
'transmission_'
'transform_'
'traditions_'
'tourists_'
'tos'
'tone_'
'tl'
'tisku_'
'throw_'
'thro'
'thousand_'
'texts_'
'tc'
'talent'
'tag'
'tableta_'
'sán'
'syn'
'světovou_'
'svá'
'svaz'
'survive_'
'surprised_'
'supplied_'
'super_'
'suggests_'
'suggestions_'
'suggested_'
'subsequent_'
'subjektů_'
'stylu_'
'stupid_'
'studied_'
'stránku_'
'stru'
'strict_'
'stream'
'stranami_'
'stolu_'
'stl'
'stem_'
'stee'
'statut'
'statistick'
'state'
'srpna_'
'squa'
'správná_'
'společn'
'spoj'
'splnění_'
'současného_'
'soustavy_'
'soukromý_'
'soukromého_'
'soud'
'sort'
'solely_'
'softwaru_'
'sociálním_'
'směs'
'smu_'
'smrt_'
'slowly_'
'sledoval'
'skryt'
'sklen'
'sister_'
'shr'
'serving_'
'sedm_'
'schedule_'
'scape'
'satisfied_'
'rv'
'ruš'
'rozšiřování_'
'rozpravu_'
'rozhodující_'
'rovnováhu_'
'rovno'
'rodiče_'
'robust_'
'rie'
'resp'
'reno'
'relief_'
'relie'
'relevance_'
'reformá'
'reforma_'
'reb'
'reaction_'
'rdin'
'ram'
'raf'
'qualified_'
'přínosy_'
'přinesl'
'přesvědčiv'
'přehled_'
'předem_'
'přede'
'pěl'
'publik'
'pub'
'prověř'
'provozovatel'
'proved_'
'proto'
'prospě'
'propagand'
'pronik'
'projev_'
'professionals_'
'profesionální_'
'prof'
'produktivity_'
'problémům_'
'prisoners_'
'priorit_'
'priorit'
'princip'
'preparing_'
'pravidelně_'
'pracují_'
'pracovního_'
'požad'
'pozd'
'použitelné_'
'použije_'
'pour_'
'potíže_'
'potvrdil'
'potlač'
'poli_'
'pok'
'pohyb_'
'pohr'
'pohodě_'
'pohled'
'podáva'
'podvod'
'podpis'
'pochopení_'
'poblíž_'
'plnou_'
'pleas'
'pie'
'pers'
'performed_'
'perform_'
'pent'
'pena'
'pen_'
'pas_'
'partitions_'
'parliament_'
'paradox'
'panem_'
'panel_'
'ovsk'
'outstanding_'
'ose'
'ors'
'orde'
'ord'
'opustit_'
'oo_'
'oná'
'olo'
'odsud_'
'odr'
'odpověděl_'
'occur_'
'obsahem_'
'obraz_'
'obrany_'
'obr'
'obn'
'objevil'
'nějších_'
'něj'
'ně'
'nému_'
'následky_'
'nákladní_'
'náct'
'notification_'
'noti'
'nost'
'nimž_'
'nil'
'night'
'nia_'
'nezávislosti_'
'nese_'
'nese'
'ners_'
'nerovnosti_'
'nepřiměřen'
'nepom'
'nemáme_'
'nemohl_'
'největších_'
'nejs'
'nee'
'nedal'
'nebezpečné_'
'naším_'
'načas'
'naz'
'nasta'
'místem_'
'myšlenky_'
'myšlen'
'muslim'
'mouth_'
'moc'
'mobiliz'
'mnoho'
'mirror_'
'mimořádn'
'mes'
'mechanic'
'mask'
'manufacturing_'
'manu'
'maj'
'lídr'
'líbí_'
'luck_'
'loni_'
'literary_'
'lidského_'
'liber'
'lets_'
'lesson_'
'lde'
'laugh'
'lan_'
'kut'
'krat'
'kra'
'kouř'
'kompromisu_'
'kolektivní_'
'koho_'
'klá'
'kce_'
'kariér'
'jídlo_'
'jih'
'jen'
'jednáních_'
'jednotného_'
'jednak_'
'jasná_'
'ičk'
'izraelský'
'isation_'
'irre'
'ion'
'iná'
'investovat_'
'invasion_'
'introduce_'
'intentions_'
'intention_'
'innovative_'
'informovat_'
'ines_'
'induce'
'implications_'
'ických_'
'ickou_'
'ich'
'ice'
'háj'
'hurt_'
'hung'
'huh_'
'hovoří_'
'horn'
'home'
'hit'
'hezk'
'hav'
'gun'
'grown_'
'gotta_'
'gos'
'gn'
'ghts_'
'gar_'
'gant'
'gained_'
'fus'
'fulfill'
'fte'
'forest_'
'ford_'
'finish_'
'fini'
'financed_'
'favor_'
'fat_'
'fashion_'
'fakt'
'facilitat'
'extremist'
'experiences_'
'ev_'
'ete'
'está'
'esc'
'eov'
'env'
'entries_'
'engine_'
'endo'
'encouraging_'
'encounter'
'empty_'
'employ'
'elli'
'elect'
'ební_'
'děl_'
'dávají_'
'dán'
'dry_'
'druhého_'
'doporučuje_'
'domě_'
'domácností_'
'doklad'
'dohromady_'
'dodržovat_'
'dluhů_'
'diskriminaci_'
'disk'
'disabled_'
'deva'
'desetiletích_'
'deposit_'
'depart'
'dens'
'demo'
'defini'
'datem_'
'cítí_'
'cted_'
'cr_'
'coordinat'
'consonant'
'conformity_'
'coc'
'clause_'
'classification_'
'chv'
'centr'
'cat'
'career_'
'bíl'
'bydliště_'
'budovy_'
'budoucích_'
'bright_'
'blue_'
'blow'
'bing_'
'bezplatné_'
'barv'
'barely_'
'bail'
'ačn'
'aya'
'avoiding_'
'aver'
'audit_'
'ature_'
'attribute'
'att'
'asu'
'association_'
'asn'
'arti'
'arm'
'apo'
'aplikace_'
'api'
'alcohol_'
'ake'
'aha'
'adverse_'
'accounting_'
'accompanied_'
'absolute_'
']] '
'Zr'
'Zh'
'Zde_'
'Zab'
'ZA'
'William_'
'Web'
'Vždyť_'
'Vážně_'
'Vá'
'Vys'
'Vypad'
'Valley_'
'US'
'Turecká_'
'Tur'
'Tou'
'Torre'
'Ti_'
'Three_'
'TR'
'TM'
'TE_'
'Sud'
'Studies_'
'Stud'
'Step'
'Smlouv'
'Slovakia_'
'Sir_'
'Sad'
'Ráda_'
'Roc'
'Rem'
'Red'
'Rai'
'Pá'
'Prod'
'Procedure_'
'Poznámka_'
'Potlesk_'
'Posl'
'Portuguese_'
'Pomoc'
'Plan_'
'Pho'
'Person'
'PI'
'Odpověď_'
'OLAF_'
'OECD_'
'Nevím_'
'Nen'
'Nejv'
'Nedávn'
'Nech_'
'Nan'
'Namísto_'
'Name_'
'NS'
'Mohl_'
'Mnozí_'
'Metro_'
'Mark_'
'Manuel_'
'MM'
'MB_'
'Len'
'Lam'
'Kulečníky_'
'Kir'
'Ker'
'Kata'
'Kanad'
'Kal'
'Juli'
'Jewish_'
'Jem_'
'James_'
'Institute_'
'Inst'
'Innsbruck_'
'Industrial_'
'IO'
'IE'
'Hlavní_'
'Heathrow_'
'Head'
'Hall_'
'Games_'
'Galileo_'
'Fri'
'Fre'
'Fort'
'Fle'
'Fer'
'Excuse_'
'Ever'
'Environment_'
'Ea'
'Dri'
'Dominion_'
'Does_'
'Dej_'
'Dea'
'Cílem_'
'Could_'
'Conc'
'Comfort_'
'Chtěla_'
'CL'
'Bosn'
'Bis'
'Bill_'
'Berna'
'Bell'
'Bast'
'Baltic_'
'Bak'
'Australia_'
'Argentin'
'Arabic_'
'Abychom_'
'ALDE_'
':'
'80'
'2016_'
'189'
'180_'
'05'
'.” _'
')?_'
'牌'
'。_'
'’, _'
'’)'
'ө'
'ны'
'д'
'ба'
'žil_'
'ženami_'
'žeb'
'šv'
'ště_'
'štin'
'španělsk'
'Ši'
'řík'
'řetězc'
'Řím'
'ěd'
'činit_'
'červ'
'čehož_'
'Čínou_'
'ýt'
'ün'
'úřední'
'úzk'
'útoky_'
'útoku_'
'ústřední_'
'ústavní_'
'úmrtí_'
'úlo'
'íčk'
'ít'
'éd'
'éa'
'ánsk'
'ály_'
'ál'
'ák_'
'Írán'
'Ã_'
'­_'
'}}'
'závislost_'
'zástupci_'
'západ'
'záleží_'
'zvýšila_'
'ztr'
'zrak'
'zpoplatněn_'
'zní'
'znečištění_'
'znalosti_'
'změnou_'
'zkoušk'
'zka'
'zie'
'zem_'
'zdůrazňuje_'
'zdravotnické_'
'zdo'
'začnou_'
'zastavení_'
'zaručit_'
'zapomínat_'
'zabývá_'
'yč'
'you'
'xov'
'wood_'
'wishes_'
'win'
'wear_'
'weaken'
'wave_'
'wan_'
'věřit_'
'věk'
'vědecké_'
'výt'
'výměnou_'
'vým_'
'výk'
'výjimečn'
'výhradně_'
'výbor'
'vál'
'vzácn'
'vzdát_'
'vzduchu_'
'vyvolan'
'vysílání_'
'vypad'
'vyma'
'vyhod'
'vyhn'
'vydan'
'vně_'
'vnitřního_'
'vize_'
'viděli_'
'vidí_'
'vele'
'vej'
'učinil'
'uzl'
'uzavření_'
'uzavřel'
'ute'
'usilovat_'
'ura_'
'ups_'
'uprchlíků_'
'unnecessary_'
'unilateral'
'uniform'
'underlying_'
'ulan'
'ukov'
'uce'
'uat'
'uar'
'tříd'
'těší_'
'twenty_'
'tuh'
'tua'
'tto'
'tribun'
'tria'
'translator_'
'transfer'
'tradic'
'torture_'
'tobacco_'
'time'
'tie'
'thou'
'there'
'teorie_'
'tely_'
'teg'
'technických_'
'technic'
'taxation_'
'tation_'
'tape_'
'tali'
'talent_'
'syno'
'svět'
'svoboda_'
'suverénní'
'sustainability_'
'sum_'
'suffer_'
'středo'
'stě'
'stylov'
'stupn'
'stráž'
'stránkách_'
'stručn'
'strategick'
'stories_'
'stické_'
'stejného_'
'stejn'
'starts_'
'stanovil'
'stance_'
'stal'
'stain'
'spring_'
'spravedlivé_'
'spotřebu_'
'spotřebitelé_'
'spor'
'spis'
'sphere_'
'speciální_'
'specialist'
'spat'
'současném_'
'souhrn'
'somehow_'
'sníží_'
'sni'
'snažil_'
'službami_'
'slouží_'
'skončil'
'skl'
'siln'
'sheet_'
'sharp_'
'sever'
'sest'
'semen'
'see'
'secret_'
'sco'
'sankcí_'
'sake_'
'ráv'
'rám'
'rve'
'ruský'
'rum'
'rue_'
'rozšířil'
'rozvíjet_'
'rozpravě_'
'roo'
'román'
'roj'
'rodič'
'rodina_'
'riti'
'revolution_'
'resid'
'representing_'
'report'
'repeatedly_'
'rem_'
'released_'
'rega'
'refused_'
'rear'
'raž'
'rab'
'quotas_'
'qu'
'q_'
'q'
'původním_'
'půdu_'
'příštím_'
'přístroje_'
'příspěvky_'
'přišli_'
'přik'
'přijímá'
'přijm'
'přijatých_'
'přijaté_'
'přij'
'přihl'
'přesvědčena_'
'přerušení_'
'přen'
'překonat_'
'předk'
'pěti'
'pák'
'pád'
'pull'
'pte'
'pta'
'právnick'
'provoz'
'prospěšn'
'propr'
'productive_'
'produ'
'proces'
'prince'
'prete'
'preliminary_'
'preferences_'
'preceden'
'požádal_'
'pověřen'
'povede_'
'považován'
'povahu_'
'potěšen'
'pota'
'poplatek_'
'pong_'
'pomohl'
'položka_'
'pollution_'
'pole'
'pola'
'pokut'
'pokračuje_'
'poj'
'podílu_'
'podíl'
'podporuji_'
'poc'
'plenty_'
'plenary_'
'plan'
'pk'
'pira'
'pesticides_'
'pes'
'perubahan_'
'permission_'
'path'
'parlament'
'parku_'
'padn'
'packe'
'oč'
'ovo_'
'ovaná_'
'ouš'
'ouch'
'ouc'
'osl'
'orm'
'ordered_'
'or'
'oleh_'
'oldest_'
'okolnosti_'
'oke'
'ody_'
'odt'
'odpovědět_'
'odkaz'
'odd'
'odborné_'
'odb'
'oda'
'obsluh'
'obsažen'
'obrazovk'
'obrat'
'obor'
'obchodního_'
'národ'
'num'
'nto'
'nova'
'norem_'
'noi'
'nko'
'nka_'
'nis_'
'nezp'
'neznám'
'news'
'nevě'
'nevládní'
'nestabilit'
'nesk'
'nerv'
'nepřátel'
'neop'
'nel'
'nejspíš_'
'nejsem_'
'nedostatky_'
'nedokázal'
'nechal_'
'nec'
'nařízením_'
'navzájem_'
'navrhla_'
'nastol'
'nakl'
'městech_'
'místech_'
'myšlenka_'
'mount_'
'modely_'
'missing_'
'miss_'
'minorities_'
'metra_'
'menjadi_'
'memper'
'mechanismu_'
'mateřsk'
'masov'
'masi'
'manufacturer_'
'malá_'
'malaria_'
'magnificent_'
'macroeconomic_'
'lž'
'lídři_'
'lun'
'luc'
'lt_'
'loud'
'losing_'
'lm'
'listin'
'license_'
'liberál'
'letters_'
'lení_'
'lej'
'legitim'
'las'
'kurzu_'
'kulturní'
'kti'
'koupeln'
'konzum'
'kontrolní_'
'konte'
'konkurence_'
'komunikační_'
'komodit_'
'kok_'
'kni'
'klient'
'klad'
'kl_'
'kinds_'
'kick'
'kartu_'
'já'
'jmenován'
'jm'
'jednotlivce_'
'jednal'
'jedn'
'japonsk'
'ič'
'ive'
'itt'
'ition_'
'iona'
'inva'
'intra'
'interpreted_'
'intern'
'intend_'
'integra'
'insufficient_'
'init'
'infrastruktura_'
'informoval'
'inform'
'indic'
'indi'
'inci'
'inan'
'ilu'
'ika'
'ically_'
'hád'
'há'
'humans_'
'hub'
'hova'
'hotov'
'hospodářském_'
'horizont'
'hop'
'hood_'
'honest_'
'holo'
'hodnotě_'
'hodnocen'
'hlubší_'
'hlasoval_'
'hir'
'hind'
'hide_'
'heritage_'
'heavily_'
'healthy_'
'han'
'habit'
'gues'
'governing_'
'gift_'
'gea'
'gam'
'fáze_'
'fundamental'
'fulfil_'
'francouzsk'
'franc'
'fold'
'fel'
'federal_'
'failing_'
'facto_'
'eční_'
'extract'
'expenses_'
'expe'
'examination_'
'etic'
'estr'
'esti'
'est'
'eren'
'eným_'
'enn'
'enemy_'
'enabling_'
'ella_'
'ekonomové_'
'ekologické_'
'eko'
'earth_'
'dřív_'
'dunia_'
'dule'
'dul'
'dsk'
'drog'
'drives_'
'doz'
'dotaz'
'dosáhli_'
'dostalo_'
'dod'
'dluhy_'
'distributed_'
'dismiss'
'discre'
'disasters_'
'dil'
'description_'
'describe_'
'deni'
'delší_'
'delegace_'
'deb'
'databáze_'
'dapat_'
'cycle_'
'customer_'
'convention_'
'constructive_'
'considerably_'
'consequence_'
'conc'
'complement'
'complain'
'colour'
'color'
'college_'
'coast_'
'cháp'
'chorob'
'choices_'
'ches_'
'centers_'
'cens'
'causing_'
'calm_'
'bov'
'bos'
'bojov'
'blocks_'
'bitv'
'beneficial_'
'believes_'
'baro'
'bankou_'
'band'
'bai'
'badly_'
'ařsk'
'ačkoliv_'
'automati'
'atur'
'ark'
'arin'
'aren_'
'appearance_'
'anyway_'
'anou_'
'amp_'
'ament'
'alism'
'aktiva_'
'akci_'
'afford_'
'adresář'
'adaptation_'
'adapta'
'act'
'acquis_'
'acknowledge_'
'ack'
'accomplish'
'Zp'
'Zas'
'WI'
'Vaš'
'VAT_'
'Using_'
'Turk'
'Trump_'
'Trans'
'Tol'
'Tok'
'Tibet'
'Third_'
'Tam'
'Tak'
'Subs'
'Steam_'
'Stay_'
'Správn'
'Space_'
'Slovak_'
'Sie'
'Sea'
'Sca'
'Sai'
'STA'
'Robert'
'Rob'
'Rev'
'Republican_'
'Přesně_'
'Pákistánu_'
'Program'
'Poz'
'Port_'
'Poh'
'Parní_'
'Pal'
'PAR'
'Online_'
'NÍ_'
'Ned'
'Nakonec_'
'Myslel_'
'Mun'
'Mon_'
'Mode'
'Michael_'
'Meanwhile_'
'Made'
'MT'
'Lisabonská_'
'Limit'
'Leh'
'Ká'
'Korej'
'Komp'
'Kodani_'
'Kare'
'KE'
'Jos'
'Již_'
'Japonsku_'
'Jakmile_'
'Ira'
'Indoor_'
'IL'
'Hotel'
'Hei'
'Got_'
'Gazy_'
'Gardens_'
'Fla'
'Five_'
'Finsko_'
'Finland_'
'Father_'
'Evropou_'
'Eu'
'EU'
'EP'
'Die_'
'DP'
'Cro'
'Cre'
'Computer_'
'Cohesion_'
'Charlie_'
'Catholic_'
'Cannes_'
'CF'
'Bou'
'Belgium_'
'Barr'
'Balkán'
'Balkans_'
'Bag'
'BS'
'BB'
'Aust'
'Angel'
'Alt'
'Alp'
'Akt'
'Airlines_'
'Aid_'
'Abb'
'AKT_'
'AG'
'84'
'55'
'49'
'1979_'
'125_'
', ...'
') ( _'
' = _'
' + _'
'’'
'сы'
'živo'
'žadatel'
'šíř'
'ším'
'štít'
'šl'
'řát'
'řez'
'Řecka_'
'Ř'
'ňující_'
'ěš'
'ěn_'
'ědom'
'čerstv'
'čeho_'
'časopis'
'Čínu_'
'účastník'
'územní_'
'úvěry_'
'úvěrov'
'ústup'
'úmysl'
'údaj'
'ön'
'ña_'
'ñ'
'íli'
'éře_'
'éc'
'átu_'
'átory_'
'áně'
'álu_'
'áli'
'Úp'
'zůstanou_'
'zích_'
'závažn'
'zásad'
'zájmem_'
'zájm'
'zvýšil_'
'zvyšují_'
'zuje_'
'zpravodaji_'
'známý'
'zlom'
'zlato_'
'zil'
'zeptat_'
'zeptal_'
'zdanění_'
'zbývá_'
'zba'
'zažil'
'zavaz'
'zaujmout_'
'zastoupen'
'zaměstnavatel'
'založen'
'zakr'
'zahájen'
'zacháze'
'yme'
'yed_'
'xt_'
'wl'
'with'
'wild_'
'wi'
'welcomes_'
'we'
'wast'
'wal'
'vědeckých_'
'včas_'
'vývozc'
'výnos'
'výlučně_'
'výkon_'
'výjim'
'východu_'
'východ_'
'vážn'
'vztazích_'
'vzdálenost_'
'vyřešení_'
'vyz'
'vyvolává_'
'vysokých_'
'vysoký_'
'vysokého_'
'vyrovná'
'vyloučení_'
'vul'
'vrstv'
'vor'
'volně_'
'vojáků_'
'vliv'
'visited_'
'viděla_'
'veřejný_'
'vesnic'
'ves'
'vegetables_'
'vedlejší_'
'vc'
'valn'
'užívání_'
'učn'
'učit_'
'učinila_'
'usu'
'usly_'
'usiluje_'
'určit_'
'uro'
'unl'
'university_'
'ukr'
'udělen'
'udi'
'uct'
'třemi_'
'třech_'
'těš'
'tábor'
'twentieth_'
'tváří_'
'tvorby_'
'turns_'
'turistick'
'tt'
'trvá_'
'trick'
'trest'
'trat'
'transformation_'
'transakce_'
'tragedy_'
'touh'
'tolerance_'
'tlač'
'tisíce_'
'tionary_'
'tiona'
'tich'
'theo'
'terorismus_'
'teprve_'
'tenhle_'
'teln'
'tari'
'targeted_'
'tain'
'syn_'
'switch_'
'swe'
'světových_'
'svobodné_'
'svi'
'subway_'
'subt'
'subsid'
'subjects_'
'střed'
'strukturálních_'
'strachu_'
'stock'
'statistik'
'statistical_'
'standard'
'stabiliz'
'ssion'
'správnou_'
'spravedliv'
'společenské_'
'spektr'
'spect'
'spar'
'současných_'
'soupeř'
'sounds_'
'soudů_'
'soudy_'
'soudnictví_'
'soudc'
'somebody_'
'some'
'solve'
'solar_'
'snes'
'snažili_'
'směr_'
'smile'
'smart_'
'slyšet_'
'slov_'
'sleduj'
'slavn'
'skutečná_'
'siti'
'shoot'
'setup_'
'selecti'
'sedm'
'schools_'
'sběr'
'sand'
'rý'
'rání_'
'rád'
'rychl'
'rybář'
'rtain'
'rta'
'rse'
'rozvíjejících_'
'rozvr'
'rozumě'
'rozs'
'rozpočtov'
'rozdělen'
'rozděl'
'rozdíln'
'row_'
'rovnost_'
'rou_'
'roll_'
'returns_'
'restru'
'restaura'
'respond'
'regulators_'
'register_'
'regionálních_'
'reflects_'
'refle'
'refers_'
'referring_'
'rede'
'recover'
'receives_'
'rav'
'rai'
'radio'
'původně_'
'původ'
'příslušný_'
'příslušník'
'příručk'
'přírodních_'
'přínos'
'přiv'
'přistoupení_'
'přispívá_'
'přeč'
'přesvědčeni_'
'přesvědč'
'překroč'
'přejí'
'představ'
'předs'
'předpo'
'publish'
'ption_'
'proš'
'provinci'
'prosperit'
'proposing_'
'program'
'profil'
'producent'
'prodloužení_'
'procent'
'proc'
'prim'
'pride_'
'prevention_'
'prefer_'
'pravděpodobné_'
'prací_'
'poškození_'
'pozorovatel'
'pově'
'použiteln'
'potřeboval'
'postavit_'
'posil'
'poradenství_'
'poradc'
'por_'
'popula'
'ponechán'
'politic'
'politi'
'pokyn'
'pohyb'
'podstatné_'
'podrobn'
'podr'
'podporovan'
'podan'
'pobyt_'
'plynů_'
'plav'
'platné_'
'plast'
'pit_'
'pert'
'pee'
'pec'
'packaging_'
'pack'
'oří'
'ově'
'overs'
'otn'
'osvě'
'ort_'
'oro'
'orgánům_'
'open'
'opačn'
'onč'
'onu_'
'onsk'
'onic'
'okolo_'
'okolní'
'okoj'
'oho'
'offen'
'odtud_'
'odměn'
'odkaz_'
'odk'
'odborníků_'
'ocen'
'oca'
'obzvlášť_'
'obsahují_'
'obrázk'
'obecné_'
'některá_'
'nč'
'návr'
'nástrojem_'
'nákup'
'náklad'
'normální_'
'nomin'
'nocí_'
'noc'
'nni'
'nine_'
'nie'
'nger_'
'nezna'
'nezbytných_'
'neví_'
'netr'
'nepřímo_'
'nepřij'
'nepřek'
'nepr'
'nenap'
'nemožné_'
'nemluv'
'nejvýznamnější'
'neighbors_'
'nedot'
'nechce_'
'nazýva'
'nahradit_'
'můžu_'
'měření_'
'multipl'
'moři_'
'mozk'
'mountains_'
'monet'
'modules_'
'mocn'
'mobilit'
'mist'
'minulého_'
'ministrů_'
'mini'
'mie'
'metod_'
'menšiny_'
'menta'
'ment'
'memba'
'mema'
'medicines_'
'medicinal_'
'meal_'
'materiál'
'master_'
'mani'
'machinery_'
'lázeň_'
'lunch_'
'lucky_'
'lp'
'lower'
'lon'
'lock_'
'lize_'
'litu'
'litr'
'lite'
'lid'
'liberalizace_'
'lending_'
'lem_'
'lei'
'legislativ'
'lech'
'lb'
'last'
'lacking_'
'kři'
'kém_'
'kun'
'kruh'
'kovov'
'kontrolou_'
'kontrole_'
'kontrol'
'komunit'
'komisi_'
'komisaře_'
'kolegů_'
'kla_'
'kk'
'kapitol'
'kapacity_'
'kapacit_'
'kac'
'jump'
'jpg_'
'joy'
'jednoznačn'
'jednotný_'
'jakkoli_'
'ivě'
'ivé_'
'ite'
'isti'
'isl'
'iro_'
'iri_'
'ione'
'interval'
'interpretation_'
'internationally_'
'interconnect'
'intensive_'
'intelligence_'
'insul'
'instalační'
'innocent_'
'inject'
'iniciativu_'
'informal_'
'inevitable_'
'incident'
'inac'
'igu'
'ient'
'idn'
'idiot'
'idi'
'ideologi'
'ick'
'hvězd'
'hráč'
'hru_'
'hrdin'
'hostům_'
'hork'
'honor'
'hodnot'
'hodno'
'hodl'
'hnu'
'hna'
'hledá'
'hin'
'hill_'
'helps_'
'heating_'
'hearing_'
'hd'
'hairdryer_'
'gus'
'gt'
'gs'
'got'
'gor'
'gol'
'gna'
'gg'
'geneticky_'
'gardens_'
'gag'
'fying_'
'furt'
'funkcí_'
'fs'
'freedoms_'
'fr'
'fotbal'
'forma'
'folder_'
'floors_'
'fix'
'fewer_'
'ferr'
'fee_'
'farma'
'fan_'
'fallen_'
'extrémní_'
'export'
'expertise_'
'expert_'
'executive_'
'exciting_'
'examined_'
'evropskými_'
'eta_'
'estimate_'
'essentially_'
'esp'
'erg'
'ept'
'epa'
'ently_'
'ensu'
'ensi'
'engineering_'
'ene_'
'endorse'
'ences_'
'embo'
'emba'
'elektrárn'
'electoral_'
'ekonomická_'
'ein'
'egi'
'effectiveness_'
'ede_'
'ective_'
'easing_'
'ean'
'důstojn'
'důležitým_'
'dý'
'dálnic'
'dynamick'
'dying_'
'dvojí'
'dst'
'druhém_'
'druhá_'
'dp'
'dozor'
'downtown_'
'dovoz'
'dostává_'
'dosah'
'dopravní_'
'doprav'
'doporučen'
'doplňk'
'dokázal_'
'dog_'
'dné_'
'divadl'
'distributor'
'dish'
'directives_'
'dir'
'dif'
'did'
'deter'
'destination_'
'desktop_'
'demonstrate_'
'demokratických_'
'delegation_'
'definován'
'defending_'
'debatu_'
'deals_'
'cykl'
'cul'
'cukru_'
'critic'
'creative_'
'crazy_'
'converter_'
'convenience_'
'cont'
'confirmed_'
'conferences_'
'confe'
'conf'
'concentrat'
'compatible_'
'comparable_'
'committees_'
'column_'
'colour_'
'coat'
'cker'
'civiliz'
'cil'
'chybn'
'chin'
'characters_'
'centuries_'
'ceme'
'catch_'
'candidates_'
'cali'
'běžn'
'bě'
'byt'
'bus'
'bull'
'budově_'
'buck'
'bubble_'
'bs_'
'brus'
'breath'
'boutique_'
'bound_'
'bomba'
'bní'
'birth_'
'bin_'
'bezd'
'best'
'beside_'
'benefit'
'bell'
'believ'
'bav'
'balíků_'
'balíky_'
'aš'
'azyl_'
'auta_'
'attentive_'
'atn'
'atmosfér'
'ath_'
'asse'
'asc'
'arsk'
'arn'
'armed_'
'ario'
'appe'
'aplikací_'
'ansk'
'anov'
'announcement_'
'anger_'
'alternativní'
'alongside_'
'all'
'alise_'
'alien'
'aircraft_'
'ahu'
'agent'
'affects_'
'administrativa_'
'adj'
'adil'
'acted_'
'ach'
'aca'
'\'
'Závazky_'
'Zap'
'Year_'
'Will'
'Whe'
'Whatever_'
'Water_'
'Vě'
'Vypadá_'
'Vyh'
'Vs'
'Vietnam_'
'Verona_'
'Třetí_'
'Turn'
'Tulip_'
'Termini_'
'Ted'
'Stre'
'Stor'
'Spo'
'Something_'
'Směrnice_'
'Slovensk'
'Skype_'
'Ski'
'Similarly_'
'Sarah_'
'Sab'
'Rů'
'Ré'
'Rychl'
'Riker_'
'Rein'
'Read'
'Que'
'Přid'
'Pur'
'Prov'
'Protection_'
'Promiňte_'
'Programme_'
'Premier_'
'Poč'
'Poj'
'Point_'
'Podobně_'
'Place_'
'Pic'
'Petro'
'Petr'
'Petit_'
'Pension_'
'Pas'
'Parlamentem_'
'PA_'
'Odv'
'OT'
'Norsk'
'Nobody_'
'Nizozemsko_'
'Nizozemsk'
'Nig'
'Neměl'
'Nelze_'
'Nech'
'Nebud'
'Nar'
'Mí'
'Ms_'
'Moskv'
'Mod'
'Mobil'
'Mess'
'Med'
'Marg'
'Manu'
'MS'
'MD'
'Listen_'
'LingvoSoft_'
'Libanon'
'Ladies_'
'LONDON_'
'Kri'
'Kremlin_'
'KI'
'John'
'Jinými_'
'Jenn'
'Interi'
'Indi'
'Hra'
'Hiking_'
'Help_'
'Hea'
'Hau'
'Gua'
'GL'
'Fundamental_'
'Four'
'Forge_'
'Following_'
'Fl'
'Filip'
'File_'
'Fan'
'Evropskému_'
'Everything_'
'Everyone_'
'Equipment_'
'En_'
'Emp'
'Eff'
'Earl'
'ET'
'EIB_'
'Dělá'
'Dublin_'
'Dok'
'Din'
'DS'
'DA_'
'Cut'
'Culture_'
'Constitution_'
'Cond'
'Chad_'
'Carl'
'Burg'
'Budu_'
'Bos'
'Bet'
'Berlín'
'Bene'
'Bed'
'Avenue_'
'Assembly_'
'Arr'
'Ap'
'Ang'
'Andre'
'Američanů_'
'Ag'
'AND_'
'123'
'01'
'... - _'
',,_'
'*_'
'''
'!" _'
' . ( _'
' --_'
' %, _'
'ّ'
'ع_'
'ر_'
'ә'
'та'
'де'
'žádostí_'
'životaschopn'
'Žid'
'ůl'
'šílen'
'štění_'
'špatného_'
'škál'
'šir'
'řešen'
'řem'
'ředitel'
'ěv'
'ďme_'
'částku_'
'čerpa'
'čern'
'čekal'
'čas'
'ýš'
'ýval'
'účty_'
'účinná_'
'účastníky_'
'úspor_'
'úpln'
'úmluv'
'ívá'
'íta'
'íná'
'íkem_'
'éz'
'áhnout_'
'áh'
'ß'
'Úřad'
'Úmluv'
'· _'
'}}) '
'|'
'{{_'
'zřídi'
'zří'
'zásob_'
'zápas'
'záp'
'záležitostech_'
'základy_'
'základním_'
'základem_'
'záb'
'zy'
'zvyk'
'zvan'
'zrychl'
'zrušit_'
'zrušen'
'zraniteln'
'způsobu_'
'zpochybn'
'zně'
'znečišť'
'znepokojení_'
'značný_'
'znalost'
'zločinu_'
'zlepšil'
'zkušenost_'
'zjistila_'
'zjednoduš'
'zemř'
'zbraň_'
'zařazen'
'začlen'
'začaly_'
'zavázal'
'zavádě'
'zastáva'
'zapříčin'
'zapojil'
'zaměřuje_'
'zak'
'zajistila_'
'zachoval'
'yti'
'yst'
'yl_'
'ykl'
'ye_'
'ye'
'yard_'
'writer_'
'withdraw_'
'wish'
'wil'
'whilst_'
'wha'
'wen'
'welcomed_'
'wash'
'významná_'
'výslovně_'
'výměnu_'
'výletů_'
'výlet'
'výhod'
'vítá_'
'váz'
'vztahují_'
'vzrostl'
'vzpomín'
'vzorku_'
'vzniku_'
'vznik_'
'vyznač'
'vyvolal'
'vysvětl'
'vypl'
'vyhlídky_'
'vyhledávací_'
'vydán'
'vycházející'
'vybran'
'vyberte_'
'vs'
'vp'
'vous_'
'vou'
'volá'
'volném_'
'volební'
'vojenských_'
'vodou_'
'vod_'
'vní'
'vládnutí_'
'vlajk'
'viable_'
'venku_'
'velmoc'
'vede'
'vamp'
'vak'
'užit'
'uči'
'uznat_'
'uvádě'
'uvidí'
'uvedena_'
'uveden_'
'utrpení_'
'uti'
'uter'
'určené_'
'urit'
'urbaniz'
'upgraded_'
'univers'
'unh'
'unfo'
'undi'
'undertakings_'
'umožňující_'
'uma'
'ula'
'uklid'
'ukl'
'uge'
'udělala_'
'uda'
'ually_'
'těžko_'
'tvý'
'tvé_'
'tvorbě_'
'tus_'
'tures_'
'ttle'
'triple_'
'trestu_'
'trendy_'
'trend'
'transparentnost_'
'translati'
'transform'
'transaction_'
'tradičn'
'trade'
'title_'
'tired_'
'tif'
'thy_'
'thre'
'ther_'
'textil'
'technologick'
'teachers_'
'tažen'
'tav'
'tati'
'tas'
'tad'
'syrsk'
'symbol'
'swi'
'světu_'
'světlo_'
'svědky_'
'surroundings_'
'suppliers_'
'supervis'
'suit'
'subjekt_'
'stárn'
'stáhnout_'
'sty_'
'stupně_'
'strategické_'
'strain'
'stil'
'steel_'
'stays_'
'stand'
'spát_'
'spotřebitel'
'sponsor'
'společným_'
'společnostmi_'
'spojuj'
'specialized_'
'special'
'spad'
'současný_'
'soudem_'
'sons_'
'sociálně_'
'socio'
'snaž'
'snahu_'
'snaha_'
'směru_'
'slučiteln'
'slightly_'
'slan'
'skill'
'silou_'
'signa'
'shares_'
'setká'
'sentence_'
'sdílen'
'sd'
'scén'
'scu'
'scra'
'sanit'
'rét'
'ráz'
'rán'
'rut'
'ruské_'
'rup'
'rozšířit_'
'rozumn'
'rozum'
'rozhodli_'
'rovnováhy_'
'route_'
'roof_'
'rni'
'rmo'
'rings_'
'rif'
'ress'
'rescue_'
'requests_'
'representation_'
'reply_'
'rence_'
'relate_'
'reko'
'regret_'
'ranging_'
'random'
'rand'
'ra'
'question'
'působit_'
'působení_'
'půjček_'
'příčin'
'přípravě_'
'přípravy_'
'přist'
'přirozen'
'přijat_'
'přidružení_'
'přesvědčit_'
'předá'
'předložil_'
'předešl'
'předa'
'puts_'
'pump'
'psychi'
'pružnost'
'prozkoum'
'proxy_'
'propojen'
'projevuj'
'project'
'procedur'
'problematik'
'privatiz'
'prevent'
'prevence_'
'pravidlo_'
'pracovním_'
'pracovníci_'
'poš'
'power'
'povzbuz'
'povolit_'
'potvrdit_'
'posuzova'
'poste'
'posiluje_'
'poruch'
'poru'
'porte'
'poro'
'poplatky_'
'poplatku_'
'poměru_'
'pokračování_'
'poko'
'poison'
'pohon'
'pohledávk'
'podílel'
'podporoval'
'podobno'
'podn'
'pochopil'
'pocho'
'pobíd'
'pláže_'
'plánů_'
'plá'
'plynoucí_'
'plyne_'
'play'
'platform_'
'platb'
'plastic_'
'pivo'
'pipeline_'
'pic'
'pi_'
'phon'
'perspektiv'
'perm'
'perfe'
'pere'
'peng'
'pemb'
'patrn'
'očí_'
'oxidu_'
'owner_'
'ovoce_'
'overr'
'overcome_'
'ovaného_'
'outline'
'outl'
'ount'
'oul'
'otu'
'oto'
'otec_'
'otce_'
'ota'
'oslab'
'oru_'
'originating_'
'orang_'
'ora_'
'ora'
'opti'
'oper'
'oně'
'onov'
'ono_'
'ong_'
'ome'
'olit'
'ola_'
'oin'
'odstraněn'
'odmítn'
'odhalil'
'odeb'
'ochránce_'
'oceán'
'obvin'
'observed_'
'obsahovat_'
'obrovsk'
'obraz'
'obnovit_'
'obnoven'
'obličej'
'objevuj'
'obal'
'některým_'
'návratu_'
'násled'
'nám'
'nádo'
'nádhern'
'nv'
'nulov'
'ntu'
'nst'
'novými_'
'noted_'
'notably_'
'northern_'
'nor'
'noh'
'nl'
'nič'
'nity_'
'neřek'
'nezměn'
'nezm'
'nezbytnou_'
'nezbytn'
'neuv'
'nestačí_'
'nesi'
'nepa'
'nemusel'
'nemovitostí_'
'neighborhood_'
'negotiated_'
'negativní'
'nedostatku_'
'nedostatkem_'
'nedosta'
'nechtěl_'
'nebudu_'
'ne'
'nder'
'našel_'
'navi'
'nastavit_'
'nastav'
'napětí_'
'naposledy_'
'napaden'
'nako'
'nak'
'nadměrn'
'nadcházejících_'
'nacháze'
'měnu_'
'měnového_'
'myln'
'muze'
'musíš_'
'mun'
'mpl'
'mon_'
'mojí_'
'moi'
'mohutn'
'moderniza'
'mní'
'missed_'
'mins_'
'mining_'
'minimálně_'
'ming'
'miliard'
'metoda_'
'merge'
'mengha'
'mechanismů_'
'matur'
'maso_'
'marriage_'
'marks_'
'mam'
'male'
'majetek_'
'main'
'léčby_'
'lás'
'lán'
'lve'
'lut'
'lusi'
'luj'
'lně_'
'lled_'
'liquidity_'
'lin_'
'likvidit'
'light'
'lev'
'leu'
'leti'
'letectví_'
'lessons_'
'lesk'
'len_'
'lem'
'legality_'
'lač'
'laying_'
'law'
'lands_'
'ladn'
'labelling_'
'káz'
'kách_'
'kv'
'kuj'
'krátce_'
'kru'
'ková_'
'koup'
'kore'
'koordinace_'
'konzult'
'konstruktivní_'
'konstruk'
'konferenci_'
'konečném_'
'komunit_'
'komunik'
'kompromis_'
'koleg'
'kola_'
'klíče'
'klo'
'kese'
'kdysi_'
'kategori'
'kapitálových_'
'kap'
'kampaň_'
'kala'
'jších_'
'jím_'
'joining_'
'jedná'
'jde'
'japonské'
'jakékoli_'
'jad'
'izraelsk'
'itelé_'
'ista'
'islamist'
'iron_'
'ira_'
'ira'
'inženýr'
'inteligen'
'installer_'
'inso'
'input_'
'inov'
'inno'
'influen'
'ind'
'impu'
'imported_'
'iment'
'im'
'iki'
'ii'
'ignored_'
'identification_'
'ico'
'ibit'
'hv'
'hrozn'
'house'
'hos'
'hop_'
'homo'
'hledat_'
'hel'
'heated_'
'haus'
'harmonised_'
'hall'
'gy_'
'gue'
'greatly_'
'grave'
'grati'
'graphic'
'gnome_'
'glu'
'gla'
'gie'
'get'
'genocid'
'gari'
'gard'
'fyzické_'
'frame'
'foster_'
'form'
'forcing_'
'focusing_'
'fly_'
'flexi'
'feels_'
'farming_'
'false_'
'faktorů_'
'faktick'
'fairly_'
'extr'
'exposure_'
'exploring_'
'expanz'
'excluded_'
'exact_'
'evropském_'
'evil_'
'europa_'
'ette_'
'eter'
'entu'
'entre'
'entirety_'
'energi_'
'empower'
'employed_'
'emotion'
'embrace_'
'embr'
'elné_'
'elektřin'
'ekosystém'
'ekonomi_'
'ein_'
'eho'
'edly_'
'ece'
'eating_'
'earn_'
'důvěř'
'důležitých_'
'důkaz_'
'dělal'
'dáv'
'dvo'
'dun'
'dub'
'dramatic_'
'dovozní_'
'dove'
'dostupných_'
'dostatek_'
'doručen'
'dopln'
'dokážou_'
'doj'
'doh'
'dogs_'
'dodržován'
'doctors_'
'dobrých_'
'dlouhá_'
'dlouhodobého_'
'discour'
'disclos'
'dil_'
'dignity_'
'digitální_'
'dictionary_'
'devalvac'
'determin'
'desk'
'dent'
'demographic_'
'dela'
'deg'
'deeply_'
'dani_'
'cítit_'
'cyber'
'ctu'
'ction'
'creditor_'
'craft_'
'constitutes_'
'confer'
'communist_'
'command'
'coin'
'coe'
'clon'
'cleare'
'cleaned_'
'classic_'
'cla_'
'cken'
'cked_'
'cited_'
'cir'
'cia_'
'chyby_'
'church_'
'chová'
'chova'
'chen'
'charm_'
'charakteri'
'centraliz'
'cell'
'celek_'
'cans_'
'bři'
'byte'
'bye_'
'buying_'
'brazilsk'
'boost'
'bohatých_'
'blu'
'block'
'blaho'
'black'
'biz'
'biologick'
'bezpochyby_'
'bezpečn'
'bern'
'beer_'
'band_'
'az'
'awa'
'aviation_'
'automatické_'
'authoritarian_'
'authentic_'
'attend'
'ator_'
'atis'
'ast_'
'assurance_'
'assist_'
'assessed_'
'asa'
'ars_'
'arising_'
'archiv'
'arabské'
'arab'
'anymore_'
'anybody_'
'anglick'
'amend_'
'allo'
'alb'
'alarm_'
'ail'
'agon'
'aero'
'adjust_'
'addressing_'
'ací'
'acid_'
'ach_'
'accom'
'accidents_'
'absorb'
'abandoned_'
'Zm'
'Zlat'
'Zi'
'Zemi_'
'Wu'
'Wikipedia_'
'Wal'
'WASHINGTON_'
'Vůbec_'
'Výsled'
'VE'
'Ul'
'Ukrajin'
'USE_'
'UP'
'UL'
'Translat'
'Tob'
'Term'
'Tas'
'Sá'
'Světov'
'Středo'
'Still_'
'Společnost_'
'Sma'
'Ski_'
'Seri'
'Sel'
'Schl'
'Sau'
'Santiago_'
'SR_'
'SG'
'Ry'
'Roissy_'
'Republi'
'Ray'
'RU'
'RN'
'Připrav'
'Přij'
'Project_'
'Pořád_'
'Poznámky_'
'Poskyt'
'Pon'
'Pin'
'Pete'
'Pes'
'Patri'
'Otázka_'
'Others_'
'Otevř'
'Oper'
'Odpo'
'ON_'
'Název_'
'Nový_'
'Nou'
'Nobel_'
'Nep'
'Nei'
'Nat'
'Můžeš_'
'Museum_'
'Much_'
'Mr'
'Mnoho_'
'Ministers_'
'Mik'
'Me_'
'Maďarsk'
'Matt'
'Martin'
'Make_'
'Mai'
'MU'
'MP_'
'Liber'
'Land'
'LL'
'Kou'
'Kos'
'Kim_'
'Kee'
'Ke_'
'Kabelové_'
'KU'
'KA'
'Jim_'
'Jedno'
'Jan'
'Ital'
'Ing'
'Host'
'Hos'
'Hop'
'Historic'
'Hill_'
'Gui'
'Gr'
'Govern'
'Gold'
'Goe'
'Germans_'
'Germanic_'
'GS'
'GO'
'Fro'
'Franco'
'Framework_'
'Fir'
'Fal'
'Eth'
'Eden_'
'ECTACO_'
'Dětské_'
'Dáv'
'Dohoda_'
'Doc'
'Divi'
'DR'
'Cri'
'Credit_'
'Climate_'
'Christ'
'Catal'
'Byli_'
'Building_'
'Budapest_'
'Boží'
'Bon'
'Boj_'
'Bes'
'Bern'
'Bat'
'Barm'
'Bara'
'America'
'All'
'Ai'
'Adria'
'Abd'
'AS_'
'AA'
'?“_'
'82'
'76'
'62'
'46'
'45'
'20th_'
'1973_'
'110_'
'... ... _'
'-, _'
')|_'
'):_'
'' '
'!!_'
' – „_'
' ... '
' - '
'”, _'
'ыл'
'ш'
'о_'
'нд'
'ар'
'а_'
'žádá_'
'živé_'
'žil'
'ženu_'
'železniční_'
'ůže'
'ůst'
'šť'
'šti'
'šné_'
'škole_'
'Říkal_'
'Řekni_'
'ňuj'
'ňovan'
'ěti'
'ěle'
'ěje_'
'ě'
'Ě'
'čínských_'
'částe'
'čár'
'čtyři'
'čil_'
'Čt'
'Ča'
'ČN'
'ýk'
'účinný_'
'účinků_'
'účel_'
'účastníků_'
'útuln'
'úrovní_'
'úrokov'
'íra'
'íku_'
'íkov'
'íka_'
'íje'
'ídl'
'å'
'áž_'
'áše'
'áve'
'átor_'
'átor'
'ární'
'álním'
'áko'
'áj'
'ádě'
'Úspě'
'Î'
'zřízen'
'získala_'
'závažné_'
'zátěž_'
'záloh'
'základn'
'zvý'
'zvlád'
'zvaž'
'způsobují_'
'způsob'
'zpětn'
'zpr'
'zpeč'
'zol'
'zohledněn'
'značk'
'zn'
'změnil'
'zmínil'
'zlepší_'
'zlat'
'zkrácen'
'zkr'
'zjistí_'
'zjist'
'zemědělců_'
'zemního_'
'zdůraznila_'
'zdroj_'
'začne'
'zapomněl'
'zamě'
'založeno'
'zakázán'
'zada'
'zachováv'
'yg'
'yards_'
'xy_'
'xic'
'xeno'
'ws'
'wire'
'wie'
'whereby_'
'webov'
'weapon_'
'waters_'
'wand'
'walked_'
'wa_'
'vůle_'
'věrn'
'věnoval'
'věcech_'
'výš'
'výzvou_'
'výzva_'
'výzv'
'výs'
'výrok'
'výrobní_'
'výrobců_'
'výrazné'
'výchozí_'
'výbu'
'víř'
'víry_'
'vír'
'vány_'
'váh'
'vztah'
'vzestup_'
'vzdělan'
'vzal_'
'vyšších_'
'vyzn'
'vyvíjejí'
'vyvr'
'vyvolá'
'vysl'
'vymáhání_'
'vyklád'
'vyjednáva'
'vyjedna'
'vyhlášení_'
'vst'
'vrátil_'
'vrat'
'vot'
'vost_'
'volič'
'volba_'
'vola'
'vodě_'
'voda_'
'vlasy_'
'visits_'
'visitors_'
'vio'
'vidíme_'
'vidí'
'video'
'vice_'
'vhodných_'
'veřejnou_'
'vessel_'
'versus_'
'venture_'
'velik'
'vd'
'vací_'
'uživatelsk'
'užitečné_'
'užite'
'uř'
'uvi'
'uty_'
'utváře'
'utrp'
'utk'
'uta'
'uss'
'uspě'
'uskuteč'
'určitou_'
'urči'
'upře'
'uprostřed_'
'uplat'
'upgrad'
'updated_'
'unknown_'
'unit'
'unions_'
'unifi'
'unf'
'unes'
'undermining_'
'undergo'
'uncertain_'
'umí_'
'ume'
'ulá'
'ultimate_'
'ull'
'ukázat_'
'ugh_'
'udělali_'
'uby'
'těsně'
'tvůrc'
'tvím_'
'tvář'
'tvrdil'
'tvo'
'tv_'
'tud'
'tub'
'tráv'
'truck'
'trips_'
'translat'
'transferred_'
'transak'
'trained_'
'tracking_'
'towels_'
'tour'
'tough_'
'tot'
'topics_'
'tka_'
'titul'
'tisíciletí_'
'tisíc'
'tien'
'tie_'
'testování_'
'terr'
'terminology_'
'terhadap_'
'tensions_'
'tennis_'
'tema'
'telefon_'
'tek_'
'tariff_'
'tajemník'
'tables_'
'sít'
'synt'
'symptom'
'sympath'
'syl'
'sweet'
'sve'
'sustained_'
'survival_'
'surplus_'
'suppo'
'suppl'
'sup'
'sunny_'
'sumber_'
'sufficiently_'
'sud'
'subst'
'sua'
'stávající'
'sty'
'strá'
'struggling_'
'stroll_'
'striking_'
'stole_'
'stic_'
'stev'
'sted_'
'stačí_'
'stavb'
'stat'
'stanoveny_'
'stali_'
'stake_'
'sra'
'správce_'
'spoléha'
'společném_'
'speciáln'
'specifické_'
'specializ'
'sov'
'sousedství_'
'soul_'
'soukromých_'
'soub'
'somewhere_'
'sole_'
'soldiers_'
'socialist'
'soci'
'smí'
'smy'
'smooth_'
'slyší'
'složení_'
'sloužit_'
'sloužil'
'sled'
'skut'
'skov'
'situací_'
'sink'
'simplify_'
'silná_'
'sik'
'sign'
'ship'
'sheets_'
'severu_'
'setkal'
'separation_'
'sekund'
'seg'
'sedmi_'
'schopné_'
'schopno'
'scan_'
'scan'
'satu_'
'samo'
'sal_'
'sac'
'rů'
'rí'
'ráto'
'rál'
'rys'
'rus_'
'rozpr'
'rozměr'
'rozhovor'
'rozdíl'
'rove'
'roughly_'
'rose_'
'rodu'
'rodinu_'
'rip'
'rich'
'rial'
'resu'
'resolved_'
'reserved_'
'republic'
'repe'
'rep'
'reklam'
'rej'
'reh'
'regulat'
'recording_'
'reak'
'rde'
'razn'
'ray_'
'rave'
'ratification_'
'quantitative_'
'působ'
'půjč'
'přítomnost_'
'příslušnosti_'
'příslušenství_'
'případu_'
'přímých_'
'příkaz_'
'příbuzn'
'přátel'
'připojen'
'přijímání_'
'přijímat_'
'přijateln'
'přijat'
'přidat_'
'přib'
'přeshraniční'
'přeměn'
'přelo'
'předpokládal'
'předpoklad'
'přednost_'
'předloží_'
'přeb'
'pse'
'psal'
'průbě'
'provo'
'provider_'
'provedena_'
'protokol_'
'protocol_'
'prosecut'
'propose_'
'properties_'
'proměnn'
'promises_'
'projekt'
'proje'
'prohlašuj'
'produktiv'
'procesů_'
'principy_'
'primární'
'previously_'
'preserve_'
'preserv'
'pravděpodobn'
'požadované_'
'počítači_'
'počítač_'
'počát'
'pozoruhodn'
'pozorně_'
'pozor_'
'povstal'
'použijí_'
'posu'
'postupovat_'
'postoj'
'poslancům_'
'poslance_'
'posed_'
'porta'
'pools_'
'ponaučení_'
'pomáhá_'
'položit_'
'polovině_'
'poli'
'pokus_'
'pokouš'
'pojem_'
'pointing_'
'pohybova'
'pohn'
'podá'
'podnikům_'
'podmínkou_'
'podmínk'
'podal'
'pocity_'
'pob'
'plu'
'pledge'
'ple_'
'planetě_'
'planety_'
'plane_'
'pky_'
'pití_'
'phone'
'pevné_'
'person'
'permitted_'
'pera'
'peně'
'penalty_'
'pattern_'
'password_'
'partneři_'
'parallel_'
'pac'
'ožen'
'očil'
'ozo'
'oy_'
'owned_'
'ovu_'
'ovství_'
'overw'
'overlook'
'ovanou_'
'ouž'
'outs_'
'oura'
'ouk'
'otá'
'otc'
'oss'
'osobnost'
'organizované'
'organised_'
'organic'
'orc'
'opuštěn'
'opravdov'
'opinions_'
'oph'
'operated_'
'ope'
'ona'
'omyl'
'omezování_'
'omezené_'
'olin'
'olej'
'okna_'
'oha_'
'odstranit_'
'odd_'
'oce'
'occupation_'
'occ'
'obrátil'
'obran'
'oblíben'
'oblo'
'obklop'
'obecného_'
'níže_'
'nízkou_'
'názvem_'
'následovat_'
'násiln'
'národního_'
'námitky_'
'náhradu_'
'náhle_'
'nur'
'ntin'
'ntif'
'nsu'
'nová'
'novo'
'nol'
'nne'
'nish'
'ngs_'
'nežádoucí_'
'nezbytný_'
'neuvěřiteln'
'neum'
'nestá'
'nesmíme_'
'nera'
'nepřít'
'nepoch'
'nep'
'nen_'
'nemysl'
'nemohl'
'nemoci_'
'nejz'
'nejnovější_'
'nejlepším_'
'neighbourhood_'
'nehl'
'neexist'
'nedos'
'nedaleko_'
'naznačují_'
'narozen'
'naprost'
'nal_'
'naději_'
'nacionalistick'
'měnový_'
'mírně_'
'mír'
'mém_'
'mzdy_'
'mut'
'museums_'
'municipality_'
'mrtvý_'
'mrtv'
'mpo'
'mořské_'
'mou'
'mora'
'mont'
'moderním_'
'mod'
'mobilis'
'mma'
'mlék'
'mlad'
'mix'
'minuty_'
'mino'
'ministra_'
'migrace_'
'mezd_'
'mess_'
'meri'
'meny'
'med'
'meals_'
'matick'
'mathematic'
'mass'
'manipulat'
'mandát_'
'managing_'
'makers_'
'mak'
'majitel'
'maintaining_'
'magic_'
'maa'
'lý_'
'létě_'
'lv'
'luggage_'
'lively_'
'lived_'
'lion'
'link'
'lif'
'lidský'
'licenci_'
'liberaliz'
'lh'
'lg'
'lf'
'leté_'
'letošního_'
'lete'
'letadl'
'lessly_'
'lepšího_'
'length_'
'leng'
'legitimní_'
'lega'
'lean'
'latin'
'laptop_'
'křiv'
'kř'
'kám_'
'kyn'
'kvóty_'
'kvót_'
'kvalit'
'kvalifikac'
'kup_'
'kulturu_'
'kukan_'
'krmiv'
'kreditní_'
'koná'
'konver'
'kontinentu_'
'kontinent'
'konečný'
'koncem_'
'komunikace_'
'komisařka_'
'kome'
'koho'
'knout_'
'knihovn'
'klu'
'klesl'
'kit'
'keti'
'ken_'
'každému_'
'kapitán_'
'kapitálov'
'kal_'
'justify_'
'juga_'
'judge'
'jské_'
'journey_'
'jme_'
'jižní_'
'jižní'
'jistá_'
'jet_'
'jeme_'
'jednostrann'
'jediného_'
'iště_'
'išt'
'ison_'
'isku'
'irské'
'iri'
'invited_'
'investoři_'
'investor_'
'invalid'
'interaction'
'intenzivní_'
'intends_'
'integrova'
'inova'
'initially_'
'iniciativ_'
'inherent'
'informačních_'
'informaci_'
'influence'
'individually_'
'indication_'
'imb'
'iest_'
'icí_'
'icia'
'hvězdn'
'hust'
'hunt'
'human'
'hrozi'
'hrozb'
'hotovost'
'hospital_'
'hoping_'
'hopes_'
'honourable_'
'hone'
'holders_'
'hně'
'hne'
'hmotnosti_'
'hluboce_'
'hlasovali_'
'historie_'
'hill'
'heri'
'hee'
'harmon'
'harmful_'
'hard'
'happi'
'hani'
'habita'
'habe'
'guard_'
'gross_'
'grat'
'granting_'
'gno'
'gle'
'girls_'
'gge'
'generations_'
'fts_'
'foundations_'
'found'
'fosilních_'
'fosil'
'formát'
'formulat'
'font'
'flower'
'fikac'
'fiction_'
'fication'
'fertili'
'fax_'
'fails_'
'extraordinary_'
'explanation_'
'explains_'
'expan'
'ex'
'ewa'
'evident_'
'evaluate_'
'ety_'
'eta'
'estimates_'
'erv'
'ert_'
'erne'
'eně'
'enth'
'enl'
'enjoying_'
'enjoyable_'
'ending_'
'employers_'
'emphasise_'
'emission_'
'embe'
'elevator_'
'ekt'
'ekonomikách_'
'ekonomie_'
'ekologický'
'ekologick'
'eje'
'ech'
'ebn'
'eau_'
'eat'
'důstojník'
'dávno_'
'duchu_'
'driven_'
'drea'
'draho'
'dozvěděl'
'dozví'
'download'
'dou_'
'dosáhly_'
'dostupná_'
'dostatečné_'
'dostane_'
'doslov'
'dosahuje_'
'doprava_'
'doporuč'
'domác'
'dně_'
'dnešním_'
'dne'
'dluhov'
'dluhopisy_'
'dlouhý_'
'dlouhé_'
'divn'
'distr'
'distort'
'disrupt'
'displayed_'
'disadvantage'
'disabilities_'
'diplomaci'
'dioxide_'
'different'
'df'
'detail'
'desperate'
'depriv'
'demanding_'
'definovan'
'definitions_'
'defend'
'def'
'deco'
'decentraliz'
'data'
'dar_'
'dance_'
'císař'
'címu_'
'currencies_'
'ctor'
'ctions_'
'crowd'
'corr'
'cook'
'consult'
'consistency_'
'cons'
'connect_'
'concentrate_'
'comp'
'comforts_'
'combines_'
'comb'
'coherent_'
'cod'
'climb'
'citizen_'
'chudé_'
'chrání_'
'chr'
'chor'
'chop'
'chn'
'chla'
'chee'
'chat'
'charakter_'
'chair_'
'chain_'
'cenných_'
'celosvětové_'
'catering_'
'capa'
'cano'
'bě_'
'báz'
'button_'
'buses_'
'burn'
'bum'
'budov'
'brutal_'
'broke_'
'bread_'
'book'
'bolest_'
'blb'
'birthday_'
'bilion'
'bezpečné_'
'berl'
'bere_'
'bate'
'bat_'
'bas'
'bankruptcy_'
'bankrot'
'balíčk'
'ačních_'
'attempting_'
'attached_'
'attach'
'atmosféru_'
'ativ'
'assigned_'
'assessing_'
'ask'
'arts_'
'arro'
'array_'
'architekt'
'architect'
'appreciated_'
'appoint'
'apart'
'aného_'
'anu_'
'annul'
'anese_'
'analog'
'amu'
'amending_'
'alu'
'alliance_'
'alkoholu_'
'alize_'
'alia_'
'akční_'
'aktu'
'aktivit'
'akt'
'akcií_'
'ago'
'agentur_'
'africké_'
'affi'
'adě'
'advertise'
'administrativy_'
'admi'
'accountability_'
'absurd'
'``_'
'Zimbabwe_'
'Začal'
'Yorku_'
'Wat'
'Was_'
'Věc_'
'Vzpom'
'Vulcan_'
'Vil'
'View_'
'Vid'
'Venezuela_'
'Ved'
'Van_'
'Určitě_'
'Unless_'
'UC'
'Type_'
'Tony_'
'Tim'
'Thu'
'Taková_'
'Sýrii_'
'Swedish_'
'Střední_'
'Structural_'
'Ster'
'Stav'
'Spr'
'Spojeného_'
'Soudní_'
'Smlouvu_'
'Shu'
'Sher'
'Share'
'Severní'
'Sever'
'Select_'
'Sed'
'Schulz'
'Salzburg_'
'SD'
'Rozd'
'Richard_'
'Rica_'
'Relati'
'Rela'
'Region'
'Rakousk'
'Raf'
'RM'
'Předmět_'
'PŘ'
'Prote'
'Promiň_'
'Prohl'
'Prav'
'Praha_'
'Počk'
'Podpora_'
'Play'
'Pers'
'Pay'
'Parties_'
'PDF_'
'Ok_'
'Off'
'Obviously_'
'Ober'
'OS'
'OP'
'OB'
'Národní_'
'Nik'
'Nemohl'
'Nee'
'NGL_'
'Mul'
'Mot'
'Mom_'
'Mohla_'
'Mitt'
'Mit'
'Mill'
'Mexiko_'
'Mes'
'Mala'
'MA_'
'Love_'
'Lot'
'Long_'
'Loa'
'Latinské_'
'Lad'
'Kyoto_'
'Krugman_'
'Kosova_'
'Kontrol'
'Kli'
'Kl'
'Každá_'
'Kath'
'Karl'
'Kap'
'Jinak_'
'Jen'
'Jake_'
'JP'
'Investment_'
'Indonesia_'
'Imm'
'Hold_'
'Hod'
'History_'
'Her_'
'Gruzii_'
'Gon'
'Glasgow_'
'Gil'
'GU'
'GN'
'Fol'
'Floren'
'Fisheries_'
'Fas'
'Fakt'
'FT'
'Et'
'Esp'
'Easy_'
'EX'
'EP_'
'EB'
'Dub'
'Drž'
'Druh'
'Dre'
'Dete'
'Das_'
'Cris'
'Control_'
'Consider_'
'Consequently_'
'Communities_'
'Communication_'
'Cla'
'Celkov'
'Cash_'
'Carlos_'
'Cameron_'
'CH_'
'CHF_'
'CES_'
'Bull'
'Buil'
'Budget'
'Blízkém_'
'Billiards_'
'Bea'
'Bang'
'Bai'
'Bab'
'Ass'
'Ana'
'Američan'
'Amen'
'Allergy_'
'Afriky_'
'Action_'
'Acce'
'Acc'
'ATI'
'ALWIL_'
'AK'
'AF'
'?'_'
'=_'
'79'
'64'
'61'
'56'
'450_'
'1st_'
'1970_'
'1967_'
'126'
'04'
'020'
'....'
'. "_'
');_'
'), '
'''._'
'#'
' ♪ _'
' ] _'
' ['
' -'
' * _'
' ''[[_'
'”._'
'ق_'
'п_'
'от'
'и_'
'ен'
'ды'
'žuj'
'žní_'
'životů_'
'ženám_'
'žel'
'žaloby_'
'ťuj'
'šíit'
'štěd'
'šly_'
'škrt'
'škodn'
'šance_'
'Švédsku_'
'Št'
'řízením_'
'říkat_'
'říjnu_'
'říd'
'řekni_'
'řekli_'
'řejn'
'ňov'
'ň'
'ěmi_'
'ěli_'
'čísl'
'čínská_'
'čtější_'
'čte'
'čním'
'člun'
'české'
'červnu_'
'červenci_'
'čens'
'Čínsk'
'Česká_'
'Česk'
'ýř'
'ývají'
'úředník'
'úř'
'účinný'
'účin'
'úvod'
'úspory_'
'úplné_'
'úp'
'ún'
'úmrtnost'
'úkor_'
'íš'
'ízen'
'ístě'
'éně_'
'éh'
'áže'
'ář_'
'ávají_'
'árn'
'ánské_'
'ánní'
'áni'
'álem_'
'Ústav'
'| '
'získá_'
'závěr'
'závazku_'
'zástupc'
'zásilk'
'záporn'
'základnu_'
'záchrann'
'zza'
'zvolit_'
'zvolil'
'ztracen'
'způsobí_'
'způsobit_'
'zování_'
'zopakova'
'zon'
'zohlednit_'
'zodpovědnosti_'
'zno'
'značnou_'
'znamena'
'zkus'
'zj'
'zit_'
'zis'
'zelené_'
'zdá'
'zdvojnásob'
'zdravotní'
'zdravotnick'
'zc'
'zbavit_'
'zbavil'
'zavolal'
'zasáhl'
'zaruč'
'zani'
'zaměstnance_'
'zakláda'
'zajišťova'
'zajištěn'
'zajistily_'
'zajistili_'
'zahrnuty_'
'zabil_'
'yours_'
'yla'
'yhodn'
'yan'
'witness_'
'willingness_'
'western_'
'weren_'
'weight'
'wed_'
'wards_'
'věřil'
'vědeck'
'výzkumné_'
'výstav'
'výrobních_'
'výpočt'
'výměny_'
'výměn'
'výkonnost'
'výkonn'
'výhledu_'
'výchov'
'vážno'
'vážení_'
'válečn'
'vzork'
'vzor_'
'vznikn'
'vzdálen'
'vyšetřovací'
'vyváž'
'vyvoláva'
'využíván'
'vytá'
'vysokým_'
'vyslech'
'vyslal'
'vylepšen'
'vyhodnoc'
'vydat_'
'vychází_'
'vyc'
'vrátí'
'vrátil'
'vov'
'volné_'
'voli'
'volatil'
'vojenský'
'vojenskou_'
'vno'
'vlád'
'vle'
'vklad'
'visi'
'violations_'
'ville_'
'vezm'
'vedl'
'vašem_'
'var_'
'vakcín'
'vaccine'
'vaccinat'
'užív'
'uště'
'učinil_'
'uvažova'
'ute_'
'ustav'
'usnadn'
'usn'
'uskutečnění_'
'uskutečnil'
'urgently_'
'urge_'
'uprav'
'upozornění_'
'upozorn'
'updates_'
'uous_'
'unlike_'
'uniform_'
'undertaken_'
'undermine_'
'unb'
'ums_'
'umožněn'
'umožnily_'
'umožnil_'
'umožnil'
'ument'
'umb'
'ulk'
'ukázalo_'
'ukončil'
'uko'
'ujícího_'
'ujm'
'ujistit_'
'uje'
'uhlíkov'
'uel'
'událost'
'uali'
'třetím_'
'tón'
'tím'
'témata_'
'tune'
'tum'
'tuj'
'tuc'
'tsch'
'trvalý'
'trp'
'trol'
'trigger'
'trhem_'
'transparentn'
'transatlantic_'
'tp'
'tova'
'toll'
'toa'
'tním_'
'tlakem_'
'tics_'
'tických_'
'thumb_'
'thir'
'thes'
'thank'
'tet'
'territories_'
'terra'
'teroristický'
'tern'
'tensi'
'tens'
'tempt'
'tempo_'
'tempem_'
'telekomunika'
'technologický'
'tche'
'taxi_'
'taste'
'takzvané_'
'tabled_'
'tab_'
'sů'
'síle_'
'sá'
'sz'
'svěřen'
'svobodný'
'surge'
'surf'
'suppose_'
'summary_'
'suit_'
'sui'
'success'
'subsidiar'
'střednědob'
'stěn'
'styl'
'stránce_'
'strukturu_'
'strategické'
'strategi'
'stranách_'
'stovk'
'ston_'
'stick'
'stepped_'
'starý_'
'starosti_'
'stanoveným'
'stanici_'
'standardní_'
'stages_'
'stag'
'sse_'
'srov_'
'srdečně_'
'spě'
'spoř'
'spousta_'
'spotřebo'
'spotřebitelům_'
'spolehlivost'
'spojenc'
'splněny_'
'splnil'
'spla'
'spir'
'speed'
'speculation_'
'speaker_'
'spare_'
'sovereignty_'
'souvise'
'sound'
'soukromí_'
'souhlasí_'
'sou_'
'sociali'
'sobe'
'sním'
'směřuj'
'směnn'
'složen'
'skými_'
'skr'
'skli'
'skleníkových_'
'skladov'
'sixt'
'sis'
'sio'
'sim'
'silnou_'
'shou'
'seš_'
'seš'
'sexuální'
'sexual_'
'severo'
'sett'
'sensiti'
'sena'
'sehr_'
'secular_'
'secondary_'
'sdružení_'
'scream'
'scientists_'
'schůzk'
'schemes_'
'sc'
'satelitní'
'sage'
'rže'
'rychlé'
'ryby_'
'ruka'
'rud'
'rozpětí_'
'rozpočtový_'
'rozpad'
'rozměr_'
'rozma'
'rozhovorů_'
'rozhodn'
'rozen'
'rozd'
'rovná_'
'routine'
'ron_'
'romantic'
'rní_'
'rnu'
'rna'
'rka'
'rig'
'ridi'
'rga'
'režimy_'
'reálných_'
'revision_'
'reti'
'restrukturalizaci_'
'restrukturalizace_'
'restricti'
'respekt'
'resistant_'
'reprezent'
'removal_'
'remin'
'relevantní_'
'relationships_'
'regulova'
'regre'
'registered_'
'refuse_'
'refresh'
'referenční'
'records_'
'recogniz'
'rech'
'recep'
'reasonably_'
'realizovat_'
'ravi'
'ration_'
'rare_'
'raises_'
'rah'
'radost_'
'quo_'
'quet'
'ques_'
'quant'
'půjčk'
'půdě_'
'půd'
'příčinou_'
'přítomnosti_'
'případné_'
'případn'
'příjm'
'příjemn'
'přátels'
'přá'
'přič'
'přistýlce_'
'přispíva'
'připrav'
'přezkoum'
'převzal'
'přesunu'
'přerušen'
'přepravy_'
'překážk'
'překážek_'
'překoná'
'předsedovi_'
'předsedkyně_'
'předpokláda'
'přední_'
'předložený'
'předběžné_'
'purchases_'
'právn'
'prvek_'
'prudent'
'prováděcí_'
'providers_'
'provedl'
'proved'
'protests_'
'propo'
'prompt'
'proml'
'prokázat_'
'projevil'
'profession'
'printing_'
'prezidentský'
'prevenci_'
'pressing_'
'prejudice_'
'preferred_'
'prdel'
'pravd'
'pras'
'praktik'
'pracuj'
'pracovníky_'
'požadovat_'
'požadavku_'
'poří'
'počasí_'
'poznámk'
'pozemk'
'považujeme_'
'povahy_'
'používané_'
'používal'
'potřebuj'
'potravinov'
'posílí_'
'postupn'
'possibilities_'
'poskytla_'
'posk'
'posedl'
'portfoli'
'populist_'
'poprav'
'poorer_'
'pomohou_'
'polovina_'
'politickými_'
'politickém_'
'polici'
'policejní_'
'pokusy_'
'pojmenov'
'pohá'
'pohlaví_'
'podě'
'podívejte_'
'podobných_'
'podnikov'
'podmínkách_'
'pocket'
'pocházející'
'pocháze'
'pláž'
'plum'
'plný_'
'plavidl'
'pho'
'philosophy_'
'pest'
'pene'
'pen'
'pay'
'patent_'
'paral'
'papírů_'
'pano'
'palác'
'palubě_'
'palub'
'painting'
'oše'
'ořil'
'oři'
'očekává_'
'označen'
'ověření_'
'ová'
'ovský'
'ovník'
'ovin'
'ove_'
'ovateln'
'ouz'
'outer'
'oucí_'
'oth'
'otevřel'
'otevře'
'orá'
'ortho'
'originally_'
'oriented_'
'opt_'
'opr'
'opp'
'opn'
'operator_'
'opat'
'onemocnění_'
'onal'
'omluv'
'omezenou_'
'omen'
'ohrož'
'ohromn'
'ohl'
'ogy_'
'odstav'
'odrážejí_'
'odpor_'
'odm'
'odlišný'
'odhaduje_'
'ocn'
'ochrán'
'occasions_'
'oběma_'
'observe'
'objecti'
'obhaj'
'německých_'
'německé_'
'některý_'
'něji_'
'něho_'
'né'
'následoval'
'následek_'
'národy_'
'národním_'
'nápad'
'námě'
'nále'
'náhodou_'
'ntní_'
'ntly_'
'nth'
'nstv'
'nsk'
'novel_'
'normally_'
'nons'
'ničení_'
'nické_'
'nga'
'neřík'
'neče'
'neúspěch'
'nezav'
'nezapom'
'nevyv'
'nevyhnutelně_'
'nevyh'
'nevinn'
'nevertheless_'
'nepřis'
'nepřetržitě_'
'nepoužív'
'neo_'
'nemusí'
'nemohu_'
'nemocí_'
'neme_'
'nele'
'nei'
'nedošlo_'
'nebudeme_'
'nds_'
'nce'
'nberg'
'navrhuj'
'nationalist_'
'naproti_'
'napad'
'nakládání_'
'nainstalova'
'nach'
'naby'
'měřítku_'
'městský'
'měn_'
'mírový'
'mírou_'
'mán'
'museum_'
'mt'
'mpa'
'mp_'
'možno'
'mous'
'monument'
'mond'
'mon'
'mole'
'model'
'mladé_'
'mix_'
'minimis'
'micro_'
'mic_'
'meth'
'meters_'
'mente'
'meno'
'mend'
'memori'
'memi'
'meli'
'mc'
'mber'
'materiálu_'
'mate_'
'matc'
'marked_'
'marginal'
'manželství_'
'mandatory_'
'manažer'
'mana'
'makroekonomick'
'magazine'
'mag'
'mad'
'líž'
'lédn'
'látka'
'lá_'
'lse'
'log'
'lodě_'
'locked_'
'load'
'llo_'
'lishe'
'lisa'
'linie_'
'lidstv'
'lidsk'
'liability_'
'leh'
'legitimacy_'
'lee'
'ledov'
'lednu_'
'lasting_'
'lari'
'lamp'
'kůži_'
'křesťansk'
'květ'
'kupředu_'
'kult'
'kuchy'
'krátkodobý'
'krt'
'kritéri'
'kritick'
'krev_'
'kových_'
'kos'
'konzultace_'
'konzultac'
'kontrolovat_'
'kontrola_'
'konse'
'konkuren'
'konkrétních_'
'konečné_'
'konečn'
'komplik'
'kompenz'
'kolektivní'
'knihy_'
'klou'
'klasick'
'kiss'
'kia'
'kep'
'kej'
'kdybychom_'
'kara'
'jším_'
'jüan'
'jícími_'
'justification_'
'js'
'jor'
'jmenuje'
'jisti'
'jevi'
'jem_'
'jednotlivými_'
'jednotlivc'
'jednotka'
'jdou_'
'jan'
'jakéhokoli'
'iž'
'izol'
'ivit'
'itě_'
'itu'
'itost'
'ities_'
'irresp'
'ire_'
'invo'
'investing_'
'introducing_'
'intr'
'interven'
'internetových_'
'internetov'
'interim_'
'interc'
'integrované'
'instructions_'
'inspect'
'insec'
'infringe'
'infekc'
'inen'
'imposing_'
'importantly_'
'imo'
'imi'
'imagina'
'ima'
'ilím_'
'illa'
'ilia'
'iku_'
'ige'
'iff_'
'iew_'
'ideál'
'ideological_'
'ide'
'icích_'
'ibi'
'hře'
'hrst'
'hranicích_'
'hran'
'hová'
'hovoříme_'
'hovořili_'
'households_'
'homel'
'holds_'
'hni'
'hladiny_'
'hla_'
'hk'
'highlight_'
'hens'
'hell'
'hau'
'hars'
'harder_'
'gut'
'gum'
'guid'
'grateful_'
'graph'
'grammatical_'
'globaliz'
'ghe'
'generous_'
'generat'
'gang_'
'gad'
'frighten'
'frequent_'
'fought_'
'fon'
'foi'
'flying_'
'flat'
'firemní_'
'fines'
'financovat_'
'financovan'
'fina'
'fik'
'fici'
'fer_'
'fed'
'farm_'
'fare_'
'fami'
'faktorem_'
'fai'
'eň_'
'eční'
'ečk'
'eč'
'extending_'
'expressing_'
'exporting_'
'exo'
'execution_'
'etn'
'ether'
'eten'
'ess'
'eso'
'err'
'epizod'
'environmentální_'
'enhanced_'
'encourages_'
'ence'
'enb'
'employer_'
'empire_'
'els'
'ell_'
'elevat'
'ekonomikou_'
'ekonomickém'
'eji_'
'efi'
'efekt'
'eds_'
'edno'
'edi'
'ecti'
'důležit'
'důkladně_'
'dětská_'
'dětsk'
'dětem_'
'dět'
'děláte_'
'dědictví_'
'dívat_'
'dárc'
'dám_'
'dysfun'
'dynamik'
'držení_'
'draw'
'dozoru_'
'doufá'
'doufat_'
'dosáh'
'dostatečný'
'doprovod'
'dopo'
'doo'
'domén'
'dobrovoln'
'dlu'
'dlouho'
'dispon'
'diskusí_'
'disi'
'dirty_'
'director_'
'dila'
'dik'
'dict'
'diam'
'deval'
'deserve_'
'dese'
'depress'
'depres'
'demokratický_'
'demokratickou_'
'demanded_'
'deflation_'
'deflac'
'definice_'
'defeat_'
'deduct'
'debts_'
'debtor_'
'debi'
'debaty_'
'dear_'
'dated_'
'dat'
'dark'
'dans_'
'daj'
'dad'
'církve_'
'cílov'
'cz'
'cycl'
'curtain'
'cun'
'cript'
'cow'
'cooperate_'
'coo'
'contract'
'contacts_'
'consume'
'construct'
'confor'
'confirm'
'conducting_'
'concluding_'
'conce'
'collected_'
'collect_'
'closing_'
'cler'
'classified_'
'civilis'
'civilian_'
'chybě'
'chose_'
'chemi'
'cheaper_'
'chas'
'chaos_'
'channel_'
'cenou_'
'celosvětový'
'celosvětov'
'celo'
'cells_'
'celebrate'
'catch'
'capture_'
'capabilities_'
'burk'
'bral'
'bowl'
'bout'
'bottle_'
'bother'
'borrowing_'
'bon_'
'bo_'
'blue'
'blog'
'blind_'
'biskup'
'billions_'
'bilit'
'bets_'
'berg'
'belongs_'
'behaviour_'
'beat_'
'baz'
'bath'
'basi'
'bare'
'bankovních_'
'bal_'
'bad'
'ažen'
'aři'
'azo'
'az_'
'avou'
'automatic_'
'austerity_'
'atick'
'asylum_'
'aspira'
'ash'
'artificial_'
'arrangement_'
'arb'
'aran_'
'appeal'
'annoy'
'anim'
'angličtin'
'analys'
'alto'
'alter'
'alleg'
'aliz'
'alg'
'aler'
'ald'
'akční'
'aktivně_'
'aktivní'
'akr'
'airports_'
'agree'
'aggressive_'
'aggregate_'
'after'
'affordable_'
'affecting_'
'aff'
'adju'
'acti'
'acknowledged_'
'achievement_'
'acet'
'accuse'
'aboard_'
'abandon_'
'aan_'
'Závěr'
'Změn'
'Zahr'
'Wood'
'Wil'
'Wikimedia_'
'Whi'
'Wel'
'Wed'
'Was'
'Všim'
'Věděl'
'Věd'
'Význam'
'Výrob'
'Východ'
'Vzd'
'Vu'
'Vr'
'Vor'
'Vlády_'
'Viz_'
'Vatican_'
'Van'
'Uži'
'Up_'
'UM'
'UEN_'
'Té'
'Twi'
'Tun'
'Total_'
'Think_'
'Ther'
'Tex'
'Technology_'
'Tat'
'THB_'
'Syrian_'
'Svět_'
'Summer'
'Stát'
'Stá'
'Stu'
'Spra'
'South'
'Soudního_'
'Sometimes_'
'Slovinsko_'
'Slovenian_'
'Sing'
'Simon_'
'Seznam_'
'Ses'
'Serb'
'Seb'
'Schi'
'Sb'
'Saxon'
'Sant'
'SU'
'SL_'
'SK'
'SEC'
'Russians_'
'Rumunsko_'
'Rules_'
'Roy'
'Ross'
'Roo'
'Rod'
'Road_'
'Rig'
'Reg'
'Reform'
'Railway_'
'RS'
'RIS'
'R3_'
'Quar'
'Přís'
'Předsed'
'Pyr'
'Put_'
'Ps'
'Prostě_'
'Profes'
'PricewaterhouseCoopers_'
'Pravd'
'Pouze_'
'Potahovaná_'
'Postup'
'Porto_'
'Položky_'
'Playground_'
'Piazza_'
'Pana'
'Ou'
'Osobn'
'Orient'
'Ora'
'Oprava_'
'Operation'
'Ona_'
'Odp'
'Obecné_'
'Obamy_'
'Někdo_'
'Northern_'
'News_'
'Nemo'
'Nel'
'Nejd'
'Neg'
'Near_'
'Naš'
'Nastavení_'
'Naj'
'Monday_'
'Modern_'
'Mike_'
'Meli'
'Media'
'McC'
'Mauri'
'Master_'
'Mann'
'Machine_'
'MEPs_'
'Lí'
'Lá'
'Lul'
'Litv'
'Literature_'
'Liberal'
'Lee_'
'Leave_'
'Lead'
'Lea'
'LT'
'LC'
'LA_'
'Kru'
'Kre'
'Kongres_'
'Kn'
'Klíčov'
'Kensington_'
'Kam'
'KOMISE_'
'Jud'
'Jeruzalém'
'Jedn'
'Jdi_'
'Jd'
'Jas'
'Jako'
'Jacques'
'Izraeli_'
'Islands_'
'Irá'
'Irska_'
'Inv'
'Install'
'Hotspot_'
'Horn'
'Hof'
'Hizballáh'
'Hilton_'
'Herna_'
'Hell'
'Gy'
'Guy'
'Gruzie_'
'Greens'
'Glo'
'Gener'
'GB'
'Fue'
'Friday_'
'Florida_'
'Fish'
'Fine_'
'Fil'
'Fero'
'Fel'
'Evropanů_'
'Evrop'
'Equal'
'Enc'
'Elysées_'
'Edinburgh_'
'Eco'
'ER_'
'Děkuju_'
'Dura'
'Due_'
'Dokud_'
'Dod'
'Doctor_'
'Dl'
'Dia'
'Deborah_'
'Deb'
'Dax_'
'Dau'
'Cuba_'
'Corporation_'
'Cooperation_'
'Competiti'
'College_'
'Clo'
'Clintonov'
'Clearly_'
'Cle'
'Christian'
'Chief_'
'Chicago_'
'Chart'
'Cest'
'Cathedral_'
'Cas'
'Cart'
'CR'
'COM_'
'CM'
'CHA'
'Burma_'
'Bulharsk'
'Bru'
'Brad'
'Bow'
'Bosnia_'
'Boot'
'Blue'
'Ben_'
'Bau'
'Bath_'
'Barn'
'BC_'
'Athens_'
'Arts_'
'Arma'
'Appar'
'Apo'
'Anglo_'
'Ah_'
'Add_'
'Access_'
'Academy_'
'Abych_'
'Abra'
'AV'
'ANNEX_'
'AKCPE_'
'63'
'210'
'122'
'118_'
'116_'
'107_'
'. . . . . ._'
'. -_'
'--'
', (_'
'+'
'# _'
' • _'
' – '
' {{_'
' : '
' ) (_'
'“)._'
'و'
'ұ'
'ь'
'по'
'на_'
'ер'
'бол'
'žím'
'žádám_'
'žádá'
'žádn'
'žto_'
'žijící'
'ženo'
'ůr'
'ťan'
'šim'
'šed'
'řádn'
'řeknu_'
'Říkám_'
'Řek'
'ějšími_'
'ěhoval'
'číta'
'čtyř_'
'čnost'
'čkou_'
'činů_'
'čený'
'časové_'
'čaj'
'Člen'
'ýs'
'ých'
'účinku_'
'účastnil'
'účastn'
'útoči'
'úsporn'
'úr'
'úlev'
'úct'
'íži'
'ížení_'
'ítk'
'íst_'
'íst'
'írá'
'íny_'
'íky_'
'íjí_'
'érie_'
'ça'
'áří'
'ářský'
'áčk'
'ázal'
'ánu_'
'ánk'
'álním_'
'áln'
'ádá'
'ácí_'
'áci_'
'ách'
'ácen'
'Účetní_'
'Õ_'
'«'
'zřeteln'
'zřetel'
'zčásti_'
'zú'
'získané_'
'závažno'
'záv'
'zásadní'
'zápisu_'
'zání_'
'zákazník'
'zvýšené_'
'zvítězi'
'zváž'
'zvyšovat_'
'zvláštním_'
'zvláštního_'
'zveřejň'
'ztrátu_'
'způsobů_'
'způsobené_'
'zpřístupn'
'zpravodaje_'
'zpoždění_'
'známk'
'znepokojuj'
'znepokojen'
'zmo'
'zmate'
'zkušenost'
'zjevné_'
'zion'
'zhorš'
'zemědělské'
'zdrojov'
'zde'
'zařízením_'
'zaznamená'
'zatčen'
'zatíž'
'zaručuje_'
'zapojen'
'zaměření'
'zamít'
'založené'
'zají'
'zahájit_'
'zahraničním'
'zadr'
'zadlužen'
'zabi'
'ysi'
'yo_'
'yield_'
'yage'
'xu_'
'xia'
'xel'
'worthy_'
'worth'
'worker_'
'wk'
'wisdom_'
'wir'
'wat'
'wak'
'věstníku_'
'věnov'
'výzev_'
'výnosů_'
'východ'
'výběr'
'vázan'
'válkou_'
'vzdělávací_'
'vzdálenosti_'
'vyčerpa'
'vyzývám_'
'vyzývá_'
'vysíla'
'vystř'
'vyslan'
'vyrovnat_'
'vyroben'
'vyro'
'vyprš'
'vypracová'
'vypr'
'vypořádat_'
'vypadat_'
'vynaložen'
'vymy'
'vymezení_'
'vymezen'
'vykonáva'
'vyhra'
'vyhlási'
'vyda'
'vycháze'
'vybaveny_'
'vstoupit_'
'vstoupil'
'vrchol'
'vraždy_'
'vrace'
'voř'
'volen'
'voják'
'vocabulary_'
'vnějších_'
'vníma'
'vnit'
'vládám_'
'vládní'
'vloži'
'vlast'
'vla'
'vit_'
'viruses_'
'virtual_'
'vineyard_'
'vešker'
'veřejným_'
'veřejn'
'veterinární'
'veri'
'veness_'
'vedl_'
'varování_'
'varova'
'vari'
'valley_'
'vali'
'vaj'
'vacuum_'
'užívají'
'ux'
'uvolňování_'
'urychlit_'
'uri'
'urge'
'upřednostň'
'upset_'
'upr'
'upozorň'
'upo'
'upevn'
'unstable_'
'unm'
'unlo'
'unfair_'
'unfa'
'umístění_'
'ultra'
'uložit_'
'ulo_'
'ulati'
'ukončen'
'ujícím_'
'uj_'
'uis'
'udělá'
'udělení_'
'udržovat_'
'udržitelnost_'
'udržení_'
'uci'
'třikrát_'
'těžší_'
'těžký'
'týkajícím'
'tát'
'twin_'
'tvoři'
'tuk_'
'tter'
'tta'
'trvání_'
'truc'
'trigger_'
'trends_'
'treatments_'
'travelling_'
'transplant'
'trafficking_'
'tour_'
'toli'
'toky_'
'toilet'
'tníc'
'tle_'
'tky_'
'tka'
'tivi'
'tih'
'tighten'
'ths_'
'threaten'
'ther'
'tena'
'telnost'
'tells_'
'televizní_'
'technologií'
'technologické_'
'tec'
'teams_'
'tch'
'tat_'
'tat'
'tasi_'
'tajemství_'
'tablet'
'síl'
'systémech_'
'světový'
'své'
'svol'
'suš'
'supporters_'
'suggesti'
'suff'
'succ'
'subvenc'
'substitute_'
'středu_'
'středomořsk'
'sté_'
'státním_'
'stupeň_'
'strávil'
'strike_'
'stream_'
'strav'
'stored_'
'stood_'
'stk'
'stejná_'
'stech_'
'stažení_'
'stažen'
'stavě'
'stanovená_'
'stanoveno_'
'stanovena_'
'stanov'
'stan_'
'stam'
'stagn'
'stabil'
'ssy_'
'srozumiteln'
'srd'
'sq'
'sprch'
'spravedlivý'
'spous'
'spotřebitelsk'
'spon'
'spolupracoval'
'společnostem_'
'spojov'
'spojit_'
'split_'
'specifikac'
'specifick'
'specifications_'
'sovětsk'
'současná_'
'současn'
'soustředit_'
'souhlas'
'som'
'soli'
'snídaně_'
'snídani_'
'sné_'
'směrnicí_'
'směl'
'smoke_'
'smell_'
'slyšel_'
'služební'
'službě_'
'slunce_'
'slun'
'slož'
'sleep'
'slab'
'sl_'
'skupině_'
'skupinou_'
'skončení_'
'sk_'
'sjednocení_'
'siv'
'sir'
'simi'
'silách_'
'silniční_'
'shu'
'shortage_'
'shipping_'
'shing_'
'shel'
'sešl'
'settled_'
'settings_'
'servis'
'servic'
'separated_'
'sektore'
'sekc'
'seeks_'
'season_'
'sci'
'schov'
'satisfy_'
'sat'
'samostatně_'
'sad_'
'sab'
'ré_'
'rámcové'
'rychlý_'
'rychlé_'
'rybolov_'
'ruled_'
'rozš'
'rozvod'
'rozvinut'
'roztok_'
'rozsudku_'
'rozsudek_'
'rovné_'
'rovna'
'routes_'
'ropo'
'roll'
'roh'
'rno'
'rm'
'rli'
'rival'
'risky_'
'rises_'
'risen_'
'ring'
'rik'
'rian'
'rgi'
'režim'
'reálnou_'
'rezervy_'
'rezervní_'
'revealed_'
'retain_'
'reta'
'restaurace_'
'respondent'
'resident_'
'resi'
'reservations_'
'resent'
'rer'
'reputation_'
'replacement_'
'renew'
'remarks_'
'reimburse'
'registraci_'
'region'
'regardless_'
'refusal_'
'refund_'
'refund'
'reformu_'
'reconciliation_'
'reason'
'realities_'
'reader'
'rci'
'rational_'
'rational'
'rating'
'radikální_'
'ract'
'quiet'
'qui_'
'quantities_'
'půjčov'
'příčiny_'
'přítel_'
'přísluš'
'přípravu_'
'přípravek_'
'příkladu_'
'příklad'
'příje'
'přišlo_'
'přiznán'
'přiznat_'
'připomíná_'
'připom'
'připojit_'
'připada'
'přiměřen'
'přijali_'
'přež'
'přezkum_'
'převáž'
'přesun'
'překvap'
'přehnan'
'představa_'
'předpisech_'
'předpis_'
'předpis'
'předcháze'
'přechodu_'
'pí_'
'push'
'pursued_'
'pun_'
'pto'
'pt_'
'psychiatri'
'průměru_'
'průmyslová_'
'právům_'
'právně_'
'prvků_'
'provozova'
'provoz_'
'propojení_'
'produktivní_'
'prodlouž'
'probíhající'
'privacy_'
'principal_'
'priced_'
'preventivní_'
'preventiv'
'prevail'
'presiden'
'preced'
'pravidly_'
'pravicov'
'pravdy_'
'pravdiv'
'ppe'
'požádá'
'počítačov'
'poč'
'poznamena'
'pozměňovacích_'
'pozastav'
'povolání_'
'povinné_'
'použit'
'použil'
'potlesk_'
'potenciálních_'
'potenciál'
'poten'
'posuzování_'
'posunu'
'postižení'
'poslouch'
'posledním_'
'poslat_'
'populations_'
'populac'
'poplatník'
'pomáhat_'
'pomohl_'
'pomoct_'
'položen'
'podív'
'podává_'
'podstatu_'
'podpoří_'
'podporujeme_'
'podpor'
'pododstav'
'poctiv'
'pochybnosti_'
'plán'
'platební_'
'plateb_'
'planetu_'
'placen'
'pipe'
'pio'
'pin_'
'photos_'
'phen'
'pevn'
'perpet'
'pero_'
'perl'
'periphery_'
'perceived_'
'perce'
'pedestrian'
'patři'
'partnerů_'
'participants_'
'parent_'
'papír'
'památk'
'pamatuj'
'palivov'
'pain'
'ozv'
'označování_'
'ozi'
'owners_'
'ovské_'
'ovlád'
'ovlivnit_'
'overse'
'overnight_'
'outcomes_'
'ound_'
'oud'
'otevřeně_'
'otevírá'
'osur'
'ostře'
'ostatně_'
'orní'
'opíra'
'optimis'
'ops'
'opravn'
'opozice_'
'opozic'
'opol'
'operační_'
'openness_'
'openly_'
'onn'
'onally_'
'omezuje_'
'omezil'
'olá'
'olu'
'ology_'
'oliv_'
'olej_'
'okn'
'oh_'
'odá'
'odu'
'odstavce_'
'odsouzen'
'odráže'
'odpovídají_'
'odpo'
'odmíta'
'odle'
'odkl'
'odkazy_'
'odhalen'
'odh'
'odborní'
'ocitl'
'ochránit_'
'oceni'
'oce_'
'obt'
'observations_'
'obrázek_'
'obrá'
'obrovskou_'
'obra'
'obnovu_'
'oble'
'objektivní'
'objects_'
'obdržel'
'obav_'
'německ'
'něm'
'někde_'
'nějakého_'
'níku_'
'nést_'
'náva'
'následn'
'nálad'
'nák'
'nábytek_'
'nula_'
'noční_'
'novel'
'nouz'
'nositel'
'nosi'
'nos_'
'nižším'
'niž'
'ničí'
'nist'
'nio'
'nineteenth_'
'nig'
'nici'
'nh'
'ngt'
'ngka'
'ngi'
'nezd'
'nevýhod'
'nevztahuje_'
'nevyp'
'neusp'
'neuděl'
'nesp'
'nervous_'
'nerovn'
'nepříjemn'
'nepotřeb'
'nepodař'
'nenávist'
'nemůžete_'
'nemyslím_'
'nemohla_'
'největším_'
'neighbor'
'neg'
'nedostal'
'nedop'
'necht'
'necel'
'ndu'
'navždy_'
'naváz'
'nau'
'nationals_'
'narrow'
'naj'
'nainstal'
'nai'
'nahrazuje_'
'nahrazen'
'nabízejí_'
'nabídnout_'
'nabídku_'
'měrn'
'měnov'
'média_'
'multinational'
'mption'
'mpi'
'možný_'
'moreover_'
'mom_'
'moji_'
'modifikovan'
'mluvil_'
'mladí_'
'misi_'
'ministerstva_'
'mento'
'meets_'
'medic'
'measuring_'
'meaningful_'
'matern'
'massage_'
'masivní'
'mari'
'margin_'
'manus'
'manufacturers_'
'mann_'
'mann'
'male_'
'make'
'm2_'
'léčit'
'léky_'
'láz'
'lyží_'
'lude'
'lts'
'loňské'
'lor_'
'loose_'
'long'
'logistic'
'logic_'
'lod'
'loan_'
'llen'
'liturgi'
'linu'
'lings_'
'lihood'
'libr'
'liberalisation_'
'leč_'
'lex'
'lett'
'letní_'
'lect'
'leas'
'laz'
'lation_'
'landing_'
'lain'
'ladatel'
'křesl'
'kře'
'kými_'
'kód'
'kán'
'kámoš'
'kámo_'
'krk'
'kritiz'
'koupil'
'korun'
'kons'
'konkurenci_'
'kombinace_'
'koli'
'kolen'
'kolegům_'
'koalic'
'kniha_'
'kmenov'
'klíčovým_'
'klidn'
'klid_'
'klam'
'king'
'kilometrů_'
'keyboard_'
'kem'
'kel_'
'kea'
'kdybys'
'kdybych_'
'kb'
'kapitalistick'
'kampan'
'jím'
'ju_'
'jist_'
'jichž_'
'jem'
'jednotek_'
'jdu_'
'jc'
'jazyc'
'jasn'
'jakýkoli_'
'jakém'
'jakákoli_'
'jaderného_'
'jaderná_'
'iř'
'ičt'
'izovan'
'izolac'
'ize'
'italské'
'iste'
'iss'
'isov'
'ish'
'iro'
'ire'
'invitation_'
'invi'
'investory_'
'investigate_'
'inver'
'inti'
'interventions_'
'intera'
'intensif'
'intel'
'integrity_'
'instruction_'
'instru'
'insight'
'inse'
'inju'
'ining_'
'indirectly_'
'indicators_'
'index'
'incurred_'
'inclusive_'
'inar'
'impul'
'ilo'
'ikov'
'ideology_'
'ictví_'
'icon'
'ication_'
'iate'
'iar'
'hw'
'hudb'
'ht_'
'hráči_'
'hrají_'
'hostil'
'hore'
'hoo'
'hodně'
'hodil'
'hoc_'
'hma'
'hluboké_'
'hloup'
'historii_'
'highway_'
'hic_'
'hero'
'helpfull_'
'helm'
'hec'
'harm'
'guis'
'graphy_'
'graph_'
'grants_'
'grant'
'graf'
'gourmet_'
'gori'
'glori'
'gio'
'gest'
'genero'
'generating_'
'gene'
'genc'
'fut'
'fungoval'
'fragile_'
'fotografi'
'football_'
'foods_'
'foo'
'focuses_'
'flash'
'flag_'
'fit'
'fist'
'firstly_'
'finančními_'
'financován'
'fin_'
'film'
'federace_'
'federa'
'fear'
'favor'
'farmář'
'farms_'
'farm'
'fans_'
'fair'
'ešen'
'ečno'
'expozic'
'expect'
'exp'
'existoval'
'existen'
'evn'
'evident'
'etí_'
'etik'
'erro'
'erm'
'erd'
'erc'
'eo_'
'entra'
'entin'
'ensk'
'ense'
'enhance_'
'engines_'
'ency'
'enco'
'enabled_'
'emit'
'emerged_'
'ements_'
'elle'
'elite_'
'eligible_'
'elektrick'
'eld_'
'eho_'
'ege'
'een'
'educated_'
'edia'
'ebe'
'eal'
'ea'
'důvěra_'
'dětské_'
'dělám'
'dějinách_'
'dějin_'
'dz'
'dv'
'dus'
'duration_'
'druhým_'
'draž'
'dramatically_'
'dra_'
'dovol'
'dostaly_'
'dospělý_'
'dosahu'
'dosahova'
'dorm'
'donut'
'domnív'
'domina'
'dokončen'
'dohodou_'
'dobrým_'
'dobou_'
'dnešních_'
'dlužník'
'dlouhý'
'dlouhodobých_'
'dlouhodob'
'division_'
'diversif'
'distribuci_'
'distan'
'disposal_'
'displace'
'dispe'
'discussing_'
'discount_'
'discharge_'
'disar'
'directory_'
'diplomacy_'
'dings_'
'dialog'
'dh'
'dge_'
'deš'
'devastating_'
'deta'
'desítky_'
'desired_'
'desert'
'derogation_'
'derived_'
'dependency_'
'department_'
'denatur'
'dem_'
'delu'
'delighted_'
'dekád'
'degradation_'
'defla'
'decrease_'
'decides_'
'dde'
'dale'
'cítím_'
'cílen'
'cy'
'cvičení_'
'cv'
'cult'
'cture_'
'cting_'
'crops_'
'council'
'cots_'
'correcti'
'continuous_'
'contaminat'
'constrain'
'constituen'
'consists_'
'consequent'
'conse'
'confront'
'configuration_'
'confi'
'concession'
'compulsory_'
'compound'
'compli'
'communi'
'commonly_'
'commodity_'
'combine_'
'collecti'
'collaboration_'
'cokoliv_'
'clinical_'
'clin'
'clean'
'classical_'
'ckým_'
'ción_'
'civilians_'
'cito'
'chystá'
'chudobou_'
'chladn'
'chill'
'certificates_'
'centrální'
'cast_'
'captain_'
'camp'
'cake_'
'březnu_'
'břehu_'
'běžné_'
'bělo'
'byznys'
'build'
'budgets_'
'brzd'
'broadly_'
'brief_'
'breed'
'breache'
'brand'
'boy'
'bouř'
'borne_'
'bolestn'
'bok'
'boil'
'blízko'
'blood'
'blokov'
'bles_'
'blend'
'bl'
'bien_'
'bezprostředn'
'bezpečný'
'berr'
'ben_'
'behavi'
'bec'
'bay_'
'barb'
'bankov'
'bach_'
'ažuj'
'ař'
'azy'
'avec_'
'authors_'
'authori'
'auditu_'
'audiovi'
'auc'
'até_'
'attain'
'atrak'
'atmosféře_'
'ater'
'assure_'
'assumption_'
'assist'
'assa'
'arrest_'
'arm_'
'aqua'
'aným'
'antivirov'
'antib'
'answered_'
'anonym'
'anga'
'ands'
'analýzu_'
'ampl'
'americk'
'ame'
'ambitions_'
'ambiciózn'
'alan'
'aktualizova'
'aktualizac'
'aktivit_'
'akci'
'agresivn'
'agent_'
'advise_'
'adv'
'adu'
'ador'
'adn'
'admissi'
'admir'
'adl'
'adjustments_'
'adi'
'adem'
'ade_'
'aco'
'acco'
'accepting_'
'accent'
'accelerated_'
'abso'
'absenci_'
'['
'Zobraz'
'ZP'
'Women_'
'Wired_'
'Wien_'
'Výbor'
'Víte_'
'Víme_'
'VÝ'
'Vulkán'
'Vešker'
'Vezm'
'Venezuel'
'VA_'
'VA'
'Upon_'
'Uděl'
'UNI'
'Tímto_'
'Tradi'
'Tour'
'Thursday_'
'Texas_'
'Test'
'Terr'
'Termin'
'Taj'
'Tah'
'TVs_'
'TAR'
'Syr'
'Stře'
'Steve_'
'Standard_'
'Standard'
'Stalin'
'Spol'
'Spojeném_'
'Spen'
'Sovětské'
'Současná_'
'Someone_'
'Slovenia_'
'Sl'
'Skutečnost_'
'Sic'
'She'
'Shar'
'Secondly_'
'Se_'
'Sco'
'Saúdsk'
'Save_'
'Saturday_'
'Santo'
'Saf'
'SQL_'
'SP_'
'SL'
'Rub'
'Rozumí'
'Rodi'
'Rio_'
'Remember_'
'Regist'
'Radisson_'
'RT_'
'RD'
'Připo'
'Především_'
'Pros'
'Princip'
'Prezident_'
'Powe'
'Post_'
'Political_'
'Pokr'
'Podív'
'Pocket_'
'Platby_'
'Plan'
'Philip'
'Pha'
'Pass'
'Pap'
'Pale'
'Pag'
'PT'
'PRA'
'Očekáv'
'Ow'
'Ov'
'Ord'
'Opatření_'
'Olympic_'
'Oct_'
'Obsahující_'
'OC'
'Niko'
'Nie'
'Nic'
'Nest'
'Nepř'
'Nemůže'
'Nejen'
'Neexistuj'
'Nebude_'
'Nam'
'Nal'
'Má'
'Musíš_'
'Munich_'
'Mozilla_'
'Move_'
'Mou'
'Monitor'
'Mira'
'Mir'
'Michel_'
'Michel'
'Medical_'
'Marok'
'Marb'
'Mano'
'Malta_'
'Mada'
'MAN'
'Looking_'
'Lit'
'List'
'Lis'
'Lind'
'Likewise_'
'Kva'
'Kub'
'Král'
'Kosovu_'
'Konec'
'Kle'
'Klaus'
'Kh'
'Kem'
'José_'
'Jon'
'Joey_'
'Jel'
'Jav'
'Japonc'
'Jaký_'
'Jaká_'
'Irák_'
'Instala'
'Initia'
'Indonési'
'Indo'
'Indic'
'Imperial_'
'Imag'
'Im'
'ION_'
'INT'
'ING_'
'IK'
'IDE_'
'ID'
'Hug'
'Hr'
'Hospodářsk'
'Hlasoval_'
'Hlas'
'Hen'
'Hay'
'Hans'
'HN'
'HC'
'Guide_'
'Guan'
'Growth_'
'Gol'
'Gl'
'Gir'
'Gates_'
'Gast'
'Further_'
'Fis'
'Fajn_'
'Europa_'
'Estonia_'
'End_'
'End'
'Ekonom'
'Edit'
'Dív'
'Dro'
'Dr'
'Down'
'Dol'
'Dohody_'
'District_'
'Disc'
'Director'
'Den_'
'Deep_'
'Datum_'
'Daniel_'
'DVD'
'DU'
'Creative_'
'Countries_'
'Cot'
'Corr'
'Convenient'
'Compa'
'Command'
'Clos'
'Clea'
'Class'
'Chorvatsko_'
'Chile_'
'Cert'
'Celo'
'Case'
'Carol'
'Cargo_'
'California_'
'CT'
'C6_'
'Bůh_'
'Bělorusk'
'But'
'Brand'
'Boutique_'
'Boro'
'Borde'
'Boo'
'Boj'
'Bohu_'
'Boe'
'Bod'
'Bobby_'
'Blízk'
'Ble'
'Blair_'
'Be_'
'Bangladesh_'
'Bajor'
'Avi'
'Austrian_'
'Atlanti'
'Ast'
'Anne'
'Ani'
'Angli'
'Alm'
'Aga'
'Actually_'
'Acti'
'AST_'
'ACP_'
'ACE_'
'>'
'900_'
'72'
'220'
'1988_'
'184'
'104_'
'103_'
'08'
'/ '
'.)'
'. ({{_'
'---'
', - _'
'+ _'
'))_'
'" - _'
' |'
' ='
' --> _'
' ), _'
' " _'
'“) _'
'ف_'
'ض_'
'د_'
'، _'
'ү'
'қ_'
'я_'
'я'
'ын'
'се'
'са'
'лы'
'ко'
'же'
'жа'
'žovan'
'žní'
'životní'
'žili_'
'židovsk'
'žalobkyně_'
'šá'
'šro'
'špi'
'šný'
'šla'
'škrty_'
'šit_'
'šil'
'šení_'
'šem'
'Še'
'říva'
'říkali_'
'řídil'
'řství'
'řov'
'řk'
'řik'
'řeč_'
'řecké_'
'řeb'
'ňoval'
'ı'
'ěných_'
'čínský_'
'čínsk'
'čá'
'člověkem_'
'čestn'
'černé_'
'čer'
'častěji_'
'Čím_'
'Ček'
'ýz'
'ýli'
'ück'
'účt'
'územ'
'úzce_'
'úsp'
'íše'
'ì'
'émy_'
'ée_'
'ès_'
'äu'
'áší'
'ášení_'
'áře_'
'ází_'
'ávk'
'átil'
'átek_'
'ápě'
'ála_'
'áhl'
'ádí_'
'Ý'
'°_'
'zůstala_'
'zůsta'
'zřízení_'
'zřetelně_'
'zřejm'
'zóny_'
'získáva'
'zázrak'
'zát'
'zást'
'záni'
'zán'
'zálež'
'základu_'
'základními_'
'zvládnout_'
'zum'
'zují_'
'způsobilo'
'zprávou_'
'zpro'
'zpravodajka_'
'zpomalení_'
'zován'
'zovan'
'zotav'
'zodpově'
'znát'
'znovu'
'zničit_'
'zničil'
'znamenalo_'
'změní_'
'změn'
'zmírnění_'
'zkouma'
'zisku_'
'zelen'
'zdůrazň'
'zdůraznil_'
'zdv'
'zdravý'
'zdokonal'
'zdan'
'zbytku_'
'zbran'
'zaujím'
'zasáhn'
'zastánci_'
'zastaral'
'zard_'
'zapom'
'zaplacen'
'zakázat_'
'zajíma'
'zahrnující_'
'zahrnoval'
'zachrán'
'zabezpečit_'
'yu'
'ysle'
'ym_'
'yj'
'yi'
'xon'
'xist'
'worried_'
'wondering_'
'whole'
'weaken_'
'wave'
'watch'
'wart'
'wars_'
'warn_'
'vůdčí_'
'větším_'
'věrohodn'
'věnuje_'
'vědě'
'významných_'
'vývozní_'
'výv'
'výtah'
'výrobní'
'výrobci_'
'výroba_'
'výrob'
'výdaj'
'východním_'
'vítá'
'víno_'
'vína_'
'vé'
'vážený_'
'vzájemné'
'vzruš'
'vzdušn'
'vza'
'vyžádá_'
'vyvolat_'
'vyvolalo_'
'vyu'
'vytvořili_'
'vypn'
'vyplývající_'
'vynaklád'
'vylouči'
'vyjm'
'vyhr'
'vydě'
'vybíz'
'vybudovat_'
'vybraný'
'vstříc'
'vské'
'vova'
'volno'
'volbu_'
'volbou_'
'volb'
'volal'
'vnější'
'vnímat_'
'vním'
'vnu'
'vládnou'
'vlasů_'
'vlastni'
'vku'
'vklád'
'viz'
'vity_'
'vital'
'vill'
'viewed_'
'vidi'
'vial'
'veškerá_'
'veřejném_'
'versa'
'vera'
'venční'
'veni'
'velkými_'
'velikost_'
'valy_'
'valu'
'uživatelům_'
'uživateli_'
'uši'
'učiní_'
'uzav'
'uvědomil'
'uváděn'
'uvedení_'
'uvedená_'
'uu'
'uté_'
'utter'
'utin'
'ust_'
'usp'
'usnadň'
'usilov'
'uráž'
'urs'
'urgency_'
'urg_'
'uplynul'
'unwi'
'unted_'
'unse'
'underline'
'unch'
'unbe'
'unam'
'umírněn'
'ump'
'umn'
'ulu'
'ultra_'
'ukončit_'
'ukoli_'
'ukládá'
'uhličitého_'
'uga'
'uf'
'udo'
'ucti'
'uchy'
'ubi'
'třída_'
'třicet'
'třetími_'
'tř'
'těžko'
'týmu_'
'témat_'
'tář'
'tyhle_'
'tvor'
'tvar'
'tut'
'tureck'
'tti'
'tte_'
'tržních_'
'très_'
'trop'
'trials_'
'treasur'
'transpose'
'transparentní_'
'trad'
'toxicity_'
'toxic'
'toxi'
'town'
'torp'
'torie'
'tori'
'topo'
'too'
'tok'
'toc'
'tně'
'tné_'
'tlak'
'tis_'
'tile'
'tila_'
'tight_'
'tic'
'tial_'
'threshold_'
'theme_'
'terri'
'teploty_'
'tenz'
'tene'
'tender'
'tendenci'
'tendenc'
'temn'
'telně'
'telný'
'teen'
'teda_'
'teach_'
'taxpayers_'
'tarif'
'tamní_'
'tabu'
'sť'
'séri'
'sáz'
'symbolic'
'sym'
'swor'
'světle_'
'svěd'
'svrchovan'
'svr'
'svobodně_'
'svazu_'
'svazk'
'suverenity_'
'surely_'
'summ'
'sum'
'subparagraph_'
'subjekt'
'středně_'
'stín'
'studií_'
'studii_'
'studentů_'
'student'
'struck_'
'strip'
'stretch'
'stresse'
'straš'
'straight'
'storm_'
'stisk'
'stimul'
'stein_'
'steam_'
'steal'
'statu'
'stará_'
'stark'
'stanovisku_'
'stanic'
'stabilizac'
'stab'
'sso'
'sses_'
'ssen_'
'srovnáv'
'srovnateln'
'spustil'
'správc'
'spotřební_'
'spotřeba_'
'spot'
'sport'
'splát'
'spláce'
'splat'
'spiritual'
'spekula'
'spectrum_'
'specifi'
'speaks_'
'spalov'
'sout'
'soul'
'soukromém_'
'soudce_'
'sooner_'
'solarium_'
'sněmovn'
'sní_'
'snadn'
'smě'
'smutn'
'sly_'
'složk'
'slou'
'slope'
'sleduje_'
'slabé_'
'slabo'
'skvělý_'
'skupinám_'
'skončí_'
'sklon_'
'simultaneously_'
'similarit'
'silence_'
'sig'
'sia'
'shrnu'
'shouldn_'
'short'
'shore'
'shop_'
'shipment_'
'shaped_'
'seznam'
'severely_'
'seve'
'servi'
'seperti_'
'semi'
'selama_'
'sek_'
'sehrá'
'secur'
'sections_'
'secre'
'sebev'
'searching_'
'sdělovací'
'sdílení_'
'sdíl'
'sda'
'schéma'
'scház'
'scene_'
'scene'
'sce'
'scared_'
'sbír'
'saw'
'sati'
'samotn'
'samospráv'
'saj'
'sai'
'safer_'
'safely_'
'safeguard_'
'ržen'
'růstové'
'rč'
'rámcov'
'rá_'
'rychlost'
'rybářsk'
'rusti'
'rumo'
'ruky_'
'rui'
'ruh'
'rozšiřuj'
'rozvíje'
'rozví'
'rozpou'
'rozmanitost_'
'rozl'
'rozhodují'
'rozhoduje_'
'rozdr'
'rous_'
'rostlin_'
'rostlin'
'rooftop_'
'rog'
'rodinný'
'rodin_'
'robe'
'roam'
'ritu'
'rigor'
'rg'
'rezervaci_'
'rez'
'retro'
'restrain'
'resist_'
'resign'
'requiring_'
'repu'
'repressi'
'repeat_'
'remov'
'relian'
'relaxed_'
'relates_'
'reinforce_'
'reinforce'
'registrovan'
'refugee_'
'refrigerat'
'refrain_'
'recommendation_'
'recom'
'recital_'
'reciproc'
'receiving_'
'realizace_'
'realitu_'
'realistick'
'realistic_'
'reaguj'
'reactions_'
'rated_'
'rasis'
'ranc'
'raketo'
'rají_'
'rage_'
'radikál'
'racis'
'rable_'
'quenc'
'původního_'
'pů'
'přítele'
'přístupn'
'přísnější'
'přísn'
'příslušnými_'
'příslušného_'
'přísa'
'přílišn'
'přík'
'příjemců'
'příb'
'přivedl'
'přispě'
'připusti'
'připomínk'
'připomněl'
'připoj'
'přil'
'přidáv'
'přežití_'
'přez'
'převz'
'převlád'
'přesné_'
'přesnost'
'přesahuje_'
'přerozděl'
'přenos'
'překr'
'přek'
'předčasn'
'předvídateln'
'předpověd'
'předcházení_'
'předchozího_'
'předchozích_'
'předběžné'
'pácha'
'pyšn'
'py'
'pusti'
'purely_'
'publici'
'pts_'
'ptions_'
'psychologic'
'psycholog'
'psy_'
'průměrný_'
'průměr'
'průmyslové'
'právy_'
'prudce_'
'prož'
'provisional_'
'provin'
'proven_'
'protiprávní'
'prostředk'
'prostředek_'
'prostor'
'proslul'
'propuštěn'
'pronásledov'
'prone'
'proliferation_'
'programem_'
'profit'
'profes'
'produkt_'
'prochází'
'procesní'
'procentní'
'procenta_'
'print'
'principu_'
'prezent'
'prev'
'presum'
'presenting_'
'preparations_'
'premiéra_'
'pramen'
'praktická_'
'pracující_'
'practi'
'pracovník'
'pracovn'
'pper'
'požádala_'
'požadoval'
'požadavkům_'
'poštovní_'
'poškoz'
'pořádn'
'počkat_'
'poznámka_'
'pozem'
'pozdější'
'pový'
'povrch'
'povah'
'použita_'
'poukáza'
'potřebujete_'
'potíž'
'potra'
'potr'
'potlačen'
'posíl'
'postupuj'
'posta'
'possess'
'poskytován'
'poskytnuta_'
'poráž'
'porušov'
'porozumění_'
'populis'
'popis_'
'ponecha'
'poměr_'
'položek_'
'politováníhodn'
'polit'
'pokyny_'
'pokusil_'
'pokusil'
'pokrok'
'pokládán'
'poker_'
'pojď_'
'pojiš'
'pohř'
'podstatně_'
'podstatn'
'podrobno'
'podpůrn'
'podpoř'
'podmínkám_'
'podléhají_'
'podezřel'
'podepsan'
'pm_'
'plní_'
'plemen'
'plavidel_'
'physically_'
'physic'
'phenomenon_'
'phas'
'pevný'
'perv'
'perspectives_'
'pel_'
'peer_'
'pedia'
'peak'
'pastor'
'participa'
'parity_'
'papíry_'
'pachatel'
'očí'
'očit_'
'oče'
'ovač'
'ovatel_'
'ours_'
'oub'
'oty'
'otevřený_'
'osvětl'
'osud_'
'ospravedln'
'osobám_'
'oslaben'
'osit'
'ose_'
'oric'
'organized_'
'organizacím_'
'organizacemi_'
'oran'
'opětovné_'
'opt'
'opravy_'
'opon'
'opil'
'operační'
'opatřeními_'
'opakovan'
'ool'
'omp'
'omezova'
'olu_'
'ologie'
'oli_'
'okrát_'
'oid'
'ogra'
'odškodnění_'
'odstavec_'
'odpovědí_'
'odmítli_'
'odlišné_'
'odhady_'
'odep'
'odchyl'
'odběr'
'ochranných_'
'ochra'
'ocel'
'občansk'
'obu'
'obstacles_'
'obrátit_'
'obrovským'
'obrac'
'obohac'
'obnovi'
'obnovení_'
'obliged_'
'obdrží'
'obchody_'
'oba'
'oasis_'
'něč'
'nějaký'
'nějaká_'
'níky_'
'násobn'
'nárůstu_'
'národ_'
'náhl'
'nádherné'
'náchyln'
'nábytk'
'nábo'
'ntu_'
'noviny_'
'normaliz'
'nohy_'
'nodded_'
'nn_'
'nku_'
'niče'
'nis'
'nikoho_'
'nika'
'nictv'
'ngu'
'ngl'
'ngg'
'nezávislý'
'nezas'
'nezap'
'nezaměstnan'
'nevys'
'neustál'
'neup'
'nestane_'
'nestan'
'nervo'
'nepřátelsk'
'nepřip'
'nepřesahuj'
'nepravděpodobné_'
'nepost'
'nepos'
'neomezen'
'nenas'
'nemůžeš_'
'nejčastěj'
'největší'
'nejst'
'nejr'
'nejpozději_'
'nejnižší'
'nejn'
'nejmodernější'
'nejistot'
'nejist'
'nefunguj'
'neformální'
'nedělá'
'neděl'
'nedovol'
'nedostatečné_'
'nedodrž'
'nechci_'
'naštěstí_'
'našli_'
'nazývá_'
'navštívit_'
'navrhovatel'
'navrhnout_'
'navigation_'
'naut'
'nationalism_'
'narušení_'
'napsa'
'naléhavé_'
'naiv'
'nadcházející'
'městské_'
'měni'
'měn'
'mód'
'mírové_'
'mí_'
'médi'
'myšlenk'
'myslíte_'
'multilaterální'
'mula'
'mpu'
'mozku_'
'motivac'
'mother'
'mortgage_'
'mortality_'
'monitorova'
'modr'
'moderniz'
'modernis'
'modern'
'mode'
'mládež'
'mistakes_'
'minors_'
'mine'
'miluj'
'miliar_'
'midnight_'
'metabolit'
'merc'
'mera'
'menšin_'
'mengu'
'membu'
'meda'
'mechaniky_'
'measured_'
'mbl'
'manželk'
'mant'
'manifest'
'mami_'
'malým_'
'malou_'
'mall'
'magi'
'lík'
'líc'
'léčbu_'
'lát'
'ládá_'
'lovn'
'loving'
'lon_'
'lok'
'loaded_'
'lle_'
'lko'
'lka'
'lizova'
'lizac'
'livě_'
'lita'
'lip'
'limiting_'
'life'
'licencí_'
'library_'
'liberalization_'
'lha'
'lež'
'levných_'
'leverage_'
'letov'
'letecký'
'lesní'
'lerat'
'lepších_'
'legi'
'laskav'
'larly_'
'lar_'
'label_'
'kód_'
'kurz_'
'kulární'
'kuchyni_'
'kter'
'krásné_'
'králov'
'krou'
'krm'
'koš'
'kouz'
'konzisten'
'konzervativc'
'kontrol_'
'kontaktu'
'kont'
'konstrukce_'
'konkurenceschopn'
'konfigurac'
'konferenční'
'konfe'
'kond'
'konců_'
'koncepc'
'komunikaci_'
'kompromis'
'komodit'
'komisař'
'komfort'
'kolej'
'kodex'
'kob'
'klíčová_'
'klíč'
'klon'
'kling'
'klima_'
'klik'
'klientů'
'kladou_'
'kj'
'kist'
'killing_'
'kes'
'kde'
'každo'
'kategorii_'
'katastrofy_'
'kapitána_'
'kapitálové_'
'kapacit'
'kandidátsk'
'kají'
'juta'
'juice_'
'judges_'
'jména_'
'jistou_'
'jistoty_'
'jednalo_'
'jazyka_'
'iš'
'iče'
'iza'
'iv_'
'itor'
'ito_'
'itiv'
'itelný_'
'isolated_'
'islámu_'
'ision'
'ipt'
'investorů_'
'investor'
'investiční'
'investigati'
'investasi_'
'inventor'
'intervene'
'intervence_'
'intervenc'
'interna'
'inta'
'insti'
'installations_'
'instalac'
'instal'
'ins_'
'inou_'
'inis'
'iniciativ'
'ingov'
'informovan'
'infi'
'infe'
'inf'
'inet'
'iner'
'industri'
'indu'
'incredibl'
'inconsisten'
'incom'
'inadequate_'
'impro'
'import'
'implic'
'immi'
'imit'
'imbalance'
'ije'
'idla_'
'idia'
'ider'
'identifikov'
'icul'
'icted_'
'icial'
'iba'
'ial'
'hř'
'hání_'
'hydrogen_'
'hus'
'hurikán'
'hrub'
'hotelové_'
'hospodářsk'
'hospodař'
'horri'
'hole'
'holder_'
'hne_'
'hlub'
'hli'
'hlasu_'
'historických_'
'historického_'
'hil'
'highlighted_'
'hey_'
'het'
'hes'
'hegemon'
'hedge_'
'heav'
'hast'
'harvest'
'hardwar'
'hang_'
'handled_'
'hamm'
'halt_'
'hair'
'hadn_'
'habl'
'hab'
'gé'
'guvernér'
'gun_'
'guidance_'
'guestrooms_'
'gue_'
'gu_'
'grid_'
'graduate_'
'grad'
'grace_'
'grab'
'globalisation_'
'glamo'
'geri'
'geno'
'genetick'
'genetic_'
'generací_'
'für'
'fér'
'fy'
'funkční'
'funded_'
'fundamentalist'
'fty_'
'frustrat'
'fren'
'frau'
'francouzského_'
'fot'
'fos'
'formulova'
'formalit'
'forever_'
'finger'
'finds_'
'filmy_'
'filmu_'
'file'
'fic'
'fibr'
'fia'
'ffy_'
'fem'
'fears_'
'favour'
'favorite_'
'fast'
'fas'
'fakta_'
'eře_'
'ečný'
'ey'
'express'
'exportní'
'explanat'
'experiment_'
'exist'
'exercis'
'exempl'
'excess_'
'exceptions_'
'exce'
'exc'
'evolved_'
'euros_'
'etin_'
'eral'
'equip'
'equa'
'enš'
'entrepreneurs'
'enters_'
'enrich'
'enge'
'engagement_'
'energetické'
'energetická_'
'endi'
'encod'
'enact'
'empti'
'emn'
'elu'
'elsk'
'elin'
'eliminat'
'elimin'
'elegant'
'elegance_'
'elb'
'eil'
'efficiently_'
'edu'
'edita'
'edit_'
'edit'
'eden'
'earne'
'dži'
'důsledkem_'
'důležité'
'děte'
'děn'
'děli'
'dílčí'
'díla_'
'délk'
'dávk'
'dump'
'duk'
'duj'
'ducha_'
'drag_'
'down'
'dow'
'dovoz_'
'dovolené_'
'doufal'
'doubts_'
'dotčených_'
'dotčeného_'
'dostávají_'
'dostatečn'
'dostan'
'dosavadní'
'dor_'
'dopravních_'
'domácích_'
'dominated_'
'dominant_'
'dome'
'dolar'
'dokázali_'
'doktor_'
'dohlíže'
'dohled'
'dodává'
'dodat_'
'docháze'
'dný'
'dnocen'
'dlouhodobě_'
'dla'
'divisi'
'disse'
'disre'
'disp'
'dismantl'
'disappear_'
'disab'
'director'
'directions_'
'die'
'dictat'
'diagnos'
'dho'
'devoted_'
'developers_'
'dev_'
'detention_'
'detected_'
'det_'
'designat'
'describes_'
'depth_'
'deno'
'demokratickým'
'demokratická_'
'democracies_'
'deliberate'
'degrad'
'definitiv'
'defi'
'deeper_'
'deepen'
'dedicated_'
'declare_'
'deca'
'das_'
'daný_'
'daná_'
'danc'
'damages_'
'damag'
'dají_'
'dai'
'cynic'
'culo'
'cular'
'ctví'
'criticize'
'criminals_'
'creates_'
'countryside_'
'counsel'
'corn'
'cooperati'
'contractual_'
'contraction'
'conte'
'consultati'
'consolidat'
'considerations_'
'conservati'
'condition'
'cond'
'comprises_'
'compos'
'completion_'
'complaints_'
'competitors_'
'competi'
'comparison_'
'communicate_'
'commit_'
'close'
'cleaning_'
'cle_'
'classi'
'class'
'ckl'
'cizí_'
'cit_'
'circulation_'
'chápa'
'chysta'
'chybo'
'chyb'
'chvíle_'
'churches_'
'cht_'
'chronick'
'chronic_'
'chodí_'
'chodem_'
'chlape'
'chlap_'
'chie'
'chic'
'chem'
'charit'
'chapter_'
'chap'
'chao'
'chai'
'cenn'
'celní'
'celebrati'
'ceiling_'
'cei'
'ced_'
'cata'
'capital'
'cancel_'
'camp_'
'běžný'
'běžná_'
'butter_'
'bust'
'burs'
'bureaucratic_'
'burden'
'bug'
'budov_'
'budoucího_'
'budi'
'bublin'
'brows'
'broke'
'bou_'
'boss_'
'borrow'
'bone_'
'bojuj'
'boast'
'bláz'
'blur'
'blocked_'
'bless'
'blam'
'biological_'
'bili'
'bilance_'
'big'
'bezo'
'beru'
'beri'
'bera'
'bek'
'beings_'
'begun_'
'begins_'
'beautifully_'
'bc'
'bathtub_'
'bathrooms_'
'barev'
'banku_'
'balk'
'balis'
'bahan_'
'bach'
'awful_'
'await'
'aux'
'aug'
'aty_'
'atri'
'atele'
'assur'
'assumed_'
'asserti'
'aspoň_'
'asks_'
'ase_'
'artist'
'arranged_'
'arise_'
'arabský'
'appropriations_'
'approaches_'
'ao'
'anů_'
'anne'
'ank'
'angry_'
'angka'
'anda'
'alost'
'allowances_'
'alli'
'alizac'
'alen'
'alcoholi'
'alc'
'aktér'
'aktivist'
'akt_'
'akciové'
'akcionář'
'ají'
'aji'
'aja'
'aid'
'agi'
'ag_'
'afrických_'
'advisory_'
'admitted_'
'administrativní_'
'addresse'
'additive'
'adapted_'
'acov'
'achievements_'
'ache'
'ace'
'accountable_'
'accommodations_'
'accommodate'
'accident_'
'accessed_'
'academic_'
'ables_'
'ab_'
'`_'
']]"'
'Zůsta'
'Zř'
'Ztr'
'Zelen'
'Zan'
'Zaměstnan'
'Zak'
'Yan'
'Xi'
'Worf'
'Woods_'
'Wilders'
'Watch_'
'WLAN_'
'WHO_'
'WC_'
'Vše_'
'Vítám_'
'Vyp'
'Vipassana_'
'Vietnam'
'Ves'
'Vas'
'VOY_'
'Under'
'Una'
'Ukrainian_'
'Ub'
'UTC_'
'UNESCO_'
'Třeba'
'Typ'
'Tuto_'
'Turkmenist'
'Turi'
'Tru'
'Tower_'
'Topics_'
'Top'
'Too_'
'Tito_'
'Tin'
'Timo'
'Thajsk'
'Ter'
'Temp'
'Tel'
'Tay'
'Tax'
'Taiwan_'
'TC'
'TAC'
'Swe'
'Svat'
'Sure_'
'Sunni_'
'Sudan_'
'Students_'
'Ston'
'Stockholm'
'Stal'
'Stad'
'Stability_'
'Srbsk'
'Sport'
'Specif'
'Současn'
'Southern_'
'Sol_'
'Sofia_'
'Sli'
'Slavic_'
'Slav'
'Sla'
'Situace_'
'Several_'
'Seven'
'Secure_'
'Scott_'
'Scho'
'Schengen_'
'Saw'
'Sas'
'Saddam_'
'SV'
'Rum'
'Rozhod'
'Rose'
'Representative_'
'Reed'
'Reception_'
'Real_'
'Rather_'
'RE_'
'RC'
'Quin'
'Queen_'
'Příl'
'Pus'
'Pul'
'Práv'
'Proces'
'Procedur'
'Probl'
'Prince_'
'Preci'
'Počkej_'
'Později_'
'Power_'
'Povol'
'Použit'
'Politick'
'Politic'
'Polic'
'Plán'
'Ple'
'Peru'
'Pert'
'Pem'
'Peace_'
'Partner'
'Paper_'
'Palestinians_'
'Pakt'
'Pact_'
'Pac'
'PU'
'PE_'
'PD'
'Oz'
'Outlook_'
'Otázk'
'Ori'
'Orb'
'Oni_'
'Omlouvám_'
'Oliv'
'Ole'
'Obě_'
'Obchodní_'
'Oba'
'Někdy_'
'None_'
'Neza'
'Nesn'
'Nemůžu_'
'Neměli_'
'Nejvyšší_'
'Nechci_'
'Neb'
'Naz'
'Natural'
'Nab'
'NY'
'NX_'
'NB'
'Mountain'
'Mora'
'Moo'
'Montáž_'
'Monta'
'Mluv'
'Mlad'
'Mitchell_'
'Missi'
'Minist'
'Miluj'
'Medic'
'Management_'
'Malé_'
'Mall'
'Major'
'Mac_'
'MB'
'Lyn'
'Lun'
'Ltd_'
'Lor'
'Lon'
'Loca'
'List_'
'Lim'
'Libert'
'Lib'
'Lex'
'Lear'
'Lastly_'
'Lanc'
'Lag'
'Lady_'
'Lac'
'Lab'
'LB'
'Kul'
'Krist'
'Krak'
'Kouk'
'Kore'
'Klin'
'Kit'
'Kirk_'
'Kie'
'Kenn'
'Kate_'
'Kam_'
'Kah'
'Jordan_'
'Johnson_'
'Jimmy_'
'Jiho'
'Japonska_'
'JE_'
'Isl'
'Internetu_'
'Institut'
'Info'
'IFRS_'
'IC_'
'Hv'
'Hul'
'Hillary_'
'Hem'
'Hammam_'
'Haló_'
'HO_'
'HK'
'Ghan'
'Georgi'
'Geo'
'Gat'
'Galway_'
'GP'
'Frie'
'Francis'
'Fei'
'Fee'
'Federac'
'Face'
'Fab'
'Expo'
'Eva'
'Ep'
'Ek'
'Education_'
'EVROPSK'
'EUROP'
'EHSV_'
'EE'
'Dě'
'Dám'
'Dubrovnik_'
'Donald_'
'Dim'
'Dictionary_'
'Dic'
'Dev'
'Der'
'Darfur_'
'Cíl'
'Cycling_'
'Crowne_'
'Criminal_'
'Court'
'Cost'
'Cos'
'Consumer_'
'Confi'
'Conf'
'Compl'
'Communist_'
'Commons_'
'Chápu_'
'Chtě'
'Chr'
'Chec'
'Castel'
'Cass'
'Casa_'
'Care'
'Card'
'Call_'
'CTI'
'COMM'
'CB'
'Byly_'
'Bushov'
'Budete_'
'Buc'
'Brus'
'Brun'
'Brig'
'Boy'
'Bot'
'Boston_'
'Bond'
'Boasting_'
'Bl'
'Bit'
'Beijing_'
'Batt'
'Bankomat_'
'Back'
'BY'
'BG_'
'B6_'
'Ave'
'Ava'
'Atla'
'Asp'
'Arm'
'Ara'
'Apa'
'Any'
'Ameri'
'Ahmad'
'Afri'
'Adv'
'Additional_'
'Act'
'Abs'
'AT_'
'AN_'
'A1_'
'?” _'
';&_'
'89'
'73'
'5hvězdičkový_'
'42'
'236'
'203'
'202'
'1990s_'
'1960_'
'188'
'180'
'170'
'114_'
'106'
'105_'
'100'
'.’_'
'.  _'
'. ... _'
'. ) _'
'* ..._'
') - _'
'"...'
' ]'
' %)'
'��_'
'” (_'
'ға'
'х'
'ті'
'те'
'с_'
'ру'
'не_'
'к_'
'žír'
'žádoucí_'
'žádném_'
'žádného_'
'žuje_'
'žov'
'živý'
'životně_'
'žený'
'Žádná_'
'Žij'
'Ženy_'
'Žalob'
'ův'
'šíří_'
'šířit_'
'švédský'
'ští'
'šte'
'školství_'
'škola_'
'škodlivý'
'škodliv'
'širším'
'šifrov'
'šek_'
'šat'
'Švédsko_'
'Španělsk'
'Šp'
'řít_'
'řím'
'říkala_'
'řiv'
'Řím_'
'Říká'
'Řekně'
'ňá'
'ňsk'
'ňován'
'ł'
'ěže'
'ěp'
'ěno_'
'ěme_'
'ěk_'
'ěhl'
'ěděl'
'čů_'
'členka_'
'čko_'
'čiteln'
'čit_'
'činnoste'
'činil'
'česk'
'čc'
'časn'
'časem_'
'Část_'
'Člověk_'
'Čl'
'Či'
'ă'
'ýnsk'
'üh'
'účtován'
'účinnou_'
'účel'
'úvěrové_'
'útvar'
'úspěšné_'
'úspěšno'
'úspěchů_'
'úpadk'
'únor'
'úloze_'
'údržb'
'úbyt'
'ño_'
'íře'
'íček_'
'írat_'
'íp'
'ín_'
'íle'
'ícího_'
'íb'
'ère_'
'ção_'
'är'
'áží'
'ázán'
'ásn'
'árních_'
'áka'
'áhn'
'Úředním_'
'Účin'
'Účel'
'  _'
'~'
'zúčastněné_'
'zón'
'závise'
'závažný'
'závazk'
'zásada_'
'západo'
'západním_'
'zákonodárc'
'zád'
'záchran'
'zzo_'
'zvýšily_'
'zvážit_'
'zvážil'
'zvyšov'
'zvr'
'zvol'
'zveda'
'zrod'
'zova'
'zones_'
'zon_'
'zohled'
'zneužíva'
'zneuží'
'zmíněné_'
'zmíněn'
'zlepšování_'
'zkra'
'zkouše'
'zkontrolovat_'
'zjišťov'
'ziv'
'zisků_'
'zisk_'
'zept'
'zeměpisn'
'zemědělský'
'zemědělskou_'
'zdůraznil'
'zbytečné'
'zby'
'začalo_'
'zavřen'
'zatížení_'
'zastánc'
'zastav'
'zaslouž'
'zasl'
'zapla'
'zaost'
'zaměstnan'
'zakáza'
'zakořeněn'
'zaka'
'zajišťování_'
'zajat'
'zahájením_'
'zahraničn'
'zaci_'
'zachránil_'
'zac'
'zabav'
'yli'
'yle'
'yell'
'ych_'
'xima'
'xed_'
'writers_'
'wri'
'works'
'withdrawn_'
'wiki'
'wid'
'whis'
'wei'
'websites_'
'was'
'wall'
'walks_'
'waite'
'všim'
'všemu_'
'vězn'
'větš'
'význa'
'výstup_'
'výroční'
'výrobc'
'výpočet'
'výkaz'
'výhodu_'
'výdajov'
'výcvik'
'vída'
'vášn'
'vátn'
'vzr'
'vzniká_'
'vznikající'
'vzestupu_'
'vzdá'
'vzdal'
'vzbudi'
'vyšl'
'vyšetř'
'vyzvat_'
'vyzval_'
'vyvíje'
'vyvin'
'využíva'
'vytvořila_'
'vytvořil'
'vytv'
'vytrval'
'vytr'
'vysvětluje_'
'vyspěl'
'vysokými_'
'vyrovnan'
'vypůjč'
'vypracovat_'
'vypracoval'
'vypln'
'vymě'
'vymý'
'vykresl'
'vykona'
'vykazova'
'vyjadřuje_'
'vyjadřov'
'vyhově'
'vyhledáva'
'vyděláv'
'vybudování_'
'vybavené_'
'vrácen'
'vrcholn'
'vowels_'
'vor_'
'volatility_'
'vodík'
'vnímání_'
'vnitřních_'
'vnitrostátním_'
'vlny_'
'vkladů_'
'vizi_'
'vist'
'violate'
'vili'
'vicinity_'
'via'
'večer'
'veter'
'versity_'
'venkovských_'
'vegeta'
'vašim'
'vazeb'
'vaných_'
'vale'
'vající'
'uživ'
'uznávání_'
'uzd'
'uvědomuje'
'uváž'
'uvolni'
'uvedeném_'
'utan'
'uta_'
'uskuteční_'
'určují'
'urs_'
'urin'
'ured_'
'uprchlík'
'upravují'
'uplatněn'
'upl'
'upe'
'upad'
'unusual_'
'unr'
'uno'
'unk'
'unijní'
'ungan_'
'uner'
'unemployed_'
'unders'
'underpin'
'uncomfortable_'
'umožňují_'
'umožňova'
'uman'
'uly_'
'uli_'
'ukáž'
'ukázal'
'ukazatel'
'uja'
'uent'
'uen'
'udržitelné_'
'uchová'
'třetího_'
'těsn'
'týkal'
'týdnech_'
'tých_'
'téhož_'
'tého_'
'táhn'
'tá_'
'typ'
'twe'
'tvrdě'
'tvrdit_'
'tty'
'tter_'
'ttabl'
'trž'
'tropic'
'trea'
'transp'
'translated_'
'trail'
'tragick'
'track'
'trace'
'toři_'
'toy'
'tová'
'totožn'
'topic_'
'tok_'
'tnost'
'tma'
'tles'
'tků'
'tku_'
'tite'
'tiskárn'
'timber_'
'tickets_'
'ticho'
'tically_'
'tical_'
'tica'
'tib'
'thri'
'thoroughly_'
'testova'
'testi'
'teru'
'terorismem_'
'terjadi'
'tered_'
'terba'
'teras'
'terapi'
'teori'
'televize_'
'telah_'
'tek'
'tej'
'tee'
'techniques_'
'technickou_'
'teache'
'tate'
'tasty_'
'takzvaný'
'takti'
'takov'
'tak'
'tactic'
'tackl'
'tac'
'tabáku_'
'tabulk'
'tablets_'
'sň'
'systematick'
'systematic_'
'synthe'
'symbols_'
'swift'
'swap_'
'světl'
'světem_'
'svižn'
'sval'
'suspicio'
'suspect_'
'suprem'
'stěžejní'
'stáhl'
'stupň'
'stup'
'studios_'
'struktur'
'strict'
'stres'
'strat'
'strann'
'stou'
'stores_'
'stole'
'stojí'
'stik'
'stačit_'
'stavební'
'stave'
'starších_'
'stall'
'stadiu'
'stabilní'
'ssor'
'sque'
'spuštění_'
'spuštěn'
'spur'
'správě_'
'správný_'
'spočí'
'sportov'
'spolurozhodování_'
'spoluprac'
'společnostech_'
'společenský'
'splňují_'
'spit'
'spin'
'spectacular'
'specifický'
'specialt'
'spac'
'sové_'
'souvislost'
'souvisejí_'
'soustřed'
'soust'
'song'
'solid'
'softe'
'socialistick'
'snow'
'snažila_'
'směřující_'
'směřování_'
'směrnic_'
'smu'
'smluvní_'
'smluvní'
'smi'
'sman'
'slyšeli_'
'službám_'
'slovinské'
'slouč'
'sladk'
'slabá_'
'skří'
'skutečným_'
'skrýva'
'sklad'
'sjednocen'
'size'
'sively_'
'siona'
'simplification_'
'simpli'
'silent_'
'signature'
'shromažďování_'
'shock_'
'shirt'
'shell'
'sharply_'
'shal'
'shad'
'seznámi'
'severokorejsk'
'serverů_'
'sert'
'sentiment'
'sentence'
'sensib'
'send'
'sej'
'sehingga_'
'sedí_'
'sebagai_'
'seba'
'sdílet_'
'scr'
'schůzce_'
'schvaluj'
'school'
'scholars'
'sblíž'
'sazba_'
'saver'
'satisf'
'sarge_'
'sand_'
'saha'
'růstem_'
'rétorik'
'rávněn'
'rát_'
'ryz'
'rychlosti_'
'rybolovn'
'ryb_'
'rušen'
'rulers_'
'ruj'
'ruin'
'rtu'
'rsion'
'rozsáhlých_'
'rozpočtových_'
'rozpočtovou_'
'rozpočtem_'
'rozpozn'
'rozpor'
'rozhovory_'
'rovný'
'rovnocenn'
'rostl'
'root'
'roma'
'rolle'
'rodičů_'
'rodinn'
'rně_'
'rná'
'rne'
'rly_'
'rku'
'rizikov'
'rizikem_'
'riu'
'rity_'
'rezo'
'reward'
'rev'
'retreat'
'retire'
'restaurací_'
'respektován'
'respektovat_'
'respects_'
'residue'
'researchers_'
'reprodukční'
'repres'
'renminbi_'
'reminde'
'rele'
'relaxation_'
'relativ'
'reformova'
'reformní_'
'refinanc'
'referendu_'
'referenda_'
'referend'
'reference'
'reductions_'
'redu'
'rect'
'recorded_'
'reconstruct'
'recons'
'recon'
'recommend'
'rda'
'raš'
'rator'
'ratified_'
'rarely_'
'rans'
'rang'
'rama'
'rali'
'raket_'
'raj'
'rado'
'rad_'
'quo'
'quantity_'
'qualif'
'působící'
'půjde_'
'půjd'
'pší'
'pšen'
'příš'
'přístupů_'
'přístupy_'
'přísně_'
'příslušným_'
'příslušníků_'
'přípoj'
'přímou_'
'příjemné_'
'příhod'
'příchod'
'příběh'
'přátelé_'
'přišla_'
'přispěje_'
'připravené'
'připravena_'
'připad'
'přinesla_'
'přimě'
'přikr'
'přijatý'
'přijaty_'
'přijato_'
'přihlási'
'přidán'
'přidané_'
'přidal'
'přezkoumání_'
'převrat'
'přestat_'
'přestal'
'přesněj'
'přepravu'
'přemýšle'
'překážkou_'
'překvapiv'
'přehlíže'
'předáva'
'představovat_'
'představitele_'
'představen'
'předsednictvím_'
'předložil'
'předložení_'
'předložené'
'předchozím_'
'přechodné_'
'přec'
'přebyt'
'pěš'
'pěstování_'
'pěst'
'písmen'
'píse'
'pír'
'pull_'
'průměrné_'
'průmyslov'
'prvkem_'
'prud'
'prs'
'prováděcí'
'protect'
'prostorn'
'prospero'
'prosazoval'
'pror'
'pronounced_'
'promoted_'
'proká'
'projevy_'
'projednávan'
'prohlíže'
'programov'
'prognóz'
'profession_'
'prodávat_'
'produktivitu_'
'produkte'
'produkova'
'procháze'
'procesy_'
'proběhl'
'problematic'
'probl'
'privileged_'
'privat'
'prison'
'pricing_'
'prezidentské_'
'preserved_'
'prepa'
'premium'
'pregnant_'
'precedent_'
'precaution'
'pravidle'
'pravideln'
'prask'
'praktický'
'praktické'
'pragmatick'
'pped_'
'požaduje_'
'poškodi'
'pořád'
'počítá_'
'počítačů_'
'počítat_'
'počí'
'pozorova'
'poznatk'
'poznat'
'pozměňovací'
'pozmě'
'powder_'
'povědomí_'
'povrchu_'
'povinný'
'poved'
'považoval'
'používá'
'používaný'
'pound'
'pouk'
'pouh'
'potřebný'
'potýkají_'
'potraviná'
'potravinové_'
'posun_'
'postu'
'postrád'
'postpone'
'postavil_'
'postará'
'poslal_'
'poskytuj'
'poskytn'
'portugalské'
'porov'
'porodnost'
'poradní_'
'poptáv'
'popisuje_'
'popis'
'pomohla_'
'polož'
'poloviny_'
'politiků_'
'politikami_'
'pokřiv'
'pokrýv'
'pokládá_'
'poklesl'
'pojišťovn'
'pojistn'
'pohrom'
'pohlíž'
'poe'
'podívám'
'podvodům_'
'podt'
'podstaty_'
'podstat'
'podrob'
'podpořili_'
'podpořil_'
'podniknout_'
'podnikatelské'
'podnikatelsk'
'podléha'
'pocit'
'poboč'
'plánuje'
'plugin'
'plodin_'
'pling'
'plenární'
'plein_'
'plasma_'
'planet'
'pilíř'
'pili'
'pieces_'
'pia'
'phrase_'
'phil'
'petrol'
'pesticidů_'
'perception_'
'peněžní'
'penz'
'pens'
'peni'
'penge'
'penc'
'pemerintah_'
'paž'
'pau'
'patr'
'passion'
'passing_'
'passage_'
'pasi'
'particle'
'partial_'
'parks_'
'parke'
'pant'
'panic_'
'paměť_'
'palestinský'
'palestinské_'
'pair'
'oživ'
'očekávám'
'oznám'
'ovlivňují'
'oversi'
'ovaném'
'outskirts_'
'otázkám_'
'otro'
'otevřený'
'otevřenost'
'otevř'
'osvobození_'
'ostrovy_'
'osobní'
'oso'
'orr'
'organize'
'orb'
'opírá_'
'opustil'
'opakuj'
'opak'
'oon_'
'onů_'
'onaliz'
'omn'
'omezený_'
'omb'
'okruh'
'okamžité_'
'oje'
'oficiálních_'
'odůvodněn'
'odváž'
'odvahu_'
'odsuz'
'odpočinku_'
'odpočin'
'odpoč'
'odpovědné_'
'odporu_'
'odpor'
'odpoledn'
'odpad_'
'odně'
'odmítnout_'
'odloži'
'odl'
'odkazuj'
'odhodlan'
'odhadovan'
'odeslán'
'oddílu_'
'oddan'
'odcház'
'odborn'
'ocit'
'ochu'
'ocenění_'
'ocean_'
'occurs_'
'occu'
'obř'
'obá'
'obvyklé'
'obtížn'
'oboru_'
'objections_'
'obje'
'obavám_'
'obava'
'obat'
'nš'
'nízká_'
'níme_'
'níků_'
'názorů_'
'návrhem_'
'nátlak'
'náročný'
'nár'
'námitk'
'nákupní'
'náhrada_'
'náhodn'
'náboženských_'
'nutím_'
'nuts_'
'nutný'
'nuje'
'nské_'
'noticed_'
'nominat'
'nomic'
'noble_'
'nnes'
'nj'
'niteln'
'nie_'
'nich'
'nic'
'neži'
'nezda'
'nezbytně_'
'newspaper_'
'nevěří'
'nevra'
'neus'
'neudělal_'
'networking_'
'nesouhlasí'
'nesouhlasi'
'nesou_'
'nesna'
'nesn'
'nesm'
'nesd'
'neschopnost_'
'nepřijateln'
'nepřed'
'nepotřebuje'
'neposlední_'
'neplatí_'
'neos'
'nená'
'nemáš_'
'nemovitost'
'nem_'
'nekom'
'nejsi'
'nejk'
'nejchudší_'
'nejb'
'neighbours_'
'negotiate_'
'neglect'
'neexistují_'
'nedojde_'
'nedocház'
'nede'
'nebyli_'
'nebu'
'nebr'
'neboli_'
'ndo'
'ncy_'
'navštív'
'naučit_'
'nastan'
'narodil'
'narazil'
'namít'
'naléh'
'najednou_'
'najd'
'nahoře_'
'nacist'
'nacionalismu'
'nabídne_'
'měsíci_'
'mým_'
'mýl'
'místn'
'míst'
'más_'
'muž'
'muselo_'
'mum_'
'mst'
'mp3_'
'mořský'
'movies_'
'moves_'
'moud'
'motions_'
'morph'
'montáž'
'mokr'
'modl'
'modification'
'modelů_'
'mocensk'
'množ'
'mlh'
'mism'
'minimální'
'mineral'
'minds_'
'mimořádné_'
'mimozem'
'miluje'
'mil_'
'migrant'
'mez'
'metodu_'
'menšino'
'meningkat'
'melt'
'mech'
'md'
'may'
'maximálně_'
'maxim'
'mato'
'matku_'
'matk'
'matic_'
'matche'
'master'
'mast'
'masa'
'marry_'
'marke'
'mar_'
'maloobchodní'
'mais_'
'maid_'
'magnetic'
'macro'
'lů'
'lých_'
'lý'
'líb'
'léčivý'
'lékaře_'
'lux'
'lsk'
'lph'
'loyal'
'lovat_'
'lous'
'logg'
'lních_'
'lišt'
'liza'
'livost'
'lity_'
'liquid'
'linuxov'
'linen'
'limp'
'limitation_'
'like'
'lifting_'
'lidskou_'
'lick'
'liberální_'
'liberalizaci_'
'liberal'
'lhůtě_'
'levice_'
'leten'
'letec'
'lera'
'lel'
'legislativy_'
'legislativní'
'lec'
'leb'
'leaf'
'lays_'
'landmark'
'lande'
'lalu_'
'lack'
'label'
'ků'
'kódy_'
'kému_'
'kyselin'
'kultur'
'kula'
'ktura'
'který'
'krátké'
'královs'
'krizov'
'krach'
'kořeny_'
'kovů_'
'kovou_'
'kostel'
'korekc'
'koordinovan'
'končí_'
'konvenční'
'konstatovat_'
'konkur'
'konečného_'
'koncentra'
'komplex'
'kompatibil'
'komor'
'komfortním_'
'komfort_'
'komerční_'
'komand'
'kola'
'knutí'
'know'
'kn'
'kláves'
'kluk_'
'klinick'
'klidné'
'klesající'
'klepněte_'
'kind'
'kie'
'keuangan_'
'kdykoli_'
'kdo'
'kau'
'kapa'
'kamarád'
'kah_'
'kabin'
'justi'
'jug'
'judic'
'journalist'
'journ'
'jménu_'
'jistotou_'
'jiní_'
'jednotlivců_'
'jednom'
'jednoduch'
'jaře_'
'jasným'
'jang'
'jakýkoliv_'
'jakýchkoli'
'jakákoliv_'
'jakosti_'
'jako'
'jakkoliv_'
'jab'
'išť'
'iér'
'izraelské_'
'izi'
'izace_'
'ival'
'ituc'
'its'
'itr'
'italský'
'isu'
'istick'
'issuing_'
'isek_'
'isc'
'irsk'
'irc'
'ipe'
'ipa'
'invite_'
'intimate_'
'interinstitu'
'interi'
'intensity_'
'insurgen'
'insulat'
'instruct'
'institucemi_'
'instant_'
'install'
'inspir'
'insist_'
'insist'
'insi'
'initiati'
'inhabitants_'
'informacím_'
'infectio'
'inefficien'
'individuáln'
'indispensable_'
'indicates_'
'incl'
'incapa'
'impression_'
'implement'
'imperative'
'imper'
'imme'
'imm'
'iky_'
'ija'
'ignoran'
'ification_'
'ifer'
'identifikovat_'
'identifik'
'identifi'
'ident'
'icts_'
'icti'
'ica_'
'ibu'
'ibility_'
'hypoteční'
'hyb'
'hrál'
'hranicemi_'
'hr_'
'hovořil_'
'hospodářským_'
'horse'
'honour'
'homosexu'
'hom'
'holi'
'hodí_'
'hodnotí'
'hodlá_'
'hmotnostní_'
'hlášení_'
'hluboko'
'hledal'
'hlavě_'
'hired_'
'hing'
'high'
'hier'
'herself_'
'hen_'
'height'
'hei'
'heal'
'hati'
'harmonizaci_'
'harbour_'
'hara'
'hant'
'habitación_'
'gul'
'grass'
'grand_'
'grammar_'
'grafické'
'govi'
'gon_'
'globáln'
'globe_'
'gif'
'gick'
'ght'
'ggl'
'gger'
'generálního_'
'generaci_'
'gem'
'gastro'
'garage_'
'gaps_'
'fá'
'fyzik'
'funkční_'
'func'
'fro'
'freight_'
'freeze'
'frankly_'
'founded_'
'forum_'
'formá'
'formulá'
'formation_'
'flot'
'fiskálního_'
'fis'
'financi'
'filt'
'films_'
'filme'
'filesystem'
'fest'
'feld'
'favourabl'
'fantas'
'fanouš'
'familiar_'
'fajn_'
'faithful_'
'facture'
'factory_'
'fabulous_'
'fabric'
'fa_'
'eř'
'ečné_'
'ezn'
'eys_'
'extrémn'
'explicitly_'
'experiments_'
'experiencing_'
'exhausti'
'exclusion_'
'excit'
'examin'
'exacerbate'
'everyday_'
'ever'
'euru_'
'eure'
'etta_'
'etický'
'etic_'
'establishments_'
'estab'
'essence_'
'ersk'
'erp'
'epo'
'episode_'
'environmentally_'
'environment'
'envi'
'enterprise_'
'ente_'
'entail'
'ening_'
'enforce'
'ener'
'emul'
'emisemi_'
'emis'
'embark'
'elektráren_'
'elektronický'
'elegantní_'
'ela'
'ekonomi'
'ející'
'eg_'
'eff'
'efektivitu_'
'efekt_'
'edy'
'edr'
'editor_'
'editi'
'ecue_'
'echo'
'eche'
'dž'
'důvěryhodnost'
'důvěrn'
'dřívější_'
'dřeva_'
'dř'
'dělo'
'dějiny_'
'díl_'
'díl'
'dánsk'
'dvous'
'dvac'
'dua_'
'dt_'
'drůbež'
'drove_'
'dropped_'
'drinking_'
'dovážen'
'dován'
'double'
'dotyčný'
'dotkn'
'dosáhla_'
'dostá'
'dostanou_'
'dospěla_'
'dosažiteln'
'dopředu_'
'doprovázen'
'doprováz'
'doposud_'
'doporučil'
'doplňující'
'doplňuj'
'doplňkov'
'donors_'
'done'
'dona'
'doložk'
'dole_'
'doje'
'dohodnout_'
'dohodl'
'dodatk'
'doda'
'doct'
'dnou'
'dnešní'
'dluž'
'dlouhé'
'dlouhodobém_'
'dividend'
'divide_'
'divers'
'distortion'
'dist'
'disputes_'
'discretion_'
'discover'
'discard'
'disappointed_'
'diplomatick'
'diktátor'
'difficulty_'
'differ_'
'dictionaries_'
'dictatorship'
'dial'
'devět_'
'develop'
'destinations_'
'designated_'
'depression_'
'deny_'
'denominat'
'demografi'
'democrati'
'democrat'
'demagog'
'dema'
'delight'
'delet'
'delegac'
'deka'
'dei'
'declined_'
'deadl'
'dceřin'
'datu_'
'databases_'
'daného_'
'dangers_'
'dalšímu_'
'cítil'
'církv'
'cími_'
'czech'
'cyklu_'
'custom_'
'cure_'
'cure'
'cukr'
'cue'
'cture'
'ctive_'
'cross'
'creat'
'cream_'
'crash_'
'crack'
'courage_'
'counterp'
'costly_'
'correspond'
'corp'
'coordinate_'
'conviction_'
'conversation_'
'convention'
'continuity_'
'continua'
'contin'
'const'
'consolidated_'
'consist'
'congress_'
'congratulations_'
'confuse'
'confronted_'
'configure_'
'conclu'
'concepts_'
'complimentary_'
'complie'
'compensate'
'compari'
'commission_'
'commission'
'comm'
'colla'
'codes_'
'clearance_'
'clarity_'
'clar'
'cize'
'civilistů_'
'cionální_'
'cio'
'cigarette'
'cien'
'chání_'
'chybu_'
'chti'
'chráněn'
'chole'
'chláp'
'chicken'
'chest'
'cher_'
'charis'
'champ'
'challenged_'
'chab'
'cha_'
'cestující'
'cest'
'cep'
'cenách_'
'cel_'
'cautio'
'carrier'
'carr'
'capitalist_'
'cam_'
'cale'
'caf'
'běžných_'
'bí_'
'byrokratick'
'burned_'
'budoucna_'
'brut'
'britské_'
'bright'
'brief'
'brid'
'breathtaking_'
'bras'
'brand_'
'branch_'
'brain'
'boom'
'bomb_'
'bole'
'bojoval'
'boats_'
'bliž'
'bk'
'bina'
'bilní_'
'bill'
'bike_'
'bezvý'
'bezpečnost'
'bero'
'berd'
'benz'
'bell_'
'bei'
'bearing_'
'bbl'
'batter'
'bati'
'basket'
'bases_'
'bariéry_'
'banká'
'bankovního_'
'bankami_'
'balík_'
'ball'
'backed_'
'bac'
'azí'
'azylov'
'azují'
'azu'
'ay'
'axi'
'avě'
'avé'
'autoritářsk'
'automobilů_'
'automobile'
'aul'
'ath'
'atel_'
'asy'
'asti'
'aster'
'aspir'
'asl'
'asijské_'
'ascen'
'arr'
'armády_'
'arma'
'arbitra'
'appointment_'
'appa'
'apologi'
'aplika'
'ap_'
'antn'
'announce_'
'anca'
'analyz'
'analytic'
'amon'
'amidst_'
'ambice_'
'alova'
'alov'
'alkohol'
'alizov'
'algi'
'ald_'
'akty_'
'aking_'
'akcept'
'aj_'
'aire_'
'aiming_'
'ahova'
'agendu_'
'afi'
'aerolini'
'adí_'
'administrativ'
'adit_'
'adds_'
'add'
'acu'
'activists_'
'actively_'
'acquisition_'
'accus'
'accr'
'acceptance_'
'abuse'
'abe'
'abb'
'`` _'
']]'''
'Zák'
'Způsob'
'Zku'
'Zkouš'
'Zimmer_'
'Začn'
'Zar'
'ZO'
'ZIP_'
'ZI'
'XI'
'Word'
'Wit'
'Wind'
'Wie'
'Who'
'Week'
'Wars'
'Walter_'
'Walt'
'Walk'
'WOT_'
'Výs'
'Výkon'
'VÁ'
'Využi'
'Vra'
'Vladimir_'
'Video_'
'Victorian_'
'Via_'
'Vezmě'
'Vent'
'Velk'
'VP'
'Unlike_'
'Unc'
'Ukrajina_'
'URL_'
'UE'
'Tři_'
'Těší'
'Tá'
'Turecka_'
'Tud'
'Translate_'
'Tool'
'Together_'
'Title_'
'Tis'
'Tic'
'Tibetan_'
'Through_'
'Thr'
'Thomas_'
'Test_'
'Tent'
'Ted_'
'Talk_'
'Takhle_'
'TY_'
'TRA'
'TION_'
'TEN'
'Sí'
'Sz'
'Sve'
'Support_'
'Sul'
'Suc'
'Studie_'
'Stub'
'Strá'
'Strasbourg_'
'Stephen_'
'Stejn'
'Srbsko_'
'Spotřeb'
'Sport_'
'Soval_'
'Socialist'
'Smith_'
'Slyšel_'
'Slu'
'Slibuj'
'Sled'
'Skvěl'
'Sit'
'Single_'
'Sid'
'Sib'
'Sia'
'Shia'
'Shel'
'Shan'
'Serg'
'Send'
'Sche'
'SH'
'SE_'
'Rural_'
'Rumunsku_'
'Rud'
'Rozpočtov'
'Residen'
'Repair_'
'Rei'
'Region_'
'Rat'
'Rambla'
'Rac'
'RAID'
'Přím'
'Příj'
'Přestaň'
'Překlad_'
'Přec'
'Pub'
'Production_'
'Produc'
'Prin'
'Prac'
'Pozor'
'Pozn'
'Považuj'
'Porta'
'Popr'
'Politik'
'Poli'
'Pokračuj'
'Poch'
'Playa_'
'Pira'
'Picture'
'Peti'
'Peri'
'Pel'
'Pav'
'Parti'
'Parking_'
'Palestinci_'
'Paci'
'PLN_'
'Outs'
'Otherwise_'
'Ostr'
'Orl'
'Organiz'
'Offer'
'Of'
'Občan'
'Obr'
'Obecně_'
'OR_'
'Návr'
'Nort'
'Nico'
'Než_'
'Nesmíme_'
'Nemám_'
'Nejlepší_'
'Neither_'
'Nedo'
'Nechtě'
'Nechce'
'Naštěstí_'
'Naši_'
'Nazi'
'Namun_'
'Nai'
'Nac'
'Nabucco_'
'NS_'
'NO_'
'NG_'
'Mír'
'Monti'
'Moment'
'Moldav'
'Mohl'
'Moc'
'Mn'
'Ml'
'Men_'
'Mem'
'Mass'
'Marshall'
'Marl'
'Marc'
'Mandel'
'Manag'
'Mali'
'Making_'
'Mají_'
'Main'
'MAP'
'Lé'
'Low'
'Lotyšsk'
'Log'
'Live'
'Link'
'Lid'
'Leidse'
'League_'
'Law'
'Laur'
'Later_'
'Lank'
'LV'
'LU'
'Kvůli_'
'Kurd'
'Kristov'
'Korean_'
'Kolumbi'
'Kolik_'
'Know'
'Keynes'
'Kennedy_'
'Kdyby'
'Kapitá'
'Jur'
'Judi'
'Johnny_'
'Jim'
'Jez'
'Jeff'
'Jednoduše_'
'Jediný'
'Japonsk'
'Janeway_'
'Jane_'
'JU'
'JA'
'Isla'
'Iro'
'Investice_'
'Internetové_'
'Interest'
'Indians_'
'Il_'
'Ideally_'
'Id'
'Ice'
'Ib'
'Husa'
'Hur'
'Hungarian_'
'Hroz'
'House'
'Hotelový_'
'Hostal_'
'Honor'
'Hon'
'Holl'
'Hit'
'His'
'Hind'
'High'
'Hezbollah_'
'Herm'
'Hamás_'
'Hadar_'
'HS'
'HR_'
'Guine'
'Governments_'
'Got'
'GmbH_'
'Georg'
'Gaz'
'Gaulle_'
'Gala'
'Gal'
'Frankl'
'Francouzsk'
'Fot'
'Fortunately_'
'Force'
'Find_'
'Fie'
'Fed'
'Fair'
'Fac'
'Exte'
'Energ'
'Elektr'
'EZ'
'EUR'
'EESC_'
'ECR_'
'EA_'
'Důležité_'
'Dět'
'Dánsko_'
'Duk'
'Druhý'
'Draghi_'
'Douf'
'Dosta'
'Doktor'
'Dobrou_'
'Div'
'Diana_'
'Develop'
'Democracy_'
'Delivery_'
'Deco'
'DN'
'Custom'
'Covent_'
'Cord'
'Consi'
'Collection_'
'Cod'
'Coast_'
'Claud'
'Classic'
'Christmas_'
'Chin'
'Change_'
'Chai'
'Cau'
'Cardassian_'
'Came'
'CYP'
'CP_'
'CP'
'CAR'
'Běž'
'Bushe_'
'Brown_'
'Brow'
'Borg_'
'Bonn'
'Boh'
'Blue_'
'Bled_'
'Blanc'
'Blai'
'Black'
'Bilbao_'
'Bil'
'Bia'
'Bett'
'Besides_'
'Berlusconi_'
'Bee'
'Baracka_'
'Bala'
'Back_'
'Automatick'
'Austrálie_'
'Assis'
'Assad_'
'Arthur_'
'Appropriations_'
'Application_'
'Applica'
'Answer_'
'Andy_'
'Am_'
'Alo'
'Allo'
'Albania'
'Agenda_'
'Afrik'
'Administrativ'
'Ade'
'Accordingly_'
'AVI'
'ARM_'
'AP_'
'APT_'
'?”_'
'?“ _'
'> _'
'= _'
';% _'
'; '
'96'
'92'
'87'
'78'
'3hvězdičkovém_'
'240'
'2050_'
'1940_'
'175_'
'172_'
'170_'
'155'
'120'
'113_'
'112_'
'108'
'102'
'.&'
'. “_'
')) _'
') .'
''', _'
'%) _'
'%)'
'%'
'") _'
'" | _'
'!!!!'
'! - _'
' ,_'
' *'
' #_'
'� _'
'♪'
'”)'
'ُ'
'ل_'
'ша'
'ста'
'ре'
'ол'
'ма'
'ли'
'ке'
'ды_'
'в_'
'ал'
'žív'
'žádo'
'žské'
'žně'
'žný'
'žl'
'živi'
'žijící_'
'žij'
'železo'
'železnic'
'žděn'
'ždy'
'ůjč'
'Ťi'
'šťan'
'šíře'
'špičkový'
'šlené_'
'široko'
'šar'
'Španěl'
'Šest'
'řů_'
'říč'
'řské'
'řila_'
'řidič'
'řešil'
'řečník'
'řeli'
'ředitel_'
'řeck'
'řazen'
'řadou_'
'ňk'
'ń'
'ła'
'ěžn'
'ětš'
'ěrn'
'ěný_'
'ěm_'
'ěly_'
'ějš'
'ěhn'
'ěh'
'ěch'
'čítá'
'čísel'
'čínské'
'čích_'
'částech_'
'čtvrtletí_'
'čl'
'čistý_'
'činil_'
'čin_'
'četl'
'červený'
'čeká'
'čat'
'časový'
'čanů'
'Číňan'
'Černé'
'ýšlí'
'ýr'
'ýn'
'ým'
'ýká_'
'úžasný'
'úředníků_'
'účinnější_'
'účetních_'
'účeln'
'úvěr'
'útočn'
'úto'
'ústní'
'ústavní'
'úspěchy_'
'úpravu_'
'úpad'
'úkon'
'údajn'
'úctu_'
'ør'
'ös'
'ód'
'íze'
'írání_'
'íně'
'ínám_'
'íha'
'ídá'
'ícími_'
'ére'
'éni'
'én_'
'éme'
'édn'
'ça_'
'ätt'
'â_'
'ážk'
'ášk'
'áče'
'ázíme_'
'áza'
'ávám'
'átů_'
'átní'
'átit_'
'álsk'
'álo_'
'álen'
'áha'
'áda_'
'Ö_'
'»'
'~_'
'{_'
'zúčastněných_'
'získaný'
'zír'
'zář'
'záz'
'závěrů'
'závěrečn'
'zásadá'
'záplav'
'zálož'
'záliv'
'zákazníků'
[...]
