'<pad>'
'<EOS>'
'._'
', _'
'_'
'a_'
'и_'
'?_'
'в_'
'. _'
'- _'
'se_'
'-_'
'to_'
'е_'
'а_'
'je_'
'na_'
'не_'
'y_'
'v_'
'я_'
'u_'
'на_'
'!_'
's_'
'что_'
'že_'
' (_'
'с_'
'i_'
'e_'
'й_'
'o_'
'у_'
'ы_'
'jsem_'
': _'
'í_'
'о_'
'м_'
'si_'
'é_'
'Я_'
' - _'
')_'
'm_'
'..._'
'это_'
'z_'
't_'
'á_'
'pro_'
'k_'
'для_'
'do_'
'A_'
'х_'
'к_'
'co_'
'ý_'
'1_'
'как_'
'mi_'
'В_'
'ou_'
'из_'
'ě_'
'ho_'
'ů_'
':_'
'ой_'
'ты_'
'2_'
'ь_'
'по_'
'ní_'
'To_'
'ть_'
'ая_'
'... _'
'ю_'
'3_'
'em_'
'ом_'
'tak_'
'от_'
'то_'
'l_'
'за_'
',_'
'jako_'
'его_'
'го_'
'он_'
'т_'
' – _'
') _'
'ale_'
'by_'
'или_'
'ов_'
'5_'
'ch_'
've_'
'но_'
'мы_'
'mě_'
'Co_'
'вы_'
'Je_'
'te_'
'jsou_'
'4_'
'za_'
'V_'
'Это_'
'jsi_'
'И_'
'ли_'
'nebo_'
'их_'
'ся_'
' "_'
'Ne_'
'чтобы_'
'все_'
'ne_'
'od_'
'0_'
'ty_'
'tu_'
'Ты_'
'так_'
'меня_'
'ми_'
'ет_'
'ей_'
'л_'
'jak_'
'мне_'
'8_'
'А_'
'jste_'
'ce_'
'la_'
'ti_'
'/_'
'jsme_'
'ую_'
'ých_'
'7_'
'бы_'
'n_'
'же_'
'Ale_'
'6_'
'když_'
'já_'
'být_'
'Что_'
'jen_'
'"_'
'ые_'
'Не_'
'ého_'
' «_'
'Мы_'
'byl_'
'Он_'
'ем_'
'до_'
'tě_'
'ky_'
'ка_'
'aby_'
'быть_'
'které_'
'ka_'
'ый_'
' / _'
'10_'
'тебя_'
'есть_'
'Вы_'
'š_'
'? _'
'Но_'
'может_'
'it_'
'Как_'
'ки_'
'если_'
'r_'
'будет_'
'li_'
'ku_'
'ие_'
'был_'
'н_'
'už_'
'není_'
'me_'
'vám_'
'Hotel_'
'bude_'
'Да_'
'они_'
'те_'
'Já_'
'ím_'
'Jo_'
'Jak_'
'она_'
'ого_'
'только_'
'po_'
'нет_'
'ами_'
'tam_'
'mu_'
'ют_'
'ых_'
'9_'
'Нет_'
'jí_'
'toho_'
'было_'
'než_'
' \u _'
'также_'
'ее_'
'něco_'
'Tak_'
'! _'
'ла_'
'má_'
'время_'
'Если_'
'vás_'
'at_'
'ое_'
'S_'
'года_'
'году_'
'on_'
'jeho_'
'tím_'
'ové_'
'd_'
'bych_'
'ах_'
'ek_'
'которые_'
'který_'
'; _'
'чем_'
'когда_'
'No_'
'" _'
'byla_'
' — _'
'tom_'
'né_'
'ení_'
'(_'
'ji_'
'O_'
'была_'
' _'
'С_'
'ze_'
'этом_'
'ить_'
'ым_'
'того_'
'ci_'
'У_'
'20_'
'нас_'
'можно_'
'тебе_'
'при_'
'более_'
'ání_'
'nás_'
' _'
'уже_'
'лет_'
'им_'
'ten_'
'bylo_'
'Na_'
'еще_'
'il_'
'Dobře_'
'"._'
'больше_'
'ия_'
'také_'
'com_'
'ной_'
'во_'
'teď_'
'al_'
'Jsem_'
'На_'
'g_'
'ных_'
'ým_'
'tady_'
'h_'
')._'
'этого_'
'очень_'
'nic_'
'со_'
'ий_'
'здесь_'
'вас_'
'является_'
'просто_'
'ta_'
'až_'
'), _'
'ně_'
' , _'
'О_'
'ется_'
'er_'
'ться_'
'знаю_'
'ej_'
'Takže_'
'да_'
'12_'
'том_'
'Proč_'
' ._'
'ный_'
'вам_'
'который_'
'были_'
';_'
'г_'
'Так_'
'»._'
'ovat_'
'I_'
'% _'
'ům_'
'«_'
'тся_'
'ни_'
'ém_'
'ам_'
'ný_'
'Ano_'
'00_'
'всего_'
'Они_'
'st_'
'шь_'
'ные_'
'Все_'
'uje_'
'nám_'
'před_'
'ování_'
'pokud_'
'Už_'
'15_'
'нужно_'
'раз_'
'ním_'
'C_'
'. - _'
'cí_'
'Ну_'
'Pokud_'
' '
'кто_'
'ová_'
'mám_'
'могут_'
'ie_'
'где_'
'ная_'
'Она_'
'protože_'
'pak_'
'ke_'
'ještě_'
'své_'
'můžete_'
'dobře_'
'může_'
'Ty_'
'после_'
'нам_'
'ích_'
'let_'
'Мне_'
'» _'
'ен_'
'США_'
'tohle_'
'ost_'
'Když_'
'себя_'
'всё_'
'in_'
'18_'
'11_'
'jejich_'
'Jen_'
'могу_'
'kdo_'
'kde_'
'j_'
''_'
'об_'
'ly_'
'která_'
'den_'
'под_'
'му_'
'всех_'
'vy_'
'mezi_'
'jít_'
'сейчас_'
'р_'
'назад_'
'p_'
' „_'
'ями_'
'них_'
'д_'
'mohou_'
'el_'
'bez_'
' & _'
'ок_'
'ии_'
'должны_'
'všechno_'
'mít_'
'даже_'
'ám_'
'všechny_'
'moc_'
'en_'
'c_'
'Pro_'
'B_'
'Ahoj_'
'сь_'
'сть_'
'ani_'
'x_'
'30_'
'сти_'
'ать_'
'Mám_'
'K_'
'ются_'
'там_'
'потому_'
'nabízí_'
'хочу_'
'ного_'
'должен_'
'Для_'
'de_'
'D_'
'ях_'
'ение_'
'день_'
'při_'
'první_'
'měl_'
'Tohle_'
'M_'
'Live_'
'ния_'
'tebe_'
'roce_'
'этот_'
'та_'
'её_'
'По_'
'řekl_'
'ná_'
'le_'
'jo_'
'další_'
'The_'
'24_'
'2019_'
'людей_'
'жизни_'
'taky_'
'můj_'
'14_'
'ят_'
'ние_'
'ské_'
'proč_'
'ace_'
'ыми_'
'prosím_'
'ila_'
'хорошо_'
'ись_'
'ься_'
'человек_'
'ку_'
'Před_'
'через_'
'между_'
'К_'
'více_'
'tomu_'
'pořádku_'
'máš_'
'es_'
'T_'
'50_'
'13_'
'ny_'
'nejlepší_'
'dělat_'
'Možná_'
'— _'
'ное_'
'всегда_'
'PDF_'
'этой_'
'один_'
'можете_'
'ni_'
'L_'
'сказал_'
'сделать_'
'ны_'
'без_'
'osti_'
'mají_'
'R_'
'Jsi_'
'лся_'
'Спасибо_'
'ž_'
'však_'
'velmi_'
'sem_'
'nikdy_'
'ech_'
'ano_'
'2018_'
'человека_'
'č_'
'et_'
'? - _'
'мой_'
'лучше_'
'йте_'
'ит_'
'Когда_'
'jestli_'
'M'
'16_'
'ему_'
'společnosti_'
'města_'
'P_'
'N'
'25_'
'2017_'
'ер_'
'Вот_'
'ými_'
'pouze_'
'kdy_'
'F_'
'E_'
'E'
'него_'
'ещё_'
'pane_'
'měla_'
'hotely_'
'hotelu_'
'budou_'
'Myslím_'
'Díky_'
'000_'
'."_'
'свою_'
'ční_'
'čas_'
'ální_'
'asi_'
'ami_'
'Kdo_'
'21_'
'ите_'
'вот_'
'všichni_'
'us_'
'udělat_'
'máte_'
'my_'
'an_'
'ке_'
'два_'
'Кто_'
'vlastní_'
'mohl_'
'lo_'
'e'
'da_'
'K'
'40_'
'ью_'
'такое_'
'свои_'
'порядке_'
'пока_'
'жизнь_'
'год_'
'ась_'
'lidí_'
'kteří_'
'dva_'
'abych_'
'Teď_'
'.._'
'случае_'
'себе_'
'никогда_'
'думаю_'
'делать_'
'Хорошо_'
'práci_'
'ovi_'
'máme_'
'ala_'
'X_'
'V'
'", _'
'своей_'
'ения_'
'ější_'
'či_'
'vědět_'
'víc_'
'proti_'
'of_'
'musí_'
'mnou_'
'kvůli_'
'jeden_'
'jde_'
'a'
'P'
'23_'
'19_'
'ции_'
'тоже_'
'свой_'
'ил_'
'říct_'
'vím_'
'vaše_'
'té_'
'no_'
'naše_'
'2016_'
'много_'
'будут_'
'íš_'
'místo_'
'dy_'
'Kde_'
'Byl_'
' ..._'
'других_'
'Отель_'
'svého_'
'roku_'
'ních_'
'nou_'
'její_'
'G_'
'100_'
'этим_'
'ничего_'
'ней_'
'времени_'
'У'
'ách_'
'ují_'
'ra_'
'km_'
'Tento_'
'D'
'Chci_'
' [_'
'тем_'
'находится_'
'надо_'
'ло_'
'П'
'Ладно_'
'ili_'
'ice_'
'domů_'
'byly_'
']_'
'Tady_'
'Protože_'
'Není_'
'N_'
'A'
'ным_'
'люди_'
'Его_'
'ing_'
'informace_'
'budu_'
'17_'
'– _'
'нибудь_'
'Д'
'íte_'
'svou_'
'ry_'
'ru_'
'někdo_'
'minut_'
'этих_'
'собой_'
'несколько_'
'которая_'
'ан_'
'íme_'
'ému_'
'proto_'
'out_'
'něj_'
'is_'
'bys_'
'abyste_'
'Z_'
'сказать_'
'сегодня_'
'образом_'
'имеет_'
'дома_'
'должна_'
'всем_'
'Почему_'
'Может_'
'»_'
'vše_'
'ská_'
'ses_'
'roky_'
'práce_'
'nu_'
'měli_'
'chtěl_'
'Windows_'
'TV_'
'60_'
'22_'
'тут_'
'ти_'
'ский_'
'ко_'
'О'
'ěte_'
'sebe_'
'opravdu_'
'bychom_'
'Víš_'
'эти_'
'ную_'
'ном_'
'лишь_'
'život_'
'www_'
'w_'
'trochu_'
'poslední_'
'dnes_'
'cookie_'
'b_'
'Za_'
'T'
'F'
'ости_'
'мире_'
'детей_'
'За_'
'údajů_'
'zařízení_'
'um_'
'služby_'
're_'
'ový_'
'noc_'
'chci_'
'byli_'
'budete_'
'Z'
'S'
'Má_'
'Hej_'
'снова_'
'ость_'
'компании_'
'zde_'
'tebou_'
'práva_'
'ma_'
'Nevím_'
'Nebo_'
'B'
'теперь_'
'своих_'
'говорит_'
'y'
'tvůj_'
'stránky_'
'rád_'
'přes_'
'pravdu_'
'oval_'
'ona_'
'jte_'
'již_'
'eme_'
'dvě_'
'dispozici_'
'd'
'byste_'
'Od_'
'I'
'Do_'
'ось_'
'мира_'
'лись_'
'кого_'
'ик_'
'И'
'В'
'vé_'
'vá_'
'va_'
'takže_'
'stejně_'
'o'
'ia_'
'i'
'X'
'O'
'J'
'70_'
'. '
'* _'
'ним_'
'над_'
'другие_'
'Е'
'Где_'
'ší_'
'váš_'
'svůj_'
'případě_'
'pár_'
'pomocí_'
'podle_'
'or_'
'ního_'
'ng_'
'mé_'
'chcete_'
'ací_'
'H_'
'H'
'28_'
'2012_'
'самом_'
'лась_'
'которых_'
'знаешь_'
'ете_'
'вместе_'
'Привет_'
'zdarma_'
'ující_'
'stalo_'
'ro'
'prostě_'
'myslím_'
'musím_'
'moje_'
'ge_'
'dostat_'
'chceš_'
'and_'
'R'
'Prosím_'
'Jste_'
': "_'
'., _'
'течение_'
'такой_'
'слишком_'
'против_'
'отели_'
'нами_'
'Поэтому_'
'После_'
'udělal_'
'pryč_'
'ových_'
'hotel_'
'dobrý_'
'Jako_'
'Byla_'
'ц_'
'либо_'
'ена_'
'ва_'
'zpátky_'
'někoho_'
'lze_'
'kterou_'
'jim_'
'eš_'
'děti_'
'du_'
'dost_'
'dlouho_'
'cookies_'
'Ten_'
'Po_'
'@_'
'чего_'
'хочет_'
'страны_'
'около_'
'овать_'
'м'
'деньги_'
'ва'
'země_'
'této_'
'soubory_'
'přístup_'
'nachází_'
'mně_'
'g'
'ec_'
'což_'
'během_'
'W_'
'Oh_'
'26_'
'…_'
'“ _'
'шься_'
'тех_'
'ская_'
'можем_'
'ию_'
'дом_'
'дней_'
'дело_'
'деле_'
'данных_'
'данные_'
'vůbec_'
'ubytování_'
'tí_'
'tobě_'
'ráno_'
'několik_'
'nout_'
'najít_'
'nad_'
'ejte_'
'Vaše_'
'U_'
'USA_'
'Jsou_'
'Jestli_'
'юсь_'
'файлы_'
'три_'
'тот_'
'тобой_'
'системы_'
'перед_'
'например_'
'моей_'
'игры_'
'Однако_'
'Ко'
'čka_'
'všech_'
'třeba_'
'tvoje_'
'systém_'
'ství_'
'právě_'
'pokoj_'
'nové_'
'nich_'
'mluvit_'
'lu'
'kou_'
'f'
'ena_'
'celý_'
'b'
'ať_'
'Vím_'
'Kategorie_'
'II_'
'C'
'2013_'
' . _'
'являются_'
'эта_'
'хочешь_'
'тогда_'
'своего_'
'одного_'
'иться_'
'именно_'
'значит_'
'з_'
'возможность_'
'вать_'
'буду_'
'С'
'ík_'
'», _'
'ví_'
'spolu_'
'ru'
'nějaké_'
'můžeme_'
'městě_'
'myslíš_'
'možná_'
'lidi_'
'l'
'ete_'
'díky_'
'budeš_'
'ali_'
'Y'
'ям_'
'ы'
'ту'
'таких_'
'стоит_'
'сделал_'
'почему_'
'получить_'
'мной_'
'каждый_'
'Эй_'
'М'
'ři_'
'ění_'
'znovu_'
'věc_'
'víš_'
'vidět_'
'tohoto_'
'světě_'
'souborů_'
'příponou_'
'problém_'
'použití_'
'nost_'
'n'
'místě_'
'ko_'
'dítě_'
'dát_'
'dál_'
'Vy_'
'G'
'2014_'
'эту_'
'часть_'
'стал_'
'происходит_'
'пере'
'ор'
'одной_'
'необходимо_'
'место_'
'ков_'
'информацию_'
'должно_'
'дня_'
'большой_'
'Н'
'Г'
'ž'
'ň_'
'vážně_'
'tři_'
'ský_'
'sakra_'
'pořád_'
'pokoje_'
'pod_'
'osobní_'
'oblasti_'
'naší_'
'můžeš_'
'letiště_'
'c'
'budeme_'
'ají_'
'Všechny_'
'US_'
'U'
'="_'
'ция_'
'ует_'
'такого_'
'сюда_'
'свое_'
'ому_'
'минут_'
'ими_'
'ж_'
'ешь_'
'действительно_'
'безопасности_'
'Просто_'
'Š'
'Č'
'údaje_'
'ího_'
'the_'
'th_'
'tento_'
'sám_'
'peníze_'
'p'
'náš_'
'mohla_'
'děje_'
'cích_'
'Y_'
'Máš_'
'Hosté_'
'Děkuji_'
'Další_'
'2015_'
'цы_'
'т'
'стран_'
'ри_'
'работы_'
'оно_'
'одна_'
'менее_'
'имя_'
'анти'
'Этот_'
'России_'
'При_'
'А'
'žádné_'
'če_'
'zase_'
'z'
'x'
'w'
'včetně_'
'vat_'
'tyto_'
'přímo_'
'problémy_'
'osobních_'
'nebude_'
'například_'
'každý_'
'jenom_'
'informací_'
'f_'
'er'
'ar'
'W'
'Pro'
'Praha_'
'On_'
'Ještě_'
'02_'
' “_'
' ?_'
'хотел_'
'стать_'
'ских_'
'потом_'
'помощью_'
'п_'
'ма_'
'лось_'
'кой_'
'использовать_'
'б'
'Ц'
'Только_'
'К'
'Есть_'
'Во_'
'života_'
'áš_'
'věci_'
'tra'
'sis_'
'rok_'
'příliš_'
'možné_'
'lidé_'
'hi'
'fa'
'VPN_'
'Opravdu_'
'27_'
'ём_'
'этому_'
'ту_'
'такие_'
'проблемы_'
'пор_'
'нее_'
'нашей_'
'момент_'
'месте_'
'информации_'
'ила_'
'возможно_'
'вашего_'
'Сейчас_'
'Россия_'
'Потому_'
'Под'
'Не'
'На'
'Кроме_'
'Здесь_'
'Всё_'
'Вам_'
'Ú'
'zpět_'
'vždy_'
'svých_'
'sti_'
'soubor_'
'ostatní_'
'nějaký_'
'nemůžu_'
'nad'
'jící_'
'ina_'
'ho'
'dobré_'
'dalších_'
'No'
'Musím_'
'Moje_'
'La'
': «_'
' € _'
' : _'
'ять_'
'ти'
'следует_'
'с'
'почти_'
'новые_'
'мир_'
'ены_'
'города_'
'говорить_'
'видео_'
'быстро_'
'Теперь_'
'Т'
'Ре'
'Ло'
'ův_'
'ť_'
'často_'
'znamená_'
'větší_'
'vání_'
'tedy_'
'svým_'
's'
're'
'před'
'někdy_'
'nový_'
'nebyl_'
'našich_'
'místa_'
'm'
'finanční_'
'Vážně_'
'Su'
'Ra'
'Hotely_'
'Hele_'
'Ba'
'500_'
'29_'
' $_'
'часто_'
'ут_'
'ри'
'работает_'
'поэтому_'
'ний_'
'месяцев_'
'ль'
'ировать_'
'ец_'
'дела_'
'в'
'ат_'
'ал_'
'ает_'
'Те'
'žádný_'
'án_'
' — _'
'vámi_'
'v'
'te'
'pi'
'mohli_'
'lety_'
'k'
'jednou_'
'chce_'
'ba_'
'Vý'
'Ta_'
'New_'
'Můžete_'
'Měl_'
'Lo'
'L'
'Fi_'
'90_'
'4'
'39_'
'35_'
'2020_'
'2008_'
'2006_'
'.. _'
' » _'
'услуги_'
'той_'
'ст_'
'ской_'
'работу_'
'ра_'
'помочь_'
'период_'
'можешь_'
'ма'
'которое_'
'какой_'
'информация_'
'ина_'
'знать_'
'ел_'
'вер'
'ведь_'
'Чтобы_'
'Про'
'Нью_'
'Из_'
'čí_'
'takhle_'
'ta'
'sou'
'ri'
'program_'
'pra'
'pohodě_'
'můžu_'
'muset_'
'mm_'
'len'
'jší_'
'iny_'
'ic_'
'dolarů_'
'chvíli_'
'at'
'as_'
'Wi_'
'Váš_'
'Re'
'Můj_'
'Ku'
'Dobrá_'
'Cože_'
'Bylo_'
'Beach_'
'80_'
'300_'
'.'
'*_'
' ... _'
'хотите_'
'точно_'
'таким_'
'ста'
'система_'
'ра'
'права_'
'отеля_'
'ор_'
'одно_'
'некоторых_'
'наших_'
'которой_'
'кое_'
'к'
'йся_'
'знает_'
'га_'
'ви'
'ваш_'
'Ф'
'Т_'
'Со'
'Мо'
'Ла'
'ře_'
'ět_'
'část_'
'čem_'
'í'
'zo'
'večer_'
'us'
'sebou_'
'používá_'
'použít_'
'pa'
'nyní_'
'musíš_'
'letech_'
'jméno_'
'hry_'
'hodně_'
'ea'
'doby_'
'de'
'ceny_'
'al'
'aci_'
'Všichni_'
'Te'
'Ani_'
'31_'
'+_'
' -_'
'ёт_'
'я'
'ющие_'
'сто'
'ства_'
'соответствии_'
'про_'
'право_'
'правда_'
'прав_'
'понимаю_'
'полностью_'
'номер_'
'моя_'
'люблю_'
'ле_'
'ин_'
'знаете_'
'ди_'
'всю_'
'вопрос_'
'без'
'Эти_'
'Эта_'
'Хо'
'Мар'
'Ž'
'šel_'
'Řekl_'
'ý'
'é'
'át_'
'zda_'
'videa_'
'u'
'tan'
'systému_'
'stanice_'
'roz'
'op'
'on'
'ník_'
'musíme_'
'mnoho_'
'mnohem_'
'ké_'
'kem_'
'hned_'
'ez'
'es'
'děláš_'
'době_'
'di'
'ck'
'ci'
'bi'
'ant'
'ad_'
'abys_'
'Toto_'
'Nic_'
'Kam_'
'Jsme_'
'Dobrý_'
'Bu'
'200_'
'! - _'
' + _'
'• _'
'файл_'
'странах_'
'ского_'
'си'
'связи_'
'помощь_'
'нии_'
'найти_'
'мся_'
'многие_'
'ль_'
'которого_'
'ком_'
'количество_'
'ки'
'имеют_'
'другой_'
'да'
'ав'
'Я'
'Давай_'
'říkal_'
'řešení_'
'řekla_'
'času_'
'získat_'
'xHamster_'
'vzít_'
'ti'
'světa_'
'stát_'
'pomoc_'
'ovou_'
'ostí_'
'om'
'obchodní_'
'ni'
'nevím_'
'nevy'
'nechci_'
'moře_'
'ká_'
'ku'
'ce'
'[_'
'Všechno_'
'Ve_'
'Právě_'
'Promiň_'
'Pane_'
'Naše_'
'Máme_'
'Lu'
'Le'
'Jasně_'
'Do'
'Chceš_'
'2000_'
'05_'
', "_'
')'
'ьте_'
'ца_'
'тысяч_'
'три'
'твой_'
'среди_'
'составляет_'
'самое_'
'са_'
'решение_'
'путь_'
'первый_'
'ос'
'онлайн_'
'ну_'
'наши_'
'находятся_'
'н'
'ми'
'л'
'зрения_'
'женщин_'
'ено_'
'енные_'
'достаточно_'
'гор'
'воды_'
'вами_'
'аст'
'ал'
'ай'
'Э'
'Тогда_'
'При'
'Некоторые_'
'Конечно_'
'Еще_'
'části_'
'Čína_'
'ést_'
'© _'
'zobrazení_'
'ze'
've'
'těch_'
'tu'
'tomto_'
'stále_'
'st'
'společnost_'
'rychle_'
'pří'
'ového_'
'net'
'nechat_'
'možnost_'
'le'
'ka'
'j'
'ed_'
'dne_'
'bo'
'auto_'
'ar_'
'aplikace_'
'Sa'
'Pře'
'Ni'
'Musíme_'
'Min'
'Kon'
'EUR_'
'City_'
'Asi_'
'Android_'
': '
'90'
'32_'
'3'
'1'
'04_'
'01_'
'ь'
'х'
'стороны_'
'смерти_'
'помощи_'
'особенно_'
'одним_'
'ность_'
'ности_'
'но'
'никто_'
'мо'
'мере_'
'качестве_'
'з'
'жить_'
'ес'
'ери'
'ении_'
'ель_'
'город_'
'войны_'
'включая_'
'виду_'
'ад'
'Тебе_'
'Р_'
'Меня_'
'Ж'
'ЕС_'
'До_'
'Вы'
'Б'
'Ага_'
'číslo_'
'ít_'
'ál_'
'viděl_'
'up'
'ub'
'snad_'
'později_'
'pozdě_'
'několika_'
'ných_'
'námi_'
'nejsem_'
'mnoha_'
'ment_'
'ko'
'hle_'
'doma_'
'dní_'
'co'
'cenu_'
'centrum_'
'celou_'
'bá'
'Zobrazit_'
'Víte_'
'Více_'
'TNT_'
'Pi'
'Dr_'
'Dan'
'Ar'
'45_'
'2011_'
'2009_'
'03_'
', '
'#_'
'части_'
'ча'
'участие_'
'те'
'спасибо_'
'своим_'
'сайт_'
'прежде_'
'пред'
'пожалуйста_'
'парень_'
'об'
'ными_'
'нравится_'
'нему_'
'лечения_'
'кол'
'км_'
'й'
'из'
'ием_'
'знаем_'
'ж'
'ер'
'дочь_'
'две_'
'городе_'
'выбор_'
'внимание_'
'будем_'
'аться_'
'Прости_'
'От'
'З'
'Боже_'
'říká_'
'ď_'
'én'
'ák_'
'zjistit_'
'webové_'
'víte_'
'velký_'
'vašem_'
'těchto_'
'to'
't'
'stránka_'
'sobě_'
'si'
'přesně_'
'prostřednictvím_'
'potom_'
'ovala_'
'os_'
'nikdo_'
'nepo'
'nemá_'
'ii_'
'ha_'
'ej'
'důvod_'
'do'
'dn'
'cké_'
'ba'
'an'
'ad'
'Ro'
'RO'
'Nikdy_'
'Google_'
'Go'
'Bar'
'Al'
'54_'
'2'
'192'
'07_'
' »_'
' > _'
'—_'
'–_'
'э'
'ья_'
'ье_'
'ши'
'центр_'
'фи'
'ф_'
'тра'
'тому_'
'сын_'
'ство_'
'стали_'
'ском_'
'ское_'
'сказала_'
'самых_'
'рядом_'
'ро'
'работе_'
'прямо_'
'программы_'
'при'
'открыть_'
'нужна_'
'новый_'
'ник_'
'некоторые_'
'ме'
'крови_'
'которую_'
'изменения_'
'жа'
'ек_'
'ев'
'денег_'
'двух_'
'вообще_'
'ваши_'
'Об'
'Нам_'
'М_'
'Ди'
'Возможно_'
'říkám_'
'čím_'
'úplně_'
'Í'
'věcí_'
'vi'
'ven_'
'velké_'
'tuto_'
'trhu_'
'tou_'
'ton_'
'tolik_'
'tenhle_'
'souboru_'
'sa_'
'prů'
'pot'
'online_'
'některé_'
'ného_'
'no'
'lepší_'
'la'
'ků_'
'ký_'
'kolem_'
'jiné_'
'ji'
'je'
'ja'
'ine_'
'hor'
'hol'
'hodin_'
'ey_'
'ep'
'důležité_'
'dělá_'
'dr'
'ck_'
'centra_'
'and'
'Ti'
'Se'
'Sch'
'Ri'
'Proto_'
'Pojď_'
'Něco_'
'Nemůžu_'
'Na'
'Můžu_'
'My_'
'Musíš_'
'Fajn_'
'Dobré_'
'DVD_'
'Bude_'
'Bo'
'Ať_'
'AN'
'49_'
'40'
'22'
'2010_'
'195'
'+)_'
'). _'
'ёл_'
'чи'
'тре'
'сэр_'
'существует_'
'способ_'
'процесс_'
'прис'
'нем_'
'наше_'
'наиболее_'
'мать_'
'мар'
'ли'
'истории_'
'ика_'
'знал_'
'зи'
'жу_'
'е'
'ди'
'государства_'
'годы_'
'всеми_'
'весь_'
'Ри'
'Пожалуйста_'
'Можно_'
'Китай_'
'Итак_'
'Д_'
'Вас_'
'žádná_'
'šlo_'
'člověk_'
'účely_'
'Í_'
'září_'
'zr'
'způsob_'
'zemí_'
'zad'
'vi_'
'vašeho_'
'val_'
'va'
'ur'
'typu_'
'tv'
'toto_'
'svém_'
'sta'
'software_'
'ráda_'
'přišel_'
'od'
'nápad_'
'naši_'
'mapu_'
'jistý_'
'jedno_'
'jedna_'
'it'
'h'
'ent'
'en'
'dobu_'
'dny_'
'daleko_'
'celé_'
'bí'
'as'
'War'
'Ru'
'Per'
'Pe'
'Od'
'Můžeš_'
'Me'
'Mal'
'Li'
'Ko'
'Jeho_'
'HD_'
'Chtěl_'
'Car'
'36_'
'24'
'08_'
'$ _'
'“._'
'электро'
'щих_'
'целью_'
'та'
'стен'
'сразу_'
'се_'
'ры'
'прос'
'пол'
'пи'
'отец_'
'мои_'
'мог_'
'миллионов_'
'места_'
'конечно_'
'кон'
'компания_'
'ко'
'звездочные_'
'вые_'
'возрасте_'
'вз'
'вашей_'
'аэропорта_'
'ация_'
'ации_'
'То_'
'Таким_'
'Также_'
'Ра'
'По'
'Пере'
'Например_'
'Л'
'Знаешь_'
'Ви'
'Ал'
'ř_'
'ú'
'Á'
'zítra_'
'základě_'
'způsobem_'
'zprávy_'
'zam'
'vaší_'
'ul'
'uju_'
'ter_'
'ter'
'tato_'
'svět_'
'smrti_'
'ska_'
'sch'
'různých_'
'r'
'pě'
'pr'
'pen'
'otec_'
'ochrany_'
'něm_'
'nas'
'myslíte_'
'myslí_'
'mu'
'mar'
'mal'
'lá'
'lo'
'll_'
'lin'
'krát_'
'hlavní_'
'hal'
'gu'
'du'
'dokud_'
'dob'
'der'
'dat_'
'ap'
'am'
'Sou'
'Poslední_'
'Podívej_'
'Ot'
'Ona_'
'Omlouvám_'
'Nyní_'
'Mar'
'Ma'
'Každý_'
'Ho'
'Ha'
'Di'
'Bože_'
'55_'
'43_'
'20'
' • _'
'ющих_'
'ша'
'ш_'
'числе_'
'ческие_'
'цен'
'файлов_'
'управления_'
'упа'
'тур'
'тро'
'тор'
'стало_'
'стала_'
'слова_'
'ско'
'сильно_'
'самый_'
'сам_'
'результате_'
'ре'
'основе_'
'организации_'
'обо'
'области_'
'нь_'
'начала_'
'куда_'
'конце_'
'кажется_'
'использования_'
'и'
'ем'
'ели_'
'ды_'
'долларов_'
'дети_'
'ги_'
'га'
'вокруг_'
'вар'
'Ш'
'Фа'
'Ти'
'Пи'
'Па'
'Очень_'
'Каждый_'
'Й_'
'Даже_'
'Ге'
'ěl_'
'ó'
'» (_'
'zlato_'
'vždycky_'
'vr'
'vlastně_'
'up_'
'tý_'
'tk'
'střední_'
'stránce_'
'stažení_'
'start_'
'skupiny_'
'sk'
'rozv'
'rd'
'ran'
'právo_'
'pravda_'
'pe'
'pan'
'pad'
'ované_'
'oh'
'oficiální_'
'nez'
'nemůžeš_'
'nce_'
'mimo_'
'metrů_'
'matka_'
'man'
'mail_'
'kr'
'is'
'ik'
'hvězdičkový_'
'hu'
'hrát_'
'han'
'gi'
'gar'
'fo'
'eno_'
'el'
'dům_'
'dětí_'
'dur_'
'druhé_'
'dostal_'
'domu_'
'Taky_'
'Ta'
'Ste'
'SP'
'První_'
'Prostě_'
'Promiňte_'
'Pot'
'Park_'
'Moc_'
'Mezinárodní_'
'KO'
'Jo'
'He'
'Fa'
'Bůh_'
'Bro'
'Bi'
'Ac'
'75_'
'7'
'41'
'28'
'26'
', - _'
'ю'
'ч_'
'хо'
'точки_'
'становится_'
'случилось_'
'ские_'
'своем_'
'сайте_'
'роль_'
'проблема_'
'представляет_'
'предлагает_'
'правило_'
'политики_'
'под'
'па'
'п'
'ора_'
'он'
'одну_'
'нового_'
'нные_'
'нд'
'нашим_'
'моим_'
'могли_'
'минутах_'
'кро'
'кра'
'кая_'
'каждого_'
'использует_'
'имею_'
'идет_'
'еп'
'емся_'
'доступ_'
'дер'
'делаешь_'
'делает_'
'дальше_'
'говорил_'
'выше_'
'второй_'
'воз'
'видел_'
'веб_'
'би'
'ана_'
'адрес_'
'Су'
'Р'
'П_'
'Ку'
'Категория_'
'Ин'
'Де'
'Ва'
'Ба'
'Б_'
'živ'
'žen'
'štěstí_'
'čky_'
'Če'
'ící_'
'áme_'
'yt'
'vět'
'vody_'
'vid'
'ujeme_'
'týden_'
'tý'
'tr'
'tor_'
'tlačítko_'
'syn_'
'stal_'
'soukromí_'
'son_'
'sestra_'
'se'
'san'
'rov'
'rk'
'pře'
'pět_'
'pu'
'pozor_'
'post'
'ple'
'oz'
'ově_'
'ován_'
'ovn'
'ovali_'
'ova_'
'one_'
'oc'
'ná'
'nutí_'
'nová_'
'nepře'
'nemáte_'
'nejsou_'
'nd'
'našem_'
'našeho_'
'mě'
'myslel_'
'mou_'
'mezinárodní_'
'men'
'ma'
'lk'
'let'
'lad'
'ine'
'ga'
'et'
'ené_'
'dá_'
'dobrá_'
'dil_'
'cov'
'chtějí_'
'chi'
'ber'
'ben'
'až'
'ační_'
'abychom_'
'] _'
'VI'
'Tri'
'To'
'Resort_'
'Q'
'Počkej_'
'Por'
'Ob'
'Nu'
'Máte_'
'Mezi_'
'Man'
'MA'
'Ju'
'Jak'
'DI'
'Can'
'Budu_'
'BA'
'Apartmány_'
'47'
'34_'
'33'
'30'
'27'
'2004_'
'191'
'06_'
'/ _'
'"?_'
' ( _'
'ющий_'
'ше_'
'хотела_'
'ха'
'ув'
'тол'
'тен'
'су'
'самым_'
'сайта_'
'ря'
'ры_'
'ру'
'рост_'
'развития_'
'пути_'
'последние_'
'пос'
'пес'
'ото'
'от'
'остью_'
'ори'
'овые_'
'нужен_'
'нет'
'немного_'
'не'
'название_'
'мою_'
'ление_'
'кий_'
'ишь_'
'иметь_'
'игра_'
'зм_'
'думаешь_'
'ду'
'домой_'
'дев'
'го'
'г'
'бо'
'бизнес_'
'ак'
'Ша'
'Франции_'
'Слушай_'
'Сколько_'
'Сер'
'Сегодня_'
'РА'
'Пока_'
'От_'
'Мак'
'Именно_'
'Или_'
'За'
'Да'
'Гор'
'Že_'
'školy_'
'ši'
'ět'
'ě'
'ád'
'zí_'
'zemi_'
'války_'
'vypadá_'
'video_'
'vaši_'
'uz'
'uvnitř_'
'um'
'uji_'
'tým_'
'téměř_'
'sí'
'syna_'
'stí_'
'straně_'
'strany_'
'stran_'
'ského_'
'rá'
'rav'
'poprvé_'
'pop'
'podnik'
'peněz_'
'par'
'ote'
'os'
'opět_'
'ol'
'oba_'
'ob'
'nt_'
'nosti_'
'neza'
'nemůže_'
'nej'
'neb'
'má'
'musíte_'
'možnosti_'
'ml'
'líto_'
'kdyby_'
'kce_'
'jiný_'
'jej_'
'jediný_'
'in'
'ické_'
'he'
'go'
'em'
'ela_'
'děláte_'
'dis'
'cky_'
'bu'
'\u_'
'Vy'
'Tu'
'Sv'
'Star'
'Přesně_'
'Podle_'
'Or'
'Ok'
'Nikdo_'
'Nemám_'
'Myslíš_'
'Mari'
'Ltd_'
'La_'
'In'
'Hned_'
'Gar'
'Chcete_'
'Bez_'
'Au'
'< _'
'99_'
'76_'
'50'
'5'
'42_'
'42'
'09_'
'&_'
'язык_'
'шн'
'ше'
'хотя_'
'файла_'
'уровня_'
'уровень_'
'ун'
'у'
'тер'
'твоя_'
'тв'
'стью_'
'сс'
'сколько_'
'сит'
'силы_'
'сил_'
'род'
'решения_'
'ребенка_'
'рас'
'различных_'
'раза_'
'равно_'
'работать_'
'работа_'
'произошло_'
'продукты_'
'президент_'
'понять_'
'поздно_'
'пода'
'отца_'
'ос_'
'оп'
'нный_'
'нес'
'над'
'мор'
'мистер_'
'любого_'
'ку'
'книги_'
'кли'
'кем_'
'ис'
'иде'
'зо'
'жи'
'еро'
'ев_'
'до'
'де_'
'дать_'
'давай_'
'гос'
'говорю_'
'высоко'
'всему_'
'вор'
'вопросы_'
'вол'
'во'
'власти_'
'вис'
'вина_'
'вашем_'
'важно_'
'будешь_'
'ати'
'аб'
'а'
'Фи'
'Та'
'Ро'
'Правда_'
'Мой_'
'Лу'
'Ле'
'Ком'
'Зна'
'Зачем_'
'ДЕ'
'žena_'
'š'
'člen'
'Čau_'
'ér'
'zk'
'yk'
'vz'
'vrátit_'
'vo'
'vní_'
'van'
'ut'
'un'
'ujte_'
'typ_'
'tro'
'technologie_'
'stop'
'stav_'
'sně'
'sko_'
'rát_'
'rn'
'prostředí_'
'promluvit_'
'prob'
'pracovat_'
'pokojů_'
'pod'
'ož'
'otázky_'
'or'
'nější_'
'nějakou_'
'novou_'
'neu'
'nes'
'neo'
'nap'
'nabídky_'
'měsíci_'
'muže_'
'ms_'
'mo'
'mil'
'me'
'ká'
'kterým_'
'kt'
'krev_'
'kost'
'koho_'
'jistá_'
'jiného_'
'jednu_'
'jasný_'
'ist'
'ij'
'id'
'hu_'
'gen'
'film_'
'ev'
'eti'
'ent_'
'dále_'
'domy_'
'dom'
'dol'
'dokonce_'
'den'
'cestu_'
'centru_'
'ast'
'ali'
'ab'
'Wi'
'Všechna_'
'Vol'
'Tra'
'Tato_'
'Sta'
'So'
'Si'
'Při'
'Pořád_'
'Par'
'PO'
'Nej'
'Mil'
'Kvůli_'
'Ki'
'Je'
'Inn_'
'IP_'
'IN'
'Gu'
'Fo'
'Děkuju_'
'Dá'
'Dnes_'
'Cor'
'AS'
'81'
'72'
'64'
'62'
'58'
'56'
'54'
'53_'
'47_'
'41_'
'33_'
'29'
'23'
'190'
'... - _'
'ёр'
'ясь_'
'эн'
'ьные_'
'шо'
'школы_'
'число_'
'формы_'
'ф'
'ус'
'уровне_'
'ум_'
'тр'
'тов_'
'тип_'
'тело_'
'став'
'средств_'
'состоит_'
'сон_'
'сами_'
'руки_'
'результаты_'
'полу'
'поговорить_'
'первой_'
'пен'
'оружие_'
'ол'
'ночь_'
'номеров_'
'новых_'
'ними_'
'нео'
'ман'
'мама_'
'людям_'
'любой_'
'лин'
'лен_'
'котором_'
'ков'
'клеток_'
'какие_'
'ицы_'
'ио'
'ина'
'идти_'
'играть_'
'затем_'
'ера_'
'думал_'
'друг_'
'дар'
'говорят_'
'ги'
'выс'
'возможности_'
'вид_'
'вая_'
'ваша_'
'вал'
'бизнеса_'
'б_'
'ат'
'ант'
'ания_'
'Эр'
'Эл'
'Х'
'Там_'
'Се'
'Ми'
'Ли'
'Кон'
'Кар'
'КО'
'Из'
'Думаю_'
'ВО'
'ВА'
'Бу'
'Би'
'Ар'
'Ženy_'
'šance_'
'ří_'
'člověka_'
'ány_'
'ál'
'°_'
'zůstat_'
'zn'
'zi'
'yl'
'we'
'věděl_'
'vý_'
'vý'
'vn'
'ujete_'
'udělám_'
'tor'
'teda_'
'tar'
'takových_'
'ste'
'srdce_'
'sr'
'soud'
'služeb_'
'skou_'
'sexy_'
'sel'
'sa'
'republika_'
'rad'
'ra'
'případ_'
'pí'
'pozornost_'
'pocit_'
'pil'
'pe_'
'ovaný_'
'otce_'
'ot_'
'obvykle_'
'nk'
'největší_'
'měsíce_'
'muž_'
'mohlo_'
'moci_'
'mer'
'man_'
'li'
'led'
'kámo_'
'konci_'
'ki'
'kar'
'jich_'
'jedním_'
'ita'
'ir'
'ie'
'iPhone_'
'hov'
'hodiny_'
'hodinu_'
'her_'
'ham'
'gu_'
'gan'
'firmy_'
'ers_'
'dříve_'
'dřív_'
'dí_'
'din'
'dal_'
'chtěla_'
'ch'
'bur'
'bb'
'bar'
'af'
'\u _'
'Zá'
'Ze'
'Ví'
'Tati_'
'Stra'
'SI'
'Net'
'Nechci_'
'Měla_'
'Mu'
'Mo'
'MI'
'Jeden_'
'Ir'
'IC'
'House_'
'Er'
'EN'
'Dr'
'Dej_'
'Dar'
'Cel'
'Be'
'At'
'Amazon_'
'Ad'
'8'
'61'
'53'
'52'
'38'
'2003_'
'$_'
'"> _'
' ('
' '_'
'” _'
'яет_'
'энергии_'
'щен'
'шоу_'
'ш'
'чу'
'чива'
'цию_'
'цены_'
'хороший_'
'хи'
'ут'
'ул_'
'увидеть_'
'ты'
'типа_'
'такая_'
'сторону_'
'совсем_'
'собственные_'
'сможет_'
'сло'
'си_'
'сети_'
'речь_'
'раньше_'
'пять_'
'протяжении_'
'проблем_'
'про'
'поскольку_'
'поп'
'поко'
'плат'
'пла'
'персональных_'
'отс'
'означает_'
'овой_'
'обычно_'
'объем'
'обработки_'
'обо_'
'обеспечения_'
'новой_'
'нных_'
'нашем_'
'нашел_'
'му'
'моего_'
'многих_'
'миру_'
'месяца_'
'ме_'
'ля'
'лучший_'
'лад'
'ла'
'кре'
'качества_'
'кар'
'ка'
'интерес'
'ился_'
'ики_'
'зависит_'
'жен'
'жа_'
'енный_'
'ед'
'другими_'
'другим_'
'долго_'
'действия_'
'де'
'д'
'готов_'
'гостей_'
'гов'
'гар'
'ган'
'втор'
'война_'
'вещи_'
'бор'
'бер'
'ани'
'ам'
'али_'
'Ч'
'То'
'Пар'
'Один_'
'Новости_'
'Мал'
'Кал'
'Ка'
'Европы_'
'Европе_'
'Давайте_'
'Главная_'
'Бог_'
'Аль'
'ží_'
'ženy_'
'št'
'šli_'
'šení_'
'řídit_'
'ří'
'ř'
'ňte_'
'ďte_'
'čn'
'Čeština_'
'áte_'
'át'
'zy_'
'zp'
'zav'
'xi'
'včera_'
'výběr_'
'vo_'
'vln'
'vin'
'vidím_'
'venku_'
'velikost_'
'uč'
'ut_'
'uj_'
'ud'
'těžké_'
'těla_'
'ty'
'ts'
'tní_'
'tion_'
'tin'
'státy_'
'stránek_'
'stane_'
'so'
'smysl_'
'sle'
'ských_'
'sklad'
'sama_'
'rv'
'rt'
'rs_'
'restauraci_'
'půjdu_'
'přítel_'
'přátelé_'
'prost'
'prohlášení_'
'produkty_'
'počítače_'
'počet_'
'používání_'
'pomoct_'
'pomoci_'
'poblíž_'
'per'
'ována_'
'ou'
'otevřít_'
'opo'
'opa'
'og'
'ochranu_'
'obsah_'
'noci_'
'nem'
'navíc_'
'nastavení_'
'mým_'
'méně_'
'mat'
'lépe_'
'lov'
'lou'
'lit'
'les'
'lan'
'kód_'
'kurva_'
'kor'
'konečně_'
'kon'
'kam_'
'jo'
'jinak_'
'ič'
'io_'
'ing'
'hosty_'
'her'
'fotografie_'
'form'
'eň_'
'enz'
'děl'
'dra'
'data_'
'da'
'ců_'
'cz_'
'cit'
'chůze_'
'cena_'
'bra'
'bod'
'bal'
'auta_'
'art'
'americké_'
'am_'
'akt'
'aj'
'Zm'
'ZA'
'Wiki'
'Vz'
'Va'
'Tím_'
'Street_'
'Str'
'Sto'
'Sho'
'Při_'
'Pu'
'Prohlášení_'
'Pom'
'Pod'
'Pan'
'Online_'
'Někdo_'
'NÍ_'
'Ne'
'Ke'
'Kar'
'Jenom_'
'Jan'
'J_'
'Hor'
'Home_'
'Ge'
'Doufám_'
'Da'
'Czech_'
'Bou'
'As'
'79'
'69'
'64_'
'59_'
'51'
'196'
'00'
'...'
' © _'
'яют_'
'ятся_'
'яр'
'э_'
'щи'
'ща'
'чер'
'чаще_'
'час_'
'центре_'
'цев_'
'це'
'хотели_'
'фе'
'уж_'
'уга'
'туда_'
'то'
'тип'
'тин'
'территории_'
'тво_'
'тан'
'сти'
'сте'
'сожалению_'
'совет'
'соб'
'со'
'случаях_'
'сих_'
'сер'
'связь_'
'сал'
'са'
'рк'
'расс'
'разных_'
'прин'
'пон'
'первых_'
'отношении_'
'они'
'оли'
'ож'
'ня_'
'невозможно_'
'нат'
'насколько_'
'мужчин_'
'млн_'
'микро'
'меры_'
'машины_'
'лю_'
'лы_'
'лу'
'кс_'
'кор'
'клиентов_'
'йд'
'ических_'
'ита'
'историю_'
'ир'
'ин'
'ика'
'ие'
'земле_'
'зд'
'зас'
'закон'
'женщины_'
'ждать_'
'ешься_'
'еть_'
'ет'
'дра'
'довольно_'
'дит'
'дин'
'дат'
'дает_'
'группы_'
'гер'
'ген'
'выда'
'выбрать_'
'всей_'
'воспользоваться_'
'влияние_'
'вес'
'вед'
'будущее_'
'благодаря_'
'благо'
'ают_'
'ари'
'ар'
'ап'
'ание_'
'Ы_'
'Ы'
'Х_'
'СТ'
'Пред'
'ПО'
'Оп'
'Н_'
'Майк'
'Ма'
'Люди_'
'Их_'
'Иди_'
'Е_'
'Джо'
'Господь_'
'Гол'
'Без_'
'Бар'
'Аб'
'že'
'šílen'
'ště_'
'Řekni_'
'ěl'
'červen'
'čen'
'ít'
'ává_'
'ák'
'É_'
'zl'
'zejména_'
'začátku_'
'zabít_'
'vůči_'
'všem_'
'věku_'
'verze_'
'ver'
'vad'
'uzavřen'
'uh'
'tře'
'tělo_'
'týkající_'
'tí'
'tvrd'
'ts_'
'trh_'
'tek_'
'takový_'
'takové_'
'su_'
'století_'
'snadno_'
'sm'
'slova_'
'slov'
'sky_'
'sam'
'rž'
'ro_'
'quot_'
'příběh_'
'programy_'
'prav'
'pracovní_'
'pou'
'podmínky_'
'pas'
'ove'
'otevírat_'
'oslav'
'ol_'
'okamžitě_'
'oj'
'och'
'ným_'
'nástroje_'
'nástroj_'
'neměl_'
'nejvyšší_'
'nehod'
'nav'
'nal'
'měsíc_'
'měn'
'mělo_'
'mon'
'min'
'mili'
'mi'
'malé_'
'lt'
'line_'
'lidem_'
'kou'
'kolik_'
'každého_'
'každou_'
'jídlo_'
'jin'
'jednoho_'
'jd'
'ivní_'
'ilo_'
'ili'
'ib'
'hotels_'
'holka_'
'hlavu_'
'ga_'
'funkce_'
'fu'
'ers'
'ený_'
'ená_'
'eli'
'ek'
'dělal_'
'dvou_'
'drá'
'dro'
'dov'
'domácnosti_'
'dev'
'ckých_'
'chl'
'au'
'ation_'
'\\_'
'We'
'Vždycky_'
'Vě'
'Vás_'
'Ver'
'Vašich_'
'Spo'
'Son'
'Santa_'
'Sal'
'Sakra_'
'Roz'
'RE'
'Potřebuju_'
'Pojďte_'
'Pak_'
'Op'
'OR'
'Měli_'
'Myslel_'
'My'
'Mi'
'LE'
'Jedno'
'International_'
'Hu'
'Grand_'
'Eu'
'En'
'Cha'
'CA'
'Budeš_'
'An'
'Am'
'>_'
'86'
'76'
'73'
'69_'
'66'
'61_'
'60'
'45'
'44_'
'44'
'2007_'
'2001_'
'197'
'11'
'): _'
') - _'
'! '
' >_'
'ё'
'яя_'
'эт'
'ьный_'
'ье'
'ще'
'ший_'
'чём_'
'чу_'
'чи_'
'часов_'
'часа_'
'уют_'
'устройства_'
'уйти_'
'угроз'
'тов'
'тл'
'стара'
'срок_'
'созда'
'смотреть_'
'слов'
'силу_'
'сделали_'
'сама_'
'рон'
'ребенок_'
'раст'
'расположен_'
'р'
'пят'
'противо'
'продукции_'
'президента_'
'предел'
'пре'
'практически_'
'пра'
'поме'
'получил_'
'получения_'
'поли'
'пару_'
'отель_'
'ответ_'
'ом'
'ои'
'овк'
'овая_'
'нуть_'
'нс'
'нос'
'нормально_'
'ному_'
'номера_'
'нескольких_'
'недели_'
'наш_'
'начало_'
'мое_'
'могла_'
'много'
'лес'
'легко_'
'ладно_'
'кс'
'кроме_'
'контакт'
'карте_'
'инг'
'или'
'ик'
'идея_'
'значение_'
'заявил_'
'защиты_'
'зависимости_'
'заб'
'женщина_'
'енных_'
'ений_'
'еле'
'ек'
'ей'
'ду_'
'дно'
'ден'
'дел'
'ву'
'впервые_'
'вой_'
'видов_'
'виде_'
'ви_'
'вет'
'ве'
'вает_'
'будете_'
'бу'
'большая_'
'болезни_'
'бле'
'бит'
'ба'
'анд'
'али'
'ала_'
'Эн'
'Хар'
'Тор'
'ТЕ'
'Ста'
'Соб'
'Сирии_'
'Пу'
'Пор'
'Отели_'
'Ничего_'
'Никто_'
'Ни_'
'Ни'
'НИ'
'Мама_'
'Ки'
'Какие_'
'Значит_'
'Г_'
'Всего_'
'Во'
'Ведь_'
'žen_'
'ů'
'ští_'
'šen'
'še'
'šanci_'
'ření_'
'Ř'
'ňuje_'
'ěr'
'ěn'
'ěd'
'čtyři_'
'čeká'
'éz'
'»'
'zájem_'
'zá'
'zt'
'zkušenosti_'
'zi_'
'zení_'
'zdraví_'
'začal_'
'zat'
'yn'
'ya_'
'webových_'
'wa'
'víme_'
'vyšší_'
'vyz'
'využít_'
'vypl'
'vyhrazena_'
'vl'
'určen'
'tímto_'
'tví_'
'tru'
'test'
'telefon'
'tel_'
'tati_'
'systémy_'
'sy'
'stá'
'stojí_'
'ster'
'star'
'sov'
'směrem_'
'slovo_'
'sko'
'sh'
'samozřejmě_'
'sami_'
'sal'
'rán'
'rádi_'
'ry'
'rovn'
'rol'
'rokem_'
'rodinu_'
'rodina_'
'rea'
'rd_'
'ral'
'q'
'při'
'přes'
'prot'
'pro'
'poz'
'poro'
'pom'
'podobné_'
'paní_'
'pan_'
'ov'
'osa'
'ore_'
'oo'
'oni_'
'oma'
'odv'
'ode'
'něte_'
'nění_'
'nč'
'nice_'
'nest'
'neh'
'nedo'
'nechceš_'
'nechal_'
'nebyla_'
'nast'
'nakonec_'
'nahoru_'
'na'
'měsíců_'
'město_'
'mí'
'my'
'mrtvý_'
'mo_'
'množství_'
'mini'
'map'
'lé'
'luv'
'lní_'
'kterého_'
'krá'
'kra'
'kontaktovat_'
'kin'
'jí'
'jasné_'
'ja_'
'itel'
'info_'
'il'
'ici_'
'hy_'
'hy'
'hr'
'hodnot'
'ha'
'globální_'
'get'
'fl'
'eš'
'ere'
'dv'
'dot'
'dneska_'
'dej_'
'dan'
'cu'
'cká_'
'cho'
'cestě_'
'by'
'bud'
'ati'
'ari'
'ané_'
'anti'
'ak'
'Zásady_'
'Win'
'Vo'
'Vlastně_'
'Villa_'
'Vi'
'Velká_'
'Val'
'Udělal_'
'The'
'Tam_'
'Takhle_'
'Super_'
'Sm'
'San'
'SA'
'Rád_'
'Ros'
'Republic_'
'Rekreační_'
'Před'
'Pra'
'Poz'
'Pal'
'PI'
'PC_'
'PA'
'Některé_'
'Nové_'
'Neu'
'Nat'
'NA_'
'NA'
'Microsoft_'
'Kal'
'Jde_'
'Jaké_'
'Il'
'Hol'
'Her'
'EU_'
'Domácí_'
'Dia'
'Copyright_'
'Con'
'Celý_'
'Cal'
'Británie_'
'Br'
'Ben'
'Apartmán_'
'? !_'
'94'
'91_'
'9'
'77'
'75'
'68'
'58_'
'55'
'43'
'39'
'38_'
'37_'
'37'
'34'
'32'
'31'
'0'
'. _'
'...?_'
'. (_'
'- '
'' _'
'%._'
'€ _'
'… _'
'„_'
'”_'
'яться_'
'яд'
'юю_'
'юр'
'эр'
'электронной_'
'эксперт'
'ьно_'
'ьная_'
'ыш'
'ыт'
'ческая_'
'чен'
'че_'
'частью_'
'ци'
'целях_'
'цели_'
'цвет_'
'хотят_'
'ха_'
'функции_'
'фа'
'усь_'
'ук'
'узнать_'
'уверен_'
'убил_'
'тон_'
'тесь_'
'тест'
'тел'
'твоей_'
'стил'
'сообщения_'
'слуша'
'син'
'сердце_'
'сен'
'самой_'
'ряд'
'роста_'
'родителей_'
'риск_'
'ран'
'рамках_'
'районе_'
'разно'
'ради_'
'пром'
'принцип'
'предназначен'
'предлага'
'правительства_'
'правильно_'
'помогает_'
'получи'
'подр'
'поводу_'
'план_'
'па_'
'отт'
'оти'
'отеле_'
'основном_'
'оружия_'
'организма_'
'опыт_'
'оме'
'оло'
'оз'
'оде'
'нужны_'
'нта'
'норм'
'нов'
'никаких_'
'нен'
'начать_'
'написан'
'мин'
'метро_'
'мая_'
'машину_'
'любви_'
'лы'
'логи'
'ло'
'лист'
'лим'
'лен'
'ле'
'лат'
'купить_'
'контроля_'
'компанией_'
'код'
'класса_'
'качество_'
'итесь_'
'зна'
'здоровья_'
'зат'
'записи_'
'замен'
'жо'
'еся_'
'ект'
'евро_'
'ды'
'друзья_'
'другом_'
'доступа_'
'доме_'
'дол'
'дов'
'декабря_'
'действий_'
'данный_'
'данного_'
'гру'
'говорите_'
'вых_'
'вос'
'возьми_'
'возраста_'
'вод'
'внутри_'
'власть_'
'вал_'
'быстро'
'бри'
'большие_'
'бан'
'аш'
'ара'
'анс'
'акт'
'автомобилей_'
'автобус'
'авто'
'Хан'
'Сал'
'РЕ'
'Похоже_'
'Порт'
'Об_'
'Ман'
'Л_'
'Кан'
'КА'
'Иногда_'
'До'
'Ги'
'Германии_'
'Гар'
'Вс'
'Ваш_'
'Бен'
'Апартаменты_'
'Ав'
'ženu_'
'ští'
'šla_'
'šk'
'še_'
'řen'
'řad'
'čin'
'ón'
'íná'
'ár'
'áci_'
'« _'
'zí'
'základní_'
'zv'
'zrovna_'
'zpracování_'
'zor'
'zločin'
'zkusit_'
'zen'
'zbraň_'
'začít_'
'yš'
'ys'
'webu_'
'ware_'
'vězení_'
'vě'
'vá'
'vlády_'
'večeři_'
'ven'
'vašich_'
'uživatel'
'utí_'
'ust'
'ula'
'třetích_'
'trval'
'ton'
'telefonu_'
'technické_'
'sá'
'sy_'
'stránkách_'
'sto_'
'společností_'
'skutečné_'
'skutečnosti_'
'sen'
'sek'
'růst_'
'ruce_'
'rozhodnutí_'
'rod'
'rit'
'rio'
'rh'
'rch'
'přím'
'přišli_'
'přijít_'
'předtím_'
'práv_'
'prostor'
'produktů_'
'pov'
'používat_'
'potřebuju_'
'potřebujete_'
'poté_'
'postaven'
'poskytuje_'
'pokus'
'podívat_'
'památek_'
'ovací_'
'ov_'
'ohledně_'
'nz'
'nut'
'nt'
'noh'
'nn'
'nepro'
'neod'
'nena'
'nech'
'nebylo_'
'našli_'
'našel_'
'nar'
'napo'
'nam'
'multi'
'mp'
'mami_'
'lí_'
'lu_'
'ln'
'lep'
'kách_'
'kup'
'koupit_'
'koupelny_'
'konec_'
'kol'
'kan'
'jiných_'
'jednot'
'jdu_'
'jaký_'
'iz'
'iv'
'ita_'
'ion_'
'ion'
'if'
'hrozn'
'hro'
'hra_'
'hm'
'hlavy_'
'hel'
'gg'
'ger'
'funguje_'
'for_'
'fi'
'fakt_'
'ením_'
'ene'
'eh'
'ed'
'dá'
'drž'
'druhý_'
'domácí_'
'dolů_'
'dit_'
'di_'
'dal'
'cy_'
'cokoliv_'
'cin'
'chtít_'
'chlap_'
'che'
'cha'
'cení_'
'buď_'
'bohat'
'blízko_'
'be_'
'bar_'
'ař'
'ato'
'aro'
'ard_'
'all_'
'ak_'
'ade'
'ach'
'Ye'
'Vys'
'Ve'
'VE'
'VA'
'Tou'
'TR'
'TO'
'TI'
'Společnost_'
'RA'
'Pří'
'Pre'
'Post'
'Port'
'Porn_'
'Pop'
'Pokoje_'
'Plat'
'Pen'
'Oba_'
'Nevy'
'Nes'
'Nech_'
'Myslela_'
'Museum_'
'Mami_'
'Mad'
'LI'
'Kra'
'Kr'
'Kost'
'Kom'
'Kli'
'Kdy_'
'Kat'
'Jméno_'
'Itálie_'
'Informace_'
'Hi'
'HO'
'HI'
'Ga'
'Fire'
'Dě'
'Dub'
'Don'
'Div'
'Del'
'Cra'
'Co'
'Che'
'Center_'
'CO'
'CH'
'Bur'
'Bob'
'Bay_'
'Bal'
'Až_'
'Auto'
'Ab'
'? '
'87'
'85_'
'84_'
'77_'
'74'
'68_'
'6'
'56_'
'35'
'193'
'16'
'14'
'118'
'... '
'!"_'
'!'
'�_'
'“_'
'ял'
'яз'
'яж'
'яв'
'юн'
'экономики_'
'эк'
'ьт'
'ьс'
'ьного_'
'ыг'
'шанс_'
'ша_'
'чный_'
'чка_'
'чик_'
'чат'
'ча_'
'ц'
'фото_'
'фор'
'фон'
'фер'
'уч'
'условия_'
'уро'
'уз'
'уется_'
'удалось_'
'уд'
'убива'
'ть'
'тим'
'танц'
'стро'
'стране_'
'стол_'
'станции_'
'сс_'
'сред'
'спорт'
'состоянии_'
'состав_'
'сол'
'смогут_'
'словам_'
'слав'
'ску'
'ски_'
'сервис_'
'се'
'сделала_'
'све'
'рос'
'роз'
'республик'
'рез'
'разо'
'рад'
'пут'
'пу'
'продуктов_'
'продукт_'
'прод'
'программа_'
'причин'
'принять_'
'приложения_'
'правила_'
'поро'
'положени'
'позволя'
'подс'
'поддержки_'
'по'
'питания_'
'первого_'
'пе'
'пал'
'отре'
'относится_'
'отлично_'
'ответ'
'основных_'
'организм_'
'опо'
'операции_'
'она'
'оль'
'оза'
'ода'
'общества_'
'обще'
'обеспечить_'
'обеспечение_'
'оба_'
'о'
'нул'
'нож'
'ники_'
'нием_'
'нер'
'мужчины_'
'мп'
'моих_'
'мнение_'
'мит'
'мил'
'машина_'
'магазин_'
'лян'
'лом_'
'лк'
'лицо_'
'лечение_'
'ления_'
'лед'
'кул'
'кти'
'крайней_'
'кофе_'
'кот'
'команд'
'кн'
'класс'
'кие_'
'кап'
'кали'
'йк'
'ия'
'ические_'
'ич'
'ица_'
'исследования_'
'исследований_'
'исс'
'исп'
'иногда_'
'има'
'илась_'
'изб'
'идеи_'
'игре_'
'знают_'
'знала_'
'зло'
'зв'
'зачем_'
'зап'
'животных_'
'же'
'еш'
'ером_'
'ент_'
'енной_'
'енно_'
'ене'
'еб'
'другое_'
'дни_'
'диа'
'гре'
'гостям_'
'выпи'
'вы'
'вил'
'вижу_'
'весьма_'
'ваших_'
'ваться_'
'ват'
'ванной_'
'быстрее_'
'бы'
'бро'
'боя'
'большое_'
'бол'
'бе'
'бай'
'ба_'
'аю_'
'але'
'Щ'
'Черт_'
'Че'
'Фе'
'Ту'
'Тем_'
'ТВ'
'Самый_'
'Пре'
'Пон'
'Показать_'
'Пок'
'Пе'
'ООН_'
'Му'
'Моя_'
'Могу_'
'Мин'
'Мер'
'Кра'
'Какой_'
'Интернет_'
'ЗА'
'Ден'
'Гу'
'Га'
'ВЕ'
'Большинство_'
'Более_'
'Ад'
'АН'
'́_'
'životní_'
'ším_'
'ština_'
'špatné_'
'říkat_'
'říkala_'
'řád_'
'řá'
'ěji_'
'Ě'
'čase_'
'Černošky_'
'účet_'
'úst'
'ín'
'áno_'
'zz'
'zní_'
'zne'
'zdrav'
'zb'
'zas'
'založen'
'zajímav'
'zah'
'zachránit_'
'zab'
'za'
'ys_'
'way_'
'věřit_'
'vzduchu_'
'vzal_'
'vym'
'vu_'
'vit'
'ves'
'velice_'
'vedl'
'uv'
'uta'
'určitě_'
'ura_'
'un_'
'umění_'
'umožňuje_'
'ukázat_'
'ug'
'uc'
'táta_'
'tz'
'tvá_'
'tiv'
'světov'
'svaz'
'stál'
'stroje_'
'spoustu_'
'službu_'
'skupin'
'ska'
'situace_'
'sha'
'seznam_'
'sex_'
'set'
'server_'
'ser'
'sed'
'samo'
'rovněž_'
'rodiče_'
'příležitost_'
'přišla_'
'přej'
'přece_'
'pěti_'
'ps'
'prov'
'proti'
'pros'
'pre'
'používáme_'
'potřebují_'
'potřebuje_'
'poho'
'po'
'plán_'
'plav'
'pl'
'patří_'
'past'
'pa_'
'ouš'
'oup'
'oti'
'ot'
'ostatních_'
'ost'
'osob'
'omlouvám_'
'ome'
'oli'
'ole'
'okolí_'
'ok_'
'ok'
'of'
'oddělení_'
'níky_'
'nov'
'ng'
'ner_'
'nemám_'
'nemají_'
'naprosto_'
'nak'
'najd'
'mého_'
'musel_'
'mou'
'mluvil_'
'metra_'
'metr'
'ment'
'ly'
'list'
'ld'
'land'
'ky'
'kot'
'klient'
'kla'
'ke'
'jdou_'
'jasně_'
'inter'
'ic'
'ia'
'há'
'hou'
'hl'
'har'
'had'
'fin'
'filtr'
'existuje_'
'eu'
'era_'
'eo'
'ens'
'ence_'
'eli_'
'děkuji_'
'dán'
'dveře_'
'dobro'
'div'
'destinaci_'
'dcera_'
'cký_'
'cke'
'chod'
'chlapec_'
'chat'
'cen'
'cel'
'cam'
'bol'
'bezpečnostní_'
'banky_'
'av'
'auto'
'aplikaci_'
'ani'
'ama_'
'alespoň_'
'Zobrazení_'
'Vin'
'Vidíš_'
'Video_'
'Tyto_'
'Tur'
'Tr'
'Spojených_'
'She'
'Sha'
'Ser'
'Saint_'
'SK'
'Q_'
'Ps'
'Pri'
'Počet_'
'Pos'
'Pojďme_'
'Plus_'
'Pa'
'Ná'
'Nev'
'Mí'
'Mor'
'Mi_'
'Mer'
'Mac_'
'Londýn_'
'LC'
'LA'
'Kč_'
'Kolik_'
'Kan'
'Jednou_'
'Jdeme_'
'Han'
'GI'
'Fe'
'FI'
'Euro'
'Ed'
'EU3'
'Drobné_'
'Dol'
'DO'
'DNA_'
'Cu'
'Cont'
'CE_'
'Budeme_'
'BI'
'AT'
'AR'
'AM'
'AD'
'83'
'82'
'79_'
'63_'
'57_'
'57'
'48_'
'46_'
'2002_'
'198'
'194'
'.)_'
'--_'
'-- _'
', ._'
' :'
'’ _'
'ёл'
'ясн'
'ян'
'ьян'
'щие_'
'щение_'
'щего_'
'ще_'
'щ'
'шта'
'шка_'
'шир'
'чувствую_'
'чные_'
'ческих_'
'ческий_'
'ч'
'целом_'
'цел'
'характер_'
'услуг_'
'уре'
'ура'
'ум'
'уде'
'убить_'
'тт'
'трех_'
'требуется_'
'тор_'
'ток_'
'технологий_'
'тели_'
'твор'
'твои_'
'тва_'
'стол'
'старо'
'станет_'
'спр'
'спор'
'спец'
'сор'
'совершенно_'
'сов'
'смысле_'
'сме'
'след'
'сл'
'скую_'
'скидк'
'сказали_'
'сентября_'
'сек'
'сво'
'сам'
'руководств'
'ру_'
'рол'
'рим'
'рж'
'решил_'
'рет'
'рел'
'рек'
'рд'
'рат'
'разг'
'разб'
'процессов_'
'проекта_'
'провести_'
'проб'
'примерно_'
'право'
'правительство_'
'последний_'
'пор'
'попробовать_'
'позиции_'
'пис'
'переход'
'первую_'
'пат'
'офис_'
'оплат'
'октября_'
'одном_'
'од'
'новости_'
'новое_'
'ново'
'нию_'
'ни'
'несо'
'недо'
'начина'
'начал_'
'настоящее_'
'народ_'
'нак'
'муж'
'море_'
'мон'
'молод'
'модели_'
'мм_'
'местный_'
'меньше_'
'мен'
'мало'
'любит_'
'лов'
'лица_'
'лет'
'лав'
'кус'
'кт'
'крайне_'
'которым_'
'кожи_'
'карты_'
'ками_'
'кам_'
'каких_'
'ическо'
'исто'
'используются_'
'использование_'
'ирован'
'ировал'
'изо'
'известно_'
'иан'
'иа'
'зон'
'знач'
'зин'
'звездочный_'
'защите_'
'зам'
'закончил'
'заказ'
'за'
'жи_'
'жения_'
'жение_'
'жена_'
'жаль_'
'еры_'
'ени'
'емо'
'ельно'
'еде'
'евы'
'другую_'
'другого_'
'дополнительной_'
'дон'
'длинн'
'дк'
'диск'
'дет'
'двух'
'движения_'
'дверь_'
'гу'
'государство_'
'гл'
'ге'
'выпуска'
'выбор'
'вход'
'военных_'
'вне'
'видеть_'
'вещей_'
'вероятно_'
'вернуть_'
'вен'
'века_'
'вания_'
'будь_'
'большинство_'
'больше'
'би_'
'бассейн_'
'бал'
'ах'
'аф'
'ата'
'ас'
'ан'
'актер'
'ай_'
'аи'
'аз'
'автомобиль_'
'Ю'
'Чи'
'Ху'
'Хочешь_'
'Хотя_'
'Ха'
'Уже_'
'Спа'
'Согласно_'
'Ска'
'Си'
'Сау'
'Положение_'
'Подожди_'
'Плат'
'Первый_'
'Оно_'
'Ол'
'ОТ'
'Но'
'Наши_'
'Наш_'
'Наверное_'
'Мад'
'МО'
'ЛЕ'
'Кор'
'Кол'
'Кли'
'Италии_'
'Здравствуйте_'
'Джон_'
'Гре'
'Го'
'Выб'
'Было_'
'Больше_'
'БО'
'Африке_'
'žít_'
'žijí_'
'žije_'
'ži'
'Žádné_'
'ší'
'špatně_'
'Šablona_'
'řízení_'
'řez'
'řekne_'
'řadu_'
'Řekla_'
'ěli_'
'čku_'
'čist'
'či'
'ček_'
'ča'
'Červen'
'Čas_'
'ývá_'
'út'
'úsilí_'
'úrovni_'
'ä'
'áním_'
'áli'
'É'
'západ'
'zákazníků_'
'způsoby_'
'způsob'
'změn'
'zhruba_'
'zatímco_'
'zap'
'zabij'
'yz'
'ym'
'yho_'
'ye'
'war'
'většina_'
'výsledky_'
'výhled_'
'více'
'vzdálenosti_'
'vysoce_'
'vyp'
'vič'
'velkou_'
'vedle_'
'vanou_'
'utn'
'uni'
'ube'
'tů_'
'třetí_'
'tun'
'tuhle_'
'tt'
'trans'
'tok'
'til'
'tické_'
'taková_'
'síť_'
'stůl_'
'stn'
'stejné_'
'sta_'
'ss_'
'spí'
'spojen'
'soused'
'soukromé_'
'snadné_'
'sn'
'skvělé_'
'siln'
'sekund_'
'scho'
'ráv'
'rychlost_'
'rt_'
'rsk'
'rs'
'roli_'
'rl'
'rin'
'res'
'půd'
'přist'
'připraven'
'přijde_'
'představ'
'především_'
'pás'
'pár'
'pá'
'prosince_'
'projev'
'prohlížeče_'
'pri'
'počítači_'
'počítač_'
'pově'
'posledních_'
'posl'
'pos'
'pon'
'politick'
'pole_'
'pokr'
'pn'
'platí_'
'pevn'
'pal'
'osoby_'
'one'
'omo'
'obou_'
'obl'
'něn'
'někde_'
'ně'
'název_'
'ns'
'nohy_'
'nit'
'nimi_'
'nie_'
'nejen_'
'nc'
'nat'
'např_'
'naleznete_'
'měly_'
'myslela_'
'mor'
'mez'
'mb'
'materiál_'
'mak'
'lí'
'ls_'
'loď_'
'lis'
'lik'
'lib'
'lam'
'kul'
'krize_'
'kluk_'
'jn'
'jest_'
'jedin'
'jdeš_'
'jdeme_'
'ička_'
'ity_'
'ip'
'io'
'int'
'ink'
'ily_'
'ide'
'ická_'
'hvězd'
'hrad'
'hled'
'hlad'
'gor'
'gn'
'fotografií_'
'filmu_'
'fe'
'eny_'
'ell'
'ef'
'dí'
'dy'
'druh'
'dos'
'doprav'
'dopad'
'doba_'
'dl_'
'dl'
'deset_'
'del_'
'dejte_'
'cího_'
'cí'
'ct_'
'chápu_'
'cha_'
'cem_'
'celém_'
'celkem_'
'cat'
'car'
'bu_'
'brzy_'
'br'
'bor'
'boj'
'body_'
'blízkosti_'
'baru_'
'az_'
'az'
'ata_'
'armád'
'ano'
'ann'
'akce_'
'agent'
'World_'
'Wil'
'Velikost_'
'VO'
'Un'
'Udělej_'
'USD_'
'US'
'TE'
'St'
'Spojené_'
'Sp'
'Sla'
'Sed'
'Sea'
'Samozřejmě_'
'SS'
'SE'
'Rus'
'Road_'
'Red'
'Rad'
'Pr'
'Pov'
'Potřebuji_'
'Podívejte_'
'Po'
'PL'
'PDF24_'
'Os'
'Ok_'
'Oh'
'OL'
'OK_'
'Německ'
'Nep'
'Nejlepší_'
'Ned'
'Nech'
'Myslíte_'
'Mohla_'
'Mod'
'Mini'
'May'
'Mag'
'Lin'
'Lib'
'Let'
'Le_'
'Lar'
'Kromě_'
'Kol'
'Kin'
'Kdyby_'
'Jistě_'
'Jin'
'Ji'
'Indi'
'Hračky_'
'GA'
'Fu'
'Fi'
'Facebook_'
'Em'
'Eli'
'Dva_'
'Ce'
'Cas'
'Buď_'
'Blan'
'Bet'
'Ban'
'BE'
'Av'
'Ag'
'Af'
'Aby_'
'?'
'='
'://_'
': „_'
'82_'
'800_'
'80'
'74_'
'71_'
'67'
'63'
'59'
'4hvězdičkové_'
'49'
'46'
'160_'
'150_'
'15'
'13'
'10'
'...._'
'" '
' %'
'’_'
'ём'
'ящ'
'яется_'
'экономической_'
'ья'
'ывать_'
'ъе'
'штук'
'ших_'
'широкий_'
'чувство_'
'чных_'
'чн'
'четыре_'
'четверт'
'честь_'
'ческой_'
'ческое_'
'человеком_'
'центра_'
'целе'
'ху'
'фо'
'фильма_'
'фил'
'фигур'
'фа_'
'уются_'
'ух'
'условиях_'
'ус_'
'ур'
'упо'
'уме'
'ума_'
'удар'
'убийство_'
'тет'
'тельно_'
'теле'
'твое_'
'сы_'
'считал'
'сты_'
'сту'
'стей_'
'сси'
'сравнению_'
'спрашива'
'спе'
'спас'
'состояние_'
'событий_'
'сни'
'сне'
'смен'
'слыш'
'слово_'
'следующий_'
'ска'
'серии_'
'семьи_'
'своими_'
'сан'
'рынке_'
'рен'
'ребята_'
'реб'
'раствор'
'раздел'
'разд'
'раз'
'пы_'
'путем_'
'профил'
'проект_'
'прода'
'пришлось_'
'призна'
'прием'
'прив'
'преимуществ'
'представлен'
'прав'
'пп'
'пошли_'
'построен'
'постоянно_'
'пора_'
'пом'
'пользоваться_'
'пользователя_'
'получили_'
'получила_'
'пойма'
'позволяет_'
'позволить_'
'поверхности_'
'пов'
'поб'
'плох'
'план'
'питание_'
'пин'
'персональные_'
'передачи_'
'переда'
'перевозк'
'первым_'
'первом_'
'пер'
'пациента_'
'оче'
'охран'
'отношения_'
'отда'
'остаться_'
'оре'
'определить_'
'оне'
'ое'
'одно'
'ование_'
'ов'
'обратно_'
'образования_'
'обеспечивает_'
'нь'
'нная_'
'нк'
'непри'
'непо'
'недель_'
'нашего_'
'наша_'
'насчет_'
'нар'
'намного_'
'называют_'
'навсегда_'
'мысли_'
'мо_'
'мм'
'мировой_'
'минимум_'
'металл'
'мед'
'любых_'
'лю'
'льные_'
'лот'
'лиз'
'лива'
'лета'
'кухни_'
'купил_'
'круг'
'кровь_'
'кри'
'кому_'
'команды_'
'каци'
'категории_'
'кат'
'кана'
'кан'
'камер'
'каким_'
'йо'
'ици'
'история_'
'ист_'
'ирует_'
'ип'
'инфекци'
'имеем_'
'им'
'ил'
'изменить_'
'игр_'
'ива'
'ив'
'зу_'
'зу'
'земли_'
'зал_'
'задача_'
'завтра_'
'заболевания_'
'ета_'
'ест'
'ерс'
'ера'
'ео'
'енц'
'доступны_'
'дост'
'док'
'доз'
'договора_'
'дн'
'длин'
'дз'
'держи'
'дерев'
'движение_'
'гон'
'глаза_'
'ган_'
'выход'
'выглядит_'
'вчера_'
'врач'
'воздуха_'
'вновь_'
'включен'
'виз'
'видела_'
'вид'
'взять_'
'взрыв'
'будто_'
'бронирования_'
'бомб'
'большим_'
'био'
'бил'
'безопасно'
'батаре'
'аци'
'аре'
'ара_'
'ава'
'Южной_'
'Ь'
'Чем_'
'Ча'
'Хэ'
'Хотите_'
'Хи'
'Фу'
'Тро'
'Твой_'
'Тай'
'ТА'
'Стр'
'Спе'
'Сначала_'
'Сам'
'Са'
'Ру'
'Расс'
'Раз'
'Путин_'
'Пра'
'Новый_'
'Надо_'
'Мол'
'Многие_'
'Мен'
'Мас'
'Лондон'
'ЛО'
'ЛИ'
'Кэ'
'Куда_'
'Китая_'
'Йорк_'
'Ис'
'Израиле_'
'Извините_'
'Зо'
'Зап'
'Жи'
'Ее_'
'Европа_'
'ЕН'
'Ду'
'Дол'
'Гра'
'Господи_'
'Гл'
'Выс'
'Время_'
'Вол'
'Видео_'
'Вес'
'Ве'
'Бра'
'Ан'
'Америки_'
'Америке_'
'žádost_'
'žádnou_'
'životě_'
'žit'
'žení_'
'ůr'
'šíř'
'šle'
'škole_'
'ša'
'října_'
'řil_'
'řeknu_'
'Říkal_'
'Ře'
'ň'
'ď'
'čí'
'čně_'
'čekat_'
'čeho_'
'úspěšn'
'íz'
'ína'
'ími_'
'ét'
'ér_'
'áž'
'áš'
'ána_'
'áj'
'áda'
'ác'
'» '
'® _'
' '
'{_'
'zón'
'zán'
'zákon'
'zvířata_'
'zpráva_'
'změny_'
'zm'
'zem'
'zcela_'
'zbytek_'
'zač_'
'zavolat_'
'zan'
'yb'
'wi'
'výzv'
'výzkum_'
'ví'
'ván'
'válka_'
'vys'
'vyn'
'vyj'
'vybrat_'
'vrátí_'
'vrah_'
'vra'
'voj'
'vodu_'
'vel'
'var'
'uživatelské_'
'ute'
'univerzit'
'umístění_'
'uk'
'uješ_'
'ui'
'tři'
'těž'
'tě'
'tvým_'
'tvé_'
'tvoří_'
'tur'
'top'
'tle'
'tky_'
'tka_'
'tivní_'
'tisíc_'
'tepl'
'ten'
'teln'
'telefon_'
'takového_'
'sí_'
'syn'
'světové_'
'svému_'
'svoji_'
'svoje_'
'super_'
'su'
'státní_'
'starý_'
'stan'
'spa'
'son'
'snaží_'
'sla'
'ski'
'sh_'
'sezón'
'sej'
'schopn'
'rukou_'
'restaurace_'
'ren'
'rat'
'radi'
'qui'
'půl_'
'přev'
'přesné_'
'přep'
'ptá'
'právní_'
'projekt_'
'prdele_'
'pravděpodobně_'
'potřeby_'
'potravin'
'plat'
'patr'
'pap'
'oči'
'ow'
'ováním_'
'ovo_'
'ovo'
'otázka_'
'oste'
'organizace_'
'oprav'
'omluv'
'odo'
'odejít_'
'oci'
'občan'
'obrá'
'objev'
'nějaká_'
'nář'
'nti'
'nta'
'nské_'
'nového_'
'nichž_'
'nezávisl'
'nev'
'nesp'
'neroz'
'nep'
'neměla_'
'nel'
'nek'
'ned'
'nech_'
'nebudu_'
'nd_'
'mých_'
'místní_'
'mra'
'motor'
'mocn'
'mis'
'minut'
'mas'
'lý_'
'líbí_'
'lova'
'listopadu_'
'lid'
'lem_'
'lat'
'lar'
'land_'
'kých_'
'ks_'
'krásn'
'král_'
'kop'
'koliv_'
'klíč_'
'klikněte_'
'kli'
'ker'
'kdybys_'
'karty_'
'jízdy_'
'jízd'
'jsk'
'jm'
'jistě_'
'jenž_'
'jednání_'
'jediná_'
'jazyk'
'jaká_'
'ir_'
'inu_'
'ina'
'ilu'
'ik_'
'id_'
'hrách_'
'hot'
'hod'
'hloup'
'hav'
'gmail_'
'fra'
'fik'
'fer'
'eč'
'ern'
'eri'
'energie_'
'ena'
'emi_'
'elné_'
'eln'
'ect'
'dž'
'důvodů_'
'dětmi_'
'dává_'
'dvou'
'dvakrát_'
'dubna_'
'druhou_'
'došlo_'
'dostanete_'
'don'
'der_'
'dek'
'dec'
'cvičení_'
'cn'
'cl'
'chud'
'chn'
'chlap'
'cesty_'
'cas'
'ca'
'bs'
'brát_'
'bojov'
'blo'
'bk'
'bez'
'bel'
'be'
'bank'
'aspoň_'
'ard'
'aniž_'
'alo'
'ající_'
'Zv'
'Zr'
'Zo'
'Zn'
'Yo'
'Ya'
'Web_'
'Web'
'Wal'
'Vypadá_'
'Vid'
'Určitě_'
'Up'
'Ub'
'Tvůj_'
'Tube_'
'Tru'
'Tro'
'Tre'
'Tan'
'Také_'
'Syn'
'Stáhnout_'
'Steve_'
'Stejně_'
'Společn'
'Spe'
'Sk'
'San_'
'Sam'
'ST'
'SO'
'Ren'
'Qua'
'Pozor_'
'OB'
'Nový_'
'Nov'
'Neza'
'Nejsem_'
'Naz'
'NI'
'Můžeme_'
'Místo_'
'Musí_'
'Mus'
'Mur'
'Mladý_'
'Mc'
'Mapa_'
'Lidé_'
'Ky'
'Kor'
'Ke_'
'Ka'
'Jdu_'
'Jas'
'Is'
'Inter'
'Indie_'
'IT_'
'ISO_'
'IS'
'IP'
'III_'
'Hlavní_'
'Hl'
'Haló_'
'HD'
'George_'
'Fre'
'Evropa_'
'ED'
'Du'
'De'
'DE'
'Com'
'Col'
'Ci'
'Chi'
'Ch'
'Cam'
'CI'
'Běž_'
'Bon'
'Bol'
'Bohu_'
'Boha_'
'Bla'
'Bar_'
'Ari'
'Apple_'
'Ant'
'All'
'Ach_'
'APK_'
'97_'
'95_'
'94_'
'88'
'85'
'67_'
'250_'
'25'
'240'
'18'
'112'
'100'
'-'
'"'
' * _'
' )_'
'€_'
'яс'
'языка_'
'ьм'
'ын'
'ыва'
'ъя'
'ъ_'
'школе_'
'шк'
'шин'
'шие_'
'шива'
'ши_'
'чная_'
'чита'
'чисто'
'чел'
'цеп'
'цене_'
'цель_'
'ца'
'хотим_'
'ходьбы_'
'ход'
'хать_'
'фф'
'фото'
'финансов'
'фикация_'
'файлах_'
'утро_'
'уп'
'университета_'
'ули'
'уе'
'удач'
'удалить_'
'угол'
'уверена_'
'уб'
'товаров_'
'тно'
'тер_'
'темп'
'тат'
'таки_'
'счет_'
'студент'
'стран'
'сторонние_'
'стн'
'стер'
'способности_'
'список_'
'состояни'
'сом_'
'сок'
'создания_'
'создан'
'события_'
'сле'
'скан'
'скажи_'
'ск'
'ситуации_'
'сервер'
'семья_'
'сей'
'сбор'
'сби'
'самого_'
'рыб'
'рт'
'ровать_'
'ров_'
'ров'
'рис'
'рин'
'результатов_'
'рег'
'революци'
'ре_'
'ранн'
'разработан'
'разр'
'размер_'
'различные_'
'развит'
'радио'
'равл'
'процесс'
'прото'
'просмотра_'
'пройти_'
'продукта_'
'продаж'
'программ'
'проводить_'
'приступ'
'принял_'
'принимать_'
'придется_'
'прекрасно_'
'прежнему_'
'предложения_'
'праздник'
'поте'
'попада'
'полно'
'полицейски'
'политической_'
'показать_'
'подоб'
'поддержку_'
'пик'
'пет'
'периода_'
'пережива'
'парня_'
'пара'
'ош'
'отношений_'
'отличие_'
'открыва'
'отелей_'
'ота_'
'остан'
'особо'
'основн'
'организаци'
'онные_'
'онн'
'океан'
'одновременно_'
'ого'
'овый_'
'ово'
'овки_'
'ови'
'образ'
'нут'
'ног'
'новую_'
'нич'
'ников_'
'неё_'
'неу'
'нера'
'непосредственно_'
'необходимую_'
'нельзя_'
'неделю_'
'нашу_'
'населения_'
'нас'
'наконец_'
'найде'
'наде'
'мя'
'момента_'
'минуты_'
'мест_'
'мен_'
'мел'
'международных_'
'мб'
'материал'
'мастер'
'марта_'
'люб'
'льн'
'лли'
'лиц_'
'леч'
'лем'
'легко'
'кур'
'конец_'
'комната_'
'ком'
'код_'
'клуб_'
'кислот'
'ке'
'йт'
'йского_'
'йский_'
'иц'
'иф'
'ито'
'ити'
'ит'
'использован'
'искать_'
'ис_'
'ирования_'
'интер'
'имы'
'имо'
'имен'
'илл'
'изменени'
'изг'
'иг'
'зов'
'зем'
'здорово_'
'здание_'
'зации_'
'зара'
'зар'
'запис'
'заниматься_'
'заме'
'закрыт'
'жно_'
'жива'
'жени'
'есь_'
'ес_'
'ерт'
'ень'
'ен'
'ейн'
'ез'
'дя'
'дро'
'дио'
'джа'
'держа'
'демократии_'
'дель'
'делают_'
'делаю_'
'дела'
'дан'
'гран'
'град'
'гр'
'говорили_'
'гне'
'гал'
'выгод'
'выбира'
'вшись_'
'воло'
'вны'
'вну'
'вно_'
'вк'
'виды_'
'вернуться_'
'верно_'
'вд'
'ванны'
'вали_'
'быстрый_'
'бра'
'бот'
'боли_'
'бело'
'бар'
'балл'
'аются_'
'арт'
'ар_'
'аль'
'аллерги'
'ажи'
'ажа'
'ается_'
'аем_'
'автор'
'ави'
'Экс'
'Шо'
'Ше'
'Три_'
'Транс'
'Тебя_'
'Тан'
'ТО'
'Сто'
'Сте'
'Среди_'
'Сол'
'Соединенных_'
'Смотри_'
'См'
'Ско'
'Скачать_'
'Скажи_'
'Сво'
'СО'
'Рек'
'Ред'
'Рас'
'Рад'
'Прошу_'
'Простите_'
'Пот'
'Послушай_'
'Пом'
'Политика_'
'План'
'Пер'
'Пен'
'Официальный_'
'Ор'
'Ок'
'Нужно_'
'Надеюсь_'
'НО'
'Мистер_'
'Мат'
'Мари'
'Май'
'Кла'
'Ир'
'Ид'
'Знаете_'
'Зак'
'Доктор_'
'Джи'
'Джеймс_'
'День_'
'Два_'
'Дай_'
'Готов'
'Германия_'
'Гал'
'Вне'
'Вен'
'Ваша_'
'Вал'
'Бур'
'Бл'
'Бел'
'žes_'
'žd'
'ža'
'ůd'
'ště'
'špatn'
'šn'
'škol'
'šaty_'
'řád'
'řin'
'řet'
'řekni_'
'řej'
'ěž'
'ěst'
'ču'
'čního_'
'činnosti_'
'čení_'
'České_'
'Česká_'
'Ča'
'ýn'
'ü'
'účtu_'
'ús'
'ír'
'ín_'
'íd'
'áž_'
'ávání_'
'ávám_'
'átk'
'závod'
'zveřejněn'
'způsoben'
'zprávu_'
'zpráv_'
'zpo'
'zná'
'zlat'
'zen_'
'zemích_'
'zdá_'
'zba'
'začíná_'
'zasl'
'zak'
'zajištění_'
'zahraničí_'
'zabil_'
'yd'
'ych'
'web_'
'vývoz'
'vír'
'vzdálen'
'vytvořit_'
'vyt'
'vysokou_'
'vyh'
'vybavení_'
'vybaven'
'vyb'
'voz'
'vil'
'viděla_'
'vidíš_'
'veřejné_'
'vede_'
'vaším_'
'vatel'
'vat'
'val'
'uště'
'ušn'
'ura'
'uo'
'unie_'
'uměl'
'umístěn_'
'ulá'
'ujistit_'
'ua'
'tří'
'těm_'
'téhle_'
'tán'
'tá'
'tvou_'
'ture_'
'továrn'
'tina_'
'the'
'televizní_'
'tel'
'tav'
'tam'
'tal'
'sítě_'
'síly_'
'střel'
'styl_'
'stre'
'stra'
'str'
'sti'
'ste_'
'starší_'
'ssi'
'správnou_'
'správ'
'sprch'
'speciální_'
'sp'
'součástí_'
'sna'
'smrt_'
'sma'
'slyšel_'
'slož'
'skvěl'
'sku_'
'skoro_'
'sil'
'sen_'
'sb'
'rů'
'rva'
'ruku_'
'rozhod'
'rozdíl_'
'rop'
'rob'
'rac'
'pů'
'příslušn'
'připojení_'
'pto'
'prostor_'
'profil_'
'povinnost'
'posíl'
'postelí_'
'port'
'pomal'
'policie_'
'pole'
'pol'
'pokoji_'
'podporu_'
'podporova'
'pláž'
'plo'
'pin'
'pat'
'panel'
'pacient'
'oči_'
'oznámení_'
'ovými_'
'ovým_'
'osm'
'ori'
'org_'
'ore'
'ona'
'om_'
'olympijských_'
'olo'
'ohl'
'odlišn'
'oddělen'
'obchod_'
'oa'
'něl'
'nějak_'
'následující_'
'národní_'
'nim_'
'nik'
'neřekl_'
'neustále_'
'nepřátel'
'nepod'
'nen'
'nemůžeme_'
'nemáš_'
'nelze_'
'nejde_'
'nato'
'naposledy_'
'máma_'
'muži_'
'mov'
'mojí_'
'mohly_'
'modr'
'moderní_'
'mluvíš_'
'miluju_'
'milionů_'
'mic'
'mber'
'materiálu_'
'mate'
'malá_'
'mac'
'léčb'
'lé_'
'lot'
'logi'
'liv'
'ley_'
'lek'
'lej'
'května_'
'květ'
'kva'
'království_'
'kromě_'
'kroky_'
'klo'
'klimatizac'
'kle'
'kg_'
'ker_'
'každém_'
'každ'
'kapel'
'kamarád'
'jíst_'
'js'
'jež_'
'jet_'
'jení_'
'ičky_'
'isk'
'inu'
'internetu_'
'ig'
'ick'
'http_'
'hodnocení_'
'hodin'
'hn'
'hern'
'graf'
'gov'
'gl'
'gen_'
'gel'
'fotky_'
'for'
'fan'
'ex_'
'ex'
'etn'
'ere_'
'enti'
'end'
'ekt'
'ee'
'ech'
'ebo'
'eb'
'dělám_'
'dě'
'dý'
'díl'
'dárek_'
'dám_'
'dvěma_'
'ds'
'dostupné_'
'dostala_'
'dosažen'
'domě_'
'dohodu_'
'doh'
'docela_'
'dlouhé_'
'dle'
'dla_'
'dk'
'die'
'dala_'
'cílem_'
'con'
'col'
'cm_'
'ckou_'
'chá'
'chvilku_'
'cht'
'chat_'
'cal'
'bě'
'byt'
'bru'
'bratr_'
'bn'
'blb'
'bio'
'bas'
'barv'
'ban'
'azi'
'asi'
'apartmán'
'apartmá_'
'aný_'
'ana_'
'ana'
'alo_'
'alb'
'aktualizace_'
'aktivní_'
'ag'
'ae'
'ace'
'ac'
'Zp'
'Zb'
'Zab'
'ZO'
'You'
'Vůbec_'
'Vše_'
'Vytvoř'
'Vyd'
'Verze_'
'Var'
'Uni'
'Um'
'Tý'
'Tv'
'Tor'
'Tenhle_'
'Ten'
'Tem'
'Tal'
'Svat'
'Suites_'
'St_'
'Služby_'
'Slov'
'Skl'
'Shi'
'Sc'
'SC'
'Room_'
'RU_'
'Pá'
'Pt'
'Polo'
'Phil'
'Pat'
'Paní_'
'Oz'
'OV'
'OS_'
'Náš_'
'Nor'
'Nemůžeš_'
'Nemusí'
'Nav'
'Nan'
'Může_'
'Mr'
'Mohl_'
'Mich'
'Mas'
'Mak'
'Love'
'Lor'
'Linux_'
'Lidi_'
'Led'
'LT'
'LL'
'Kř'
'Kn'
'Karl'
'John_'
'Jedna_'
'Jed'
'James'
'Jaký_'
'Ja'
'Hrát_'
'Hostel_'
'Hel'
'Ham'
'Gra'
'Garden_'
'Frankfurt_'
'Existuje_'
'Evropě_'
'EL'
'Dom'
'Den'
'De_'
'David'
'DA_'
'Chápu_'
'Charlie_'
'Carol'
'Cap'
'Ca'
'CD_'
'Brit'
'Bre'
'Bor'
'Bez'
'Ben_'
'BR'
'Anti'
'Andre'
'Američan'
'Alex'
'Alb'
'Airport_'
'AP'
'AC_'
'98_'
'88_'
'70'
'62_'
'3D_'
'21'
'2005_'
'186'
'105'
'. "_'
'+ _'
'+'
'('
'"] _'
'ёшь_'
'ёт'
'ял_'
'ягива'
'яг'
'юд'
'эффекты_'
'энергию_'
'эм'
'эксперимент'
'ьц'
'ьных_'
'ьем_'
'щей_'
'шла_'
'школу_'
'шаг_'
'чку_'
'чил'
'чемпионат'
'чал'
'ционны'
'цией_'
'целей_'
'цвето'
'хол'
'хож'
'ходе_'
'хе'
'хватает_'
'функци'
'фров'
'фри'
'фл'
'фильм_'
'уча'
'устройство_'
'установлен'
'управлять_'
'ун_'
'ума'
'ука'
'уж'
'уа'
'тысячи_'
'туалет'
'тоя'
'тора_'
'том'
'тни'
'технических_'
'тела_'
'таком_'
'съе'
'счита'
'страхов'
'стороне_'
'столько_'
'степени_'
'стан'
'ста_'
'средне'
'спи'
'сохранить_'
'сос'
'сообщение_'
'согласно_'
'современно'
'сно'
'смотр'
'смог_'
'смерть_'
'см'
'слышать_'
'случа'
'сли'
'слабы'
'скорее_'
'скор'
'скажу_'
'систему_'
'сим'
'секунд_'
'секретар'
'связаться_'
'сб'
'само'
'самая_'
'рю'
'рынок_'
'руку_'
'российско'
'роли_'
'рож'
'ровал'
'рно'
'рн'
'рил'
'рик'
'ресторане_'
'рес'
'реклам'
'рва'
'рати'
'расстояни'
'рассказал_'
'рака_'
'развитие_'
'разв'
'рав'
'рабоче'
'работаю_'
'раб'
'пытался_'
'прошу_'
'прошлом_'
'проходил'
'проф'
'производство_'
'производства_'
'программу_'
'прово'
'приход'
'принадлежит_'
'придет_'
'прида'
'привести_'
'привез'
'представ'
'предприятия_'
'предмет'
'похож_'
'потеря'
'посто'
'пост'
'посмотреть_'
'последствия_'
'посл'
'посеща'
'поняла_'
'понял_'
'положение_'
'половин'
'поле_'
'покупк'
'показывает_'
'пойти_'
'пои'
'поже'
'пое'
'подобны'
'подключен'
'подготовки_'
'пог'
'повер'
'побе'
'пил'
'печени_'
'персонал'
'переп'
'папа_'
'очный_'
'очередь_'
'отчет'
'отра'
'отправил'
'отдыха_'
'остро'
'останется_'
'остался_'
'остава'
'ост'
'оса'
'органы_'
'организме_'
'организация_'
'ора'
'опять_'
'описан'
'опа'
'оно'
'ой'
'ожидал'
'одо'
'одному_'
'оги'
'ове'
'оваться_'
'овали_'
'ова_'
'обращени'
'обмена_'
'нят'
'ня'
'ню_'
'ну'
'ноября_'
'ночи_'
'норма'
'ном'
'нни'
'нить_'
'непро'
'необходимости_'
'нем'
'неко'
'неделе_'
'нед'
'нди'
'нг'
'нашли_'
'нашла_'
'начинается_'
'начали_'
'настоящий_'
'настоящей_'
'настоящ'
'намерен'
'наличии_'
'надежд'
'мпи'
'мны'
'множество_'
'мисс_'
'миров'
'мини'
'мина'
'метрах_'
'месяц_'
'международной_'
'мальчик_'
'малы'
'маленьки'
'ля_'
'люд'
'любое_'
'любовь_'
'льная_'
'луч'
'лов_'
'лик'
'лер_'
'леп'
'лей_'
'лежа'
'лг'
'лас'
'лагер'
'куч'
'культуры_'
'корабл'
'копи'
'конфиденциальности_'
'контроль_'
'команда_'
'кова'
'квартиры_'
'касается_'
'карьер'
'картин'
'камеры_'
'йств'
'йно'
'ится_'
'используется_'
'иско'
'ира'
'ину'
'инт'
'инс'
'инов'
'инн'
'импери'
'ими'
'изменил'
'иб'
'зуб'
'значительно_'
'знаком'
'зим'
'зи_'
'здоровы'
'звук'
'заставил'
'запись_'
'занимает_'
'зала_'
'заключается_'
'заг'
'завод'
'журналист'
'жу'
'жет_'
'жертв'
'жде'
'еско'
'енное_'
'еля_'
'езд'
'дре'
'документы_'
'доказательств'
'добр'
'длительно'
'дист'
'дина'
'дже'
'дж'
'деятельность_'
'деятельности_'
'дешев'
'десят'
'дения_'
'дек'
'действие_'
'девушка_'
'девочка_'
'двумя_'
'дава'
'гро'
'границ'
'готов'
'голод'
'годах_'
'говоря_'
'говорила_'
'глав'
'гла'
'гат'
'гаранти'
'газет'
'выше'
'выра'
'вызов'
'выве'
'вся_'
'вред'
'вопрос'
'волос_'
'волн'
'возвращени'
'внешне'
'внес'
'вит'
'видео'
'вечером_'
'вечер_'
'вернулся_'
'веке_'
'вани'
'валют'
'буд'
'бре'
'бого'
'бог'
'блюд_'
'бла'
'бесплатно_'
'беременности_'
'баре_'
'банк'
'ая'
'атур'
'ард'
'апреля_'
'аппарат'
'ане_'
'ангел'
'активности_'
'актив'
'автомобиля_'
'авл'
'Ясно_'
'Эд'
'Ши'
'Чехии_'
'Чего_'
'ЦИ'
'Ц_'
'Хватит_'
'Франция_'
'Фер'
'Украины_'
'Ув'
'Том'
'ТР'
'Сю'
'Стра'
'Ст'
'Сло'
'Син'
'Сек'
'Северной_'
'Сан'
'СЕ'
'СА'
'Роб'
'Рей'
'Разве_'
'Пусть_'
'Пров'
'Пит'
'Париж_'
'ПК_'
'Ой_'
'Новые_'
'Несмотря_'
'Наб'
'НАТО_'
'НА_'
'Мор'
'Мил'
'Мет'
'Мексик'
'Мария_'
'Лю'
'Кри'
'Кос'
'Коре'
'Компания_'
'Ке'
'Йо'
'Испании_'
'Иран'
'Израиля_'
'ИН'
'Зав'
'З_'
'Жел'
'Дел'
'Гер'
'ГИ'
'Вер'
'Бри'
'Бол'
'Бо'
'Бло'
'Бал'
'АТ'
'АЛ'
'žn'
'žel'
'Živ'
'Žena_'
'ťov'
'štěn'
'šti'
'šl'
'ši_'
'Št'
'Ša'
'řel'
'ěz'
'ěle'
'ěla_'
'část'
'čte'
'čk'
'čisté_'
'činu_'
'června_'
'čaje_'
'Či'
'ýt_'
'úžasn'
'úplné_'
'úkol_'
'úkol'
'óz'
'ór'
'íž'
'íř'
'átu_'
'áte'
'ás'
'álně_'
'áb'
'Ý'
'Úvod_'
'»)'
'získal_'
'záměr'
'záležitosti_'
'základn'
'zlo'
'zes'
'zemřel_'
'zel'
'začala_'
'zavř'
'zatím_'
'zastavit_'
'zar'
'zahrnují_'
'zahrnuje_'
'zace_'
'yi_'
'všude_'
'vě_'
'výše_'
'výzkumu_'
'vývoj_'
'výrobu_'
'výrobky_'
'výhledem_'
'vztahu_'
'vzhůru_'
'vyv'
'vyst'
'vysl'
'vyr'
'vy'
'vrátil_'
'vou_'
'vodo'
'vnitřní_'
'vláda_'
'vhodné_'
'verzi_'
'ventil'
'vají_'
'uše'
'uvěřit_'
'uti'
'use'
'určit'
'uprostřed_'
'umístěn'
'umožní_'
'uma'
'uli'
'ule'
'ul_'
'udělali_'
'udržet_'
'ucha'
'těl'
'týdnů_'
'týdn'
'témat'
'tyhle_'
'tvar'
'trá'
'troj'
'tri'
'trh'
'touh'
'tomhle_'
'tom'
'tku_'
'that_'
'teprve_'
'tem'
'tah'
'síla_'
'systémů_'
'světlo_'
'sv'
'středo'
'strach_'
'stovky_'
'stala_'
'sse'
'ss'
'spát_'
'sportovní_'
'soudu_'
'sociální_'
'snažil_'
'snadn'
'smu_'
'slí'
'složit'
'sli'
'sledovat_'
'sledoval_'
'sl'
'ským_'
'skr'
'situaci_'
'show_'
'sho'
'servis_'
'serveru_'
'sejfem_'
'schopnosti_'
'sbor_'
'rr'
'rozp'
'rozm'
'rozhraní_'
'rodič'
'rizik'
'ris'
'rie'
'ric'
'ria_'
'rev'
'rel'
'rec'
'rat_'
'race'
'que_'
'přítelkyně_'
'přiv'
'přejete_'
'přeh'
'předv'
'představuje_'
'přede'
'píseň_'
'py_'
'pta'
'pt'
'prázdn'
'prvním_'
'prvky_'
'prv'
'proud'
'pronájem_'
'proměn'
'prok'
'projektu_'
'prohl'
'programu_'
'problémů_'
'pp'
'pozem'
'poruš'
'pomůže_'
'polí'
'pokoj'
'pojď_'
'podává_'
'pobřeží_'
'pob'
'platn'
'platit_'
'pit'
'pir'
'ph'
'per_'
'patřil'
'partner'
'part'
'park'
'oxid'
'ox'
'ovány_'
'ovaná_'
'ouz'
'otázku_'
'otevřen'
'ory_'
'orn'
'ono_'
'onic'
'oni'
'oi'
'odtud_'
'odstranit_'
'odpověď_'
'odpad'
'ode_'
'odd'
'ochotn'
'obsahuje_'
'obraťte_'
'oblast_'
'obecn'
'období_'
'některých_'
'něk'
'nými_'
'ník'
'níci_'
'ní'
'nutné_'
'nul'
'nud'
'nu'
'nst'
'normální_'
'nom'
'nič'
'nin'
'nil_'
'nic'
'neviděl_'
'neuvěřiteln'
'nepří'
'neob'
'nej_'
'napětí_'
'nan'
'nab'
'mír_'
'mém_'
'mál'
'mysli_'
'mit'
'mes'
'men_'
'manželství_'
'líp_'
'lás'
'log'
'lim'
'lidské_'
'lež_'
'lete'
'les_'
'lav'
'kři'
'kým_'
'květin'
'kv'
'kur'
'kuj'
'ks'
'kové_'
'kombin'
'knihovn'
'kluk'
'klidu_'
'klid_'
'kal'
'jící'
'ju'
'jist'
'jednoduše_'
'jedno'
'jed'
'jdi_'
'japonsk'
'iště_'
'iče'
'ito'
'insk'
'ino_'
'ini'
'inf'
'imp'
'im_'
'ika_'
'ien'
'ických_'
'ici'
'hru_'
'hrdin'
'hranic'
'hotel'
'hostů_'
'host'
'horší_'
'hlas'
'hd'
'gra'
'go_'
'geo'
'fungovat_'
'formáty_'
'fitness_'
'firm'
'finanční'
'filmy_'
'ff'
'fe_'
'eř'
'ext'
'existují_'
'eva'
'eur'
'ete'
'ero'
'era'
'eni'
'emo'
'email'
'ele'
'eko'
'ec'
'ební_'
'dů_'
'dě_'
'dívka_'
'dív'
'dávk'
'dáv'
'dvoj'
'drogy_'
'dovolit_'
'dovolen'
'doufám_'
'dostane_'
'dobrou_'
'divn'
'distribu'
'disk'
'detail'
'denně_'
'deme_'
'delší_'
'dce'
'cítí_'
'ct'
'com'
'chyb'
'chv'
'chu_'
'chtěli_'
'chránit_'
'cesta_'
'cer'
'celkov'
'cc'
'can'
'ca_'
'bý'
'bro'
'bre'
'bok'
'bojovat_'
'ble_'
'ble'
'bili'
'bezplatn'
'bat'
'avo'
'autobus'
'ate'
'atd_'
'ase'
'anov'
'ang_'
'ane'
'ami'
'amat'
'aktuální_'
'ah_'
'adl'
'aa'
'\\'
'Zlat'
'Zdravím_'
'Zde_'
'Začn'
'Zavř'
'Wor'
'Wa'
'Vám_'
'Vod'
'Velké_'
'Vaši_'
'Van'
'Upřímně_'
'UP'
'UN'
'Tu_'
'Trans'
'Tom'
'Tedy_'
'TT'
'Sy'
'Super'
'Sub'
'Stále_'
'Stan'
'Spice_'
'Spi'
'Spa_'
'Spa'
'Slyšel_'
'Shar'
'Sco'
'Sb'
'Royal_'
'Rick'
'Ric'
'Ram'
'RM'
'Qui'
'Přes'
'Páni_'
'Prá'
'Prod'
'Prac'
'Power'
'Potom_'
'Poslyš_'
'Pomoc_'
'Polsk'
'Poh'
'Pob'
'Pin'
'Pic'
'Pad'
'PE'
'Ol'
'Obchodní_'
'News_'
'Nemyslím_'
'Nechceš_'
'Neb'
'NO'
'ND'
'Mé'
'Mon'
'Mel'
'Matt'
'Mat'
'Mary_'
'Mark'
'MT'
'MO'
'MM'
'Lou'
'Lis'
'Letiště_'
'Laur'
'Las'
'LO'
'Kle'
'John'
'Jer'
'Jdi_'
'Java'
'Jane_'
'Jacku_'
'Izrael'
'Internet_'
'IM'
'IE'
'Hy'
'Hua'
'Hot'
'Holm'
'Holky_'
'Gor'
'Gitea_'
'Gh'
'Ger'
'GPS_'
'GO'
'Free'
'Fra'
'Flo'
'Evropské_'
'Ev'
'El_'
'EM'
'Domů_'
'Dobrou_'
'Des'
'Dejte_'
'DC_'
'DA'
'Cy'
'Converter_'
'Club_'
'Chu'
'Christ'
'CE'
'Bru'
'Bri'
'Barcelona_'
'August'
'Apartments_'
'Ang'
'Amb'
'AL'
'?"_'
'93_'
'92'
'84'
'73_'
'72_'
'600_'
'51_'
'420_'
'201'
'1999_'
'185'
'150'
'123_'
'120_'
'1000_'
'09'
'03'
'01'
','
'( _'
'# _'
' °_'
' :_'
' - '
' +_'
' ) _'
' % _'
'�'
'…'
'”'
'і'
'ёз'
'яще'
'яци'
'ярн'
'яем'
'явно_'
'ют'
'юс'
'юм'
'юк'
'эффективность_'
'эффективности_'
'эффективно'
'эффект_'
'эл'
'экономического_'
'эко'
'ьным_'
'ьной_'
'ьное_'
'ьно'
'ьки'
'ыл'
'ывал'
'щин'
'щения_'
'шки_'
'чудо'
'чувствуешь_'
'чувства_'
'чувств'
'чник'
'чки_'
'чешски'
'чес'
'цу_'
'цов'
'цк'
'цир'
'церкви_'
'це_'
'цвет'
'хся_'
'хр'
'хоть_'
'хор'
'хм'
'хват'
'хар'
'хан'
'фраз'
'форма_'
'фел'
'февраля_'
'фар'
'уше'
'учит'
'учени'
'уть_'
'утр'
'уст'
'успех'
'усилия_'
'уровнем_'
'управлении_'
'уни'
'унд'
'умы'
'уми'
'умер_'
'умен'
'уля'
'улице_'
'ула'
'ул'
'укреплени'
'указан'
'уй_'
'ужи'
'удовольствие_'
'уди'
'уго'
'увидел_'
'увеличение_'
'убе'
'труда_'
'требует_'
'требования_'
'трав'
'тори'
'топлива_'
'тон'
'тн'
'тко'
'тка_'
'тк'
'терапии_'
'тепло'
'температур'
'темн'
'теми_'
'тем'
'тельный_'
'тель_'
'текст'
'тек'
'тво'
'тар'
'талант'
'сы'
'считается_'
'считает_'
'сцен'
'сходи'
'сумм'
'стя'
'сты'
'стре'
'стоят'
'сторонн'
'стоимость_'
'стить_'
'стиле_'
'стве_'
'статус_'
'стат'
'стандарт'
'ставки_'
'ссылк'
'срок'
'средство_'
'спросил'
'сотрудников_'
'создани'
'соедин'
'согласи'
'собственно'
'собор'
'собирал'
'собак'
'снима'
'сначала_'
'слышал_'
'случаев_'
'службы_'
'служб'
'слу'
'сложны'
'следующие_'
'скоро_'
'ск_'
'система'
'сеть_'
'сестра_'
'сере'
'сезон_'
'север'
'сделае'
'свят'
'своё_'
'свойств'
'своему_'
'своевременно'
'свободы_'
'свобод'
'сар'
'самолет'
'сад_'
'рь_'
'руж'
'ром_'
'ровы'
'рм'
'риз'
'реч'
'ресс'
'результат_'
'реальны'
'расходы_'
'расположен'
'рал'
'ракет'
'разрушен'
'рад_'
'равно'
'пыта'
'путешеств'
'пул'
'публичн'
'проявля'
'проща'
'прош'
'противник'
'пропа'
'проп'
'прол'
'программного_'
'проведен'
'приятель_'
'причина_'
'прит'
'принес'
'принадлежности_'
'признать_'
'прие'
'прид'
'приб'
'преми'
'прек'
'преду'
'предполага'
'предоставля'
'предо'
'прев'
'появляется_'
'пош'
'похоже_'
'поставщик'
'последнее_'
'поре'
'пора'
'поможет_'
'помнить_'
'получа'
'положения_'
'полож'
'полной_'
'полн'
'политическ'
'поклон'
'пойду_'
'позже_'
'позволит_'
'пожаловать_'
'подходит_'
'подп'
'подк'
'подда'
'плеч'
'плени'
'платформ'
'пешком_'
'перв'
'пел'
'пати'
'парламент'
'пар'
'очно'
'очки_'
'оци'
'оценки_'
'оф'
'оу'
'отсюда_'
'отста'
'отправит'
'отн'
'отличн'
'открытия_'
'открывается_'
'отк'
'отзыв'
'оте'
'отдельных_'
'осуществля'
'остаются_'
'остается_'
'оро'
'определени'
'определ'
'опера'
'онный_'
'онной_'
'одит'
'од_'
'ового_'
'обязательно_'
'обычно'
'объект'
'общи'
'общество_'
'общего_'
'обраща'
'образц'
'образование_'
'обр'
'оборудования_'
'оби'
'обвинени'
'нтов_'
'нт_'
'нт'
'номерах_'
'нога'
'новост'
'нови'
'нным_'
'нной_'
'нного_'
'ниц'
'нин'
'никакой_'
'ника_'
'низко'
'нефти_'
'неудач'
'неи'
'нез'
'нев'
'нда'
'нг_'
'начн'
'начале_'
'национально'
'науки_'
'наук'
'настолько_'
'насто'
'наслед'
'народу_'
'напитк'
'нап'
'нал'
'найдете_'
'наверное_'
'наблюдения_'
'мые_'
'муж_'
'мото'
'моло'
'модель_'
'многое_'
'мно'
'млрд_'
'мк'
'мин_'
'метров_'
'метод'
'мест'
'мероприяти'
'мер_'
'мер'
'меня'
'матч'
'матери_'
'мат'
'мас'
'лё'
'любител'
'любимы'
'льск'
'льный_'
'льно_'
'лучших_'
'лор'
'лод'
'лл'
'лиш'
'лицензи'
'лит'
'лив'
'летний_'
'ленно'
'лей'
'лан'
'кую_'
'куз'
'кредит'
'крас'
'коро'
'коп'
'конца_'
'комп'
'комнату_'
'комиссии_'
'количества_'
'кож'
'книга_'
'клуб'
'кк'
'кер'
'квартир'
'ках_'
'какая_'
'как'
'казн'
'казино_'
'каждо'
'йтесь_'
'йн_'
'июля_'
'ительно'
'исход'
'источники_'
'исторически'
'исправить_'
'использованием_'
'использовал'
'иска'
'иру'
'ины_'
'ино'
'ини_'
'ини'
'инвестиций_'
'имени_'
'имел_'
'иков_'
'изуча'
'изменя'
'извин'
'изация_'
'изации_'
'иди_'
'играх_'
'ивши'
'ивно'
'знак_'
'зии_'
'зжа'
'зен'
'здоровье_'
'звук_'
'защища'
'защитить_'
'запрет'
'запо'
'запас'
'зан'
'замеча'
'заключен'
'займ'
'заго'
'загад'
'животные_'
'жертвы_'
'жду'
'естн'
'ески'
'ере'
'ента'
'ент'
'енная_'
'ению_'
'ельс'
'ел'
'езн'
'еж'
'един'
'европейских_'
'ева'
'душе'
'душ_'
'думала_'
'друж'
'друга_'
'доход'
'достижения_'
'дос'
'домен'
'доктора_'
'договор_'
'договор'
'добро'
'добиться_'
'добав'
'дис'
'дил'
'детям_'
'детско'
'делала_'
'дел_'
'движени'
'двигател'
'данном_'
'данной_'
'далеко_'
'дал'
'давно_'
'густ'
'губ'
'грузов_'
'гри'
'гра'
'готовы_'
'гостиниц'
'годн'
'год'
'говорим_'
'говори_'
'гиб'
'геро'
'гад'
'выполнен'
'выйти_'
'выигра'
'выг'
'встреч'
'вспом'
'восстановления_'
'вопросам_'
'воздействи'
'возврат'
'водо'
'вле'
'вин'
'видите_'
'виде'
'вида_'
'вере'
'вел'
'ве_'
'вари'
'вается_'
'вае'
'бс'
'брат'
'больны'
'больниц'
'боль_'
'бок'
'бой'
'бно'
'бин'
'берег'
'бел'
'бед'
'банк_'
'бактери'
'ацию_'
'ато'
'ательно'
'ард_'
'анн'
'англ_'
'альная_'
'активно'
'аже'
'автомобил'
'Ян'
'Южн'
'Чёрт_'
'ЧЕ'
'Ци'
'Цен'
'Хел'
'Ф_'
'Ум'
'УС'
'Тур'
'Точно_'
'Тот_'
'Такое_'
'ТЬ_'
'Существует_'
'Стар'
'Совета_'
'Совет_'
'Сов'
'Слова'
'След'
'Слав'
'Ск'
'Сим'
'Сид'
'Сдела'
'СП'
'Республики_'
'Рай'
'Прямо_'
'Пром'
'Прин'
'Пр'
'Посмотри_'
'Посмотреть_'
'Питер_'
'Одно'
'Обо'
'Обе'
'ОБ'
'Никола'
'Наша_'
'Наст'
'Нар'
'Москве_'
'Мои_'
'Можешь_'
'Мис'
'Международно'
'Ме'
'Маг'
'Лучше_'
'Лиз'
'Лен'
'ЛЬ'
'Красный_'
'Кей'
'Карта_'
'Калифорни'
'Какое_'
'Италия_'
'История_'
'Затем_'
'Евро'
'Добро_'
'Дин'
'Дал'
'Дав'
'ДИ'
'ДА'
'Гиб'
'Вар'
'ВС'
'Буд'
'Бон'
'Благодаря_'
'Бело'
'Барселон'
'Ап'
'Ам'
'Азии_'
'Австри'
'Австралии_'
'žím_'
'žuj'
'životy_'
'žil_'
'ženská_'
'ůz'
'šéf'
'šv'
'šest_'
'říkáš_'
'říkáte_'
'říkají_'
'ři'
'řeb'
'řadě_'
'ěla'
'čt'
'článek_'
'čel'
'če'
'ýl'
'ýho_'
'účt'
'ústav'
'údržb'
'úd'
'ím'
'ém'
'è'
'}'
'zřejmě_'
'zároveň_'
'zájmu_'
'záb'
'zvuk_'
'zvol'
'zrušen'
'zobraz'
'známk'
'znám'
'změnil'
'zlepš'
'zkouše'
'zer'
'zbavit_'
'zatracen'
'zamilova'
'zabezpečení_'
'yu'
'yně_'
'yc'
'ya'
'wor'
'wer'
'věřím_'
'výstup'
'výp'
'výměn'
'výkonu_'
'výkonn'
'výkon_'
'výhody_'
'vést_'
'válku_'
'váh'
'vztah_'
'vyšetř'
'využívá_'
'využití_'
'vytvořil_'
'vyrábě'
'vykr'
'vyber'
'vst'
'vražd'
'volný_'
'voln'
'volb'
'vodě_'
'vodní_'
'vod'
'vna'
'vlasy_'
'vlastní'
'vlak'
'vis'
'viděli_'
'vezmu_'
'vej'
'vatsk'
'vala_'
'uživatelů_'
'uve'
'use_'
'uprav'
'ukov'
'ukazuje_'
'uhl'
'ude'
'ud_'
'tší'
'těsn'
'týdny_'
'tímhle_'
'té'
'tá_'
'tup'
'tráv'
'trvá_'
'trhy_'
'tisíce_'
'tiskárn'
'tetování_'
'telefonní_'
'tele'
'tech_'
'tanec_'
'tahle_'
'sílu_'
'svědk'
'svými_'
'sval'
'stře'
'státu_'
'stráž'
'stranu_'
'stick'
'ster_'
'stavu_'
'staré'
'starosti_'
'spíš_'
'společně_'
'společného_'
'spal'
'současn'
'soutěž'
'souladu_'
'snížení_'
'sníž'
'směr'
'směn'
'slyší'
'slyšet_'
'služba_'
'slo'
'slečno_'
'sledování_'
'skvělý_'
'skvěle_'
'sklo'
'ske'
'sk_'
'ses'
'server'
'ser_'
'sektoru_'
'sekce_'
'schova'
'samé_'
'růstu_'
'rámci_'
'ruk'
'rub'
'rozum'
'rozt'
'rozhodl_'
'rot'
'rodině_'
'rně'
'rni'
'rma'
'rez'
'region'
'reform'
'raz'
'rak'
'pš'
'přístav'
'případu_'
'přátel'
'připrav'
'přináší_'
'převod'
'přesto_'
'předsed'
'přední_'
'př'
'péče_'
'pánové_'
'pák'
'pus'
'provozu_'
'prostředky_'
'propa'
'prom'
'profesor'
'profesionál'
'prezidenta_'
'prezident'
'pravidla_'
'prací_'
'povol'
'použit'
'poslouch'
'poruch'
'popsa'
'popis_'
'polovin'
'pokojích_'
'pohyb_'
'pohled_'
'podíl_'
'podá'
'plán'
'plod'
'pln'
'platform'
'pk'
'phpmyadmin_'
'parkování_'
'očekáva'
'ovém_'
'ováno_'
'ovit'
'ovaly_'
'ova'
'ostrov'
'osm_'
'osl'
'ort'
'oro'
'oper'
'opatření_'
'ons'
'omi'
'oka'
'oha'
'odsud_'
'odst'
'ods'
'obyvatel_'
'obs'
'obr'
'obo'
'němu_'
'nát'
'násob'
'nápad'
'nád'
'nábo'
'nových_'
'not'
'niz'
'nick'
'nevz'
'neudělal_'
'net_'
'nesmí'
'nepřij'
'nemocnici_'
'nejvíce_'
'nejhorší_'
'nejdřív_'
'nejb'
'nechte_'
'nec'
'ne'
'nb'
'našla_'
'nastav'
'narozeniny_'
'najdete_'
'nah'
'nabídku_'
'měst'
'místnost_'
'místech_'
'míst'
'mé'
'málo_'
'myslet_'
'mysl_'
'mysl'
'mr'
'mořsk'
'mos'
'mont'
'mikro'
'metod'
'mato'
'matic'
'materiály_'
'manžel_'
'manžel'
'mani'
'mana'
'malý_'
'mali'
'líz'
'lékař'
'láska_'
'lub'
'lsk'
'll'
'liv_'
'lik_'
'lig'
'lic'
'ler'
'kře'
'kávy_'
'kání'
'kvality_'
'kvalit'
'kus'
'kurzu_'
'kulturní_'
'kti'
'krv'
'krok_'
'kraj'
'kont'
'komunit'
'komor'
'kno'
'knihy_'
'klá'
'klubu_'
'klub'
'klad'
'kl'
'kdybych_'
'kaz'
'kategorie_'
'kas'
'kanál'
'kamery_'
'kabel'
'jších_'
'jezd'
'jev'
'jemn'
'jeme_'
'jejichž_'
'jednotky_'
'jednat_'
'jaké_'
'iž_'
'iž'
'iš'
'ií_'
'ize'
'ivo'
'invest'
'ino'
'ind'
'iga'
'icky_'
'hromad'
'holky_'
'hodnoty_'
'hodn'
'hod_'
'hně'
'hli'
'hlavním_'
'hlava_'
'hi_'
'hard'
'grafi'
'gh'
'front'
'fr'
'foto'
'fon'
'film'
'fajn_'
'ečk'
'exist'
'ev_'
'ety_'
'eth'
'ery_'
'ert'
'erg'
'enk'
'emi'
'ele_'
'ekonomik'
'ejme_'
'eho_'
'efekt'
'edn'
'edi'
'důvěru_'
'důvodu_'
'důsledku_'
'důkaz_'
'dělají_'
'děkuju_'
'dávno_'
'duch'
'ds_'
'držet_'
'druhá_'
'druhy_'
'dovnitř_'
'dospěl'
'dor'
'dokument'
'dli'
'dle_'
'disku'
'dia'
'dh'
'des_'
'dem'
'def'
'dalším_'
'cím_'
'cíl'
'cá'
'ckého_'
'chyt'
'chyby_'
'chyba_'
'chy'
'chovat_'
'chorob'
'chodí_'
'cet_'
'centrální_'
'bě_'
'býval'
'but'
'bun'
'budově_'
'budov'
'brzd'
'bou_'
'boty_'
'bod_'
'bní_'
'bit'
'bin'
'bil_'
'bezplatné_'
'bezpečí_'
'bezpečnosti_'
'bet'
'baterie_'
'ač'
'avi'
'atel'
'anou_'
'ance_'
'anal'
'amb'
'aly_'
'alit'
'ako'
'ago'
'adí_'
'adresu_'
'adlo_'
'act'
'abs'
']._'
'Zná'
'Zl'
'Zk'
'Zjist'
'Zdrav'
'Zah'
'York_'
'XI'
'Vítejte_'
'Vánoce_'
'Vyp'
'Viděl_'
'Velký_'
'Vel'
'Uvidíme_'
'University_'
'Ul'
'Ukrajin'
'Uh'
'Ud'
'UT'
'Tá'
'Typ_'
'Ty'
'Time'
'TS_'
'Stří'
'Sti'
'Starý_'
'Sol'
'Sim'
'Side_'
'Seznam_'
'Sec'
'Se_'
'Sand'
'Rusko_'
'Ron'
'Rod'
'RN'
'RI'
'RD'
'Přidat_'
'Přestaň_'
'Předchozí_'
'Pěkn'
'Py'
'Putin'
'Pur'
'Profes'
'Premi'
'Potřebujete_'
'Pok'
'Podmínky_'
'Plá'
'Plaza_'
'Pl'
'Pas'
'Part'
'Palm'
'PS_'
'PRO'
'PP'
'Otevřít_'
'Ope'
'One'
'On'
'Obje'
'OSN_'
'OM'
'Někdy_'
'Nástěnka_'
'Nástroj_'
'Nemáš_'
'Nem'
'Nedo'
'Nechte_'
'Nebudu_'
'NE'
'Mě_'
'Muž_'
'Musel'
'Mont'
'Media_'
'Maxi'
'Max_'
'Mate'
'Map'
'MPEG_'
'Lí'
'Luci'
'Luc'
'Loc'
'Liv'
'Lex'
'Lev'
'Leo'
'Len'
'Leg'
'Lan'
'Lam'
'Lab'
'Kámo_'
'Květ'
'Kre'
'Konečně_'
'Kdy'
'Každ'
'KY_'
'KVĚTIN_'
'Jul'
'Jižní_'
'Jim_'
'Jedn'
'Jakmile_'
'JE_'
'Insta'
'Inc'
'Imp'
'Ice'
'Hra'
'Host'
'Hodně_'
'Hea'
'Har'
'Hai'
'HTML_'
'Gru'
'Group_'
'Gold'
'Gi'
'Get'
'Fun'
'Fore'
'Fil'
'Fer'
'FA'
'Ele'
'El'
'Dív'
'Dv'
'Druh'
'Dra'
'Dev'
'David_'
'DY_'
'DVB_'
'DP'
'DORUČENÍ_'
'Coo'
'Clo'
'Cit'
'Cho'
'Chce_'
'Chat'
'Char'
'Chan'
'Celkem_'
'Casino_'
'Carl'
'Call'
'CS'
'Březen_'
'Během_'
'Bun'
'Bra'
'Black_'
'Ber'
'Bell'
'Bang'
'BM'
'Ak'
'Air_'
'Adam'
'Abych_'
'@ _'
'; '
':'
'92_'
'91'
'87_'
'83_'
'65_'
'65'
'52_'
'36'
'260'
'202'
'1980_'
'180_'
'170'
'17'
'123'
'08'
'06'
'05'
'000'
'/'
'.)._'
'." _'
'. -_'
', – _'
', «_'
') '
'&#_'
'%_'
'%)'
' €'
' …_'
' \\'
' $ _'
'♪ _'
'℃'
'”._'
'“, _'
'“)'
'ённо'
'яч'
'янн'
'янк'
'яни'
'яли_'
'яко'
'языке_'
'ядерны'
'экспорт'
'эксп'
'экран'
'ью'
'ьба_'
'ывается_'
'щенны'
'шл'
'шкаф'
'шесть_'
'шеств'
'шер'
'шенны'
'шение_'
'шар'
'чёрт_'
'чувак_'
'чт'
'членом_'
'чист'
'числ'
'чиков_'
'честв'
'ческого_'
'че'
'чая_'
'частности_'
'част'
'цин'
'цем_'
'цар'
'хранения_'
'хотелось_'
'хорош'
'хер'
'хал'
'футбол'
'фу'
'фотографии_'
'фотографи'
'фон_'
'флаг'
'финансовых_'
'фин'
'физически'
'феном_'
'фен'
'фан'
'факт_'
'фаз'
'ующие_'
'ующе'
'уществ'
'учреждени'
'участвовать_'
'участ'
'уход'
'уто'
'усти'
'успешно_'
'успе'
'уровн'
'упро'
'управление_'
'употребля'
'упаковк'
'уменьшить_'
'узна'
'ужин_'
'удо'
'удивительно'
'уда_'
'убь'
'убит'
'тяжелы'
'туристов_'
'трансфер'
'транс'
'точны'
'токси'
'тки_'
'тит'
'течени'
'технологии_'
'температуры_'
'твою_'
'твоего_'
'тан_'
'такую_'
'ся'
'сю'
'сыр'
'сына_'
'считают_'
'существенно'
'суме'
'суда_'
'суб'
'суа'
'структуры_'
'структур'
'страна_'
'стоимости_'
'ствия_'
'ствие_'
'старше_'
'старе'
'стадии_'
'стабильн'
'ссор'
'срочн'
'средства_'
'сравнени'
'спутников'
'специали'
'спать_'
'спа'
'социального_'
'соревновани'
'сопровожда'
'соответствует_'
'соответств'
'солдат_'
'создава'
'соз'
'соглашаетесь_'
'соглас'
'собственной_'
'собираюсь_'
'собира'
'смы'
'сможете_'
'смогу_'
'следующих_'
'скорост'
'ска_'
'системе_'
'сил'
'сиди'
'сестр'
'серд'
'семь'
'сельско'
'сель'
'сексом_'
'сед'
'сделаю_'
'сделан'
'сда'
'свет'
'сахар'
'самые_'
'ряд_'
'рь'
'рынки_'
'рус'
'рук'
'рублей_'
'родители_'
'родился_'
'рово'
'рни'
'рма'
'реш'
'рест'
'рели'
'рекомендуется_'
'рей'
'режим'
'реж'
'ребёнка_'
'рг'
'рать_'
'расширени'
'рассматрива'
'распо'
'рани'
'разл'
'рабочих_'
'работают_'
'работал_'
'пятницу_'
'пыл'
'пусты'
'пункт_'
'пузыр'
'публик'
'пто'
'пт'
'прошлой_'
'процессе_'
'процесса_'
'процентов_'
'процент'
'проходит_'
'просто'
'прости'
'просмотров_'
'прор'
'проекты_'
'продолжать_'
'продолжал'
'программное_'
'программ_'
'проводил'
'проверить_'
'провел'
'пришли_'
'причин_'
'приходится_'
'природны'
'прип'
'приняла_'
'принадлежа'
'пример'
'применяется_'
'прикр'
'прик'
'признал'
'признак'
'прием_'
'прибыли_'
'прекращ'
'преимущества_'
'представить_'
'предприяти'
'предлагаем_'
'практик'
'правительств'
'правду_'
'появится_'
'почте_'
'поток'
'потенциал'
'постави'
'посмотр'
'посе'
'порт'
'поражени'
'попыта'
'понимаешь_'
'понимает'
'пользователей_'
'получает_'
'поло'
'полный_'
'полноценн'
'политически'
'политике_'
'политика_'
'поле'
'показыва'
'показател'
'пойм'
'поиск'
'позволил'
'поз'
'поезд_'
'подобно'
'подготовк'
'подв'
'подарок_'
'погибли_'
'повышение_'
'повес'
'побед'
'пишет_'
'печати_'
'перспектив'
'переговоров_'
'перво'
'партнёр'
'параметр'
'пап'
'памятник'
'пада'
'очны'
'ох'
'официальны'
'официально'
'отсутстви'
'отступ'
'относятся_'
'отметить_'
'отличаются_'
'открыто'
'открыт_'
'отказыва'
'отдел'
'ответственность_'
'отве'
'осто'
'основ'
'оснащены_'
'оры_'
'орт'
'орд'
'оран'
'опыт'
'опро'
'определяется_'
'операцию_'
'опер'
'омн'
'оми'
'ольн'
'око'
'окн'
'ожида'
'ожив'
'оедин'
'однако_'
'оди'
'ограничен'
'овое_'
'овани'
'овал_'
'овал'
'обычны'
'объяснить_'
'общей_'
'образовани'
'обрабатыва'
'нынешн'
'нс_'
'носи'
'новая_'
'ните'
'никого_'
'нервн'
'необходимые_'
'немедленно_'
'нел'
'нег'
'нево'
'нде'
'нач'
'нацист'
'нарушени'
'народн'
'народа_'
'наилучши'
'называется_'
'названием_'
'нав'
'на'
'мыш'
'мы'
'мск'
'моря_'
'монт'
'мол'
'мод'
'миссис_'
'меша'
'меч'
'мерн'
'мент'
'международны'
'мати'
'масс'
'мани'
'ман_'
'малыш_'
'льно'
'лучшее_'
'лу_'
'лошад'
'лон'
'лки_'
'личност'
'лицом_'
'лидер'
'лиг'
'лете'
'лера_'
'легкий_'
'лег'
'лев'
'курсе_'
'курс'
'купи'
'крыл'
'кру'
'кровать_'
'кровати_'
'кризис'
'креп'
'кратко'
'красиво'
'которыми_'
'кос'
'корр'
'королев'
'корол'
'корзин'
'коре'
'контакта_'
'коммуникаци'
'коммерческ'
'коми'
'командир'
'коллекци'
'колледж'
'клет'
'кино'
'километр'
'ква'
'карту_'
'карман'
'капитан'
'каналы_'
'камера_'
'кам'
'каков'
'каза'
'иш'
'ичны'
'ично'
'ический_'
'ич_'
'иты'
'итель_'
'ител'
'источник_'
'историк'
'исследовател'
'используют_'
'используем_'
'иса'
'ирование_'
'ион'
'интернет_'
'интересно_'
'инств'
'инск'
'иной_'
'инд'
'имеющи'
'име'
'иль'
'ились_'
'изоляци'
'измен'
'ией_'
'ид'
'игроков_'
'игров'
'играет_'
'ига'
'ивны'
'ив_'
'зы'
'зрител'
'зм'
'зер'
'земля'
'землю_'
'землетрясени'
'зе'
'здоров'
'звонк'
'звезд_'
'захо'
'заст'
'заряд'
'запла'
'запа'
'законом_'
'зай'
'завтрак_'
'забыл_'
'заболевание_'
'жк'
'жет'
'желание_'
'жать_'
'ечны'
'еты_'
'етесь_'
'еров_'
'ень_'
'ено'
'енным_'
'енную_'
'енности_'
'енного_'
'емых_'
'емен'
'ельно_'
'ели'
'ейши'
'еза'
'единственно'
'единственная_'
'едино'
'едел'
'его'
'ега'
'евой_'
'евая_'
'дь_'
'дух'
'дут_'
'думать_'
'думает_'
'дс'
'доставк'
'дорогой_'
'дорога'
'документа'
'добы'
'добраться_'
'десятилети'
'дес'
'денежн'
'демократически'
'двое_'
'данным_'
'данн'
'дам_'
'дали_'
'дал_'
'давление_'
'давайте_'
'грех'
'границы_'
'грамм'
'государственн'
'государств_'
'гостин'
'гости_'
'город'
'голосов'
'голову_'
'гно'
'глубоко'
'главным_'
'гин'
'гид'
'гел'
'выяснить_'
'вышло_'
'вышел_'
'выступа'
'высокой_'
'выполнения_'
'вып'
'выл'
'вый_'
'выжи'
'выб'
'ву_'
'вторым_'
'вт'
'всём_'
'встречал'
'вста'
'вск'
'вс'
'восстанов'
'воро'
'вопросов_'
'войну_'
'вои'
'возраст'
'возле_'
'военно'
'вое_'
'включает_'
'вка_'
'визит'
'видом_'
'видит_'
'вещества_'
'вещ'
'вечно'
'вести_'
'версия_'
'веро'
'вернул'
'велосипед'
'великолепн'
'вве'
'вают_'
'вашу_'
'ваше_'
'вала_'
'важным_'
'важный_'
'важн'
'бур'
'будущем_'
'брат_'
'бр'
'бота'
'борьбы_'
'большую_'
'больно_'
'больно'
'болезнь_'
'болезн'
'богат'
'бов_'
'блюда_'
'блок'
'били'
'бизнес'
'бесс'
'берг'
'безопасность_'
'безопасн'
'бег'
'бе_'
'бак'
'базе_'
'аэропорт_'
'аты_'
'атор'
'асти'
'асп'
'ас_'
'арс'
'арк'
'аренд'
'арг'
'ано_'
'ано'
'анны'
'анк'
'анг'
'американский_'
'альные_'
'альной_'
'ального_'
'ализ'
'акции_'
'акци'
'активи'
'адо'
'ада_'
'ага'
'австр'
'Эй'
'Эв'
'Ь_'
'Шу'
'Чу'
'Це'
'Хотел'
'Фл'
'Уч'
'Украине_'
'Тут_'
'Тру'
'Тони_'
'Сын'
'Сч'
'Сра'
'Спо'
'Союза_'
'Сл'
'Симон'
'Сем'
'Све'
'Сан_'
'Сай'
'СК'
'СВ'
'Россию_'
'Рос'
'Роди'
'Римск'
'Рим'
'Ранее_'
'Размер_'
'РН'
'РИ'
'Пят'
'Принц'
'Пошли_'
'Послед'
'Поп'
'Пользовател'
'Поз'
'Подробнее_'
'Пл'
'Первые_'
'Ос'
'Организаци'
'Олимпийских_'
'Обычно_'
'Обра'
'Номера_'
'Никогда_'
'Нео'
'Нельзя_'
'Нап'
'НА'
'Мэй'
'Мали'
'МЕ'
'Люб'
'Луис'
'Латино_'
'Красно'
'Конст'
'Кл'
'Кит'
'Кин'
'Киев'
'Ката'
'Кас'
'Карт'
'Канад'
'Ист'
'Интернет'
'Инс'
'Индии_'
'Име'
'Иисус'
'Израиль_'
'Игра_'
'ИТ'
'ИЕ_'
'Земле_'
'Западн'
'Запад'
'Заб'
'Жу'
'Жен'
'Ел'
'Ей_'
'Египт'
'Европейской_'
'ЕР'
'Дэн'
'Дре'
'Доп'
'Дис'
'Джер'
'Джей'
'Дже'
'Дж'
'Дети_'
'Дайте_'
'Греция_'
'Грей'
'Гран'
'Гр'
'Гости_'
'Гла'
'Гарри_'
'Гам'
'ГА'
'Вып'
'Вход_'
'Второй_'
'Всегда_'
'Вр'
'Восточн'
'Воз'
'Вин'
'Вид'
'Версия_'
'Бэ'
'Был'
'Буду'
'Будет_'
'Будапешт'
'Брат'
'Бор'
'Бога_'
'Бил'
'Бизнес_'
'Бесплатн'
'Бес'
'Бере'
'Бер'
'Бан'
'Африки_'
'Артур_'
'Анти'
'Американск'
'Аллах_'
'Алекс'
'Ак'
'Ай'
'АР'
'Ё'
'žně'
'životn'
'žil'
'Ů'
'ťá'
'ť'
'šťastn'
'šť_'
'šu'
'šo'
'šky_'
'škola_'
'ška_'
'šim'
'šest'
'Šťastn'
'Še'
'řádn'
'řit_'
'ře'
'Řekn'
'ěs'
'ěné_'
'ěk'
'ějších_'
'čín'
'čtvrt'
'čov'
'členy_'
'čit_'
'čerstv'
'časn'
'čaj_'
'Č_'
'ýr'
'ýká'
'účinn'
'úz'
'útoč'
'útok_'
'úspěchy_'
'úpln'
'ö'
'ínsk'
'ínk'
'íl'
'íkov'
'íci_'
'éř'
'él'
'ář_'
'áče'
'áze'
'ázat_'
'áva'
'áv'
'átor'
'árn'
'áně'
'ánsk'
'áni_'
'án'
'álen'
'áhl'
'ádě'
'áce'
'á'
'ÁN'
'» — _'
'} _'
'zůstane_'
'zůstal'
'získala_'
'záznam'
'záp'
'zám'
'záleží_'
'zájmy_'
'zvláště_'
'zved'
'zu_'
'zrušit_'
'zobrazit_'
'znal'
'změnách_'
'změnit_'
'zmi'
'zme'
'zlé_'
'zkušenost'
'zjist'
'zim'
'zem_'
'zelen'
'zdravotní_'
'zdravotnictví_'
'zdr'
'zda'
'zbytk'
'zbraně_'
'začne_'
'zavřen'
'zas_'
'zajímavé_'
'zajistit_'
'zabe'
'yto'
'yst'
'ysl'
'you'
'yon'
'yo'
'yle'
'xe'
'win'
'web'
'wa_'
'všechna_'
'vše'
'věnovat_'
'věděla_'
'vědí_'
'vědomí_'
'věd'
'výšk'
'výkonnost'
'výhodn'
'vítěz'
'víno_'
'válce_'
'vzpom'
'vzkaz_'
'vzala_'
'vyř'
'využívat_'
'vytvoř'
'vysvětl'
'vysoká_'
'vysok'
'vyroben'
'vypn'
'vynikající_'
'vyle'
'vyko'
'vykl'
'vyd'
'vraždy_'
'vlož'
'vliv'
'vlastnictví_'
'vina_'
'vin_'
'vhodn'
'veřejno'
'vezme'
'velkým_'
'velkých_'
'velká_'
'veli'
'vd'
'vali_'
'už'
'uší'
'uče'
'uální_'
'uvědomil'
'uvě'
'uvedené_'
'uveden'
'urychl'
'uro'
'uran'
'uprchl'
'upo'
'upl'
'unt'
'umi'
'ult'
'ula_'
'ukázal'
'ukr'
'uko'
'uklid'
'uk_'
'ujících_'
'udělá_'
'udělala_'
'události_'
'třídy_'
'tříd'
'těn'
'těmi_'
'týmu_'
'tál'
'tyč'
'tvorbu_'
'tvoji_'
'trik'
'tp'
'toč'
'tov'
'tot'
'tn'
'tit_'
'tic'
'th'
'text'
'tels'
'televiz'
'tec'
'sídl'
'symbol'
'sw'
'svěd'
'svojí_'
'svatého_'
'svatbě_'
'subjekt'
'stříle'
'států_'
'stva_'
'student'
'stránku_'
'stroj_'
'strategi'
'stoup'
'stor'
'stol'
'stejný_'
'staro'
'stan_'
'sso'
'srand'
'spán'
'správné_'
'správce_'
'spor'
'spolupráci_'
'spol'
'spojení_'
'spo'
'spi'
'sovětsk'
'současné_'
'souhlasíte_'
'souhlas_'
'soud_'
'snídani_'
'smlouvy_'
'smlouvu_'
'služb'
'slu'
'skutečně_'
'skončil_'
'skončil'
'sklád'
'skleněn'
'sj'
'silný_'
'sice_'
'sez'
'setkat_'
'schopnost_'
'sc'
'satelitní_'
'růžov'
'různé_'
'rů_'
'rád'
'rychlý_'
'rychlosti_'
'rychl'
'rusk'
'rti'
'rte'
'rozhodně_'
'roze'
'roma'
'roj'
'robot'
'rm'
'rick'
'reklam'
'recenze_'
'rece'
'realit'
'raň'
'rafi'
'radost'
'původ'
'půjč'
'příští'
'příčin'
'přítele_'
'přírod'
'přípravu_'
'příprav'
'přínos'
'příležitosti_'
'příkaz'
'příjm'
'příjemn'
'přičemž_'
'přih'
'přid'
'přest'
'přenos'
'překvapení_'
'představit_'
'předn'
'pěkný_'
'pít_'
'pís'
'pí_'
'pusu_'
'pul'
'průmyslové_'
'průběhu_'
'prá'
'prvé_'
'prst'
'proš'
'proz'
'protest'
'prostorn'
'prospě'
'pras'
'pracovních_'
'pracovní'
'poškozen'
'poř'
'počát'
'počkej_'
'počasí_'
'pozice_'
'povrch'
'povolena_'
'pova'
'používáním_'
'potřebuješ_'
'potřebujeme_'
'potřebovat_'
'postel_'
'pose'
'porad'
'poplatk'
'popisuje_'
'pondělí_'
'pomáhá_'
'pomohl_'
'politiku_'
'politika_'
'politik'
'poj'
'pohřben'
'pohyb'
'podív'
'podp'
'podobě_'
'poda'
'poc'
'pobyt_'
'plánova'
'plyn'
'plochou_'
'plast'
'pet'
'pel'
'pek'
'pea'
'pat_'
'para'
'papír_'
'papír'
'oš'
'oy'
'ovu_'
'ovsk'
'ouše'
'ous_'
'ous'
'oud'
'oucí_'
'oto'
'otevřel'
'osobu_'
'osobnost'
'orgán_'
'organi'
'opti'
'opi'
'operace_'
'ony_'
'onu_'
'olej'
'okolo_'
'oko_'
'okn'
'okamžik'
'ojí'
'odpor'
'odp'
'odmít'
'odb'
'ochraně_'
'obětí_'
'obyvatel'
'oby'
'obtížn'
'obt'
'obrázek_'
'obraz_'
'obraz'
'obnov'
'obh'
'obd'
'německý'
'někým_'
'nějších_'
'ném_'
'názory_'
'návštěvník'
'náp'
'nákup'
'náklady_'
'nutn'
'nul_'
'nižší_'
'nit_'
'nis'
'nge_'
'nezb'
'ner'
'nemusí_'
'nemohl_'
'nejsi_'
'nejlepších_'
'nejh'
'nejd'
'neg'
'neděl'
'neboť_'
'nač'
'narozen'
'nalezen'
'nadšen'
'nadále_'
'mýl'
'míru_'
'mírn'
'mí_'
'média_'
'mužů_'
'mužem_'
'musela_'
'mul'
'mrtví_'
'mrtvá_'
'mrt'
'možností_'
'mot'
'modul'
'model_'
'model'
'mnoh'
'mladší_'
'ministr'
'min_'
'meta'
'mel'
'medi'
'matky_'
'marketingové_'
'manuál'
'malo'
'maj'
'magi'
'mag'
'mad'
'lít'
'léta'
'lá_'
'luxusní_'
'ložnic'
'logick'
'log_'
'lod'
'lla'
'liš'
'liz'
'link'
'lid_'
'leží_'
'lev'
'leto'
'letní_'
'ledn'
'lea'
'late'
'lac'
'kříž'
'kyt'
'kyně_'
'květiny_'
'kultur'
'kuchyni_'
'krás'
'koč'
'kovi'
'kova_'
'kov'
'koupil_'
'kostel'
'kontrolu_'
'kontrol'
'konkrétní_'
'konflikt'
'konce_'
'konc'
'komp'
'kom'
'koli_'
'kk'
'key'
'každé_'
'kapacit'
'kap'
'kami_'
'kamen'
'kam'
'jídl'
'jmenuje'
'jete_'
'jem'
'jehož_'
'jednotliv'
'jan'
'jakékoli_'
'jako'
'jakmile_'
'jak'
'jadern'
'ištěn'
'iční_'
'izola'
'ivní'
'ive_'
'itelný'
'itelné_'
'ist_'
'iov'
'inov'
'ima'
'ij_'
'ih'
'idiot'
'icí_'
'ictví_'
'ický_'
'ich'
'ica_'
'ian'
'iTunes_'
'hád'
'huje_'
'hudební_'
'ht'
'hráčů_'
'hrál_'
'hrál'
'hran'
'hra'
'hova'
'hostům_'
'hledat_'
'hlavně_'
'hlavního_'
'hlas_'
'hk'
'hezk'
'heslo_'
'hes'
'gy_'
'gril'
'gon'
'gin'
'gge'
'ge'
'gam'
'gal'
'fénem_'
'funkcí_'
'fro'
'fre'
'fla'
'ffi'
'festival_'
'faktory_'
'fakt'
'ečné_'
'ečn'
'evropských_'
'evropsk'
'etí_'
'etu'
'ett'
'est_'
'ess'
'ese_'
'enov'
'energii_'
'elo'
'ekonomické'
'ekonomi'
'ejší_'
'ejí_'
'ein'
'ede'
'eda'
'dži'
'děvk'
'děláme_'
'děj'
'dívky_'
'dím_'
'dva'
'drží_'
'druh_'
'drog'
'dr_'
'dovol'
'dosáhnout_'
'dosta'
'dopravní'
'dopl'
'dolar_'
'doktor_'
'dok'
'dojde_'
'dohody_'
'dodávk'
'dlí'
'dla'
'dit'
'ding_'
'dil'
'diag'
'dge'
'design'
'denní_'
'dem_'
'deln'
'dat'
'cítím_'
'cíl_'
'cy'
'cs_'
'cizí_'
'citliv'
'chystá'
'chov'
'cher'
'che_'
'chan'
'cent'
'cenově_'
'cenn'
'celého_'
'cast'
'běžn'
'brán'
'bran'
'bože_'
'bou'
'bonus'
'bolest_'
'bojí'
'bohužel_'
'blok'
'blic'
'bl'
'bit_'
'bil'
'bezpečnost_'
'bavit_'
'barvy_'
'bank_'
'balíč'
'aš'
'ační'
'ač_'
'autě_'
'automaticky_'
'autem_'
'aud'
'atl'
'ass'
'are'
'arch'
'any_'
'anu_'
'anim'
'ang'
'analýzy_'
'analýzu_'
'amo'
'americký_'
'alkohol'
'aliz'
'ale'
'aji'
'aje'
'ais'
'aho'
'ah'
'adu'
'adi'
'Záv'
'Záp'
'Zrovna_'
'Zh'
'Zdarma_'
'Zd'
'Zav'
'Zast'
'Zak'
'Za'
'YouTube_'
'XIX_'
'Wy'
'Wr'
'West_'
'Water'
'Vždyť_'
'Vš'
'Výst'
'Vá'
'Vzhledem_'
'Vypadn'
'Vyberte_'
'Vyb'
'Vis'
'Vil'
'Uči'
'Uv'
'Ut'
'USB_'
'Tímto_'
'Tvé_'
'Tvoje_'
'Top'
'Ton'
'Tommy_'
'Th'
'Takov'
'TS'
'TO_'
'TN'
'Sá'
'Sve'
'Surf'
'Stu'
'Stačí_'
'Stav'
'Sr'
'Sport_'
'Software_'
'Soft'
'Snažím_'
'Smě'
'Smrt'
'Smart'
'Sma'
'Slo'
'Skutečn'
'Ski'
'Sign'
'Scott'
'Scho'
'SV'
'STA'
'SD'
'SCULPTURES_'
'SB'
'Rin'
'Rh'
'Res'
'Rei'
'Rea'
'Ray'
'Pů'
'Přij'
'Přev'
'Přej'
'Představ'
'Pár'
'Pán'
'Pres'
'Počkejte_'
'Poč'
'Poslouchejte_'
'Pla'
'Pension_'
'Park'
'Pam'
'PV'
'PS'
'Ostatní_'
'Osobní_'
'Ora'
'Ode'
'Obl'
'OD'
'Národní_'
'Not'
'North'
'Nez'
'New'
'Nest'
'Ner'
'Nepři'
'Nepo'
'Neo'
'Nemo'
'Nel'
'Nejs'
'Nec'
'Nas'
'Nakonec_'
'NC'
'Město_'
'Motor'
'Mohu_'
'Moderní_'
'Mnoho_'
'Miluj'
'Mik'
'Michael_'
'Mexik'
'Met'
'Marie_'
'Marc'
'Mara'
'Manu'
'Make'
'MS_'
'MP'
'ML'
'ME'
'MA_'
'Ly'
'Line_'
'Lily_'
'Les'
'Květiny_'
'Kur'
'Kro'
'Kontaktujte_'
'Kontakt_'
'Komp'
'Klíč'
'Klikněte_'
'KR'
'KA_'
'Jess'
'Jel'
'Jeff'
'Jděte_'
'Jack_'
'JA'
'Izrael_'
'Ind'
'Inc_'
'Im'
'IB'
'IA'
'How'
'Hosting_'
'Has'
'Hal'
'HA'
'Georgi'
'GL'
'GA_'
'Francouz'
'Forex_'
'For'
'Fle'
'Fin'
'Ferr'
'FO'
'Evropská_'
'Energ'
'End'
'ET'
'ER_'
'Dí'
'Dun'
'Dovol'
'Dost_'
'Dop'
'Doktor_'
'Dob'
'Dneska_'
'Disney_'
'Dis'
'Der'
'Dem'
'Datum_'
'DS'
'DM'
'Comm'
'Cli'
'Classic_'
'Clark'
'Chr'
'Cestov'
'Centrum_'
'Casa_'
'CF'
'CC'
'Brat'
'Boutique_'
'Bos'
'Bonus_'
'Bojí'
'Boh'
'Bil'
'Bee'
'Bed'
'Baz'
'Bat'
'Bank'
'Back'
'Asi'
'Arm'
'Ap'
'Anton'
'Ann'
'Anal'
'Ameriky_'
'Americký_'
'Amatér'
'Aktu'
'Ae'
'AI'
'AC'
'AB'
'> _'
'>'
'; &_'
'99'
'96_'
'96'
'89'
'81_'
'78'
'3hvězdičkové_'
'365_'
'2hvězdičkové_'
'222'
'1997_'
'1996_'
'1945_'
'187'
'183'
'180'
'179'
'178'
'155'
'140_'
'139'
'132'
'126'
'120'
'110_'
'103'
'07'
'04'
'.) '
', — _'
'+ (_'
'*, _'
') — _'
'% (_'
'$'
'". _'
'" (_'
' –, _'
' *_'
' ' _'
' " _'
' !!'
'“'
'​'
'ён_'
'яются_'
'ятие_'
'японск'
'яны'
'яну'
'яйца_'
'являл'
'явля'
'ющихся_'
'ющем'
'ющей_'
'ющего_'
'ющ'
'юст'
'юридически'
'юб'
'эффективны'
'эфф'
'эпи'
'электронны'
'экскурсии_'
'экономике_'
'эволюци'
'ьмо'
'ъ'
'щую_'
'щий_'
'щенно'
'щелкнуть_'
'щай'
'шит'
'шив'
'шет'
'шест'
'шени'
'шен'
'чёт'
'чё'
'чут'
'чтоб_'
'чк'
'чика_'
'чех'
'черт'
'чен_'
'чему_'
'чей_'
'час'
'чайник'
'чае'
'цу'
'цо'
'ций_'
'центр'
'цент'
'ценны'
'хозяйств'
'хозяин'
'хими'
'характеристики_'
'фундамент'
'фт'
'фронт'
'фра'
'форму_'
'форме_'
'формате_'
'фонд'
'финансово'
'финал'
'фиксир'
'фаль'
'фактор'
'фак'
'уэ'
'ущи'
'ушк'
'уши'
'учреждения_'
'ученых_'
'ученик'
'учебн'
'утром_'
'утрат'
'уте'
'устрои'
'устойчиво'
'уста'
'успешны'
'условий_'
'усили'
'ури'
'упом'
'упн'
'уничтож'
'уна'
'умерла_'
'уменьшени'
'ульт'
'уль'
'улучшения_'
'уло'
'улик'
'указыва'
'удоб'
'угрожа'
'угодно_'
'уг'
'увол'
'увеличени'
'убили_'
'убийства_'
'убийств'
'тя'
'тюрьму_'
'тый_'
'транспортных_'
'точн'
'точка_'
'тос'
'торговы'
'товары_'
'тны'
'тически'
'тите_'
'тии_'
'техник'
'термин'
'теннис'
'температура_'
'тельной_'
'тельно'
'телевидением_'
'телевидение_'
'твоё_'
'тащи'
'таци'
'тал'
'тай'
'сэ'
'счастливы'
'схем'
'сфере_'
'существовани'
'супер'
'сумасшедш'
'сук'
'суд'
'су_'
'ступ'
'стреля'
'страшн'
'страх'
'стратеги'
'страницы_'
'страница_'
'странам_'
'стр'
'сторонник'
'столом_'
'стк'
'стекло_'
'ств_'
'старт'
'станция_'
'становятся_'
'ставка_'
'ставит'
'ст'
'среды_'
'среду_'
'средствами_'
'спрос'
'справк'
'справиться_'
'списке_'
'спеш'
'спальн'
'союзник'
'сохраня'
'соу'
'сотруднича'
'сосуд'
'составлял'
'составит'
'сосед'
'соответствующ'
'сообща'
'сом'
'соли'
'создает_'
'содержание_'
'соглашения_'
'событи'
'собственных_'
'собрал'
'собака_'
'сможешь_'
'служить_'
'слеп'
'следоват'
'сла'
'скрыва'
'склад'
'скандал'
'сказа'
'скажешь_'
'скаж'
'сия_'
'ситуация_'
'систем_'
'симптомы_'
'сильн'
'сертифика'
'сериал'
'семь_'
'сем'
'сел'
'сезона_'
'сделает_'
'связаны_'
'связанные_'
'свойства_'
'свободно'
'свидетел'
'свет_'
'сва'
'сборн'
'сайтов_'
'руш'
'рул'
'рукт'
'руками_'
'рук_'
'рует_'
'руб'
'рто'
'рост'
'ром'
'рок_'
'рог'
'ро_'
'рки'
'рит'
'рид'
'рецепт'
'реформ'
'ресурс'
'ресторан_'
'рени'
'религи'
'результатом_'
'резерв'
'редко_'
'редит'
'реди'
'ред'
'регулярно_'
'регистраци'
'региона'
'рев'
'реакци'
'рацион'
'раф'
'расход'
'расту'
'рассчитыва'
'рассказать_'
'расскаже'
'распространенны'
'распространени'
'расположени'
'расп'
'ранен'
'рам'
'рал_'
'рак'
'разумно'
'разряд'
'разрабатыва'
'разделен'
'рави'
'работников_'
'пытается_'
'пусть_'
'пусти'
'психо'
'психическ'
'пси'
'проще_'
'прошлы'
'прошел_'
'прочи'
'процедуры_'
'профилактик'
'профессионал'
'проте'
'пространств'
'прост'
'проник'
'промышленно'
'произведен'
'прозрачн'
'прожива'
'продолжить_'
'продолжаю'
'прог'
'провод'
'проведения_'
'проблемой_'
'приятно'
'пришла_'
'пришл'
'пришел_'
'причиной_'
'приходит_'
'приходил'
'природ'
'принципа'
'принимают_'
'применение_'
'применени'
'приме'
'приложений_'
'приложение_'
'прил'
'приказ'
'прийти_'
'придётся_'
'придур'
'приду'
'приглаш'
'привыч'
'приводит_'
'привод'
'прибыл'
'препятств'
'представители_'
'предотвратить_'
'предоставляет_'
'предоставить_'
'предлагают_'
'предв'
'превыша'
'пояс'
'пошел_'
'поч'
'потр'
'потерял'
'потери_'
'поступи'
'постепенно_'
'постанов'
'посредством_'
'послуша'
'посад'
'портал'
'порт_'
'популярных_'
'попросил_'
'попро'
'понятия_'
'понижен'
'помощник'
'помню_'
'помнишь_'
'помещени'
'пользовател'
'получен'
'получать_'
'полном_'
'полиции_'
'политических_'
'политику_'
'поки'
'поиска_'
'позна'
'поезд'
'подходящ'
'подойд'
'поддерживать_'
'поддержать_'
'подверга'
'погр'
'погиб'
'повы'
'повс'
'поврежден'
'поверить_'
'повезло_'
'побережь'
'победы_'
'площадь_'
'плохой_'
'плохо_'
'плотн'
'пло'
'пли'
'пласти'
'планирова'
'планет'
'пищи_'
'письменн'
'пива_'
'печ'
'персонаж'
'перифери'
'перес'
'перек'
'пережи'
'перевод_'
'пациентов_'
'паук'
'пары_'
'партнеро'
'партнер'
'партия_'
'парни_'
'пара_'
'пан'
'падени'
'оя'
'ощущение_'
'ошибки_'
'ошибка_'
'очн'
'очит'
'очист'
'оценк'
'оценива'
'офис'
'офи'
'отряд'
'отр'
'отпуск'
'отпу'
'отправля'
'относительно_'
'относи'
'отмет'
'отклонени'
'отказаться_'
'отказал'
'отдохнуть_'
'отдельн'
'ответственности_'
'ответил_'
'осуществлени'
'осужд'
'осторожн'
'остановк'
'остановить_'
'осталось_'
'остал'
'оставить_'
'осмотр'
'осл'
'орож'
'орн'
'оригинальн'
'органа'
'орга'
'орам'
'опрос'
'определенно'
'опи'
'операций_'
'опасны'
'онного_'
'онная_'
'ома'
'олн'
'окна_'
'оки'
'оказани'
'ока'
'ок'
'ози'
'ожен'
'одобр'
'огра'
'ог_'
'овых_'
'ованны'
'ова'
'объявила_'
'общем_'
'обслуживания_'
'обре'
'образ_'
'обработк'
'оборудован'
'обн'
'обман'
'облегч'
'обеспечиваю'
'обер'
'няя_'
'ньк'
'ночью_'
'ночн'
'носо'
'нос_'
'нор'
'нок'
'нова'
'нное_'
'ниях_'
'ница_'
'никому_'
'нико'
'ник'
'низки'
'нижн'
'нечто_'
'нефт'
'непре'
'ненавид'
'нена'
'немецко'
'некотор'
'негативно'
'невероятно_'
'неб'
'начинают'
'начал'
'национальны'
'национал'
'настроени'
'настоящего_'
'настаива'
'наст'
'напом'
'напол'
'напа'
'нано'
'нани'
'нанес'
'назнача'
'назвать_'
'наз'
'набор_'
'наб'
'мяч'
'мышью_'
'мысл'
'мый_'
'музыка'
'музык'
'моё_'
'мошенни'
'мость_'
'мора'
'молодых_'
'молоды'
'мозга_'
'мозг_'
'множеств'
'мни'
'ммер'
'младш'
'мл_'
'мини_'
'мик'
'мешок_'
'механизм'
'мета'
'место'
'местно'
'мертвы'
'мертв'
'менять'
'меж'
'медицинских_'
'меди'
'мг_'
'матрива'
'масштаб'
'массово'
'мана_'
'мало_'
'маленький_'
'маленькая_'
'мак'
'ляци'
'ляет_'
'людьми_'
'любишь_'
'льс'
'лучшие_'
'лом'
'лок'
'лож'
'лодк'
'лн'
'лле'
'лл_'
'лить'
'лир'
'линии_'
'лил'
'летни'
'лект'
'лек'
'легенд'
'лах'
'лаж'
'лаб'
'курс_'
'курорт'
'куб'
'кси'
'кров'
'крем'
'красивы'
'коф'
'которому_'
'космос'
'космическ'
'корн'
'корм'
'корабль_'
'концов_'
'конфликт'
'контролем_'
'контрол'
'конструкци'
'конкурс'
'комплексн'
'компаний_'
'комнаты_'
'комнат'
'комитета_'
'количеств'
'колен'
'коз'
'ково'
'книге_'
'ключ'
'кло'
'кле'
'ких_'
'кис'
'ким_'
'каш'
'качеств'
'като'
'кате'
'карто'
'карди'
'кара'
'какое_'
'кa'
'йт_'
'йне'
'йн'
'йка_'
'ище'
'ищ'
'итет'
'ительны'
'ита_'
'исчез'
'истинн'
'истин'
'истан'
'испытыва'
'использовании_'
'исл'
'исключительно_'
'ирующ'
'ируют_'
'ировки_'
'ированны'
'ипоте'
'инф'
'инструментов_'
'инноваци'
'инки_'
'ине_'
'индивидуальны'
'инди'
'инга_'
'инг_'
'измерени'
'избегать_'
'иж'
'идо'
'иди'
'идеально_'
'игр'
'ивал'
'ивает_'
'иал'
'зя'
'зовут_'
'зли'
'зеркал'
'здания_'
'звуков'
'зво'
'звезд'
'защи'
'захвати'
'затрат'
'затр'
'застр'
'заработа'
'запро'
'запрещен'
'запра'
'занятия_'
'занят'
'заметн'
'заменить_'
'закр'
'закона_'
'заказ_'
'задниц'
'задн'
'заде'
'зад'
'завод_'
'заверши'
'забра'
'заболеваний_'
'журнал'
'жне'
'жителей_'
'жите'
'жир'
'жил'
'жизнью_'
'живы'
'живут_'
'животно'
'живе'
'женщину_'
'женск'
'жено'
'жел'
'жев'
'ждет_'
'жда'
'жан'
'жал'
'ея_'
'етс'
'ете'
'есс'
'ере_'
'ерв'
'енными_'
'енн'
'ением_'
'ена'
'еми'
'ель'
'ело'
'елл'
'ела_'
'ее'
'единиц'
'еги'
'еврейско'
'ебе'
'е1'
'дь'
'думаете_'
'дочер'
'доходов_'
'доступны'
'доступно'
'доступна_'
'доступен_'
'достига'
'доста'
'дорого'
'дорог'
'дор_'
'дополнительны'
'доктор_'
'доклад'
'доказа'
'док_'
'дой'
'дог'
'добра_'
'дны'
'дне'
'дия_'
'дисп'
'дипломати'
'динг'
'дильн'
'дизайн_'
'диагности'
'джи'
'дефицит'
'детьми_'
'дерн'
'дент'
'демо'
'деми'
'девять_'
'девушку_'
'девочек_'
'дву'
'двор'
'движ'
'двига'
'дальнейше'
'далек'
'гуманитарн'
'гражданско'
'граждански'
'граждан_'
'готова_'
'гот'
'государством_'
'гори'
'гораздо_'
'гом_'
'голь'
'голов'
'гол'
'годов_'
'глуб'
'глобальны'
'глазами_'
'глаз'
'главе_'
'гк'
'гип'
'гим'
'германск'
'генератор'
'гаю'
'гарантии_'
'гам'
'гай'
'газов'
'вя'
'выясн'
'выт'
'высши'
'высоким_'
'высоки'
'выросл'
'выращива'
'выпущен'
'выключ'
'вык'
'вызывает_'
'выдел'
'вывод'
'выв'
'выбрал'
'выборов_'
'выберите_'
'въ'
'вших_'
'вший_'
'всяки'
'все'
'вру'
'вроде_'
'вро'
'временно'
'временем_'
'врач_'
'вр'
'вп'
'восточн'
'ворот'
'воль'
'войти_'
'военной_'
'вовсе_'
'внутренне'
'вно'
'внимания_'
'вни'
'влож'
'владел'
'вклад'
'винов'
'вино'
'взгляд_'
'взаимо'
'вечера_'
'верю_'
'велики'
'ведущи'
'ваются_'
'вашим_'
'ванн'
'вание_'
'вали'
'важное_'
'быв'
'бурге'
'букв'
'будущего_'
'будущ'
'брос'
'бренд'
'бороться_'
'большинства_'
'близко_'
'бли'
'благос'
'благодар'
'бл'
'битв'
'бет'
'бесплатный_'
'беременн'
'беженцев_'
'бат'
'банки_'
'баланс'
'ающе'
'аэропорт'
'ащ'
'ачальн'
'ач'
'аут'
'атор_'
'атель'
'атак'
'арабск'
'апартаменты_'
'апартамент'
'анно'
'анализа_'
'анализ_'
'анализ'
'амин'
'американц'
'ама'
'ался_'
'ало'
'актрис'
'актическ'
'активны'
'ака_'
'ак_'
'айн'
'ази'
'ади'
'адвокат'
'аги'
'агент'
'автобус_'
'авиа'
'августа_'
'абсолютно_'
'Японски'
'Эс'
'Эми'
'Эк'
'Штаты_'
'Шт'
'Шаблон_'
'Читать_'
'Через_'
'Чер'
'Церковь_'
'Центрально'
'Цвет'
'ЦРУ_'
'Хе'
'Хва'
'Хай'
'Фон'
'Флор'
'Федера'
'ФБР_'
'Уст'
'Условия_'
'Ус'
'Ур'
'Украин'
'Ук'
'Уби'
'Тре'
'Тол'
'Тим'
'Теле'
'Тво'
'Такой_'
'Таиланд'
'ТВ_'
'Студент'
'Стать'
'Средне'
'Сред'
'Спр'
'Спи'
'Сор'
'Создание_'
'Созда'
'Совет'
'Со_'
'Слыш'
'Слишком_'
'Система_'
'Серь'
'Сей'
'Сар'
'Сант'
'Сама'
'Сад'
'Ром'
'Роз'
'Род'
'Рак'
'РО'
'Проф'
'Прост'
'Просмотров_'
'Продукт'
'Прода'
'Прежде_'
'Предп'
'Праге_'
'Пост'
'Помогите_'
'Польш'
'Поло'
'Поле'
'Пол'
'Поиск_'
'Пло'
'Петр'
'Перво'
'Перв'
'Пат'
'Папа_'
'Пап'
'Пак'
'ПРО'
'Ох'
'Отлично_'
'Откр'
'Ответ'
'Остав'
'Ост'
'Обзор_'
'Обам'
'ОН'
'Нор'
'Новая_'
'Никак'
'Несколько_'
'Нес'
'Национально'
'Нат'
'Нас'
'Напи'
'Наконец_'
'Название_'
'Наде'
'Нав'
'НОВ'
'Мэ'
'Муз'
'Мон'
'Мод'
'Мест'
'Международный_'
'Майкл_'
'МВ'
'МА'
'Лис'
'Лин'
'Лечение_'
'Леон'
'Лар'
'Кру'
'Кро'
'Крист'
'Кре'
'Комп'
'Книг'
'Кле'
'Кара'
'Какого_'
'Кай'
'Каждая_'
'КС'
'КИ_'
'Йорке_'
'Йе'
'Ию'
'Использование_'
'Использ'
'Испан'
'Ио'
'Информация_'
'Инф'
'Интер'
'Инди'
'Инд'
'Извини_'
'Игр'
'Ив'
'ИК'
'Зим'
'Зар'
'Загру'
'Забронировать_'
'Её_'
'Ещё_'
'Ему_'
'Другие_'
'Джек'
'Дес'
'Держись_'
'Демо'
'Дело_'
'Дек'
'Дей'
'Дев'
'Данн'
'ДР'
'ДО'
'Государств'
'Говори'
'Глу'
'Вьетнам'
'Выш'
'Выход'
'Ву'
'Вселенн'
'Восток'
'Вос'
'Вод'
'Вир'
'Вз'
'Венеции_'
'Великобритании_'
'Ваши_'
'ВИ'
'Брюнетки_'
'Британ'
'Бре'
'Бож'
'Бого'
'Благо'
'Бесплатные_'
'Берлин'
'Без'
'Баз'
'Аст'
'Аргентин'
'Англии_'
'Актив'
'Автор'
'Авто'
'АВ'
'žsk'
'žov'
'žlut'
'žky_'
'živý'
'ždi'
'Žádná_'
'ůž'
'ův'
'ůsob'
'ťa'
'šťastný_'
'šť'
'šílený_'
'šího_'
'ších_'
'šá'
'štá'
'školu_'
'ško'
'široko'
'šerif'
'Šv'
'Španělsko_'
'ŠT'
'řízn'
'říkali_'
'řídí'
'řádku_'
'řiv'
'řil'
'řešit_'
'řeš'
'řečeno_'
'Říká_'
'Říj'
'Řešení_'
'ňk'
'ňa'
'ěný_'
'ění'
'ěny_'
'ěni'
'ěly_'
'ějšího_'
'ěj'
'čtyřka'
'čtvrti_'
'čních_'
'články_'
'července_'
'černé_'
'čer'
'čemu_'
'časopis'
'Číslo_'
'Čo'
'Člen'
'Často_'
'ČE'
'ýz'
'ých'
'úžasné_'
'úřad_'
'účty_'
'účelem_'
'úvěr'
'úvahu_'
'úroveň_'
'úr'
'úm'
'ø'
'ód'
'íše'
'íva'
'írání_'
'íp'
'íky_'
'íkem_'
'íka'
'íj'
'ì'
'ék'
'áše'
'ářsk'
'áč'
'áz'
'ární_'
'ární'
'ální'
'ále'
'áku_'
'áhá'
'áhnout_'
'áda_'
'áck'
'Úplně_'
'Á_'
'». _'
'«'
'zůstává_'
'získání_'
'záznamy_'
'zát'
'západní_'
'zákony_'
'zákaznick'
'zvýšen'
'zrcadl'
'zrad'
'zpomal'
'zodpovědn'
'znám_'
'znič'
'znak'
'zlepšit_'
'zlepšení_'
'zkuše'
'zkou'
'zko'
'zjistila_'
'zh'
'zdv'
'zdrojů_'
'zdravotní'
'zdi_'
'zd'
'zboží_'
'zařízením_'
'začneme_'
'začali_'
'zaznamen'
'zavražd'
'zata'
'zat_'
'zast'
'zasran'
'zaruč'
'zapo'
'zane'
'zal'
'zajímá_'
'zaj'
'zach'
'zabili_'
'zabila_'
'yč'
'ysle'
'you_'
'ye_'
'xa'
'ws'
'wo'
'with_'
'wellness_'
'všemu_'
'věří'
'většinou_'
'vědom'
'včel'
'vč'
'vývoje'
'výtah'
'výstav'
'výsledků_'
'výsled'
'výs'
'výk'
'výdaje_'
'východní_'
'východ'
'vých_'
'výběru_'
'víř'
'vítězství_'
'vého_'
'vár'
'vzruš'
'vzore'
'vzestup'
'vza'
'vyžaduje_'
'vyří'
'vyvolá'
'vytá'
'vysílání_'
'vysoký_'
'vysokoškol'
'vysoko'
'vyro'
'vypo'
'vypad'
'vymysle'
'vyjednáv'
'vydán'
'vych'
'vybral'
'vu'
'vtip'
'vt'
'vsk'
'vs_'
'vrátím_'
'vova'
'vov'
'von_'
'vola'
'vodou_'
'voda_'
'vod_'
'vlád'
'vliv_'
'vlastního_'
'vlastnosti_'
'viz'
'vir'
'villa'
'view_'
'vešker'
'veče'
'vet'
'ver_'
'velko'
'velikosti_'
'vedení_'
'vc'
'vaj'
'vací_'
'uš'
'učí'
'uvidíme_'
'uvaž'
'utí'
'utéct_'
'uto'
'ustil'
'uskutečn'
'určité_'
'urč'
'upe'
'unik'
'unes'
'umřel'
'umístěné_'
'umí'
'ultra'
'uložen'
'ulici_'
'ulic'
'uká'
'ukrad'
'uje'
'uděláš_'
'ude_'
'ubytova'
'ubi'
'tří_'
'těmito_'
'těm'
'táv'
'támhle_'
'tvých_'
'turistick'
'tte'
'trvat_'
'trošku_'
'tre'
'tras'
'tova'
'totiž_'
'tory_'
'tonov'
'tlaku_'
'tla'
'tiš'
'ting_'
'tim'
'tik'
'tická_'
'tick'
'tes_'
'teroris'
'term'
'teplot'
'tehdy_'
'technologick'
'technik'
'tajn'
'taj'
'systéme'
'svá'
'sve'
'super'
'sun'
'střev'
'stě'
'stáv'
'státech_'
'stán'
'stylu_'
'sty_'
'studio'
'studen'
'struktur'
'stru'
'stream'
'strana_'
'stran'
'stov'
'sto'
'stické_'
'statisti'
'spá'
'správný_'
'správn'
'sprchou_'
'spotřeb'
'spon'
'spokojen'
'spodní_'
'související'
'souvis'
'soustav'
'soupeř'
'sotva_'
'sonov'
'sol'
'sob'
'so_'
'sní'
'sno'
'snah'
'slyšel'
'slib'
'slav'
'slab'
'ská'
'skvělá_'
'skutečnost_'
'skupina_'
'skupin_'
'skrze_'
'skl'
'sir'
'sion'
'silnic'
'sil_'
'sia_'
'sem'
'selh'
'sedm_'
'sd'
'schůzk'
'schvál'
'sař'
'samotných_'
'samostatn'
'růst'
'rč'
'rát'
'rání_'
'rz'
'rve_'
'ručně_'
'ruské_'
'rp'
'rozs'
'rozměr'
'rozhodn'
'rozdíl'
'rost'
'ron'
'rok'
'rohu_'
'rodiny_'
'rnu'
'rie_'
'rg'
'rezervaci_'
'revoluce_'
'revolu'
'respekt'
'rent'
'rem'
'reg'
'ref'
'raž'
'ras'
'rap'
'ramen'
'rady_'
'que'
'příslušenství_'
'přís'
'připraven_'
'přijel_'
'přijde'
'přijal'
'přidán'
'přežít_'
'přet'
'přesvědči'
'přestat_'
'přen'
'přem'
'přehl'
'předáv'
'představitel'
'předpis'
'předch'
'přec'
'pěšky_'
'písmen'
'pát'
'párty_'
'pán'
'put'
'publik'
'pu_'
'pti'
'psal'
'ps_'
'prášek_'
'provi'
'prostředků_'
'projekt'
'profil'
'prodej'
'prod'
'proces_'
'probu'
'prezent'
'pravé_'
'pravideln'
'pravidel_'
'pravděpodobné_'
'pracuje'
'požádal_'
'požadavky_'
'pošt'
'pořádn'
'počtu_'
'počkat_'
'pozván'
'pozici_'
'považován'
'používá'
'potřeboval'
'postele'
'postavi'
'poslal_'
'poskytovatel'
'poskyt'
'popruh'
'pomů'
'pomo'
'polsk'
'politické_'
'politice_'
'poli'
'polda_'
'pokračovat_'
'pokaždé_'
'pojď'
'pohodln'
'poh'
'podívej_'
'podíl'
'podávají_'
'podv'
'podst'
'podrobnosti_'
'podrobn'
'podpory_'
'podpis'
'podob'
'podnikatel'
'podaří_'
'pm'
'plá'
'plnění_'
'plný_'
'plati'
'planet'
'pečlivě_'
'pes_'
'pers'
'patře_'
'pas_'
'party_'
'park_'
'papíry_'
'pana_'
'pamatuju_'
'palub'
'pale'
'pac'
'ožn'
'ožen'
'oř'
'očk'
'oč'
'označ'
'ozbrojen'
'ovy_'
'ovládat_'
'ovan'
'ovalo_'
'ouv'
'otá'
'ott'
'otro'
'otní_'
'otevřená_'
'otci_'
'osu'
'orů_'
'organizací_'
'ord'
'ora'
'opr'
'opl'
'operátor'
'operaci_'
'opak'
'onym'
'ons_'
'omn'
'ologi'
'ola_'
'ola'
'okr'
'okno_'
'oke'
'off'
'ody_'
'odměn'
'odmítl'
'odhlášení_'
'odhal'
'odes'
'odcház'
'oda_'
'oběť_'
'obě_'
'obá'
'obrazovkou_'
'obličej'
'oblečení_'
'oblastech_'
'obla'
'objevil_'
'obj'
'obe'
'obchodní'
'obav'
'nš'
'němž_'
'německ'
'některá_'
'nízké_'
'ními_'
'né'
'náz'
'návštěv'
'náv'
'nástrojů_'
'násiln'
'námořn'
'náhradní_'
'ny'
'ns_'
'novin'
'nove'
'non'
'nky_'
'nikoli'
'nge'
'neš_'
'neš'
'neú'
'nezv'
'nezp'
'neznamená_'
'nezastav'
'nevě'
'nevl'
'nete_'
'nesta'
'nervózní_'
'nere'
'nepřítel'
'nepoz'
'neko'
'nejspíš_'
'nejs'
'nejnovější_'
'neje'
'neděla'
'nedávno_'
'nedostatek_'
'nedostane'
'nechce_'
'nechali_'
'nechala_'
'nebyli_'
'nebudou_'
'nebudeme_'
'neboj'
'naživu_'
'našemu_'
'naš'
'naučit_'
'napsal_'
'napadl'
'napad'
'nac'
'nabídka_'
'měnov'
'měj'
'mý'
'místnosti_'
'míry_'
'médií_'
'mální_'
'muzeum_'
'muze'
'muslim'
'mus_'
'msk'
'mrtvol'
'mrk'
'moč'
'mon_'
'moderní'
'mod'
'mm'
'mlad'
'minulosti_'
'milý_'
'miluj'
'milovat_'
'miliony_'
'mbo'
'maxim'
'matko'
'marketing'
'mark'
'manželskou_'
'manipul'
'male'
'm2_'
'líd'
'lor'
'lok'
'lodi_'
'lli'
'ling_'
'lidské'
'lidsk'
'lh'
'leč'
'leté_'
'leta'
'lesk'
'lesbičky_'
'lehk'
'leh'
'ledna_'
'ld_'
'lač'
'lak'
'křesl'
'kém_'
'kvalitu_'
'kvalitní_'
'kurzy_'
'kurz_'
'ktor'
'kterých_'
'který'
'kt_'
'krátké_'
'krys'
'kruh'
'kru'
'krok'
'koš'
'kován'
'ková_'
'koupí'
'koupelnu_'
'kore'
'koně_'
'končí_'
'kontakty_'
'kontakt'
'konce'
'komunikac'
'komplikovan'
'kompletn'
'kolá'
'kolegy'
'kole'
'kně'
'knu'
'kniha_'
'klíčov'
'klimatu_'
'klasick'
'kilometrů_'
'ki_'
'kha'
'kh'
'kes'
'ken'
'kdokoli'
'kde'
'kav'
'kat_'
'kapitál'
'kapit'
'kabelovou_'
'jím'
'ju_'
'jk'
'jeskyn'
'jek'
'jejího_'
'jedné_'
'jednom_'
'jazyk_'
'jar'
'jakýchkoli_'
'jakékoliv_'
'jakoukoli_'
'ičit'
'izova'
'ival'
'ite'
'italsk'
'isu'
'isté_'
'istick'
'isti'
'ista_'
'ire'
'ipt'
'iná'
'investic'
'inteligence_'
'ins_'
'ins'
'infrastruktur'
'inc'
'impl'
'illa_'
'iho'
'igo'
'ido'
'idn'
'idi'
'ida'
'ického_'
'ian_'
'hře'
'hé'
'hádat_'
'hv'
'hum'
'hudby_'
'hru'
'hrozb'
'hraje_'
'hraj'
'hou_'
'hosté_'
'horní_'
'horní'
'hop'
'hon'
'hodí'
'hodnota_'
'hodit_'
'hodinov'
'hnu'
'hlída'
'hlás'
'hlu'
'hledám'
'hledal'
'hit'
'hej_'
'he_'
'gé'
'gro'
'gr_'
'gr'
'gick'
'gh_'
'ger_'
'fí'
'fé'
'fyzik'
'fyzick'
'ft'
'fotbal'
'formát_'
'forma'
'fle'
'financí_'
'financování_'
'feren'
'facilities_'
'expo'
'esu_'
'est'
'eso'
'ese'
'eru_'
'erl'
'eo_'
'eni_'
'enci_'
'els'
'elem'
'elektro'
'elektrick'
'eji_'
'ei'
'eden'
'eb_'
'ea_'
'dův'
'důsledky_'
'důležit'
'důkaz'
'dř'
'dětsk'
'dívá'
'díme_'
'délka_'
'dé_'
'dámy_'
'dám'
'dvojit'
'duši_'
'držel'
'dro_'
'drah'
'dočasn'
'dou_'
'dotaz'
'dostatečně_'
'dost'
'dosa'
'doprovod'
'dopis'
'done'
'don_'
'dokáže'
'dokázal_'
'dokonalé_'
'dokonal'
'doje'
'dohromady_'
'dohoda_'
'dohled'
'dodáv'
'dodavatel'
'doda'
'dobrej_'
'dnešní_'
'dlouhou_'
'dlo_'
'dim'
'dešt'
'detektiv'
'dese'
'demokracie_'
'defin'
'debat'
'dar_'
'dar'
'dale'
'cítíš_'
'cti'
'cokoli_'
'ciz'
'chů_'
'cháze'
'chytr'
'chybí_'
'chrám'
'chování_'
'chor'
'chom_'
'chodit_'
'chlápek_'
'chlapc'
'chceme_'
'chal'
'ceno'
'celo'
'břeh'
'bydle'
'budoucí'
'brzo_'
'bri'
'bratr'
'bral'
'boh'
'blíží'
'blon'
'bli'
'bia'
'bezpečné_'
'bezpečn'
'bezd'
'bert'
'bec'
'bea'
'bazén_'
'baz'
'bav'
'azí'
'azuj'
'avit_'
'aven'
'atn'
'ativ'
'aten'
'atele_'
'aso'
'asistent'
'ari_'
'areálu_'
'arabsk'
'ara'
'aná_'
'anglicky_'
'anglick'
'analytické_'
'amp_'
'ameri'
'alt'
'ala'
'aktivn'
'aktivit'
'akci_'
'ai'
'agen'
'age_'
'adá'
'adop'
'ado'
'adn'
'ada'
'ací'
'aci'
']'
'['
'Zás'
'Zvláštní_'
'Zim'
'Zelen'
'Zaš'
'Zavolám'
'Zat'
'Zas'
'ZE'
'Yout'
'Yorku_'
'XX_'
'XXX_'
'Wolf'
'William'
'WiFi_'
'Wes'
'WP_'
'WI'
'WE'
'Vždy_'
'Výbor'
'Vít'
'Vídeň_'
'Vysoko'
'Vysok'
'Vstup'
'Vst'
'Vrát'
'Vr'
'Vl'
'Vir'
'Vily_'
'Vibrátor'
'Vem_'
'Vaš'
'VY'
'Ur'
'Upo'
'Ukr'
'Uk'
'UR'
'Těší'
'Trochu_'
'Tren'
'Transfer_'
'Tomu_'
'Tl'
'Ti_'
'Thi'
'Tex'
'Test'
'Term'
'Ter'
'Tele'
'Sup'
'Sun'
'Strana_'
'Stor'
'Srp'
'Spr'
'Soci'
'Snaž'
'Snad_'
'Slovensk'
'Sli'
'Skupina_'
'Sklad'
'Simon'
'Silv'
'Sil'
'Si_'
'Severní_'
'Sen'
'Sel'
'Sek'
'Sat'
'SS_'
'Ráda_'
'Rusku_'
'Rozhod'
'Rou'
'Robert_'
'Residence_'
'Rep'
'Registr'
'Reg'
'Rai'
'RS'
'Připoj'
'Přep'
'Pus'
'Pun'
'Prsa'
'Priv'
'Princ'
'Počkat_'
'Potřeb'
'Poslouchej_'
'Porno'
'PornHub_'
'Pon'
'Pol'
'Pokračuj'
'Pokračováním_'
'Podpora_'
'Petro'
'Petr'
'Peter'
'Paule'
'Paul_'
'Pardon_'
'Para'
'Pap'
'Pamatuješ_'
'PR'
'PLA'
'PH'
'PC'
'Out'
'Opera'
'Open_'
'Oni_'
'Om'
'Odv'
'Odl'
'Oba'
'OT'
'ON'
'Německu_'
'Nějak'
'Název_'
'Nád'
'Ny'
'Novo'
'Niko'
'Nik'
'Nicméně_'
'Než_'
'Nevěřím_'
'Nepře'
'Nepotřebuj'
'Nemoh'
'Nee'
'Nechtěl_'
'Nebyla_'
'Nastav'
'Nap'
'Nad_'
'NT'
'NIE_'
'Musel_'
'Multi'
'Moo'
'Mojžíš'
'Mobile_'
'Mno'
'Ml'
'Mimochodem_'
'Miluju_'
'Milo'
'Mezi'
'Meta'
'Mess'
'Men'
'Medi'
'McC'
'Martina_'
'Mart'
'Mars'
'Marg'
'Mall'
'Mají_'
'Mac'
'MU'
'Louis'
'Lot'
'Los_'
'Liz'
'Link'
'Ledn'
'Lea'
'LU'
'LE_'
'Ká'
'Krá'
'Kri'
'Koupelna_'
'Kontakt'
'Komentáře_'
'King_'
'Kevin'
'Ken'
'Kaza'
'Kate'
'Kas'
'Kap'
'KV'
'KE'
'Já'
'Junior'
'Jun'
'Jos'
'Joe_'
'Jimmy_'
'Ježíš_'
'Jedin'
'Japonské_'
'Jack'
'Jac'
'Island_'
'Iráku_'
'Inte'
'Ins'
'In_'
'IS_'
'ID_'
'Hvězd'
'Hus'
'Hraj'
'Hospodin_'
'Home'
'Holly'
'Hodnocení_'
'Hmm_'
'Heli'
'Hav'
'Harv'
'Gui'
'Gene'
'Gen'
'GR'
'GM'
'GC'
'Francie_'
'Fort_'
'Fit'
'Fish'
'Fig'
'Fel'
'Far'
'Fakt'
'Fair'
'Factory_'
'Exp'
'Evropy_'
'Evropan'
'Evrop'
'Eve'
'Est'
'Eric'
'English_'
'Egypt'
'Dělá'
'Dámy_'
'Dále_'
'Dveře_'
'Drž_'
'Doprava_'
'Doktore_'
'Dobro'
'Dlouho'
'Distri'
'Den_'
'Dec'
'Dal'
'Cít'
'Cup'
'Cristi'
'Což_'
'Costa_'
'Chtěla_'
'Chtě'
'Chodi'
'Central_'
'Cena_'
'Cat'
'Cafe_'
'CO_'
'CO2_'
'CN'
'CM'
'CH_'
'Byl'
'Budo'
'Bud'
'Brand'
'Bran'
'Boží_'
'Blue_'
'Blondýna'
'Bir'
'Bin'
'Bc'
'Barb'
'Babičky'
'BA_'
'Awa'
'Art'
'App'
'And'
'Ana'
'Alt'
'Alic'
'Ale'
'Al_'
'Aktivní_'
'Ai'
'Abb'
'AK'
'AA'
'89_'
'78_'
'71'
'66_'
'48'
'400'
'369'
'350_'
'320'
'300'
'1998_'
'1991_'
'1920_'
'189'
'182'
'176_'
'172'
'165'
'127'
'125_'
'122'
'12'
'114'
'101_'
'......'
'))'
') – _'
') (_'
'''
'"...'
'", - _'
'", '
' →_'
' ~ _'
' {_'
' \u_'
' >>'
' - ["_'
' ) '
' # _'
' "'
' !_'
'�������'
'�� '
'﻿'
'中文_'
'★'
'’'
'ќ'
'ёс_'
'ёрт'
'ённых_'
'ёжн'
'ё_'
'яющи'
'ясно_'
'января_'
'яйте_'
'языка'
'яза'
'яжк'
'ядерно'
'яб'
'ющим'
'юще'
'юре'
'юл'
'юз'
'южно'
'эфир'
'этаж'
'эс'
'элит'
'экстр'
'экономических_'
'экономическ'
'экономик'
'экономи'
'эй'
'эваку'
'ьют'
'ьство_'
'ьски'
'ьную_'
'ьни'
'ьн'
'ьев_'
'ьг'
'ыть_'
'ыто'
'ыска'
'ыд'
'ывани'
'ыв'
'щим_'
'щик'
'щал'
'щает'
'шу_'
'шу'
'штата_'
'шт'
'шле'
'школьник'
'школьн'
'школа_'
'широко'
'шикарн'
'шерст'
'шенно'
'шел_'
'шев'
'шал'
'шаг'
'чь_'
'чь'
'чужи'
'чтени'
'чо'
'чность'
'чного_'
'члена_'
'читал'
'чит_'
'чеч'
'четырех'
'четверг_'
'чет'
'чества_'
'чертов'
'черны'
'черно'
'чение_'
'человечества_'
'человеческ'
'часы_'
'частиц'
'цифры_'
'цифров'
'ционно'
'цион'
'цид'
'цену_'
'централ'
'цветы_'
'цвета_'
'царств'
'хуже_'
'худш'
'хт'
'хранител'
'хороши'
'хорошей_'
'хорошее_'
'хон'
'холодно'
'холодильник'
'ходить_'
'ходите_'
'ходил'
'ход_'
'хов'
'хо_'
'хлоп'
'хлеб'
'химическо'
'химически'
'хи_'
'характеристик'
'характера_'
'хай'
'футболист'
'французски'
'фотографий_'
'формат'
'форма'
'фол'
'флот'
'финансового_'
'фильмо'
'фестиваль_'
'фермер'
'фей'
'факты_'
'файле_'
'уще'
'ушек_'
'учил'
'учетн'
'учены'
'уче'
'участия_'
'участвую'
'ухудш'
'усы'
'устройств_'
'устройств'
'устраива'
'устр'
'установленно'
'установлена_'
'установки_'
'устанавливаю'
'успоко'
'успешно'
'ускор'
'усе'
'уру'
'ура_'
'употреблени'
'уно'
'уникальн'
'умол'
'умны'
'умн'
'умею'
'умереть_'
'улица'
'улиц'
'уле'
'украинск'
'уйтесь_'
'уи'
'узнал_'
'узнаете_'
'узи'
'ужасно'
'уемы'
'удалени'
'уда'
'угрозой_'
'увер'
'увеличил'
'увеличива'
'уве'
'уважени'
'убор'
'уби'
'убедиться_'
'тян'
'тч'
'туристически'
'туман'
'тс_'
'труп'
'трудно_'
'троп'
'трен'
'тревог'
'требованиям'
'требован'
'транспорт'
'трак'
'традиционным'
'традиционно'
'традици'
'точк'
'торы_'
'торо'
'тормоз'
'торговли_'
'тонн_'
'тони'
'товар'
'ткань_'
'тическ'
'тиз'
'тивн'
'тив_'
'технология'
'техническо'
'террорист'
'террас'
'тера'
'тепла_'
'температуру_'
'темны'
'телефонов_'
'телефона_'
'телей_'
'телевизор_'
'теле_'
'текуще'
'творческ'
'твоим_'
'тверд'
'тах_'
'тано'
'так'
'тайн'
'таблетк'
'сяч'
'сыном_'
'съемк'
'счёт'
'считаю_'
'счастью_'
'существуют_'
'сутки_'
'сул'
'суд_'
'строительство_'
'строительн'
'стрир'
'стресс'
'стремлени'
'стреми'
'страшно'
'страницу_'
'страда'
'стра'
'стон'
'стом'
'столкн'
'стой_'
'сто_'
'стин'
'стероиды'
'ствую'
'ству_'
'ство'
'ственн'
'статьи_'
'стать'
'старый_'
'стари'
'станци'
'сража'
'спу'
'справедливо'
'способность_'
'способа'
'способ'
'сплав'
'спл'
'спин'
'специфич'
'специальные_'
'специальны'
'специально'
'союза_'
'сочета'
'сотрудник'
'состоял'
'составляю'
'состава_'
'соседни'
'соответствующие_'
'сообщил'
'соно'
'сомне'
'солнц'
'солнечно'
'сознание_'
'содержани'
'соглашение_'
'согласия_'
'совместим'
'сове'
'собственности_'
'соблюдени'
'собирается_'
'собираемся_'
'снят'
'сные_'
'снижени'
'сн'
'смысла_'
'смотрел'
'сможем_'
'смогли_'
'смертн'
'см_'
'случит'
'службу_'
'служба_'
'сломал'
'слома'
'сложно'
'следующем_'
'скуча'
'скорость_'
'скому_'
'склонн'
'ским_'
'сказки_'
'сказ'
'системой_'
'сис'
'синте'
'сила_'
'сигнал_'
'сж'
'сесси'
'серьезные_'
'серьезны'
'серьезно_'
'сери'
'сервис'
'сентябре_'
'семейны'
'сектор'
'секрет'
'сезон'
'северно'
'сдерж'
'сделк'
'священник'
'святого_'
'связанных_'
'связ'
'свободны'
'свидетельств'
'сверх'
'сани'
'самоу'
'салон'
'сайты_'
'сайтом_'
'рё'
'ряда_'
'рыт'
'рынка_'
'рую'
'ручно'
'русско'
'русский_'
'руководител'
'рты_'
'рско'
'рс'
'рп'
'рот'
'российский_'
'рона'
'рожн'
'рождения_'
'родо'
'родны'
'родно'
'родила'
'рованны'
'рованн'
'робот'
'рные_'
'рия_'
'риск'
'риан'
'решени'
'реп'
'рент'
'ремонт'
'ременн'
'рекорд'
'рекоменд'
'рейс'
'резко_'
'рези'
'режиме_'
'регистр'
'регионе_'
'реальности_'
'реализ'
'рве'
'рв'
'растений_'
'рассчита'
'расстройств'
'рассказыва'
'распространя'
'распростран'
'распределени'
'располага'
'раскры'
'раси'
'рами_'
'район_'
'район'
'разреши'
'разреша'
'разработк'
'разница_'
'размещени'
'размеры_'
'разм'
'раздраж'
'развод'
'разве'
'разби'
'разбер'
'радостью_'
'равн'
'работой_'
'работала_'
'работае'
'работ_'
'пытаюсь_'
'пы'
'пч'
'пус'
'проявления'
'проя'
'прошлого_'
'прошла_'
'прочитайте_'
'прочита'
'проче'
'процедур'
'проходи'
'просл'
'прокл'
'происхождения_'
'происходя'
'проис'
'проектировани'
'проекта'
'продажи_'
'прогноз_'
'прогноз'
'проводится_'
'проводи'
'проверки_'
'провер'
'приш'
'причине_'
'причесок_'
'приче'
'прич'
'присутств'
'приспособ'
'природы_'
'приоритет'
'принимал'
'принимает_'
'принима'
'принести_'
'принесл'
'пример_'
'применяем_'
'применения_'
'прим'
'приз'
'приехал_'
'приготовлен'
'пригл'
'привлекательны'
'приви'
'привержен'
'приведен'
'прет'
'преступления_'
'преподавател'
'прем'
'прекрасн'
'предусмотренн'
'представлял'
'предпочтени'
'предположи'
'предотвращени'
'предоставляют'
'предложить_'
'пределами_'
'превосходн'
'практике_'
'правительственны'
'правильно'
'появился_'
'почувств'
'почт'
'потреб'
'пот'
'поступа'
'постройк'
'построи'
'пострада'
'постоянно'
'поставля'
'поставк'
'послушай_'
'последн'
'порци'
'портфел'
'портрет'
'пород'
'популярно'
'попал_'
'попа'
'понятно_'
'понравил'
'понимать_'
'понадоб'
'помогать_'
'помогал'
'помог'
'пользу'
'пользователи_'
'полици'
'полагаю'
'покупат'
'поку'
'покрытие_'
'поколения_'
'показан'
'покаж'
'пока'
'пойд'
'познакомиться_'
'пози'
'поза'
'поездки_'
'подъем'
'подчин'
'подумала_'
'подумал_'
'подтвердил'
'подруга_'
'подписк'
'подня'
'поднима'
'подм'
'подлинн'
'подде'
'подбор'
'подарк'
'подар'
'погоды_'
'повышени'
'повтори'
'побли'
'пн'
'площад'
'пле'
'планете_'
'пл'
'пия_'
'пищевы'
'пищ'
'письма_'
'пиро'
'пира'
'пиво_'
'печеночн'
'печат'
'пери'
'переменн'
'переме'
'передаются_'
'передат'
'передает'
'переве'
'патологическ'
'пассажиров_'
'пасс'
'пас'
'партии_'
'парк_'
'парк'
'пар_'
'память_'
'паль'
'ошибк'
'оше'
'очередно'
'офо'
'официально_'
'отсутствие_'
'отправк'
'отправ'
'отпечатки_'
'отношени'
'относиться_'
'отметил_'
'отл'
'откуда_'
'открыты'
'отключ'
'отказа'
'отдельные_'
'отвеча'
'ответственн'
'отв'
'ота'
'острова_'
'остров'
'остальных_'
'остальные_'
'оставл'
'остави'
'особенност'
'осново'
'основной_'
'основани'
'основан'
'освобождени'
'освобо'
'осве'
'оруж'
'ору'
'организова'
'опубликовал'
'опу'
'определенны'
'опасно'
'онт'
'онск'
'ологическ'
'окончани'
'оказывается_'
'оказыва'
'ожидае'
'ожи'
'одино'
'одинаковы'
'одежды_'
'одежд'
'ографи'
'ограниченными_'
'ога'
'овым'
'овом_'
'овени'
'овед'
'оварива'
'ован_'
'обязательства_'
'обязанност'
'обязан_'
'объяви'
'общественны'
'обща'
'обследовани'
'обс'
'обработке_'
'обновля'
'обновлени'
'обнов'
'обнаружен'
'обмен_'
'обладает_'
'облада'
'обла'
'обещаю'
'обещал_'
'обещал'
'обеспечи'
'обед_'
'обед'
'обе_'
'обвиня'
'оба'
'оа'
'нью_'
'нце'
'нц'
'нужд'
'нсу'
'нст'
'нрав'
'ночно'
'номи'
'нок_'
'ноги_'
'новым_'
'новостей_'
'новом_'
'нки_'
'нка_'
'ничн'
'нит'
'нис'
'ним'
'нил'
'никак'
'низ'
'ниже_'
'ние'
'нец'
'нест'
'несе'
'неправ'
'непод'
'необходимым'
'необходимость_'
'необходимо'
'некоторое_'
'недостаточно_'
'недостатк'
'недавно_'
'небольшой_'
'нга'
'нашёл_'
'нашими_'
'начнем_'
'начиная_'
'начально'
'начальн'
'нахо'
'нау'
'наступ'
'насос'
'наслаждаться_'
'насладиться_'
'нарушения_'
'нарушение_'
'народов_'
'направля'
'направления'
'направ'
'написать_'
'напи'
'нападени'
'наоборот_'
'наме'
'налогов'
'нало'
'наличие_'
'нали'
'накопленн'
'наи'
'называю'
'назван'
'назвал_'
'наж'
'надежны'
'наблюдае'
'наблюда'
'мяс'
'мышлен'
'мых_'
'мусульман'
'мульт'
'музыка_'
'мужик_'
'мощность_'
'мощн'
'мочи'
'мотр'
'мости_'
'мост_'
'моно'
'модн'
'модифи'
'мог'
'многочисленные_'
'мнению_'
'миш'
'мистер'
'миро'
'мирн'
'минуту_'
'минимум'
'миллиард'
'меш'
'мечты_'
'метр'
'метод_'
'мети'
'мет'
'месяц'
'местным'
'местах_'
'меню_'
'менеджер'
'мелки'
'медицинской_'
'мгновенно_'
'машин'
'материал_'
'маршрут_'
'маршрут'
'маркетинговых_'
'мале'
'максим'
'лять_'
'людени'
'любом_'
'любов'
'любим'
'льных_'
'льное_'
'льк'
'льд'
'лучшего_'
'лт'
'лого'
'логически'
'ловушк'
'лови'
'личные_'
'лично'
'личн'
'лич'
'литр'
'лип'
'линия'
'линг'
'ликвид'
'лидер_'
'ливо_'
'лже'
'лечит'
'лето_'
'летнего_'
'лети'
'лесо'
'лер'
'лены_'
'лент'
'лени'
'легких_'
'леги'
'ланд'
'лам'
'лайн'
'кури'
'культурн'
'культур'
'кт_'
'круто_'
'крупнейши'
'крупн'
'круж'
'кругло'
'критерии_'
'крест'
'крепк'
'кредитов'
'крат'
'красоты_'
'красно'
'красивая_'
'кошк'
'костюм'
'кость_'
'костн'
'космети'
'корпораци'
'корон'
'кончи'
'конфи'
'конференции_'
'конст'
'компьютер'
'компонент'
'компани'
'комнате_'
'комиссия_'
'коме'
'команду_'
'командой_'
'кольц'
'коло'
'колл'
'колес'
'ковы'
'книг'
'кля'
'клуба_'
'кла'
'киш'
'кин_'
'кими_'
'кг_'
'катастроф'
'каса'
'кас'
'канск'
'канал_'
'каль'
'календар'
'каком_'
'кай'
'йцы_'
'йца'
'йти_'
'йс_'
'йный_'
'йны'
'йной_'
'йз'
'йб'
'иях_'
'июня_'
'июн'
'июл'
'ифа'
'итуци'
'итр'
'итоге_'
'истически'
'иста'
'исправ'
'использу'
'исполнительн'
'ислам'
'искусств'
'исключением_'
'иси'
'ируем'
'ионн'
'инфра'
'информир'
'информационно'
'информацией_'
'интервью_'
'интенсивно'
'инструмента'
'инстру'
'иностранны'
'инк'
'индивидуально'
'инвестици'
'император'
'имп'
'иммуно'
'иммун'
'имели_'
'имеешь_'
'имеется_'
'илось_'
'ило'
'илет'
'ий'
'изы'
'изуч'
'изображения_'
'изирован'
'изделий_'
'изде'
'известна'
'изв'
'избран'
'избежать_'
'избавиться_'
'избави'
'иза'
'идёт_'
'идё'
'иды'
'идут_'
'ида'
'игру_'
'играл'
'иво'
'ивка_'
'иве'
'ивать_'
'ивание_'
'зы_'
'зуба'
'зор'
'зоне_'
'золот'
'зны'
'значим'
'знания_'
'знамениты'
'знак'
'зма_'
'зить_'
'зит'
'зирова'
'зелен'
'зде'
'звуч'
'заявил'
'заяв'
'защищены_'
'защищать_'
'захва'
'зарабатыва'
'запуск_'
'запрос_'
'заняти'
'занимае'
'занима'
'зан_'
'замуж'
'замк'
'залив'
'закуп'
'законодатель'
'закон_'
'займет_'
'задать_'
'заве'
'зав'
'забыва'
'забер'
'жилищ'
'жил_'
'жизн'
'жидкости_'
'живо'
'жив'
'жесток'
'жер'
'женн'
'желуд'
'желез'
'желани'
'ждения_'
'етр'
'естественны'
'есси'
'ерна'
'ерн'
'ерен'
'енч'
'енс'
'енко_'
'емн'
'ельны'
'ельн'
'екто'
'екс_'
'екс'
'езды_'
'ежедневн'
'еже'
'ежа'
'еду_'
'еди_'
'дяд'
'душу_'
'душем_'
'душ'
'дур'
'другому_'
'древн'
'драк'
'др'
'достопримечательност'
'достижени'
'достиг'
'достал'
'доставки_'
'дорогие_'
'дороги_'
'дополнительно'
'домашних_'
'домашне'
'домашн'
'домах_'
'доллара_'
'доллар_'
'должност'
'долго'
'долги'
'документо'
'дождь_'
'довер'
'дова'
'дной_'
'длительны'
'дл'
'дите_'
'дит_'
'директор_'
'диплом'
'дикт'
'дизайн'
'диабет'
'деф'
'детка_'
'дете'
'деталь'
'дет_'
'дерьмо_'
'депозит'
'ден_'
'делали_'
'действительн'
'девушки_'
'девушк'
'деб'
'дворе_'
'двоих_'
'двери_'
'дают_'
'дам'
'дально'
'далее_'
'дай'
'давления_'
'давлением_'
'групп'
'графи'
'граф'
'граждан'
'государственного_'
'гост'
'господин_'
'горно'
'горди'
'гонк'
'голуб'
'голово'
'говоришь_'
'говорится_'
'глу'
'глобальной_'
'главных_'
'главной_'
'главного_'
'гидро'
'гигиен'
'гет'
'гео'
'гено'
'геморр'
'гель'
'гг'
'гармони'
'гарантируе'
'гарантировать_'
'газета_'
'выш'
'выход_'
'выступлени'
'высокого_'
'высокий_'
'высокая_'
'выполни'
'вызывают_'
'вызвал'
'выглядел'
'вшую'
'вши'
'вшего_'
'второго_'
'встретиться_'
'встрети'
'вско'
'вряд_'
'ври'
'врагов_'
'вра'
'впечатл'
'вперед_'
'воспроизв'
'воспитани'
'воспит'
'восп'
'воскресенье_'
'вооружен'
'волную'
'волнова'
'воле'
'войска_'
'войне_'
'возникл'
'возника'
'возм'
'военн'
'воен'
'воде_'
'вода_'
'вого_'
'вов'
'внутри'
'внешни'
'вна'
'вместо_'
'вкус'
'вки_'
'вить_'
'вита'
'вирус'
'вини'
'вилл'
'вик'
'видишь_'
'видели_'
'взят'
'взо'
'взгля'
'взаимн'
'вещь_'
'веществ'
'ветер'
'весн'
'вес_'
'верхн'
'верн'
'веков'
'век'
'веду'
'ведения_'
'вдруг_'
'вдох'
'ввиду_'
'вающ'
'ваю_'
'вашему_'
'вариант_'
'вариант'
'вард'
'ванная_'
'ван'
'вак'
'вайте'
'вай_'
'важны_'
'бюджет_'
'бывший_'
'бутыл'
'бут'
'бумаг'
'бу_'
'бросить_'
'бронировани'
'браузер'
'брата_'
'брал'
'боч'
'босс'
'боро'
'бонус'
'больши'
'бож'
'богатые_'
'бо_'
'близ'
'ближайшие_'
'бира'
'бильн'
'беспоко'
'бесплатными_'
'бере'
'белы'
'башн'
'барьер'
'базы_'
'баб'
'ающи'
'аю'
'аче'
'атри'
'атом_'
'ател'
'ате'
'ата_'
'аси'
'архи'
'армия_'
'апа'
'антиб'
'анско'
'ански'
'ане'
'аналитических_'
'аналити'
'анал'
'американских_'
'альтернатив'
'альный_'
'ально'
'ало_'
'акционер'
'активно_'
'актива'
'ака'
'азиатск'
'аза'
'ажд'
'аешь'
'адыва'
'адреса_'
'администраци'
'аден'
'адапт'
'агресс'
'аг'
'автоматическо'
'автомат'
'абсолютн'
'Японии_'
'Ю_'
'Эст'
'Эм'
'Эли'
'Эко'
'Э_'
'ЫЕ_'
'Штатов_'
'Школа_'
'Шан'
'Чув'
'Чт'
'Чешск'
'Чех'
'Четыре_'
'ЧА'
'Центра'
'Цена_'
'Цветы_'
'Христ'
'Хорош'
'Хам'
'Фре'
'Франк'
'Фран'
'Фр'
'Фор'
'Фильм'
'Фил'
'Ферм'
'Ут'
'Успе'
'Управление_'
'Уп'
'Уг'
'Турция_'
'Туалет'
'Три'
'Трей'
'Тра'
'Точн'
'Топ_'
'Техн'
'Твоя_'
'Тв'
'Тако'
'Такие_'
'Так'
'ТО_'
'ТИ'
'Сэм_'
'Суд'
'Стрел'
'Странн'
'Страница_'
'Стоит_'
'Стивен'
'Стероид'
'Старые_'
'Спус'
'Список_'
'Специальн'
'Союз'
'Сос'
'Солнечн'
'Сок'
'Соединенные_'
'Смо'
'Следуйте_'
'Сла'
'Скоро_'
'Систем'
'Сири'
'Синий_'
'Силь'
'Сил'
'Сердце_'
'Северная_'
'Свято'
'Свяжитесь_'
'Свя'
'Свобод'
'Сви'
'Свад'
'Сам_'
'Сайт_'
'СССР_'
'СМИ_'
'Русский_'
'Рус'
'Руководство_'
'Рук'
'Республика'
'Рейн'
'Результат'
'Рег'
'Ребята_'
'Раньше_'
'Рабо'
'Просмотр'
'Производитель_'
'Проект'
'Продолжая_'
'Прогр'
'Проблема_'
'Приятно'
'Причин'
'Прис'
'Президент_'
'Право'
'Правила_'
'Правил'
'Прав'
'Почт'
'Последний_'
'Поскольку_'
'Подождите_'
'Поддержка_'
'Пир'
'Петербург'
'Пес'
'Перед_'
'Первое_'
'Патри'
'Пас'
'Пари'
'Пан'
'Пал'
'Оч'
'Офиц'
'Откуда_'
'Особенно_'
'Особ'
'Основн'
'Основ'
'Оригинальное_'
'Орга'
'Олимпийские_'
'Одн'
'Объ'
'ОК'
'ОД'
'Норма'
'Ново'
'Нико'
'Необходимо_'
'Нем'
'Неза'
'Неда'
'Начина'
'Нах'
'Настоящ'
'Нас_'
'Нал'
'Наз'
'НУ'
'НТ'
'НН'
'Мы'
'Молоде'
'Молод'
'Модель_'
'Много_'
'Мисс_'
'Министерство_'
'Мила'
'Мик'
'Мел'
'Мартин_'
'Мам'
'Лэ'
'Лучш'
'Лор'
'Лондон_'
'Лили_'
'Лан'
'Кур'
'Кук'
'Куб'
'Кс'
'Крым'
'Кров'
'Королевс'
'Конг'
'Комисси'
'Количество_'
'Клэ'
'Клуб_'
'Класси'
'Китае_'
'Кен'
'Каме'
'КР'
'КА_'
'Й'
'Ирландии_'
'Им'
'Ил'
'Иерусалим'
'ИВ'
'Земля_'
'Зем'
'Здоров'
'Зву'
'Зве'
'Зас'
'Запр'
'Заме'
'Заг'
'Европейского_'
'ЕМ'
'Думае'
'Друг'
'Дра'
'Достаточно_'
'Доставка_'
'Дон'
'Дом_'
'Дов'
'Дли'
'Дир'
'Детск'
'Дет'
'Действительно_'
'Дан'
'Грэ'
'Госпо'
'Гос'
'Гон'
'Гов'
'Главн'
'ГО'
'Впрочем_'
'Восточной_'
'Вопрос_'
'Вообще_'
'Возьми'
'Возвра'
'Вместе_'
'Вино'
'Види'
'Веро'
'Вели'
'Вашингтон'
'Вашей_'
'Ваше_'
'Ваше'
'Ванна'
'Ван'
'Важно_'
'ВВП_'
'Быстр'
'Брос'
'Бро'
'Бразилии_'
'Боюсь_'
'Большие_'
'Больш'
'Боль'
'Бли'
'Библи'
'Берн'
'Бель'
'Бег'
'Бе'
'Бас'
'Барби_'
'БИ'
'БЕ'
'Аф'
'Ат'
'Асс'
'Ари'
'Аренда_'
'Ант'
'Англи'
'Аллаха_'
'žív'
'ží'
'žár'
'žádám'
'žádosti_'
'žu_'
'žte_'
'žní'
'životního_'
'židl'
'ženou_'
'žena'
'Žádný_'
'Ů_'
'ťte_'
'šťastná_'
'šířka_'
'štil'
'špatný_'
'šp'
'šká'
'šit_'
'široké_'
'šik'
'šetř'
'šesti_'
'Španělsku_'
'Ši'
'říč'
'řím'
'říci_'
'řka_'
'řik'
'řih'
'řidič'
'řekněte_'
'řekli_'
'řed'
'Řím'
'Ří'
'Řekněte_'
'Řekli_'
'ňující_'
'ňuje'
'ěř'
'ěv'
'ěr_'
'ěn_'
'ělo_'
'ějším_'
'ěhoval'
'ěhl'
'ěc'
'ďa'
'číst_'
'čísla_'
'čínsk'
'čík'
'čár'
'čtyř'
'čokolád'
'čo'
'čné_'
'článk'
'čko_'
'čistý_'
'činy_'
'čil_'
'černý'
'čat'
'čan'
'č'
'Číně_'
'Český'
'ýva'
'ýna_'
'ýma_'
'ýba'
'úžasný_'
'úřad'
'účel'
'útoku_'
'útok'
'úspěch_'
'úspor'
'úrovní'
'úrok'
'úl'
'údajích_'
'ön'
'ón_'
'ó_'
'ížen'
'íže'
'íždě'
'íše_'
'íře'
'íčko_'
'ívá'
'ítí'
'ís'
'íre'
'íra'
'íma'
'íku_'
'ída'
'ícím_'
'éri'
'énu_'
'émi'
'éma'
'éb'
'ážn'
'ář'
'ází_'
'ávej_'
'áty_'
'átky_'
'ání'
'ánský'
'ánk'
'áni'
'álu_'
'áků_'
'áh'
'áce_'
'Ä_'
'Ã_'
'», «_'
'° _'
'®'
'} '
'zůstal_'
'zůsta'
'zřejmé_'
'získám'
'získá'
'získali_'
'zážit'
'zář'
'závěr'
'záv'
'zástupci_'
'zástupce_'
'zás'
'zápas'
'zákon_'
'základ'
'zákazníkům_'
'zábavu_'
'zábavn'
'zy'
'zvýši'
'zví'
'zvláštní_'
'ztrát'
'způsobit_'
'zpravodaj'
'zpracová'
'zoufal'
'známý_'
'zná_'
'znova_'
'zničil'
'značn'
'značky_'
'zmizel_'
'zku'
'zka_'
'zjev'
'zin'
'zie_'
'zemře'
'zdá'
'zdroje_'
'zdravotnick'
'zdory_'
'zdo'
'zbraní_'
'začínal'
'začn'
'začal'
'zavolal_'
'zare'
'zapomněla_'
'zapomněl_'
'zapom'
'zaplatit_'
'zaplat'
'zapa'
'zaměstná'
'zaměstnanc'
'zajíma'
'zajišťuje_'
'zajiš'
'zajisté_'
'zahraničních_'
'zahraniční_'
'zahradn'
'zachránil_'
'zabýva'
'zabí'
'zabrán'
'yti'
'yr'
'yp'
'yov'
'yn_'
'yl_'
'ykl'
'yg'
'yar'
'yan'
'xu_'
'xu'
'xt'
'wood'
'wh'
'webov'
'we_'
'vůle_'
'vůdc'
'všiml'
'všemi_'
'všeck'
'věří_'
'vězn'
'věrn'
'věce'
'výsledkem_'
'výroby_'
'výrobce_'
'výro'
'výhr'
'výhod'
'výbor'
'vída'
'váž'
'váz'
'vát'
'válc'
'vzájemně_'
'vztah'
'vzp'
'vznikl'
'vzhled'
'vzdělávání_'
'vzdělání_'
'vzdáleno'
'vzduch'
'vyžáda'
'vyž'
'vyš'
'vyč'
'vyvinu'
'vysvětlen'
'vysoké_'
'vyrovn'
'vypu'
'vyprávě'
'vypadat_'
'vyměn'
'vyhr'
'vyhn'
'vyda'
'vte'
'vrá'
'vrstvy_'
'voř'
'volá'
'volno'
'volit'
'voleb_'
'vole'
'volal'
'voják'
'vně'
'vním'
'vládní_'
'vkl'
'vidí_'
'vesnice_'
'vesni'
'verz'
'vej_'
'vazb'
'vaz'
'valy_'
'valo'
'uživatelsk'
'uživatele_'
'užit'
'ušk'
'uši'
'učini'
'učil'
'učení_'
'uál'
'uzná'
'uzn'
'uze'
'ux'
'uvědom'
'uvádě'
'uvo'
'uvn'
'utr'
'utili'
'usk'
'uru'
'uri'
'urg_'
'ur_'
'upřímn'
'upozorn'
'upov'
'uplatnit_'
'upi'
'upa'
'umožňují_'
'umožníte_'
'ument'
'umb'
'uklád'
'ukazují_'
'ukazatel'
'uka'
'ují'
'uer'
'ue'
'udrž'
'udi'
'ucí_'
'uch'
'ubli'
'třeb'
'těší'
'těst'
'tělesn'
'téma_'
'táto'
'tys_'
'typy_'
'tw'
'tvím_'
'tvém'
'tvář_'
'tutoriál'
'trubky_'
'trestn'
'transparentnost'
'tra_'
'tr_'
'toxi'
'tové_'
'tovo'
'tos_'
'tori'
'too'
'tomuto_'
'tně'
'tný'
'tl'
'tká'
'tka'
'tivo'
'titul'
'tisk_'
'tho'
'tf'
'text_'
'tet'
'testov'
'teploty_'
'teplota_'
'tentokrát_'
'tenk'
'temp'
'tem_'
'televize_'
'teen'
'ted_'
'technologií'
'tch'
'tat'
'tas'
'tal_'
'takto_'
'tajemství_'
'tace_'
'tac'
'sů'
'séri'
'sé'
'sán'
'synov'
'swa'
'svět'
'svá_'
'svobodu_'
'svobodný_'
'svobodn'
'svat'
'sva'
'sur'
'sund'
'sud'
'such'
'středn'
'střed'
'stín'
'stát'
'stáhnout_'
'stvoř'
'stup'
'studií'
'stud'
'stript'
'strategie_'
'stopy_'
'ston'
'stolu_'
'stolem_'
'stm'
'stin'
'stimul'
'sterstv'
'stejnou_'
'stavební_'
'stav'
'stat'
'starost'
'stanici_'
'standard'
'ssa'
'srdc'
'správně_'
'spravedlnosti_'
'spoléh'
'společensk'
'společ'
'spoleh'
'spln'
'spek'
'specifick'
'spe'
'sovi_'
'současně_'
'souhlasil'
'souhlas'
'souborem_'
'softwarová_'
'sod'
'sobotu_'
'snímk'
'snažím_'
'snažit_'
'snaž'
'směšn'
'směs'
'směj'
'smí'
'smysl'
'smlouva_'
'sluneční'
'slunce_'
'složen'
'slovník'
'sled'
'sladk'
'ském_'
'skutečný_'
'skop'
'sjedn'
'sit'
'sing'
'sign'
'seš_'
'sekundu_'
'sektor_'
'sehnat_'
'sedět_'
'sebe'
'sea'
'sděl'
'sdílen'
'sdíle'
'scén'
'scr'
'schopný'
'schopni_'
'schodech_'
'sbír'
'say_'
'sad'
'rš'
'rý'
'rán_'
'rál'
'rá_'
'ryba'
'ryb'
'ruč'
'rus'
'rum_'
'rst'
'ročně_'
'rozvojov'
'rozvoj_'
'roztr'
'rozpo'
'rozkazu_'
'rozhodovala_'
'rozhodli_'
'rozd'
'rozb'
'rová'
'rovi'
'rou'
'rostlin'
'ros'
'roll_'
'rodn'
'rodinný_'
'rne'
'risk'
'rich'
'ri_'
'reáln'
'rest'
'reso'
'repu'
'reproduk'
'reprezentac'
'rem_'
'rela'
'rekord'
'rekonstru'
'regulac'
'registrac'
'regionu_'
'red'
'recepce_'
'rc'
'rator'
'raně'
'rande_'
'raj'
'raf'
'raději_'
'půjde_'
'příčiny_'
'přítelkyni_'
'přístroje'
'přístroj'
'příspěvky_'
'příslušný_'
'přísah'
'přírodní_'
'případ'
'přímé_'
'příklad'
'příjmů_'
'přátelství_'
'přizpůsobit_'
'přiz'
'přitom_'
'přispě'
'přip'
'přines'
'přin'
'přimě'
'přil'
'přijíma'
'přijmout_'
'přije'
'přicház'
'přečíst_'
'přesu'
'přestaň'
'překvap'
'překlad'
'překl'
'předpoklad'
'přednost'
'přeb'
'pění_'
'pyšn'
'py'
'psycho'
'průmyslu_'
'prům'
'právník'
'práv'
'pru'
'provést_'
'provoz'
'proved'
'prosi'
'propojen'
'proměnil'
'proj'
'prohlédnout_'
'profesionální_'
'prodáva'
'prodej_'
'procház'
'procesor'
'princip'
'princezn'
'prezident_'
'pravý'
'pravidlo_'
'pravi'
'pravdiv'
'pracuje_'
'pracoval_'
'požár'
'požádat_'
'pošlete_'
'pošk'
'poří'
'pozva'
'poví'
'povrchu_'
'považ'
'použi'
'pouhý'
'potřeb'
'potr'
'postup'
'postav'
'postará'
'postara'
'poslat_'
'poskytova'
'poskytnout_'
'poru'
'porno_'
'porno'
'pora'
'por'
'populární_'
'poo'
'ponětí_'
'poně'
'pono'
'pomáhat_'
'pomáhal_'
'položky_'
'polo'
'polit'
'policist'
'policajt'
'pokl'
'pohodlný_'
'pohled'
'pohlav'
'pohl'
'poděl'
'podívejte_'
'podr'
'podpoři'
'podobný'
'podn'
'podmínek_'
'podl'
'podivn'
'pochybnosti_'
'pochyb'
'pocho'
'plyn_'
'plugin'
'plně_'
'plic'
'ples'
'platb'
'planetě_'
'pla'
'pite'
'pho'
'phi'
'peri'
'perfektní_'
'peněženk'
'pení_'
'parku_'
'pani'
'pamat'
'oře'
'očn'
'očil'
'ozen'
'ozem'
'ověř'
'ován'
'ovládáním_'
'ovlivn'
'ovi'
'ovatel'
'ované'
'oupil'
'ouc'
'otv'
'otrav'
'otn'
'osvě'
'osvobo'
'ostrov_'
'ostatním'
'osoba_'
'ose'
'orá'
'orov'
'orm'
'orit'
'organizova'
'orc'
'opá'
'opust'
'opravy_'
'opravdov'
'opil'
'ont'
'onemocnění_'
'oli_'
'olej_'
'oku_'
'okouzl'
'okna_'
'oje'
'ohledu_'
'oh_'
'ogo'
'oe'
'odvol'
'odve'
'odpověd'
'odpoušt'
'odpoledne_'
'odoln'
'odn'
'odkazy_'
'odkaz_'
'odkaz'
'odj'
'odit'
'odil'
'odhad'
'odešel_'
'ochrán'
'ochrann'
'oceán'
'obě'
'obí'
'obsazen'
'obsa'
'obráti'
'obrovský'
'oblo'
'objem'
'objedn'
'obchodě_'
'obchodu'
'obchodování_'
'obchodních_'
'obchod'
'obal'
'nž'
'nšt'
'něčeho_'
'někteří_'
'něj'
'něho'
'ný'
'nó'
'nástup'
'následující'
'následn'
'násilí_'
'náročn'
'nán'
'nálež'
'nále'
'nálad'
'nákladů_'
'náhrad'
'náhodou_'
'nádraží_'
'náct_'
'nábytek_'
'nzi'
'ntu_'
'nth'
'nstalov'
'nsk'
'nova'
'nosi'
'normáln'
'nor'
'nne'
'nna'
'nitr'
'nikam_'
'nh'
'nf'
'neřek'
'neř'
'neče'
'neznám'
'nezmínil'
'nezk'
'nezd'
'nezbytné_'
'nezapom'
'ney_'
'nevěří'
'neví_'
'neví'
'nevrátí'
'nevinn'
'neviděla_'
'nevidí'
'nevid'
'nevadí_'
'neva'
'neus'
'neumí'
'neuděl'
'neslyš'
'nesk'
'nese'
'nerv'
'neprodleně_'
'nepom'
'neom'
'nemáme_'
'nemyslím_'
'nemusí'
'nemohou_'
'nemocnice_'
'nemocn'
'nemoci_'
'neme_'
'nem_'
'nejz'
'největších_'
'nejv'
'nejst'
'nejsme_'
'nejr'
'nejp'
'nejnovější'
'nedělejte_'
'nedávn'
'nedá'
'nedovol'
'nedostatečn'
'nedos'
'nedaleko_'
'necháv'
'nechá'
'nec_'
'nebezpečn'
'nea'
'nda'
'nci_'
'nbsp_'
'nazývá_'
'navrh'
'nat_'
'nastavit_'
'narodil'
'napln'
'namí'
'naléhav'
'najde_'
'naja'
'nai'
'nahra'
'nahl'
'naf'
'naděje_'
'nacist'
'mů'
'měsí'
'mění_'
'míč'
'míst_'
'mzd'
'myšlenky_'
'myš'
'mužsk'
'muselo_'
'mrzí_'
'mrtvé'
'mp_'
'moři_'
'motoru_'
'morál'
'monitor'
'moji_'
'mohu_'
'modlit'
'mobilní_'
'mobil'
'mne_'
'mládež'
'mluv'
'minimáln'
'mimochodem_'
'miluje_'
'milos'
'miliard_'
'mezinárodní'
'metoda_'
'mem'
'medvěd'
'mec'
'max_'
'materiálů_'
'masáž_'
'mast'
'masov'
'mask'
'mari'
'manov'
'malou_'
'lž'
'lůžkový_'
'lů'
'lím_'
'líbil'
'líb'
'léč'
'lém'
'lékařské'
'lék'
'lásky_'
'lásku_'
'lán'
'ládá'
'lv'
'lus'
'louch'
'lon'
'logo'
'lný'
'lné_'
'ller'
'lle_'
'lla_'
'livě_'
'litr'
'levn'
'letou'
'lepším'
'leo'
'lení_'
'lekce_'
'legra'
'legitim'
'lde'
'lc'
'laskav'
'las'
'laboratoř'
'křesťan'
'kázal'
'káme'
'kytar'
'kyně'
'kuchyně_'
'kuch'
'kterém_'
'krátkodobé'
'krásné_'
'král'
'kresl'
'krabic'
'koření_'
'kovov'
'kova'
'kouše'
'kousky_'
'koupelna_'
'kouk'
'konzerv'
'konverz'
'kontroly_'
'kontaktujte_'
'kontaktováním_'
'kongres'
'konfigur'
'koncep'
'komu'
'komponent_'
'komplex'
'komi'
'komentář'
'kolek'
'kolej'
'kok_'
'kob'
'kni'
'kluka_'
'klub_'
'kliknout_'
'kles'
'klan'
'kdykoli'
'kdyby'
'kdož_'
'kcí_'
'kci'
'každá_'
'kavárn'
'kate'
'kat'
'kanály_'
'kampa'
'kamer'
'kamaráde_'
'kalhoty_'
'kafe_'
'kab'
'jím_'
'já'
'jt'
'jov'
'jní'
'jménem_'
'jinam_'
'jimi'
'jim'
'jiho'
'jezer'
'jel'
'jejím'
'jednoduchá_'
'jedl'
'jedinou_'
'jedinečn'
'jedem'
'jdete_'
'jakým_'
'jaký'
'jakoby'
'išti_'
'iš_'
'iř'
'ičku_'
'ix'
'ivě_'
'ivý'
'ivn'
'itě_'
'ité_'
'itá'
'itu_'
'itu'
'itost'
'iti'
'ite_'
'ison_'
'ism'
'ise_'
'ior_'
'investova'
'investiční_'
'interiér'
'integrova'
'integr'
'instituce_'
'instalova'
'instalace_'
'instal'
'inspir'
'inn'
'ini_'
'indick'
'imi'
'ime'
'im'
'ile_'
'ile'
'ikov'
'identi'
'ickou_'
'ice'
'hydra'
'hudbu_'
'hta'
'ht_'
'hrá'
'hry'
'hoši_'
'hovo'
'host_'
'hospodářský_'
'hoo'
'hokej'
'hodný_'
'hni'
'hmot'
'hlá'
'hluboko_'
'hloub'
'hledá'
'hlavní'
'hlav'
'hlasov'
'hl_'
'histori'
'hezký_'
'hea'
'haz'
'hat'
'gy'
'gue_'
'gua'
'gt'
'gs'
'gru'
'gres'
'gli'
'ges'
'gang'
'fung'
'ft_'
'fri'
'free'
'formátu_'
'formulář'
'fore'
'financ'
'fig'
'field_'
'fant'
'faktor'
'fa_'
'ež'
'eň'
'eční'
'exu'
'exo'
'evropské_'
'este'
'esi_'
'erá'
'erie_'
'epi'
'eně'
'ených_'
'entu'
'enství_'
'ensk'
'energetick'
'elně'
'elektroni'
'ekonomika_'
'eg'
'edito'
'editaci_'
'eck'
'důvěry'
'dů'
'dělala_'
'dědictví_'
'díly_'
'démon'
'délku_'
'dáva'
'dáte_'
'dvac'
'duševní'
'duše_'
'dub'
'dsk'
'drahá_'
'dow'
'dovednost'
'dosáhl'
'dostupn'
'dostal'
'doprava_'
'doporučení_'
'dopo'
'doplňk'
'domov_'
'dole_'
'dokonč'
'dod'
'dobrého_'
'dní'
'dnou'
'dneš'
'dnech_'
'dluh'
'dlouhá_'
'dlouhodobé'
'dlouh'
'displaystyle_'
'digitální'
'dic'
'df'
'desky_'
'design_'
'demokracii_'
'daří_'
'daňové_'
'dav'
'databáze_'
'd2'
'cukr_'
'cos_'
'clu'
'cla'
'cku_'
'cka_'
'cizinc'
'civ'
'cie'
'chy_'
'chvíle_'
'chu'
'chová'
'chlo'
'chlapče_'
'chlape_'
'chemick'
'charakteri'
'cestovat_'
'ces'
'certifik'
'ceně_'
'cele'
'běží_'
'běž_'
'bělo'
'běh'
'bytě_'
'bytu_'
'bysme_'
'bul'
'budova_'
'brou'
'bratra_'
'brat'
'box_'
'bour'
'bot'
'bord'
'book'
'blázen_'
'blond'
'bla'
'bitv'
'bilní_'
'bezplatný_'
'bezpečný_'
'bezpečnostní'
'bere_'
'bek'
'barevné'
'bare'
'bankovn'
'band'
'bab'
'ažen'
'azuje_'
'azov'
'aya'
'avšak_'
'aur'
'até'
'atu'
'atk'
'ate_'
'asn'
'ary_'
'arg'
'archiv'
'arb'
'aplikací_'
'ans'
'ank'
'angličtin'
'ane_'
'amerických_'
'ame'
'alternativ'
'aktualizován'
'aktivov'
'aktiv_'
'ai_'
'ahu_'
'affiliate_'
'adu_'
'adla_'
'adil_'
'adel'
'aca'
'ac_'
'absol'
'\'
'Zítra_'
'Západ'
'Zve'
'Ztratil'
'Zpr'
'Zna'
'Změn'
'Zkus'
'Zi'
'Zač'
'Zatraceně_'
'Zapo'
'Zamě'
'Zam'
'Založ'
'Zajímav'
'Zaj'
'You_'
'Yeah_'
'XP_'
'Washington'
'Wall'
'WA'
'Většina_'
'Výrobc'
'Výrob'
'Východ'
'Vypadáš_'
'Vra'
'Viz'
'Villa'
'Vie'
'Vidím_'
'Victor'
'Vezm'
'Ven'
'Velmi_'
'Velke_'
'Ust'
'Univerz'
'Union_'
'Uklidn'
'Udělám_'
'Udělal'
'UK_'
'Tří'
'Třeba_'
'Tře'
'Tě'
'Twi'
'Tw'
'Turner'
'Turk'
'Trpaslík'
'Travel'
'Trad'
'Town_'
'Top_'
'Tin'
'Tich'
'Thomas'
'Tha'
'Tetování'
'Tep'
'Teda_'
'Tar'
'Tam'
'Takový_'
'Tahle_'
'Tagy_'
'Tag'
'Tab'
'TH'
'TED'
'TC'
'Sám_'
'Swe'
'Střední'
'Stát_'
'Studie_'
'Student'
'Stránk'
'Stat'
'Stal'
'Stahnout'
'Správně_'
'Spring'
'Sovětsk'
'Současn'
'South_'
'Soukrom'
'Sophie_'
'Sní'
'Služba_'
'Slun'
'Slot'
'Slib'
'Sl'
'Sky'
'Skvěl'
'Skr'
'Sko'
'Sit'
'Sie'
'Sid'
'Seže'
'Sex_'
'Sex'
'Sar'
'Samo'
'Sama'
'STR'
'SR_'
'SM'
'Rá'
'Ryan'
'Ruska_'
'Rp_'
'Rozp'
'Rozl'
'Rozhodně_'
'Rozd'
'Rovněž_'
'Rose_'
'Rom'
'Robert'
'Rezervovat_'
'Rez'
'Rev'
'Restaurant_'
'Restaurace_'
'Recenze_'
'Rec'
'Raj'
'RF'
'REZERVOVAT_'
'RC'
'Přísah'
'Přís'
'Přímo_'
'Přík'
'Přišel_'
'Připraven'
'Přip'
'Přesta'
'Překlad_'
'Pána_'
'Psa'
'Průvodce_'
'Prv'
'Proto'
'Proti'
'Prote'
'Prohl'
'Produkt'
'Prodej_'
'Proboha_'
'Pravd'
'Prah'
'Pracovní_'
'Pošl'
'Potřebuješ_'
'Potřebujeme_'
'Popis_'
'Poly'
'Pokoj'
'Point'
'Podív'
'Podobn'
'Podařilo_'
'Poch'
'Ple'
'Play_'
'Pie'
'Petere_'
'Penziony_'
'Pavel_'
'Patric'
'Paroháč'
'Pana'
'Pala'
'Pai'
'PT'
'PRO_'
'PP_'
'POL'
'PLN_'
'Očividně_'
'Ou'
'Otevře'
'Ost'
'Odpověď_'
'Obs'
'Obd'
'OS'
'OF'
'Němc'
'Novinky_'
'Nova'
'Nesmí'
'Nepos'
'Nenech'
'Nemůžete_'
'Nemůžeme_'
'Neko'
'Nejspíš_'
'Nejsou_'
'Nejde'
'Neh'
'Nechápu_'
'Nechám'
'Nebylo_'
'Nebuď_'
'Našli_'
'Naš'
'Navíc_'
'National_'
'Nar'
'Najděte_'
'Nabídka_'
'NIC'
'NG_'
'NASA_'
'Měl'
'Mě'
'Máma'
'Má'
'Mysl'
'Musíte_'
'Muse'
'Moskv'
'Mos'
'Mora'
'Mono'
'Mona'
'Mol'
'Moh'
'Model_'
'Mluví'
'Mlad'
'Mit'
'Minulý_'
'Mini_'
'Mill'
'Mike'
'Mes'
'Meg'
'Matk'
'Mann'
'Mala'
'Madrid_'
'MS'
'MP4_'
'MP3_'
'Luk'
'Lucembursk'
'Londýn'
'Listopadu_'
'Lind'
'Levné_'
'Lane_'
'Land'
'Lag'
'LK'
'LED_'
'LD'
'Kód_'
'Kéž_'
'Krásn'
'Královs'
'Král'
'Krist'
'Kouk'
'Kolo'
'Koho_'
'Klientské_'
'Kla'
'Kim'
'Kel'
'Kdybych_'
'Karlov'
'Kapitán_'
'KVĚTINÁŘSTVÍ_'
'KON'
'KI'
'KA'
'Johann'
'Ježíši_'
'Její_'
'Jednoduše_'
'Jay'
'Jana_'
'Jam'
'JT'
'JI'
'JE'
'Ivan'
'Itáli'
'Ital'
'Inv'
'Internet'
'Info'
'Ide'
'Ia'
'IV_'
'IN_'
'ID'
'Hz_'
'Hub'
'Hou'
'Hoo'
'Hon'
'Hn'
'Hlavně_'
'Historie_'
'High'
'Hezk'
'Hen'
'Hei'
'Hard'
'Hann'
'Hank'
'HE'
'Gus'
'Gri'
'Green_'
'Green'
'Goo'
'Golf_'
'Gol'
'Gm'
'Gla'
'Gin'
'Gall'
'Gal'
'Gab'
'GHz_'
'GE'
'GB_'
'Frie'
'Františ'
'Fotograf'
'Fort'
'Flori'
'Florencie_'
'Fli'
'Fl'
'Fal'
'Fakt_'
'FT'
'FOR'
'FM_'
'FL'
'Eri'
'Emm'
'Ell'
'Elen'
'Elektr'
'Ei'
'Edi'
'Eco'
'Ear'
'Ea'
'EZ'
'EU'
'EA_'
'Dů'
'Dět'
'Dělám_'
'Dělej_'
'Děkujeme_'
'Dánsk'
'Dvoulůžkový_'
'Duk'
'Dream'
'Douf'
'Dos'
'Dor'
'Donn'
'Doká'
'Doktor'
'Dokonce_'
'Dobr'
'Digit'
'Die'
'Deutsch'
'Design'
'Dep'
'Def'
'Deb'
'Day_'
'Davi'
'Dallas_'
'DN'
'DEN'
'Cítím_'
'Cro'
'Cri'
'Cree'
'Creator'
'Cos'
'Copak_'
'Convention_'
'Control_'
'Colo'
'Cle'
'Cis'
'Cin'
'Chuck'
'Chceme_'
'Charles'
'Cesta_'
'Certifik'
'Celkov'
'Cast'
'Carrie'
'CZ_'
'CT'
'CS_'
'CP'
'CI_'
'CC_'
'CA_'
'Bě'
'Bíl'
'Bá'
'By'
'Business_'
'Bull'
'Budete_'
'Brian'
'Brad'
'Bow'
'Boo'
'Blu'
'Blo'
'Blair'
'Bl'
'Bitcoin_'
'Big_'
'Best_'
'Beru_'
'Bern'
'Berl'
'Belgi'
'Bel'
'Beck'
'Bak'
'Bah'
'Babi'
'BY'
'BU'
'BN'
'BB'
'Autor'
'Auto_'
'Austrálie_'
'Austr'
'Atlant'
'Ass'
'Arti'
'Archi'
'App_'
'Antalya_'
'Amp'
'All_'
'Alan'
'Akc'
'Air'
'Aha_'
'Agent'
'Afrik'
'Adr'
'Ado'
'Aby'
'AVI_'
'AT_'
'AS_'
'AG_'
'?»_'
': +_'
'98'
'93'
'800'
'775_'
'750'
'720'
'700_'
'5hvězdičkové_'
'468'
'357'
'340'
'280_'
'270'
'267'
'252'
'238_'
'233'
'230'
'218'
'216_'
'211'
'210'
'1994_'
'1992_'
'1990_'
'1989_'
'1988_'
'1974_'
'1970_'
'1968_'
'1948_'
'188'
'167'
'163'
'162'
'159'
'153'
'130_'
'129'
'121'
'111_'
'109'
'104_'
'102'
'.“_'
'. ..._'
'. .'
',,'
', ..._'
', *._'
', (_'
');_'
'%, _'
'!!!'
' №_'
' —'
' –_'
' ​​_'
' « _'
' | _'
' \\ _'
' ... '
' ...'
' -> _'
' ***'
'�����������'
'���������'
'�����'
'��'
'� ������������'
'™'
'† _'
'“. _'
'‑'
'י'
'ѕ'
'ёх'
'ёрс'
'ёны'
'ёнок_'
'ёнк'
'ёвк'
'ёв'
'яю_'
'ящих_'
'ящик'
'ятн'
'ятел'
'ят'
'янск'
'яно'
'яние'
'яна'
'яло'
'яла_'
'як'
'яйц'
'яич'
'яды'
'ядр'
'яде'
'яд_'
'явн'
'ющим_'
'ющее_'
'ющая_'
'юрис'
'юридическ'
'юри'
'югу_'
'юг'
'эффективное_'
'этическ'
'этими_'
'этапе_'
'эст'
'эро'
'энерго'
'энергетики_'
'эмоциональн'
'эмоци'
'эмб'
'эль_'
'элементов_'
'элемент'
'электричес'
'экспон'
'эксплуатации_'
'экраном_'
'экономический_'
'экономист'
'экономику_'
'экзамен'
'ьше_'
'ьф'
'ьтесь_'
'ьств'
'ьское_'
'ьет'
'ьер'
'ьва'
'ьб'
'ышлен'
'ысл'
'ыпа'
'ывает_'
'ываем'
'ъемл'
'щит'
'щина_'
'щик_'
'щем_'
'щее_'
'щая_'
'шую_'
'шутк'
'шум'
'штраф'
'шпи'
'шны'
'шний_'
'школьны'
'шко'
'шка'
'шими_'
'шим_'
'шестви'
'шей_'
'шая_'
'шах'
'шари'
'чрезмерно'
'чными_'
'чным_'
'чное_'
'чно_'
'члены_'
'членам'
'чке'
'читать_'
'чистк'
'чинов'
'чж'
'чеш'
'четв'
'чет_'
'ческим_'
'чески'
'черт_'
'чера'
'ченны'
'человеческо'
'человеч'
'человеку_'
'частот'
'частны'
'частно'
'частн'
'частично'
'чани'
'чайш'
'цко'
'цифровой_'
'цито'
'цит'
'цикла_'
'цикл_'
'цивилиз'
'церковь_'
'церемони'
'центро'
'ценит'
'цен_'
'целый_'
'целостност'
'царь_'
'цами_'
'ххх'
'художник'
'художественн'
'хро'
'христиан'
'храм'
'хот'
'хорошего_'
'хорошая_'
'холодильником_'
'ходят_'
'ходит_'
'хни'
'хим'
'хватит_'
'хау'
'хат'
'фур'
'функционировани'
'функцион'
'фруктов'
'фре'
'франк'
'фондов'
'фли'
'фит'
'фир'
'финансовый_'
'финансовой_'
'финанс'
'фильмы_'
'фильме_'
'философ'
'физическо'
'физическим'
'физик'
'фет'
'февр'
'фас'
'фантасти'
'фам'
'факс'
'файл'
'уя_'
'ующий_'
'ующи'
'ущий_'
'ушн'
'уш'
'учить_'
'учитывая_'
'учитыва'
'учи'
'участников_'
'участник'
'участи'
'утся_'
'утству'
'уточн'
'утвержда'
'ута'
'устран'
'установк'
'установить_'
'устанавлива'
'устал'
'усск'
'усн'
'услуга'
'условиям'
'усло'
'усилива'
'урок_'
'урок'
'управляе'
'управл'
'упл'
'упи'
'упал_'
'уничтожить_'
'уничтожи'
'уничтожени'
'университет'
'уне'
'умре'
'уменьшает'
'умее'
'ульта'
'улыб'
'улир'
'укус'
'укра'
'укл'
'указывает_'
'указанными_'
'уи_'
'узнает_'
'узнаем_'
'ужас'
'уем_'
'удовлетворен'
'удни'
'удит'
'удил'
'удивл'
'удив'
'углу'
'угл'
'увидит_'
'увид'
'уверенн'
'увеличения_'
'убийца_'
'убежд'
'убедитесь_'
'тяжело_'
'тыс_'
'турнир'
'турист'
'туризма_'
'туп'
'тск'
'трёх_'
'трудом_'
'трех'
'третьем_'
'третий_'
'тренировк'
'тренер'
'трем'
'требуют_'
'тратить_'
'трансформ'
'транспортно'
'транспортир'
'традиционны'
'траг'
'травм'
'точност'
'торговой_'
'торгового_'
'торгов'
'топ'
'тный_'
'тно_'
'тм'
'тия_'
'тических_'
'тически_'
'тить'
'тит_'
'тинг_'
'тили'
'тик'
'тивны'
'тивно'
'технологически'
'технологич'
'техническ'
'техники_'
'теряе'
'территори'
'терпи'
'терп'
'терн'
'терапевт'
'тера_'
'тепл'
'тенденци'
'теме_'
'тема'
'тельных_'
'тельность'
'телефоне_'
'телеви'
'текст_'
'творит'
'твоих_'
'тать'
'таре'
'танцев'
'тамо'
'тальн'
'тали'
'такими_'
'таз'
'тав'
'таб'
'сын'
'сыва'
'съед'
'считае'
'счетчик'
'счета'
'счасть'
'счастлив_'
'существующ'
'существ'
'суш'
'суточн'
'супруг'
'судьб'
'судь'
'суди'
'суде_'
'субъект'
'студентов_'
'стс'
'стру'
'строительств'
'стремится_'
'стратегическ'
'странны'
'странице_'
'стоял'
'сточ'
'сторон_'
'столь_'
'столкнул'
'столиц'
'стка_'
'стическ'
'стим'
'стивал'
'стесн'
'стер_'
'степень_'
'ственным'
'ственно'
'статистик'
'стары'
'станови'
'стандартны'
'стандартн'
'стандартам'
'сталь'
'сталкива'
'стадион'
'ссылки_'
'ссыл'
'ссе'
'средни'
'среднего_'
'сравните'
'сравни'
'сра'
'спя'
'спустя_'
'спуска'
'спрос_'
'способны'
'способе'
'спортивн'
'спокойно'
'спокой'
'специально_'
'специалистов_'
'специалиста'
'спасти_'
'спаса'
'спа_'
'сочетание_'
'соч'
'социальных_'
'социальной_'
'социально_'
'социалист'
'сохранени'
'сохран'
'сотрудничества_'
'сотр'
'сотни_'
'составл'
'составе_'
'состав'
'сорт'
'сопротивлени'
'соп'
'сообщил_'
'сообще'
'сообщает_'
'сона_'
'сократит'
'сож'
'соединени'
'содержит_'
'содержат'
'содейств'
'соглаша'
'согласил'
'совместн'
'совершенн'
'соверша'
'собственны'
'собрани'
'собирае'
'собак_'
'сны'
'сна_'
'смотрит'
'смогла_'
'сми'
'смех_'
'смес'
'смени'
'смартфон'
'сма'
'слышали_'
'случайно'
'случаи_'
'служит'
'словно_'
'следующее_'
'следующ'
'следствие'
'следов'
'следить_'
'скрыть_'
'скро'
'скоростью_'
'скажете_'
'сиян'
'синхрон'
'сини'
'симптом'
'сильные_'
'сильнее_'
'сии_'
'сидел'
'сид'
'сет'
'сес'
'сердца_'
'сена'
'семье_'
'семинар'
'семей'
'сексуальны'
'сейфом_'
'сегодняшний_'
'сегодняшн'
'сег'
'сделано_'
'связано_'
'связа'
'свяж'
'свин'
'сви'
'света_'
'свеже'
'свед'
'свадьбы_'
'свадьб'
'св'
'сбор_'
'сбере'
'сбе'
'сать_'
'сат'
'самостоятельно_'
'самоо'
'самолет_'
'сами'
'сай'
'сада_'
'рэ'
'рыба'
'рх'
'руч'
'русски'
'русс'
'руководитель_'
'руковод'
'рубеж'
'рубашк'
'ртн'
'рт_'
'рочн'
'российские_'
'росл'
'роскош'
'рой'
'рои'
'рожде'
'рода_'
'ровен'
'рна'
'рми'
'рить'
'риску'
'риска'
'рио'
'рина_'
'рика'
'рии_'
'риа'
'ржа'
'решить_'
'решит'
'решили_'
'реша'
'реци'
'реформа'
'репутаци'
'ренн'
'ремонт_'
'религиозн'
'религии_'
'резки'
'режима_'
'редактирования_'
'рева'
'ребенку_'
'реальность'
'реально'
'реализова'
'реал'
'реакции_'
'реагир'
'рб'
'ращен'
'раща'
'расширением_'
'расте'
'расстро'
'расстр'
'рассмотре'
'расслаб'
'рассказал'
'распр'
'расположенны'
'раска'
'рано_'
'ранее_'
'раков'
'разум'
'разнообразны'
'размера_'
'размер'
'разме'
'разговор'
'развитию_'
'развивается_'
'разве_'
'радо'
'рабочим_'
'рабочий_'
'рабочие_'
'работодател'
'работник'
'пытаются_'
'пыт'
'пусто'
'пуск'
'пункта'
'публикации_'
'птицы_'
'птиц'
'прямы'
'прямой_'
'пря'
'прощения_'
'процедура'
'проход'
'профессиональны'
'профессионально'
'протокол'
'просты'
'пространство_'
'проста'
'пропорци'
'пропал'
'проко'
'пройд'
'произош'
'произойдет_'
'производстве'
'производительности_'
'производителе'
'производител'
'произве'
'произ'
'проекто'
'прое'
'продукци'
'проду'
'продолжительн'
'продолжи'
'продолжается_'
'продл'
'продать_'
'продавал'
'проверя'
'проверк'
'провед'
'прова'
'проблемами_'
'проби'
'приятн'
'причинам_'
'приходи'
'присоедини'
'приняты'
'принят'
'принцесс'
'принимае'
'прими'
'примечател'
'применять_'
'приложении_'
'приложени'
'прили'
'призыв'
'призван'
'призвал_'
'приехать_'
'придума'
'приго'
'приводя'
'привлека'
'привет'
'приведё'
'приведет_'
'прибыти'
'приближа'
'прибли'
'преступник'
'преступлений_'
'преступлени'
'пресс_'
'пресс'
'препод'
'преодоле'
'преоб'
'премьер_'
'прекрасной_'
'президентс'
'през'
'преж'
'предыдущих_'
'предупреждени'
'представляют_'
'представляю'
'представление_'
'предсказ'
'предпочтительн'
'предположить_'
'предпо'
'предоставляемы'
'предоставленн'
'предложение_'
'предложени'
'предварительно_'
'пред_'
'практику'
'правом_'
'правлени'
'править_'
'правильны'
'правил_'
'правил'
'правам'
'пр'
'появилось_'
'появи'
'появ'
'почты_'
'почта_'
'почи'
'поцел'
'похорон'
'похожа'
'похож'
'потребностям'
'потребности_'
'потребност'
'потреблени'
'потребител'
'пото'
'потеряли_'
'потенциально'
'постоянным'
'постоянны'
'пости'
'посольств'
'посо'
'посмотри_'
'последу'
'последова'
'последних_'
'посещения_'
'посетить_'
'посетител'
'посвящен'
'порно_'
'порази'
'попытки_'
'поощр'
'поняти'
'поня'
'понравилось_'
'понимаем_'
'понде'
'поможе'
'помогут_'
'поми'
'поляк'
'польск'
'получите_'
'получит'
'получилось_'
'полученных_'
'полученн'
'полос'
'положит'
'полово'
'полное_'
'полк'
'политические_'
'политик'
'полагаю_'
'полагае'
'пола_'
'покупатель'
'покрыти'
'показало'
'показали_'
'пойдет_'
'позор'
'позднее_'
'позвонил_'
'позволяют_'
'позволь'
'позав'
'позаботи'
'пожи'
'пожар'
'пожа'
'поед'
'подумать_'
'подтвержда'
'подт'
'подруг'
'подпис'
'подозреваем'
'подо'
'подняться_'
'подлеж'
'поде'
'поддержк'
'поддержива'
'подготовил'
'повышенны'
'повыша'
'повторять'
'повтор'
'повлиять_'
'поверхность'
'поведения_'
'поведение_'
'побочные_'
'победит'
'победи'
'пневмони'
'площади_'
'плоским_'
'плодо'
'плен'
'племен'
'платформы_'
'платить_'
'планы_'
'планеты_'
'плавани'
'плава'
'пишу'
'пиш'
'пич'
'письмо_'
'писать_'
'пират'
'пиз'
'пи_'
'печь_'
'песня_'
'песню_'
'перечислен'
'перестан'
'перестал'
'перест'
'пересе'
'перера'
'перер'
'перемен'
'перез'
'передач'
'переводит'
'перево'
'первые_'
'первоначально'
'пенси'
'пенди'
'пей'
'пед'
'пах'
'патологи'
'партнерам'
'партнера'
'партию_'
'паро'
'парн'
'парковка_'
'паразит'
'папк'
'пани'
'панели_'
'памяти_'
'пальцев_'
'пале'
'пакет'
'ощу'
'ошибок_'
'ошиб'
'очной_'
'очк'
'очищ'
'очередн'
'очевидным_'
'оч'
'оц'
'охраня'
'охот'
'оформлен'
'офицер_'
'отча'
'отцом_'
'отц'
'отходов_'
'отслежива'
'отрица'
'отрасли_'
'отрасл'
'отношение_'
'относ'
'отни'
'отмен'
'отме'
'отличи'
'отлича'
'открыти'
'открыт'
'открыл'
'открое'
'отказался_'
'отказ'
'отдых'
'отвле'
'отб'
'осуществ'
'островов_'
'остановиться_'
'остановил'
'останавлива'
'оставил_'
'оста'
'осозна'
'особенности_'
'особ'
'основы'
'осна'
'осле'
'осен'
'освободил'
'осад'
'оруже'
'ород'
'ордер'
'органо'
'организм'
'организ'
'оптим'
'опри'
'определяют'
'оппозици'
'опоздал'
'оплачива'
'описание_'
'операция_'
'операционн'
'оператор'
'опе'
'опасных_'
'опасности_'
'ону'
'онов_'
'онных_'
'онк'
'оним'
'омы'
'оль_'
'олов'
'оле'
'ола'
'ол_'
'оксид'
'окси'
'окружени'
'окружающей_'
'окружающ'
'округ'
'окрас'
'окончательно'
'окон_'
'окк'
'оке'
'оказать'
'оказа'
'озеро_'
'озд'
'ожить_'
'ожено'
'одол'
'однос'
'одни_'
'однажды_'
'одн'
'одиночеств'
'огромны'
'огромно'
'ограничи'
'ограничений_'
'овыва'
'ову'
'овощ'
'ово_'
'овн'
'ован'
'обязательств'
'обязательны'
'обязательно'
'обыч'
'обыск'
'объясня'
'объявл'
'объя'
'объектов_'
'объекта'
'объединен'
'общий_'
'общественные_'
'обществе_'
'обществ'
'обучения_'
'обус'
'обу'
'обсужд'
'обратит'
'обоснован'
'оборудованы_'
'оборот'
'обороны_'
'обожа'
'обновления_'
'обнаружил'
'обнаружива'
'обм'
'облак'
'обл'
'обита'
'обеспеч'
'обеи'
'обез'
'обе'
'нём_'
'нял'
'ню'
'нье_'
'нча'
'нч'
'нци'
'нус'
'нула'
'нув'
'нтр'
'нств'
'нско'
'нский_'
'нравил'
'ноябр'
'нош'
'нот'
'носить_'
'нормально'
'ноз'
'ноги'
'ног_'
'новени'
'нов_'
'нны'
'нно_'
'нно'
'нне'
'нна'
'нко'
'ническо'
'нически'
'ниц_'
'никам'
'никакого_'
'никак_'
'низким_'
'несчаст'
'неста'
'несет_'
'нере'
'нерв'
'неприятно'
'непрерывно'
'неправильно'
'непосредственн'
'неожиданно'
'необходимая_'
'необ'
'немц'
'немало'
'неку'
'нек'
'нейтральн'
'ней'
'неизвестн'
'незначительн'
'незаме'
'независимо_'
'независим'
'нежели_'
'нежела'
'недостатком_'
'неда'
'невы'
'невозможн'
'невер'
'неве'
'неба_'
'нд_'
'началась_'
'национальной_'
'научных_'
'научны'
'научить'
'нать_'
'насы'
'насч'
'настроен'
'населен'
'насекомы'
'наряд'
'наруш'
'нару'
'наркотики_'
'наркотик'
'нарко'
'нара'
'напуга'
'напряжение'
'направлены_'
'направленн'
'направлени'
'напоминает_'
'напиш'
'напитков_'
'написал_'
'наличи'
'наказания_'
'наказание'
'найдёт'
'найду'
'найдены_'
'называ'
'назвали_'
'надцат'
'надп'
'надежно'
'нагруз'
'навыки_'
'наво'
'нави'
'наблюдал'
'мягко'
'муч'
'мута'
'мун'
'муз'
'мужчину_'
'мужчинам'
'мужск'
'мудр'
'мощности_'
'моч'
'мотрим_'
'мот'
'мос'
'морско'
'монитор'
'монет'
'молодеж'
'молитв'
'молекул'
'модернизаци'
'моделей_'
'мого_'
'мобильных_'
'мобильно'
'мобил'
'многом'
'мна'
'мл'
'мисси'
'мирового_'
'минус'
'министра'
'министр_'
'минимальн'
'миллиона_'
'миллион'
'мид'
'мигра'
'мечта'
'механически'
'механи'
'метода'
'месячн'
'местны'
'местности_'
'мести'
'меняется_'
'международного_'
'медицинско'
'медицин'
'мебел'
'мба'
'машиной_'
'машине_'
'мато'
'материалов_'
'материала_'
'матер'
'математик'
'масси'
'марка_'
'мамой_'
'мам_'
'мал'
'мад'
'ляют'
'любые_'
'любую_'
'любила_'
'льт'
'льным_'
'льной_'
'лучшим_'
'лучшей_'
'лучшая_'
'лоч'
'лоп'
'локальн'
'лок_'
'ложи'
'логическо'
'лог'
'лка_'
'лия'
'лишен'
'личе'
'литератур'
'лите'
'лие'
'либерал'
'лжи'
'лечении_'
'летних_'
'лестниц'
'леко_'
'лекарства_'
'лека'
'легче_'
'лаш'
'латин'
'лар'
'лами'
'лак'
'лазер'
'лаз'
'куск'
'курса_'
'купо'
'куп'
'крыш'
'кры'
'крупным'
'крупно'
'кровян'
'кроватью_'
'критике_'
'крит'
'кризиса_'
'кредитн'
'красны'
'красавиц'
'кош'
'коротки'
'короля_'
'коридор'
'копировани'
'копа'
'концентраци'
'конце'
'конц'
'конфликта'
'конференци'
'контент'
'консультаци'
'консульт'
'консе'
'конкурент'
'конкретно_'
'конечност'
'коне'
'кондиционером_'
'конверт'
'конвенци'
'компьютера_'
'компьютер_'
'компоненты_'
'компенс'
'коммунист'
'комментари'
'комисс'
'комбин'
'колони'
'колебани'
'кнуть'
'книгу_'
'ключевые_'
'клон'
'климата_'
'климат'
'клиенты_'
'клиента_'
'клетки_'
'класси'
'кл'
'кислорода_'
'кисл'
'кин'
'кет'
'квит'
'квартал'
'кв'
'качественны'
'категори'
'карта'
'кари'
'капитали'
'капитала_'
'капитал'
'кани'
'кандидат'
'кан_'
'кампании_'
'каз'
'каждую_'
'каждому_'
'каждая_'
'каж'
'кадр'
'кав'
'кабинет_'
'кабельн'
'каб'
'йши'
'йствова'
'йско'
'йские_'
'йски'
'йс'
'йл_'
'йг'
'иями_'
'ише'
'ична'
'ичи'
'ически'
'ическая_'
'ице'
'ихся_'
'иу'
'ителя_'
'ителей_'
'итальянский_'
'итальянск'
'итае'
'исчеза'
'исты_'
'истическ'
'ист'
'испытать_'
'испытания_'
'используя_'
'используем'
'исполни'
'исламск'
'иску'
'искр'
'ироваться_'
'ированных_'
'иров'
'ирай'
'ир_'
'ипе'
'иным'
'инфляци'
'интернет'
'интересные_'
'интересам'
'интенсивны'
'интеллектуальной_'
'интеллектуальн'
'интеллект'
'инструмент_'
'инструкци'
'институт_'
'инсти'
'иностран'
'иное_'
'инка'
'иници'
'инде'
'инвесторы_'
'инве'
'имуществ'
'импульс'
'импорт'
'имеющ'
'имел'
'имат'
'ило_'
'икул'
'ико'
'ийски'
'изованн'
'измер'
'изменится_'
'изма_'
'издани'
'изда'
'изготовлен'
'извлеч'
'известный_'
'изве'
'изатор'
'идиот'
'идеть_'
'идем_'
'идеей_'
'идеальны'
'идеале'
'идеал'
'ида_'
'ид_'
'игроки_'
'игрока'
'игрок_'
'игрок'
'ивы'
'ившись_'
'ивк'
'иваю'
'иба'
'иальны'
'и1'
'зун'
'зра'
'зно'
'значительны'
'значительно'
'значительн'
'знакомы'
'зн'
'змен'
'зме'
'зис'
'зийск'
'зерн'
'зелены'
'зе_'
'зды'
'здравоохранения_'
'здравоохранение'
'звезды_'
'заявля'
'защиту_'
'защитник'
'защита_'
'зач'
'зац'
'захоче'
'зате'
'заставить_'
'заслуживает_'
'зарегистрир'
'запу'
'заполнен'
'заплатить_'
'заняться_'
'занимают'
'замор'
'замок_'
'замет'
'зале'
'закончить'
'законно'
'заключа'
'заказа_'
'зака'
'зак'
'заж'
'зае'
'задума'
'зада'
'загл'
'заверш'
'заведения_'
'забы'
'забро'
'заботи'
'забот'
'заболевани'
'заболе'
'жск'
'жные_'
'жны'
'жн'
'жители_'
'жим'
'жиль'
'жили_'
'жила'
'жизненны'
'жизненно'
'жидкост'
'жестко'
'жеств'
'желч'
'желто'
'железн'
'жела'
'ждение_'
'ждан'
'жалоб'
'жай'
'жажд'
'ечн'
'ечат'
'еча'
'ец'
'ехал'
'ето'
'ета'
'ести'
'естественным_'
'естественн'
'ество_'
'есл'
'еские_'
'еск'
'еру'
'ерно'
'ерк'
'ержи'
'ерд'
'ергети'
'епископ'
'енци'
'ентир'
'енти'
'енне'
'енк'
'емые_'
'емая_'
'елю'
'елит'
'ейше'
'ейск'
'езно_'
'едит'
'единственный_'
'едени'
'еда'
'ег'
'европейско'
'европейские_'
'еврозоны_'
'евр'
'дыш'
'дыхани'
'дыр'
'дш'
'духов'
'дума'
'друзьями_'
'друз'
'другу_'
'друг'
'дри'
'древ'
'драм'
'драконов_'
'др_'
'дошл'
'дохода_'
'достоверн'
'достигнут'
'достаточно'
'достав'
'дорожн'
'допуска'
'дополнительных_'
'домик'
'доли'
'долгосрочны'
'документе_'
'дожи'
'дожд'
'дое'
'дово'
'доверие_'
'добил'
'добавля'
'добавил_'
'доб'
'дна'
'длинными_'
'диц'
'дительн'
'диску'
'диско'
'дир'
'динамическ'
'дий'
'диет'
'диви'
'диал'
'дж_'
'детская_'
'десять_'
'держать_'
'держат'
'депресс'
'деп'
'деньга'
'денн'
'дение_'
'демон'
'демократ'
'делом_'
'деловы'
'делам_'
'делаете_'
'делае'
'деко'
'декабре_'
'действовать_'
'действи'
'действ'
'девочки_'
'дворц'
'двойн'
'двенадцат'
'две'
'дв'
'даю_'
'дар_'
'данными_'
'дальн'
'дае'
'дe'
'гу_'
'грязн'
'группу_'
'группой_'
'группир'
'группе_'
'грузовик'
'грузо'
'граци'
'графическ'
'график'
'гранич'
'готовя'
'готовы'
'готовит'
'государственных_'
'государствам'
'горячи'
'городу_'
'гормон'
'гоно'
'гольф'
'головн'
'годов'
'гну'
'гм'
'гля'
'глобального_'
'глаш'
'глаз_'
'главный_'
'главное_'
'гко'
'гия_'
'гитар'
'гипер'
'герое'
'гепат'
'генн'
'генерал'
'генер'
'гей'
'ге_'
'гг_'
'галерея_'
'вье'
'выяв'
'вышла_'
'вычисл'
'высше'
'выступил'
'выставк'
'выстав'
'выросла_'
'вырв'
'выразил'
'выражени'
'выр'
'выпуст'
'выпуск'
'выполнять_'
'выполняе'
'выплат'
'выпа'
'вынуждены_'
'вынужден'
'вын'
'вым_'
'выйд'
'вызыва'
'вызвать_'
'вызван'
'выз'
'выезд'
'выдви'
'выд'
'выгодны'
'выгляд'
'выброс'
'выбран'
'выбора_'
'вшие_'
'вше'
'входит_'
'вуд_'
'вторично'
'всяко'
'вступления_'
'вступа'
'встреча_'
'встретились_'
'вспы'
'всеоб'
'вса'
'времена_'
'времен_'
'врага_'
'враг'
'впер'
'вош'
'востоке_'
'восстановлени'
'восстановить_'
'восстановит'
'воспри'
'воспо'
'воп'
'волшебн'
'волосы_'
'вокзал_'
'вок'
'возьму'
'возраст_'
'возо'
'возникает_'
'возможностями_'
'возможност'
'возможн'
'возл'
'возду'
'возде'
'возглавля'
'возвраща'
'военные_'
'водит'
'внутренним'
'внимательн'
'вниз_'
'вмешательств'
'вля'
'вли'
'власт'
'владельце'
'вла'
'вкусн'
'вку_'
'включи'
'вич_'
'вич'
'вице_'
'виртуальн'
'винт'
'виноват_'
'вин_'
'видим'
'взрослых_'
'взл'
'веществ_'
'вещах_'
'вечер'
'вет_'
'вести'
'весел'
'верх'
'версию_'
'версии_'
'вернё'
'верне'
'вери'
'вентиля'
'венно'
'велик'
'вели'
'везд'
'веж'
'ведет_'
'вдво'
'вблизи_'
'ватель'
'варьир'
'варианто'
'ван_'
'важную_'
'важно'
'важнее_'
'ваем_'
'вав'
'бюллетень_'
'бюджета_'
'бывши'
'бывше'
'бывает_'
'буш'
'бухгалтер'
'бург'
'бун'
'бумаги_'
'бук'
'брюнетк'
'брук'
'бросил'
'британско'
'британск'
'брик'
'брак_'
'боюсь_'
'бою_'
'борьб'
'борту_'
'большо'
'большинстве_'
'больнице_'
'болезненн'
'боле'
'боже_'
'боево'
'блог'
'ближайше'
'ближ'
'благодарность_'
'бия'
'бир'
'биологи'
'билеты_'
'билет'
'бик'
'бесплатн'
'бескон'
'бесед'
'берет'
'бен'
'белый_'
'безум'
'безработны'
'бедн'
'батыва'
'бара'
'банковск'
'банков_'
'банка_'
'бан_'
'баз'
'бабушк'
'ащи'
'аши'
'ачи'
'афр'
'ауди'
'ау'
'атс'
'атр'
'атов_'
'атаки_'
'ассоциаци'
'ассортимент_'
'асс'
'архитектур'
'арте'
'арн'
'армию_'
'арестован'
'аренды_'
'аппетит_'
'апо'
'ао'
'анци'
'антов_'
'антич'
'анкет'
'анию_'
'анич'
'английско'
'анат'
'ана'
'амм'
'американско'
'американским_'
'американские_'
'аля'
'алюминиев'
'альны'
'альную_'
'альд'
'альбом_'
'альбом'
'аль_'
'алы_'
'ались_'
'алийск'
'акций_'
'актов_'
'активные_'
'активной_'
'аки_'
'айте_'
'аж_'
'аемо'
'аем'
'административн'
'адк'
'адаптирова'
'ад_'
'агр'
'агентство'
'агенто'
'авш'
'авно'
'авит'
'авари'
'абс'
'абл'
'Японск'
'Япони'
'Юр'
'Юн'
'Эт'
'Электронная_'
'ЫЙ_'
'Шэ'
'Штатах_'
'Шел'
'Швеци'
'Швейцари'
'Чёрно'
'Число_'
'Честн'
'Черный_'
'Чай'
'ЧИ'
'ЦИИ_'
'Христа_'
'Хр'
'Хос'
'Хорватии_'
'Хей'
'Фри'
'Французск'
'Форма'
'Фин'
'Фили'
'Файлы_'
'Уходи'
'Ух_'
'Утр'
'Услуг'
'Уровень_'
'Университет_'
'Умер'
'Ул'
'Уильям'
'Уил'
'Уи'
'Узна'
'Удивительн'
'Уб'
'УЖ'
'Турци'
'Томми_'
'Тибет'
'Темп'
'Тел'
'Твое'
'ТУ'
'ТОР'
'ТЕЛЬ'
'ТА_'
'Сэр_'
'Сх'
'Супер'
'Сум'
'Суб'
'Стол'
'Стой'
'Стефан'
'Стандартны'
'Спорт'
'Сп'
'Сообще'
'Соедин'
'Советск'
'Смотрите_'
'Смех_'
'Смер'
'Слуша'
'Следующи'
'Следующая_'
'Следовательно_'
'Скорост'
'Сказал_'
'Сказ'
'Сен_'
'Семейны'
'Север'
'Сделай_'
'Святой_'
'Связа'
'Св'
'Сахар'
'Самые_'
'Самая_'
'Сайт'
'СУ'
'СТО'
'СТВ'
'СС'
'СИ'
'Рэ'
'Русские'
'Румын'
'Рубрики_'
'Российской_'
'Российск'
'Рол'
'Рок'
'Рик'
'Решени'
'Республике_'
'Рекоменд'
'Рейтинг_'
'Рез'
'Реб'
'Реал'
'Раф'
'Расска'
'Ран'
'Разр'
'Разв'
'Ради_'
'Рабочий_'
'Работа'
'РФ_'
'РС'
'РЕМ'
'РАН'
'Пы'
'Путе'
'Прошло'
'Проце'
'Прос'
'Прол'
'Продолж'
'Проверь'
'Природ'
'Приложени'
'Призна'
'Прив'
'Приб'
'Прес'
'Преми'
'Представител'
'Прага_'
'Постоянн'
'Последние_'
'Последнее_'
'Посл'
'Посе'
'Пос'
'Португали'
'Понят'
'Понимаете_'
'Помощ'
'Помог'
'Помни'
'Помимо_'
'Полн'
'Политик'
'Поли'
'Пойдем_'
'Пожалуй_'
'Подро'
'Подпис'
'Подобн'
'Подо'
'Пода'
'Под_'
'Пов'
'Пла'
'Пис'
'Перес'
'Первая_'
'Парол'
'Парк'
'Париже_'
'Парень_'
'Очевидно_'
'Отец_'
'Отдельн'
'Отд'
'Отв'
'Основны'
'Осм'
'Орл'
'Опять_'
'Опи'
'Ом'
'Олив'
'Оконч'
'Оказ'
'Оде'
'Ов'
'Обратите_'
'Обла'
'ОГО_'
'ОВ'
'Новое_'
'Нов'
'Ник'
'Непо'
'Немец'
'Ней'
'Наше'
'Нача'
'Наци'
'Напол'
'Найти_'
'Наиболее_'
'Нажмите_'
'НИК'
'НЕ_'
'НЕ'
'Мя'
'Мэн'
'Мэд'
'Музыкальн'
'Мужчин'
'Муж'
'Мото'
'Монт'
'Мона'
'Много'
'Мм'
'Михаил'
'Мит'
'Миссис_'
'Миро'
'Мир_'
'Министерств'
'Милли'
'Микро'
'Меч'
'Международная_'
'Между_'
'Машин'
'Мате'
'Маст'
'Массаж_'
'Март'
'Марсе'
'Марии_'
'Малай'
'Макс_'
'МИ'
'Люксембург'
'Люк'
'Льв'
'Лук'
'Ливии_'
'Лив'
'Ли_'
'Лесбиянки'
'Лес'
'Легк'
'Латви'
'Лав'
'Ла_'
'ЛА'
'Кэтрин_'
'Кухня_'
'Кры'
'Крас'
'Кофе'
'Кот'
'Кост'
'Корея_'
'Конф'
'Контакты_'
'Контактн'
'Конт'
'Конвенции_'
'Кому_'
'Команд'
'Коло'
'Код_'
'Ключев'
'Ключ'
'Китайск'
'Кир'
'Кипр'
'Кел'
'Ква'
'Каш'
'Катало'
'Кат'
'Карл_'
'Кап'
'Канада_'
'Как'
'Каз'
'Кажется_'
'КН'
'ЙС'
'Испания_'
'Исла'
'Иск'
'Информационный_'
'Интересн'
'Импер'
'Иисус_'
'Иерусалиме_'
'Ие'
'Иде'
'Иг'
'Ибо_'
'ИС'
'Зеленый_'
'Зе'
'Заяв'
'Зах'
'Заткнись_'
'Зара'
'Западной_'
'Зам'
'Закон'
'Жизнь_'
'Жер'
'Женев'
'Жд'
'Жан_'
'Жа'
'ЖД'
'Един'
'Европейски'
'Европейская_'
'Европей'
'Евр'
'ЕТ'
'ЕНИ'
'ЕЛ'
'Дэй'
'Дэвид'
'Дух'
'Дуб'
'Доступ_'
'Дост'
'Донн'
'Дональд'
'Должен_'
'Дне'
'Диск'
'Джордж_'
'Джонс'
'Джона'
'Джон'
'Джим'
'Джа'
'Держ'
'Дворец_'
'Дво'
'Дви'
'Две'
'Данный_'
'Дани'
'Даль'
'Далее_'
'Давид_'
'Груп'
'Греции_'
'Гостиница_'
'Госте'
'Господа_'
'Город'
'Гонк'
'Говоря'
'Германи'
'Генри_'
'Гене'
'ГР'
'ГОС'
'ГБ'
'Высоко'
'Вчера_'
'Вторая_'
'Втор'
'Вст'
'Все'
'Врач'
'Вор'
'Вопросы_'
'Вой'
'Возра'
'Влади'
'Вла'
'Вик'
'Видишь_'
'Вечер'
'Вест'
'Верни'
'Венгрии_'
'Великобритания_'
'Велико'
'Вега'
'Веб_'
'Вашингтон_'
'Ваш'
'Будь_'
'Будущ'
'Брэ'
'Бр'
'Бос'
'Болгари'
'Божи'
'Богу_'
'Бог'
'Блондинки_'
'Бин'
'Бесплатное_'
'Бен_'
'БУ'
'БС'
'Аэропорт_'
'Ах'
'Арм'
'Антал'
'Анна_'
'Анн'
'Аналог'
'Анал'
'Американский_'
'Америка_'
'Аме'
'Александр_'
'Азиатки_'
'Агент'
'Аг'
'Абхазии_'
'žší'
'žádnej_'
'žádn'
'žádat_'
'žáda'
'žád'
'žo'
'živé_'
'živo'
'žit_'
'žij'
'žet'
'žer'
'ženě_'
'železniční_'
'žeb'
'žb'
'žalob'
'žal'
'Žádn'
'Žensk'
'Žel'
'ůst'
'ťák_'
'šíl'
'šuk'
'štině_'
'špičko'
'špinav'
'špe'
'špatnýho_'
'šova'
'šní'
'šné_'
'škrt'
'školství_'
'školní_'
'školení_'
'škoda_'
'šin'
'šatn'
'šat'
'šamp'
'Ší'
'Šp'
'Šlapka'
'Šaty'
'řů_'
'římsk'
'říjn'
'řské'
'řsk'
'řn'
'řež'
'řeči_'
'řetězc'
'řeli'
'řel_'
'ředno'
'ředitel_'
'řec'
'řazen'
'Říman'
'Říká'
'Říd'
'Řek'
'Řecko_'
'ňují_'
'ňsk'
'ňován'
'ňovat_'
'ňova'
'ěť'
'ěš'
'ěrn'
'ěme_'
'ěh'
'Ě_'
'ďáb'
'čů'
'čítá'
'čímž_'
'číc'
'částk'
'částečn'
'čá'
'čný_'
'čný'
'členů_'
'členství_'
'členské_'
'členem_'
'čl'
'čká'
'čko'
'čištění_'
'činnost_'
'čilo_'
'češ'
'četn'
'čet'
'čest_'
'český'
'čes'
'černo'
'čelní'
'čce_'
'čast'
'časov'
'Čís'
'Čín'
'Čím_'
'Čte'
'Čt'
'Čl'
'Česk'
'Černá_'
'ā'
'ýšl'
'ývá'
'ýval_'
'ým'
'ýc'
'ür'
'úřadu_'
'účastni'
'účast'
'úspěšně_'
'úspěchu_'
'úprav'
'úp'
'února_'
'úklid_'
'úct'
'úch'
'ú_'
'ör'
'óza_'
'íži'
'íčk'
'ízd'
'íval'
'íti'
'írá'
'íni'
'ílá'
'íli'
'íka_'
'íde'
'ící'
'íc'
'íbí_'
'és_'
'és'
'érk'
'èn'
'ç'
'ážk'
'áší_'
'ázn'
'ázk'
'ázan'
'ává'
'ávsk'
'ávk'
'ával_'
'ával'
'áté'
'átor_'
'áto'
'átní'
'ári'
'ály_'
'áka_'
'áhne_'
'ádu_'
'Úř'
'Účin'
'Úp'
'ÁV'
'», — _'
'²_'
'­_'
'¬'
'¡'
'_'
''
'}\'
'|'
'zůstane'
'zří'
'zúčastnil'
'získává'
'získ'
'závisl'
'zátěž_'
'zásadní'
'zásad'
'záloh'
'záležitost_'
'zákazník'
'zákazníc'
'zák'
'zájm'
'záchran'
'záchod_'
'zách'
'zábav'
'zza'
'zvěst'
'zvýší_'
'zvíře_'
'zvy'
'zvládn'
'zvlád'
'zum'
'zuj'
'zuby_'
'zub'
'zu'
'ztráty_'
'ztrác'
'ztratil_'
'ztracen'
'zti'
'zte_'
'zs'
'zranění'
'zrani'
'zral'
'zra'
'způsobil'
'zpětn'
'zpíva'
'zpráv'
'zpracujeme_'
'zpr'
'zován'
'zovat_'
'zované_'
'zoo'
'zobrazí_'
'zo_'
'zněl'
'známé_'
'známe'
'znovu'
'zneuž'
'značek_'
'znamení'
'znamenat_'
'znam'
'znalosti_'
'změní'
'změn_'
'zmíněn'
'zmín'
'zmizí_'
'zmizel'
'zmate'
'zlý'
'zloděj'
'zlepšil'
'zlatíčko_'
'zkum'
'zkr'
'zkouška_'
'zkoušk'
'zkontrolovat_'
'zjistí_'
'ziv'
'zis'
'zimní'
'zhorš'
'zho'
'zeč'
'zením_'
'zemřela_'
'zemřel'
'zemědělsk'
'zelenin'
'zdán'
'zdu'
'zdroj_'
'zde'
'zaž'
'zařídi'
'začíná'
'začátek_'
'začl'
'zavolám_'
'zavolej_'
'zavol'
'zatčen'
'zasíl'
'zastavil'
'zased'
'zasa'
'zapla'
'zanecha'
'zaměřen'
'zaměř'
'zaměstnanci_'
'zamě'
'založen_'
'zal_'
'zakázk'
'zako'
'zahájen'
'zahrnut'
'zahrn'
'zadrž'
'zadarmo_'
'zacháze'
'zachová'
'zabezpeč'
'ytn'
'yslel_'
'yne'
'ym_'
'ylov'
'yla'
'yj'
'ychl'
'y1'
'xy_'
'xo'
'xist'
'work_'
'wn_'
'wid'
'wic'
'wei'
'wat'
'vů'
'vším_'
'všeho_'
'vš'
'vře'
'věže_'
'věz'
'většinu_'
'větru_'
'věděli_'
'vědč'
'výši_'
'význam_'
'význam'
'výzkumn'
'vývoj'
'výt'
'výstře'
'výrazně_'
'výpoč'
'výnos'
'vým'
'výlet_'
'výl'
'výc'
'výbor_'
'víkend'
'vé'
'váží'
'vážné'
'váme_'
'vál'
'vztahuje_'
'vzpomínám_'
'vznik'
'vzne'
'vzhledem_'
'vzdá'
'vyšetřování'
'vyřešit_'
'vyřešil'
'vyvíj'
'vyvola'
'využij'
'vytváře'
'vytvoření_'
'vysv'
'vysto'
'vysp'
'vyslan'
'vyskyt'
'vypro'
'vypr'
'vypadala_'
'vylé'
'vylouč'
'vyk'
'vyjadř'
'vyhrál'
'vyhodi'
'vyhod'
'vyho'
'vyhlídk'
'vyhledáva'
'vyděl'
'vydě'
'vydání_'
'vydavatele_'
'vybí'
'vybudování_'
'vybran'
'vybavený'
'vuj'
'vtipn'
'vtip_'
'vteřin_'
'vstř'
'vstup_'
'vrt'
'vrstv'
'vro'
'vrh'
'vraždu_'
'vrace'
'vp'
'volné'
'vojáků_'
'vodn'
'vní'
'vnitř'
'vládn'
'vloup'
'vlast'
'vlak_'
'vlaj'
'vkus'
'vka'
'vizi'
'vize_'
'vitamín'
'vise'
'virtuální'
'ville_'
'vier'
'vidíte_'
'video'
'vice'
'veřejných_'
'veřejné'
'veřejnosti_'
'veřejn'
'večeře_'
'vesmíru_'
'vert'
'vers'
'vern'
'velký'
'velké'
'velitele'
'vedou'
'vede'
'vch'
'vašimi_'
'varn'
'van_'
'vakcín'
'vají'
'vag'
'vací'
'užívá'
'užít_'
'užitečných_'
'užitečn'
'učitele'
'učitel_'
'učitel'
'učiní'
'učinil_'
'uvolni'
'uvidíte_'
'uvid'
'uvedený'
'utrp'
'utra'
'ustn'
'uspořád'
'uspokoj'
'usnad'
'usi'
'ure_'
'ure'
'upřímně_'
'upí'
'upuj'
'upn'
'upk'
'upil'
'upc'
'univerzitě_'
'ung'
'und_'
'und'
'unc'
'unaven'
'una'
'umřít_'
'umírá'
'umo'
'ulož'
'ull'
'ukázal_'
'ukončit_'
'ukončen'
'uklidn'
'ujícím_'
'uja'
'uh_'
'uf'
'ue_'
'udělej_'
'událost_'
'udržel'
'udova'
'uda'
'uce'
'třetím_'
'těžký'
'těžko_'
'těžk'
'tění_'
'tělocvičnu_'
'těle_'
'těhotná_'
'tým'
'týká_'
'týkají'
'tábor'
'typick'
'tvého_'
'tváří_'
'tvrdé_'
'tvr'
'tvořen'
'tvojí_'
'tva'
'turnaje_'
'tuk'
'tuj'
'tudy_'
'tuc'
'tte_'
'tta'
'tský'
'trůn'
'trénova'
'trub'
'trol'
'tric'
'trest'
'trenér'
'tre_'
'trati'
'trapn'
'transport'
'tože_'
'touž'
'touto_'
'toli'
'toalet'
'tno'
'tmav'
'tlu'
'tloušťk'
'tlačí'
'tlak_'
'tlak'
'tio'
'time'
'tický_'
'tický'
'tich'
'thi'
'tha'
'teč'
'textov'
'teroristick'
'tero'
'terminál'
'temno'
'telk'
'tek'
'technick'
'tašk'
'tax'
'tati'
'tang_'
'taneční'
'talent'
'takt'
'takový'
'takovém'
'takov'
'tajné_'
'tage_'
'série_'
'sáz'
'sál'
'sz'
'systémov'
'synt'
'světle'
'svě'
'svý'
'své'
'svatbu_'
'sv_'
'sup'
'sub'
'stů'
'stří'
'stěn'
'stížnostmi_'
'stížnost'
'styl'
'stvím_'
'stv'
'stupn'
'studiu'
'strávil'
'stráv'
'strova'
'strojů_'
'stroj'
'stro'
'strašně_'
'strašn'
'str_'
'stot'
'ston_'
'stoj'
'stika_'
'steroid'
'sten'
'stejné'
'stejná_'
'stejn'
'stačí_'
'stačilo_'
'stavb'
'start'
'stal'
'stabili'
'srpna_'
'srovnání_'
'sračk'
'sq'
'spuštěn'
'správy_'
'správná_'
'spravedliv'
'spou'
'sportov'
'sport_'
'sport'
'spolupracov'
'společno'
'spod'
'spletl'
'spla'
'spl'
'sper'
'spektru'
'speciáln'
'span'
'sová_'
'součást_'
'současnosti_'
'soutěži_'
'soustře'
'sour'
'soukromým_'
'souhlasí'
'soudní'
'souboj'
'som'
'solární'
'softwaru_'
'softwarových_'
'softwarový_'
'softwarovou_'
'sociální'
'soch'
'sobec'
'snížit_'
'snídaně_'
'snižov'
'sni'
'snažíme_'
'snažili_'
'smích'
'smut'
'smus_'
'smr'
'sme'
'smartphon'
'sláv'
'sly'
'slun'
'sluchát'
'složky_'
'slouži'
'sloučen'
'slibuju_'
'slečn'
'sleva_'
'sleduje'
'sleduj'
'slavn'
'skříň'
'skří'
'skute'
'skončí'
'skončit_'
'ski_'
'sken'
'situ'
'silnější'
'silně_'
'silné_'
'signály_'
'signál_'
'sic'
'shromážděn'
'shi'
'she'
'sfé'
'seznamu_'
'setkání_'
'seržant'
'servis'
'sedn'
'sba'
'sati'
'satelit'
'sat'
'sar'
'samý'
'samotné_'
'samotné'
'sal_'
'sak'
'sah'
'ržel'
'různými_'
'rét'
'ráto'
'ráti'
'rána_'
'rám'
'rácen'
'ryt'
'rychlý'
'ruční'
'rusky_'
'ruky_'
'rukavice_'
'rty_'
'roční_'
'rozšíři'
'rozšíření'
'rozšířen'
'rozvíjející'
'rozvod'
'roztomil'
'rozpoč'
'rozpozn'
'rozpad'
'rozlouč'
'rozk'
'rozhodnou'
'rozen'
'rozdělení_'
'rozděl'
'rovnou_'
'rovna'
'rou_'
'rostl'
'ron_'
'rom'
'role_'
'roh'
'rodinn'
'rodin'
'rní_'
'rní'
'rik'
'right'
'rid'
'rge'
'režim_'
'reálném_'
'reziden'
'rezervova'
'rezervace_'
'rezerv'
'republiky_'
'reklama'
'rek'
'registrova'
'region_'
'recept'
'rde'
'rce'
'rb'
'razi'
'ray_'
'rand'
'ram'
'ral_'
'rakovin'
'rake'
'rada'
'rací'
'qua'
'půjčov'
'půjdeš_'
'příšern'
'příz'
'přítomn'
'přístup'
'příspěv'
'případn'
'případech_'
'příležitostí_'
'příje'
'příběhu_'
'příb'
'přátelům_'
'přání_'
'přivít'
'přivedl_'
'přita'
'přistá'
'přirozen'
'připraveni_'
'připomín'
'připojit_'
'připojeni_'
'připoj'
'přinesl_'
'přijdou_'
'přijat'
'přij'
'přihláš'
'přidáv'
'přidat_'
'přibl'
'přežil'
'přeži'
'přečt'
'převá'
'přesunu'
'přeruš'
'přeprav'
'přeloži'
'překrásn'
'přehráva'
'předstír'
'představují'
'představoval'
'představi'
'představení_'
'předpov'
'předpoklád'
'předních_'
'předmě'
'pěší_'
'pěš'
'pěkné_'
'pěkn'
'pán_'
'pádu_'
'pytl'
'pusti'
'pták'
'psychi'
'pse'
'průto'
'právníka_'
'právn'
'prvního_'
'prvních_'
'provádět_'
'provád'
'provozuje_'
'provozovatel'
'provinci'
'provedení_'
'proveden'
'pronásled'
'promi'
'prol'
'projít_'
'projevi'
'prohlížení_'
'prohled'
'programů_'
'produkt'
'produk'
'prodejc'
'prodat_'
'procesu_'
'probíha'
'primární'
'press'
'premiér'
'prdel'
'prax'
'prach'
'požehn'
'požadovan'
'požadavek_'
'poš'
'pořádá'
'pořáda'
'počítá'
'počítač'
'poč'
'pozorovat'
'poznáv'
'poznámky_'
'poznám'
'pozn'
'povída'
'povolení_'
'používal'
'pout'
'potřebovala_'
'potěšení'
'potěš'
'potíže_'
'potí'
'potá'
'potvrz'
'poto'
'potkal'
'posunu'
'posun'
'posu'
'postř'
'postup_'
'postoj_'
'postižen'
'poslouchej_'
'poslechn'
'poskytnut'
'poskytl_'
'posilov'
'port_'
'porovnání_'
'porodn'
'popis'
'pope'
'poměr'
'pomst'
'pomohl'
'políbit_'
'položi'
'polož'
'policii_'
'pokyn'
'pokusil_'
'pokusi'
'poku'
'pokrok_'
'pokrmy_'
'pokračuj'
'poko'
'poke'
'pok'
'poji'
'poje'
'pohřeb_'
'pohár'
'pohá'
'pohybu_'
'pohrom'
'podáva'
'podvod_'
'podpo'
'podobn'
'podmínk'
'podlé'
'podlaž'
'podk'
'podezřel'
'podepsal'
'podep'
'podařilo_'
'pochopi'
'poboč'
'plí'
'pláž_'
'plát'
'plánu_'
'plu'
'plot'
'play'
'platnými_'
'platební_'
'plan'
'pizz'
'pivo'
'pití_'
'pistol'
'pij'
'phy'
'peč'
'pevný'
'pes'
'personál_'
'perl'
'pep'
'pekl'
'ped'
'pati'
'patent'
'parlament'
'paral'
'pamět'
'památky_'
'památ'
'paliv'
'pala'
'pak'
'pacifi'
'oři_'
'očí_'
'očekává_'
'ovšem_'
'ově'
'oví'
'ovství'
'ovská_'
'ovláda'
'ovladač'
'ovku_'
'ovk'
'ovin'
'ovic'
'ovač_'
'ovaných_'
'ouži'
'out'
'ouse_'
'otče_'
'otázkami_'
'otázk'
'otázek_'
'oty_'
'otoč'
'otevřené_'
'otcem_'
'ota_'
'osvět'
'ostní'
'ostat'
'ospravedl'
'oru_'
'ort_'
'orp'
'orientova'
'orgán'
'organiza'
'org'
'orem_'
'oprávnění_'
'oproti_'
'operační_'
'opatrn'
'oot'
'oně'
'oná'
'onová_'
'onov'
'onn'
'omí_'
'omáčk'
'olympijské_'
'oliv'
'okraj'
'okoln'
'oko'
'okl'
'okamžik_'
'ohrom'
'ohrad'
'oho'
'ohled'
'odě'
'odvá'
'odvez'
'odu_'
'odstup'
'odstranění_'
'odsta'
'odpočin'
'odpovědn'
'odpovídající_'
'odpoví'
'odpo'
'odli'
'odkl'
'odk'
'odjel'
'odhali'
'odešl'
'oda'
'ochran'
'oceán_'
'ocen'
'ocel'
'oce_'
'obř'
'oběti_'
'obět'
'oběd_'
'obzvlášť_'
'obvi'
'obrázky_'
'obrovsk'
'obrn'
'obrann'
'oboru_'
'obnovení_'
'obn'
'oblíbené_'
'oblíben'
'oblé'
'oblek_'
'objeví_'
'objekt'
'objednávk'
'obez'
'obdrží'
'obchodníky_'
'nůž_'
'nů_'
'něčím_'
'něm'
'někomu_'
'někam_'
'nějakém'
'nějakého_'
'níž'
'nízká_'
'nímu_'
'níků_'
'níkov'
'návštěvě_'
'návštěvu_'
'návrat_'
'nástroj'
'násled'
'nárok'
'národní'
'nápoje_'
'náměstí_'
'námě'
'nál'
'nákupní'
'náhoda_'
'náh'
'nácti'
'náboženství'
'nuj'
'nto'
'ntní'
'nský'
'nse'
'nr'
'noční_'
'novým'
'novo'
'noviná'
'novinky_'
'ností_'
'nost'
'nos'
'normálu_'
'norma'
'nni'
'ničí'
'niv'
'niu'
'nitř_'
'nil'
'nikomu_'
'nicméně_'
'nické_'
'ngs'
'nga'
'neřík'
'neřeknu_'
'nezáleží_'
'nezn'
'nezbytný'
'nezaj'
'new'
'nevěděla_'
'nevys'
'nevyp'
'nevyhnuteln'
'nevydrž'
'nevol'
'neuk'
'nestačí_'
'nestal'
'nesou'
'nesmí_'
'nesm'
'nesl'
'nepři'
'nepřesnostech_'
'nepředstav'
'nepotřebuje'
'nepotřebuj'
'neposlouch'
'neotevře_'
'neobvyklé'
'nenávid'
'nenechám_'
'nenaš'
'nenap'
'nemůžete_'
'nemyslí'
'nemusíš_'
'nemocí_'
'nemoc_'
'nekon'
'nejrychlej'
'nejméně_'
'nejk'
'nejed'
'nehl'
'nee'
'nedop'
'necháp'
'nechtěl_'
'nebudete_'
'nebezpečné_'
'nebe_'
'nds'
'nce'
'naším_'
'naštvaná_'
'našimi_'
'nazval_'
'nazva'
'navštív'
'navržen'
'nasta'
'napr'
'naposled_'
'naopak_'
'nano'
'nako'
'naklád'
'nají'
'naje'
'najdeme_'
'nainstalovánu_'
'nainstalovat_'
'nahrá'
'nahoře_'
'naděj'
'nabízen'
'nabídnout_'
'mř'
'měří'
'měři'
'měření'
'měř'
'městské'
'městem_'
'měst_'
'mý_'
'míří'
'místních_'
'místní'
'mínka'
'mámu_'
'mám'
'm²_'
'muž'
'museli_'
'ms'
'mrtvý'
'možný'
'možno'
'mono'
'moment_'
'modř'
'modern'
'modely_'
'moct_'
'mobil_'
'mn'
'mluvím_'
'mluví_'
'mluvila_'
'mladý_'
'mladý'
'mladé_'
'miz'
'mistrů_'
'mistr'
'minulo'
'minu'
'minibar_'
'mina'
'mimořádn'
'miláčku_'
'milionu_'
'miliard'
'mezinárodních_'
'mexick'
'menší_'
'mení_'
'meno'
'medicín'
'mechanick'
'md'
'mbi'
'maximálně_'
'mater'
'manželky_'
'manžela_'
'mamin'
'mam'
'majitelů_'
'majetek_'
'mailov'
'mail'
'lži'
'lš'
'lís'
'léčit'
'léto_'
'lét'
'látek_'
'lát'
'ládn'
'láda'
'lušenství'
'lst'
'ložnice_'
'loži'
'lový'
'lové_'
'lování_'
'lovn'
'lost'
'look'
'lom'
'lodí_'
'lně'
'lní'
'lno'
'lni'
'lm'
'llo'
'lle'
'lič'
'livé_'
'lity_'
'lite'
'lit_'
'listo'
'linky_'
'lin_'
'limit'
'lil'
'lie'
'lhá'
'letišt'
'letadl'
'lehn'
'lehce_'
'latin'
'laskavost_'
'lase'
'las_'
'laho'
'lah'
'lab'
'kům_'
'křiče'
'ký'
'kód'
'káva_'
'kánsk'
'kámoše'
'kámoš'
'kám_'
'kyber'
'kvalifik'
'kus_'
'kupov'
'kum'
'kulturu_'
'kult'
'kulk'
'kuchyň_'
'které'
'královna_'
'královn'
'krále_'
'kryt'
'krve_'
'krouž'
'krmi'
'krku_'
'kriz'
'kriti'
'kri'
'krevní'
'krat'
'krajin'
'košík'
'kočky_'
'kočka_'
'kových_'
'kový'
'kování_'
'kovy_'
'kovo'
'kovat_'
'koval'
'kousek_'
'koupel_'
'kouka'
'kosm'
'kos'
'kopírov'
'kopce_'
'kopa'
'konč'
'konzul'
'konverzi_'
'konvertovat_'
'konvertor'
'konv'
'kontrola_'
'kontinent'
'kons'
'konkurenc'
'konk'
'konečn'
'komunist'
'komponenty_'
'kompli'
'kompa'
'komise_'
'komerční'
'komentáře_'
'kolo'
'kola_'
'kokot'
'kod'
'kní'
'knih_'
'kn'
'kmen'
'klíče'
'klí'
'klimati'
'klienta_'
'klient_'
'klidně_'
'kli_'
'klade'
'kins'
'king'
'ket'
'kel'
'kaz_'
'katastrof'
'kasin'
'karet_'
'kara'
'kapalin'
'kanál_'
'kancelář_'
'kancelář'
'kamarádka_'
'kamarádk'
'kali'
'kal_'
'kaj'
'kace_'
'kabel_'
'jč'
'jízda_'
'jídelně_'
'jádr'
'jun'
'juj'
'jské_'
'jou'
'jmenov'
'jmen'
'jižní'
'jisti_'
'jiným_'
'jiný'
'jiném_'
'jinej_'
'ješ_'
'jezdi'
'jev_'
'jestliže_'
'jen'
'jeli_'
'jejíž_'
'jedná_'
'jednotlivý'
'jednoduš'
'jednoduché_'
'jednoduch'
'jede_'
'jat'
'jasno'
'japonk'
'jakýkoli'
'jakém'
'jakou_'
'jac'
'ižení'
'iční'
'iál'
'izraelsk'
'izo'
'ivý_'
'ivé_'
'ivk'
'ius_'
'ium_'
'ití_'
'itr'
'istán'
'istik'
'iso'
'ismu_'
'isl'
'isko'
'isi_'
'ira'
'investice_'
'intim'
'interv'
'internet'
'intel'
'institut'
'insti'
'inku'
'ingr'
'informujte_'
'informov'
'informační_'
'indik'
'imunit'
'ilova'
'ilo'
'ille'
'ill'
'ila'
'ikál'
'iky_'
'ikož_'
'ika'
'ihu'
'iho_'
'ihl'
'ignor'
'iforni'
'ifi'
'ier_'
'ier'
'icit'
'ich_'
'iano'
'iOS_'
'iCloud_'
'hů'
'hřiště_'
'hř'
'hý'
'há_'
'hypoté'
'hvězda_'
'hul'
'huj'
'hudební'
'hraní_'
'hrab'
'hovoří'
'hotov'
'hostin'
'hospodářství_'
'hospodářské_'
'horko'
'hone'
'home'
'holk'
'hodl'
'hodil'
'hna'
'hlídání_'
'hluboké'
'hlubok'
'hledání_'
'hlad_'
'his'
'hero'
'hem_'
'hajzl'
'hac'
'gun'
'gram_'
'gon_'
'gno'
'gment'
'gle'
'git'
'ght_'
'gay'
'fó'
'fyzické_'
'funkci_'
'fun'
'fs'
'francouzské'
'fran'
'fou'
'fos'
'fix'
'fit'
'firem'
'filtr_'
'fil'
'fet'
'fest'
'fekt'
'federální'
'feder'
'far'
'f3'
'eď'
'eční_'
'ezn'
'ey'
'extra'
'experiment_'
'expe'
'exp'
'evo'
'evn'
'eviden'
'ette_'
'eto'
'etick'
'eta_'
'esl'
'ersk'
'erová_'
'erov'
'eren'
'ept'
'epidemi'
'ené'
'entní_'
'enou_'
'enn'
'enka_'
'enh'
'eng'
'enc'
'eme'
'emb'
'elov'
'elný_'
'elno'
'elit'
'elegantn'
'egy'
'edo'
'edl'
'ecké'
'echa'
'ebr'
'eau_'
'důsled'
'důležitý'
'důkladn'
'důchod'
'dřív'
'děvč'
'dětem_'
'děs'
'dění_'
'děle'
'dělali_'
'dějin'
'dědeč'
'děck'
'dč'
'dívku_'
'dítěti_'
'dítěte'
'dít'
'dílo_'
'déle_'
'dél'
'dé'
'dáme_'
'dál'
'dynami'
'dvoulůžkový'
'dvo'
'dveří_'
'dus'
'duch_'
'dt'
'dráh'
'dri'
'dozvěděl'
'dozví'
'dovolenou_'
'dosud_'
'dostatek_'
'dostali_'
'dosahu_'
'dorf_'
'dorazil'
'doporučuje'
'dop'
'domácí'
'domova'
'domi'
'dolar'
'dokázal'
'dokument_'
'doktork'
'doktore'
'doktora_'
'dokončení_'
'doko'
'doj'
'dodržov'
'doch'
'doc'
'dobrých_'
'dně_'
'dná'
'dlouhodob'
'divné_'
'diviz'
'distribuov'
'disku_'
'diploma'
'dina'
'dila_'
'deš_'
'det'
'desk'
'des'
'depres'
'dep'
'demokratické_'
'dech'
'debil'
'dd'
'dceru_'
'daňov'
'day'
'datov'
'dare'
'daně_'
'dalšími_'
'dají'
'cům_'
'cítit_'
'cílů_'
'cíle_'
'cé'
'cvi'
'cus'
'cur'
'cul'
'ction_'
'ctic'
'cro'
'cr'
'cp'
'cor'
'clon'
'cle_'
'ckým_'
'cker_'
'cis'
'cie_'
'chápeš_'
'cháp'
'chutn'
'chráněn'
'chrání_'
'chr'
'chova'
'chodi'
'chod_'
'chladničkou_'
'chk'
'chen'
'chel'
'cestovní_'
'cestov'
'cestou_'
'cen_'
'celon'
'cap'
'c5'
'března_'
'bře'
'bývalý'
'bílé_'
'bán'
'báječn'
'bus'
'burg_'
'budovy_'
'budoucnosti_'
'budoucnost_'
'bublin'
'bránit_'
'brá'
'brn'
'britský'
'brit'
'breč'
'bomba'
'bolest'
'boji_'
'boj_'
'boha'
'bné'
'bis'
'binární_'
'bila'
'bie_'
'bezv'
'bezp'
'beze_'
'bes'
'bere'
'belo'
'bejt_'
'bavíme_'
'bavil'
'bater'
'base'
'bariér'
'bam'
'balkon'
'balení_'
'bale'
'bak'
'babičk'
'aže_'
'ače'
'azil'
'ax'
'awa'
'avn'
'avk'
'ave'
'avač'
'ava_'
'autogram'
'aut'
'aust'
'audio_'
'att'
'atri'
'aton_'
'ativní'
'atick'
'asociovaný_'
'aru'
'arsk'
'architektur'
'apo'
'aparát'
'apart'
'aných_'
'anál'
'anit'
'anebo_'
'ando'
'analy'
'americké'
'alu_'
'als'
'alizova'
'alizace_'
'alia'
'alg'
'ald'
'album_'
'aktivity_'
'akcí_'
'aka'
'aj_'
'ail'
'ago_'
'agentur'
'age'
'adresy_'
'adres'
'adně'
'administrativ'
'ack'
'abo'
'abi'
'a5'
'Získ'
'Zásuny2'
'Zároveň_'
'Základní_'
'Zvon'
'Zralé_'
'Zralé'
'Zpráva_'
'Zobraz'
'Znáš_'
'Zlato_'
'Zku'
'Zkontrolujte_'
'Zep'
'Zemi_'
'Zdá'
'Zařízení_'
'Zatímco_'
'Zaregistr'
'Zap'
'Zahra'
'Zadr'
'Zachránil'
'Zac'
'ZI'
'Yu'
'YE'
'YA'
'XT'
'XC'
'Wood'
'Woo'
'Wo'
'Wiz'
'Will_'
'White'
'Wheel'
'Wha'
'Wen'
'Wei'
'We_'
'Way'
'Wald'
'WEB_'
'WC'
'Vše'
'Věděl_'
'Věd'
'Včera_'
'Výšivk'
'Váž'
'Vyš'
'Vyřeš'
'Vyz'
'Vytá'
'Vyr'
'Vyhledávání_'
'Vyh'
'Vybra'
'Volk'
'Voj'
'Vlád'
'Vlo'
'Vlastn'
'Vladimír'
'Vladi'
'Vla'
'Vio'
'Vinci_'
'View_'
'Videa_'
'Ves'
'Venu'
'Vas'
'Vad'
'VS'
'VP'
'VN'
'VI_'
'VA_'
'Uve'
'Utík'
'Univers'
'United_'
'Umí'
'Ultra'
'Ukázat_'
'Uh_'
'Udělá'
'UL'
'UE'
'UC'
'UB'
'TĚ'
'Téma'
'Té'
'Typ'
'Twitter'
'Tvá'
'Tvorba_'
'Tučné'
'Turecko_'
'Tube'
'Trip'
'Trade'
'Toyota_'
'Tour_'
'Tot'
'Tos'
'Tool'
'Tom_'
'Tolik_'
'Tok'
'Toho_'
'Times_'
'Tel'
'Teen_'
'Tara'
'TY_'
'TV'
'TU'
'TM'
'TJ'
'TA_'
'TA'
'Syst'
'Svobod'
'Susan'
'Sty'
'Studi'
'Stroj'
'Stre'
'Straš'
'Steph'
'Stejn'
'Stefan'
'Station_'
'Standard'
'Squa'
'Spá'
'Správce_'
'Správ'
'Spoléháme_'
'Spojen'
'Spoj'
'Split_'
'Speci'
'Sound'
'Solution'
'Sofie_'
'Snadn'
'Smlouv'
'Slíbil'
'Slyšel'
'Služ'
'Slečno_'
'Sledov'
'Sle'
'Sky_'
'Skvělé_'
'Skvěle_'
'Skotsk'
'Sin'
'Sib'
'Sher'
'Sh'
'Seš_'
'Seri'
'See'
'Sedni_'
'Season'
'Scr'
'Sci'
'Satelitní_'
'Santo'
'Sant'
'Sam_'
'SU'
'ST_'
'STE'
'SPO'
'SL'
'SK_'
'SE_'
'SD_'
'SA_'
'SAS'
'S2'
'Rychl'
'Ry'
'Rut'
'Rusk'
'Rud'
'Rozš'
'Rozumí'
'Roy'
'Rover'
'Rot'
'Roman'
'Roll'
'Rodinné_'
'Robin'
'Rob'
'Ris'
'Richard'
'Rex_'
'Rese'
'Rek'
'Regi'
'RealPlayer_'
'Rat'
'Ras'
'Rand'
'Ran'
'Rachel_'
'RU'
'RT_'
'RT'
'RR'
'Que'
'Přítel'
'Přípona_'
'Příl'
'Příj'
'Přišl'
'Přist'
'Připrav'
'Přihlášení_'
'Přihlásit_'
'Přesto_'
'Přes_'
'Přehled_'
'Předpokládám_'
'Pět_'
'Pěkný_'
'Pánové_'
'Pusť'
'Prů'
'Prý_'
'Provoz'
'Prop'
'Proje'
'Program'
'Procház'
'Prob'
'Princezn'
'Pravidla_'
'Pravděpodobně_'
'Prav'
'Prague_'
'Pozná'
'Povol'
'Použit'
'Použi'
'Pouze_'
'Poté_'
'Postav'
'Portál_'
'Portugal'
'Popr'
'Pomocí_'
'Poli'
'Pokr'
'Pohár'
'Pohl'
'Podv'
'Poc'
'Plu'
'Pit'
'Philips_'
'Pha'
'Perf'
'Peníze'
'Penzion_'
'Paříž_'
'Paříž'
'Paul'
'Partne'
'Parkování_'
'Parc'
'Pamatuj'
'Palestinc'
'PRA'
'PM_'
'Ovšem_'
'Ovlád'
'Ov'
'Otev'
'Orga'
'Optim'
'Oprav'
'Oliv'
'Old_'
'Okay_'
'Office_'
'Of_'
'Of'
'Odk'
'Odbor'
'Oct'
'Ochrana_'
'Oce'
'Obr'
'Obe'
'OVÁ'
'OP'
'ONLINE_'
'Německa_'
'Někteří_'
'Návštěv'
'Násled'
'Nás'
'Nám'
'Náh'
'Note_'
'Norm'
'Nokia_'
'Nic'
'Neříkej'
'Neřek'
'Neř'
'Neví'
'Nevad'
'Neod'
'Nenávi'
'Nen'
'Nemůže_'
'Nemáte_'
'Nemá_'
'Nemohl_'
'Nejrychlejším_'
'Nejd'
'Nechá'
'Nechal_'
'Necha'
'Neboj_'
'Neal'
'Naštěstí_'
'Naši_'
'Například_'
'Naprosto_'
'Naposledy_'
'Napo'
'Napi'
'Name_'
'Nak'
'Najdete_'
'Nahrá'
'Nad'
'Nachází'
'Nabízí_'
'Nabí'
'NY_'
'NS'
'NP'
'NF'
'NEW_'
'Měj'
'Myslí_'
'Muži'
'Mul'
'Mou'
'Mot'
'Mort'
'Morocco_'
'Morgan'
'Moon_'
'Montego_'
'Moment_'
'Mohlo_'
'Mohanem_'
'Mluvil_'
'Mluv_'
'Mistrovství_'
'Mis'
'Milán'
'Mille'
'Michaela_'
'Mic'
'Merlin'
'Mercedes_'
'Medic'
'Mast'
'Mass'
'Martin_'
'Male'
'Mai'
'Mah'
'Maggie_'
'Madam_'
'Mack'
'MP_'
'MG'
'MAC_'
'M4'
'Lásk'
'Lyn'
'Lv'
'Luxusní_'
'Lut'
'Lucas'
'Lond'
'Lokalita_'
'Log'
'Ll'
'Little_'
'Lit'
'Limited_'
'Life_'
'Liber'
'Letní_'
'Leh'
'Lee_'
'Law'
'LS'
'LOH_'
'LA_'
'Kupón'
'Kter'
'Králov'
'Kruci'
'Koupi'
'Kot'
'Kos'
'Korej'
'Korea'
'Kont'
'Konec'
'Kompletní_'
'Kompiláce1'
'Kole'
'Knih'
'Kni'
'Klídek_'
'Klu'
'Klimatizace_'
'Kl'
'Kit'
'Každé_'
'Katal'
'Kame'
'Kad'
'Kab'
'Jídlo_'
'Julie'
'Jud'
'Josef'
'Johne_'
'Joe'
'Jmen'
'Již'
'Jih'
'Ježiši_'
'Jet'
'Jestliže_'
'Jeruzalém_'
'Jenže_'
'Jejich_'
'Jednoduché_'
'Jean_'
'Jar'
'Japonská_'
'Japonsk'
'Jap'
'Jan_'
'Jaká_'
'Jake_'
'Jacob'
'JN'
'Izraeli_'
'Isa'
'Intel_'
'Indii_'
'Ign'
'Ib'
'IR'
'IO'
'IL'
'Hád'
'Hunt'
'Hry_'
'Hro'
'Hotel'
'Hostel'
'Hospodinov'
'Honem_'
'Hodi'
'Hod'
'Hledám'
'Hledá'
'Hleda'
'Hlavním_'
'Hitler'
'Hill'
'Hil'
'Hay'
'Harry_'
'Harr'
'Hall_'
'Hak'
'HS'
'HL'
'HDP_'
'HB'
'Gy'
'Gue'
'Gro'
'Greg'
'Great'
'Gre'
'Gran'
'Graf'
'Gr'
'Got'
'Gly'
'Global_'
'Gir'
'Gil'
'Gib'
'Generá'
'Gan'
'Gam'
'Galaxy_'
'GS'
'GP'
'Fén'
'Fro'
'Franku_'
'Frank'
'Franci'
'Fou'
'Fotbal'
'Forum_'
'Ford_'
'Foo'
'Fitness_'
'Fis'
'Fir'
'Financial_'
'Fina'
'Film_'
'Filip'
'Festival_'
'Farm'
'Fac'
'FU'
'FC_'
'FBI_'
'Existují_'
'Evan'
'Eva'
'Et'
'Esp'
'Enc'
'Emily_'
'Electr'
'Eh'
'Eddie'
'Echo_'
'ES'
'ER'
'EP_'
'EP'
'ECB_'
'EA'
'Dž'
'Dům_'
'Děláš_'
'Dědeček'
'Dvojité_'
'Dus'
'Duo'
'Duch'
'Down'
'Dou'
'Dost'
'Donald'
'Domi'
'Dokud_'
'Dodávk'
'Docela_'
'Dn'
'Dluž'
'Dlouh'
'Disk'
'Direct'
'Dil'
'Detek'
'Det'
'Delf'
'Dea'
'Databáz'
'Dat'
'Dani'
'Dam'
'Dalším_'
'Dale'
'DV'
'DNS_'
'DL'
'Cí'
'Cul'
'Cry'
'Cruz'
'Crow'
'Court_'
'Corporation_'
'Cookies_'
'Cook'
'Cons'
'Conne'
'Conf'
'Cole'
'Cokoliv_'
'Coc'
'Claudi'
'Clau'
'Clar'
'Clan'
'Chris_'
'Chlupat'
'Chlapi_'
'Chil'
'Cher'
'Chart'
'Charl'
'Ces'
'Ceník_'
'Ceny_'
'Celou_'
'Cav'
'Carlo'
'Camer'
'CU'
'CL'
'CES'
'Být_'
'By_'
'Buďte_'
'Budapešť_'
'Brus'
'Británii_'
'Bren'
'Break'
'BravoTube_'
'Bras'
'Boží'
'Bot'
'Boot'
'Booking_'
'Book_'
'Blízko'
'Bli'
'Black'
'Bis'
'Bh'
'Bezp'
'Bert'
'Berlin_'
'Benz_'
'Benn'
'Bene'
'Belize_'
'Bea'
'Bav'
'Barv'
'BO'
'Ačkoli'
'Az'
'Avenue_'
'Audi'
'Astr'
'Asijsk'
'Asia'
'Ashle'
'Arthur'
'Art_'
'Arg'
'Arab'
'Aqua'
'Aplikace_'
'Annie_'
'Anna_'
'Angli'
'Angel'
'And_'
'Americk'
'Americ'
'Ame'
'Amaz'
'Alž'
'Alfa'
'Alexandr_'
'Alexandr'
'Alespoň_'
'Ala'
'Ahm'
'Ah_'
'Active_'
'AV'
'AU'
'AL_'
'ALL'
'?»'
'?" '
'<_'
'<'
'95'
'8216_'
'696'
'600'
'512'
'500'
'481'
'430'
'400_'
'360_'
'350'
'314'
'308'
'285'
'275'
'258'
'253'
'234'
'227'
'220_'
'214_'
'208_'
'205_'
'204'
'200'
'1986_'
'1985_'
'1950_'
'1939_'
'1933_'
'1906_'
'19'
'1800'
'173'
'164'
'160'
'152'
'146'
'144'
'128'
'117_'
'117'
'115_'
'108_'
'108'
'106'
'1000'
'020'
'.»'
'.:'
'.... _'
'.. '
'. ['
',..._'
',-'
'," _'
'+) '
'** '
'*'
') — _'
'% '
'",'
' ♪_'
' → '
' ’, ‘ _'
' ? _'
' ="_'
' /_'
' /'
' . '
' -–> _'
' -'
' *'
' («_'
' #_'
' ")'
'💐 _'
'����������������'
'���� ����'
'����'
'�� �����'
'� ���������'
'� ����'
'� �'
'）'
'（'
'日本語_'
'●'
'►'
'█'
'→ _'
'← _'
'€'
'› '
'“ '
'‘ '
'— '
' _'
'ѣ'
'њ'
'ётся_'
'ёте'
'ённые_'
'ённ'
'ён'
'ёзд'
'ёж'
'ёд'
'яющий_'
'яющие_'
'яюще'
'ящий_'
'ящие'
'яче'
'ять'
'ятор'
'ятно'
'ятия_'
'яти'
'ятельност'
'яски_'
'ярко'
'японски'
'япон'
'янут'
'янина_'
'яку'
'яйтесь_'
'яй'
'язык'
'яжен'
'ядь_'
'яди'
'ядерного_'
'являющи'
'явления'
'явление'
'ючи'
'юча'
'юкс_'
'юж'
'юджет'
'юге_'
'эффекто'
'эффектив'
'этаже_'
'эта'
'эсте'
'эпохи_'
'эпидемии_'
'энц'
'энт'
'энерги'
'энергетическо'
'энд'
'элементы_'
'электронно'
'электрическим'
'электрически'
'элегантн'
'экспортны'
'экс'
'экране_'
'экономически'
'экологически'
'экологич'
'ьям'
'ьш'
'ьч'
'ьск'
'ьо'
'ьме'
'ьма_'
'ько_'
'ько'
'ька'
'ьи_'
'ьера_'
'ьде'
'ьбе'
'ыха'
'ытк'
'ыро'
'ыр'
'ыне'
'ылка_'
'ылк'
'ыка'
'ыж'
'ывающи'
'ывают_'
'ывают'
'ываю_'
'ывай'
'ыва_'
'ыв_'
'щё'
'щно'
'щн'
'щиц'
'щими'
'щики_'
'ществ'
'щер'
'щенн'
'щел'
'щать_'
'щат'
'шути'
'шума_'
'шту'
'штат_'
'шр'
'шоколадн'
'шокир'
'шок_'
'шнит'
'шник'
'шлюх'
'шли_'
'широко_'
'широким'
'шиб'
'шеф'
'шести_'
'шель'
'шее'
'шед'
'шего'
'шви'
'шведски'
'шв'
'шат'
'шанс'
'шагов'
'шага'
'чёрта_'
'чёрн'
'чушь'
'чул'
'чуж'
'чуде'
'чувствует'
'чувствовать_'
'чувство'
'чрезвычайно'
'чной_'
'чно'
'членов_'
'член_'
'чить_'
'читат'
'чисты'
'численност'
'числа_'
'чин'
'чики_'
'чик'
'чивы'
'четы'
'чета'
'честно_'
'честн'
'честе'
'ческую_'
'черном'
'чены_'
'чем'
'чек_'
'чев'
'чать'
'частей_'
'чаров'
'чай_'
'цы'
'цифр'
'цитат'
'цис'
'цированн'
'циплин'
'циони'
'цил'
'циклов_'
'цикл'
'циальн'
'цер'
'ценность_'
'ценност'
'ценка_'
'ценам_'
'цена_'
'целовать'
'цело'
'цей'
'ххххххх'
'худ'
'хста'
'хроническ'
'хромо'
'хранить_'
'хранит'
'храни'
'хран'
'хочется_'
'хороших_'
'хорошим'
'хоро'
'хом'
'холодная_'
'холод'
'хозяйстве'
'хозяйства_'
'ходн'
'ходи'
'хну'
'хне'
'хлор'
'хлеба_'
'хл'
'хит'
'хирургическ'
'хирург'
'хин'
'химических_'
'хво'
'хвати'
'хв'
'хард'
'характерны'
'характеризу'
'характер'
'хам'
'хали_'
'хала'
'хак'
'фунт'
'функциональн'
'фрукты_'
'фру'
'фронта_'
'французско'
'французский_'
'форт'
'формул'
'формировани'
'формир'
'форматы_'
'форм_'
'фонда_'
'фло'
'фиш'
'фициру'
'финиш'
'финга'
'финансировани'
'фильтр_'
'фильм'
'фикаци'
'физиологически'
'фестиваля_'
'фект'
'федерал'
'фашист'
'факторов_'
'факторами_'
'факто'
'фактическ'
'уязвим'
'уютн'
'уюс'
'уэр'
'ущерб_'
'ушай'
'уша'
'учрежд'
'учител'
'учетом_'
'участники_'
'участк'
'уходить_'
'уходи'
'ухо_'
'уха'
'утил'
'утверждает_'
'устро'
'установленны'
'установил'
'установ'
'успехо'
'успех_'
'усов'
'услышать_'
'услыша'
'условии_'
'усл'
'уска'
'уск'
'усил'
'уры_'
'урн'
'ур_'
'упу'
'упражнения_'
'управлени'
'упра'
'упр'
'упомянут'
'упоминал'
'университете_'
'универ'
'умру'
'умираю'
'уменьша'
'умент_'
'умеет_'
'уме_'
'улярн'
'ультразвуков'
'улучшить_'
'улучшению_'
'улучшени'
'улучша'
'улучш'
'ули_'
'уктивн'
'укт'
'украшения'
'украл'
'украд'
'уко'
'указанны'
'указанн'
'уйте_'
'уйд'
'узки'
'узе'
'уз_'
'ужива'
'уже'
'ужасн'
'уешь_'
'уем'
'уезжа'
'удь'
'удр'
'удостоверени'
'удовольствием_'
'удовлетвор'
'удобства'
'удивительны'
'удерж'
'ударн'
'удар_'
'удаля'
'удали'
'удается_'
'уголовны'
'уголовн'
'углеро'
'угле'
'уволи'
'увлек'
'увидите_'
'увидимся_'
'увиди'
'увидел'
'уверовал'
'увеличить_'
'увеличивает_'
'уведомл'
'убра'
'убил'
'убедительн'
'убедит'
'убеди'
'уаци'
'уальны'
'уальн'
'уал'
'тяже'
'тяж'
'тяг'
'тя_'
'тюрьме_'
'тюрьм'
'тысяча'
'тщательно'
'тщ'
'тх'
'турецк'
'турби'
'туалетны'
'ттер'
'тско'
'трудно'
'трудн'
'труд'
'трубк'
'труб'
'тропическо'
'тройк'
'трои'
'трое_'
'тридцат'
'треугольник'
'третьим_'
'третьи'
'третьей_'
'третьего_'
'треть_'
'треть'
'трени'
'тревож'
'требу'
'требовать_'
'трати'
'транспорта_'
'транз'
'трам'
'тракт'
'трагедия_'
'тра_'
'точное_'
'точку_'
'точ'
'тором_'
'торов'
'торгу'
'торговый_'
'торговл'
'топо'
'тонн'
'тонк'
'толе'
'тока_'
'тож'
'тог'
'товарн'
'товара'
'тоб'
'тным'
'тной_'
'тная_'
'ткани_'
'ткане'
'ткан'
'тихо'
'тис'
'тиро'
'тира'
'тир'
'тин_'
'тил_'
'тики_'
'тие_'
'тивные_'
'тивной_'
'технические_'
'тестирование_'
'тест_'
'тесно'
'террористически'
'терроризм'
'территорию_'
'территориальн'
'терпели'
'термо'
'терапию_'
'теран'
'теория_'
'теори'
'телям_'
'теля_'
'тельс'
'тельные_'
'тельны'
'тельна'
'тело'
'телефону_'
'телефонн'
'телефон_'
'телескоп'
'телек'
'телевизор'
'театре_'
'театр_'
'тву'
'твоем_'
'тветств'
'тая_'
'татуировк'
'тати'
'тариф'
'тана'
'там'
'такти'
'такси_'
'тако'
'тайск'
'тайны_'
'тайну_'
'тавл'
'табл'
'тe'
'сят_'
'сят'
'сэкономить_'
'сь'
'сылк'
'сыграть_'
'сыграл'
'сыгра'
'съ'
'считаете_'
'счет'
'счастливо'
'счаст'
'сценарий_'
'сценари'
'сцена'
'схож'
'схват'
'сх'
'сфо'
'сфер'
'существова'
'сущ'
'сух'
'суток_'
'сустав'
'сумк'
'суж'
'суе'
'судо'
'судн'
'судебн'
'субсидии_'
'стыр'
'стые_'
'строг'
'стрип'
'страха_'
'страх_'
'стратегия_'
'страст'
'страной_'
'странно_'
'страни'
'страдающи'
'страдаю'
'страдания_'
'страдал'
'стр_'
'стоящи'
'сторонам'
'сторон'
'столети'
'стола_'
'стой'
'стоим'
'стои'
'стител'
'стите_'
'стир'
'стинг'
'стин_'
'стимулиру'
'стимул'
'стиль_'
'стили_'
'стероидов'
'стеро'
'стере'
'стена_'
'стек'
'ству'
'ством_'
'ствовать_'
'ственск'
'ственны'
'ственност'
'ств'
'статья_'
'статья'
'статье_'
'стате'
'старши'
'старше'
'стар'
'стану'
'стам'
'стадия'
'ставь'
'сса_'
'средством'
'средства'
'сравнить_'
'сработа'
'спрята'
'спросить_'
'справлюсь_'
'справил'
'справи'
'справедливост'
'способы_'
'способствуют_'
'способству'
'способов_'
'способн'
'спортсмен'
'спортивный_'
'спортивно'
'списка_'
'специальных_'
'сперм'
'спект'
'спасени'
'спад'
'союз_'
'сочинени'
'социальным'
'социальны'
'социал'
'соц'
'сохраняе'
'сохранил'
'сотн'
'сот'
'состоят'
'состоится_'
'составил'
'сост'
'сосредоточи'
'сопр'
'сопоставленн'
'сопостав'
'соперни'
'соотношение_'
'соответствующих_'
'сообщи'
'сообщество'
'сообщества_'
'сообра'
'сомнения_'
'солн'
'соли_'
'сокров'
'сокращение_'
'сокращен'
'сокращает'
'сократил'
'сокр'
'сознани'
'создаё'
'создать_'
'созданн'
'создал'
'содержи'
'содержащи'
'содержат_'
'соглашени'
'согласие_'
'сог'
'современных_'
'современны'
'современн'
'совпад'
'советск'
'совершил_'
'соверши'
'совершенств'
'совершен'
'сова'
'собственную_'
'собственном'
'собственн'
'собрать'
'соблюда'
'собираетесь_'
'снов'
'снимк'
'снимать'
'снизил'
'снижает'
'снижа'
'снеж'
'снар'
'снабжен'
'смысл_'
'смотрите_'
'смотри'
'смешно'
'смертно'
'смерте'
'сменил'
'смело'
'смел'
'слышит'
'слышала_'
'слушать_'
'случай'
'служил'
'служе'
'служ'
'слота'
'сложно_'
'сложнее_'
'сложн'
'сложи'
'словами_'
'слез'
'следующего_'
'следующе'
'следователь'
'слев'
'слад'
'славн'
'слабо'
'скут'
'скрыт'
'скончал'
'ское'
'склон'
'ский'
'ске'
'скача'
'скажет'
'ситуацию_'
'сирован'
'сирийск'
'сир'
'симптомо'
'символо'
'символ'
'сильное'
'сильней'
'сильна'
'сило'
'сила'
'сидя'
'сидени'
'сигнало'
'сзади_'
'сетя'
'сете'
'серьёзно_'
'серьёзн'
'серьезно'
'серия_'
'сериало'
'сериал_'
'середине_'
'сердечн'
'сени'
'семью_'
'семи'
'сельскохозяйственн'
'секунду_'
'сексуально'
'секса_'
'секс_'
'секретн'
'северо'
'сделают_'
'сдела'
'сдв'
'сгор'
'связанн'
'связан'
'свыше_'
'свое'
'свободного_'
'свободе'
'свидетельству'
'свидани'
'свето'
'светл'
'свете_'
'свер'
'сведения_'
'сбург'
'сбежал'
'сба'
'санкци'
'самос'
'самолёт'
'самоз'
'салон_'
'саду_'
'садов'
'сабо'
'сookie_'
'рыночн'
'рынках_'
'рын'
'рыва'
'рче'
'рц'
'рут'
'руках_'
'рукавами_'
'рука'
'руе'
'руга'
'рубль_'
'рту'
'рти'
'рств'
'рст'
'рски'
'рри'
'рр'
'роти'
'рот_'
'росте_'
'российских_'
'российск'
'роси'
'ропо'
'романтическ'
'роман'
'рок'
'ройк'
'рождени'
'родственника'
'родителя'
'родит'
'родин'
'ровк'
'ровани'
'роб'
'рный_'
'рную_'
'рная_'
'ркс'
'рка_'
'рите'
'рисо'
'рискова'
'рирова'
'рий'
'ржи'
'решила_'
'решений_'
'решающе'
'рецесси'
'рецепто'
'реф'
'ретр'
'ретн'
'ресурсов_'
'репр'
'репл'
'реконструкци'
'рекомендуют'
'рекомендуем'
'рекомендаци'
'рекламу_'
'результата'
'реза'
'реестр'
'редки'
'редактировать_'
'редакт'
'регулярн'
'регулирование'
'регулирова'
'регулир'
'ребенк'
'реального_'
'реально_'
'реализации_'
'реакция_'
'реактор'
'реа'
'рд_'
'рген'
'рах'
'ратн'
'расширя'
'расширениями_'
'расши'
'расч'
'расходов_'
'расти_'
'растения_'
'рассу'
'рассматривает'
'рассл'
'рассказывае'
'расскаж'
'распоряж'
'располагается_'
'раско'
'ракетн'
'раке'
'районо'
'районах_'
'раиль'
'разъ'
'разруш'
'разрешения_'
'разрешени'
'разорв'
'разобраться_'
'разным'
'разные_'
'разнообраз'
'размещ'
'размере_'
'различн'
'различи'
'разделе_'
'раздел_'
'разговаривать_'
'разговаривал'
'развлечени'
'развитием_'
'развивающ'
'развивать'
'развер'
'разведк'
'разбит'
'раж'
'раду'
'радость_'
'радовать'
'радикальн'
'радиа'
'рада_'
'равенства_'
'рабоч'
'работающи'
'работал'
'раба'
'пятств'
'пятна'
'пяти_'
'пя'
'пьян'
'пье'
'пыталась_'
'пытал'
'пуш'
'путём_'
'путешествие_'
'пункто'
'пункт'
'пуга'
'пу_'
'птица_'
'психологических_'
'психоло'
'прямого_'
'прямо'
'пру'
'проявил'
'прошло_'
'прошло'
'процессом_'
'процентн'
'процедур_'
'процвета'
'противостоя'
'противоречи'
'противоположност'
'противов'
'протеста'
'протека'
'прот'
'простуд'
'простой_'
'просмотреть_'
'просмотр'
'просит'
'просил'
'пропустит'
'пропустил'
'прон'
'промышленны'
'промышленности_'
'прокур'
'прокати'
'прокат'
'прок'
'пройдет_'
'происхождение_'
'произой'
'производя'
'производству_'
'производителя'
'производитель_'
'производит'
'производ'
'произво'
'проигра'
'проживаю'
'проживание_'
'прож'
'проекту_'
'продукто'
'продукта'
'продолжает_'
'продолжа'
'продолж'
'продерж'
'продвижени'
'продаже_'
'продавать_'
'продав'
'прогресс'
'программировани'
'проводят_'
'проводит_'
'провинции_'
'провинци'
'проверил'
'проблему_'
'пробе'
'приятный_'
'причаст'
'присущ'
'присутству'
'присутствие_'
'приста'
'присла'
'природе_'
'природа_'
'приостанов'
'приобрет'
'приобрести_'
'приоб'
'приняти'
'принял'
'принтер'
'приносит_'
'приноси'
'принимаем_'
'принадлежностями_'
'примером_'
'применя'
'применим'
'прикол'
'приключен'
'прикладная_'
'прикл'
'признаю'
'признани'
'признако'
'приземл'
'приехала_'
'приготови'
'привязан'
'привык'
'приводи'
'привлече'
'приветству'
'привел'
'прибыв'
'приборо'
'приблизит'
'преу'
'претен'
'преступно'
'престиж'
'прест'
'преследует'
'преследова'
'препараты_'
'препаратов_'
'препарата_'
'препарат_'
'преобразоват'
'преобразован'
'прел'
'прекратить_'
'прекрасный_'
'преимущественно_'
'президентом_'
'преем'
'предыдуще'
'предыдущ'
'предусматрива'
'предупреждаю'
'предстоит_'
'предстательной_'
'представляе'
'представления'
'представительс'
'представител'
'председател'
'предпринят'
'предприн'
'предпочитаю'
'предпоч'
'предполагается_'
'предоставляется_'
'предоставлени'
'предостави'
'предложил_'
'предложен'
'предло'
'пределе'
'предварительны'
'предварительно'
'предател'
'превыси'
'превратить'
'превратилась_'
'превратил'
'преврат'
'преб'
'практическ'
'празднова'
'православн'
'правос'
'правонарушени'
'правовы'
'правов'
'правилам'
'правед'
'правды_'
'правд'
'пп_'
'появляются_'
'появляться_'
'появление'
'появились_'
'пошла_'
'пошл'
'почтовы'
'поху'
'похожи_'
'поход'
'похити'
'похвал'
'пох'
'потрясающи'
'потребуется_'
'потребитель'
'потрати'
'потерять_'
'потерп'
'потенциальны'
'посыла'
'посудомоечной_'
'поступ'
'постоянное_'
'постель'
'посте'
'поставлен'
'поста'
'поспори'
'пособн'
'посмотрим_'
'последующим'
'последующе'
'последстви'
'последовательно'
'последняя_'
'последней_'
'посланник'
'послал'
'посещени'
'порядок_'
'порядка_'
'порта'
'поражен'
'поража'
'попытка'
'популярны'
'попросит'
'попросил'
'попробу'
'поправ'
'попо'
'попал'
'понимания_'
'понимани'
'понима'
'понедельник'
'понадобится_'
'поможешь_'
'помогу_'
'помога'
'помнит'
'помещения'
'помеша'
'поля_'
'полю'
'пользу_'
'пользователь'
'пользовани'
'пользо'
'получают_'
'получается_'
'получаем'
'получ'
'полуострова_'
'полот'
'положительны'
'половину_'
'полным'
'полно_'
'полив'
'полезны'
'полезную_'
'полезно'
'полага'
'покупателей_'
'покупае'
'покупа'
'покров'
'покр'
'поконч'
'показатели_'
'показал'
'показ'
'пок_'
'пок'
'пойдем'
'поиска'
'поиграть_'
'позиция_'
'позицию_'
'позиций_'
'поздн'
'позвонит'
'позвони'
'позво'
'пожил'
'пожелани'
'поехал'
'поезда'
'подчеркну'
'подчеркива'
'подхода'
'подход_'
'подхо'
'подума'
'поду'
'подтверждени'
'подтве'
'подстр'
'подста'
'подряд_'
'подростко'
'подробно'
'подробн'
'подраздел'
'подписан'
'подписал'
'подош'
'подозрева'
'подожди'
'подожд'
'подн'
'поделиться_'
'поддержкой_'
'поддерживаю'
'поддерживает_'
'поддержание'
'поддержани'
'поддержал'
'подгрупп'
'подго'
'подвергн'
'подве'
'подают'
'подавл'
'погод'
'поговорим_'
'поговори'
'поглощ'
'погибших_'
'погиб_'
'повышенн'
'повторяю'
'повторя'
'повстанцев_'
'повор'
'повл'
'повесил'
'поверил'
'повез'
'поведе'
'поведал'
'побол'
'побо'
'поблагодари'
'победу_'
'победителе'
'победа_'
'пляж'
'плюс'
'плы'
'плохих_'
'плот'
'плода'
'плитк'
'племянни'
'плев'
'платье'
'платформа_'
'плати'
'плата_'
'пластиковы'
'пластик'
'планирует'
'плане_'
'плаз'
'пищев'
'питьев'
'пить_'
'пите'
'питал'
'пита'
'пистолет_'
'писател'
'писани'
'пилот'
'пийск'
'пече'
'перс'
'периодически_'
'переч'
'пересмотр'
'перепр'
'переноси'
'перенос'
'перенес'
'переключатель_'
'перейд'
'перееха'
'передоз'
'передне'
'передн'
'передвиж'
'передаче_'
'перед'
'переговоры_'
'перевод'
'первое_'
'пер_'
'пенис'
'пект'
'педа'
'певц'
'пев'
'пациент'
'пат_'
'паст'
'парти'
'паром'
'пароле'
'парол'
'парнем_'
'парне'
'парковк'
'парков'
'пари'
'парат'
'панел'
'пам'
'пальц'
'пала'
'пакет_'
'пак'
'пае'
'пав'
'пo'
'оят'
'очно_'
'очко'
'очка_'
'очек_'
'очевидно_'
'очарова'
'оча'
'оценить_'
'охотник'
'охлаждения_'
'охват'
'оф_'
'отхо'
'отсутствую'
'отск'
'отсе'
'отрицательн'
'отражен'
'отравлен'
'отправлен'
'отп'
'отопление'
'отой'
'отмечает'
'отмеча'
'отложи'
'отличает'
'открыты_'
'открытост'
'открою'
'откл'
'отзыва'
'отечественн'
'отдых_'
'отдел_'
'отвратительн'
'отвечает_'
'ответить_'
'ответа_'
'отверг'
'осящ'
'осуществляет'
'остя'
'острове_'
'остров_'
'осторожне'
'остер'
'остаётся_'
'остальным'
'остальном_'
'осталась_'
'оставш'
'оставляе'
'оспо'
'особенн'
'осо'
'основным'
'основател'
'основанны'
'основанн'
'основания'
'осм'
'осложнения_'
'осложнени'
'оследствии_'
'осла'
'оскорб'
'освободить_'
'освещени'
'оров'
'ормаци'
'орм'
'ория_'
'ориентирова'
'ориентаци'
'ордина'
'опытн'
'опубликован'
'опто'
'оптимальны'
'определяе'
'определенной_'
'оправ'
'ополи'
'опозна'
'описыва'
'опасность_'
'опасн'
'ооб'
'оня'
'онное_'
'онии_'
'ональн'
'омпани'
'ольз'
'ологии_'
'ологи'
'олнительн'
'олет'
'олезн'
'окруж'
'окра'
'окр'
'окончил'
'окончен'
'окончания_'
'окол'
'оказывают'
'оказался_'
'оказалось_'
'оказалась_'
'окаже'
'ока_'
'озно'
'означа'
'ознаком'
'озн'
'озит'
'озер'
'ожидать'
'ожидания_'
'ожен_'
'ождени'
'ожа'
'одство_'
'одорожн'
'одова'
'одиночку_'
'одина'
'одежда_'
'огромное_'
'ограничивает'
'ограничения'
'огне'
'огн'
'огл'
'оген'
'ог'
'овско'
'овск'
'овощи_'
'овор'
'овол'
'овит'
'овин'
'овече'
'оват'
'ованы_'
'овала_'
'обязана_'
'обяза'
'обычной_'
'обы'
'объём'
'объясни'
'объедини'
'общественност'
'общественно'
'обучени'
'обучаю'
'обув'
'обсуждения'
'обсуди'
'обстоятельств'
'обслуживание_'
'обслуживани'
'обсл'
'обратиться_'
'обратил'
'обрат'
'образовател'
'образо'
'образн'
'образие_'
'обработ'
'обостр'
'оборудование_'
'обойти'
'обоих_'
'обознач'
'обнаружит'
'обнаружени'
'обнар'
'обна'
'обменн'
'обли'
'областях_'
'область_'
'обид'
'обзор_'
'обещания_'
'обещан'
'обвин'
'няю'
'ны'
'нш'
'нче'
'нуться_'
'нули'
'нуждае'
'нужда'
'нты_'
'нто'
'нти'
'нте'
'нство'
'нского_'
'нск'
'ноче'
'носит_'
'номинал'
'новейши'
'нну'
'нл'
'нку'
'ниям_'
'нищет'
'ницы_'
'нис_'
'нирован'
'нир'
'нил_'
'низа'
'нижней_'
'нече'
'неудо'
'несу'
'несправедлив'
'несмотря_'
'несколькими_'
'неприятности_'
'непременно_'
'неплохо'
'неопределенн'
'необыч'
'необходимы_'
'необходимы'
'необходим'
'нение_'
'ненави'
'немножко_'
'немецкий_'
'немецки'
'немедленн'
'неловко_'
'нелег'
'нейтра'
'неизбежн'
'незнаком'
'незаконно'
'независимости_'
'неж'
'недостаточно'
'недостато'
'недовол'
'неделя'
'недел'
'недвижимости_'
'невинн'
'невиди'
'невест'
'нева'
'небре'
'небольшо'
'небольших_'
'небольши'
'небольш'
'небо_'
'небесн'
'небеса'
'ндо'
'ндинки'
'нго'
'нашему_'
'наш'
'начнет'
'начи'
'началось_'
'национальный_'
'нации_'
'наци'
'наце'
'нахождени'
'находящи'
'находяще'
'находиться_'
'находите'
'находил'
'нах'
'научной_'
'научн'
'научил'
'натура'
'наступа'
'настройки_'
'настоящим_'
'настоящему_'
'насл'
'насили'
'наружн'
'наро'
'нари'
'напрямую_'
'напряжен'
'напро'
'направленно'
'направлении_'
'направит'
'напр'
'напад'
'наня'
'налог_'
'наличны'
'нале'
'накоп'
'наказ'
'найд'
'называть_'
'называл'
'называет'
'называемы'
'называемо'
'назначения_'
'назначен'
'названи'
'нажмите_'
'нажат'
'нае'
'надоел'
'надеюсь_'
'надел'
'наград'
'нагр'
'наг'
'навык'
'навстречу_'
'наверху_'
'наверняка_'
'навер'
'наве'
'набра'
'набор'
'набе'
'мёртв'
'мясн'
'мэм_'
'мыслей_'
'мым'
'мф'
'мусо'
'мул'
'музея_'
'музей_'
'мужчиной_'
'мужчина_'
'мужско'
'муже'
'мра'
'мпл'
'мпанское_'
'мочев'
'мотре'
'моста'
'морским'
'морски'
'монстр'
'монастыр'
'момент'
'молодой_'
'мок_'
'мок'
'мозг'
'може'
'моему_'
'модел'
'моде'
'могло_'
'мов_'
'мобильном_'
'мобильного_'
'мобильн'
'многочисленных_'
'многок'
'мнения_'
'мнен'
'мле'
'мическ'
'миссии_'
'мировая_'
'минутк'
'мину'
'мино'
'министро'
'минист'
'милый_'
'мило_'
'мило'
'миллионы_'
'миллиардо'
'милая_'
'микроволнов'
'миз'
'метри'
'метр_'
'метеор'
'местоположени'
'местной_'
'мери'
'мера_'
'мера'
'меняют'
'меньшинств'
'меньше'
'менты_'
'мента_'
'менны'
'мени'
'менеджер_'
'международно'
'международная_'
'медицински'
'медицине_'
'медал'
'мгнове'
'мбу'
'машин_'
'мах'
'маф'
'материк'
'материалы_'
'массы_'
'массовы'
'массаж'
'масла_'
'масл'
'маск'
'марте'
'марки'
'маркет'
'мано'
'манипул'
'мамы_'
'маму_'
'мамочк'
'мальчико'
'маль'
'малыша'
'малин'
'мала'
'максимально_'
'максимально'
'мае_'
'мадам_'
'магнит'
'маги'
'магазине_'
'магазин'
'маг'
'ляя_'
'лят'
'ляд'
'лючи'
'люч'
'любым'
'любо'
'любить_'
'любительск'
'любил'
'льш'
'льник'
'лый_'
'луша'
'лучши'
'лучшем'
'лук'
'лс_'
'локализаци'
'лой'
'ложь_'
'ложен'
'логисти'
'ловит'
'лоб'
'лно'
'лне'
'лишне'
'личный_'
'личной_'
'лицу_'
'лице_'
'лицам'
'лифт'
'литье_'
'литературны'
'листов'
'лин_'
'лид'
'ливы'
'ливан'
'лечен'
'летом_'
'летней_'
'летне'
'ленны'
'лений_'
'лении_'
'лена_'
'лем_'
'лекарственн'
'лежит'
'лее'
'ледов'
'ледить_'
'лева'
'лать_'
'лара'
'ланди'
'ламен'
'лаго'
'лаборатории_'
'лаборатор'
'кция'
'кухня_'
'кухне'
'кусок_'
'курени'
'купл'
'культ'
'кули'
'кук'
'ктор_'
'кте_'
'кта_'
'кта'
'кстати_'
'кса'
'крыше'
'крупных_'
'крупные_'
'крупног'
'круг_'
'кросс'
'кровот'
'кроват'
'критик'
'кристалл'
'крестьян'
'кредитам'
'кредит_'
'кратно'
'кратическ'
'красные_'
'красив'
'краж'
'кофеварк'
'кости_'
'косм'
'корпоративн'
'королевств'
'коров'
'коробк'
'кораблей_'
'координаци'
'кончен'
'концу_'
'концерт'
'конфиденциальн'
'конференция_'
'контролировать_'
'контролир'
'контракт'
'контр'
'континент'
'контекст'
'конт'
'конституцион'
'консоли'
'консерват'
'конс'
'коно'
'конкурентоспособност'
'конкур'
'конкретные_'
'конкретны'
'конк'
'конечно'
'кондицион'
'конгре'
'комфортн'
'комфорт'
'компьютеро'
'компьютерны'
'компьютерн'
'компьютере_'
'компром'
'компози'
'комплекта'
'комплекс'
'комнатами_'
'комнат_'
'комме'
'коллектив'
'колледж_'
'коллегам'
'коктейл'
'кок'
'кожа_'
'ковая_'
'кнопку_'
'кнопк'
'книж'
'кни'
'км'
'ключи'
'ключевых_'
'ключ_'
'клиник'
'клиента'
'клиент_'
'клетками_'
'классны'
'классическ'
'клапан_'
'кладбищ'
'клави'
'кке'
'китайско'
'китайск'
'кит'
'кислота_'
'кир'
'кинул'
'кине'
'кина'
'кибер'
'кер_'
'кей'
'кве'
'квартир_'
'квалифи'
'квадра'
'качественно'
'кафе_'
'кафе'
'катор_'
'катастрофа_'
'катал'
'касаются_'
'карточк'
'картины_'
'карт_'
'карбон'
'карандаш'
'канала'
'камп'
'камни_'
'камн'
'каменн'
'калькулятор'
'какого_'
'какими_'
'каждым_'
'каждой_'
'кае'
'кад'
'каблук'
'кабин'
'йц'
'йству'
'йской_'
'йск'
'йм'
'йло'
'йли'
'йле'
'йк_'
'йер_'
'йди_'
'йдет'
'йв'
'ищет'
'ищем_'
'ища'
'ичеств'
'ича'
'ицированн'
'ительс'
'ительных_'
'ительные_'
'ительност'
'ительн'
'исты'
'истск'
'истр'
'источнико'
'историческо'
'истер'
'исследование_'
'исследован'
'испытываю'
'испытание'
'испыта'
'исправлени'
'испорт'
'использовался_'
'исполнител'
'исполнени'
'исполн'
'испан'
'искусство_'
'искусственно'
'искусстве'
'исключен'
'исключ'
'ируй'
'ирует'
'ировка_'
'ированно'
'ирин'
'ири'
'ирать_'
'иранск'
'ира_'
'ипы_'
'ипа'
'иоти'
'иных_'
'иные_'
'инъекци'
'информационны'
'инфицировани'
'инфекция'
'интерьер'
'интересуе'
'интересно'
'интерес_'
'интегрир'
'интеграции_'
'инте'
'институтов_'
'института'
'ино_'
'инициатив'
'инженер'
'индустри'
'индивид'
'инвесторов_'
'инвестиционны'
'инвалид'
'иначе_'
'инан'
'имся_'
'импл'
'имперск'
'иммигра'
'имеющие'
'имеются_'
'именов'
'именем_'
'имеете_'
'ильны'
'ильник_'
'иле'
'иком_'
'иканск'
'иками_'
'ии'
'изобретен'
'изображение'
'изображен'
'изобр'
'изну'
'изнач'
'изнасилова'
'изменениях_'
'изменение_'
'изм_'
'излучени'
'изл'
'изирова'
'изем'
'изделия_'
'известных_'
'известны'
'известно'
'известен_'
'избранн'
'избирательн'
'изаци'
'иду_'
'идентифи'
'идент'
'игрыва'
'игрушк'
'игрово'
'играю'
'игра'
'игнорир'
'ивы_'
'иваются_'
'иван'
'ивается_'
'ибо_'
'иально'
'и2'
'зыва'
'зрелые_'
'зрел'
'зре'
'зост'
'зонт'
'золото'
'зол'
'зова'
'зов_'
'зни'
'зненн'
'зне'
'значения_'
'знаний_'
'знан'
'знаменито'
'знам'
'зла'
'зл'
'зки_'
'зка'
'зия_'
'зируе'
'зионн'
'зеф'
'земны'
'зелён'
'зел'
'здоровью_'
'здани'
'зда_'
'зда'
'зг'
'звонила_'
'звони'
'звер'
'звезда_'
'заявляет_'
'заявление_'
'заявлени'
'заявит'
'защитн'
'зашифрован'
'заш'
'зация_'
'захотел'
'захватыва'
'затра'
'заставл'
'застави'
'заснуть_'
'заслужива'
'заслу'
'зарплат'
'зарегистрированны'
'зарегистрирован'
'зараженн'
'заражени'
'запуст'
'запроса'
'запомни'
'запол'
'запно'
'записать'
'запах_'
'западны'
'западно'
'занятости_'
'занн'
'занимались_'
'занимал'
'зани'
'зана'
'замечательно'
'замечательн'
'заметил'
'замедл'
'заман'
'залож'
'зало'
'зал'
'закры'
'закончи'
'законч'
'законны'
'заключи'
'заключения_'
'закладк'
'закл'
'заканчивае'
'заказыва'
'заинтересованн'
'заинтересован'
'задницу_'
'задержа'
'задаче'
'задач'
'задания'
'задание_'
'задан'
'загрузк'
'загрузит'
'заговор'
'завтрака'
'зависим'
'завис'
'зави'
'завед'
'зава'
'забыли_'
'забуду'
'забронировать_'
'заблу'
'жь_'
'журналисто'
'журнала'
'жско'
'жный_'
'жность_'
'жное_'
'жная_'
'жки_'
'житель'
'жиров'
'жин'
'жима'
'жидан'
'живущи'
'живу'
'животным'
'живопис'
'живание_'
'жива_'
'жив_'
'жест'
'жертв_'
'жер_'
'жены_'
'женщине_'
'женщин'
'женных_'
'жем_'
'желт'
'железы_'
'железнодорожны'
'железнодорожно'
'желат'
'желае'
'ждё'
'жди'
'ждал'
'жающи'
'жало'
'жале'
'жавеющ'
'ечь'
'ечно'
'ечи'
'ечен'
'еч'
'ехать_'
'ех'
'етт'
'естественно_'
'ественн'
'ества_'
'ест_'
'ерств'
'ерские_'
'ерпе'
'ерни'
'ерите'
'ерами_'
'еон'
'енько'
'енциа'
'ентов_'
'енность_'
'енном_'
'еннико'
'енник'
'емон'
'емой_'
'емл'
'елям'
'ельные_'
'ельности_'
'елил'
'еление_'
'ективы_'
'еко'
'ейс'
'ейл'
'еи_'
'еи'
'езди'
'езать_'
'ежегодн'
'еев_'
'еды_'
'едш'
'едовани'
'едо'
'едн'
'единственн'
'единств'
'единого_'
'едии_'
'еди'
'еда_'
'егат'
'европейским'
'еврозон'
'евро'
'еван'
'ебные_'
'еа'
'дё'
'дцать_'
'души'
'душа_'
'духовны'
'думают_'
'думаем_'
'дубл'
'дт'
'дств'
'друже'
'дром'
'драт'
'дох'
'досу'
'достой'
'досто'
'достигл'
'доставл'
'дорож'
'дорогу'
'дороги'
'доро'
'допустит'
'допу'
'дополнительн'
'дополнени'
'дополн'
'домов_'
'домо'
'домн'
'доми'
'домашняя_'
'дом'
'доль'
'долл'
'долгосрочн'
'долгов'
'долга'
'долг'
'докт'
'доказыва'
'дозвониться_'
'доза'
'договори'
'догад'
'довод'
'доверия'
'добива'
'добавить_'
'дну'
'дневн'
'дм'
'длит'
'длил'
'дли'
'диф'
'дирова'
'директор'
'дикци'
'дик'
'дийн'
'дизель'
'дизайна_'
'дид'
'диван'
'диагноза_'
'диаг'
'джин'
'дея'
'дец_'
'детств'
'детский_'
'детски'
'детектив'
'десятки_'
'десятилетия_'
'деревянны'
'деревьев_'
'деревн'
'дера'
'дер_'
'денс'
'дени'
'демонстра'
'демократическ'
'дем'
'делиться_'
'дели'
'делал_'
'действующи'
'действую'
'действовал'
'дей'
[...]
