'<pad>'
'<EOS>'
', _'
'._'
'the_'
'_'
'of_'
'a_'
'and_'
'to_'
'i_'
'w_'
'in_'
': _'
'-_'
'. _'
'z_'
'na_'
's_'
'is_'
'e_'
'do_'
'for_'
' (_'
'y_'
'on_'
' - _'
'się_'
'o_'
'with_'
'jest_'
'/_'
'that_'
'The_'
'nie_'
') _'
'by_'
'1_'
'you_'
'are_'
'from_'
'be_'
'ą_'
'as_'
'u_'
'or_'
'we_'
'I_'
':_'
'2_'
'not_'
'm_'
'it_'
''_'
'this_'
'dla_'
'że_'
'online_'
'your_'
'have_'
'5_'
',_'
'za_'
'3_'
'ć_'
'will_'
'ów_'
'od_'
'an_'
' "_'
'0_'
'4_'
'lub_'
'can_'
'which_'
'ch_'
' , _'
'?_'
'at_'
'W_'
'was_'
'file_'
'ing_'
'one_'
'go_'
' – _'
'przez_'
'ie_'
'ę_'
'ych_'
'd_'
'em_'
'jak_'
'all_'
'has_'
'also_'
'są_'
' _'
'ed_'
'r_'
'games_'
'our_'
'!_'
'oraz_'
'A_'
't_'
'j_'
'10_'
'free_'
'us_'
'6_'
'but_'
'7_'
'more_'
'only_'
'In_'
'my_'
'ej_'
'), _'
')._'
'" _'
'które_'
'; _'
'n_'
'ego_'
'tylko_'
'tym_'
'We_'
'es_'
'about_'
'mi_'
'This_'
'ze_'
'ale_'
'8_'
'Windows_'
'time_'
'other_'
'12_'
'It_'
'new_'
'European_'
'up_'
'9_'
'co_'
'00_'
'tego_'
'aby_'
'% _'
'być_'
'their_'
'po_'
'ach_'
'gry_'
'15_'
'ym_'
'..._'
'(_'
'ma_'
'its_'
'er_'
'można_'
'roku_'
'Hotel_'
'również_'
'he_'
'who_'
'S_'
'times_'
'they_'
'może_'
'ki_'
'so_'
'To_'
'related_'
'pliku_'
'11_'
'Play_'
'20_'
'ne_'
'który_'
'jako_'
'ich_'
'been_'
'system_'
'l_'
'mogą_'
'his_'
'played_'
'ami_'
'no_'
'into_'
'k_'
'30_'
'C_'
'when_'
'area_'
' / _'
'would_'
'ł_'
'km_'
'may_'
' & _'
'play_'
'these_'
')_'
'ly_'
' | _'
'them_'
'ka_'
'razy_'
'O_'
'także_'
'people_'
'nia_'
' '_'
'information_'
'very_'
'Added_'
'years_'
'updates_'
'there_'
'well_'
'out_'
'most_'
'bardzo_'
'x_'
'use_'
'związanych_'
'must_'
'13_'
'ia_'
'h_'
'should_'
'If_'
' : _'
'g_'
'czy_'
'tej_'
'ten_'
'You_'
'Europe_'
'such_'
'provide_'
'if_'
'extension_'
'będzie_'
'aktualizacji_'
'D_'
'Bez_'
'what_'
'any_'
'50_'
'now_'
'ng_'
'between_'
'open_'
'like_'
'al_'
'2010_'
'19_'
'16_'
'Dodane_'
'2015_'
'here_'
'grał_'
'first_'
'Na_'
'2013_'
'were_'
'ny_'
'grami_'
'c_'
'luzu_'
'Odtwórz_'
'than_'
'every_'
' ._'
'- _'
' !_'
'ek_'
'2012_'
'tak_'
'24_'
'18_'
'day_'
'year_'
'ce_'
'Wien_'
'", _'
'1010_'
'how_'
'available_'
'14_'
'two_'
'te_'
'E_'
'? _'
'25_'
'"_'
'pod_'
'już_'
'jego_'
'Nie_'
'English_'
'pl_'
'data_'
'am_'
'2011_'
'przy_'
'me_'
'22_'
'100_'
'work_'
'per_'
'Poland_'
'17_'
'see_'
'On_'
'then_'
'just_'
'de_'
'bez_'
'TV_'
'Polish_'
'world_'
'translated_'
'EU_'
'! _'
'want_'
'program_'
'States_'
'Home_'
'’_'
'plik_'
'need_'
'many_'
'tych_'
'która_'
'B_'
'wszystkie_'
'więcej_'
'some_'
'over_'
'examples_'
'2009_'
'pracy_'
'important_'
'language_'
'innych_'
'make_'
'jej_'
'hotel_'
'ion_'
'products_'
'case_'
'należy_'
'Mr_'
'service_'
'nas_'
'le_'
'01_'
'way_'
'ta_'
'sposób_'
'nam_'
'countries_'
'centrum_'
'after_'
'Glosbe_'
'services_'
'ją_'
'21_'
'2016_'
'wszystkich_'
'sentences_'
'dictionary_'
'because_'
'No_'
'je_'
'where_'
'even_'
'com_'
'przed_'
'enie_'
'2008_'
'"._'
'support_'
'li_'
'enia_'
'cm_'
'application_'
'Google_'
'For_'
'28_'
'type_'
'lat_'
'Strona_'
'Air_'
'those_'
'place_'
'mm_'
'gdy_'
'' _'
'part_'
'23_'
'interest_'
'help_'
'good_'
'following_'
'T_'
'M_'
'site_'
'przetłumaczonych_'
'Your_'
'New_'
'My_'
'ła_'
'using_'
'product_'
'p_'
'owe_'
'Puzzle_'
'God_'
'quality_'
'President_'
'2014_'
'kiedy_'
'More_'
'EUR_'
' _'
'ń_'
'high_'
'Z_'
'Free_'
'Do_'
'05_'
'without_'
'pytanie_'
'ości_'
'game_'
'P_'
'om_'
'her_'
'darmo_'
'29_'
'też_'
'problem_'
'ci_'
'Union_'
'04_'
'jeśli_'
'ja_'
'find_'
'cie_'
'Member_'
'08_'
'used_'
'through_'
'temu_'
'made_'
'able_'
'Jeśli_'
'40_'
'same_'
'had_'
'get_'
'danych_'
'another_'
'United_'
'R_'
'July_'
'Are_'
'2017_'
'03_'
'size_'
'report_'
'plików_'
'old_'
'know_'
'en_'
'L_'
'26_'
'website_'
'order_'
'number_'
'nich_'
'miejsca_'
'life_'
'ago_'
'2019_'
'09_'
'mail_'
'Points_'
'Commission_'
'2018_'
'view_'
'does_'
'był_'
'based_'
'F_'
'27_'
'produktów_'
'own_'
'osób_'
'ludzi_'
'last_'
'Up_'
'And_'
'try_'
'map_'
'mamy_'
'long_'
'główna_'
'ers_'
'different_'
'check_'
'Room_'
'06_'
've_'
'offers_'
'jeszcze_'
'could_'
'celu_'
'V_'
'Czy_'
'Co_'
' “_'
'st_'
'owych_'
'man_'
'energy_'
'było_'
'Our_'
'” _'
'znajduje_'
'since_'
'rs_'
'owy_'
'nawet_'
'nad_'
'existing_'
'city_'
'U_'
'Fi_'
'Centrum_'
' »_'
'wiele_'
'uje_'
'ty_'
'room_'
'ość_'
'niż_'
'largest_'
'będą_'
' » _'
'temat_'
'located_'
'którzy_'
'jednak_'
'informacji_'
'Wi_'
'Po_'
'", "_'
'today_'
'sobie_'
're_'
'company_'
'best_'
'G_'
'Dress_'
'As_'
'ymi_'
'under_'
'take_'
'których_'
'informacje_'
'dni_'
'cy_'
'bed_'
'again_'
'X_'
'€ _'
'um_'
'słownik_'
'including_'
'gdzie_'
'dane_'
'ble_'
'being_'
'ation_'
'Parliament_'
'He_'
'All_'
'wielu_'
'tion_'
'said_'
'problems_'
'person_'
'ona_'
'languages_'
'example_'
'details_'
'albo_'
'access_'
'USA_'
'Twój_'
'Search_'
'America_'
'07_'
'więc_'
'usage_'
'tutaj_'
'takich_'
'rozszerzenia_'
'jąc_'
'each_'
'during_'
'conditions_'
'change_'
'There_'
'Contact_'
'Cena_'
'Aby_'
'łem_'
'price_'
'podczas_'
'jakości_'
'UE_'
'Kontakt_'
'K_'
'Jak_'
'DLL_'
'ry_'
'right_'
'podstawie_'
'page_'
'okolicy_'
'much_'
'months_'
'między_'
'level_'
'którym_'
'każdej_'
'him_'
'content_'
'children_'
'Xóõ_'
'World_'
'About_'
'31_'
'systemu_'
'stronie_'
'night_'
'great_'
'end_'
'computer_'
'car_'
'Unii_'
'02_'
' „_'
'został_'
'within_'
'software_'
'nych_'
'experience_'
'dzieci_'
'days_'
'country_'
'containing_'
'II_'
'rooms_'
'point_'
'mu_'
'market_'
'język_'
'im_'
'facilities_'
'against_'
'PLN_'
'October_'
'N_'
'., _'
'water_'
'tu_'
'ts_'
'translations_'
'sprawdzić_'
'production_'
'ponieważ_'
'pary_'
'oferuje_'
'da_'
'accommodation_'
'Group_'
'Data_'
'życia_'
'zdjęcia_'
'użycia_'
'ony_'
'odpowiedź_'
'miasta_'
'iem_'
'ic_'
'creating_'
'contact_'
'below_'
'aplikacji_'
'account_'
'Komisji_'
'Jest_'
'Europejskiej_'
'zawsze_'
'project_'
'possible_'
'pomocy_'
'particular_'
'naszych_'
'inne_'
'gov_'
'fact_'
'czas_'
'come_'
'click_'
'called_'
'ca_'
'bardziej_'
'2006_'
' ..._'
'tłumaczenia_'
'teraz_'
'strony_'
'showing_'
'reviews_'
'phrase_'
'error_'
'address_'
'Dla_'
'But_'
'2003_'
'sz_'
'small_'
'set_'
'poprzez_'
'next_'
'minutes_'
'ment_'
'love_'
'less_'
'firmy_'
'dozens_'
'created_'
'always_'
'air_'
'age_'
'Panie_'
'Jeżeli_'
'Internet_'
'However_'
'Gry_'
'Centre_'
'ść_'
'  _'
'total_'
'still_'
'rok_'
'public_'
'przypadku_'
'main_'
'języków_'
'formularz_'
'część_'
'centre_'
'Wszystkie_'
'Toilet_'
'They_'
'These_'
'That_'
'Oferujemy_'
'City_'
'Booking_'
'Australia_'
'ły_'
'zawierający_'
'takim_'
'swoje_'
'say_'
'ponad_'
'policy_'
'pokazując_'
'pairs_'
'offer_'
'noc_'
'ji_'
'jeden_'
'did_'
'business_'
'Y_'
'What_'
'Show_'
'Pokaż_'
'One_'
'Ciekawe_'
'Business_'
'000_'
' '
'świecie_'
'zdań_'
'three_'
'therefore_'
'słowniki_'
'rights_'
'ramach_'
'economic_'
'dictionaries_'
'current_'
'companies_'
'International_'
'70_'
'. - _'
' [_'
'zdanie_'
'words_'
'while_'
'swój_'
'sprawie_'
'różnych_'
'przykładów_'
'przykłady_'
'private_'
'prawa_'
'otworzyć_'
'oferujemy_'
'ni_'
'group_'
'financial_'
'family_'
'dziesiątki_'
'development_'
'already_'
'Ten_'
'Polska_'
'60_'
' . _'
'warunki_'
'przetłumaczone_'
'power_'
'około_'
'needs_'
'naszej_'
'nasze_'
'name_'
'miejsce_'
'dnia_'
'Go_'
'China_'
'Au_'
'wypadku_'
'wszystko_'
'too_'
'think_'
'takie_'
'social_'
'przykład_'
'la_'
'ku_'
'ies_'
'form_'
'części_'
'czasie_'
'before_'
'bathroom_'
'ać_'
'Więcej_'
'When_'
'Font_'
'Ci_'
'45_'
'ło_'
'wynosi_'
'working_'
'wartości_'
'th_'
'swojej_'
'screen_'
'results_'
'par_'
'owego_'
'nim_'
'ness_'
'm2_'
'liśmy_'
'list_'
'kilka_'
'both_'
'better_'
'adres_'
'] _'
'\u_'
'Product_'
'Private_'
'Pair_'
'January_'
'H_'
'Games_'
'Currently_'
'Apartments_'
'&_'
'typu_'
'shall_'
'present_'
'polski_'
'period_'
'owa_'
'money_'
'million_'
'mają_'
'issues_'
'euro_'
'body_'
'South_'
'How_'
'Apartment_'
'80_'
' — _'
'  _'
' +_'
' $_'
'zy_'
'tworzeniu_'
'things_'
'ted_'
'range_'
'programu_'
'programs_'
'problemów_'
'nowego_'
'naszego_'
'musi_'
'line_'
'et_'
'cji_'
'building_'
'View_'
'Shower_'
'Hostel_'
'Ameryka_'
'Aktualnie_'
'90_'
'translatedCollaborationHelp_'
'stanie_'
'something_'
'select_'
'rate_'
'osoby_'
'ors_'
'double_'
'cookies_'
'With_'
'Read_'
'Pogoda_'
'2005_'
'wa_'
'user_'
'telefon_'
'szybko_'
'swoim_'
'resources_'
'protection_'
'produkcji_'
'political_'
'największego_'
'najlepszego_'
'local_'
'ity_'
'human_'
'hotele_'
'download_'
'dll_'
'control_'
'clear_'
'ciągu_'
'była_'
'big_'
'bar_'
'b_'
'average_'
'Znajdź_'
'Weather_'
'Warsaw_'
'Od_'
'Jigsaw_'
'Information_'
'IT_'
': "_'
'35_'
'32_'
'."_'
' © _'
'weather_'
'użytkowników_'
'telewizor_'
'table_'
'solution_'
'side_'
'samym_'
'region_'
'read_'
'phone_'
'nadal_'
'meteo_'
'message_'
'men_'
'll_'
'live_'
'light_'
'law_'
'land_'
'friends_'
'food_'
'few_'
'add_'
'Szczegóły_'
'System_'
'ProgID_'
'Price_'
'PC_'
'Lotnisko_'
'Council_'
'2004_'
'zdańWspółpracaPomóż_'
'włosów_'
'visit_'
'value_'
'together_'
'słownika_'
'swoich_'
'show_'
'se_'
'rzecz_'
'question_'
'process_'
'praw_'
'pierwszy_'
'photos_'
'ons_'
'np_'
'minut_'
'którego_'
'ions_'
'down_'
'dostępnego_'
'bezpieczeństwa_'
'back_'
'Live_'
'After_'
'® _'
'zł_'
'zakresie_'
'usług_'
'situation_'
'security_'
'satelitarne_'
'rozwoju_'
'ra_'
'prysznic_'
'pomocą_'
'personal_'
'owej_'
'ować_'
'owanie_'
'konto_'
'jednym_'
'found_'
'field_'
'event_'
'el_'
'date_'
'człowieka_'
'czasu_'
'close_'
'chcesz_'
'bo_'
'ania_'
'X'
'Przejdź_'
'Online_'
'K'
'House_'
'High_'
'DE_'
'CD_'
'Add_'
'500_'
'48_'
'33_'
'2007_'
'• _'
'ąc_'
'została_'
'uzyskać_'
'tę_'
'several_'
'real_'
'prywatna_'
'problemy_'
'ochrony_'
'ną_'
'nowych_'
'najbardziej_'
'modern_'
'mnie_'
'lecz_'
'installed_'
'house_'
'give_'
'files_'
'cja_'
'around_'
'anie_'
'above_'
'a'
'Start_'
'Service_'
'Park_'
'Other_'
'John_'
'Instant_'
'France_'
'Bóg_'
'Available_'
'At_'
';_'
', "_'
' > _'
' #_'
'°_'
'zobaczyć_'
'zestaw_'
'version_'
'town_'
'systems_'
'swoją_'
'standard_'
'school_'
'safety_'
'rzeczy_'
'rozszerzenie_'
'przewodniczący_'
'przedsiębiorcy_'
'projects_'
'odległości_'
'natural_'
'month_'
'living_'
'health_'
'ge_'
'future_'
'especially_'
'ensure_'
'dzień_'
'dobrze_'
'dlatego_'
'citizens_'
'art_'
'T'
'Services_'
'Machine_'
'Italy_'
'Help_'
'Find_'
'EN_'
'Download_'
'Dodaj_'
'Casino_'
'300_'
'.)_'
'" (_'
'zarówno_'
'transport_'
'ting_'
'solutions_'
'ski_'
'rynku_'
'performance_'
'paper_'
'osobę_'
'music_'
'model_'
'mieć_'
'means_'
'manually_'
'machine_'
'ków_'
'kraju_'
'internet_'
'floor_'
'eń_'
'emy_'
'dzięki_'
'course_'
'cost_'
'conditioning_'
'color_'
'cia_'
'błąd_'
'French_'
'Europy_'
'Copyright_'
'Christ_'
'34_'
'związane_'
'zostały_'
'ung_'
'sure_'
'second_'
'puzzle_'
'polityki_'
'needed_'
'mapę_'
'f_'
'errors_'
'dniu_'
'create_'
'book_'
'ask_'
'among_'
'Wyposażenie_'
'Kolor_'
'Game_'
'Europa_'
'By_'
'Berlin_'
'Bath_'
'+ _'
'* _'
'”._'
'łazienka_'
'yć_'
'whole_'
'trakcie_'
'top_'
'terms_'
'szczególnie_'
'she_'
'search_'
'sea_'
'raz_'
'produktu_'
'pomiędzy_'
'nowe_'
'naszym_'
'n'
'min_'
'mieście_'
'lata_'
'large_'
'kliknij_'
'kategorii_'
'jeżeli_'
'jestem_'
'jednego_'
'heart_'
'fully_'
'engine_'
'email_'
'dy_'
'ds_'
'dostępne_'
'design_'
'crisis_'
'costs_'
'cena_'
'bit_'
'association_'
'areas_'
'ani_'
'Zadaj_'
'Polski_'
'Jesus_'
'Jego_'
'ż_'
'zie_'
'zgodnie_'
'why_'
'subject_'
'stronę_'
'state_'
'registry_'
'reason_'
'rates_'
'powietrza_'
'ową_'
'opinii_'
'nt_'
'might_'
'measures_'
'management_'
'lipca_'
'której_'
'ić_'
'included_'
'hotelu_'
'home_'
'grupy_'
'full_'
'dwa_'
'chcemy_'
'believe_'
'away_'
'activities_'
'Usługi_'
'US_'
'USD_'
'Saturday_'
'Registry_'
'Quality_'
'Office_'
'M'
'IP_'
'German_'
'Channels_'
'Biznes_'
'April_'
'Android_'
'200_'
'. - (_'
'+_'
' • _'
'ści_'
'zostanie_'
'widok_'
'suszarka_'
'single_'
'sa_'
'rozszerzeniem_'
'red_'
'put_'
'please_'
'parking_'
'nej_'
'national_'
'nasz_'
'następnie_'
'możesz_'
'least_'
'każdego_'
'history_'
'hand_'
'easy_'
'członkowskich_'
'climate_'
'cały_'
'call_'
'ary_'
'apartment_'
'Twoje_'
'September_'
'Nasza_'
'Museum_'
'Komisja_'
'Heating_'
'Hairdryer_'
'Germany_'
'Facilities_'
'Check_'
'Center_'
'Breakfast_'
'Book_'
'B'
'Auschwitz_'
'Africa_'
'75_'
' ... _'
'życie_'
'świata_'
'środków_'
'znaleźć_'
'wy_'
'team_'
'sprzedaży_'
'quickly_'
'points_'
'persons_'
'ns_'
'miesięcy_'
'material_'
'latach_'
'kung_'
'ks_'
'klimatyzacja_'
'jedynie_'
'issue_'
'international_'
'industry_'
'ian_'
'given_'
'environment_'
'dziś_'
'domu_'
'cooperation_'
'added_'
'Zobacz_'
'Year_'
'Therefore_'
'Radio_'
'November_'
'National_'
'L'
'J_'
'Hotels_'
'52_'
'wybrać_'
'wszystkim_'
'works_'
'women_'
'white_'
'various_'
'usługi_'
'udział_'
'travel_'
'toaleta_'
'stanowi_'
'shown_'
'server_'
'seen_'
'return_'
'org_'
'onych_'
'ogrzewanie_'
'off_'
'numer_'
'government_'
'going_'
'firm_'
'equipment_'
'e'
'designed_'
'collection_'
'center_'
'bezpłatny_'
'beautiful_'
'ar_'
'Z'
'Wybierz_'
'University_'
'U'
'Suite_'
'Studio_'
'Stany_'
'Serwis_'
'S'
'Pokoju_'
'PDF_'
'May_'
'Logowanie_'
'Inne_'
'First_'
'Facebook_'
'@_'
'51_'
'44_'
' °_'
'związku_'
'ya_'
'właśnie_'
'wide_'
'week_'
'video_'
'trzy_'
'treści_'
'trade_'
'ter_'
'temperature_'
'tam_'
'status_'
'special_'
'short_'
'prostu_'
'prices_'
'pozwala_'
'otrzymać_'
'often_'
'miłości_'
'miejsc_'
'menu_'
'ludzie_'
'let_'
'key_'
'każdym_'
'k'
'ive_'
'interesting_'
'increase_'
'grać_'
'global_'
'friend_'
'format_'
'feel_'
'działania_'
'dwóch_'
'debate_'
'currently_'
'built_'
'become_'
'allows_'
'airport_'
'[_'
'Ta_'
'R'
'Please_'
'Oceania_'
'Kiedy_'
'I'
'G'
'From_'
'39_'
' € _'
' -_'
'zmiany_'
'young_'
'wobec_'
'walk_'
'v_'
'taken_'
'sites_'
'ręcznie_'
'road_'
'projektu_'
'pobliżu_'
'places_'
'państwa_'
'operating_'
'ono_'
'oni_'
'możliwość_'
'możemy_'
'meeting_'
'media_'
'little_'
'klientów_'
'kawy_'
'jakie_'
'groups_'
'gra_'
'effective_'
'description_'
'der_'
'd'
'construction_'
'choose_'
'care_'
'box_'
'amount_'
'Towels_'
'Tak_'
'Rooms_'
'Pobierz_'
'PL_'
'Now_'
'Music_'
'Można_'
'Management_'
'Forum_'
'FAQ_'
'D'
'Airport_'
'. _'
'): _'
'żywo_'
'ś_'
'znaczenie_'
'zawiera_'
'yet_'
'wraz_'
'wanna_'
'via_'
'użyć_'
'until_'
'ują_'
'start_'
'send_'
'run_'
'result_'
'research_'
'rejestru_'
'projekt_'
'prawo_'
'pliki_'
'particularly_'
'opportunity_'
'opened_'
'once_'
'ok_'
'odniesieniu_'
'near_'
'następujące_'
'naprawdę_'
'm²_'
'możliwe_'
'metrów_'
'members_'
'ls_'
'kto_'
'knowledge_'
'kanały_'
'jaki_'
'i'
'film_'
'chwili_'
'certain_'
'były_'
'beach_'
'basis_'
'associated_'
'achieve_'
'Te'
'Street_'
'Station_'
'Poker_'
'Paris_'
'North_'
'N'
'Microsoft_'
'March_'
'Log_'
'Last_'
'Kingdom_'
'Just_'
'F'
'Europie_'
'Dlatego_'
'Boga_'
'An_'
'Ale_'
'49_'
'36_'
'Śniadanie_'
'y'
'users_'
'space_'
'son_'
'satellite_'
'safe_'
's'
'required_'
'reports_'
'questions_'
'produkty_'
'posiada_'
'poniżej_'
'others_'
'orgasm_'
'office_'
'nym_'
'niu_'
'net_'
'mniej_'
'miejscu_'
'komentarz_'
'iż_'
'itp_'
'items_'
'informacja_'
'ice_'
'highly_'
'held_'
'garden_'
'four_'
'equipped_'
'either_'
'często_'
'czyli_'
'będziemy_'
'according_'
'Zjednoczone_'
'V'
'San_'
'Reviews_'
'Polsce_'
'Parlamentu_'
'Pani_'
'Pan_'
'June_'
'Ironing_'
'Iron_'
'Grupy_'
'Escape_'
'Double_'
'Date_'
'Close_'
'Best_'
'Barcelona_'
'37_'
'... _'
'. (_'
'   _'
'« _'
'zostać_'
'ziemi_'
'zaledwie_'
'wysokiej_'
'wtedy_'
'września_'
'whether_'
'uwagę_'
'types_'
'typ_'
'training_'
'thing_'
'technologii_'
'sytuacja_'
'star_'
'sound_'
'simply_'
'resolution_'
'razem_'
'r'
'pictures_'
'oznacza_'
'ous_'
'operation_'
'niektórych_'
'never_'
'necessary_'
'musimy_'
'możliwości_'
'miejscowości_'
'making_'
'kę_'
'ko_'
'kilku_'
'języku_'
'jący_'
'ings_'
'info_'
'implementation_'
'idea_'
'id_'
'hotels_'
'geograficzna_'
'ga_'
'dostęp_'
'death_'
'comment_'
'comes_'
'ck_'
'blue_'
'analysis_'
'along_'
'almost_'
'aktywny_'
'addition_'
'White_'
'School_'
'Satellite_'
'Russia_'
'Rady_'
'Q'
'Przed_'
'Pomocy_'
'Parking_'
'News_'
'His_'
'Flat_'
'Europejskiego_'
'Enter_'
'Customer_'
'Coffee_'
'Central_'
'Apartamenty_'
'Additional_'
'2000_'
'1'
' + _'
' # _'
'zakwaterowanie_'
'xHamster_'
'wzrost_'
'względu_'
'turn_'
'trying_'
'tourist_'
'tor_'
'took_'
'toiletries_'
'third_'
'technology_'
'speak_'
'ro_'
'respect_'
'receive_'
'really_'
'realizacji_'
'płaskim_'
'próby_'
'prawie_'
'powinien_'
'position_'
'pokoju_'
'państw_'
'owi_'
'obecnie_'
'numbers_'
'ni'
'network_'
'nego_'
'moment_'
'moim_'
'mobile_'
'lower_'
'looking_'
'liczba_'
'kwestii_'
'keep_'
'ję_'
'informacyjno_'
'iej_'
'growth_'
'far_'
'face_'
'extra_'
'excellent_'
'era_'
'energii_'
'ekranem_'
'education_'
'directly_'
'developed_'
'dates_'
'członkowskie_'
'comments_'
'category_'
'cannot_'
'ał_'
'action_'
'Zdjęcia_'
'Y'
'W'
'St_'
'So_'
'See_'
'Russian_'
'Refrigerator_'
'London_'
'Linen_'
'Informacje_'
'Holy_'
'December_'
'Commissioner_'
'Climate_'
'Change_'
'Brak_'
'Austria_'
'Asia_'
'Art_'
'Area_'
'55_'
'53_'
'43_'
'38_'
'2001_'
'150_'
'0'
' ( _'
'świat_'
'zdjęć_'
'według_'
'usługowy_'
'uses_'
'unique_'
'text_'
'test_'
'taking_'
'swojego_'
'ss_'
'speed_'
'sie_'
'shows_'
'rules_'
'rozwiązania_'
'rodziny_'
'rodzaju_'
'ring_'
'requests_'
'punktów_'
'property_'
'powodu_'
'powierzchni_'
'powiedzieć_'
'port_'
'podróży_'
'players_'
'pieniądze_'
'news_'
'naszą_'
'mogli_'
'mind_'
'makes_'
'lot_'
'którą_'
'king_'
'joint_'
'jednej_'
'jakim_'
'installation_'
'highest_'
'ha_'
'general_'
'działań_'
'due_'
'dokładnie_'
'displayed_'
'device_'
'copy_'
'code_'
'approach_'
'agree_'
'active_'
'Turkey_'
'Tag_'
'State_'
'Skip_'
'Sii_'
'Sign_'
'Parts_'
'Max_'
'La_'
'J'
'Darmowy_'
'Croatia_'
'Black_'
'Bed_'
'Alarm_'
'99_'
'64_'
'śmy_'
'ący_'
'zrobić_'
'wrong_'
'wiadomości_'
'village_'
'ton_'
'tekstu_'
'technical_'
'sprzęt_'
'sieci_'
'siebie_'
'sh_'
'rozwiązanie_'
'responsibility_'
'ready_'
'rapporteur_'
'profile_'
'professional_'
'prepared_'
'początku_'
'otwierania_'
'okresie_'
'odpowiedzi_'
'nature_'
'mój_'
'mogę_'
'manner_'
'major_'
'low_'
'look_'
'liczby_'
'length_'
'known_'
'klasy_'
'iu_'
'internetowej_'
'include_'
'ik_'
'ii_'
'hours_'
'girl_'
'gier_'
'g'
'exactly_'
'eniem_'
'emu_'
'duże_'
'done_'
'customer_'
'coś_'
'complete_'
'ceny_'
'biurko_'
'behalf_'
'badań_'
'badania_'
'automatycznie_'
'associate_'
'angielski_'
'Use_'
'Twojego_'
'Telephone_'
'Szukaj_'
'Support_'
'Striptease_'
'Sp_'
'Solutions_'
'Snapshot_'
'Red_'
'Program_'
'Premium_'
'Południowa_'
'Państwo_'
'OS_'
'Niemcy_'
'Name_'
'Moje_'
'Menu_'
'Master_'
'Main_'
'Great_'
'Electric_'
'El_'
'East_'
'Desk_'
'Dancing_'
'C'
'Azja_'
'Audio_'
'3'
'10'
'… _'
'”, _'
'ące_'
'wody_'
'większości_'
'wieku_'
'war_'
'vote_'
'ves_'
'values_'
'uważam_'
'uruchomienia_'
'uj_'
'u'
'ty'
'tions_'
'thanks_'
'temperatura_'
'tell_'
'systemie_'
'success_'
'strong_'
'strategy_'
'sion_'
'si'
'settings_'
'samochodów_'
'risk_'
'review_'
'recommended_'
'radio_'
'próbie_'
'położony_'
'ponownie_'
'pokoje_'
'plikiem_'
'plaży_'
'piśmie_'
'pełni_'
'perfect_'
'park_'
'owym_'
'ow_'
'os_'
'opinie_'
'obywateli_'
'nothing_'
'non_'
'nik_'
'niego_'
'nami_'
'lodówka_'
'link_'
'lepiej_'
'latest_'
'kontakt_'
'kg_'
'jesteśmy_'
'jesteś_'
'internetowe_'
'institutions_'
'higher_'
'hi_'
'half_'
'goods_'
'further_'
'foreign_'
'entire_'
'dotyczących_'
'dotyczące_'
'dom_'
'direct_'
'decision_'
'dalej_'
'częścią_'
'correct_'
'connect_'
'completely_'
'compatible_'
'cele_'
'caused_'
'cal_'
'c'
'benefits_'
'aż_'
'article_'
'ana_'
'ally_'
'allow_'
'additional_'
'Wypełnij_'
'Video_'
'Time_'
'Terms_'
'Taniec_'
'Super_'
'Striptiz_'
'Spanish_'
'Since_'
'Północna_'
'P'
'Number_'
'Model_'
'Lord_'
'Let_'
'Księżyca_'
'Języki_'
'Israel_'
'Invalid_'
'Here_'
'Grand_'
'Display_'
'Description_'
'DVD_'
'Czech_'
'Ciebie_'
'Church_'
'Christian_'
'AC'
'A'
'.  _'
'.) _'
'ście_'
'zwłaszcza_'
'ze'
'wśród_'
'wybór_'
'współpracy_'
'wiedzieć_'
'web_'
'ważne_'
'true_'
'towards_'
'themselves_'
'thank_'
'term_'
'taki_'
'słowa_'
'sts_'
'spróbować_'
'skiego_'
'serwera_'
'sales_'
'ręczniki_'
'różne_'
'role_'
'regedit_'
'received_'
'przedsiębiorstw_'
'provides_'
'programów_'
'programme_'
'powinny_'
'powiedział_'
'potrzebne_'
'plan_'
'pa_'
'otwarcia_'
'otrzymam_'
'osobowych_'
'obsługi_'
'obszarze_'
'niem_'
'mówi_'
'meet_'
'masz_'
'learn_'
'later_'
'l'
'ką_'
'komputer_'
'kobiet_'
'kettle_'
'ke_'
'każdy_'
'job_'
'island_'
'instytucję_'
'innej_'
'individual_'
'includes_'
'importance_'
'historii_'
'head_'
'having_'
'ha'
'ground_'
'go'
'functions_'
'front_'
'floors_'
'features_'
'f'
'exe_'
'events_'
'etc_'
'ent_'
'efficiency_'
'don_'
'distance_'
'czego_'
'czcionki_'
'connection_'
'cję_'
'century_'
'całego_'
'calls_'
'branży_'
'booking_'
'ations_'
'allowed_'
'Zoom_'
'Wardrobe_'
'Some_'
'SA_'
'Pro_'
'Pod'
'Nowe_'
'Może_'
'Monday_'
'Madam_'
'Klimat_'
'JavaScript_'
'Is_'
'H'
'Gra_'
'File_'
'Father_'
'Europejski_'
'Elevator_'
'ENTER_'
'During_'
'Dining_'
'Day_'
'Car_'
'Box_'
'Bardzo_'
'Auhelawa_'
'August_'
'Afryka_'
': '
'95_'
'62_'
'46_'
'.”_'
'™ _'
'życzenie_'
'śmierci_'
'Średnia_'
'zwierząt_'
'zobacz_'
'zmian_'
'wysokości_'
'wyniki_'
'wsparcia_'
'writing_'
'wać_'
'w'
'views_'
'variety_'
'uwagi_'
'unit_'
'ując_'
'tra'
'thought_'
'tes_'
'tanie_'
't'
'symptoms_'
'surface_'
'students_'
'strona_'
'stay_'
'started_'
'skojarzyć_'
'situated_'
'series_'
'rezerwacja_'
'published_'
'ps_'
'pościel_'
'poziom_'
'poza_'
'powodów_'
'pool_'
'pomimo_'
'pod'
'platform_'
'plant_'
'pan_'
'package_'
'p'
'owany_'
'on'
'official_'
'nią_'
'niej_'
'najlepsze_'
'nadzieję_'
'móc_'
'muszą_'
'ms_'
'minute_'
'member_'
'medical_'
'mam_'
'listopada_'
'limit_'
'left_'
'led_'
'kosmetyków_'
'komputerze_'
'kolory_'
'kitchen_'
'kind_'
'kids_'
'jące_'
'jakość_'
'istnieje_'
'ism_'
'instalacji_'
'impact_'
'image_'
'hostele_'
'gro'
'gości_'
'got_'
'fitness_'
'europejskich_'
'entrepreneurs_'
'enjoy_'
'dzielnicy_'
'dziedzinie_'
'doświadczenie_'
'doing_'
'dodać_'
'dive_'
'ding_'
'devices_'
'czym_'
'comfortable_'
'closet_'
'church_'
'całym_'
'came_'
'board_'
'black_'
'beginning_'
'ate_'
'associations_'
'aplikacją_'
'apartments_'
'Zaloguj_'
'Write_'
'USB_'
'Then_'
'Spain_'
'Si'
'Santa_'
'Republic_'
'Prze'
'Powiększanie_'
'PM2_'
'Nieprawidłowe_'
'MyApplication_'
'Muzeum_'
'Microwave_'
'Learn_'
'Kraków_'
'ID_'
'ES_'
'Current_'
'Click_'
'Cable_'
'British_'
'Beach_'
'According_'
'AQI_'
'74_'
'600_'
'6'
'42_'
'3D_'
'2'
'. '
'.'
'–_'
'żelazko_'
'żeby_'
'ński_'
'ących_'
'ór_'
'á_'
'Ä_'
'zaś_'
'zapewnia_'
'x'
'wskaźnik_'
'wpisy_'
'worked_'
'wie_'
'va_'
'używać_'
'użytkownika_'
'usually_'
'urządzeń_'
'umożliwia_'
'trzech_'
'transfer_'
'su_'
'strategii_'
'specific_'
'someone_'
'skie_'
'ska_'
'six_'
'simple_'
'sent_'
'sector_'
'rzeczywistości_'
'rozwój_'
'request_'
'remain_'
'regulation_'
'que_'
'pytania_'
'provided_'
'poziomie_'
'powinniśmy_'
'popular_'
'picture_'
'performed_'
'palcami_'
'ością_'
'owo_'
'owania_'
'outside_'
'oil_'
'oferty_'
'odpowiednie_'
'obiektu_'
'obejmuje_'
'nr_'
'nic_'
'movement_'
'mocy_'
'mikrofalowa_'
'matter_'
'marca_'
'm'
'lotniska_'
'ling_'
'ler_'
'legal_'
'kuchenka_'
'krajów_'
'ko'
'języka_'
'jedna_'
'jakiś_'
'involved_'
'investment_'
'interests_'
'install_'
'inside_'
'increased_'
'images_'
'ideal_'
'hope_'
'głównych_'
'giving_'
'fields_'
'ever_'
'en'
'effect_'
'delivery_'
'dać_'
'daje_'
'czerwca_'
'cz_'
'culture_'
'cultural_'
'cover_'
'contract_'
'continue_'
'connected_'
'concerns_'
'communication_'
'colors_'
'class_'
'cities_'
'ciała_'
'charge_'
'ch'
'ces_'
'cart_'
'capacity_'
'błędy_'
'budget_'
'breakfast_'
'begin_'
'availability_'
'attention_'
'applications_'
'ant_'
'akcji_'
'advanced_'
'acja_'
'ability_'
'Zjednoczonych_'
'Zabawa_'
'West_'
'War_'
'Układanki_'
'Top_'
'Ta'
'Square_'
'Sprawdź_'
'Send_'
'Seating_'
'Rejestrze_'
'RE'
'Pollution_'
'Plik_'
'Parlament_'
'Opis_'
'Od'
'Nowy_'
'Mobile_'
'Love_'
'Light_'
'Jestem_'
'India_'
'ISO_'
'General_'
'Friday_'
'Edmonton_'
'Development_'
'Design_'
'Części_'
'Committee_'
'Call_'
'Benecko_'
'85_'
'8'
'66_'
'59_'
'57_'
'5'
'41_'
'32'
'30'
'.: _'
'.._'
') '
' /_'
'…_'
'„_'
'środowiska_'
'¿_'
'zy'
'zostało_'
'zdrowia_'
'własność_'
'wo_'
'wliczone_'
'wejść_'
'urządzenia_'
'umiejętności_'
'ujemy_'
'till_'
'ties_'
'techniczne_'
'sytuacji_'
'sy_'
'supports_'
'study_'
'structure_'
'steel_'
'statistics_'
'stanowią_'
'staff_'
'skin_'
'self_'
'says_'
'samochodu_'
'roli_'
'rich_'
'response_'
'relations_'
'ratio_'
'quite_'
'przepisów_'
'programy_'
'produkt_'
'producenta_'
'proces_'
'prasowania_'
'population_'
'ował_'
'otwarte_'
'ostatnich_'
'opportunities_'
'nts_'
'nową_'
'nowym_'
'nowo_'
'note_'
'na'
'musisz_'
'mln_'
'matters_'
'materials_'
'man'
'lives_'
'kultury_'
'koszty_'
'konieczności_'
'komputera_'
'jedną_'
'jednocześnie_'
'ja'
'innymi_'
'indicated_'
'improve_'
'ile_'
'however_'
'hard_'
'h'
'głównie_'
'godzin_'
'gives_'
'fuel_'
'formie_'
'formats_'
'forest_'
'font_'
'five_'
'fight_'
'experiences_'
'exhibition_'
'everything_'
'eniu_'
'enable_'
'effects_'
'drugiej_'
'dress_'
'difficult_'
'di_'
'daily_'
'customers_'
'cross_'
'coraz_'
'common_'
'chodzi_'
'child_'
'cause_'
'cases_'
'born_'
'blisko_'
'ball_'
'audio_'
'asked_'
'artists_'
'approx_'
'ance_'
'analizy_'
'ali'
'actually_'
'activity_'
'Za_'
'York_'
'Work_'
'WiFi_'
'Warszawie_'
'VAT_'
'Us_'
'Twitter_'
'Tri'
'Tea_'
'Tagi_'
'Sunday_'
'Sport_'
'Skype_'
'Rozwiązania_'
'Real_'
'Racing_'
'Programme_'
'Privacy_'
'Phone_'
'People_'
'Państwa_'
'Of_'
'Oeuf_'
'Oczywiście_'
'Moon_'
'Michael_'
'Map_'
'MB_'
'Jezusa_'
'Jezus_'
'Jesteśmy_'
'Japan_'
'Ice_'
'IN'
'Golden_'
'Go'
'Girl_'
'February_'
'Euro_'
'Edition_'
'E'
'Długość_'
'Company_'
'Club_'
'Christmas_'
'Choose_'
'Birkenau_'
'Apartament_'
'Ameryki_'
'American_'
'Aktualności_'
'Airports_'
':* _'
': “_'
'97_'
'96_'
'65_'
'50'
'47_'
'4'
'24'
'1999_'
'$_'
'’ _'
'– _'
'żadnych_'
'é_'
'é'
'± _'
'zostaną_'
'zespół_'
'zamiast_'
'wych_'
'wsparcie_'
'wood_'
'win_'
'wiedzy_'
'walking_'
'ver_'
'update_'
'up'
'trzeba_'
'tri'
'treatment_'
'transportu_'
'tic_'
'thus_'
'throughout_'
'tel_'
'te'
'taras_'
'supply_'
'super_'
'sufficient_'
'step_'
'states_'
'st'
'sobota_'
'sk_'
'sing_'
'similar_'
'share_'
'section_'
'score_'
'requirements_'
'regard_'
'recommend_'
'rd_'
'punkt_'
'protected_'
'proposal_'
'procesu_'
'prevent_'
'press_'
'presented_'
'positive_'
'poor_'
'pogody_'
'physical_'
'past_'
'partners_'
'parties_'
'pani_'
'pana_'
'owanych_'
'organizacji_'
'oprogramowanie_'
'onego_'
'olej_'
'nowy_'
'nowej_'
'notification_'
'nce_'
'morza_'
'ments_'
'materiałów_'
'markets_'
'log_'
'lead_'
'krajach_'
'korzystania_'
'klimatu_'
'klienta_'
'kablowe_'
'j'
'ium_'
'instruments_'
'independent_'
'height_'
'gwarancji_'
'green_'
'gasse_'
'gas_'
'garderoba_'
'freedom_'
'framework_'
'forward_'
'former_'
'force_'
'follow_'
'fix_'
'fee_'
'est_'
'ess_'
'eri'
'enough_'
'employees_'
'elementy_'
'elektryczny_'
'easier_'
'digital_'
'described_'
'considered_'
'completed_'
'competition_'
'client_'
'central_'
'cenie_'
'całej_'
'capital_'
'budzik_'
'budynku_'
'bring_'
'border_'
'basic_'
'answers_'
'ane_'
'agreement_'
'accordance_'
'Włochy_'
'Wyniki_'
'Ważne_'
'Twoim_'
'Tu'
'Trade_'
'Their_'
'Text_'
'Tele'
'Te_'
'TS_'
'Switzerland_'
'Stock_'
'Roleplay_'
'Proszę_'
'Projekt_'
'Plaza_'
'Photos_'
'Pa'
'Ostatnia_'
'O'
'Niektóre_'
'Nie'
'Next_'
'Newsletter_'
'Należy_'
'Mountains_'
'Most_'
'Mo'
'Media_'
'Mal'
'Languages_'
'LI'
'Księżyc_'
'King_'
'Kb_'
'Italian_'
'Internetu_'
'Index_'
'He'
'Hack_'
'Get_'
'GPS_'
'Flowers_'
'Fingering_'
'EC_'
'Cu'
'Cookies_'
'Chciałbym_'
'Bank_'
'Background_'
'Amsterdam_'
'72_'
'61_'
'56_'
'54_'
'2002_'
'167_'
'00'
'. – _'
', (_'
', '
'średnia_'
'ä'
'Å_'
'zwiększenia_'
'zi'
'zasobów_'
'ying_'
'wysokość_'
'wyraźnie_'
'wypoczynkowa_'
'wybierz_'
'wszyscy_'
'word_'
'wife_'
'widzenia_'
'wideo_'
'went_'
'weight_'
'weeks_'
'wcześniej_'
'wania_'
'utworzyć_'
'understand_'
'umowy_'
'truth_'
'title_'
'thousand_'
'tekst_'
'sze_'
'systemów_'
'sustainable_'
'style_'
'station_'
'sprzedaż_'
'sprawozdania_'
'sport_'
'source_'
'sklep_'
'sejf_'
'secure_'
'save_'
'sam_'
'sale_'
'sa'
'rozpocząć_'
'rezerwacji_'
'restaurant_'
'rest_'
'register_'
'refer_'
'płótnie_'
'później_'
'purposes_'
'przyszłości_'
'przestrzeni_'
'prze'
'prowadzić_'
'projektów_'
'produce_'
'problemu_'
'probably_'
'practice_'
'pracowników_'
'potrzeby_'
'potential_'
'postaci_'
'possibility_'
'polityka_'
'pokój_'
'pokoi_'
'pokazuje_'
'pobrać_'
'playing_'
'października_'
'państwo_'
'participation_'
'par'
'panie_'
'panel_'
'pa'
'owie_'
'ori'
'opis_'
'opinię_'
'opening_'
'ones_'
'od'
'nor_'
'ne'
'nd_'
'naturalne_'
'najmniej_'
'muzyka_'
'morska_'
'miłość_'
'minimum_'
'miesiące_'
'miał_'
'mi'
'method_'
'maximum_'
'marki_'
'lotnicze_'
'listy_'
'lines_'
'limited_'
'li'
'les_'
'leading_'
'kwietnia_'
'kontaktowe_'
'jakiego_'
'ił_'
'io'
'invalid_'
'influence_'
'ine_'
'incorrect_'
'immediately_'
'hour_'
'hoteli_'
'holiday_'
'ge'
'fun_'
'flat_'
'firma_'
'filmu_'
'feature_'
'fast_'
'families_'
'faith_'
'external_'
'ep'
'elements_'
'efficient_'
'dużych_'
'downloading_'
'dotyczący_'
'decide_'
'ców_'
'czy'
'czajnik_'
'cookie_'
'consumer_'
'conference_'
'commercial_'
'clock_'
'changes_'
'cenę_'
'centrala_'
'cen_'
'celem_'
'całą_'
'całości_'
'card_'
'blood_'
'benefit_'
'began_'
'bal'
'aware_'
'artykułu_'
'ani'
'ak_'
'agricultural_'
'adopted_'
'XP_'
'Wielka_'
'Wibrator_'
'Why_'
'Wersja_'
'Warunki_'
'Wake_'
'Twoja_'
'Two_'
'Thursday_'
'TA'
'Su'
'She_'
'Science_'
'Sch'
'Reklama_'
'Re'
'RO_'
'Project_'
'Products_'
'Ponadto_'
'Podczas_'
'Pliki_'
'Piotr_'
'Opinie_'
'Odgrywanie_'
'Nasze_'
'Nasz_'
'Minister_'
'Mi'
'Mexico_'
'Manufacturer_'
'Ltd_'
'Le'
'Language_'
'LED_'
'Jewish_'
'Ho'
'Hire_'
'Harrachov_'
'Grupa_'
'Gra'
'Gaming_'
'Foundation_'
'Fa'
'En'
'Each_'
'Dr_'
'Dom_'
'Da'
'Community_'
'Chinese_'
'Children_'
'Cars_'
'Carpeted_'
'Camping_'
'Bo'
'Ba'
'Argentina_'
'Agency_'
'Adventure_'
'Adam_'
'AR'
': _'
'98_'
'78_'
'400_'
'26'
'2020_'
'12'
'/ _'
'--_'
' ?_'
' = _'
' % _'
'żywności_'
'ż'
'środki_'
'ńska_'
' '
'zenie_'
'zbyt_'
'zatem_'
'zap'
'ys'
'wydajność_'
'wpływ_'
'worth_'
'workers_'
'większość_'
'wiemy_'
'wersji_'
'welcome_'
'wartość_'
'war'
'wam_'
'visitors_'
'versions_'
'useful_'
'unto_'
'ul_'
'tysięcy_'
'tur'
'trip_'
'towar_'
'toaletowy_'
'terenie_'
'technologie_'
'takiego_'
'ta'
'szafa_'
'studio_'
'stronach_'
'stra'
'sports_'
'spiritual_'
'society_'
'sin_'
'si_'
'shower_'
'ship_'
'shared_'
'serca_'
'seconds_'
'san'
'sama_'
'rynek_'
'ry'
'ro'
'rental_'
'released_'
'release_'
'registered_'
'reduce_'
'recent_'
'reach_'
'ra'
'płatności_'
'purpose_'
'purchase_'
'przypadkach_'
'progress_'
'powyżej_'
'pon'
'pobierania_'
'plants_'
'pierwszym_'
'photo_'
'percent_'
'per'
'peace_'
'październik_'
'państwach_'
'payment_'
'party_'
'papier_'
'owane_'
'osiągnąć_'
'ory_'
'or'
'option_'
'oprogramowania_'
'oparciu_'
'onej_'
'offering_'
'odpowiednio_'
'ob'
'nigdy_'
'narzędzi_'
'najpierw_'
'moje_'
'mo_'
'mini_'
'miast_'
'mentioned_'
'max_'
'mar'
'mapa_'
'majority_'
'longer_'
'lne_'
'lipiec_'
'linii_'
'lift_'
'le'
'laptop_'
'kwiaty_'
'ku'
'korzystać_'
'kich_'
'kategorię_'
'jobs_'
'jedno'
'ite_'
'inwestycji_'
'inter'
'instytucji_'
'instead_'
'innym_'
'inny_'
'ina_'
'imię_'
'imieniu_'
'ial_'
'główne_'
'guests_'
'guarantee_'
'gone_'
'gi_'
'ges_'
'gentlemen_'
'gar'
'furniture_'
'funkcje_'
'formacie_'
'focus_'
'fire_'
'fi'
'fe'
'fall_'
'exercise_'
'everyone_'
'environmental_'
'element_'
'efforts_'
'dzie_'
'dwie_'
'dużo_'
'drive_'
'dobry_'
'dniach_'
'dis'
'despite_'
'des_'
'define_'
'default_'
'dark_'
'danego_'
'czne_'
'cych_'
'consider_'
'concerning_'
'concerned_'
'coming_'
'ci'
'chce_'
'can'
'button_'
'bio'
'bedrooms_'
'b'
'applied_'
'anything_'
'annual_'
'although_'
'album_'
'ają_'
'aim_'
'adults_'
'admin_'
'Wszystko_'
'Wo'
'Wednesday_'
'Turcji_'
'Travel_'
'Transport_'
'Teraz_'
'Tar'
'Sta'
'Software_'
'Shooting_'
'Share_'
'Sea_'
'Safety_'
'SE'
'Rozmiar_'
'Roses_'
'Resort_'
'Rejestracja_'
'Q_'
'Przy'
'Przewodniczący_'
'Pro'
'Presidency_'
'Prague_'
'Praca_'
'Poziom_'
'Ponieważ_'
'Platform_'
'Pl_'
'Pension_'
'Pec_'
'Paul_'
'Only_'
'Nu'
'Niania_'
'Network_'
'Nazwa_'
'Navigation_'
'Naj'
'Metal_'
'Mary_'
'Maker_'
'Location_'
'Lista_'
'Latest_'
'Kod_'
'Kitchen_'
'Kempingi_'
'Jo'
'Jana_'
'IFS_'
'HO'
'HD_'
'Francja_'
'Financial_'
'Equipment_'
'Earth_'
'ER'
'Dzięki_'
'Deposit_'
'Deere_'
'Czas_'
'Cor'
'Chorwacja_'
'CO'
'CE_'
'Budapest_'
'Board_'
'Bar_'
'BO'
'BI'
'Association_'
'Apple_'
'Al'
'Accommodation_'
'AS'
'89_'
'7'
'33'
'31'
') – _'
') - _'
' › _'
' ‘_'
'”_'
'św_'
'łatwo_'
'ąć_'
'ąd_'
'ê_'
'» _'
'¶_'
'³'
'zo'
'znacznie_'
'zmiana_'
'zdaniem_'
'zarządzania_'
'zapoznać_'
'zapewnić_'
'zachować_'
'wymaga_'
'wyboru_'
'woman_'
'wiadomość_'
'whose_'
'ways_'
'voted_'
've'
'v'
'użyciu_'
'ures_'
'upon_'
'unlimited_'
'tygodnie_'
'tv_'
'to'
'tits_'
'tin'
'ti'
'though_'
'telefonu_'
'swego_'
'studies_'
'stock_'
'ster_'
'ste'
'stand_'
'spring_'
'specjalnych_'
'spacerem_'
'sources_'
'so'
'skich_'
'ska'
'siły_'
'shopping_'
'shop_'
'sense_'
'sec'
'rzeczywiście_'
'rze_'
'rze'
'rz_'
'rule_'
'ruchu_'
'rozmiar_'
'rolę_'
'rodzin_'
'remove_'
'rejestrze_'
'regionu_'
'regions_'
'regarding_'
'rd'
'razie_'
'rating_'
'rather_'
'raczej_'
'qui'
'punktu_'
'przewodnicząca_'
'przemysłu_'
'prowadzi_'
'protect_'
'promote_'
'processes_'
'previous_'
'pracę_'
'poziomu_'
'poniższych_'
'pomoc_'
'polsko_'
'podstawowych_'
'pierwszej_'
'pamięci_'
'paid_'
'os'
'opcji_'
'ocena_'
'obsługuje_'
'objects_'
'object_'
'o'
'numery_'
'nu_'
'nu'
'nt'
'no'
'nimi_'
'nika_'
'niezwykle_'
'nazwisko_'
'naj'
'nad'
'move_'
'mis'
'mean_'
'marked_'
'mark_'
'mapie_'
'magazynie_'
'lu'
'lost_'
'location_'
'lo'
'leave_'
'learning_'
'las'
'lan'
'ladies_'
'kwestia_'
'kuchnia_'
'kopii_'
'konsumentów_'
'konferencji_'
'kluczowe_'
'kiem_'
'ki'
'kami_'
'iz'
'itself_'
'ise_'
'internal_'
'ier'
'ical_'
'himself_'
'herbaty_'
'he'
'happy_'
'happen_'
'hair_'
'godz_'
'goal_'
'fotografii_'
'fishing_'
'fish_'
'firmie_'
'expected_'
'exchange_'
'eni_'
'eli'
'elementów_'
'ed'
'ec_'
'działa_'
'drzwi_'
'drodze_'
'dostępu_'
'dostępnych_'
'dostępny_'
'dostępna_'
'dopiero_'
'documents_'
'dobre_'
'dlaczego_'
'dining_'
'demand_'
'decyzji_'
'danej_'
'criteria_'
'context_'
'community_'
'club_'
'cje_'
'cie'
'choć_'
'cheap_'
'che'
'cer'
'błędzie_'
'buy_'
'billion_'
'bi'
'bezpośrednio_'
'became_'
'balkon_'
'aw'
'automatically_'
'authorities_'
'attractions_'
'apartament_'
'animation_'
'ad_'
'act_'
'across_'
']_'
'Zbliżenia_'
'Zamień_'
'Yes_'
'Women_'
'We'
'Wal'
'Vo'
'Vista_'
'VIP_'
'Tło_'
'Tuesday_'
'Treaty_'
'Ti'
'Technology_'
'Team_'
'Tags_'
'Systems_'
'Sweet_'
'Sto'
'Special_'
'Son_'
'Smoking_'
'Sklep_'
'Size_'
'Single_'
'Sa'
'Roz'
'Research_'
'Registration_'
'Regional_'
'Ra'
'Question_'
'Pytanie_'
'Power_'
'Polityka_'
'Policy_'
'Parlamencie_'
'PS'
'Os'
'Old_'
'Ok'
'ON_'
'Netherlands_'
'Nanny_'
'Możliwe_'
'Miejsca_'
'Mc'
'Linux_'
'Komputer_'
'Ko'
'Każdy_'
'Kar'
'Inny_'
'Ilość_'
'IS'
'Hotele_'
'Health_'
'GmbH_'
'Gdy_'
'Europejskim_'
'Europejska_'
'Dziękuję_'
'Dildo_'
'Delivery_'
'De_'
'Dane_'
'Czytaj_'
'Czcionka_'
'Chinach_'
'Category_'
'Bu'
'Blog_'
'At'
'Address_'
'Accessories_'
'Ab'
'AN'
': „_'
':'
'93_'
'800_'
'25'
'195'
'120_'
'%_'
' €_'
'” (_'
'“_'
'żądanie_'
'że'
'żadnego_'
'źródła_'
'ówki_'
'ê'
'zone_'
'znak_'
'zdefiniować_'
'zasad_'
'zan'
'zależności_'
'ys_'
'yourself_'
'yo'
'yellow_'
'yc'
'xi'
'względem_'
'wyższe_'
'wyświetlić_'
'written_'
'wolności_'
'wokół_'
'wojna_'
'wish_'
'wifi_'
'wiesz_'
'wi'
'wersja_'
'we'
'wciąż_'
'warto_'
'wakacje_'
'wa'
'vital_'
'visited_'
'ving_'
'videos_'
'używają_'
'użytkowania_'
'ułatwienia_'
'usunąć_'
'ur_'
'under'
'ulubionych_'
'uję_'
'tą_'
'tów_'
'theme_'
'termin_'
'technologies_'
'teaching_'
'summer_'
'successful_'
'stwo_'
'stwa_'
'stron_'
'stop_'
'steps_'
'stać_'
'stars_'
'stan_'
'stan'
'stali_'
'stage_'
'sta_'
'społeczeństwa_'
'sometimes_'
'solo_'
'sobą_'
'sla'
'skóry_'
'skiej_'
'sierpnia_'
'serwer_'
'sercu_'
'selecting_'
'sektorze_'
'samo_'
'samo'
'running_'
'rt_'
'rozwiązań_'
'rozwiniętych_'
'route_'
'ri_'
'rezolucji_'
'resort_'
'require_'
'representatives_'
'regional_'
'reception_'
'reasons_'
're'
'raport_'
'quarter_'
'przede_'
'prywatności_'
'prosimy_'
'programem_'
'presence_'
'pre'
'prayer_'
'prawdopodobnie_'
'pracować_'
'pra'
'połączeń_'
'powinna_'
'post_'
'poker_'
'pojawić_'
'podłoga_'
'podróże_'
'pm_'
'pink_'
'pierwsze_'
'pe_'
'parts_'
'ot_'
'operations_'
'opady_'
'oną_'
'oni'
'one'
'om'
'okres_'
'odtwarzacz_'
'oczywiście_'
'occur_'
'obraz_'
'obecnych_'
'nurkowania_'
'ność_'
'niki_'
'niebieski_'
'nazwy_'
'najlepszych_'
'mógł_'
'morze_'
'mimo_'
'milionów_'
'miesiąc_'
'meters_'
'mechanizmu_'
'mapy_'
'manufacturer_'
'maja_'
'ma'
'loterii_'
'len'
'kraje_'
'końcu_'
'kontekście_'
'kla'
'kim_'
'kierunku_'
'kie_'
'ke'
'kar'
'ka'
'jazdy_'
'ion'
'innovative_'
'innego_'
'industrial_'
'ina'
'ilość_'
'ied_'
'ib'
'huge_'
'ht'
'hr_'
'hit_'
'helped_'
'heat_'
'handlu_'
'głównej_'
'gu'
'fundamental_'
'ful_'
'founded_'
'final_'
'fear_'
'famous_'
'fair_'
'express_'
'europejskiej_'
'europejskie_'
'et'
'essential_'
'entitled_'
'else_'
'editor_'
'easiest_'
'early_'
'długim_'
'dziećmi_'
'dzie'
'dzi'
'dy'
'duży_'
'du'
'dia'
'delete_'
'decided_'
'dar'
'cs_'
'covered_'
'core_'
'condition_'
'concern_'
'components_'
'cho'
'chciał_'
'ce'
'całkowicie_'
'cards_'
'ca'
'buildings_'
'budżetu_'
'budzenie_'
'browser_'
'brak_'
'bra'
'borders_'
'bo'
'bezpieczeństwo_'
'bez'
'behind_'
'be'
'bar'
'balance_'
'ba'
'atrakcji_'
'als_'
'actions_'
'acji_'
'accessible_'
'Ya'
'Well_'
'Water_'
'Warszawa_'
'Villa_'
'Very_'
'Uważam_'
'Ukraine_'
'Typical_'
'Total_'
'Tool_'
'Toe_'
'Thanks_'
'Swap_'
'Store_'
'Star_'
'Sofa_'
'Series_'
'Senior_'
'Se'
'SMS_'
'Review_'
'Restaurant_'
'Północnej_'
'Przez_'
'Połączenia_'
'Possible_'
'Place_'
'Photo_'
'Pensjonat_'
'Pan'
'PR'
'PL'
'PK'
'Oto_'
'Orgazm_'
'Oliwka_'
'Obiekt_'
'Obecnie_'
'Numer_'
'Nowa_'
'No'
'Net_'
'Ne'
'NAS_'
'Many_'
'Mam_'
'Mail_'
'ME'
'Lo'
'Lisbon_'
'LA'
'Ki'
'Ke'
'Je'
'Ja_'
'Ja'
'Ireland_'
'Institute_'
'Hungary_'
'Ha'
'HTC_'
'Gold_'
'Global_'
'Gazetka_'
'Garden_'
'Firma_'
'Fi'
'Festival_'
'Explore_'
'En_'
'EP'
'Door_'
'Director_'
'Digital_'
'Di'
'Des'
'DL'
'Cyklony_'
'Comments_'
'Clock_'
'Cię_'
'Cie'
'Ci'
'Chrystusa_'
'Chi'
'Canada_'
'CD'
'Błyskawica_'
'Big_'
'Basic_'
'BR'
'Average_'
'Ar'
'Applications_'
'Am'
'Ale'
'Age_'
'Advanced_'
'Action_'
'AD'
'> _'
'71_'
'65'
'60'
'58_'
'56'
'55'
'51'
'21'
'1990_'
'15'
'130_'
'1200_'
')'
''._'
'', _'
' [...]_'
'—_'
'śniadanie_'
'ńskiej_'
'ł'
'ć'
'ął_'
'   _'
'znajdują_'
'zki_'
'zazwyczaj_'
'zasady_'
'zapewnienia_'
'zależy_'
'zag'
'z'
'yli'
'yjnych_'
'ya'
'wziąć_'
'wyszukiwarki_'
'wyposażenie_'
'wymagane_'
'wykonane_'
'wszystkiego_'
'wspólna_'
'wrote_'
'wpisz_'
'won_'
'winter_'
'window_'
'wielo'
'wielkości_'
'whom_'
'watch_'
'wane_'
'wait_'
'volume_'
'virtual_'
'ut_'
'units_'
'und'
'ul'
'ua'
'tube_'
'transactions_'
'track_'
'tor'
'tools_'
'tly_'
'tle_'
'terrace_'
'telefoniczna_'
'tax_'
'tak'
'szy'
'sztuki_'
'sze'
'szczególności_'
'syn_'
'syn'
'swimming_'
'supported_'
'suitable_'
'stycznia_'
'studentów_'
'street_'
'stosunku_'
'store_'
'storage_'
'sto'
'stało_'
'stała_'
'sta'
'spraw_'
'spowodowane_'
'spotkania_'
'spa_'
'sold_'
'soft_'
'smoking_'
'sma'
'skojarzeń_'
'skim_'
'shemale_'
'sha'
'servers_'
'selection_'
'se'
'script_'
'scientific_'
'science_'
'sch'
'saying_'
'samego_'
'rząd_'
'rz'
'ruch_'
'ru_'
'roz'
'regulations_'
'regionie_'
'records_'
'react_'
'ramy_'
'rac'
'que'
'punkty_'
'pt_'
'przed'
'przeciwko_'
'prywatnych_'
'prywatne_'
'provisions_'
'proste_'
'prost'
'properly_'
'projekty_'
'procent_'
'posted_'
'poprawy_'
'pomocyzamknij_'
'polskiego_'
'policies_'
'poli'
'podróż_'
'ple'
'pieniędzy_'
'phase_'
'pe'
'pay_'
'path_'
'password_'
'participants_'
'pamiętać_'
'painting_'
'oz'
'outdoor_'
'original_'
'options_'
'określonego_'
'oj'
'oc'
'oby_'
'obszarów_'
'obszaru_'
'obiekcie_'
'numerów_'
'nte'
'ning_'
'niez'
'niepo'
'niektóre_'
'nia'
'negotiations_'
'ned_'
'naukowych_'
'nasza_'
'naprawić_'
'muzyki_'
'missing_'
'mini'
'miasto_'
'metres_'
'messages_'
'małych_'
'matches_'
'masturbation_'
'marketing_'
'maps_'
'lutego_'
'ludzkich_'
'loss_'
'lokalnych_'
'logs_'
'lly_'
'listen_'
'legislation_'
'lea'
'lack_'
'kraj_'
'koszyka_'
'korzyści_'
'korzysta_'
'kontroli_'
'kon'
'kompatybilny_'
'kilometrów_'
'karty_'
'ita'
'ist_'
'ip'
'ins_'
'infrastructure_'
'indeed_'
'ilości_'
'ie'
'idealny_'
'ian'
'houses_'
'hold_'
'historic_'
'hidden_'
'helps_'
'hearts_'
'happened_'
'gwiazdkowy_'
'grup_'
'grudnia_'
'greater_'
'godziny_'
'girls_'
'gift_'
'forum_'
'ford_'
'flowers_'
'fla'
'finansowe_'
'finansowania_'
'fastest_'
'fal'
'ey_'
'extremely_'
'extensions_'
'extended_'
'evidence_'
'ery_'
'er'
'eo'
'ence_'
'emisji_'
'ely_'
'electronic_'
'ele'
'ec'
'easily_'
'dzisiaj_'
'działalności_'
'dwukrotnie_'
'du_'
'drop_'
'doświadczenia_'
'dotyczy_'
'dolarów_'
'disease_'
'directive_'
'direction_'
'die_'
'detail_'
'der'
'democracy_'
'de'
'cze_'
'cy'
'cutting_'
'cotton_'
'contains_'
'coloring_'
'co'
'closed_'
'clean_'
'ck'
'cin'
'choice_'
'chi'
'chcą_'
'chciałbym_'
'camp_'
'bus_'
'brought_'
'break_'
'bor'
'books_'
'boat_'
'biuro_'
'biały_'
'beds_'
'beauty_'
'basen_'
'bas'
'aś_'
'author_'
'ast'
'assistance_'
'assessment_'
'articles_'
'arrival_'
'ard_'
'ar'
'apply_'
'anty'
'anti'
'anc'
'anal_'
'amateur_'
'alone_'
'ając_'
'addressed_'
'acje_'
'ac_'
'abyśmy_'
'Znaleziono_'
'Ze'
'Załóż_'
'Zam'
'Wystarczy_'
'Word_'
'Win32_'
'Wie'
'Wa'
'Ver'
'Va'
'Translation_'
'Toaster_'
'TA_'
'Szkoła_'
'Sze'
'Statystyki_'
'Sprawy_'
'Spirit_'
'Spare_'
'Social_'
'Się_'
'Shop_'
'Sha'
'Seks_'
'SK'
'SA'
'Ry'
'Ru'
'Rome_'
'Road_'
'Region_'
'Quick_'
'Public_'
'Przeczytaj_'
'Press_'
'Prawa_'
'Post'
'Player_'
'Pe'
'Pat'
'Page_'
'Outdoor_'
'Odpowiedź_'
'Numero_'
'Northern_'
'Ni'
'Nar'
'Najlepsze_'
'Musimy_'
'Możesz_'
'Miasta_'
'Members_'
'Market_'
'Man_'
'Make_'
'MS_'
'MA'
'Lu'
'Lotnisko10_'
'Liczba_'
'Le_'
'LE'
'Książki_'
'Kanada_'
'Jesteś_'
'Jackson_'
'Hi'
'Hall_'
'HTML_'
'HP_'
'Guest_'
'Gu'
'Ge'
'Gar'
'Ga'
'Fe'
'Express_'
'Entries_'
'Energy_'
'EC'
'Dub_'
'Democrats_'
'Color_'
'Code_'
'Cho'
'CI'
'Brytania_'
'Brussels_'
'Bre'
'Bon'
'Before_'
'Bar'
'Au'
'Another_'
'An'
'Although_'
'Agricultural_'
'Adres_'
'AM_'
'99'
'9'
'83_'
'82_'
'76_'
'70'
'63_'
'52'
'46'
'45'
'40'
'36'
'350_'
'1x_'
'191'
'14'
'," _'
', - _'
'%._'
'") _'
'! '
'!'
' - (_'
' ("_'
' " _'
'о'
'к'
'е'
'życiu_'
'żony_'
'Ż'
'ź'
'światowej_'
'środa_'
'ści'
'Ś'
'łączn'
'łam_'
'Łódź_'
'Ła'
'ęt'
'ów'
'í'
'³_'
'zwiększyć_'
'zupełnie_'
'zny_'
'zmienić_'
'zie'
'zdolność_'
'zd'
'zawierają_'
'zainstalowany_'
'zainstalowana_'
'zaczyna_'
'yst'
'youth_'
'yna'
'yka'
'yczne_'
'własny_'
'wzrostu_'
'wyłącznie_'
'wywołań_'
'wyszukiwania_'
'wyniku_'
'wykorzystania_'
'wykonana_'
'wor'
'większą_'
'wind_'
'wiem_'
'wi_'
'wg_'
'west_'
'wear_'
'ważna_'
'warunków_'
'wanted_'
'wanie_'
'vision_'
'virus_'
'van_'
'vacuum_'
'uwa'
'uszkodzony_'
'ustawy_'
'ust'
'uri'
'ure_'
'unika'
'une'
'undefined_'
'und_'
'un'
'uk'
'ujących_'
'ujące_'
'ug'
'ud'
'ual_'
'tyle_'
'turystycznych_'
'trudności_'
'tru'
'tree_'
'tre'
'transportation_'
'trans'
'tourism_'
'tour_'
'tory_'
'told_'
'tested_'
'ters_'
'tera'
'temperatury_'
'tem_'
'takiej_'
'takes_'
'słów_'
'szuka_'
'szczegóły_'
'sygnał_'
'sub'
'styl_'
'stworzył_'
'stosowania_'
'sting_'
'sti'
'stations_'
'sprawę_'
'sprawozdaniu_'
'sposobu_'
'south_'
'soil_'
'sofa_'
'slow_'
'składa_'
'sky_'
'skryptu_'
'skontaktuj_'
'sko'
'skills_'
'sk'
'situations_'
'sit'
'significantly_'
'sign_'
'setting_'
'ses_'
'serwisu_'
'ser'
'separate_'
'selected_'
'season_'
'rodzaj_'
'rk'
'ries_'
'ri'
'ret'
'res_'
'representative_'
'relacji_'
'rek'
'reform_'
'rec'
'raw_'
'ras'
'rack_'
'race_'
'quiet_'
'py'
'pusty_'
'pu'
'przycisk_'
'przy'
'przetwarzania_'
'przesłanie_'
'przedstawiamy_'
'providing_'
'promocji_'
'programowe_'
'priority_'
'pri'
'pressure_'
'preparation_'
'premium_'
'prawne_'
'prawdziwe_'
'practical_'
'pow'
'poverty_'
'potrafi_'
'posłów_'
'poseł_'
'port'
'porozumienia_'
'porno_'
'poprosić_'
'polskich_'
'pobyt_'
'plus_'
'plug_'
'player_'
'pięknym_'
'pets_'
'permitted_'
'owski_'
'ou_'
'otwierany_'
'ostatecznie_'
'opieki_'
'okazji_'
'oglądać_'
'obiekty_'
'numerous_'
'now'
'notice_'
'nic'
'ngs_'
'nek_'
'nearby_'
'narzędzia_'
'najlepszy_'
'naciśnij_'
'mówić_'
'ms'
'mountain_'
'moral_'
'monitoring_'
'mon'
'momencie_'
'moja_'
'mogła_'
'mm'
'military_'
'middle_'
'mid'
'micro'
'miały_'
'miarę_'
'metr'
'meble_'
'meat_'
'me'
'małe_'
'maszyny_'
'maszyna_'
'masturbacja_'
'mass_'
'mainly_'
'machines_'
'ly'
'logo_'
'logistics_'
'load_'
'lna_'
'liście_'
'levels_'
'letter_'
'kuchni_'
'którymi_'
'ktoś_'
'krótkim_'
'krok_'
'korzystanie_'
'konkretnej_'
'konieczne_'
'komunikaty_'
'komunikatu_'
'kobiety_'
'kan'
'kach_'
'jących_'
'ju_'
'ju'
'js'
'jo'
'jaką_'
'istotne_'
'ir_'
'internetowa_'
'inteligencji_'
'instrument_'
'inhabitants_'
'ing'
'ine'
'increasing_'
'improved_'
'iki_'
'identyfikatory_'
'hundred_'
'hit'
'hes_'
'gru'
'gospodarki_'
'goes_'
'glass_'
'gi'
'ght_'
'generation_'
'gen'
'ga'
'fre'
'forms_'
'flight_'
'finansowych_'
'filter_'
'filmów_'
'filmy_'
'female_'
'fellow_'
'feet_'
'favour_'
'father_'
'fantastic_'
'existence_'
'evaluation_'
'europejskiego_'
'ete'
'established_'
'es'
'erów_'
'equality_'
'epi'
'entry_'
'elections_'
'ej'
'edytora_'
'economy_'
'dźwięk_'
'dzieje_'
'dużym_'
'duża_'
'dróg_'
'dro'
'driving_'
'drivers_'
'dra'
'dostatecznych_'
'dom'
'dobrą_'
'display_'
'discussion_'
'developing_'
'definiowania_'
'defining_'
'ded_'
'deals_'
'deal_'
'dating_'
'dalszą_'
'da'
'cze'
'cza_'
'cur'
'ction_'
'creation_'
'consists_'
'compared_'
'clients_'
'cią_'
'cis'
'chance_'
'chan'
'całe_'
'categories_'
'cars_'
'cancer_'
'by'
'bur'
'build_'
'brand_'
'biznesu_'
'bit'
'ber'
'belongs_'
'bear_'
'bazie_'
'bathrooms_'
'balcony_'
'bag_'
'az'
'awarded_'
'autorskie_'
'ated_'
'ast_'
'assume_'
'as'
'artistic_'
'architecture_'
'appreciate_'
'answer_'
'animals_'
'ana'
'an'
'ain_'
'aid_'
'agreements_'
'ages_'
'advertising_'
'advantage_'
'ade'
'ad'
'accessories_'
'accept_'
'ab'
']._'
'Zi'
'Za'
'Witryna_'
'Wirtualna_'
'Western_'
'Web'
'War'
'WA'
'Vegas_'
'Un'
'Typowy_'
'Tylko_'
'Turkish_'
'Traction_'
'Tra'
'Tip_'
'Ter'
'Telewizja_'
'TR'
'TO'
'TI'
'TER'
'Szerokość_'
'Symbol_'
'Stra'
'Steel_'
'Stanów_'
'Smart_'
'Security_'
'Sal'
'Saint_'
'Royal_'
'Red'
'Pu'
'Problem_'
'Prezes_'
'Popular_'
'Pom'
'Pokój_'
'Paweł_'
'Party_'
'Part_'
'Pana_'
'Palace_'
'PP'
'Ośrodek_'
'Opublikowano_'
'Op'
'Oferta_'
'Ob'
'OS'
'Not_'
'Napisz_'
'Nan'
'NO'
'NI'
'Mężczyzna_'
'Muzyka_'
'Mu'
'Middle_'
'Maj'
'Machinery_'
'MI'
'Los_'
'Located_'
'List_'
'Las_'
'Lake_'
'Lady_'
'Krakow_'
'Kr'
'Kitchenware_'
'Kids_'
'Ji'
'Jakość_'
'Island_'
'Inn_'
'IT'
'III_'
'Hol'
'History_'
'Him_'
'HI'
'Golf_'
'Gi'
'George_'
'Galeria_'
'GE_'
'GA'
'Fund_'
'Fashion_'
'FR_'
'FI'
'FE'
'Events_'
'Europejską_'
'Er'
'Email_'
'Egypt_'
'ED'
'Dzieci_'
'Dropbox_'
'Do'
'Del'
'De'
'Darmowe_'
'Create_'
'Country_'
'Corporation_'
'Conference_'
'Computer_'
'Chin_'
'Ch'
'Castle_'
'Car'
'Camel_'
'Ca'
'Bro'
'Both_'
'Bold_'
'Bible_'
'Bel'
'Bay_'
'Balcony_'
'Back_'
'Ask_'
'Archive_'
'Am_'
'Also_'
'Al_'
'Ad'
'AG'
': '_'
'88_'
'86_'
'47'
'360_'
'35'
'27'
'250_'
'22'
'200'
'1998_'
'1995_'
'1989_'
'198'
'17'
'16'
'11'
'1000_'
'100'
'09'
'03'
'02'
'/-_'
'''
'#_'
' :_'
' -- _'
' * _'
' ) _'
'ża_'
'ź_'
'łącznie_'
'ły'
'ła'
'Ł'
'ó'
'¹_'
'³a_'
'±_'
'zwrotnego_'
'zwracał_'
'związek_'
'związany_'
'zu_'
'zre'
'zostali_'
'zostaje_'
'zni'
'znany_'
'znane_'
'znaczy_'
'zn'
'zma'
'zlokalizować_'
'zgodne_'
'zg'
'zdjęcie_'
'zdecydowanie_'
'zdarzyć_'
'zarządzanie_'
'zamienne_'
'zale'
'zakład_'
'zakwaterowania_'
'zakresu_'
'zadanie_'
'ywać_'
'ywanie_'
'ywa'
'yn'
'ye_'
'yd'
'yczna_'
'wzdłuż_'
'wz'
'wymagania_'
'wykładzina_'
'wydajnością_'
'wydajności_'
'wyda'
'wtorek_'
'współpracę_'
'współ'
'worst_'
'work'
'wojny_'
'wine_'
'windows_'
'wiek_'
'wia'
'wewnątrz_'
'wer'
'wentylator_'
'webcam_'
'warunkach_'
'wan'
'walki_'
'voice_'
'ver'
'ven'
'vehicles_'
'vacation_'
'ur'
'underlying_'
'uchodźców_'
'tys_'
'tymi_'
'tygodniu_'
'tydzień_'
'tuż_'
'turned_'
'tu'
'trze'
'trust_'
'trudne_'
'trochę_'
'transparency_'
'translator_'
'train_'
'towarów_'
'tourists_'
'tki_'
'tj_'
'tickets_'
'ti_'
'thousands_'
'therapy_'
'th'
'territory_'
'tele'
'tch_'
'talking_'
'taka_'
'tablica_'
'słowo_'
'szkoły_'
'szczeblu_'
'sza_'
'systemem_'
'suffering_'
'substances_'
'stół_'
'stworzenia_'
'student_'
'stri'
'strefy_'
'stored_'
'stor'
'stone_'
'stały_'
'stanu_'
'stale_'
'stability_'
'sprawozdanie_'
'spr'
'społeczne_'
'spo'
'spirit_'
'specjalne_'
'speakers_'
'spa'
'soon_'
'sm_'
'sli'
'sis_'
'signal_'
'sex_'
'serve_'
'sek'
'seems_'
'sea'
'scan_'
'samej_'
'salvation_'
'równo'
'rząd'
'rzeczywistym_'
'rozwiązać_'
'round_'
'ros'
'roczna_'
'rise_'
'restaurants_'
'responsible_'
'resistance_'
'res'
'reply_'
'rep'
'remote_'
'remains_'
'religious_'
'rel'
'recipes_'
'reality_'
'rain_'
'przygotowania_'
'przechowywania_'
'provider_'
'proszę_'
'proposed_'
'proposals_'
'properties_'
'programami_'
'prognoza_'
'profil_'
'producentów_'
'processing_'
'procedures_'
'pro'
'presentation_'
'pres'
'praca_'
'powiązań_'
'powierzchnię_'
'powder_'
'potem_'
'pot'
'post'
'pop'
'ponowne_'
'pomaga_'
'polega_'
'pola_'
'pojazdów_'
'podłogowa_'
'podziękować_'
'podobnie_'
'podkreślić_'
'pochodzą_'
'planu_'
'piece_'
'photographs_'
'ped_'
'patrz_'
'patient_'
'pas'
'parzenia_'
'partner_'
'parku_'
'papier'
'panu_'
'pan'
'pamięta'
'pak'
'pages_'
'owner_'
'owana_'
'over'
'ou'
'otwiera_'
'otrzymaliśmy_'
'ot'
'osiągnięcia_'
'organised_'
'ordinary_'
'orders_'
'opublikowany_'
'oprogramowaniem_'
'opinion_'
'opens_'
'opa'
'op'
'olo'
'ol'
'okresu_'
'oka'
'og_'
'offered_'
'oe'
'odpowiedzialność_'
'odnosi_'
'oceny_'
'obszar_'
'obs'
'objectives_'
'ności_'
'north_'
'nk'
'nit'
'nis'
'niezdefiniowane_'
'niezbędne_'
'nieprawidłowe_'
'nice_'
'nazwa_'
'natomiast_'
'nar'
'najlepiej_'
'mężczyzna_'
'mówił_'
'my'
'muszę_'
'mur'
'mor'
'module_'
'ml_'
'min'
'milk_'
'miliona_'
'mieszkańców_'
'mierzona_'
'mie'
'miałem_'
'mianowicie_'
'mia'
'metal_'
'met_'
'mel'
'mechanisms_'
'materiał_'
'mat'
'mas'
'manage_'
'malware_'
'maj'
'maintenance_'
'mac'
'loty_'
'locate_'
'lis'
'leadership_'
'late_'
'lac'
'kwatery_'
'kuchenny_'
'książki_'
'kro'
'koniec_'
'komunikacji_'
'komentarze_'
'kolor_'
'kolei_'
'ker_'
'jasne_'
'jan'
'itu'
'item_'
'itd_'
'ish_'
'internetu_'
'intelligence_'
'integrated_'
'innovation_'
'inner_'
'increases_'
'inclusive_'
'iet'
'iel'
'identifiers_'
'iOS_'
'hostel_'
'hood_'
'hockey_'
'ho'
'her'
'hen'
'healthy_'
'hand'
'głos_'
'growing_'
'grill_'
'granted_'
'gospodarczej_'
'gni'
'gla'
'gh_'
'gdyż_'
'gazu_'
'gave_'
'funkcji_'
'funds_'
'function_'
'fu'
'ft_'
'formatu_'
'formatach_'
'for'
'follows_'
'flights_'
'firmę_'
'fer'
'fa'
'ez'
'ers'
'ering_'
'entries_'
'entrance_'
'encounter_'
'enables_'
'employment_'
'ell_'
'electric_'
'ela_'
'eight_'
'efekt_'
'ea'
'długo_'
'dyrektywy_'
'driver_'
'dri'
'drawing_'
'draw_'
'dow'
'dotyczącego_'
'dostępność_'
'doskonale_'
'dorosłych_'
'domyślny_'
'dolphin_'
'dokładn'
'document_'
'dobrym_'
'distribution_'
'disabled_'
'difficulties_'
'di'
'develop_'
'depth_'
'deposit_'
'dent'
'delivered_'
'deliver_'
'dec'
'dał_'
'dance_'
'członkowie_'
'czytania_'
'czynność_'
'czterech_'
'czna_'
'cut_'
'counter'
'corrupt_'
'convinced_'
'conversion_'
'controlled_'
'consequences_'
'concept_'
'committee_'
'com'
'cloud_'
'clearly_'
'chu'
'choroby_'
'chief_'
'changing_'
'changed_'
'challenges_'
'cent'
'celów_'
'catch_'
'carry_'
'cal'
'bądź_'
'businesses_'
'bu'
'braku_'
'bottom_'
'bookings_'
'bodies_'
'bilety_'
'bezpieczn'
'bath_'
'balanced_'
'bad_'
'ba_'
'ała_'
'aty'
'aspects_'
'aspect_'
'army_'
'appropriate_'
'app_'
'ap'
'amy_'
'amazing_'
'ama'
'al'
'aga'
'affect_'
'administration_'
'acid_'
'accepted_'
'aca'
'Zostaw_'
'Zo'
'Zakładamy_'
'Wym'
'Wy'
'Wsparcie_'
'Wskazówka_'
'Wschód_'
'Wpisy_'
'Within_'
'While_'
'Website_'
'Vi'
'Version_'
'Van_'
'Upper_'
'Uni'
'Type_'
'Turcja_'
'Tour_'
'Thank_'
'Test_'
'Temple_'
'Są_'
'Sza'
'Syn'
'Sweden_'
'Sur'
'Strony_'
'Sol'
'Sat'
'Samsung_'
'Samochód_'
'SSL_'
'SS'
'SI'
'SH'
'SEO_'
'Rosja_'
'Ri'
'Rh'
'Republiki_'
'Report_'
'Reply_'
'Przygoda_'
'Pra'
'Powiadom_'
'Pot'
'Posted_'
'Pomoc_'
'Plus_'
'Pla'
'Pink_'
'PRO'
'PO'
'Ostatnie_'
'Or'
'Opiekun_'
'Opera_'
'Open_'
'Ojciec_'
'Offer_'
'Ocena_'
'Niekompatybilne_'
'NT'
'NIE_'
'Mój_'
'Mountain_'
'Mother_'
'Mod'
'Mir'
'Mini_'
'Men'
'Meeting_'
'Medical_'
'Mapa_'
'Mamy_'
'Maksymalna_'
'Mac'
'Lud'
'Londyn_'
'Login_'
'Local_'
'La'
'LT'
'Kč_'
'Kościół_'
'Korea_'
'Komentarze_'
'Klimatyzacja_'
'Kliknij_'
'Kan'
'KO'
'Jednak_'
'Ir'
'Inter_'
'Indie_'
'Incompatible_'
'Image_'
'IP'
'IL'
'IG'
'IC'
'IB'
'Holiday_'
'Historia_'
'Her'
'Have_'
'Green'
'Greece_'
'Gracze_'
'GO'
'Fu'
'Fre'
'Forgot_'
'Follow_'
'Flower_'
'Fitness_'
'Fin'
'Filmy_'
'Film_'
'Files_'
'Factory_'
'Ex'
'Even_'
'Euro'
'Eastern_'
'Dzwoń_'
'Did_'
'Dec'
'David_'
'DA_'
'Cup_'
'Court_'
'Content_'
'Comment_'
'Combine_'
'Cheats_'
'Che'
'Ce'
'Card_'
'Cameltoe_'
'Cam'
'Cal'
'COM_'
'Bruksela_'
'Bra'
'Bol'
'Bog'
'Ber'
'Because_'
'Beautiful_'
'Aplikacja_'
'Androida_'
'Analytics_'
'Ali'
'Akademii_'
'Agriculture_'
'Account_'
'AR_'
'AK'
'AB'
'=_'
'97'
'96'
'84_'
'77_'
'54'
'44'
'34'
'29'
'1997_'
'1992_'
'1577_'
'140_'
'...._'
'+'
' ▶ _'
' […] _'
'р'
'źni'
'średnich_'
'śni'
'Świat_'
'ńc'
'łącz'
'łą_'
'łóżko_'
'ąda'
'ąca_'
'ü'
'ój_'
'ód_'
'án'
'ße_'
'»_'
'zu'
'znalezienie_'
'znajomego_'
'zmywarka_'
'zm_'
'zlokalizowana_'
'zko'
'zim'
'zespołu_'
'zer'
'zawarte_'
'zastosowania_'
'zas'
'zareagować_'
'zapewni'
'zakłada'
'zaktualizować_'
'zak'
'zainstalowanymi_'
'zagranicznych_'
'zachowanie_'
'za'
'yła_'
'yw'
'yjnej_'
'włosy_'
'właściwości_'
'władzy_'
'wyświetleniem_'
'wytrysk_'
'występują_'
'wystarczy_'
'wyposażone_'
'wyników_'
'wymiary_'
'wymiany_'
'wykorzystuje_'
'wyg'
'wydarzenia_'
'wycieczki_'
'wy'
'wszelkich_'
'wspomina'
'wspiera_'
'wski_'
'wskazany_'
'wpływu_'
'worldwide_'
'wo'
'wn'
'większe_'
'wireless_'
'wego_'
'weekend_'
'ważny_'
'waste_'
'wart'
'ware_'
'vin'
'var'
'va'
'us'
'urządzenie_'
'uruchomić_'
'uruchamiania_'
'ure'
'uni'
'umysł_'
'ule'
'uj'
'ue_'
'udało_'
'uczestników_'
'ucie'
'tłumaczenie_'
'tzw_'
'twój_'
'tworzyw_'
'twa_'
'turystyczne_'
'tte_'
'tt'
'ts'
'tro'
'tried_'
'transparent_'
'traktatu_'
'traffic_'
'traditions_'
'tl'
'themes_'
'terytorium_'
'ten'
'telephone_'
'technicznej_'
'taką_'
'słowy_'
'sztucznych_'
'symbol_'
'swi'
'surroundings_'
'sur'
'sun_'
'successfully_'
'substancji_'
'sty_'
'stworzenie_'
'stw'
'stro'
'strengthen_'
'stosowanie_'
'stores_'
'sterowniki_'
'starszych_'
'star'
'stacji_'
'sse_'
'ss'
'square_'
'sprawozdawcy_'
'spot_'
'sposobem_'
'spełnia_'
'spend_'
'spacious_'
'sp_'
'sna'
'smak_'
'slide_'
'składników_'
'sku'
'skorzystać_'
'skojarzenie_'
'sj'
'sił_'
'sive_'
'siedzibą_'
'sharing_'
'session_'
'served_'
'serii_'
'sektora_'
'seeking_'
'sectors_'
'schedule_'
'scen'
'sca'
'saw_'
'saving_'
'satelitarna_'
'sal'
'rzy'
'rus'
'run'
'rozporządzenia_'
'rot'
'rose_'
'rocznie_'
'rock_'
'robot'
'robić_'
'rob'
'roads_'
'rn'
'ria'
'requires_'
'remember_'
'relationship_'
'relation_'
'rei'
'reduction_'
'recently_'
'reading_'
'reached_'
'rea'
'rc'
'raised_'
'q_'
'płyty_'
'py_'
'publicznych_'
'prędkości_'
'przyszłość_'
'przynajmniej_'
'przyjęciem_'
'przyjaciół_'
'przet'
'prop'
'promotion_'
'programie_'
'produkt'
'producer_'
'producent_'
'print_'
'presents_'
'pray_'
'prawnych_'
'pralka_'
'pracuje_'
'połączenia_'
'pozycję_'
'pozycji_'
'poznać_'
'powerful_'
'poszczególnych_'
'pos'
'porównaniu_'
'poprawek_'
'popiera'
'poniedziałek_'
'pom'
'polska_'
'pol'
'podstawowe_'
'pleasure_'
'pla'
'pl'
'piętra_'
'piątek_'
'pierwszych_'
'pie'
'pia'
'pi'
'pewien_'
'perfectly_'
'pea'
'patients_'
'park'
'pakietu_'
'pakiet_'
'pacjent'
'oł'
'owners_'
'owi'
'owa'
'osi'
'origin_'
'organized_'
'organic_'
'ore_'
'opcje_'
'oo'
'ont'
'oma'
'ol_'
'oko'
'oi'
'ogród_'
'ogni'
'ofertę_'
'odpowiedzialny_'
'odpowiednich_'
'odpowiedni_'
'odbędzie_'
'oczy_'
'oboz'
'obok_'
'objawia_'
'obiektów_'
'nąć_'
'nowa_'
'notify_'
'normy_'
'noc'
'nk_'
'niskie_'
'nion'
'ników_'
'nikt_'
'nik'
'nies'
'nieruchomości_'
'niedrogie_'
'niedo'
'nie'
'nes_'
'ner_'
'neo'
'nc'
'nazwę_'
'nazwie_'
'naw'
'nauki_'
'natury_'
'nat'
'nan'
'nak'
'najnowszych_'
'nadaje_'
'młodzieży_'
'młodych_'
'myśli_'
'musical_'
'mu'
'mos'
'moments_'
'mojej_'
'moduł_'
'moc_'
'międzynarodowych_'
'międzynarodowej_'
'między'
'mix_'
'mission_'
'mio'
'mil'
'miejscach_'
'mid_'
'miała_'
'metro_'
'methods_'
'mes_'
'meetings_'
'meaning_'
'mały_'
'marek_'
'mal'
'mai'
'luty_'
'lu_'
'lotnisko_'
'lokalizacja_'
'locations_'
'lo_'
'liw'
'lit'
'listę_'
'links_'
'lies_'
'library_'
'lesson_'
'leg'
'lar'
'lake_'
'lak'
'la'
'ky_'
'kwiatów_'
'kryzysu_'
'kryzys_'
'krwi_'
'kowych_'
'kowe_'
'kot'
'kontrol'
'kont'
'komentarza_'
'kolekcji_'
'kod_'
'kle'
'kin'
'keys_'
'kes_'
'join_'
'ji'
'jer'
'jadalna_'
'ię_'
'ią_'
'ization_'
'is'
'inwestycje_'
'investors_'
'investments_'
'interpretation_'
'interested_'
'integration_'
'instytucje_'
'inform_'
'inc'
'in'
'import_'
'implemented_'
'il_'
'il'
'ików_'
'ica_'
'ic'
'hy'
'hu'
'hot_'
'holy_'
'heritage_'
'heating_'
'heard_'
'head'
'hard'
'hah_'
'guest_'
'gu_'
'grupa_'
'greatest_'
'graczy_'
'governance_'
'gos'
'godzinie_'
'godn'
'ger_'
'ged_'
'gaming_'
'fun'
'ft'
'friendly_'
'fresh_'
'fragmented_'
'fra'
'formy_'
'followed_'
'flower_'
'flow_'
'flo'
'finally_'
'filtr'
'ff_'
'felt_'
'feedback_'
'faster_'
'farm'
'fail_'
'facts_'
'factors_'
'facing_'
'eś_'
'eyes_'
'expert_'
'exist_'
'ewa'
'evening_'
'europejskim_'
'eu_'
'esi'
'ents_'
'enter_'
'energię_'
'enemies_'
'enc'
'enabled_'
'ena'
'emo'
'elo'
'ella_'
'elegant_'
'ekspres_'
'ega'
'effort_'
'edukacji_'
'edition_'
'eco'
'eb'
'eau_'
'dług'
'dziecko_'
'działać_'
'działanie_'
'dz'
'dwu'
'dużej_'
'druku_'
'drogi_'
'dość_'
'doskonałą_'
'domy_'
'dodatkowa_'
'dodaje_'
'division_'
'district_'
'diseases_'
'discussions_'
'dil'
'diet_'
'died_'
'diameter_'
'dialogue_'
'detailed_'
'destination_'
'depending_'
'den_'
'den'
'del'
'defined_'
'deep_'
'dead_'
'daty_'
'darmową_'
'dangerous_'
'cą_'
'czny_'
'czemu_'
'czasach_'
'czarny_'
'cyjnych_'
'cycle_'
'cute_'
'critical_'
'credit_'
'cra'
'count'
'controls_'
'contents_'
'contain_'
'consumers_'
'constitute_'
'conducted_'
'conditioned_'
'concrete_'
'con'
'component_'
'compilation_'
'commitment_'
'command_'
'comfort_'
'coffee_'
'cock_'
'cle'
'cja'
'cia'
'chosen_'
'chemical_'
'chcę_'
'charged_'
'character_'
'cha'
'centreclose_'
'cel_'
'campaign_'
'camera_'
'bł'
'będziesz_'
'byłoby_'
'byli_'
'but'
'bru'
'bla'
'binary_'
'bia_'
'barwiących_'
'bars_'
'bank_'
'bak'
'baby_'
'ały_'
'avoid_'
'averages_'
'auto'
'au'
'attitude_'
'ato'
'ating_'
'ati'
'art'
'aro'
'ari'
'appro'
'announced_'
'anniversary_'
'angielskim_'
'alle'
'ak'
'aj_'
'aj'
'ahead_'
'ag'
'ady_'
'achieved_'
']'
'Zw'
'Zr'
'Zawsze_'
'Zanieczyszczenie_'
'ZE_'
'Yun_'
'YouTube_'
'Yo'
'XC'
'Wz'
'Wpisz_'
'Winter_'
'Win'
'Wikipedia_'
'Wiele_'
'Where_'
'Washing_'
'WO'
'WC_'
'Vincent_'
'Victoria_'
'VI_'
'VI'
'VE'
'VC'
'Used_'
'Ur'
'Up'
'Unia_'
'UR'
'UK_'
'Tłumaczenie_'
'Twojej_'
'Tom_'
'Tile_'
'Tell_'
'Technical_'
'Takie_'
'Take_'
'TH_'
'THE_'
'TE'
'Szwajcaria_'
'Sun'
'Stri'
'Stockholm_'
'Stat'
'Stars_'
'Spr'
'Społecznej_'
'Spa'
'Source_'
'Slovakia_'
'Sheet_'
'Serbia_'
'Ser'
'Sel'
'Sand'
'San'
'SU'
'SS_'
'SK_'
'S7_'
'Ruch_'
'Rozszerzenie_'
'Rosji_'
'Romania_'
'Romance_'
'Roll_'
'Rok_'
'Robert_'
'Results_'
'Remember_'
'Raport_'
'Rada_'
'RT'
'RS_'
'RO'
'RB'
'Print_'
'Pri'
'PrestaShop_'
'Pre'
'Praw_'
'Położony_'
'Pozostałe_'
'Pow'
'Portuguese_'
'Poprzez_'
'Pol'
'Pod_'
'Players_'
'Play'
'Pie'
'Pi'
'Personal_'
'Per'
'Państwu_'
'Password_'
'Pas'
'PartyDeco_'
'Papierosy_'
'PAIiIZ_'
'PA'
'Over'
'Oven_'
'Out'
'Others_'
'Orange_'
'Oni_'
'On'
'Offers_'
'Oc'
'Obywatelskich_'
'OR'
'ON'
'Nowości_'
'Not'
'Niestety_'
'Natural_'
'Narodowy_'
'Nagrody_'
'Na'
'ND_'
'NA'
'Mus'
'Munich_'
'Mrs_'
'Mos'
'Mor'
'Mimo_'
'Miasto_'
'Me'
'Maszyna_'
'Mass_'
'Mar'
'Manager_'
'Man'
'Makeover_'
'Madrid_'
'Mad'
'Mac_'
'Ma_'
'Ma'
'MA_'
'Luxembourg_'
'Lou'
'Lotto_'
'Lokalizacja_'
'LifeWave_'
'Lenovo_'
'Law_'
'Laura_'
'Lar'
'Lan'
'LU'
'LO'
'LE_'
'Kur'
'Ku'
'Komisję_'
'Key'
'Ken'
'Kamera_'
'Ka'
'KA_'
'Jerzy_'
'Jak'
'Its_'
'Is'
'Inter'
'Instytutu_'
'Instalujemy_'
'Info_'
'Inc_'
'Images_'
'IV_'
'IM'
'Hot_'
'Har'
'Guests_'
'Gro'
'Green_'
'Graben_'
'Give_'
'Gen'
'Gaz'
'GI'
'Ford_'
'Food_'
'Flight_'
'Finance_'
'Filter_'
'Fer'
'Faza_'
'Fax_'
'Family_'
'FP'
'FA'
'Every_'
'Estonia_'
'Entrepreneur_'
'Eli'
'Eco'
'ES'
'EM'
'Dzień_'
'Du'
'Dowiedz_'
'Dostęp_'
'Don_'
'Doc'
'DNS_'
'DI'
'DE'
'DC_'
'Cultural_'
'Crown_'
'Control_'
'Co'
'Clothes_'
'Chu'
'Chociaż_'
'Chiny_'
'Catholic_'
'Catalogue_'
'Caregiver_'
'Cancel_'
'Can_'
'CR'
'CM'
'CE'
'CA'
'Bur'
'Brukseli_'
'Browse_'
'Bri'
'Bot'
'Bogiem_'
'Bi'
'Berlin'
'Ben'
'Bas'
'Bal'
'Autumn_'
'Audi_'
'Atlantic_'
'Aplikacje_'
'Ant'
'Angeles_'
'Ang'
'Aktualne_'
'Aktualizacja_'
'Ai'
'Adriatic_'
'Academy_'
'AW'
'AS_'
'AM'
'AA'
'A2_'
'? '
'90'
'81_'
'80'
'71'
'67_'
'59'
'53757_'
'53'
'49'
'43'
'3km_'
'39'
'2x_'
'193'
'1500_'
'13'
'125_'
'114_'
'/'
'.. _'
'.)._'
'. "_'
'*_'
'). _'
'"'
' →_'
' ('
' $ _'
'€'
'с'
'в'
'żyć_'
'ży_'
'żon'
'żni'
'ża'
'Żydów_'
'źnie'
'š'
'środowisko_'
'ście'
'ś'
'łów_'
'łu'
'ęcie_'
'ęb'
'ąd'
'ącą_'
'ącym_'
'óż'
'ówka_'
'ósł_'
'zyn'
'zyc'
'zwiększenie_'
'zw'
'zrobi'
'zosta'
'zobowiązań_'
'zobaczy'
'zne_'
'znać_'
'znajomym_'
'zna_'
'zmianie_'
'zewnątrz_'
'zenia_'
'zem'
'zba'
'zaw'
'zatrudnienia_'
'zastosowanie_'
'zapis'
'zapewnienie_'
'zapewniają_'
'zaoferować_'
'zamówienie_'
'zakończeniu_'
'zada'
'zabawki_'
'zaawansowanych_'
'yn_'
'yjnym_'
'ycznych_'
'yczny_'
'właściwie_'
'własnym_'
'wówczas_'
'wyświetleń_'
'wysyłki_'
'wyspy_'
'wys'
'wyposażony_'
'wykonać_'
'wyko'
'wybran'
'wybierzesz_'
'www_'
'wszędzie_'
'wst'
'wspólnych_'
'wspólnej_'
'wspólnego_'
'wspomnieć_'
'wręcz_'
'workshops_'
'wonderful_'
'wolne_'
'woli_'
'wniosek_'
'wki_'
'wizyta_'
'wis'
'wir'
'wiodących_'
'wieczor'
'wiec'
'wie'
'widoczn'
'western_'
'wej_'
'wca_'
'wc'
'ważnych_'
'wave_'
'warsztat'
'warm_'
'wants_'
'wana_'
'walls_'
'wallpaper_'
'wall_'
'walk'
'votes_'
'von_'
'victims_'
'używany_'
'uz'
'uwzględnia'
'utr'
'ust_'
'unt'
'uns'
'unp'
'unless_'
'unable_'
'una'
'un_'
'ulo'
'układu_'
'uko'
'udo'
'ude'
'uczniowie_'
'ubrania_'
'typical_'
'tyczne_'
'trwa_'
'trunk_'
'trends_'
'trasy_'
'transmission_'
'translation_'
'trampoline_'
'towns_'
'tors_'
'top'
'tive_'
'thy_'
'there'
'testów_'
'testing_'
'teri'
'telefony_'
'tek_'
'technologiczn'
'technicznych_'
'tech_'
'teams_'
'tar_'
'tank_'
'tan_'
'talk_'
'tag'
'tac'
'tabeli_'
'służy_'
'służb'
'szy_'
'szcze'
'sz'
'sytuację_'
'symptom_'
'swa'
'super'
'stylu_'
'stylish_'
'stu'
'strength_'
'straight_'
'story_'
'stop'
'sters_'
'stałe_'
'stał_'
'startups_'
'starting_'
'stanowisko_'
'standing_'
'standardów_'
'standards_'
'stages_'
'ssion_'
'ssi'
'spójności_'
'sprawą_'
'społeczności_'
'społecznej_'
'spotkań_'
'spor'
'spoken_'
'speech_'
'speaker_'
'sp'
'sor'
'soni'
'solidarity_'
'solid_'
'softwares_'
'sn'
'smartfona_'
'smaller_'
'sle'
'skojarzeniu_'
'ski'
'siê_'
'sil'
'significant_'
'signed_'
'sho'
'sexual_'
'serving_'
'seri'
'sen'
'seeing_'
'scope_'
'scale_'
'samą_'
'samolot'
'sam'
'sad'
'ręce_'
'różnic'
'róż'
'ryzyka_'
'rynkach_'
'ru'
'rs'
'roślin_'
'rozwiązaniem_'
'rozrywki_'
'rozpozna'
'rower'
'rou'
'ron'
'roll_'
'rodzajów_'
'rodzaje_'
'rin'
'rie'
'rg'
'rezerwacje_'
'returned_'
'restauracja_'
'rest'
'respond_'
'reserved_'
'reservations_'
'reservation_'
'reported_'
'rent_'
'ren'
'removed_'
'relating_'
'relacje_'
'registration_'
'refrigerator_'
'referred_'
'recording_'
'recorded_'
'record_'
'recipient_'
'rci'
'rb'
'raportu_'
'rank_'
'ran_'
'rami'
'ram'
'raka_'
'raf'
'radio'
'quick_'
'pół'
'publisher_'
'publicznej_'
'publicznego_'
'ps'
'prędkość_'
'przyjść_'
'przychodzących_'
'przodu_'
'przewodnik_'
'przep'
'przejrzystości_'
'przeglądu_'
'przechowywane_'
'przeanalizuje_'
'proven_'
'protokół_'
'protein_'
'protecting_'
'proof_'
'promises_'
'prognozyKlimatMeteorologia_'
'professionals_'
'produkcie_'
'produced_'
'procurement_'
'procesie_'
'procedure_'
'prisoners_'
'prior_'
'printed_'
'principle_'
'prezes_'
'president_'
'precipitation_'
'prace_'
'pp'
'pończochy_'
'pozwoli_'
'pozostaje_'
'poziomy_'
'poz'
'powinno_'
'powie'
'potrzebuje_'
'posłowi_'
'postęp_'
'porządku_'
'poprawki_'
'poparcie_'
'pomóc_'
'politykę_'
'poko'
'podobne_'
'podmiot'
'podgląd_'
'podejmowania_'
'podatku_'
'pobierzesz_'
'po'
'plan'
'plac'
'pis'
'pipe_'
'ping_'
'piersi_'
'pieces_'
'pewn'
'permission_'
'perhaps_'
'perform'
'penalty_'
'patio_'
'passenger_'
'pass_'
'parti'
'panowie_'
'pad'
'oż'
'owała_'
'owanym_'
'oven_'
'ously_'
'otwor'
'osz'
'ostatni_'
'osobowe_'
'organization_'
'organisations_'
'opowiada'
'opinions_'
'operacyjnym_'
'ona'
'omi'
'ome'
'oln'
'ole_'
'ole'
'older_'
'ok'
'ograniczenia_'
'ofert_'
'odnośnie_'
'odi'
'obu_'
'obowiązki_'
'objective_'
'obejmują_'
'obc'
'oa'
'nów_'
'numeru_'
'nta'
'not'
'nok'
'nne'
'nki_'
'niewy'
'niew'
'nieu'
'niemal_'
'niekiedy_'
'nge'
'ng'
'neighbour'
'nec'
'nearly_'
'nauk_'
'nau'
'nas'
'namely_'
'najwyższej_'
'największych_'
'najnowsze_'
'nag'
'mó'
'museum_'
'multi'
'mother_'
'mono'
'modernis'
'modelu_'
'models_'
'mo'
'misji_'
'minibar_'
'mieszkanie_'
'mierze_'
'mieli_'
'miało_'
'met'
'mes'
'ment'
'memory_'
'measurements_'
'measured_'
'mb'
'matki_'
'matka_'
'materiału_'
'match_'
'mask'
'mark'
'manufacturers_'
'mak'
'mAby_'
'ląd'
'lum'
'lubi'
'lt_'
'lotniczy_'
'lose_'
'lookup_'
'lon'
'linią_'
'limit'
'likely_'
'lic_'
'lic'
'leży_'
'letnią_'
'let'
'lessons_'
'lease_'
'layer_'
'lay'
'lato_'
'larger_'
'laptopa_'
'land'
'labour_'
'kwa'
'kur'
'kupi'
'kultur'
'ks'
'krajobraz_'
'krajem_'
'krajami_'
'kra'
'kosztów_'
'kor'
'kop'
'kontakt'
'konta_'
'koncert'
'komórki_'
'kompetencji_'
'kom'
'kolej'
'kni'
'knew_'
'kliknięcie_'
'klikniesz_'
'klientom_'
'kli'
'klas'
'kier'
'kiego_'
'kiedykolwiek_'
'ker'
'każda_'
'kategoriach_'
'katalogu_'
'kara'
'jącym_'
'jąca_'
'jeziora_'
'jednostki_'
'jednostek_'
'jedno_'
'je'
'japanese_'
'jakichś_'
'iła_'
'ię'
'iw'
'ities_'
'istnieć_'
'istnieją_'
'islands_'
'ish'
'invite_'
'interface_'
'insurance_'
'instructions_'
'instance_'
'ins'
'inicjatywy_'
'inf'
'individually_'
'increasingly_'
'income_'
'inaczej_'
'imprezy_'
'ide'
'id'
'ics_'
'ically_'
'ia'
'hy_'
'hur'
'hundreds_'
'hum'
'host_'
'hospital_'
'hoo'
'hol'
'hle'
'hi'
'harmoni'
'handling_'
'hall_'
'hai'
'główny_'
'głowy_'
'głosowania_'
'guide_'
'gs_'
'grze_'
'grupie_'
'grow_'
'gross_'
'grad'
'gorąco_'
'gon'
'gold_'
'gna'
'gn'
'glo'
'gli'
'ging_'
'gin'
'getting_'
'geo'
'gen_'
'fuels_'
'fruit_'
'fridge_'
'frequently_'
'freezes_'
'free'
'francuski_'
'frame_'
'formed_'
'fon'
'flu'
'fli'
'flash_'
'fit'
'finished_'
'fighting_'
'fees_'
'feeling_'
'favorite_'
'faced_'
'eć_'
'ez_'
'expressed_'
'experts_'
'experienced_'
'expect_'
'expansion_'
'exhibitions_'
'exhausted_'
'eva'
'ev'
'eta_'
'esz_'
'establishing_'
'erze_'
'ero'
'equal_'
'entertainment_'
'enterprises_'
'ent'
'engineering_'
'energetycznej_'
'enco'
'emissions_'
'emi'
'emb'
'ekran'
'ei'
'eg'
'ech'
'eastern_'
'earlier_'
'dźwięku_'
'długość_'
'długie_'
'dziewczyny_'
'dziedzictwa_'
'działa'
'dze_'
'drugim_'
'drugie_'
'drogą_'
'dream_'
'dre'
'dotted_'
'dot'
'dostępności_'
'dostawy_'
'doskonałe_'
'doors_'
'domyślnie_'
'domestic_'
'dol'
'dokumentów_'
'dokonać_'
'dokonan'
'dok'
'dodatkowe_'
'dobra_'
'do'
'dly_'
'director_'
'dio'
'difference_'
'destinations_'
'desk_'
'department_'
'delay_'
'degree_'
'dedicated_'
'darmowe_'
'damy_'
'daleko_'
'dac'
'człowiek_'
'członków_'
'czytaj_'
'czynienia_'
'czyn'
'czwartek_'
'cznych_'
'cznego_'
'czka_'
'czegoś_'
'czasami_'
'czarn'
'cz'
'ct'
'crime_'
'creative_'
'cou'
'copyright_'
'coordination_'
'cool_'
'contribution_'
'contribute_'
'continued_'
'consumption_'
'con_'
'complex_'
'comp'
'combined_'
'colour_'
'collaboration_'
'coal_'
'cleaning_'
'cleaner_'
'classic_'
'cla'
'civil_'
'ciekawe_'
'chronione_'
'chroni_'
'chociaż_'
'chest_'
'ches_'
'che_'
'chat_'
'char'
'chain_'
'certified_'
'certainly_'
'ceramic_'
'cent_'
'causes_'
'cation_'
'catalogue_'
'castle_'
'carried_'
'cap_'
'burg_'
'budowy_'
'budow'
'bs'
'brunetki_'
'brings_'
'bri'
'book'
'blo'
'bility_'
'biggest_'
'bezpłatne_'
'ben'
'believed_'
'becoming_'
'becomes_'
'bazy_'
'base_'
'banks_'
'band_'
'background_'
'ał'
'ay_'
'autorów_'
'autorskich_'
'attractive_'
'ate'
'atak'
'at'
'asylum_'
'associating_'
'asi'
'arz'
'ary'
'artykule_'
'applies_'
'app'
'ano_'
'ano'
'angielskiego_'
'aneks_'
'ancient_'
'analny_'
'analizę_'
'analiz'
'amp'
'amendments_'
'alt'
'alne_'
'alna_'
'ali_'
'aktualnie_'
'ające_'
'ai_'
'ai'
'adresu_'
'administrator_'
'ada'
'ace'
'accordingly_'
'accompanied_'
'accession_'
'ac'
'], _'
'Zu'
'Zasady_'
'Zarządu_'
'Zakres_'
'Zak'
'Zachód_'
'ZA'
'Ye'
'Właśnie_'
'Wyślij_'
'Wyszukiwarka_'
'Wyspy_'
'Wydarzenia_'
'Wybór_'
'Wszelkie_'
'Wr'
'Witam_'
'Według_'
'Washington_'
'WP'
'WE_'
'WB'
'Virtual_'
'Via_'
'Vel'
'Ve'
'Value_'
'Valentine_'
'VA'
'Użytkownicy_'
'Usług_'
'Urząd_'
'UFO_'
'UA'
'Tutaj_'
'Tru'
'Training_'
'Ton'
'Tom'
'Today_'
'Tin'
'Thus_'
'Those_'
'Thi'
'The'
'Th'
'Terrace_'
'Tajlandii_'
'Taiwan_'
'TXXX_'
'TV'
'TRI'
'TP'
'Szybki_'
'Sztuki_'
'Swedish_'
'SuperPracodawca_'
'Stovetop_'
'Ste'
'Sprzeda'
'Spraw_'
'Space_'
'Sony_'
'Sometimes_'
'So'
'Sin'
'Shanghai_'
'Select_'
'Second_'
'Sea'
'Schronisko_'
'Samo'
'Sam'
'Sale_'
'Sagrada_'
'SP'
'SO'
'SIP_'
'SE_'
'SC'
'Rzym_'
'Rue_'
'Rose_'
'Ron'
'Regulation_'
'Rec'
'Rate_'
'Railway_'
'RU'
'RP'
'RI'
'RA'
'Published_'
'Prób'
'Przemysłu_'
'Protection_'
'Profil'
'Produkt_'
'Producent_'
'Producenci_'
'Princess_'
'Previous_'
'Poznań_'
'Powiedz_'
'Post_'
'Port'
'Poly'
'Polskiej_'
'Pole_'
'Pokoje_'
'Podobnie_'
'Podaj_'
'Początek_'
'Plastic_'
'Plan'
'Plac'
'Pil'
'Pictures_'
'Peter_'
'Pet'
'Pay_'
'Partners_'
'PR_'
'PN_'
'PC'
'Ostatnio_'
'Organiz'
'Oprogramowanie_'
'Olympic_'
'Oil_'
'Odległość_'
'Ochrony_'
'Ochrona_'
'OT'
'OD_'
'OD'
'Ny'
'Numery_'
'Norway_'
'Nor'
'Nawet_'
'Narodowego_'
'Nap'
'NA_'
'Myślę_'
'My'
'Mur'
'Ml'
'Mieć_'
'Miejsce_'
'Mercedes_'
'Melbourne_'
'Mediterranean_'
'Mał'
'Maybe_'
'Match_'
'Mat'
'Martin'
'Marketing_'
'Marka_'
'Mari'
'Marek_'
'Mano'
'Mag'
'MP'
'MO'
'Ludzie_'
'Logistics_'
'Lin'
'Limited_'
'Lightning_'
'Life_'
'Leave_'
'Laundry_'
'Lang'
'LN'
'LL_'
'Koszyk_'
'Kor'
'Kom'
'Kal'
'KA'
'Język_'
'Ju'
'Jes'
'Jej_'
'Jednakże_'
'Japanese_'
'Jan_'
'Jakie_'
'Jack'
'JS'
'Italic_'
'Islands_'
'Islam_'
'Internecie_'
'Instagram_'
'Ing'
'Incorrect_'
'Id'
'Ich_'
'IS_'
'IO'
'IN_'
'Hy'
'Hungarian_'
'Hor'
'Hoover_'
'Hong_'
'Home'
'Hiszpania_'
'Highlight_'
'Hel'
'Hard'
'Ham'
'HT'
'HLR_'
'HIV_'
'HE'
'HA'
'Guide_'
'Government_'
'Gospel_'
'GooglePlay_'
'Giant_'
'Georgia_'
'Gdyby_'
'Gallery_'
'Galaxy_'
'GR'
'GM'
'GBP_'
'Fun_'
'Friends_'
'Francji_'
'Franc'
'Found_'
'Forming_'
'Foreign_'
'Following_'
'Fla'
'Fidelity_'
'Fair_'
'Fabric_'
'Expert_'
'Experience_'
'Ele'
'Education_'
'Ed'
'Easter_'
'EPUB_'
'ENT'
'EL_'
'EL'
'Dublin_'
'Drug'
'Drive_'
'Dressup_'
'Dostępne_'
'Dive_'
'District_'
'Direct'
'Defender_'
'Debian_'
'Dating_'
'Danish_'
'DR'
'DO'
'Czasami_'
'Cyclones_'
'Cute_'
'Cross_'
'Coo'
'Conditions_'
'Con'
'Commercial_'
'Coloring_'
'College_'
'Cloud_'
'Charles_'
'Challenge_'
'Celem_'
'Cel_'
'Cas'
'Calendar_'
'CP'
'CN'
'CL'
'CH'
'Błędy_'
'Był_'
'Buddha_'
'Brytanii_'
'Brother_'
'Brazil_'
'Br'
'Boże_'
'Blue_'
'Black'
'Birthday_'
'Bingo_'
'Bet'
'Below_'
'Beeg_'
'Be'
'Bauernmarkt_'
'Battle_'
'Barbara_'
'Bai'
'Bag'
'Bab'
'BU'
'BB'
'Availability_'
'Auto_'
'Auto'
'Austrii_'
'Athens_'
'As'
'Article_'
'Angielski_'
'Analysis_'
'Ana'
'Among_'
'All'
'Ak'
'Airlines_'
'Agreement_'
'Ag'
'Access_'
'Ac'
'AT_'
'AT'
'AL'
'AD_'
'A1_'
'? ... _'
'94'
'93'
'91_'
'88'
'86'
'79'
'78'
'75'
'73_'
'68_'
'68'
'42'
'41'
'377'
'2nd_'
'2km_'
'280_'
'1993_'
'194'
'193_'
'192'
'189'
'180_'
'160_'
'130'
'101_'
'0m_'
'05'
'01'
'.,_'
'. | _'
'-'
', “_'
','
'*** _'
'):_'
'" - _'
' )_'
'…'
'”. _'
'” – _'
'” '
'у'
'н'
'а'
'ży'
'żu'
'żn'
'żenie_'
'Że'
'światowego_'
'śl'
'Środowiska_'
'łączy_'
'łości_'
'łow'
'łon'
'łod'
'łoby_'
'łatwiej_'
'łatwe_'
'łatw'
'ładn'
'ład'
'ě'
'ętn'
'ę'
'ąt'
'ącz'
'ąc'
'ą'
'Ą'
'ā'
'ø'
'ół'
'óc'
'ía_'
'í_'
'æ_'
'®'
'¨®_'
'zą_'
'zych_'
'zwycięstw'
'związków_'
'zwi'
'zur'
'zta'
'zor'
'znych_'
'znan'
'znaczne_'
'zjawisk'
'zio'
'zielony_'
'zes_'
'zeni'
'zem_'
'zał'
'zawieszania_'
'zat'
'zasz'
'zastrzeżone_'
'zastosowań_'
'zasoby_'
'zakład'
'zakupu_'
'zakres_'
'zadania_'
'zad'
'zachodni'
'zab'
'ył_'
'yz'
'yp'
'ymy_'
'ym'
'yjny_'
'yjne_'
'yield_'
'ye'
'xu'
'włoski_'
'wło'
'własne_'
'węgla_'
'wyślemy_'
'wyłożona_'
'wyzwania_'
'wysłać_'
'wyszukanie_'
'wysz'
'wyspa_'
'wysoką_'
'wysokich_'
'wysoka_'
'wyrobów_'
'wyra'
'wynoszą_'
'wymagany_'
'wykład'
'wykrywania_'
'wykorzystanie_'
'wykonania_'
'wyjazd'
'wygodne_'
'wydarzeń_'
'wydania_'
'wybor'
'wspólne_'
'wra'
'wprowadzić_'
'worse_'
'wol'
'wniosku_'
'wl'
'wiz'
'wit'
'wishes_'
'wing_'
'wil'
'wiedzą_'
'width_'
'wiary_'
'wewnętrznych_'
'wers'
'wel'
'water'
'wat'
'wan_'
'vely_'
'vation_'
'valuable_'
'valid_'
'użytkownicy_'
'uzyska'
'uważa_'
'usunięte_'
'ustawia'
'ustalenia_'
'usta'
'uss'
'usi'
'urzęd'
'urządzone_'
'ury_'
'urg'
'urban_'
'ura'
'updated_'
'unlocking_'
'unk'
'uninstall_'
'umy'
'umieszczenie_'
'umie'
'umb'
'um'
'ulicy_'
'ulic_'
'ular_'
'ula_'
'ującą_'
'uda'
'tworzenie_'
'twoje_'
'twarzy_'
'tura_'
'tun'
'trz'
'truly_'
'trips_'
'trick_'
'trend_'
'trees_'
'traveling_'
'traditional_'
'tr_'
'tożsamości_'
'toys_'
'touch_'
'tou'
'totally_'
'tori'
'tone_'
'ton'
'tips_'
'tion'
'ticket_'
'thou_'
'tet'
'tests_'
'tematem_'
'telefoniczne_'
'tee'
'tea'
'taught_'
'tation_'
'tar'
'tam'
'tab'
'sło'
'szybciej_'
'szta'
'szkoł'
'szkolenia_'
'szkole_'
'szerokości_'
'szczegółów_'
'systemy_'
'sys_'
'symptomem_'
'sym'
'surf'
'supporting_'
'supermarket'
'suggest_'
'stronger_'
'strat'
'stove_'
'stosowane_'
'stories_'
'stood_'
'ster'
'stałych_'
'staw'
'statement_'
'stanowić_'
'stanowiska_'
'stag'
'sson_'
'ssa'
'spółki_'
'spółek_'
'sprawiedliwości_'
'sprawia_'
'sprawach_'
'społecznych_'
'spotkanie_'
'spotka'
'sportowych_'
'sponsor'
'southern_'
'sou'
'skład_'
'skład'
'skórę_'
'skutków_'
'skali_'
'sitting_'
'sing'
'siedzib'
'siedzenia_'
'seven_'
'serwisowa'
'serwis_'
'serwerach_'
'serwer'
'serious_'
'segment'
'sd'
'schools_'
'scenie_'
'sauna_'
'samych_'
'samochód_'
'samochodowe_'
'rów_'
'rza'
'rys'
'ryby_'
'runs_'
'rpm_'
'rozwijać_'
'rozmawia'
'rozbi'
'row_'
'ron_'
'rom'
'rodziców_'
'rna'
'rka_'
'rist'
'ric'
'restauracji_'
'resi'
'rese'
'reporting_'
'replacement_'
'repe'
'rent'
'renovated_'
'reliable_'
'rejestr'
'regards_'
'reci'
'recepcja_'
'reader_'
'reaction_'
'rcz'
'ram_'
'rainfall_'
'rad'
'quar'
'qua'
'płyta_'
'pus_'
'punktem_'
'publiczne_'
'przyjmuje_'
'przyje'
'przygotowanie_'
'przydatne_'
'przeskanowanie_'
'przepisy_'
'przekąsk'
'przejść_'
'przedłuż'
'przedstawił'
'przedstawia_'
'przeb'
'prowadząc'
'protocol_'
'projekcie_'
'programmes_'
'profilu_'
'prof_'
'produkcja_'
'producent'
'procesy_'
'procedury_'
'pro_'
'privacy_'
'priorities_'
'principles_'
'primary_'
'priests_'
'previously_'
'prepare_'
'pre_'
'pper_'
'pośrednictwem_'
'połączenie_'
'powsta'
'powrotem_'
'powolnego_'
'powoduje_'
'powiadomić_'
'powers_'
'poważniejszych_'
'poufn'
'potencjał_'
'postaw'
'posiedzenia_'
'pory_'
'porozumienie_'
'porn_'
'popularn'
'poprawić_'
'pomoże_'
'polityką_'
'politycznych_'
'policz_'
'polecamy_'
'pokazan'
'pointed_'
'podjęta_'
'początkujących_'
'początek_'
'pochodzi_'
'play'
'plastic_'
'plans_'
'planned_'
'placed_'
'pięć_'
'piękny_'
'pięciu_'
'pisanie_'
'pio'
'pil'
'ph'
'pewnych_'
'pewno_'
'pet'
'pes_'
'permanent_'
'perform_'
'peoples_'
'penis_'
'peaceful_'
'państwami_'
'pay'
'patr'
'passed_'
'partii_'
'participating_'
'parliamentary_'
'parents_'
'parameters_'
'ow'
'ov'
'out'
'otwarty_'
'otwarcie_'
'otrzymał_'
'otherwise_'
'ost_'
'osobn'
'osa_'
'orti'
'oro'
'originally_'
'organizacja_'
'orem_'
'ord_'
'ora'
'opis'
'opiera_'
'operatora_'
'operator_'
'oper'
'opadów_'
'onally_'
'omo'
'oliw'
'oli'
'ola_'
'określenia_'
'okazję_'
'og'
'oferta_'
'of'
'odz'
'odr'
'odpowiedzialności_'
'oda'
'oczu_'
'oczn'
'oczach_'
'oci'
'occasion_'
'obywatelom_'
'obtained_'
'obtain_'
'obrazów_'
'objęt'
'obiekt_'
'obie'
'obecności_'
'nuclear_'
'nto'
'noted_'
'none_'
'nomi'
'noise_'
'nocy_'
'nka_'
'niewłaściwe_'
'nieprawidłowym_'
'nieprawidłowych_'
'nienie_'
'niec'
'nicz'
'nictwa_'
'nica_'
'newsletter_'
'netto_'
'nea'
'nda'
'nch'
'nb'
'naz'
'nauka_'
'nation_'
'następujących_'
'następnej_'
'narzędzie_'
'named_'
'najłatwiejszym_'
'najwyższ'
'najważniejszych_'
'najczęściej_'
'mówią_'
'mys'
'musiał_'
'muscle_'
'multi_'
'mp'
'mouse_'
'motor_'
'motion_'
'mol'
'mogł'
'mog'
'mody_'
'modlitwa_'
'mld_'
'miło'
'mist'
'misja_'
'mining_'
'miliardów_'
'migration_'
'mieści_'
'mieszka_'
'miejscem_'
'microwave_'
'metra_'
'meter_'
'mer_'
'mental_'
'membership_'
'medium_'
'mecz'
'mechanism_'
'measure_'
'martw'
'marmurem_'
'map'
'lur'
'lunch_'
'luksusowe_'
'lud_'
'luc'
'lub'
'ls'
'loving_'
'loved_'
'loud'
'lotów_'
'los'
'logy_'
'logiczn'
'logi'
'll'
'litera'
'liquid_'
'linie_'
'lin'
'limits_'
'liczbę_'
'licencji_'
'lia'
'ley_'
'letters_'
'lesbian_'
'lepsze_'
'lep'
'leki_'
'lekcji_'
'lek'
'leczenie_'
'leczenia_'
'latter_'
'lat'
'las_'
'lam'
'lad'
'laboratorium_'
'kwestią_'
'kursu_'
'kurs'
'kupić_'
'kuj'
'kto'
'kształcenia_'
'książ'
'ksi'
'kró'
'krze'
'krajowych_'
'końca_'
'koła_'
'kowy_'
'konsumenta_'
'konflikt'
'komórek_'
'komputerów_'
'komp'
'komisarz_'
'komfortowe_'
'kolorze_'
'kolejny_'
'koleg'
'kobieta_'
'kluczowych_'
'kierunki_'
'kcj'
'kat'
'kas'
'kapitał'
'kamieni'
'kafelkami_'
'kabiny_'
'jutro_'
'journey_'
'jes'
'jedynym_'
'jednorazowe_'
'jd'
'ize'
'izacj'
'iva'
'istniejących_'
'issued_'
'isi'
'iro'
'ir'
'iny_'
'involve_'
'invest_'
'introduce_'
'internetowych_'
'interior_'
'interes'
'interactive_'
'intention_'
'intended_'
'intelligent_'
'int'
'inspired_'
'ino_'
'initiatives_'
'ini'
'iness_'
'ind'
'imy_'
'improvement_'
'impossible_'
'implement_'
'immediate_'
'im'
'ilo'
'illegal_'
'ila'
'ig'
'ień_'
'iew'
'ier_'
'idzie_'
'idealnym_'
'icy_'
'iah_'
'iPhone_'
'husband_'
'housing_'
'hor'
'hope'
'hole_'
'historię_'
'historical_'
'hire_'
'hip_'
'hearing_'
'hath_'
'hasła_'
'hardware_'
'har'
'happens_'
'handlowych_'
'hairdryer_'
'głębokie_'
'głównym_'
'gum'
'gui'
'gra'
'govern'
'gospodarczych_'
'gospodarczy_'
'god'
'gets_'
'generator_'
'gene'
'gan_'
'gam'
'gal'
'funduszu_'
'funding_'
'fund_'
'functional_'
'fulness_'
'fri'
'fragmentacją_'
'formula_'
'forget_'
'fore'
'forced_'
'foot'
'fle'
'fixer_'
'fine_'
'find'
'finansowy_'
'finansowan'
'financed_'
'fin'
'films_'
'figure_'
'fication_'
'fic'
'feed_'
'featuring_'
'fe_'
'fat'
'far'
'fan'
'familiar_'
'fallen_'
'fakty_'
'fac'
'eye_'
'extensive_'
'explain_'
'expenditure_'
'exists_'
'exclusive_'
'except_'
'ew'
'evil_'
'ethnic_'
'etapie_'
'etap'
'establishment_'
'ery'
'ert'
'ere_'
'era'
'equivalent_'
'enta'
'ens'
'enlargement_'
'ene_'
'empty_'
'ella'
'eli_'
'elektrycznych_'
'electrical_'
'ekspertów_'
'eks'
'effectively_'
'efektywności_'
'ected_'
'eating_'
'earth_'
'dź_'
'dę_'
'dziękuję_'
'dzieło_'
'dziennie_'
'dyspozycji_'
'dwukrotne_'
'dworca_'
'duties_'
'duchow'
'duch'
'drzew'
'dryer_'
'drawn_'
'drag_'
'draft_'
'dozwolone_'
'doubt_'
'dotyczą_'
'dostawców_'
'dostaw_'
'dos'
'doro'
'door_'
'don'
'domów_'
'domowych_'
'domeny_'
'dodaniem_'
'dobę_'
'dobrych_'
'dle'
'dit'
'disco'
'discharge_'
'disc'
'disa'
'din'
'dimensions_'
'diety_'
'didn_'
'detect'
'deszczu_'
'desktop_'
'ders_'
'demanding_'
'dem_'
'deleted_'
'decorated_'
'debatę_'
'daughter_'
'database_'
'dat'
'dan'
'damage_'
'dam_'
'dam'
'dal'
'członkiem_'
'czynn'
'czyni_'
'czek_'
'cym_'
'cycki_'
'currency_'
'cu'
'ct_'
'cru'
'cow'
'courses_'
'contractual_'
'continues_'
'contemporary_'
'constantly_'
'confidence_'
'conclusions_'
'composition_'
'completion_'
'combining_'
'combat_'
'collected_'
'clubs_'
'cli'
'classes_'
'claim_'
'cię_'
'circu'
'cio'
'ciem_'
'chwil'
'chronić_'
'chow'
'chorób_'
'chor'
'chen'
'check'
'charges_'
'charakterze_'
'chairs_'
'certyfikat_'
'certificate_'
'centres_'
'cel'
'cata'
'cat'
'car'
'canvas_'
'cam'
'cally_'
'cable_'
'budowa_'
'budgets_'
'bu_'
'brother_'
'bright_'
'bridge_'
'brain_'
'bowiem_'
'bow'
'bonus'
'bol'
'bly_'
'blok'
'blog_'
'block_'
'blin'
'ble'
'bk'
'biznesowych_'
'biorąc_'
'binarnym_'
'bili'
'bidet_'
'bic'
'białe_'
'bezpośrednich_'
'bezpieczne_'
'beyond_'
'begins_'
'bedroom_'
'bea'
'bb'
'bawełna_'
'barriers_'
'badanie_'
'bab'
'az_'
'awia'
'autor'
'automatic_'
'authors_'
'attempt_'
'ass_'
'arze_'
'arrangements_'
'ark_'
'are'
'ard'
'applicable_'
'appe'
'apartamentu_'
'ants_'
'ans_'
'and'
'analyzes_'
'anal'
'amounts_'
'amo'
'ami'
'ame'
'alternative_'
'aka_'
'airports_'
'air'
'aimed_'
'agr'
'agen'
'affected_'
'adopt_'
'administrative_'
'administracji_'
'absolutely_'
'abroad_'
'Zł'
'Zones_'
'Zna'
'Zimna_'
'Ziemi_'
'Zgodnie_'
'Zespół_'
'Zealand_'
'Ze_'
'Zakwaterowanie_'
'Zadar_'
'Zab'
'Wys'
'Wyj'
'Wschodniej_'
'Wprowadź_'
'Większość_'
'Więc_'
'Wit'
'Wind'
'Wil'
'Wielkiej_'
'Wi'
'Wesprzyj_'
'Web_'
'Warto_'
'WM'
'WE'
'Village_'
'Vienna_'
'Vie'
'Vibrator_'
'Val'
'VOIP_'
'Używane_'
'Uz'
'Uwaga_'
'Users_'
'UserEcho_'
'Us'
'Upload_'
'Unfortunately_'
'Ultra_'
'Uk'
'US'
'UN_'
'UN'
'Typ_'
'Twin_'
'Turbo_'
'Tur'
'Trzeba_'
'Trybunał_'
'Tre'
'Trans'
'Tourist_'
'Tos'
'To'
'Theatre_'
'Tennis_'
'Ten'
'Temperature_'
'Tech_'
'Tax_'
'Także_'
'Tab'
'TUTAJ_'
'TT'
'THM_'
'Szuka'
'Sz'
'Syna_'
'Swoboda_'
'Sum'
'Subs'
'Stosunek_'
'Stor'
'Staw_'
'Starting_'
'Starszy_'
'Star'
'Standard_'
'Stal'
'Spring_'
'Spi'
'Sou'
'Someone_'
'Smith_'
'Sk'
'Site_'
'Singapore_'
'Sil'
'Sie'
'Server_'
'Schwinn_'
'Sales_'
'Sala'
'ST_'
'STA'
'SM'
'SI_'
'SALE_'
'Rozwoju_'
'Rozwinięcie_'
'Ros'
'Romans_'
'Roller_'
'Ro'
'Rio_'
'Rhea_'
'Replies_'
'Repair_'
'Rep'
'Regulamin_'
'Rac'
'RS'
'RP_'
'RD'
'RA_'
'R1'
'Quantity_'
'Puerto_'
'Przygotowanie_'
'Przeniesienie_'
'Property_'
'Prop'
'Promocje_'
'Projects_'
'Pres'
'Pragnę_'
'Prac'
'Poz'
'Porównaj_'
'Port_'
'Por'
'Poppins_'
'Ponad_'
'Polskie_'
'Pob'
'Platforma_'
'Pier'
'Performance_'
'Pen'
'Paw'
'Past'
'Parku_'
'Pap'
'Pano'
'Panattoni_'
'Painting_'
'Pacific_'
'PZ'
'PW'
'PROMOTIC_'
'PRI'
'PRA'
'POL'
'PM_'
'PI'
'PE'
'PCMAG_'
'PAK_'
'P2'
'Ow'
'Out_'
'Obsługi_'
'Obsługa_'
'OYOY_'
'OW'
'OP'
'OEM_'
'None_'
'Non'
'Ningbo_'
'Niemiec_'
'Nice_'
'Neverwinter_'
'Net'
'Najtańsze_'
'Najszybszym_'
'NY_'
'NG_'
'NC'
'Muszę_'
'Mt_'
'Monachium_'
'Mission_'
'Minnesota_'
'Ministry_'
'Minibar_'
'Min'
'Mec'
'Me_'
'Mb_'
'MaxUtilities_'
'Materiał_'
'Materials_'
'Material_'
'Mart'
'Marian'
'Manual_'
'Malta_'
'Malarstwo_'
'Magic_'
'MU'
'MT'
'MP_'
'MD'
'MCI_'
'MART_'
'Lublin_'
'Lovely_'
'Lock_'
'Live'
'Lithuania_'
'Line_'
'Lib'
'Legal_'
'Leg'
'Lea'
'Law'
'LCD_'
'Kąpielisko_'
'Kwa'
'Kup'
'Kro'
'Krakowie_'
'Kraj_'
'Kra'
'Kościoła_'
'Kos'
'Korean_'
'Kit'
'Kas'
'Kart'
'KU'
'KI_'
'KI'
'Jan'
'JA'
'Izby_'
'Istnieje_'
'Iran_'
'Io'
'Interest'
'Industry_'
'Indi'
'Imię_'
'Ib'
'ID'
'IA_'
'IA'
'Hu'
'Hostele_'
'Honor'
'Hof_'
'Hockey_'
'Hit'
'Heritage_'
'Hat'
'Hand'
'Han'
'HR_'
'Gui'
'Gre'
'Gor'
'Good_'
'Goo'
'Gminny_'
'Gin'
'Ger'
'Geo'
'Game'
'GE'
'GDP_'
'GB_'
'Furthermore_'
'Funduszu_'
'Full_'
'Fuji'
'Free'
'Francisco_'
'Foto_'
'For'
'Fo'
'Fixer_'
'Fire_'
'Finally_'
'Fig'
'Far'
'Fan_'
'FREE_'
'FOR'
'FO'
'FISHING_'
'Exercise_'
'Exchange_'
'Excellent_'
'Est'
'Es'
'Entertainment_'
'El'
'Edinburgh_'
'Economic_'
'Ea'
'ET'
'EI'
'EA'
'Dziś_'
'Dyrektor_'
'Dra'
'Doświadczenie_'
'Domain_'
'Dobr'
'Dishwasher_'
'Directive_'
'Digi'
'Diamonds_'
'Details_'
'Desire_'
'Dec_'
'Dea'
'Dar_'
'Dan'
'DP'
'DC'
'Czy'
'Cy'
'Cre'
'Course_'
'Countries_'
'Cop'
'Converter_'
'Convention_'
'Complete_'
'Compare_'
'Combat_'
'Colorado_'
'Cle'
'Classic_'
'Chrystus_'
'Christians_'
'Chribska_'
'Chr'
'Cheapest_'
'Chamber_'
'Cert'
'Cennik_'
'Cartoon_'
'Carl'
'Camera_'
'Calle_'
'Callback_'
'Call'
'California_'
'Cab_'
'CS'
'COM'
'CO2_'
'CC_'
'CC'
'CAD_'
'Bun'
'Bulgaria_'
'Building_'
'Buenos_'
'Bru'
'Brown_'
'Britain_'
'Bran'
'Bos'
'Boo'
'Bod'
'Block'
'Bis'
'Bil'
'Bezpieczeństwa_'
'Bet_'
'Benz_'
'Beijing_'
'Bed'
'Barbecue_'
'Ban'
'Baby_'
'BQ'
'BP'
'BE'
'Axis_'
'Aviation_'
'Avenue_'
'Arts_'
'Articles_'
'Arabia_'
'Ap'
'Any_'
'Anuluj_'
'Ankara_'
'Alp'
'Album_'
'Aires_'
'Advertisement_'
'Ads_'
'Adobe_'
'Administration_'
'Activities_'
'Abraham_'
'AP_'
'ANS_'
'AL_'
'AI'
'A4_'
'?"_'
': ???; _'
': +_'
'98'
'92_'
'9001_'
'85'
'84'
'82'
'76'
'700_'
'69_'
'67'
'650_'
'64'
'6000_'
'380'
'378'
'28'
'23'
'205'
'1st_'
'1994_'
'1987_'
'1983_'
'1979_'
'196_'
'1944_'
'1943_'
'1939_'
'192_'
'190'
'187'
'173_'
'170_'
'160'
'125'
'109_'
'07'
'04'
'.†_'
'... '
'. #_'
',” _'
',..._'
'); _'
'('
'%, _'
'%), _'
' №_'
' « _'
' £_'
' :: _'
' / -_'
' +'
'— _'
'т'
'л'
'żywieni'
'żyw'
'życzeń_'
'żdża'
'żadnej_'
'Ży'
'Źródło_'
'świeżym_'
'świec'
'światło_'
'światła_'
'świad'
'świ'
'śpiewa'
'śmierć_'
'śmierteln'
'ślub'
'śli'
'ściany_'
'ścian'
'Święty_'
'Świętego_'
'Środa_'
'ńskich_'
'łu_'
'łe_'
'ław'
'łat'
'ęż'
'ęły_'
'ęz'
'ęp'
'ęd'
'ęcz'
'ąż'
'ądz'
'ącego_'
'ąb'
'ör'
'ño'
'â'
'á'
'¹'
'³a'
'  _'
'| _'
'złej_'
'zz'
'zym_'
'zym'
'zwrot'
'zwiększa'
'związanym_'
'zrównoważon'
'zr'
'znie'
'znaku_'
'znajomych_'
'znajdziesz_'
'znaczeniu_'
'zna'
'zmniejszenia_'
'zmienia'
'zintegrowan'
'zinc_'
'zi_'
'zgadza'
'zew'
'zed_'
'zdolności_'
'zde'
'zda'
'zcz'
'zc'
'zbudowana_'
'zbawienie_'
'zaznacz_'
'zaznacz'
'zawod'
'zau'
'zasługuje_'
'zastąpi'
'zasad'
'zarz'
'zare'
'zar'
'zapyta'
'zaprojektowane_'
'zaprojektowa'
'zapobiega'
'zania_'
'zane_'
'zamówienia_'
'zamieszcza'
'zamie'
'zakładu_'
'zakładk'
'zakupy_'
'zako'
'zain'
'zadań_'
'zaczynają_'
'zacji_'
'zachęca'
'zachód_'
'zachowania_'
'zabytk'
'zaakceptować_'
'yu'
'yr'
'yny_'
'ymi'
'yme'
'ylo'
'yla'
'yk'
'yesterday_'
'ych'
'xt'
'xa'
'x1'
'właściw'
'właścicielem_'
'własną_'
'własnego_'
'wędkarski_'
'węd'
'wzrasta_'
'wziął_'
'względ'
'wzbogac'
'wyższ'
'wyżej_'
'wyświetlone_'
'wyś'
'wyłączn'
'wyzwanie_'
'wyznacza'
'wysłał_'
'występuje_'
'wystaw'
'wysoko_'
'wysokiego_'
'wysoki_'
'wyrażenia_'
'wypłat_'
'wypr'
'wypełnić_'
'wynikiem_'
'wynika_'
'wyni'
'wynajmu_'
'wymagających_'
'wymaga'
'wykonywać_'
'wykona'
'wyjaśnia_'
'wyj'
'wulkan'
'wu'
'wtyk'
'wszystkimi_'
'wszystkie'
'wszelkie_'
'wspólną_'
'wspólnie_'
'wspierać_'
'wskazuje_'
'wrzesień_'
'wrog'
'wprowadzania_'
'wprowadza'
'wooden_'
'wondering_'
'wonder'
'woln'
'wodę_'
'wodą_'
'wodzie_'
'wod'
'wnik'
'wni'
'wn_'
'wkład_'
'większej_'
'witryny_'
'witaminy_'
'wirusów_'
'wirus_'
'wios'
'winner_'
'win'
'wieszak_'
'wielkie_'
'wiedzę_'
'widzimy_'
'widoku_'
'widokiem_'
'wiarę_'
'whilst_'
'wheel_'
'wewnętrzne_'
'wes'
'wellness_'
'web'
'wcześniejsze_'
'wcze'
'ważną_'
'waż'
'warstwy_'
'warranty_'
'warehouse_'
'ward_'
'wany_'
'walut_'
'wal'
'wak'
'wag'
'wac'
'vo'
'visible_'
'violates_'
'vi'
'vessels_'
'vessel_'
'vers'
'vehicle_'
'vegetables_'
'ved_'
'vat'
'varieties_'
'val'
'uży'
'uś'
'uzna'
'uzgodni'
'utworzenie_'
'utworzenia_'
'utrzymanie_'
'uto'
'ute_'
'uta'
'usza'
'ustawienia_'
'urządzeniami_'
'urządzeni'
'urze'
'urs_'
'uro'
'upuść_'
'upper_'
'upo'
'upe'
'universe_'
'unity_'
'uniform_'
'unemployment_'
'understood_'
'understanding_'
'unce'
'unb'
'umów_'
'umożliwi_'
'umowę_'
'umowa_'
'umi'
'ulic'
'uleg'
'uka'
'ujący_'
'ujesz_'
'ugi_'
'uf'
'uczyni'
'uczestnic'
'ubo'
'tłumacz'
'tło_'
'tz'
'tytuł_'
'tymczasow'
'tyka'
'tygodni_'
'tygodni'
'tworzy_'
'tworzenia_'
'twierdz'
'twie_'
'tune'
'tum'
'tul'
'tta'
'tsunami_'
'trzyma'
'trybie_'
'trwania_'
'trwa'
'trudno_'
'tron'
'travelling_'
'trafi'
'tradycj'
'towels_'
'towar'
'tow'
'tournaments_'
'toster_'
'toolani_'
'tni_'
'tn'
'tis_'
'tis'
'tine_'
'til'
'tic'
'thre'
'thinking_'
'thick_'
'the'
'texts_'
'test'
'terrorism_'
'tero'
'ter'
'tennis_'
'tematy_'
'television_'
'teen_'
'techniques_'
'technicznego_'
'technic'
'teacher_'
'tea_'
'tasks_'
'task_'
'tary'
'tanich_'
'tan'
'tami_'
'talks_'
'tal'
'tajemnic'
'taj'
'tablicy_'
'tablet'
'tables_'
'słynnego_'
'sły'
'sług'
'słu'
'słońce_'
'słońca_'
'szybki_'
'szu'
'szkół_'
'sześciu_'
'szeroki_'
'szczę'
'szczy'
'sza'
'sypialni'
'sy'
'switch_'
'swe_'
'sus'
'surowców_'
'supplies_'
'supplier_'
'supplement_'
'sumie_'
'sugar_'
'suffer_'
'suffer'
'stów_'
'styl'
'stworzyć_'
'stud'
'strum'
'strukturalnych_'
'strop'
'strengthened_'
'strefie_'
'streets_'
'stre'
'stoł'
'stopnia_'
'stin'
'stic_'
'stati'
'statements_'
'stated_'
'stand'
'staje_'
'stabilności_'
'sprzętu_'
'spread_'
'sprawozdawczyni_'
'sprawiedliw'
'sprawi'
'sprawdza'
'sportowe_'
'spir'
'spin'
'spent_'
'spek'
'specjalistyczne'
'spe'
'spar'
'sow'
'sorry_'
'solidn'
'solar_'
'sol'
'soc'
'sob'
'slow'
'slav'
'skuteczne_'
'skontaktować_'
'sko_'
'skan'
'siłowni'
'siła_'
'sister_'
'sin'
'simultaneously_'
'sim'
'silver_'
'sierpień_'
'siedem_'
'sie'
'sia_'
'shops_'
'shirt_'
'shape_'
'set'
'separated_'
'sensors_'
'senso'
'sel'
'sekund_'
'seks_'
'sed_'
'secret_'
'scripts_'
'scores_'
'sci'
'sc'
'samochod'
'sami_'
'salon_'
'rą'
'ró'
'rzecz'
'ryzyko_'
'rynkow'
'rynkiem_'
'rynki_'
'ryb_'
'rur'
'rti'
'rth'
'rta'
'rr'
'rp'
'rozs'
'rozpoczyna_'
'rozmiarze_'
'row'
'rokiem_'
'rok'
'rodziną_'
'rodzin'
'rod'
'rocket_'
'roc'
'robi_'
'rl'
'rki_'
'rk_'
'rium_'
'rit'
'ris'
'rezultat'
'rezerwację_'
'revolution_'
'revenue_'
'reve'
'responded_'
'reso'
'resistant_'
'residents_'
'residential_'
'reprezentowa'
'represents_'
'repeated_'
'repeat_'
'repair_'
'religions_'
'religii_'
'relevant_'
'reklamy_'
'rejected_'
'regularne_'
'regulacji_'
'regionach_'
'refugees_'
'refr'
'reform'
'refers_'
'reference_'
'ref'
'reducing_'
'reduces_'
'reduced_'
'redi'
'recovery_'
'recognised_'
'reasonable_'
'rear_'
'rdzenia_'
'rds_'
'rać_'
'raw'
'rati'
'rated_'
'rano_'
'ran'
'rama_'
'ral_'
'ral'
'raise_'
'rail'
'radę_'
'quir'
'quet_'
'quantity_'
'qualified_'
'qualifications_'
'q'
'płaci'
'pł'
'północny_'
'pust'
'pur'
'punkcie_'
'pun'
'publish_'
'publikacj'
'publication_'
'pub_'
'przyjazny_'
'przyjazdu_'
'przyjaciółmi_'
'przyjaciel'
'przyj'
'przygotować_'
'przygod'
'przyczyny_'
'przycisku_'
'przyby'
'przeży'
'przeznaczony_'
'przeznaczone_'
'przew'
'przekazać_'
'przek'
'przeciągu_'
'przeciągnij_'
'przeciwnik'
'przeciw_'
'przebywa'
'prywatn'
'pry'
'prow'
'provision_'
'providers_'
'pros'
'proper_'
'programach_'
'produkcję_'
'proc'
'problemem_'
'prob'
'printing_'
'primarily_'
'prevention_'
'preserve_'
'preserv'
'premises_'
'preliminary_'
'preferred_'
'prec'
'prayers_'
'prawdziwych_'
'prawdziwa_'
'practices_'
'poświęcony_'
'połow'
'powod'
'powinni_'
'powiadomienie_'
'pov_'
'pou'
'potępi'
'potwierdz'
'potrzebujemy_'
'potrzeb'
'porównania_'
'porzuc'
'portalu_'
'poro'
'poprzedniego_'
'poprawi'
'popieram_'
'poo'
'ponadto_'
'pomysł'
'pomocnik_'
'pomarańczowy_'
'polu_'
'polskiej_'
'poll'
'polecam_'
'pokr'
'pokazał'
'pokazać_'
'poi'
'pogodowe_'
'pogoda_'
'pods'
'podróżująca_'
'podobny_'
'podkreśl'
'poddan'
'początk'
'pocz'
'pochodzący'
'pochodzenia_'
'pobrania_'
'pobliski'
'pn'
'plen'
'pleased_'
'platz_'
'planów_'
'plany_'
'pięknych_'
'piękna_'
'piwnic'
'photography_'
'phones_'
'phi'
'pher'
'pełną_'
'pewne_'
'permit_'
'penetration_'
'pen_'
'pel'
'ped'
'państwie_'
'payments_'
'paying_'
'passion_'
'passing_'
'parquet_'
'para_'
'pani'
'pane'
'pair_'
'pack'
'oznaczonego_'
'oznaczone_'
'ozna'
'owymi_'
'owoców_'
'owiec_'
'overs'
'overcome_'
'overall_'
'ov_'
'outstanding_'
'ourselves_'
'otwiera'
'otrzymują_'
'otrzymała_'
'ote'
'ostrze'
'ostatnim_'
'osobowy_'
'osobistych_'
'osoba_'
'osiąga'
'ose'
'osc'
'oryginalny_'
'ort'
'ornik'
'orn_'
'organów_'
'organizacj'
'organiz'
'organ'
'opłaty_'
'opłat_'
'optimal_'
'opracowania_'
'opposite_'
'opo'
'opiek'
'operacj'
'open'
'oparte_'
'onym_'
'onto_'
'onan'
'ola'
'oku'
'określon'
'określa_'
'okaz'
'ojc'
'oid'
'ogrodowe_'
'ogr'
'ofiar'
'odwiedzi'
'odpowiada_'
'odległość_'
'odkry'
'odegra'
'ode_'
'odda'
'odd'
'odbywa'
'odby'
'ock'
'ocean'
'occurred_'
'obsług'
'obszary_'
'obraz'
'obr'
'obowiązuje_'
'obejmujących_'
'obciążeń_'
'obawy_'
'obawia'
'oba'
'oP'
'nę_'
'ny'
'nurkowe_'
'nti'
'noti'
'nn_'
'nn'
'niz'
'niesamowite_'
'nier'
'niemiecki_'
'niektórzy_'
'niedaleko_'
'nieco_'
'niech_'
'niebo_'
'nieb'
'niczym_'
'nicy_'
'neither_'
'negocjacji_'
'negocjacje_'
'negatywne_'
'nder_'
'nces_'
'nazwisk'
'nazwa'
'naukow'
'natur'
'native_'
'następ'
'nasi'
'narusza_'
'napis'
'nap'
'należ'
'największej_'
'najważniejsz'
'nada'
'nab'
'mówimy_'
'myślę_'
'myślimy_'
'myszy_'
'muscles_'
'multiple_'
'mp3_'
'mowe'
'moving_'
'moved_'
'mouth_'
'motyw'
'moraln'
'montażu_'
'monitor_'
'mond_'
'momentu_'
'moduł'
'modeli_'
'model'
'mod'
'moc'
'mobiln'
'mm²_'
'mk'
'mięs'
'mixed_'
'misj'
'minut'
'minorities_'
'ming_'
'mineral'
'mine_'
'millions_'
'mili'
'migrant'
'mieszkaln'
'miesiącu_'
'mic'
'miastach_'
'metody_'
'meta'
'mer'
'mention_'
'men'
'medieval_'
'medicine_'
'media'
'mał'
'material'
'master_'
'massage_'
'marzec_'
'marital_'
'marine_'
'mari'
'mar_'
'manufactured_'
'manifest_'
'managing_'
'manager_'
'managed_'
'maksymalnie_'
'magnet'
'magazyn_'
'lve'
'ludzkiego_'
'lottery_'
'looks_'
'logistyki_'
'logia'
'loc'
'lną_'
'lnia_'
'llo_'
'lli'
'lizbońskiego_'
'liwe_'
'lived_'
'lite_'
'listening_'
'linków_'
'lini'
'line'
'lin_'
'lik'
'lighting_'
'lie_'
'lid'
'liczy'
'liczb'
'licensed_'
'libraries_'
'lew'
'letni'
'lesie_'
'ler'
'lens_'
'lei'
'legitimate_'
'legislative_'
'lee'
'leaving_'
'leather_'
'leader_'
'lb'
'laws_'
'law'
'lau'
'latem_'
'late'
'lar_'
'lamp'
'laid_'
'kąpiel'
'kwartaln'
'kul'
'kuchenne_'
'kręg'
'kryzys'
'kruca_'
'kropkowaną_'
'kości_'
'kowanie_'
'koszt_'
'kosz'
'kostium_'
'kost'
'korzystne_'
'kontrolowane_'
'kontra'
'konkurencji_'
'konkur'
'konieczna_'
'komórkow'
'kompleks'
'komentarzy_'
'koloru_'
'kolorowanki_'
'kolejne_'
'kol'
'kodu_'
'klucz_'
'klub_'
'klient_'
'klawisz'
'klasie_'
'kinds_'
'kie'
'kha'
'kets_'
'ken'
'ked_'
'kaza'
'kaw'
'kategorie_'
'katastrof'
'kasyno_'
'kap'
'kamp'
'kali'
'kal'
'kac'
'kHz_'
'ję'
'jsze_'
'jo_'
'jm'
'jk'
'jezior'
'jasny_'
'jar'
'jakichkolwiek_'
'jakby_'
'jad'
'ią'
'ió'
'ize_'
'iti'
'istotn'
'istnienia_'
'isn_'
'isk'
'ire'
'ious_'
'ional_'
'io_'
'invitation_'
'inva'
'intervention_'
'inte'
'instalacj'
'inspir'
'inj'
'initiative_'
'infl'
'ines_'
'indywidualn'
'individuals_'
'indi'
'independence_'
'incoming_'
'impressive_'
'import'
'imperial'
'illustration_'
'ill'
'ili'
'ika_'
'ik'
'ij'
'ienia_'
'ien'
'iemn'
'iego_'
'identified_'
'idei_'
'ideas_'
'idealnie_'
'idealna_'
'ida'
'iczn'
'ice'
'iar'
'iac'
'hydromasażem_'
'hra'
'hotel'
'hostels_'
'hn'
'hl'
'historian_'
'histori'
'hips_'
'hin'
'hed_'
'hear_'
'healthcare_'
'hea'
'harmful_'
'happiness_'
'hani'
'handle_'
'han'
'głowę_'
'głosów_'
'gł_'
'gł'
'gów_'
'górski_'
'grze'
'grudniu_'
'grilla_'
'gre'
'granicą_'
'grain_'
'graduate_'
'grade_'
'gow'
'gotowa'
'gospodarczym_'
'golden_'
'godzinach_'
'gle'
'glasses_'
'glad_'
'gl'
'girlfriend_'
'gic'
'gest'
'generowan'
'generalny_'
'generally_'
'generacji_'
'gel_'
'gdyby_'
'gd'
'gan'
'gallery_'
'gain_'
'funny_'
'funkcja_'
'fundusze_'
'fuck_'
'fro'
'formę_'
'form'
'forecasts_'
'forecast_'
'foods_'
'focuses_'
'flows_'
'flag'
'fishes_'
'finansowanie_'
'financing_'
'fin_'
'fill_'
'fil'
'figures_'
'ff'
'festival_'
'fein'
'fast'
'farm_'
'falls_'
'fairly_'
'factor_'
'fabryki_'
'fa_'
'eye'
'exports_'
'export_'
'expectations_'
'exp'
'executive_'
'execution_'
'executed_'
'exc'
'ewentualn'
'everybody_'
'europejska_'
'eur_'
'ety_'
'ett'
'etr'
'eti'
'eta'
'esz'
'esto'
'establish_'
'esta'
'est'
'eria_'
'ere'
'enti'
'entered_'
'ens_'
'enjoy'
'enia'
'ener'
'end'
'encourage_'
'ena_'
'employer_'
'employee_'
'emphasized_'
'emphasis_'
'emp'
'emotional_'
'emisj'
'emails_'
'ema'
'elli'
'ela'
'el'
'ekt'
'eksportu_'
'ekran_'
'egg_'
'ef_'
'ee'
'edz'
'educational_'
'ecz'
'economies_'
'eck'
'ecie_'
'ebo'
'eas'
'earnings_'
'ear'
'dłużej_'
'długości_'
'długo'
'dów_'
'dzy_'
'dzisiejszej_'
'dziewczyna_'
'dziesiąt'
'dziedzictwo_'
'dziecka_'
'dzia'
'dysk_'
'dyrektor_'
'dwutlenku_'
'dw'
'duty_'
'dupa_'
'dum'
'ducha_'
'duch_'
'drzewa_'
'drugi_'
'drogę_'
'dr'
'doświadczeń_'
'doświadczeni'
'dowod'
'dowiesz_'
'dowiedzieć_'
'dotyczącej_'
'dostępny'
'dostawcy_'
'doskonal'
'dor'
'dop'
'doni'
'domain_'
'doln'
'dojrzałe_'
'dojechać_'
'dojazd_'
'dogs_'
'dodatkowych_'
'documentation_'
'dobrej_'
'dobrego_'
'dnie'
'dne_'
'divided_'
'dist'
'dishes_'
'discipline_'
'dinner_'
'diagnoz'
'dging_'
'destruction_'
'desired_'
'designs_'
'des'
'dependence_'
'degrees_'
'definition_'
'decyzj'
'debata_'
'dealing_'
'dea'
'db'
'dawnych_'
'dawc'
'daw'
'dany_'
'dach'
'dB_'
'czą'
'czyste_'
'czyst'
'czynniki_'
'czynić_'
'cztery_'
'czołow'
'czni'
'czki_'
'czerwiec_'
'czaso'
'czasem_'
'cza'
'cyjna_'
'cut'
'custom_'
'cushion_'
'ctwo_'
'ctwa_'
'crucial_'
'cro'
'criticism_'
'cri'
'creampie_'
'covers_'
'court'
'convert_'
'continent_'
'construct'
'connecting_'
'congratulate_'
'conditioner_'
'concentration_'
'concentrate_'
'compromise_'
'comprehensive_'
'competitiveness_'
'competitive_'
'compar'
'combines_'
'combating_'
'colours_'
'colleagues_'
'colleague_'
'cold_'
'cod'
'cn'
'cm'
'clinical_'
'climbing_'
'claims_'
'ckiego_'
'cki_'
'cją_'
'cięcia_'
'ciąży_'
'ciągle_'
'ciąg'
'ciu_'
'cit'
'cing_'
'cinema_'
'cierpienia_'
'ciekawych_'
'ciało_'
'chociażby_'
'chmur_'
'ching_'
'chem_'
'chciałabym_'
'chciał'
'chase'
'charming_'
'challenge_'
'certyfikat'
'cen'
'ceiling_'
'ced_'
'causing_'
'career_'
'care'
'carbon_'
'cameras_'
'calling_'
'błogosławi'
'bó'
'bus'
'burned_'
'burg'
'buffet_'
'buck'
'brzmi'
'bro'
'bringing_'
'breed'
'braz'
'brac'
'boxie_'
'bought_'
'bot'
'bon'
'bog'
'blog'
'blocks_'
'blind_'
'bli'
'bles_'
'biznesowe'
'bis'
'binding_'
'binaries_'
'bike_'
'biegun'
'bieg'
'bie'
'bezprzewodowe'
'bezpr'
'bezpośredni'
'bes'
'ber_'
'bel'
'behaviour_'
'beh'
'bec'
'bearing_'
'beaches_'
'batt'
'banner'
'banki_'
'bank'
'bands_'
'ban_'
'balls_'
'balkon'
'bada'
'bac'
'ań_'
'ało_'
'ax'
'awy_'
'awe'
'ave'
'automated_'
'aut'
'au_'
'atów_'
'attribute'
'attraction_'
'attended_'
'att'
'ator_'
'atmosphere_'
'atmosferę_'
'ata'
'assumed_'
'assist_'
'assign'
'assess_'
'asn'
'artyst'
'artist_'
'arte'
'arm_'
'arm'
'architekt'
'arbitra'
'ara'
'apps_'
'approximately_'
'approval_'
'appears_'
'appeared_'
'appearance_'
'api'
'ape'
'apartamentów_'
'apartamenty_'
'anu'
'ant'
'answered_'
'aniu_'
'animal_'
'angel_'
'ang_'
'ane'
'ances_'
'amerykański_'
'ament'
'amenities_'
'ambi'
'am'
'alt_'
'alo'
'alnych_'
'alny_'
'ale'
'alarm_'
'ala_'
'aktywnie_'
'aktywn'
'aktualn'
'aka'
'ain'
'agreed_'
'agan'
'afternoon_'
'afi'
'affirm'
'adventure_'
'ado'
'administracyjn'
'adk'
'adjust'
'add'
'adapt'
'ada_'
'acz'
'acts_'
'ack'
'aci'
'achieving_'
'ache'
'ach'
'accounts_'
'accounting_'
'accommodations_'
'accom'
'acce'
'acc'
'abym_'
'absolutnie_'
'abi'
'`_'
'] '
'Zwiększ'
'Zombies_'
'Zimbabwe_'
'Zdrowia_'
'Zdrow'
'Zawartość_'
'Zatrudnij_'
'Zast'
'Zas'
'Zarządzanie_'
'Zar'
'Zap'
'Zamk'
'Zamiast_'
'Zacznij_'
'Zachodni'
'ZAREZERWUJ_'
'Yu'
'Xbox_'
'XL_'
'Wysłany_'
'Wyst'
'Wynik_'
'Wyk'
'Wróć_'
'Wrzesień_'
'Workshop_'
'Wireless_'
'Wiedeń_'
'Wied'
'Wideo_'
'Which_'
'Whether_'
'Welcome_'
'Watch_'
'Wart'
'Warranty_'
'WY_'
'WN'
'WIFI_'
'WI'
'Vit'
'Vintage_'
'Vin'
'Ven'
'Van'
'VS'
'VM'
'VIS'
'Używamy_'
'Ustaw'
'User_'
'Urządzenie_'
'Urologia_'
'Unsure_'
'Unl'
'Ukrainian_'
'Ukraina_'
'UT'
'UL'
'UH'
'Typ'
'Ty_'
'Twi'
'Tw'
'Trzy_'
'Truck_'
'Toyota_'
'Town_'
'Tour'
'Tor'
'Title_'
'Titan_'
'Tim_'
'Three_'
'Testament_'
'Test'
'Telefon_'
'Taurus_'
'Tam_'
'TM_'
'TC'
'Słowacji_'
'Szko'
'Sydney_'
'Super'
'Sub'
'Styl_'
'Sty'
'Strzelanki_'
'Stro'
'Stref'
'Stre'
'Strasbourg_'
'Sti'
'Step'
'Statistics_'
'Starego_'
'Stare_'
'Stam'
'Staff_'
'Stad'
'Sr'
'Spy'
'Sprzedaż_'
'Sprawozdanie_'
'Sprawiedliwości_'
'Spot'
'Spo'
'Soviet_'
'Southern_'
'Soundproofing_'
'Sound_'
'Society_'
'Socialists_'
'Snezkou_'
'Small_'
'Slo'
'Skład'
'Ski'
'Sierra_'
'Sied'
'Shu'
'Should_'
'Shopping_'
'Sho'
'Shipping_'
'Shi'
'She'
'Shaft_'
'Sex_'
'Sek'
'Secure_'
'Section_'
'Scope_'
'Schengen_'
'Sca'
'Sarajevo_'
'Sar'
'Sant_'
'Sail_'
'Sah'
'SZ'
'SV_'
'STY'
'ST'
'SN'
'SL'
'SD_'
'SAP_'
'Rzecz'
'Rz'
'Rynek_'
'Rush_'
'Run'
'Rubber_'
'Rozm'
'Row'
'Roman'
'Rom'
'Rod'
'Rock_'
'Rock'
'Rights_'
'Ric'
'Restauracja_'
'Res'
'Required_'
'Republika_'
'Rental_'
'Rent_'
'Renault_'
'Ren'
'Rejestr'
'Rei'
'Rat'
'Radzie_'
'Rad'
'RF'
'RC'
'Qui'
'Queen_'
'Pur'
'Punkt_'
'Pul'
'Publikacje_'
'Przyj'
'Przet'
'Przepisy_'
'Przekierowywanie_'
'Przeglądaj_'
'Przeci'
'Programu_'
'Prog'
'Professional_'
'Production_'
'Pre_'
'Prasa_'
'Południowej_'
'Południow'
'Pozwala_'
'Poza_'
'Powsta'
'Power'
'Potem_'
'Posiada_'
'Polar_'
'Polaków_'
'Pola_'
'Podobne_'
'Pm'
'Plat'
'PixWords_'
'Pierwsza_'
'Pets_'
'Pers'
'Perfect_'
'Percy_'
'Peli'
'Payment_'
'Pawła_'
'Patri'
'Partner_'
'Para'
'Par'
'Paper_'
'Pal'
'Pack_'
'PU'
'PT_'
'PT'
'PD'
'Ou'
'Ort'
'Organizacji_'
'Or_'
'Operation_'
'Once_'
'Om'
'Ol'
'Ogólne_'
'Off'
'Odkryj_'
'Oddzwanianie_'
'Ocean_'
'Obszar_'
'Obo'
'OR_'
'OL'
'OG'
'OF'
'OB'
'Nr_'
'Nowego_'
'Novotel_'
'Nov'
'North'
'Nin'
'Nigeria_'
'Niemczech_'
'Newsroom_'
'News'
'Nawigacja_'
'Nat'
'Następnie_'
'Nam'
'Nag'
'Nad'
'NT_'
'NS'
'NOT_'
'NL_'
'NL'
'NET_'
'Mózgu_'
'Mówi'
'Mun'
'Multi_'
'Możemy_'
'Movie_'
'Moonset_'
'Moonrise_'
'Mont'
'Module_'
'Modern_'
'Misja_'
'Minute_'
'Milan_'
'Mid'
'Micro'
'Mes'
'Meksyku_'
'Med'
'May'
'Masz_'
'Masa'
'Mas'
'Mark_'
'Marin'
'Maria_'
'Mani'
'Mana'
'Mai'
'Made_'
'Machining_'
'MS'
'MEPs_'
'MC'
'Luc'
'Lub'
'Low_'
'Lon'
'Lok'
'Lod'
'Little_'
'Link_'
'Ling'
'Lift_'
'Library_'
'Liber'
'Li'
'Lek'
'League_'
'Large_'
'Land_'
'Label_'
'LG'
'Kursy_'
'Kub'
'Księga_'
'Krze'
'Kre'
'Korei_'
'Kore'
'Kon'
'Komp'
'Komi'
'Komentarz_'
'Kolejn'
'Koc'
'Klub_'
'Klimatogram_'
'Klienta_'
'Kli'
'Klas'
'Kin'
'Kim_'
'Key_'
'Kemp'
'Kategorie_'
'Kasyno_'
'Karty_'
'Karta_'
'Karolin'
'Kap'
'Kam'
'Kad'
'KS_'
'KE'
'KB'
'Już_'
'Jud'
'Jews_'
'Jednocześnie_'
'Jedno'
'Jas'
'Jar'
'Jako_'
'JD_'
'Izrael_'
'Itza_'
'Istnieją_'
'Isla'
'Internetowy_'
'Insurance_'
'Innymi_'
'Inno'
'Informacji_'
'Inf'
'IV'
'IR'
'IND'
'IE'
'Hz_'
'Hussars_'
'Human_'
'Houston_'
'Houses_'
'HitMalware_'
'Hidden_'
'Herod'
'Hen'
'Heaven_'
'Head_'
'Head'
'Happy_'
'HS'
'HE_'
'Guinea_'
'Guesthouse_'
'Grecja_'
'Grand'
'Graj_'
'Goście_'
'Good'
'Gminy_'
'Gie'
'Gh'
'Ges'
'Gear_'
'Gdzie_'
'Gau'
'Gat'
'GS'
'GL'
'Fran'
'Fra'
'Form'
'Football_'
'Fol'
'Floor_'
'Flo'
'Fle'
'Flash_'
'Fiyat_'
'Firstly_'
'Final_'
'Features_'
'Familia_'
'FL'
'FI_'
'FD'
'FB'
'Extreme_'
'Executive_'
'Ewangelii_'
'Europe'
'Emi'
'Elektro'
'Edytuj_'
'EX_'
'ET_'
'ESO_'
'ER_'
'ED_'
'Ducha_'
'Dual_'
'Drugi_'
'Dream_'
'Dragon_'
'Dot'
'Doro'
'Domek_'
'Dol'
'Dok'
'Dodatkowe_'
'Dobre_'
'Dob'
'Division_'
'Discover_'
'Disc'
'Din'
'Deutsch_'
'Deutsch'
'Desktop_'
'Der'
'Department_'
'Deep_'
'Decyzja_'
'Days_'
'Dar'
'Danych_'
'Dania_'
'Dance_'
'Dam'
'Dalmatia_'
'Dakota_'
'DO_'
'DN'
'DM'
'DIY_'
'DARMOWE_'
'DAC_'
'Czym_'
'Cześć_'
'Czerwone_'
'Czas'
'Cruise'
'Croatian_'
'Cra'
'Cookie_'
'Contr'
'Construction_'
'Cons'
'Connect_'
'Concierge_'
'Compa'
'Comfort_'
'Colle'
'Col'
'Coe'
'Codziennie_'
'Clear_'
'Cleaning_'
'Clamping_'
'Cities_'
'Cisco_'
'Chorwacji_'
'Chile_'
'Chichen_'
'Chicago_'
'Cheap_'
'Chcesz_'
'Chat'
'Charts_'
'Characteristics_'
'Chapter_'
'Chan'
'Cha'
'Certificate_'
'Catholics_'
'Cate'
'Cast'
'Camp'
'CT'
'CPM_'
'CO_'
'CON'
'CNC_'
'CEE_'
'CAT_'
'Będzie_'
'Być_'
'By'
'Burg'
'Buk'
'Bud'
'Bożego_'
'Boski'
'Bosch_'
'Boat_'
'Blo'
'Bit'
'Bio'
'Besides_'
'Belgia_'
'Bear_'
'Be_'
'Bathroom_'
'Bat'
'Bald'
'Baj'
'Bahr'
'BOOK_'
'BL'
'BA'
'Azji_'
'Av'
'Att'
'Astro'
'Ass'
'Asortyment_'
'Art'
'Arm'
'Arena_'
'Aqua_'
'Aqua'
'Antonio_'
'Anti'
'Antalya_'
'Angel'
'Anaa_'
'Ami'
'Alt_'
'Alf'
'Alex_'
'Ala'
'Agencja_'
'African_'
'Affairs_'
'Administratora_'
'Administrator_'
'Ad_'
'Actually_'
'Activity_'
'Active_'
'Acme_'
'Accomodation_'
'Abu_'
'Abs'
'AF'
'AC_'
'AB_'
'?'
'= _'
': * _'
': (_'
'95'
'900_'
'8910_'
'89'
'87'
'777_'
'750_'
'66'
'620'
'61'
'5x'
'57'
'512_'
'450_'
'404'
'400'
'3d_'
'38'
'379'
'37'
'300'
'2S'
'260_'
'24h_'
'232'
'230'
'201'
'20'
'199_'
'1980_'
'1945_'
'188'
'18557_'
'185'
'183'
'180'
'177'
'165'
'15917_'
'154_'
'152_'
'132'
'11415_'
'113_'
'11212_'
'110_'
'110'
'106_'
'103_'
'102'
'050'
'.” _'
'...'
'. ... _'
', , _'
') (_'
'$ _'
'$'
'# _'
'"), _'
' » '
' «_'
' ='
' ... £ _'
' ,_'
' "'
'← _'
'™'
'от'
'м'
'и'
'д'
'П'
'τ'
'ž'
'żywnościow'
'żywi'
'życz'
'życiem_'
'żk'
'żaden_'
'Ża'
'źródło_'
'śwież'
'światowym_'
'światowych_'
'światow'
'świat'
'świadczenia_'
'świadcz'
'środku_'
'średnio_'
'średniej_'
'średnicy_'
'śnie_'
'śledzić_'
'śle'
'ślad'
'ściśle_'
'ścią_'
'ścia_'
'Święt'
'Świąt'
'Św_'
'Środki_'
'ř'
'ństw'
'łącznej_'
'łó'
'łym_'
'łych_'
'łt'
'łowi'
'łos'
'łodzi_'
'ło'
'łk'
'łeś_'
'łe'
'łazienk'
'łasz'
'łaski_'
'ładowa'
'ęk'
'ęg'
'ędzi'
'ęczn'
'ęcia_'
'ęci'
'ęca_'
'č'
'ąpi'
'ąg'
'ączk'
'ý_'
'ý'
'ö'
'óż_'
'ówi'
'órz_'
'ór'
'ón_'
'ól'
'ódz'
'ér'
'à_'
'Ø_'
'Ã³w_'
'º'
'³ug'
'°, _'
' – _'
'złot'
'zło'
'złego_'
'złe_'
'zębat'
'zzle'
'zysku_'
'zyska'
'zysk_'
'zyk'
'zwykłych_'
'zwykle_'
'zwycię'
'zwy'
'zwrócić_'
'zwraca'
'zwol'
'zwiększył'
'zwiększają_'
'zwiększ'
'związan'
'zuży'
'zuk'
'zuje_'
'zt'
'zrozumienia_'
'zrobienia_'
'zoo'
'zon'
'zobowiązania_'
'zniżki_'
'znaleziono_'
'znajdą_'
'znajdowa'
'znacznik'
'znaczenia_'
'zmu_'
'zmierz'
'zmian'
'zmarł'
'zmar'
'zleceni'
'zl'
'zka_'
'zji_'
'ziemi'
'ziem'
'zielone_'
'ział'
'zh'
'zgodzi'
'zezwoleni'
'zewnętrznych_'
'zesz'
'zestawie'
'zen'
'zel'
'zej'
'zed'
'zec_'
'zebrani'
'zdobył_'
'zdob'
'zdecydował'
'zdalnego_'
'zdaln'
'zbudowany_'
'zbudowan'
'zbior'
'zbi'
'założyciel'
'zawor'
'zawodowego_'
'zawartych_'
'zauważył'
'zauważyć_'
'zatwierdz'
'zastęp'
'zastosowan'
'zast'
'zasob'
'zasilania_'
'zarządu_'
'zarobk'
'zarejestrowanych_'
'zapytanie_'
'zaproszenie_'
'zaprojektowany_'
'zapro'
'zapozna'
'zapotrzebowani'
'zapominaj'
'zapewniając_'
'zapalenie_'
'zapal'
'zaoszczędzić_'
'zanim_'
'zamknięci'
'zamieszka'
'zamek_'
'zam'
'zalety_'
'zakup'
'zając'
'zaj'
'zainwestowa'
'zainteresowan'
'zainstalować_'
'zagwarantować_'
'zagrożone_'
'zagroż'
'zagraniczne_'
'zadowoleniem_'
'zadbać_'
'zadane_'
'zaczyna'
'zacz'
'zację_'
'zachowan'
'zabi'
'zabawne_'
'zabawek_'
'zaawansowan'
'yższ'
'yśl'
'yłem_'
'ywne_'
'ywał_'
'ywane_'
'ywa_'
'ytu_'
'yta'
'youngest_'
'ynow'
'yman'
'yli_'
'yle_'
'yle'
'yl'
'yków_'
'yku_'
'yki_'
'yka_'
'yg'
'yfikacja_'
'yf'
'yer_'
'yczn'
'ycy'
'ycie'
'yb'
'yar'
'xo'
'własnością_'
'węzł'
'wątroby_'
'wątpliwości_'
'wzrosła_'
'wzorc'
'wzmocnić_'
'wzmocnienia_'
'wzmocni'
'wyścig'
'wyznacz'
'wywo'
'wywa'
'wytwarza'
'wystąpieni'
'wystarczając'
'wyspie_'
'wysp'
'wysokie_'
'wyróżni'
'wyro'
'wyrazić_'
'wyraz_'
'wyr'
'wypoczynek_'
'wypo'
'wyobrazić_'
'wynika'
'wynik_'
'wynajęty_'
'wynajem_'
'wymyśl'
'wymieni'
'wymie'
'wymiar'
'wymianę_'
'wykres_'
'wykorzystywane_'
'wykorzystując'
'wykorzystać_'
'wyjściow'
'wydłuż'
'wydał_'
'wyciągów_'
'wyciągnąć_'
'wyciąg'
'wycieczk'
'wybuch'
'wybrany_'
'wybory_'
'wyborem_'
'wszystek_'
'wszelkiego_'
'wszech'
'wspomnian'
'wspierając'
'wspaniały_'
'wsp'
'wskiego_'
'wsi_'
'ws_'
'wrogów_'
'write_'
'wreszcie_'
'wrażenie_'
'wraca_'
'wpływa_'
'wprowadzone_'
'wprowadzenie_'
'wość_'
'woskowanie_'
'wolnym_'
'wodnej_'
'woda_'
'wnie_'
'wla'
'wkrótce_'
'większym_'
'większych_'
'wizy'
'wita'
'wise_'
'wirtualnej_'
'wirtualn'
'wino'
'wież'
'wierz'
'wier'
'wieloletni'
'wielkim_'
'wielkiego_'
'wielki_'
'wiekow'
'wiedział_'
'widzi_'
'widoczny_'
'widely_'
'wice_'
'wic'
'wiatr_'
'wian'
'wiadomo_'
'whirl'
'whereas_'
'wheels_'
'whatever_'
'wewnętrzn'
'wet'
'wesela_'
'weryfikacyjny_'
'wersję_'
'wersje_'
'wersjach_'
'welo'
'welfare_'
'welcomed_'
'wejścia_'
'wei'
'wedding_'
'wed_'
'websites_'
'weapons_'
'wealth_'
'wdrożenie_'
'wdrożeni'
'wdroż'
'wcale_'
'wb'
'wał_'
'waxing_'
'waters_'
'walczy'
'wakacyjne_'
'wad'
'vr'
'voters_'
'vol'
'voca'
'vo_'
'vity_'
'visual_'
'visits_'
'virtually_'
'violence_'
'vie'
'vicinity_'
'via'
'vest'
'vertical_'
'versatile_'
'velo'
'vel_'
'vas'
'variable_'
'van'
'valley_'
'vSwitch'
'v1_'
'użytkownik_'
'użytkow'
'użyt'
'użycie_'
'uń'
'uł'
'uzyskan'
'uzasadni'
'utrzymać_'
'utratę_'
'ution_'
'utility_'
'usz_'
'usz'
'usytuowany_'
'usunięcia_'
'ustawi'
'ustaw'
'ustal'
'usia'
'use'
'urz'
'urs'
'uroczy'
'urg_'
'urb'
'uprawia'
'upraw'
'uo'
'uno'
'union_'
'unijn'
'umysłu_'
'umożliwił'
'ult'
'uli'
'ular'
'układanki_'
'ukrytych_'
'ukry'
'ukończył'
'ukierunkowan'
'uk_'
'uję'
'uje'
'uit_'
'uin'
'uge'
'uel'
'udzielan'
'udziel'
'udziału_'
'udzia'
'udowodni'
'udostępniać_'
'udostępni'
'uda_'
'uczniów_'
'uczni'
'uczelni_'
'ucze'
'ucz'
'uch'
'uce'
'uca'
'ubie'
'ub'
'uan'
'tłuszcz'
'tyre_'
'typowy'
'tyczny'
'tworzony_'
'twojej_'
'twojego_'
'twin_'
'twice_'
'twe'
'twarz_'
'turystycznej_'
'turnieju_'
'turb'
'tte'
'tsch'
'trzecie_'
'trzeci'
'trudn'
'treat_'
'treat'
'travelers_'
'tras'
'transformation_'
'transform'
'tradition_'
'trace'
'tp'
'towarzys'
'tortur'
'tora_'
'topics_'
'tool_'
'tongue_'
'tom_'
'tom'
'toilet_'
'tni'
'tm'
'tkanki_'
'tire'
'tip'
'tiles_'
'tie_'
'tical_'
'tia'
'thirty_'
'thi'
'theory_'
'tery_'
'territories_'
'terminal'
'term'
'tere'
'temporary_'
'temperatur_'
'tematyczne'
'tematu_'
'tells_'
'telescopic_'
'telefoniczny_'
'teczn'
'technologię_'
'techniki_'
'techniczn'
'teachers_'
'teach_'
'tax'
'tarz'
'tari'
'targets_'
'target_'
'targ'
'taras'
'taniej_'
'tali'
'talent'
'tale'
'taksówk'
'takimi_'
'tablets_'
'służą_'
'słoneczny'
'słodycz'
'sławn'
'sła'
'sł'
'szych_'
'szybką_'
'szybkość_'
'szw'
'szukać_'
'szo'
'szlafrok_'
'szkoła_'
'szkod'
'szklan'
'szereg'
'szczęśliw'
'szczęście_'
'szczyt'
'szansę_'
'szans'
'szan'
'szaf'
'syno'
'synagog'
'symbolic'
'sygnału_'
'swych_'
'swej_'
'swe'
'sustainability_'
'surveillance_'
'surely_'
'supposed_'
'suppliers_'
'summit_'
'sum'
'sukces'
'suit'
'sud'
'subtitles_'
'styczne'
'stworzy'
'stworzony'
'stwierdzi'
'studia_'
'structures_'
'structural_'
'stroj'
'stringent_'
'stressed_'
'stress_'
'stref'
'strategia_'
'strap_'
'strac'
'stosować_'
'stosowan'
'stopniu_'
'stok'
'stoi_'
'stl'
'stereo_'
'stein_'
'stein'
'ste_'
'stawów_'
'status'
'statków_'
'stary_'
'starsz'
'starc'
'starań_'
'stara'
'standard'
'stairs_'
'stad'
'sse'
'sq_'
'sprzężenia_'
'sprzeda'
'sprowadza_'
'sprin'
'sprawozdań_'
'sprawozdaniem_'
'sprawa_'
'społeczna_'
'społeczeństwo_'
'sposobów_'
'sportów_'
'sportow'
'sport'
'spol'
'spis'
'spic'
'spi'
'specyfik'
'specjalizuje_'
'specjalistycznych_'
'speaks_'
'speaking_'
'spada_'
'sound'
'sos_'
'song_'
'solve_'
'sole'
'snow_'
'sni'
'smooth_'
'sm'
'slot_'
'slot'
'sleep_'
'składnik'
'składania_'
'ską_'
'skutki_'
'skutek_'
'skupia'
'skrzy'
'skr'
'skorzysta'
'skomentuj_'
'skojarzony_'
'sklepu_'
'sklep'
'ske'
'siłę_'
'sić_'
'sizes_'
'sized_'
'sinful_'
'simplify_'
'similarly_'
'silny_'
'silnik'
'significance_'
'sight_'
'sick'
'sible_'
'sia'
'showed_'
'shooting_'
'shoot_'
'shi'
'shelf_'
'sheets_'
'shed'
'shalt_'
'shadow_'
'serwisow'
'serw'
'sent'
'sens'
'sending_'
'sektorach_'
'segment_'
'sed'
'secrets_'
'searching_'
'sco'
'scholarship_'
'scheduled_'
'sche'
'scene_'
'sb'
'sav'
'sation_'
'sati'
'sar'
'sand_'
'sanctions_'
'sample_'
'samochody_'
'salt_'
'sai'
'safeguard_'
'różnymi_'
'róż_'
'równi'
'rów'
'rzy_'
'rzuca'
'rzeczywiste_'
'rzeczywist'
'ryjski'
'russian_'
'rum'
'ruj'
'rue_'
'ruchom'
'rub'
'rst'
'rozwojem_'
'rozwijających_'
'rozwija'
'rozważ'
'rozszerzeniu_'
'rozszerz'
'rozpoczęł'
'rozpoczął_'
'rozpocz'
'rozmowy_'
'rozk'
'rozg'
'rozdziel'
'rowi'
'rowan'
'rough'
'rosyjski_'
'ropo'
'romantyczn'
'roln'
'rolling_'
'rog'
'rodzinę_'
'rodzina_'
'roczny'
'roczne_'
'robota_'
'road'
'rne_'
'rne'
'rn_'
'rm_'
'rive'
'risks_'
'ris_'
'rid'
'rial_'
'reżyser'
'revision_'
'revi'
'restrictions_'
'restrict'
'restore_'
'represented_'
'representation_'
'represent_'
'replies_'
'reo'
'rented_'
'rentals_'
'renewed_'
'removing_'
'removal_'
'remo'
'remind_'
'reme'
'reli'
'relatively_'
'rekord'
'reklama_'
'reject_'
'rej'
'reinforce'
'reign_'
'regulat'
'regularnie_'
'regular_'
'registrations_'
'region'
'reforms_'
'referencyjn'
'redukcji_'
'rect'
'reconstruction_'
'recognition_'
'recognise_'
'reco'
'recipe_'
'recenzji_'
'realis'
'reaching_'
'reac'
'rat'
'raport'
'rap'
'rani'
'rang'
'rand'
'rad_'
'racing_'
'raca'
'quote_'
'quis'
'quarter'
'płyt_'
'płyt'
'płyn'
'płac'
'pę'
'północy_'
'pytań_'
'putting_'
'puszcz'
'pursuing_'
'pure_'
'purchased_'
'publiczny_'
'publiczn'
'publi'
'pski'
'przyłącz'
'przyzna'
'przyszłym_'
'przystąpieni'
'przystan'
'przyst'
'przys'
'przypraw'
'przypadków_'
'przypadki_'
'przykład'
'przyjęcia_'
'przyjm'
'przygotowani'
'przychod'
'przybory_'
'przełącz'
'przewodnika_'
'przewiduje_'
'przestr'
'przepływu_'
'przepis'
'przemysłow'
'przekracza_'
'przekonan'
'przejści'
'przegląd_'
'przedstawione_'
'przedstawiciele_'
'przedstawiciel'
'przedsiębiorstwa_'
'przedsi'
'przedmiot'
'przeciwnie_'
'przeciw'
'przech'
'prywatny_'
'prov'
'proud_'
'prosto'
'prosta_'
'prospect_'
'proponuje_'
'prophet'
'propag'
'promotes_'
'promoted_'
'promocj'
'promo'
'promise_'
'programming_'
'profiles_'
'profil'
'professor_'
'produkcyjny'
'procesów_'
'processed_'
'proces'
'proceedings_'
'proceed_'
'procedur_'
'prima'
'pretty_'
'press'
'preparat_'
'precyzj'
'precision_'
'prawo'
'prawna_'
'prawn'
'prawdę_'
'prawdziwy_'
'prawdziwej_'
'prawdziw'
'praktyk_'
'praktyk'
'praktyce_'
'pragnie'
'pracuj'
'prac_'
'pped_'
'poświęcon'
'pośredni'
'położon'
'położeni'
'połowie_'
'pozytywnie_'
'pozytywne_'
'pozwolił'
'pozostał'
'pozostawi'
'pozna'
'poziom'
'powtórzyć_'
'powszechnie_'
'powo'
'powiększ'
'powiązał_'
'powiązany'
'powin'
'powietrzu_'
'powietrze_'
'powiedzia'
'powie_'
'powia'
'powered_'
'poważne_'
'potrzeba_'
'potrafił'
'posłu'
'posła_'
'posz'
'posu'
'postępu_'
'postu'
'postrzega'
'poster'
'posiadać_'
'posiadają_'
'portu_'
'portfel'
'porad'
'poprzedz'
'poparci'
'pompy_'
'pomocne_'
'pomaga'
'polyester_'
'poly'
'polsku_'
'polskim_'
'polowanie_'
'politycznym_'
'politycznej_'
'polityczne_'
'polityczn'
'politycy_'
'politicians_'
'polega'
'polecany_'
'pokojow'
'pokera_'
'pokaz'
'pojazdami_'
'pojawia_'
'pojawi_'
'pogr'
'poglądów_'
'podział'
'podw'
'podstawowa_'
'podstaw'
'podr'
'podnoszenia_'
'podnosi_'
'podmioty_'
'podjęcie_'
'podejście_'
'podda'
'podać_'
'początkowa_'
'poczty_'
'pocztowy_'
'pleasant_'
'plaża_'
'plaż'
'planowani'
'planowan'
'planet_'
'plane'
'pkt_'
'pki_'
'piłk'
'pić_'
'pipe'
'pill'
'pij'
'piesz'
'pierwszą_'
'pierwszego_'
'pierwsza_'
'pielęgn'
'piekarnik_'
'piecz'
'physic'
'phrases_'
'phan'
'pf'
'pełna_'
'personali'
'pers'
'perma'
'periodical'
'performances_'
'perfection_'
'percentage_'
'perceive_'
'pend'
'pen'
'pect_'
'pc'
'państwom_'
'pałac'
'pat'
'pass'
'partycj'
'partnerem_'
'participate_'
'parterze_'
'parking'
'parametr'
'parafi'
'pamięć_'
'pami'
'palenie_'
'pal'
'pH_'
'oświadczył_'
'ośrodka_'
'ośrodek_'
'ościowe_'
'oś'
'oń'
'ozdob'
'oy_'
'ows_'
'owoc'
'owned_'
'owie'
'owali_'
'output_'
'outl'
'oty_'
'oty'
'otoczon'
'otoczenia_'
'otn'
'oth'
'ota'
'osły_'
'osło'
'ostro'
'ostateczne'
'osta'
'ost'
'osp'
'osobistego_'
'osobami_'
'ose_'
'orów_'
'orz'
'oru'
'ors'
'oro_'
'orgazm_'
'organisation_'
'organis'
'oral_'
'opóźni'
'opublikowan'
'opt'
'opr'
'oppo'
'opol'
'opisy_'
'operate_'
'operat'
'opart'
'op_'
'oo_'
'ono'
'oniz'
'onian_'
'ongoing_'
'ometr'
'ologi'
'olic'
'olej'
'oku_'
'określić_'
'okoliczn'
'oki'
'ois'
'ogółem_'
'ogólnie_'
'ogólnego_'
'ogólne_'
'ogromnie_'
'ogrodzie_'
'ogrod'
'ograniczone'
'ogranicz'
'oga'
'oferując_'
'oferują_'
'ofert'
'odł'
'ody_'
'odwiedza'
'odtwarzacz'
'odsł'
'odrzuc'
'odporn'
'odnie'
'odnawian'
'odn'
'odmian'
'odl'
'odk'
'oddziale_'
'odbudow'
'oczy'
'ochronę_'
'ochroną_'
'ochr'
'ocenę_'
'oceniane_'
'oceni'
'obł'
'obydwu_'
'oby'
'obsługą_'
'observe'
'obrotu_'
'obrony_'
'obron'
'obra'
'obowiązujących_'
'obowiązkowe_'
'obowiązek_'
'obligation_'
'obl'
'objawy_'
'objaw'
'obietnic'
'obiektyw'
'obey_'
'obecne_'
'obcych_'
'numer'
'nth'
'nst'
'nski_'
'nsi'
'nośn'
'noz'
'nowotwor'
'nov'
'nou'
'noszenia_'
'nosi'
'normaln'
'normal_'
'norm_'
'nor'
'nomic'
'nom'
'nke'
'niż'
'nięte_'
'niskim_'
'niniejszej_'
'niniejsz'
'nim'
'nii_'
'night'
'nieś'
'niezależnie_'
'niewielk'
'niewiele_'
'nieustannie_'
'niet'
'niesp'
'niesamowit'
'nierz'
'nieprze'
'nieodpowiednim_'
'niema'
'niem'
'niedziela_'
'nied'
'niebezpieczne'
'niami_'
'newsletter'
'new'
'net'
'ner'
'nent'
'nen_'
'neighborhood_'
'negotiate'
'negative_'
'nee'
'neck_'
'nearest_'
'nding_'
'nders_'
'ndan'
'nd'
'ncy_'
'nazywa_'
'nawie'
'nav'
'naukowe'
'naukowc'
'nauczyciela_'
'nauczania_'
'naturalnych_'
'nate'
'naszymi_'
'następn'
'nast'
'nasi_'
'narciarski_'
'napi'
'nano'
'names_'
'najwybitniejszym_'
'największe_'
'najnowszej_'
'najlepszą_'
'najgorszym_'
'najg'
'nai'
'nagł'
'nagrodę_'
'nagrody_'
'nagro'
'naftowej_'
'nadzor'
'młodzież_'
'młodzi_'
'mężczyzn_'
'męż'
'mą'
'mówię_'
'mówiąc_'
'mówi'
'myśl_'
'mystery_'
'muz'
'mud'
'mski'
'mple'
'mp_'
'mowa_'
'mow'
'mountains_'
'mot'
'mostly_'
'most'
'morning_'
'mora'
'monuments_'
'monta'
'moni'
'monastery_'
'mojego_'
'moich_'
'modlitw'
'mode_'
'mobil'
'mniejsz'
'mleka_'
'ml'
'miękki'
'mistakenly_'
'minuty_'
'minimalne'
'miles_'
'migra'
'mieś_'
'mieszkaniowe'
'miesiącem_'
'mierz'
'mie_'
'miasteczk'
'mg'
'metodą_'
'metalu_'
'metal'
'meri'
'mem_'
'medycznych_'
'mediów_'
'mechanizm_'
'mechanical_'
'measuring_'
'meals_'
'mb_'
'matic_'
'materiałem_'
'mate'
'mat_'
'masz'
'mast'
'marks_'
'marketingu_'
'manufacture_'
'manifest'
'mani'
'mandate_'
'mamuśki_'
'mali'
'mala'
'mal_'
'maks_'
'magnetic_'
'maga'
'mag'
'mad'
'lw'
'luxury_'
'luk'
'ludzkiej_'
'ludziom_'
'ludu_'
'ludności_'
'lt'
'lots_'
'lotniczych_'
'lotnicz'
'los_'
'looked_'
'longitude_'
'lon_'
'lokalizacji_'
'lojaln'
'logia_'
'lock_'
'lobby_'
'loaded_'
'lny_'
'lla_'
'lki_'
'lk'
'lizacj'
'liza'
'liz'
'lity_'
'litery_'
'liter_'
'lists_'
'lista_'
'list'
'link'
'lingerie_'
'like'
'lighte'
'life'
'lif'
'licznych_'
'liczne_'
'licenc'
'liberal_'
'lf_'
'leżąc'
'leśni'
'lett'
'letniej_'
'letnie_'
'les'
'lepszy'
'lepsz'
'lenie_'
'lek_'
'legł'
'ld'
'lc'
'laz'
'latin'
'lata'
'labelling_'
'kątem_'
'ká_'
'kwietniu_'
'kurorcie_'
'kulinarn'
'kuchni'
'kt'
'księ'
'ksa'
'królow'
'królestwa_'
'kryteria_'
'kry'
'kredytow'
'kreatywn'
'krajowe_'
'kr'
'kp'
'kościół_'
'końcow'
'koło_'
'kowi'
'kowan'
'kowa'
'kov'
'koszyk_'
'kosztuje_'
'koszt'
'korzystają_'
'kopi'
'kontynuować_'
'kontynent_'
'konstrukcji_'
'konst'
'konserwa'
'konkursu_'
'komunikat_'
'komunikac'
'kompozytor'
'kompilacja_'
'komisji_'
'komisarza_'
'kolwiek_'
'kolumn_'
'kolo'
'koj'
'kocha'
'kobiec'
'klęsk'
'klub'
'kliniczn'
'klimatyczne_'
'kliknąć_'
'klasyczne'
'klasa_'
'kl'
'kitchenette_'
'kit_'
'kings'
'kingdom_'
'kilometr'
'kiej_'
'kh'
'kempingu_'
'kemping'
'keeping_'
'kc'
'kato'
'karne'
'karmi'
'kanałów_'
'kampanię_'
'kamerki_'
'kabl'
'językach_'
'jącą_'
'ją'
'jów_'
'jski_'
'jsc'
'joy_'
'jon'
'joined_'
'jno'
'jmi'
'jia'
'jez'
'jet_'
'jemy_'
'jedz'
'jedyny_'
'jedyn'
'jasza_'
'jasnoś'
'jasn'
'jas'
'jakoś_'
'jakich_'
'jaj'
'jadalni'
'jacuzzi_'
'jacht'
'ięci'
'izm'
'ized_'
'ix_'
'iwan'
'ition_'
'ites_'
'itati'
'it'
'istnienie_'
'ista_'
'ist'
'ism'
'ision'
'isc'
'ione_'
'inwestycyjnych_'
'inwestowa'
'invi'
'invested_'
'introducing_'
'interview_'
'intern'
'interaktywna_'
'interact_'
'intencje_'
'intellectual_'
'integracji_'
'int_'
'instrumenty_'
'institution_'
'insti'
'inspection_'
'ino'
'innowacyjnych_'
'innowacji_'
'inni_'
'inn'
'ink'
'injection_'
'inicjatywę_'
'infrastruktury_'
'inform'
'ined_'
'industries_'
'indicat'
'indeks'
'inco'
'inci'
'improvements_'
'imprez_'
'imports_'
'imponując'
'implementing_'
'imper'
'imigracj'
'imi_'
'ime'
'illustrated_'
'ille_'
'ilia'
'ile'
'ign'
'ież'
'ies'
'ierz'
'iera'
'ieni'
'iem'
'ieg'
'iec_'
'identify_'
'ide_'
'iczne_'
'ica'
'ias'
'iając'
'iach_'
'iPod_'
'hwa'
'hunting_'
'hung'
'humanitarn'
'hu_'
'hr'
'hosting_'
'hostel'
'hos'
'horses_'
'hormon'
'hop'
'honor_'
'honest_'
'homemade_'
'holidays_'
'holi'
'holds_'
'hodo'
'hn_'
'hiszpańskiego_'
'historycznym_'
'hik'
'high'
'hia'
'hero'
'here'
'hei'
'heavy_'
'heads_'
'hd'
'hat'
'hasło_'
'hasn_'
'has'
'harmonogramu_'
'harmonis'
'handlow'
'ham'
'hali_'
'hal'
'hac'
'głównego_'
'głośniki_'
'głosy_'
'głosowa'
'gór_'
'gym_'
'gwiazdy_'
'gwiazd'
'gwarancj'
'gur'
'gue_'
'gue'
'guard'
'guarantees_'
'guaranteed_'
'grunt'
'grudzień_'
'grub'
'ground'
'gromadz'
'gri'
'grey_'
'grew_'
'grati'
'graphic_'
'graph_'
'granicy_'
'grand'
'gram'
'grafik'
'gr'
'governments_'
'gospodarcze_'
'gospodarce_'
'gorący'
'gori'
'gor'
'gol'
'godzinę_'
'godzina_'
'godności_'
'gne'
'gmail_'
'gleby_'
'git'
'gini'
'gifts_'
'gh'
'ger'
'gentle_'
'genetic_'
'generations_'
'generated_'
'gel'
'gazów_'
'gatunków_'
'gatunk'
'gathered_'
'gates_'
'gate_'
'garn'
'gar_'
'gani'
'gang_'
'gad'
'fy_'
'fut'
'furnished_'
'funkcję_'
'funkcjonowa'
'funkcjonalności_'
'funkcj'
'funduszy_'
'funda'
'fulfilled_'
'fto'
'frequent_'
'frequency_'
'francuskim_'
'fragment'
'foundations_'
'fotografów_'
'fotel'
'forwarding_'
'fort'
'forming_'
'format'
'forever_'
'forests_'
'forces_'
'football_'
'foot_'
'fo'
'fly_'
'fly'
'flexible_'
'flesh_'
'fleet_'
'flag_'
'fizyki_'
'fitting_'
'fis'
'fire'
'finish'
'finance_'
'final'
'filozofi'
'film'
'fi_'
'ffer'
'feno'
'fellowship_'
'feast_'
'fau'
'fats_'
'fat_'
'farmers_'
'fans_'
'fan_'
'faktyczn'
'fair'
'failure_'
'fail'
'eż_'
'ełni'
'extreme_'
'exposed_'
'explore_'
'explained_'
'expense_'
'exit_'
'exi'
'exceed'
'ex_'
'ewi'
'everyday_'
'eu'
'etykieta_'
'ety'
'ets_'
'eth_'
'estimated_'
'esn'
'ese'
'erw_'
'erry_'
'erp'
'erow'
'erne'
'ern'
'equally_'
'eo_'
'entr'
'entirely_'
'ensu'
'ensi'
'ening_'
'eni'
'enhanced_'
'english_'
'engineer_'
'energia_'
'energetyczne_'
'ened_'
'ems'
'employ'
'empire_'
'emotions_'
'emocj'
'ement_'
'embr'
'els_'
'elevation_'
'elementem_'
'elektro'
'election_'
'eldowani'
'eld_'
'elan'
'eko'
'eki'
'ejszych_'
'ein'
'egi'
'efektywn'
'eer'
'edł_'
'edo'
'edit_'
'edi'
'ecological_'
'ece'
'eat_'
'dża'
'dźwięk'
'dąc'
'dół_'
'dzon'
'dzik'
'dziewi'
'dziedzin'
'dziecięc'
'dzieci'
'działaniu_'
'działające'
'dział'
'dysk'
'dys'
'dynamiczn'
'dynamic_'
'dyn'
'dużego_'
'dura'
'dule'
'duk'
'duchowego_'
'dry_'
'drukowan'
'drugs_'
'drugiego_'
'drug_'
'drom'
'drogach_'
'droga_'
'dr_'
'dołącz'
'dowolnym_'
'dowolny'
'dowolnego_'
'dowody_'
'downloads_'
'down'
'dotrzeć_'
'doszło_'
'dostępem_'
'dostaw'
'dosta'
'dose_'
'dopuszczaln'
'dong_'
'domyśln'
'domowe_'
'dolphins_'
'dolin'
'dokument'
'doesn_'
'dodany_'
'dodania_'
'dodan'
'dodaj'
'doda'
'doctor_'
'doc'
'dobro'
'dobra'
'dob'
'dni'
'dn'
'dm'
'diversity_'
'div'
'distributed_'
'distribut'
'dish_'
'discussed_'
'discuss_'
'disciples_'
'differ'
'diesel_'
'dic'
'diag'
'devo'
'developments_'
'det'
'deszcz'
'desire_'
'descriptions_'
'describes_'
'dero'
'density_'
'denominations_'
'demonstrates_'
'demokratycznej_'
'demokracji_'
'democratic_'
'demo'
'dek_'
'dek'
'defe'
'deeper_'
'dee'
'decrease_'
'deck_'
'decisive_'
'debt_'
'debacie_'
'day'
'darmowy'
'dar_'
'dania_'
'dalszych_'
'dalsze_'
'dai'
'człowiekiem_'
'członkowskimi_'
'członkowskim_'
'czę'
'czyteln'
'czysty'
'czynników_'
'czynnik'
'czyni'
'czymś_'
'czych_'
'czu'
'czną_'
'cznie_'
'czenie_'
'czasy_'
'czarne_'
'cyjnego_'
'cyfrow'
'cuts_'
'curs'
'currencies_'
'cuisine_'
'cts_'
'cti'
'cted_'
'cross'
'cris'
'criminal_'
'crescent_'
'creati'
'creates_'
'cre'
'crashed_'
'court_'
'couple_'
'count_'
'cottage_'
'costume_'
'cos'
'correspond'
'correctly_'
'corporate_'
'corner_'
'cor'
'cop'
'cooperate_'
'cooking_'
'coo'
'converted_'
'controller_'
'continuing_'
'continu'
'containers_'
'cont'
'constructions_'
'const'
'consideration_'
'consent_'
'cons'
'confirmed_'
'configuration_'
'confi'
'conferences_'
'condemned_'
'cond'
'conclusion_'
'computers_'
'comprise'
'complaint_'
'compatibility_'
'comparison_'
'compare_'
'compact_'
'commonly_'
'commit'
'come'
'colo'
'collect_'
'coin_'
'cof'
'codziennego_'
'coa'
'clu'
'clarify_'
'ckie'
'cker'
'ciśnienie_'
'cię'
'ciąża'
'ciągłe'
'circumstances_'
'cion'
'cierpie'
'ciepł'
'ciemno'
'ciel'
'chłop'
'chę'
'chu_'
'cht_'
'chroniony_'
'chni'
'chlor'
'chemi'
'chci'
'chc'
'chat'
'characteristics_'
'challenging_'
'chair'
'ceremony_'
'cep'
'cenny'
'cement_'
'cem_'
'cells_'
'cella'
'cej_'
'cc'
'cał'
'catering_'
'casino_'
'cash_'
'cas'
'cart'
'capt'
'cancellation_'
'campaigns_'
'cam_'
'calculated_'
'błędu_'
'błędnie_'
'błysk'
'będąc_'
'bę'
'büyüklüğü_'
'ból'
'bym_'
'byliśmy_'
'bydła_'
'bycia_'
'buyer_'
'bull'
'brzegu_'
'brz'
'bry'
'brow'
'brothers_'
'brod'
'broad'
'break'
'bread_'
'brazylijskiej_'
'brak'
'bowl_'
'bou'
'bottle'
'bonus_'
'boi'
'boards_'
'boarding_'
'bne'
'bm'
'bliżej_'
'biurowa_'
'biu'
'birth_'
'bir'
'bion'
'bin_'
'bin'
'bikini_'
'bieżącego_'
'bierze_'
'biegu_'
'białka_'
'bia'
'bezpłatn'
'bets_'
'beta_'
'bend'
'beings_'
'behavior_'
'beat_'
'baz'
'bawi'
'bases_'
'basen'
'baseball_'
'barw'
'barr'
'bark'
'bakterie_'
'bah'
'bags_'
'badawcz'
'bad'
'aż'
'ałem_'
'ała'
'awareness_'
'awards_'
'aviation_'
'ava'
'automatycznego_'
'automatyczn'
'autobus'
'audit'
'atura'
'atte'
'attack_'
'ats_'
'atrakcyjn'
'atr'
'atic_'
'ates_'
'ater_'
'ataku_'
'asz'
'assa'
'aspekt'
'aside_'
'ase'
'artykuły_'
'arrive_'
'arranged_'
'arkusz'
'aren'
'ards_'
'archiw'
'archi'
'ara_'
'appoint'
'apple'
'appear_'
'apo'
'ao'
'anyone_'
'anym'
'anych_'
'ans'
'animat'
'aniem_'
'anger_'
'andr'
'ams'
'amongst_'
'aminokwas'
'amendment_'
'amb'
'amator'
'alternatyw'
'allowing_'
'all'
'ality_'
'algorytm_'
'algorithm_'
'alc'
'ala'
'aku'
'ake'
'akceptacji_'
'ając'
'ais_'
'airport10_'
'airlines_'
'aic'
'ah'
'agenda_'
'agency_'
'agencji_'
'agencj'
'agencies_'
'aged_'
'ag_'
'affordable_'
'aff'
'af'
'advance_'
'adu'
'ads_'
'adresem_'
'ador'
'adoption_'
'administratorem_'
'administrator'
'admi'
'adapter_'
'acza_'
'actual_'
'activated_'
'acting_'
'ację_'
'acją_'
'accept'
'absolwent'
'absolute_'
'abo'
'Złot'
'Zombie_'
'Znacz'
'Zim'
'Zdjęcie_'
'Zd'
'Zawód_'
'Zatok'
'Zapisz_'
'Zamów_'
'Zakład'
'Zaj'
'Zagraj_'
'Zad'
'ZY'
'ZN'
'Youth_'
'Yong'
'Yaris_'
'Yang_'
'Yan'
'Yama'
'YT_'
'XX_'
'XVI_'
'XT'
'Wło'
'Węg'
'Wyścigi_'
'Wyszukiwanie_'
'Wysokość_'
'Wypr'
'Wyda'
'Wybran'
'Wu'
'Wszystkich_'
'Wszyscy_'
'Wsz'
'Wskaźnik_'
'Wschodu_'
'Wprowadzenie_'
'Worm_'
'WordPress_'
'Wor'
'Wood'
'Woj'
'Wod'
'Witamy_'
'Wielu_'
'Wiel'
'Wid'
'Wiadomości_'
'Whi'
'West'
'Wer'
'Well'
'Wcześniej_'
'Way_'
'Wat'
'Waszyngton_'
'Was_'
'Warszawy_'
'Wall'
'Wac'
'WY'
'WS'
'WH'
'WEB'
'Vu'
'Vrchlabí_'
'Vrchlabi_'
'Volume_'
'Visit_'
'Vision_'
'Visi'
'Vis'
'Virus_'
'Vir'
'Vid'
'Venice_'
'Validation_'
'Vale'
'VO'
'VM_'
'VE_'
'V2'
'Użytkownika_'
'Użytkownik_'
'Użyj_'
'Usta'
'Upr'
'Until_'
'Unlimited_'
'Unit_'
'Uninstallation_'
'Under_'
'Umowa_'
'Umbria_'
'Ul'
'Układ'
'Ukryj_'
'Ukrainie_'
'Ub'
'UV_'
'UM_'
'UEN_'
'Tym_'
'Ty'
'Tury'
'Tune'
'Tumble_'
'Ts'
'True_'
'Trip'
'Translated_'
'Transfer'
'Traktatu_'
'Trad'
'Tower_'
'Touch_'
'Toronto_'
'Torba_'
'Tools_'
'Tomasz_'
'Tokyo_'
'Tokio_'
'Tit'
'Tiny_'
'Till'
'Tickets_'
'Thomas_'
'Theo'
'Termin'
'Teams_'
'Targi_'
'Tanie_'
'Tan'
'Tam'
'Tagged_'
'Table_'
'Słucha'
'Sł'
'Szt'
'Szcze'
'Szanghaju_'
'Sy'
'Swo'
'Swiss_'
'Swami_'
'Summer_'
'Sul'
'Subjects_'
'Strong_'
'Strapon_'
'Str'
'Statistical_'
'Stations_'
'Stanach_'
'Spółka_'
'Sports_'
'Sponsor'
'Spiegelgasse_'
'Spe'
'Son'
'Some'
'Solid'
'Sok'
'Sna'
'Slovak_'
'Slots_'
'Sli'
'Sku'
'Skr'
'Singapur_'
'Simon_'
'Similarly_'
'Shrine_'
'Shoe_'
'Ship'
'Sher'
'Sh'
'Seu'
'Sens'
'Selection_'
'Seilerstätte_'
'Seeking_'
'Sector_'
'Sec'
'Score_'
'Sco'
'Sci'
'Sche'
'Savo'
'Sau'
'Sara'
'Sants_'
'Salta_'
'Sale'
'Safe_'
'Saf'
'STI'
'SR'
'SMEs_'
'SF'
'SDI_'
'SCO'
'Róże_'
'Rzeszów_'
'Rzecznika_'
'Rze'
'Rwanda_'
'Roulette_'
'Rot'
'Roma_'
'Rol'
'Rodzaj_'
'Roczn'
'Rob'
'Rie'
'Rich_'
'Reżyseria_'
'Rezerwuj_'
'Rez'
'Return_'
'Resp'
'Resources_'
'Resi'
'Rese'
'Requirements_'
'Remove_'
'Release_'
'Relation_'
'Region'
'Regard'
'References_'
'Record'
'Recent_'
'Real'
'Ready_'
'Razem_'
'Rand'
'Rail_'
'Rado'
'Radi'
'Que'
'QNAP_'
'QM'
'Później_'
'Put_'
'Pun'
'Publications_'
'Przyw'
'Przytulny_'
'Przys'
'Przewodnik_'
'Przewodnicząca_'
'Przes'
'Prywatn'
'Provide'
'Promo'
'Prof'
'Produkcja_'
'Process_'
'Pretty_'
'Prepar'
'Prec'
'Prawo_'
'Prawd'
'Prag'
'Pracy_'
'Powrót_'
'Powierzchnia_'
'Posz'
'Posts_'
'Pos'
'Portugali'
'Polsk'
'Polowanie_'
'Polo_'
'Pok'
'Point_'
'Podw'
'Po'
'Plo'
'Ple'
'Plan_'
'Pis'
'Piotra_'
'Pin'
'Picture_'
'Pia'
'Philippines_'
'Philip'
'Ph'
'Persons_'
'Passport_'
'Passenger_'
'Partners'
'Partii_'
'Paradise_'
'Papua_'
'Pall'
'Palestine_'
'Palenie_'
'Pale'
'Paint'
'Pad'
'PS4_'
'PMLZ_'
'PH'
'PG'
'PE_'
'PB'
'PA_'
'PAR'
'PAN'
'PAC'
'Oświ'
'Oznacza_'
'Oz'
'Otw'
'Ot'
'Ore'
'Opti'
'Operator_'
'Opening_'
'Open'
'Opa'
'Około_'
'Ojca_'
'Ogr'
'Og'
'Office'
'Off_'
'Odpowiedzi_'
'Oda_'
'Ocean'
'Obsada_'
'Obr'
'Objects_'
'Objawieni'
'ONZ_'
'OME'
'OM'
'OK_'
'Nutrition_'
'Nur'
'Now'
'Nou'
'Notify_'
'Note_'
'Norwegia_'
'Non_'
'Nigdy_'
'Nic'
'Nevertheless_'
'Neuro'
'Neu'
'Nepal'
'Neck_'
'Nav'
'Nature_'
'Native_'
'Nathan_'
'Nast'
'Narzędzie_'
'Narzędzia_'
'Napo'
'Najbardziej_'
'Nai'
'NYC_'
'NEC_'
'NE'
'NATO_'
'MŚP_'
'Mó'
'Musisz_'
'Moz'
'Movies_'
'Motion_'
'Moses_'
'Moscow_'
'Morocco_'
'Monta'
'Mono'
'Moni'
'Mombasa_'
'Moim_'
'Model'
'Moc_'
'Mo_'
'Mn'
'Miłość_'
'Międzynarodowej_'
'Międzynarodowego_'
'Mit'
'Minutes_'
'Ministerstw'
'Midland_'
'Microgaming_'
'Metro_'
'Mercure_'
'Merc'
'Mer'
'Memorial_'
'Memo'
'Mel'
'Meksyk_'
'Medi'
'Mechanic'
'Massachusetts_'
'Maryi_'
'Martin_'
'Mars'
'Marok'
'Mark'
'Mario'
'Marina_'
'Marii_'
'Mare_'
'Marcin_'
'Mara_'
'Mall'
'Mali_'
'Male_'
'Mala'
'Maki'
'Makarska_'
'Mają_'
'Magiczn'
'Machin'
'MY_'
'MW'
'MR'
'MP3_'
'MOHITO_'
'MM'
'MG_'
'MF'
'M1'
'Ly'
'Luz_'
'Luxury_'
'Lumi'
'Luci'
'Loyalty_'
'Lounge_'
'Lotteries_'
'LotniskoFAQ_'
'Loterie_'
'Lot_'
'Lot'
'Los'
'Lora_'
'Long_'
'Lokal'
'Logo'
'Lizbona_'
'Livigno_'
'Lis'
'Lip'
'Limo'
'Limerick_'
'Lim'
'Lik'
'Light'
'Lid'
'Libera'
'Lew'
'Les_'
'Les'
'Lem'
'Lei'
'Lecz_'
'Lat'
'Last'
'Laptop_'
'Land'
'Lak'
'Lac'
'LT_'
'LR'
'LP'
'LORD_'
'LL'
'LD'
'Kumpfgasse_'
'Ks'
'Król_'
'Krakowa_'
'Kościele_'
'Kot'
'Kontroli_'
'Koni'
'Kongres'
'Kong'
'Konferencja_'
'Konf'
'Koncert'
'Kolo'
'Kolekcja_'
'Kol'
'Kod'
'Kobieta_'
'KoME_'
'Kitchenette_'
'Kiss_'
'Kiev_'
'Kie'
'Kha'
'Kettler_'
'Każd'
'Kategoria_'
'Kate'
'Katalog_'
'Kaps'
'Kana'
'Kami'
'Kalendarz_'
'KON'
'KM_'
'KD'
'KB_'
'KARTON_'
'Jur'
'Jun'
'Juan_'
'Journal_'
'Joseph_'
'Jorku_'
'Jin'
'Jez'
'Jet'
'Jerusalem_'
'Jerozolim'
'Jer'
'Jedyn'
'Jedną_'
'Jacek_'
'JC'
'Izraela_'
'Iza'
'Iwa'
'Istot'
'Ist'
'Inwestycj'
'Investor_'
'Investment_'
'Int'
'Instrukcja_'
'Instead_'
'Inst'
'Indonesia_'
'Independent_'
'Indeks_'
'Ind'
'Incre'
'Included_'
'Ina'
'Important_'
'Ig'
'Idealn'
'Iceland_'
'Ice'
'IX_'
'ISSN_'
'ION_'
'INTER'
'INFORMACJ'
'IM_'
'IL_'
'IH'
'IC_'
'Hôtel_'
'Hut'
'Hurtownie_'
'Hum'
'Hotel'
'Hot'
'Hoo'
'Holl'
'His'
'Hindi_'
'Hills_'
'Hill_'
'Highl'
'Hey_'
'Heroes_'
'Hero_'
'Height_'
'Hawa'
'Having_'
'Harb'
'Hans_'
'Handlu_'
'Hair_'
'Hai'
'Hacks_'
'HU_'
'HF'
'HER'
'HC'
'Główna_'
'Główn'
'Głosowałem_'
'Głos'
'Gór'
'Gy'
'Gw'
'Guan'
'Gruzji_'
'Grun'
'Gru'
'Gros'
'Gri'
'Greek_'
'Gras'
'Gran_'
'Gram'
'Gości_'
'Glu'
'Globe'
'Glass_'
'Giga'
'Generator_'
'Generation_'
'Gene'
'Gear4music_'
'Gdynia_'
'Gdańsk'
'Gdansk_'
'Gb'
'Gaon_'
'Gang'
'GameTwist_'
'Gall'
'GZ'
'GU'
'GSM_'
'GRA'
'GP'
'GNU_'
'GN'
'GMT_'
'GL_'
'Further_'
'Fully_'
'Ful'
'Fri'
'Fresh_'
'Fr_'
'Fot'
'Fort'
'Forecast_'
'Fore'
'Florence_'
'Flag'
'Finnair_'
'Finland_'
'Film'
'File'
'Feedback_'
'Federation_'
'Farmhouse_'
'False_'
'Faith_'
'Fairy_'
'Facebooku_'
'FTP_'
'FT'
'FIL'
'FF'
'FEBICO_'
'FC_'
'Extra_'
'External_'
'Export'
'Expl'
'Ew'
'Everything_'
'Event_'
'Ev'
'Eth'
'Espa'
'Escalator_'
'Epi'
'Environmental_'
'Environment_'
'Ens'
'Enjoy_'
'Eng'
'End'
'Ena'
'Emb'
'Electrolux_'
'Eko'
'Egipcie_'
'Edukacji_'
'Edukacja_'
'Easy_'
'EX'
'EN'
'EG'
'EF'
'EAN_'
'Dziękujemy_'
'Dzisiaj_'
'Dziedzictwa_'
'Działanie_'
'Działalność_'
'Działa'
'Dzi'
'Dy'
'Dwie_'
'Duty_'
'Dutch_'
'Dum'
'Duch'
'Dub'
'Drodzy_'
'Dro'
'Dresses_'
'Dre'
'Downloads_'
'Down'
'Dostępność_'
'Dosta'
'Dos'
'Domy_'
'Dom'
'Doln'
'Dog'
'Dnia_'
'Dlaczego_'
'Dist'
'Discount_'
'Dis'
'Directions_'
'Dictionary_'
'Dialogue_'
'Dhabi_'
'Dev'
'Desert_'
'Delta_'
'Dell_'
'Delhi_'
'Defense_'
'Def'
'Decor_'
'Deci'
'Debat'
'Dear_'
'Daniel_'
'Dal'
'DZI'
'DZE_'
'DROPS_'
'DNA_'
'DD'
'DA'
'Cóż_'
'Część_'
'Czechy_'
'Cze'
'Cz'
'Currency_'
'Cur'
'Culture_'
'Cruz_'
'Cro'
'Cri'
'Creative_'
'Creati'
'Cos'
'Copenhagen_'
'Cooking_'
'Contract_'
'Continu'
'Conce'
'Compact_'
'Communications_'
'Common'
'Comm'
'Colombia_'
'Cologne_'
'Colli'
'Collection_'
'Coc'
'Clients_'
'Clay'
'Class_'
'Choć_'
'Chemical_'
'Chemi'
'Chelsea_'
'Char'
'Championships_'
'Cham'
'Centro_'
'Central'
'Cel'
'Cech'
'Catalog_'
'Casa_'
'Carri'
'Carp'
'Care_'
'Cape_'
'Cap'
'Canon_'
'Cand'
'Can'
'Cambridge_'
'Cairo_'
'Caf'
'CZK_'
'CZ'
'CS_'
'CA_'
'CAP_'
'CAM'
'Buy_'
'But'
'Bul'
'Budowa_'
'Budow'
'Budimex_'
'Bs_'
'Bride_'
'Brewery_'
'Brea'
'Brazylii_'
'Brat'
'Brain_'
'Bożej_'
'Boutique_'
'Bor_'
'Bor'
'Books_'
'Bogu_'
'Body_'
'Bob_'
'Bluetooth_'
'Bliskiego_'
'Biuletyn_'
'Birmingham_'
'Bin'
'Bie'
'Bibli'
'Bia'
'Bestsellery_'
'Bentley_'
'Belgium_'
'Belgian_'
'Beau'
'Bart'
'Baro'
'Banku_'
'Balkon_'
'Bak'
'Bag_'
'Badań_'
'Backpackers_'
'Back'
'BW'
'BV'
'BMW_'
'BF'
'BC_'
'BA_'
'BAL'
'Away_'
'Awards_'
'Aw'
'Autor'
'Author_'
'Attack_'
'Ash'
'Artist_'
'Arrival_'
'Army_'
'Are'
'Archives_'
'Arche'
'Arabic_'
'Arab_'
'Ara'
'Application_'
'Appl'
'Answer_'
'Ans'
'Anniversary_'
'Anna_'
'Ankiet'
'Ando'
'And'
'Analiza_'
'Anal'
'Ameryce_'
'Amazon_'
'Ama'
'Alt'
'Alpha_'
'Alois_'
'Ah'
'Agenda_'
'Aga'
'Afryki_'
'Afr'
'Af'
'Adam'
'Act_'
'Act'
'Acro'
'Ach'
'Absolute_'
'AZ'
'AX'
'AV'
'AShemaleTube_'
'AP'
'AN_'
'AE'
'ABS_'
'?, _'
'? – _'
';'
': '
': - _'
': $_'
'820_'
'81'
'800'
'79_'
'793_'
'77'
'742'
'74'
'73'
'72'
'69'
'62'
'610'
'5km_'
'58'
'5000'
'500'
'4th_'
'4km_'
'480'
'48'
'3rd_'
'288_'
'270'
'250'
'240_'
'206'
'203_'
'1996_'
'1991_'
'1975_'
'1973_'
'188_'
'186'
'183_'
'181'
'178'
'174'
'171'
'163'
'157_'
'152'
'151'
'147_'
'143'
'142_'
'141'
'135_'
'129'
'123'
'121_'
'116'
'112_'
'111_'
'104_'
'1000'
'06'
'000'
'..'
'.), _'
'.(_'
'." '
'. • _'
'. „_'
'. »_'
'. ['
'. +_'
'. *'
'-- _'
', _'
',, _'
'()'
'% _'
'%)._'
'%) _'
'% '
'")._'
'" – _'
'" ('
'! - _'
' €'
' …'
' ”_'
' –  _'
' ~ _'
' @_'
' ? _'
' - "_'
' *_'
'。'
'… '
'”'
'’, _'
'‘_'
'ر'
'і'
'я'
'дн'
'Русский'
'К'
'α'
'żąc'
'żywność_'
'żydowskie'
'życiow'
'życ'
'żu_'
'żoł'
'żow'
'żone_'
'żona_'
'żnie_'
'żliwa_'
'żką_'
'żki'
'żenia_'
'żel_'
'żel'
'żb'
'żar'
'Życz'
'Żadna_'
'Żadn'
'ŻY'
'źwi'
'źródłem_'
'źródeł_'
'źn'
'źli'
'źle_'
'Špi'
'ść'
'święt'
'świetn'
'świetle_'
'światu_'
'świadczonych_'
'śród'
'środę_'
'środkow'
'środ'
'średnią_'
'średnie_'
'śnik'
'śnie'
'śni_'
'śmiech_'
'śmie'
'śmi'
'śle_'
'ścierani'
'ścianie_'
'Święto_'
'Światowego_'
'Światow'
'Świ'
'Średnioroczna_'
'Średni_'
'Śr'
'Śnieżką_'
'ň'
'ństwo_'
'ńskiego_'
'ńsk'
'ńcz'
'ń'
'łęb'
'łóżka_'
'łóżka'
'łóże'
'łód'
'łupki_'
'łumaczon'
'łuch'
'łot'
'łoni'
'łom'
'łocz'
'łn'
'łańcuchu_'
'łańcucha_'
'łatwy_'
'łaskę_'
'łas'
'łami_'
'łaj'
'łagodn'
'ładunków_'
'Łóżka_'
'Łazienka_'
'ŁE'
'ı_'
'İstanbul_'
'ě_'
'ępn'
'ęc'
'ębie_'
'Ę'
'či'
'Č'
'ćwiczenia_'
'ąza'
'ąz'
'ątk'
'ątek_'
'ąt_'
'ąski'
'ąs'
'ągn'
'ąga'
'ącej_'
'ú'
'ön'
'ô'
'ówcz'
'ót_'
'órk'
'órc'
'ój'
'ód'
'ó_'
'ñc'
'ín_'
'êdz'
'és_'
'ère'
'ç'
'ác'
'à'
'Ö'
'Ó'
'Å¼'
'Ä'
'»._'
'»'
'³y'
'³ow'
'³o_'
'®, _'
'«_'
' » _'
' (_'
'|_'
'złych_'
'zły'
'złożon'
'złośliw'
'złoty_'
'złota_'
'zła_'
'zła'
'zęby_'
'zę_'
'zę'
'ząd'
'ząc'
'zą'
'zyć_'
'zyski'
'zysk'
'zyli'
'zyko'
'zyki_'
'zwykły'
'zwykł'
'związanej_'
'zwiedzani'
'zwany_'
'zwane'
'zwa'
'zrównoważonego_'
'zró'
'zrozumi'
'zrodz'
'zowych_'
'zowani'
'zowan'
'zow'
'zorganizował'
'zorganizowany'
'zona_'
'zombie_'
'zob'
'znów_'
'znym_'
'zno'
'zniszczony'
'zniesi'
'znale'
'znalazłeś_'
'znalazł'
'znakomity_'
'znakiem_'
'znajom'
'znajdując'
'znaczą'
'znacznej_'
'znacz'
'zmęczenia_'
'zmusz'
'zmo'
'zmniejszenie_'
'zmniejsza'
'zmniejsz'
'zmienił'
'zmieniające'
'zmienia_'
'zmieni'
'zmianę_'
'zmianami_'
'zm'
'zki'
'zją_'
'zja'
'zintegrowany_'
'zing_'
'ziemię_'
'zielon'
'zieleni_'
'ziel'
'zia'
'zgłosz'
'zgł'
'zgody_'
'zgodność_'
'zgodn'
'zgod'
'zgin'
'zewnętrzny_'
'zewnętrznej_'
'zewnętrznego_'
'zewnętrzne_'
'zeszłym_'
'zestawu_'
'zestaw'
'zes'
'zera_'
'zek'
'zej_'
'zegar'
'zdrowotne'
'zdrowiu_'
'zdrowe'
'zdrow'
'zdołał'
'zdobyć_'
'zdobywa'
'zdo'
'zdjęciu_'
'zdjęci'
'zdefiniowan'
'zdaw'
'zdaje_'
'zcze'
'zcz_'
'zbędn'
'zbiera'
'zbawienia_'
'zaż'
'założył_'
'założone_'
'zawód_'
'zawodow'
'zawierał'
'zawierających_'
'zawie'
'zawartości_'
'zaufanie_'
'zaufania_'
'zatrzymać_'
'zatrzyman'
'zatrz'
'zator'
'zasług'
'zastępc'
'zastrzega'
'zastanawiasz_'
'zastanawia'
'zasadnicz'
'zarządzać_'
'zarządzan'
'zarezerwować_'
'zarezerwowany_'
'zarejestrowany_'
'zarejestrowa'
'zaraz_'
'zara'
'zar_'
'zapłaty_'
'zapła'
'zaproponowan'
'zaproponowa'
'zaprezentuje_'
'zapobiegania_'
'zapobiec_'
'zapo'
'zaplanować_'
'zaplanowan'
'zapisu_'
'zapisane_'
'zapas'
'zapach'
'zaopatrz'
'zao'
'zano'
'zanieczyszcz'
'zamówieni'
'zamówi'
'zamkną'
'zamknięte_'
'zamkni'
'zamian'
'zami'
'zama'
'zalog'
'zalicz'
'zalet_'
'zalecan'
'zalecamy_'
'zakupi'
'zakończone'
'zakończenie_'
'zakończ'
'zajmujące'
'zajmuj'
'zaint'
'zainstalowany'
'zainspirowany'
'zai'
'zagrożenie'
'zagr'
'zagadnienia_'
'zadowoleni'
'zadawane_'
'zadaszony_'
'zadaniem_'
'zaczęli_'
'zachęt'
'zachęcać_'
'zachwyc'
'zachowa'
'zacho'
'zach'
'zac'
'zaburzenia_'
'zabronione_'
'zabra'
'zabieg'
'zabaw_'
'zaa'
'yś_'
'yło_'
'yła'
'yzowan'
'yto'
'yte'
'ysł'
'ystów_'
'ysi'
'yon'
'yng'
'yna_'
'ymał'
'ymal'
'ykow'
'yjski_'
'yjną_'
'yjna_'
'ygm'
'ygi'
'yfik'
'ycznej_'
'ycznego_'
'ycz'
'yby_'
'yan_'
'yachts_'
'yP'
'xis_'
'x8'
'włączyć_'
'włoskiego_'
'właściwy'
'właściwe_'
'właściwe'
'właścicieli_'
'właściciela_'
'własnych_'
'własn'
'władzami_'
'wów_'
'wzros'
'wzr'
'wzmocnienie_'
'wzmacniacz'
'wzgórza_'
'względów_'
'wyższy_'
'wyświetli_'
'wyślij_'
'wywołane'
'wywołan'
'wywiad'
'wywi'
'wytwarzania_'
'wyt'
'wysłanie_'
'wysłani'
'wysłane_'
'wysyła'
'wystawy_'
'wystawie'
'wystarczające_'
'wystarcza'
'wyspecjalizowani_'
'wysp_'
'wysoko'
'wyso'
'wyrusz'
'wyrażon'
'wyrażeń_'
'wyrazy_'
'wypłac'
'wypracowa'
'wyposazone_'
'wyposa'
'wypełnia'
'wynikające_'
'wynikach_'
'wynaj'
'wymo'
'wymienionych_'
'wymienion'
'wym_'
'wyl'
'wykwalifikowanych_'
'wykorzystywan'
'wykorzysta'
'wykonywane_'
'wykonawczy'
'wykonaniu_'
'wykazu'
'wyk'
'wyjście_'
'wyjścia_'
'wyjątkową_'
'wyjątkowym_'
'wyjątkowo_'
'wyjątkiem_'
'wygrywa'
'wygranej_'
'wygran'
'wygodny_'
'wygląda'
'wygenerowa'
'wye'
'wydziel'
'wydr'
'wydawcy_'
'wydawc'
'wydatków_'
'wydani'
'wydan'
'wydajne_'
'wydaje_'
'wycz'
'wyciągnie_'
'wycieczek_'
'wyci'
'wyborów_'
'wyborcz'
'wybitn'
'wybiera'
'wybie'
'wybacz'
'wyb'
'wt'
'wszy_'
'wszechświata_'
'wszechświat'
'wszcz'
'wsz'
'wsta'
'współpracowa'
'współczu'
'współczesne_'
'współczesn'
'wspólny_'
'wspólnot'
'wspomnienia_'
'wspom'
'wspieranie_'
'wspa'
'wski'
'wskaźników_'
'wskaźnik'
'wschodniej_'
'wschod'
'wróci'
'wró'
'wro'
'writer_'
'wraca'
'wpływa'
'wpływ'
'wprowadzenia_'
'wpis_'
'wpis'
'wp'
'wow'
'wounds_'
'worry_'
'worlds_'
'wolny_'
'wolność_'
'wok'
'wojskow'
'wodn'
'wnos'
'wniosków_'
'wnioski_'
'wnie'
'wne_'
'wk'
'wje'
'więzi'
'więk'
'wię'
'wić_'
'witryn'
'wirusem_'
'wirtualne_'
'wire'
'wio'
'wins_'
'winni'
'winners_'
'windą_'
'will'
'wild_'
'wik'
'wierzą_'
'wierzy'
'wieni'
'wielokrotnie_'
'wielką_'
'wielkość_'
'wielkiej_'
'wielkich_'
'wiel'
'wiejskich_'
'wiedzie'
'wieczór_'
'widzieć_'
'widzian'
'widoki_'
'wide'
'wid'
'wice'
'wiat'
'wiarygodn'
'wiara_'
'wiad'
'wholesale'
'who'
'wg'
'wezwał'
'wewnętrzny_'
'west'
'wen'
'weigh'
'wegańskie_'
'weekend'
'wee'
'wed'
'wea'
'wdzięcznoś'
'wdrażani'
'wd'
'wczo'
'wcześniejsz'
'wchodzą_'
'wchodzi'
'ważności_'
'wała_'
'waz'
'waypoints_'
'waszym'
'wasz_'
'warzyw_'
'warunek_'
'warszawskie'
'warstw'
'wars'
'warmly_'
'warm'
'ward'
'wanych_'
'wani'
'wander'
'wami_'
'waluty_'
'wali'
'wakacj'
'wai'
'wagon_'
'wage_'
'wadzi'
'wack'
'vu'
'vou'
'vor'
'volunteers_'
'voltage_'
'voivodship_'
'viv'
'vitamin_'
'visiting_'
'visible'
'visibility_'
'visa_'
'vis_'
'vis'
'virtu'
'vir'
'violent'
'villages_'
'villa_'
'vilion_'
'viewing_'
'vice_'
'vic_'
'vibrations_'
'vet_'
'verify_'
'verif'
'venture_'
'venir'
'vegetable_'
'vec'
'vate'
'vascular_'
'vary'
'varia'
'valve'
'valet_'
'val_'
'vag'
'używanych_'
'używane_'
'używan'
'używa_'
'użytkownik'
'użyj_'
'ułow'
'uzupełnia'
'uznawan'
'uznane'
'uzi'
'uza'
'ux'
'uwzględnić_'
'uwzględnieniem_'
'uwie'
'uważać_'
'uważa'
'uw'
'uty'
'utworzon'
'utw'
'utt'
'utrzymywani'
'utrzymywan'
'utrzymuj'
'utrat'
'utmost_'
'utiliz'
'uti'
'uter'
'ute'
'utca_'
'usłysz'
'usługa_'
'usług'
'uszy_'
'usunięciu_'
'usual_'
'ustawa_'
'ustalić_'
'ustac'
'usprawni'
'usprawiedliwi'
'usion'
'usel'
'usa_'
'urę_'
'urre'
'urow'
'urok'
'urodziła_'
'urodził_'
'urlop_'
'urin'
'urge_'
'uregulowani'
'ured_'
'urat'
'urag'
'ura_'
'upływ'
'ups'
'uprzed'
'upro'
'uprawnienia_'
'uprawni'
'upr'
'uphold'
'uph'
'upgrade'
'upewnij_'
'upad'
'uniwersalne'
'uniwers'
'university_'
'universal_'
'unit'
'unikalne'
'unijnego_'
'unic'
'unh'
'unexpected_'
'undertak'
'undermine'
'underground_'
'unclea'
'unc'
'unacceptable_'
'ums_'
'umożliwiający'
'umożliwiając'
'umown'
'umow'
'umieszczony_'
'umiera'
'ument_'
'ument'
'ume'
'uman'
'ulubionej_'
'ulu'
'ultimately_'
'ult_'
'uls'
'ulin'
'uld'
'ukończeni'
'ukow'
'ukaza'
'uit'
'ues'
'udzielenia_'
'udziałów_'
'udzi'
'udowan'
'udni'
'uczą'
'uczynił'
'uczy'
'uczestnik'
'uczestniczy'
'uci'
'ucho'
'ucha'
'uce_'
'ubran'
'ubra'
'ubl'
'ubion'
'ubiegł'
'ubezpieczenia_'
'ubezpiecze'
'uba'
'tłumaczeń_'
'tłum'
'tę'
'tó'
'tywn'
'tyw'
'tytułu_'
'tysiące_'
'tysiąc'
'typy_'
'typow'
'typically_'
'typ'
'tylny'
'tyln'
'tygodniowo_'
'tyc'
'twórcą_'
'tworząc'
'tworzywo_'
'tworzone_'
'twoim_'
'two'
'twist_'
'twi'
'twenty_'
'twardym_'
'twarde'
'tut'
'turystów_'
'turystyczna_'
'turns_'
'tures_'
'turecki'
'tując'
'tuj'
'tude_'
'tua'
'tting_'
'trój'
'trzy'
'trzeciego_'
'trwały'
'trustworthy_'
'trudniejsz'
'truc'
'trou'
'trosk'
'trol'
'trojanów_'
'tro_'
'trio'
'tricks_'
'tric'
'trial_'
'treścią_'
'treningu_'
'treningowy'
'trend'
'trem'
'treatments_'
'treated_'
'treasur'
'traw'
'travellers_'
'trav'
'trasa'
'transp'
'transmit'
'translate_'
'transfers_'
'transferred_'
'transa'
'tramp'
'traktowa'
'trainer'
'trafficking_'
'tradycyjny'
'tradycyjn'
'trademarks_'
'traci'
'trac'
'tożsamość_'
'towych_'
'tower_'
'towe'
'toward_'
'towania_'
'towan'
'towa'
'totali'
'torze_'
'toria'
'tore'
'topic_'
'tony_'
'tonight_'
'tol'
'tok'
'toi'
'tofu_'
'tobac'
'tny_'
'tnik'
'tne_'
'tna'
'tlen'
'tk'
'tissue_'
'tings_'
'timel'
'tight'
'tige'
'tides_'
'tics_'
'tically_'
'tica'
'tial_'
'tia_'
'throw'
'threat'
'thoughts_'
'thoroughly_'
'thin_'
'thickness_'
'thesis_'
'ther'
'thee_'
'thal'
'tf'
'testu_'
'testowa'
'testow'
'tes'
'terytorialne'
'terroryzmem_'
'terrorystyczn'
'terri'
'terr'
'terminowe'
'terminal_'
'terasse_'
'teo'
'tenis'
'tendenc'
'tena'
'temple_'
'template_'
'temperatures_'
'tematów_'
'tematyczny_'
'tely_'
'tell'
'telewizor'
'telewizja_'
'telefonów_'
'telefonie_'
'telefon'
'teksty'
'tekst'
'tek'
'technologiczny'
'technological_'
'technologia_'
'technique_'
'technik_'
'techniczną_'
'tec_'
'teatr'
'taśm'
'tańs'
'taw'
'tati'
'tast'
'targow'
'targeted_'
'tape'
'tant'
'tangible_'
'tang'
'tanc'
'tamte'
'talerzy'
'tajemnicz'
'tain_'
'tain'
'tail_'
'tacy_'
'tablet_'
'tabela_'
'tab_'
'słysz'
'służący'
'służyć_'
'służby_'
'słup'
'słuchać_'
'słownik'
'słowe'
'słodk'
'słab'
'sąsi'
'sądzi'
'szę_'
'szyn'
'szybkie_'
'szybkie'
'szum'
'szukają'
'szuka'
'sztuk'
'szt_'
'szpital'
'szla'
'szkła_'
'szkoleniow'
'szkol'
'szki'
'szk'
'szeroko_'
'szeroki'
'szereg_'
'szef_'
'szczycie_'
'szczon'
'szczenie_'
'szczegółowy'
'szczegółowe_'
'szczególną_'
'szanow'
'szamp'
'szam'
'szal'
'szacunk'
'sytuacją_'
'syne'
'syna_'
'sympathy_'
'symbolu_'
'symboliz'
'symbol'
'sygn'
'swą_'
'swoimi_'
'swobodn'
'swobod'
'swo'
'swing_'
'sv'
'susz'
'suspen'
'survived_'
'survey'
'surround'
'surow'
'suppo'
'suplement'
'supervis'
'sup'
'suns'
'sung_'
'sun'
'summary_'
'summari'
'sum_'
'sul'
'sukces_'
'suk_'
'suites_'
'suite_'
'suggestions_'
'sugesti'
'suger'
'such'
'subu'
'subt'
'substanc'
'subskrypcj'
'submitting_'
'submit_'
'submission'
'stąd_'
'stylow'
'styczny'
'styczniu_'
'styczeń_'
'sty'
'stworzone_'
'stworzon'
'stwierdzono_'
'stwierdza'
'stwie'
'stunning_'
'studying_'
'studenci_'
'stu_'
'strzał'
'strukturę_'
'struktury_'
'struct'
'stronami_'
'stres'
'strategies_'
'strategiczn'
'strain'
'str'
'stosunków_'
'stosunkowo_'
'stosuje_'
'stosowany_'
'stops_'
'stones_'
'stolicą_'
'stolicy_'
'stoisk'
'stocks_'
'sto_'
'stk'
'stimulate_'
'stically_'
'stic'
'sterow'
'stero'
'stepp'
'stenc'
'steam_'
'stayed_'
'stawia'
'stawi'
'stawa'
'staw_'
'statutory_'
'statut'
'statistical_'
'stas'
'starożytn'
'stare'
'stara_'
'stanowisk_'
'standardy_'
'standardowe'
'stain'
'stadt_'
'stabilność_'
'stabiln'
'stab'
'sr'
'spędzi'
'spółka_'
'spójność_'
'spó'
'spyta'
'sprzę'
'sprzedawany_'
'sprzeciwi'
'sprowadz'
'spread'
'sprawy_'
'sprawo'
'sprawił'
'sprawdzon'
'sprawdzi'
'spraw'
'spożywcz'
'spośród_'
'społecznościowych_'
'społeczno_'
'społeczeństw'
'spowodował'
'spotyka'
'sposoby_'
'spodziewać_'
'spod'
'sph'
'spełnić_'
'spełniają'
'spełni'
'speculat'
'spectrum_'
'spectac'
'specjalnym_'
'specjalnie_'
'specjaliz'
'specjalistów_'
'specifications_'
'specific'
'specializ'
'specialist_'
'speci'
'spawan'
'spadających_'
'spad'
'spaceru_'
'sowi'
'soul_'
'sortowani'
'sort_'
'sons_'
'son'
'somehow_'
'somebody_'
'solidarność_'
'solid'
'soli'
'soldier_'
'sok'
'socjal'
'socialist'
'sobotę_'
'sny'
'snowboard'
'sne_'
'smut'
'smo'
'sme'
'smartphones_'
'smart_'
'smart'
'smako'
'slo'
'slightly_'
'slajdów_'
'sl'
'składnik_'
'składa'
'skuteczn'
'skrócon'
'skrzyni'
'skryt'
'skrypt'
'skrajn'
'skra'
'skończy'
'skon'
'skojarzone_'
'skierowan'
'skazan'
'skarb_'
'skanowaniu_'
'siłowni_'
'sił'
'sięga_'
'sir'
'siostry_'
'sion'
'sinner'
'sink_'
'silnik_'
'sights_'
'sig'
'sieć_'
'sier'
'sien'
'siedzi'
'siecią_'
'sieci'
'sides_'
'siatk'
'sian'
'shut'
'shrimp_'
'shout'
'shorte'
'shoes_'
'shock'
'shipping_'
'shipment'
'shine_'
'sher'
'she'
'sharp'
'shad'
'sfer'
'sezonu_'
'sezon'
'severe_'
'seve'
'sets_'
'sessions_'
'sery'
'serwisów_'
'serwisie_'
'seriously_'
'serce_'
'serc'
'ser_'
'separation_'
'sep'
'sensor_'
'sens_'
'sena'
'sem_'
'sem'
'selling_'
'sektorów_'
'sektor_'
'seksualne'
'sek_'
'seem'
'seeks_'
'seek_'
'seats_'
'seasons_'
'seafood_'
'scre'
'scis'
'scien'
'schodami_'
'schod'
'scheduler_'
'scenariusz'
'sburg'
'saun'
'sauce_'
'satisfied_'
'satisfaction_'
'sas'
'sandy_'
'san_'
'samodzielnie_'
'samochodem_'
'sali_'
'salary_'
'sak'
'sail'
'sacr'
'sA'
'rękę_'
'ręko'
'rękach_'
'ręka'
'ręczn'
'rąk_'
'różowy_'
'różnorodny'
'różnorodności_'
'różni_'
'różnego_'
'równoważ'
'równowagi_'
'równocze'
'rządow'
'rzą'
'rzył_'
'rzyst'
'rzyj_'
'rzut_'
'rzut'
'rzeż'
'rzes'
'rzeka_'
'rzeczywistość_'
'ryz'
'rysunk'
'ryk'
'rygorystyczn'
'ryd'
'rwa'
'rw'
'rut'
'rusz'
'rur_'
'rule'
'ruin'
'rucha'
'ruch'
'rubb'
'rty'
'rto'
'rte'
'rstw'
'rstra'
'roślinnych_'
'roślinn'
'rośl'
'rozład'
'rozwojowe'
'rozwiązani'
'rozwijając'
'rozwija_'
'rozwi'
'rozumie_'
'rozszerzon'
'rozstrzyga'
'rozrywk'
'rozpro'
'rozpowszechnianie_'
'rozpowszechni'
'rozpoczęt'
'rozpatr'
'rozmiarach_'
'rozmawiać_'
'rozdzielczość_'
'rozdziału_'
'rozd'
'rozbudow'
'rowing_'
'rować_'
'router_'
'rost_'
'ross'
'ropy_'
'rope_'
'rop'
'roof'
'rolnictwie_'
'rolnictwa_'
'rolnej_'
'roles_'
'rola_'
'rol_'
'roka'
'rodzinny'
'rodzinnego_'
'rodzinne_'
'rocznicy_'
'robust_'
'robn'
'robię_'
'robieni'
'robi'
'rny'
'rning_'
'rnia'
'rma'
'rly_'
'river_'
'riva'
'rior_'
'rinks_'
'rim'
'righteousness_'
'rif'
'rider'
'rict'
'ribut'
'rho'
'rg_'
'rf'
'rezydencj'
'rezerwy_'
'rezerwacyjn'
'rezerw'
'rez'
'rewolucj'
'revolutionary_'
'revis'
'returns_'
'returning_'
'rete'
'retail_'
'ret_'
'resum'
'resulting_'
'ress_'
'responsywność_'
'responsibilities_'
'respon'
'respecting_'
'respect'
'reserve_'
'reserv'
'rescue'
'requi'
'reprezentuj'
'reprezentac'
'representing_'
'replied_'
'reno'
'renesans'
'remis'
'remained_'
'rem'
'religion_'
'religia'
'relieve'
'relief_'
'reliability_'
'reklamow'
'rejestracja_'
'reguł'
'regulacyjn'
'regret_'
'reg'
'refund'
'reflected_'
'referring_'
'ree'
'redaktor'
'red'
'recycl'
'recta'
'recreational_'
'recr'
'recover_'
'recept'
'recenzję_'
'realizuj'
'realizowane_'
'realizowa'
'realization_'
'realizację_'
'realise_'
'reali'
'reakcji_'
'reakcj'
'read'
'reactions_'
'rcie_'
'rce'
'ray_'
'ratunkowe_'
'ratow'
'ration_'
'ratings_'
'ratif'
'rare'
'rapid_'
'rape_'
'rann'
'ranking'
'ramp'
'ramow'
'rali'
'rak'
'raj'
'rain'
'railway_'
'rail_'
'raft_'
'rafi'
'radzi'
'radykaln'
'radi'
'racy'
'ract'
'racism_'
'rachunku_'
'races_'
'quo'
'ques_'
'quent'
'quee'
'pływania_'
'płynny'
'płu'
'płe'
'płatnicz'
'płatne_'
'płatn'
'płas'
'pęcherz'
'pę_'
'półpr'
'pój'
'pyta'
'px'
'pussy_'
'pursu'
'purp'
'purely_'
'pupp'
'pump_'
'pulse_'
'pull'
'pul'
'publikowan'
'publicznym'
'publicznoś'
'publications_'
'ptis'
'ptaków_'
'ptak_'
'pt'
'psycholog'
'psycho'
'psychi'
'pst'
'pse'
'prąd'
'próżn'
'próbuje_'
'próbki_'
'przyznan'
'przywódc'
'przywraca'
'przyw'
'przytrzymaj_'
'przyszłych_'
'przystępn'
'przyr'
'przypomnie'
'przypom'
'przyp'
'przyni'
'przyl'
'przykładzie_'
'przyjęci'
'przyjemny_'
'przyjaźni_'
'przyjazn'
'przyjació'
'przygotowywani'
'przygotowane_'
'przygotowan'
'przygotow'
'przydziel'
'przydatn'
'przyczyni'
'przyczyn'
'przyb'
'przod'
'prześladowani'
'przeł'
'przeznaczon'
'przeznacz'
'przewoźnik'
'przewozu_'
'przewodniczące'
'przewodni'
'przewag'
'przetłumacz_'
'przetwor'
'przetwarzane_'
'przesłan'
'przeszkod'
'przesyłan'
'przesyła'
'przestrzen'
'przesta'
'przeskanuje_'
'przes'
'przeprowadzon'
'przeprowadzenia_'
'przepisach_'
'przenieść_'
'przemysłowych_'
'przemysł_'
'przemocy_'
'przema'
'przem'
'przekł'
'przekształceni'
'przekro'
'przekonania_'
'przekazywan'
'przekaza'
'przejrzyst'
'przeglądać_'
'przeglądarki_'
'przegląda'
'przegląd'
'przeg'
'przedstawi_'
'przedstawi'
'przedni'
'przedmiotowy'
'przedmiotowe'
'przeczyta'
'przeciwn'
'przeciwd'
'przechodz'
'przec'
'przebieg_'
'przebacz'
'prysznice_'
'pru'
'prośbę_'
'prowadzone'
'prowadził'
'province_'
'provin'
'proved_'
'prove_'
'protokołu_'
'protest'
'prote'
'prot'
'prostych_'
'prosty_'
'prosto_'
'prorok'
'propozycji_'
'proposi'
'proponowane'
'prophecies_'
'prompt'
'promotor'
'promised_'
'promenad'
'prom'
'projektow'
'projektan'
'projektach_'
'prohibiti'
'prognozyMeteorologia_'
'prognoz'
'profit_'
'profit'
'profili_'
'profess'
'profesjonalny'
'profesjonaln'
'produkowane_'
'produkc'
'produces_'
'produc'
'processor_'
'procentowego_'
'procedural'
'proc_'
'problemami_'
'problema'
'prize_'
'privilege'
'priorytetów_'
'priorytetem_'
'prints_'
'printer_'
'prince_'
'prim'
'pric'
'priat'
'prezydenta_'
'prezydencj'
'prezentacj'
'prezent'
'preventing_'
'pretekst'
'presidential_'
'present'
'preparat'
'prepa'
'premier_'
'premi'
'pregnant_'
'preferenc'
'prefer_'
'predict'
'precyzyjn'
'preceden'
'praying_'
'prawodaw'
'prawny'
'prawni'
'prawidłowy'
'prawem_'
'prawdziwie_'
'prawdy_'
'prawda_'
'prawd'
'prawa'
'praw'
'pras'
'prani'
'praktyki_'
'praktycznych_'
'pracując'
'practi'
'pracował_'
'prac'
'pr'
'ppo_'
'ppe'
'pożytecznych_'
'pożar'
'poś'
'połączyć_'
'połączeniu_'
'południu_'
'południowy'
'południe_'
'południ'
'położone_'
'połowy_'
'pozytywny_'
'pozytywn'
'pozwol'
'pozwalając'
'pozwalają_'
'pozostałe_'
'pozostawia_'
'pozosta'
'pozor'
'poziomów_'
'pozby'
'pozbawion'
'powyższe_'
'powstała_'
'powstał_'
'powróci'
'powraca_'
'powołan'
'powodzeniem_'
'powodować_'
'powietrzn'
'powiedzeni'
'powiadomienia_'
'poważnym_'
'poważny'
'powa'
'pour_'
'potwierdzają_'
'potrzebę_'
'potrzebą_'
'potrzebny'
'potrafi'
'poto'
'potencjalny'
'posług'
'poszukiwania_'
'poszuk'
'poszerz'
'poszanowani'
'postępów_'
'postępowania'
'postów_'
'posts_'
'postawić_'
'postanowił'
'postanowienia_'
'possib'
'possessing_'
'positively_'
'posiedzeniu_'
'posiadani'
'posiadający'
'posiadając'
'porównanie_'
'porówna'
'porządk'
'porząd'
'poruszon'
'porusza'
'porusz'
'ports_'
'portfolio_'
'portals_'
'porozumień_'
'porowat'
'porcelany_'
'porc'
'poradzi'
'por_'
'popularny_'
'popularne_'
'poprzeć_'
'poprzedni_'
'poprzedni'
'popro'
'poprawn'
'popełni'
'pools_'
'ponosi_'
'pono'
'poni'
'pomógł_'
'pomyśln'
'pomysły_'
'pomysł_'
'pomp'
'pomieszczeniu_'
'pomieszczenia_'
'pomi'
'polskie_'
'polityk'
'polityczny_'
'polish_'
'polis'
'polar'
'pola'
'pokolenia_'
'pokojami_'
'pokojach_'
'pokazywa'
'pokaz_'
'poka'
'pojemności_'
'pojedynczy'
'pojedyncz'
'poje'
'pojazd'
'pojawieni'
'pojawiają_'
'poinformować_'
'pogard'
'pog'
'podążać_'
'podziel'
'podwójny'
'podwójne_'
'podwójn'
'podwo'
'podtrzym'
'podstawę_'
'podstawą_'
'podstawy_'
'podstawowy'
'podpowiedzi'
'podpis'
'podobn'
'podoba_'
'podlegają_'
'podkreślając_'
'podkreśla_'
'podjęte_'
'podejścia_'
'podc'
'podatn'
'podany'
'podan'
'podaj'
'poda'
'począwszy_'
'poczu'
'pocztą_'
'pociąg_'
'pociąg'
'pochodz'
'poch'
'poc'
'pobieran'
'pobiera'
'pob'
'plin'
'plic'
'plenary_'
'plażow'
'plaże_'
'plate'
'planszowe'
'planning_'
'planety_'
'planeta'
'planem_'
'plane_'
'placów'
'plac_'
'pka_'
'piękno'
'piękne_'
'piękne'
'pię'
'pią'
'pizz'
'piw'
'pita'
'pit'
'pisz'
'pirac'
'piosenk'
'pin'
'pilot_'
'pikseli_'
'pieś'
'pieñ_'
'pierwotne'
'pierw'
'piercing'
'pielęgnacji_'
'picturesque_'
'pickup'
'pic'
'piaszczysty'
'piaszczysta_'
'piasku_'
'pi_'
'phy'
'phon'
'pho'
'phentermine_'
'phenomenon_'
'pełnym_'
'pełno'
'pełnie'
'pełnego_'
'pełn'
'pełen_'
'pewnością_'
'perspektywę_'
'perspektywie_'
'perspective_'
'personnel_'
'personelu_'
'personally_'
'perpet'
'perm'
'period'
'peri'
'perfe'
'pepper'
'pensjonat_'
'pensa'
'penal'
'pekt'
'pede'
'pdf_'
'pc_'
'państwu_'
'pattern_'
'patron_'
'patriarch'
'patience_'
'paths_'
'patent_'
'paste_'
'pasażerów_'
'pasażer'
'partnerstw'
'partnership_'
'partner'
'partly_'
'participate'
'parow'
'parkiet_'
'parallel_'
'parallel'
'paradoks'
'parad'
'papers_'
'panuj'
'panowania_'
'panoram'
'pamiętaj_'
'paliwo'
'paliwa_'
'paliw'
'pali'
'palace_'
'pakietów_'
'pakiecie_'
'paintings_'
'painter_'
'paint'
'pain_'
'pad_'
'packed_'
'packaging_'
'ożywi'
'oświetleni'
'oświadczenie_'
'ośrodk'
'ośmi'
'ościowy'
'ości'
'ończ'
'ozon'
'oxygen_'
'owy'
'owoce_'
'owo'
'owns_'
'ownik'
'ownic'
'own'
'owców_'
'owcz'
'owc'
'owań_'
'owało'
'owaniu_'
'overw'
'overlook'
'ova_'
'ova'
'outs'
'outline_'
'outcome_'
'our'
'otwarty'
'otu'
'otrzymasz_'
'otrzymania_'
'otrzyman'
'otok'
'oto_'
'oto'
'ote_'
'otaczając'
'oszuk'
'osuj'
'ostwa_'
'ostrzega'
'ostrożn'
'ostatnie'
'ostatni'
'ostat'
'osowa'
'osow'
'osobą_'
'osobowości_'
'osobo'
'osiągnięcie_'
'osiągnię'
'osis_'
'osh'
'osci_'
'osad'
'orze'
'oryginalny'
'orsz'
'orp'
'orowa'
'orn'
'orm'
'orial_'
'organizm'
'organizations_'
'organiczny'
'org'
'order'
'orange_'
'ora_'
'opłatą_'
'opłata_'
'opłacon'
'opóźnienia_'
'opuszcz'
'opublikował_'
'optional_'
'optical_'
'ops_'
'opracowan'
'oprac'
'opposition_'
'opponents_'
'opozycj'
'opor'
'opisan'
'opie'
'operational_'
'operacyjnych_'
'operacyjnego_'
'opatentowany_'
'opat'
'opartych_'
'opakowaniach_'
'opakowania_'
'opada'
'ook'
'onk'
'onin'
'onic'
'onia_'
'ond'
'onat_'
'onary_'
'onal_'
'onal'
'omm'
'omie'
'olw'
'olu'
'ols'
'ology_'
'olnieni'
'oll_'
'oles'
'oldest_'
'okrę'
'określenie_'
'określa'
'okre'
'okr'
'okoliczności_'
'oko_'
'okno_'
'okn'
'okienku_'
'okien_'
'oke'
'okaże_'
'okazani'
'ogłoszenie_'
'ogłoszenia_'
'ogóln'
'ogóle_'
'ogó'
'ogromną_'
'ogromny_'
'ogromne'
'ogrodu_'
'ograniczenie_'
'oglądani'
'ogl'
'ofiar_'
'offshore_'
'offline_'
'officially_'
'offen'
'oferowani'
'oferowa'
'odżywcz'
'odzyskać_'
'odzwierciedla'
'odzi'
'odzenie_'
'oduk'
'odtwarzacza_'
'odsz'
'odstąpieni'
'ods'
'odro'
'odpowiedzialny'
'odpowiedzialnością_'
'odpowiedni'
'odpowiadać_'
'odpowi'
'odporności'
'odpoczynku_'
'odpadów_'
'odp'
'odo'
'odnowiony_'
'odnoszące'
'odm'
'odli'
'odkąd_'
'odkrywa'
'odinstalowaniu_'
'odgrywa'
'odebra'
'oddz'
'oddan'
'oddalona_'
'odcink'
'odci'
'odblokowani'
'odbiorc'
'odbie'
'odbi'
'oda_'
'oczekuj'
'oczekiwa'
'ocz'
'ock_'
'ochronny'
'ochrona_'
'ocen_'
'ocen'
'occurr'
'occupation_'
'occup'
'occ'
'ocal'
'obywatele_'
'obwod'
'obviously_'
'obsługujący'
'obserwacj'
'observation'
'obrz'
'obrot'
'obowiązywać_'
'obowiązujące_'
'obow'
'obniży'
'obligations_'
'obliga'
'obliczu_'
'oblicze'
'objawieni'
'obj'
'obejrze'
'obejmując'
'obecnym_'
'obecność_'
'obecn'
'obcią'
'obal'
'nymi_'
'nutrition_'
'nut'
'num'
'ntów_'
'ntruj'
'ntia'
'nson_'
'nso'
'nse'
'nsa'
'nożn'
'nowymi_'
'nowości'
'nowoczesny_'
'nowoczesny'
'nowi'
'noticed_'
'notes_'
'nostyk'
'northern_'
'northe'
'normalna_'
'normally_'
'nop'
'non'
'nomina'
'nol'
'nogi_'
'nocn'
'nny_'
'nne_'
'nna_'
'nm'
'niższa_'
'niżej_'
'nięt'
'nię_'
'niska_'
'niow'
'nios'
'nione_'
'niniejszym_'
'niezgodn'
'niezbędn'
'niezawodn'
'niezap'
'niezależny'
'niezależności_'
'nieza'
'niewolni'
'niewi'
'niesi'
'nies_'
'nieroz'
'nierdzewnej_'
'niepr'
'niep'
'nieopodal_'
'nienia_'
'niena'
'niemożliwe_'
'niemieckim_'
'niemieckiej_'
'niemieckich_'
'nielegalny'
'nielegaln'
'niekorzystne'
'niek'
'niani'
'nian'
'ngi'
'nga'
'ney_'
'newly_'
'networks_'
'nett'
'nes'
'nerwow'
'nervous_'
'nerv'
'nera'
'neous_'
'nel'
'negocjowan'
'needle'
'nds_'
'ndr'
'ndi'
'ndar'
'nci'
'nce'
'nazywać_'
'nazwą_'
'nazwany_'
'nawiąza'
'nawi'
'navigation_'
'nauczyć_'
'nauczycieli_'
'naucz'
'natychmiastowe'
'natychmiast_'
'naturalny_'
'naturalnego_'
'natrafiłeś_'
'nationals_'
'nation'
'następujący'
'następstwa_'
'następny_'
'nastąpił'
'narz'
'narusza'
'nart'
'narrow'
'narodów_'
'narodzi'
'narod'
'naraż'
'naprawy_'
'napr'
'napojów_'
'napisan'
'napisa'
'nan_'
'namiot'
'nama'
'należący'
'należąc'
'należą_'
'nal_'
'nakłada'
'najwyższym_'
'najwyższy_'
'największy_'
'najwięcej_'
'najszybciej_'
'najs'
'najnow'
'najmu_'
'najmniejszy'
'najm'
'najlepszym_'
'nagrani'
'nagra'
'nagr'
'nadzwyczaj'
'nadzie'
'nadw'
'nacz'
'nacj'
'naci'
'nach'
'naby'
'młodzi'
'mądry'
'mózgu_'
'myśl'
'myself_'
'muzyk'
'muzyczny'
'muzyczne_'
'muzeum_'
'mut'
'museums_'
'mus'
'mundur'
'multitude_'
'multipl'
'multimedia_'
'mula'
'muc'
'mpl'
'mpi'
'możliwościa'
'możliwo'
'możliwie_'
'możecie_'
'movies_'
'movie_'
'move'
'mounting_'
'mounted_'
'mould'
'moty'
'motor'
'morskie_'
'moralności_'
'moon_'
'moo'
'monumental'
'monster'
'monitorowania_'
'monitor'
'modn'
'modli'
'modify_'
'modernizacj'
'modele_'
'mode'
'moda'
'moczu_'
'mocno_'
'mną_'
'mniejszy'
'mniejszości_'
'mniejsze'
'mlodych_'
'międzynarodowego_'
'międzynarodowe_'
'mistake'
'miss'
'minority_'
'minister_'
'mind'
'mina'
'mills_'
'milith_'
'mikrof'
'mikro'
'might'
'mig'
'mieszkańc'
'mieszkał_'
'mieszkani'
'miesza'
'miesz'
'miesięczn'
'miesiącach_'
'mierzy_'
'mieni'
'mieliśmy_'
'miejsk'
'mied'
'micrograms_'
'miał'
'mgr_'
'metry'
'metod_'
'metap'
'metaboli'
'merely_'
'mere'
'merc'
'mental'
'menta'
'mens'
'mee'
'medycznego_'
'medyczn'
'medycyn'
'medialny'
'mechanizm'
'mechanic'
'measurement_'
'meant_'
'mbu'
'mbi'
'małżonk'
'mało_'
'małej_'
'mała_'
'maybe_'
'mature_'
'matt_'
'mato'
'materiałow'
'matematyczn'
'maszyn_'
'masowej_'
'masow'
'masie_'
'masaż_'
'marz'
'marka_'
'maritime_'
'marin'
'margin'
'mara'
'manufacturing_'
'manu'
'manda'
'mamm'
'malownicz'
'male_'
'maksymalny_'
'maks'
'makers_'
'mający'
'mające_'
'maj_'
'maintain_'
'maintain'
'mah'
'magnetycznego_'
'magic_'
'magazynu_'
'magazyn'
'macierzy'
'machining_'
'machi'
'mPlease_'
'mA'
'lęk'
'lądzie_'
'lyc'
'luxurious_'
'lut_'
'lust'
'lung'
'lun'
'lud'
'lubię_'
'ltr'
'lte'
'lst'
'lp'
'lowest_'
'lowan'
'loves_'
'lovers_'
'love'
'lounge_'
'lotnisk_'
'lot'
'losure_'
'losow'
'lor'
'lop_'
'loop'
'loo'
'lony_'
'longe'
'long'
'lone'
'lom'
'lokalnymi_'
'lokalnym_'
'lokalnego_'
'lokalne_'
'lokaln'
'lokalizację_'
'loka'
'logical'
'lodowisk_'
'lodg'
'locker'
'locked_'
'lności'
'lni'
'lling_'
'ller_'
'lled_'
'lle_'
'lle'
'lić_'
'liwość_'
'liwości'
'liwie_'
'livecam_'
'litre'
'litewsko_'
'literature_'
'lita'
'listw'
'listopadzie_'
'listen'
'listed_'
'liquid'
'liny_'
'lining_'
'ling'
'linear_'
'lim'
'lights_'
'liga'
'lifi'
'lifestyle_'
'lider_'
'liczni'
'licz'
'licy'
'licencjo'
'lice'
'libyśmy_'
'liberation_'
'leża'
'leśne'
'lewej_'
'less'
'lery_'
'lem_'
'lem'
'lel'
'leka'
'legs_'
'legendarn'
'lecz'
'lect'
'lecie_'
'lecia_'
'lec'
'leads_'
'leaders_'
'ldn_'
'ld_'
'lcz'
'lay_'
'lavi'
'laureatem_'
'latz_'
'lator_'
'lation_'
'laptop'
'landscape'
'lands_'
'landia_'
'lamp_'
'laj'
'lai'
'laborat'
'labor_'
'label_'
'lab'
'kło'
'kąt_'
'kó'
'kwo'
'kwi'
'kwestię_'
'kwestie_'
'kwater'
'kwasu_'
'kwartał_'
'kuzyn'
'kupo'
'kulturowe'
'kulturalny'
'kultura_'
'kult'
'kuku'
'kuchen'
'ktyczn'
'ktu'
'ktor'
'kt_'
'kształt'
'kształcie_'
'księżniczk'
'książka_'
'książek_'
'kse'
'krótką_'
'krótko_'
'krótkie_'
'krótki'
'krzyż_'
'krzeseł'
'kryty'
'kryteriów_'
'kryształ'
'kru'
'krotn'
'kredytów_'
'kredyt'
'kreatyn'
'kościeln'
'kościele_'
'kości'
'kończy_'
'końcowym_'
'kołowe_'
'kowy'
'kota_'
'koszyku_'
'kosmetyki_'
'korzyś'
'korzysta'
'korzeni'
'koron'
'koral'
'koptyjski'
'kopark'
'konwencji_'
'kontrolę_'
'kontrolowan'
'kontroler'
'kontrakt'
'konte'
'konsumenc'
'konsultacji_'
'konsekwencje_'
'konsek'
'kons'
'konkursie_'
'konkurencyjny'
'konkurencyjności_'
'konkretnych_'
'konieczn'
'koni'
'kong'
'kondensacji_'
'koncerty_'
'koncepcji_'
'koncentrowa'
'koncentracj'
'konce'
'konał'
'kona'
'komuni'
'komputerow'
'komponent'
'komplikacj'
'kompletnie_'
'kompletn'
'kompleksowe'
'kompleksow'
'kompetencje_'
'komite'
'komisja_'
'komisarzu_'
'komin'
'komi'
'komfort_'
'kombinacj'
'kolumn'
'kolorów_'
'kolorowe_'
'koli'
'kolekcja_'
'kolejowy'
'kolejną_'
'kolejnych_'
'kolejne'
'kole'
'kolan'
'kok'
'kogo'
'kod'
'kne'
'kma'
'kluczow'
'klimatyzowane_'
'klimatycznych_'
'klimatyczn'
'klimat_'
'klik'
'klien'
'klej'
'klasztor'
'kit'
'kins_'
'kind'
'kina_'
'kim'
'kill'
'kilku'
'kilkoma_'
'kierowcy_'
'kierowani'
'kieli'
'kiel'
'keyword_'
'keyboard_'
'key'
'ket'
'kers_'
'ken_'
'kel_'
'kcje_'
'kcie_'
'każdemu_'
'kawi'
'kawał'
'kauc'
'katolic'
'katamaran'
'katalogow'
'katalogach_'
'kasyna_'
'kary_'
'karto'
'karta'
'kart_'
'kart'
'karier'
'kar_'
'kapłanów_'
'kapcie_'
'kani'
'kanał'
'kanap'
'kamie'
'kam'
'kabla_'
'kabel_'
'kW'
'języki'
'jądrowej_'
'jące'
'jus'
'jur'
'jun'
'jump'
'jug'
'jub'
'jsze'
'jski'
'joy'
'jowe'
'jom'
'jol'
'job'
'jnych_'
'jni'
'jne'
'jmy_'
'jk_'
'jen'
'jem_'
'jednoznaczn'
'jednostk'
'jednolite'
'jednoczesn'
'jed'
'ject'
'jec'
'jealousy_'
'jcie_'
'jci'
'jazz'
'jarzm'
'japoński_'
'jan_'
'jami'
'jal'
'jakie'
'jak'
'jack_'
'jachtu_'
'jabł'
'iść_'
'iński'
'ięk'
'iąz'
'iwał'
'iwa'
'ive'
'ition'
'ite'
'isz'
'istów_'
'ists_'
'istoty_'
'istotna_'
'istot_'
'istot'
'istniejąc'
'iss'
'ison'
'isolated_'
'isla'
'ising_'
'ised_'
'ise'
'iry'
'irre'
'iron_'
'irlandzki'
'ira_'
'iq_'
'ipt_'
'ipa'
'iot'
'ior_'
'iony_'
'iona_'
'inwest'
'involvement_'
'invo'
'invites_'
'invited_'
'inventor'
'inve'
'intuitive_'
'introduction_'
'intra'
'intr'
'inth'
'interrupt'
'internetową_'
'internetow'
'internecie_'
'intermediate_'
'interco'
'intention'
'intensity_'
'intense_'
'intens'
'inteligentnych_'
'intelektualne'
'intel'
'integrity_'
'integral'
'instytucjonalny'
'instytucjonalne'
'instrumentów_'
'instrukcje_'
'instruction_'
'instant_'
'instan'
'install'
'instalacja_'
'inspiration_'
'insight_'
'insert_'
'inse'
'innovations_'
'inno'
'initiate_'
'initial'
'init'
'inicj'
'inher'
'ington_'
'ingredients_'
'ingly_'
'infrastruktur'
'infrared'
'informuje'
'informal_'
'infected_'
'indu'
'indigenous_'
'indicators_'
'indic'
'incredible_'
'incl_'
'inches_'
'inca'
'inat'
'inan'
'inal'
'ims'
'impuls'
'impos'
'impli'
'implement'
'immigrants_'
'immigra'
'imi'
'ime_'
'imagine_'
'imagin'
'ils_'
'illus'
'iliśmy_'
'ilit'
'ilan'
'iko'
'ija'
'ih'
'igu'
'ignor'
'igi'
'iga'
'ig_'
'iful'
'ification_'
'ifi'
'ieta_'
'ierdz'
'ient_'
'ient'
'ienie_'
'iene'
'iek_'
'iejszy'
'ied'
'iecze'
'ieck'
'ido'
'identyfik'
'identity_'
'identi'
'ident'
'ideal'
'ictw'
'icon'
'ico'
'ick'
'icj'
'icit'
'icie'
'ici'
'ices_'
'ibis_'
'iati'
'ians_'
'iane'
'iami_'
'ial'
'iag'
'iS'
'iPad_'
'hygiene_'
'hydrop'
'hydro'
'humanity_'
'humanitarnej_'
'hua'
'htm_'
'hs_'
'hre'
'how'
'hotelowa_'
'hosted_'
'horse'
'horizontal'
'horiz'
'hor_'
'hook_'
'homes_'
'home'
'homa'
'hom'
'hof_'
'hiszpański'
'hiszpańsk'
'historyczne'
'historyczn'
'historia_'
'hion'
'hikersbay_'
'highlighted_'
'hid'
'hic'
'hibi'
'hes'
'herbata_'
'hemo'
'hem'
'help'
'helm'
'heli'
'heim_'
'heart'
'healing_'
'heading_'
'hazardo'
'hazard_'
'hausen_'
'haus'
'harmony_'
'hardly_'
'hang'
'handy_'
'hands_'
'handlowego_'
'handles_'
'handicap'
'handba'
'ham_'
'hals'
'hala'
'hak'
'habit_'
'głębsz'
'głęboko'
'głęboki'
'główn'
'głośno_'
'głow'
'głosa'
'głos'
'gą'
'góry_'
'gór'
'gz'
'gy'
'gwint'
'gwarantuje_'
'gwarantowan'
'gust'
'gus'
'gun_'
'gula'
'guitar_'
'guides_'
'guided_'
'gua'
'gste'
'grę_'
'grzechy_'
'grubości_'
'grounds_'
'gron'
'grecki'
'grateful'
'gras'
'graphs_'
'grant_'
'granny_'
'granicę_'
'graniczn'
'granice_'
'gran'
'gramofon'
'graficzny'
'graf'
'gradual'
'gracze_'
'gracz'
'grach_'
'grace_'
'grac'
'gość'
'goł'
'gotowania_'
'gotow'
'gospodarstwa_'
'gospodarstw_'
'gospodarkę_'
'gospodarczą_'
'gospel_'
'gorze'
'gorski_'
'goo'
'golenie_'
'godzinna_'
'godne_'
'gniazd'
'gnac'
'gm'
'glut'
'glory_'
'globaliza'
'gliny_'
'gis'
'gie'
'ghts_'
'ggi'
'gg'
'gett'
'geograph'
'geno'
'generating_'
'generate'
'genera'
'gdybyśmy_'
'gałęzi_'
'gał'
'gazo'
'gaz_'
'gaz'
'gastronomi'
'gap_'
'gap'
'game'
'gambling_'
'gali_'
'galeria_'
'galeri'
'gaine'
'fus'
'furn'
'funt'
'funkcjonuj'
'fundamental'
'fulfill_'
'fulfil'
'ful'
'fs_'
'fren'
'freezer_'
'freez'
'frees'
'francuskiej_'
'francusk'
'fragran'
'fragment_'
'foundation_'
'fotografie_'
'fotografia_'
'fotograf'
'fossil_'
'forthcoming_'
'forth_'
'formowania_'
'formalne'
'forecastsClimateMarine_'
'folk'
'focused_'
'fo_'
'floral_'
'floo'
'flexibility_'
'flakes_'
'fizyczne'
'fiz'
'fisher'
'firmly_'
'firm'
'fires_'
'finger'
'finansowego_'
'finansow'
'filters_'
'filozofii_'
'filmow'
'filling_'
'filled_'
'fikowa'
'fikacj'
'fik'
'figur'
'fications_'
'fiber_'
'ffo'
'festiwalu_'
'festivals_'
'fes'
'fer_'
'fences_'
'fence'
'fel'
'fed'
'fea'
'fałszywi'
'fałsz'
'faz'
'favourite_'
'favourable_'
'favour'
'favor'
'fate'
'fas'
'farmaceuty'
'fanów_'
'fantastyczn'
'fam'
'faktów_'
'fakt_'
'fakt'
'factory_'
'facility_'
'facilitate_'
'facesitting_'
'faces_'
'fabry'
'fabric_'
'eż'
'eńsk'
'eł_'
'eze'
'ey'
'extract_'
'extent_'
'extending_'
'extend_'
'expose_'
'explanation_'
'expanding_'
'expand_'
'exhibit'
'exercising_'
'excess'
'exception_'
'examination_'
'exam_'
'ewsk'
'ewne_'
'evangelical_'
'eus_'
'etu'
'ette_'
'etniczny'
'etn'
'etk'
'ethe'
'eszk'
'esti'
'ester_'
'essa'
'esk'
'esie_'
'esh'
'ese_'
'escape_'
'esca'
'esa'
'erz_'
'erti'
'ero_'
'erm'
'erland_'
'erinar'
'erga'
'erg'
'erf'
'ered_'
'erb'
'erat'
'equity_'
'equip'
'equ'
'ept'
'eon_'
'enza_'
'environments_'
'environmentally_'
'envi'
'entu'
'entities_'
'enterprise_'
'entering_'
'ente'
'ensuring_'
'ensures_'
'eno'
'enni'
'enlarge'
'enk'
'enica_'
'enhance_'
'engines_'
'engagement_'
'energi'
'energetyki_'
'energetycznych_'
'ends_'
'endorse_'
'endo'
'ency_'
'encourage'
'encji_'
'encj'
'enci_'
'enact'
'enabling_'
'employers_'
'employed_'
'emphasize_'
'emphasi'
'emon'
'emit'
'em'
'elop'
'elliptical_'
'elk'
'elite_'
'eliminate_'
'eliminat'
'elev'
'elektryczne_'
'elektroniczną_'
'elektronicznej_'
'eleganckim_'
'electro'
'electricity_'
'elect'
'ele_'
'elastyczność_'
'elastyczn'
'elast'
'elac'
'ekspert'
'ekspe'
'ekonomicznym_'
'ekonomiczny'
'ekonomicznej_'
'ekologicznych_'
'ekologiczne'
'eke'
'eka_'
'ek'
'eh'
'egz'
'ego'
'effect'
'efektów_'
'efektywność_'
'efektywnie_'
'efektywne_'
'efe'
'ef'
'ee_'
'edź_'
'edycji_'
'edy'
'edukacyjn'
'edukacja_'
'edli'
'edit'
'edia'
'eded_'
'ede'
'eczk'
'ecze'
'ecut'
'ection_'
'ecti'
'echo_'
'echa'
'ecess'
'ebr'
'ebi'
'eate'
'ease_'
'earne'
'ear_'
'eal'
'ea_'
'eP'
'eI'
'dżer'
'dż'
'dłuż'
'długie'
'dło'
'dzą_'
'dzię'
'dzisiejszych_'
'dzieł'
'dziewcz'
'dziesię'
'dziennik'
'dzieli'
'działania'
'działalność_'
'dzeni'
'dzan'
'dywan'
'dystrybucj'
'dystrybu'
'dystans'
'dysków_'
'dyskusji_'
'dysku_'
'dyskrymin'
'dyrektor'
'dynamik'
'dynamiczne_'
'dynamic'
'dykt'
'dye'
'dycj'
'dwuosobowy_'
'dwudziestu_'
'dwor'
'dwell'
'duvet_'
'duszy_'
'dusz'
'dust_'
'duc'
'dub'
'dst'
'ds'
'drukowanie_'
'drukark'
'dru'
'drow'
'drought_'
'drops_'
'drogowy'
'drogowego_'
'drobny'
'drives_'
'drin'
'drewno_'
'drewniana_'
'drewna_'
'dressed_'
'dress'
'dreams_'
'draw'
'drain'
'dragon'
'dp'
'dozwolon'
'doz'
'dowód_'
'dowoln'
'downtown_'
'dowiedział'
'doub'
'dou'
'dotyczącym_'
'dotychczasowe'
'dotknięty'
'dotkn'
'dotar'
'dostrzega'
'dostać_'
'dostawę_'
'dostawcą_'
'dostawa_'
'dostarczani'
'dostarcza'
'dostan'
'dost'
'doskonały_'
'doskonała_'
'dorosł'
'dor_'
'dopłatą_'
'dopuszczalne'
'doprowadzi'
'dopasowa'
'donation'
'domowego_'
'dominat'
'domen'
'domek_'
'domains_'
'dollars_'
'dokładniej_'
'dokładnej_'
'doktryn'
'dokonywani'
'dokonuje_'
'dokon'
'dojść_'
'dojście_'
'dodatkową_'
'dodatk'
'document'
'dock_'
'doci'
'dochodzi_'
'doch'
'dobrowoln'
'doba'
'dnie_'
'dnic'
'dna_'
'dli'
'dlcie_'
'dl'
'divine_'
'diversif'
'dive'
'diu'
'distribute_'
'distortions_'
'displa'
'dispe'
'discrimination_'
'discriminat'
'discovered_'
'discover_'
'discounts_'
'discount_'
'disclose_'
'director'
'dim'
'dig'
'difficulty_'
'differences_'
'diet'
'dier'
'die'
'dictat'
'diame'
'dialysis_'
'dialog_'
'dial_'
'diagnozy_'
'dia_'
'dh'
'dge'
'df'
'dev'
'determines_'
'detection_'
'detal'
'destroyed_'
'dest'
'despair_'
'desp'
'designat'
'describ'
'derived_'
'dered_'
'depozyt_'
'deposit'
'deport'
'dependent_'
'departure_'
'departament_'
'depart'
'dep'
'dens'
'demon'
'demokratyczn'
'demokra'
'demi'
'demand'
'delight_'
'delfina'
'delegation_'
'delay'
'del_'
'dekoracji_'
'deklaracj'
'degrada'
'definicja_'
'defini'
'defic'
'defens'
'defence_'
'def'
'deep'
'decydują'
'decydowani'
'decy'
'decre'
'decorati'
'decor'
'declared_'
'declare_'
'decisions_'
'decent_'
'debat_'
'deadl'
'dden'
'dde'
'dc'
'dba'
'dawne'
'dawna_'
'dau'
'das'
'darkness_'
'dare'
'danym_'
'danie_'
'danc'
'dan_'
'dalsz'
'dala'
'dają'
'córka_'
'człowiekowi_'
'częściowo_'
'częściach_'
'czył'
'czyć_'
'czytelnym_'
'czwartej_'
'czwarta_'
'czuć_'
'czuję_'
'czujnika'
'czujnik'
'czołg'
'czon'
'czo'
'cznym_'
'cznej_'
'czn'
'czlo'
'czesne'
'czeskim_'
'czerwony'
'czem'
'czekoladki_'
'czekać_'
'czeka_'
'czeka'
'czej_'
'czeg'
'czci'
'czatu_'
'czasowe_'
'czarnej_'
'czar'
'czan'
'cywiln'
'cyn'
'cykl_'
'cyjną_'
'cyjne_'
'cyfrowych_'
'cus'
'cup'
'cum'
'cukier'
'cud'
'cuc'
'cub'
'cu_'
'ctur'
'ctor_'
'ctiv'
'ctions_'
'crops_'
'credit'
'credibility_'
'crash'
'cowan'
'covering_'
'covenant_'
'corre'
'corp'
'corn'
'copter_'
'cool'
'converter'
'convenien'
'contrast_'
'contrary_'
'contract'
'continuous_'
'continuat'
'continually_'
'contest'
'conte'
'contained_'
'contacts_'
'constitut'
'constant_'
'console_'
'consistent'
'consisted_'
'conque'
'connections_'
'confus'
'confrontation_'
'confront'
'configurator_'
'confess'
'conducting_'
'conduct_'
'conditional'
'condemn'
'concerts_'
'concert_'
'conce'
'compre'
'comple'
'compl'
'competit'
'compete'
'compartment_'
'comparing_'
'compa'
'communicate_'
'commission_'
'commerce_'
'coloni'
'collecting_'
'collect'
'col'
'cohesion_'
'coe'
'codzienn'
'coating'
'coastal_'
'coal'
'cloth'
'closure'
'closes'
'closer_'
'closely_'
'clo'
'clear'
'classi'
'clarity_'
'cks_'
'cj'
'ciśnieni'
'ciągni'
'circulation_'
'circle'
'cil'
'cieszy'
'cierpią'
'cierpienie_'
'ciepl'
'ciemności_'
'ciekłych_'
'ciekaw'
'cide'
'ciast'
'ciar'
'cian'
'cial_'
'chłodzenia_'
'chó'
'chyba_'
'chwał'
'cht'
'chrześcijan_'
'chrześcija'
'chrz'
'chronic_'
'chron'
'chrom'
'chorobę_'
'chorob'
'choices_'
'chodzą'
'chodz'
'chn'
'chirurg'
'chin'
'chic'
'chi_'
'cher_'
'cher'
'cheek_'
'chee'
'chcieli_'
'chać_'
'charakteryzuj'
'charakterystyk'
'charakteru_'
'characters_'
'chao'
'channels_'
'chani'
'chal'
'cha_'
'ces'
'ceremoni'
'ceramiczn'
'centralnym_'
'centralne'
'ceni'
'cenach_'
'cell_'
'celebrate_'
'cego_'
'cech_'
'cebuli_'
'cea'
'cało'
'całkowite'
'całkiem_'
'cave_'
'caught_'
'cats_'
'cator_'
'cate'
'catch'
'cast_'
'cast'
'cass'
'cartoon'
'carrier_'
'cargo_'
'careful_'
'cardio'
'cardboard_'
'cara'
'capabilities_'
'candidates_'
'camps_'
'camping_'
'came'
'calories_'
'calibration_'
'cala_'
'caffe_'
'caf'
'cables_'
'cFos_'
'błędne_'
'błęd'
'błot'
'błon'
'bą_'
'byłem_'
'bywa'
'byt'
'bycie_'
'bute'
'busy_'
'burs'
'burns_'
'burning_'
'burn'
'buri'
'bula'
'budżet_'
'budzi_'
'budz'
'budynków_'
'budynek_'
'buduj'
'budownictw'
'budowlanych_'
'budowlan'
'budowan'
'bs_'
'brzusznej_'
'brzeg'
'brytyjskie'
'browsing_'
'browse'
'brown_'
'broni_'
'broad_'
'bright'
'brid'
'brick'
'breathe'
'breast_'
'brea'
'bre'
'bratem_'
'branżow'
'branż'
'bransolet'
'bran'
'bram'
'braci_'
'bouquets_'
'bore'
'bone'
'bombe'
'bomb'
'boj'
'bohaterów_'
'bohater'
'bogat'
'bod'
'bn_'
'blu'
'blonde_'
'blogger_'
'blizn_'
'blis'
'blessed_'
'blend'
'blach'
'biurow'
'biur'
'bitw'
'bits_'
'bitow'
'biskup'
'bishop'
'birthday_'
'birds_'
'bird_'
'bior'
'biop'
'bill_'
'bilet'
'bile'
'bila'
'bil'
'bieżący'
'bieżąco_'
'bieżące_'
'bielizna_'
'bid'
'bibliotek'
'bib'
'białek_'
'bezrobo'
'bezpo'
'bezb'
'betonow'
'beton'
'bet'
'beside_'
'beloved_'
'belong_'
'believe'
'beliefs_'
'belgijski'
'begun_'
'beginners_'
'bed'
'beat'
'bear'
'bby_'
'bazow'
'baterii_'
'basket_'
'basenu_'
'basenem_'
'barwi'
'barn_'
'bare'
'baran'
'band'
'bam'
'balconies_'
'baj'
'baggage_'
'bagaż'
'backe'
'back'
'babe_'
'aża'
'aśni'
'ański_'
'ały'
'ałe_'
'azd'
'aza'
'awic'
'awi'
'awari'
'awan'
'awa_'
'awa'
'avoid'
'avi'
'autumn_'
'autostrad'
'autor_'
'automo'
'automation_'
'autobusowego_'
'authority_'
'authoris'
'auditing_'
'audio'
'audience_'
'aud'
'atyczn'
'aty_'
'atur'
'atu_'
'attract'
'attached_'
'attach_'
'atta'
'atri'
'atrament'
'atow'
'ato_'
'atn'
'atmosferyczny_'
'atmosfer'
'athi'
'assure_'
'asset_'
'assert'
'assembly_'
'asse'
'asow'
'arz_'
'aru_'
'artystycznej_'
'artykułów_'
'artykuł_'
'ars_'
'ars'
'arrow_'
'arro'
'arre'
'arra'
'arn'
'arma'
'ark'
'arity_'
'argument_'
'argument'
'arg'
'aresz'
'arci'
'archiwa'
'archives_'
'architekturze_'
'architektury_'
'arch'
'arat'
'aran'
'apt'
'approved_'
'approaches_'
'applying_'
'appliances_'
'apost'
'aplikacja_'
'apart_'
'aparat'
'apa'
'ao_'
'anyw'
'anybody_'
'anxiety_'
'antywirusowy_'
'anto'
'antioxidant_'
'antib'
'ante_'
'ante'
'anowi'
'announcement_'
'ankiet'
'angielsko_'
'angielski'
'angi'
'anga'
'ang'
'anda_'
'ample_'
'amounted_'
'amm'
'amino_'
'amin'
'amerykański'
'ameryka'
'ambitne'
'ambicj'
'amatorki_'
'aluminiow'
'alternat'
'alną_'
'aln'
'alloy_'
'allowa'
'alli'
'alkoholu_'
'alive_'
'alergikom_'
'alergi'
'aler'
'alcoholic_'
'alb'
'alarmow'
'alarm'
'akumulator_'
'aktywnych_'
'aktywność_'
'aktywne'
'aktyczn'
'aktualne'
'akt'
'akcj'
'akcesoriów_'
'akceptujesz_'
'akceptuje_'
'akc'
'ających_'
'ais'
'aircraft_'
'aine'
'ail'
'ah_'
'agriculture_'
'agoni'
'ago'
'aging_'
'agi'
'afraid_'
'afr'
'affi'
'adzi'
'adza'
'adz'
'advisor_'
'advertisement_'
'advertised_'
'advent'
'advantage'
'adv'
'aduj'
'adres'
'adque_'
'adni'
'administracyjnych_'
'administra'
'adia_'
'adding_'
'adan'
'acyjne_'
'acti'
'acte'
'act'
'acryl'
'acquire'
'acquaint'
'aco'
'ack_'
'acids_'
'achi'
'accus'
'academic_'
'abstract_'
'absolutorium_'
'abs'
'abortion_'
'abonamentu_'
'ably_'
'ables_'
'abe'
'aba'
'aa'
'\u'
'Zwycięzca'
'Zwierzęta_'
'Zwie'
'Zró'
'Zone'
'Znak'
'Znajduje_'
'Zmie'
'Zmian'
'ZjednoczoneSzerokość_'
'Zigiz_'
'Ziemi'
'Ziel'
'Zh'
'Zgromadzenia_'
'Zestaw_'
'Zes'
'Zer'
'Zen'
'Zegar'
'Zdob'
'Zdecydowa'
'Zbi'
'Zb'
'Założ'
'Zawi'
'Zau'
'Zat'
'Zastosowanie_'
'Zarząd_'
'Zarz'
'Zarejestruj_'
'Zapytaj_'
'Zapo'
'Zamknij_'
'Zalecamy_'
'Zain'
'Zagł'
'ZI'
'ZE'
'Z30752_'
'Young_'
'Yatak_'
'Yalıköy_'
'YER'
'Y2'
'Xe'
'Xa'
'XXI_'
'XN'
'XLR_'
'Wśród_'
'Włoch_'
'Władysław'
'Wł'
'Wyświetl_'
'Wystawa_'
'Wysok'
'Wyr'
'Wypróbuj_'
'Wynajem_'
'Wykorzyst'
'Wykonan'
'Wygląd_'
'Wyci'
'Wyc'
'Wyb'
'Wszechmo'
'Wszech'
'Wspóln'
'Wspaniał'
'Wrocław'
'Wroclaw_'
'Written_'
'Wra'
'World'
'Working_'
'Woods'
'Wolności_'
'Wollzeile_'
'Wolf_'
'Wol'
'Wojciech_'
'Without_'
'Winner_'
'Winda_'
'Willi'
'Will_'
'Will'
'Wild'
'Wierzę_'
'Wielko'
'Wielki_'
'Wielkanoc'
'Wielk'
'Wieczn'
'Widok_'
'Widget'
'Wide'
'Wic'
'Wia'
'Who_'
'Wheel_'
'WhatsApp'
'Wha'
'Westminster_'
'Wen'
'Weihburggasse_'
'Weg'
'Weekend_'
'Wedding_'
'Websites_'
'Wea'
'Way'
'Water'
'Wartość_'
'Warsztat'
'Warsz'
'Walki'
'WYPOSAŻENIE_'
'WIE'
'WEINIG_'
'Vysok'
'Vs_'
'Vranjica_'
'Volvo_'
'Volu'
'VoIP_'
'Visits_'
'Visa_'
'Vis_'
'Vila_'
'View'
'Videos_'
'Vic'
'Vet'
'Vertical_'
'Vers'
'Verd'
'Vera'
'Vent'
'Varna_'
'Var'
'Valid_'
'Valencia_'
'VT'
'VR_'
'VPN_'
'VD'
'Używa'
'Uważa'
'Usu'
'Urodziny_'
'Uroczy'
'Uro'
'Urban'
'Urantia_'
'Upornia_'
'Update'
'Unię_'
'Unią_'
'Uniwersytecie_'
'Universe_'
'Universal_'
'Unique'
'Una'
'Umi'
'Ultimate_'
'Ultim'
'Uj'
'Udostępnij_'
'Udostępnianie_'
'Ud'
'Ucz'
'Uc'
'Ubierz_'
'UD'
'UC'
'Tę'
'Tytuł_'
'Tyr'
'Tymczasem_'
'Tworzy'
'Turn_'
'Tunisia_'
'Tul'
'Tuchlauben_'
'Tube_'
'Tu_'
'Trój'
'Trzeci_'
'Tryskanie_'
'Try_'
'Trus'
'Trou'
'Trojan_'
'Trojan'
'Tro'
'Triple_'
'Trip_'
'Trial_'
'Tree_'
'Treat'
'Treasure'
'Translator_'
'Traktat'
'Trading_'
'Track'
'Tr'
'Towarzys'
'Tow'
'Torre'
'Top'
'Tol'
'Together_'
'Tobą_'
'Tips_'
'Timken_'
'Times_'
'Time'
'Thunder_'
'Thu'
'Thou_'
'Thing_'
'Thes'
'Tha'
'Term'
'Teren'
'Tempeh_'
'Temp'
'Telegram_'
'Technologia_'
'Technic'
'Techni'
'Teatr_'
'Tau'
'Tat'
'Tanzania_'
'Tanks_'
'Talk'
'Tal'
'Taj'
'Taizé_'
'TVS_'
'TVP_'
'TU'
'TS'
'TRA'
'TOS'
'TOR'
'TN'
'TIN'
'TF'
'TE_'
'TD'
'TAR'
'T2'
'Słowo_'
'Słowa_'
'Słow'
'Sztuka_'
'Sztuk_'
'Szkole'
'Szczegółow'
'Sym'
'Swing'
'Swi'
'Swe'
'Sve'
'Sv'
'Suszarka_'
'Sustainable_'
'Supervis'
'Sunda'
'Summ'
'Sulawesi_'
'Suitable_'
'Sudoku'
'Such_'
'Stąd_'
'Style_'
'Styczeń_'
'Studios_'
'Strategia_'
'Strait_'
'Storage_'
'Stero'
'Step_'
'Stay'
'Statystyczn'
'Stateslatitude_'
'Start'
'Stara'
'StarC'
'Stanis'
'Stadium_'
'Stacja_'
'Stability_'
'Sri_'
'Spółki_'
'Spring'
'Społeczne'
'Społeczn'
'Spider_'
'Specyfikacja_'
'Specialist_'
'Speci'
'Speak'
'Spa_'
'Sp'
'Sound'
'Sort_'
'Solved_'
'Solar'
'Sofitel_'
'SofaScore_'
'Socjalistów_'
'Sob'
'Sněžkou_'
'Snow_'
'Smi'
'Smart'
'Sm'
'Sloven'
'Sloup_'
'Slim'
'Sla'
'Skład_'
'Sky'
'Skontaktuj_'
'Sko'
'Sklepy_'
'Skanska_'
'Skal'
'Ska'
'Sił'
'Six_'
'Simply_'
'Sim'
'Silver_'
'Signs_'
'Sign'
'Sieć_'
'Siedziba_'
'Side_'
'Showing_'
'Short_'
'Shops_'
'Shir'
'Shema'
'Shell'
'SheShaft_'
'Shang'
'Sham'
'Sex'
'Sewilla_'
'Seven'
'Set_'
'Serif_'
'Sera'
'Sena'
'Sejf_'
'Seget_'
'Seeds_'
'Scr'
'Scienti'
'Schools_'
'Scene_'
'Scandi'
'Sav'
'Saudyjska_'
'Satur'
'Sap'
'Sant'
'Sankt_'
'Sang'
'Sam_'
'Salzburg'
'Salon'
'Salomon'
'Sak'
'Sab'
'SW'
'STRON'
'STE'
'SQL_'
'SPI'
'SPA'
'SJ'
'SIM_'
'SHA'
'SG'
'SE81_'
'SB_'
'SAS_'
'SAN_'
'S19_'
'S1'
'Róż'
'Río_'
'Rzymie_'
'Rzek'
'Rysun'
'Ruth'
'Rus'
'Runner_'
'Rumunia_'
'Rule_'
'Rub'
'Rozwi'
'Rost'
'Roo'
'Roman_'
'Roll'
'Rog'
'Rodzin'
'Rodos_'
'Rocznica_'
'Roa'
'Riviera_'
'River_'
'Riv'
'Right_'
'Rich'
'Rib'
'Riad_'
'Rezerwacj'
'Rey'
'Rewolucyjne_'
'Revolution_'
'Returns_'
'Response_'
'Resorts_'
'Residence_'
'Republic'
'Replacement_'
'Rema'
'Relations_'
'Relacje_'
'Rel'
'Reklamowe_'
'Regulations_'
'Regulaminu_'
'Regionalnego_'
'Regi'
'Reference_'
'Ref_'
'Ref'
'Recon'
'Recenzje_'
'Realizujemy_'
'Reading_'
'Rea'
'Rau'
'Ratings_'
'Rast'
'Ras'
'Rapid'
'Range_'
'Rama'
'Ram'
'Rally_'
'Rak'
'Raj'
'Radę_'
'Race'
'RV'
'RN_'
'RL'
'RG'
'RE_'
'RES'
'RCM_'
'RAN'
'RAM_'
'RAL'
'RAD_'
'R2_'
'Quick'
'Quechua_'
'Quartet_'
'Qualif'
'Qual'
'Qua'
'Płas'
'Północne'
'Pó'
'Put'
'Purp'
'Puppy_'
'Pump'
'Publish'
'Publikacja_'
'Psych'
'Ps'
'Przykłady_'
'Przykładowo_'
'Przyjazny_'
'Przyjaciele_'
'Przyc'
'Przy_'
'Przetłumacz_'
'Przestrzeń_'
'Przepi'
'Przegląda'
'Przedstawiciel'
'Przede_'
'Pry'
'Prus'
'Prowadz'
'Provinc'
'Provi'
'Protein_'
'Prote'
'Prosimy_'
'Prom'
'Prognoza_'
'Proficiency_'
'Profesjonaln'
'Profesjonalista_'
'Procent_'
'Princip'
'Prince_'
'Prime_'
'Prie'
'Prev'
'Premier'
'Precyzyjne_'
'Prayer_'
'Prawnej_'
'Praw'
'Pralnia_'
'Praga_'
'Połączyć_'
'Pozy'
'Poznan'
'Poznaj_'
'Powinniśmy_'
'Powin'
'Powi'
'Powerball_'
'Potw'
'Posiada'
'Porz'
'Portal_'
'Porta'
'Porsche_'
'Poprzedni'
'Popraw'
'Pope_'
'Pont'
'Poni'
'Pomorskie_'
'Pomiary_'
'Polskiego_'
'Poles_'
'Polecane_'
'Pola'
'Poker'
'Pojedynczy_'
'Pog'
'Podłącz'
'Podstawow'
'Pocz'
'Poc'
'Pobiera'
'Plant_'
'Plane'
'Places_'
'Pił'
'Pięknych_'
'Piękne_'
'Pio'
'Pierwszy_'
'Pierwsze_'
'Pierw'
'Piano_'
'Photo'
'Pho'
'Philips_'
'Pharma'
'Pha'
'Peru_'
'Pert'
'Pent'
'Pekin'
'Pecka_'
'Pea'
'Paul'
'Patr'
'Patio_'
'Pass_'
'Paryż_'
'Pary'
'Partnership_'
'Parlamentowi_'
'Parad'
'Panthe'
'Pane'
'Pamiętaj_'
'Pam'
'Palm_'
'Palais_'
'Pai'
'Pages_'
'Pag_'
'Packaging_'
'PY'
'PVM_'
'PVC_'
'PRO_'
'PRE'
'PP_'
'PPE_'
'PM'
'PKP_'
'PHP_'
'PAS'
'PAN_'
'Over_'
'Outlook_'
'Ostrze_'
'Ostr'
'Osta'
'Osobiście_'
'Osob'
'Osi'
'Oscar_'
'Orlando_'
'Orl'
'Originally_'
'Original_'
'Orienta'
'Ori'
'Order_'
'Orb'
'Ora'
'Opublikowany_'
'Optim'
'Oprócz_'
'Oppo'
'Opini'
'Operation'
'Operacyjnego_'
'Opel_'
'Ombudsman_'
'Oma'
'Ole'
'Ojc'
'Oh'
'Ofer'
'Oem_'
'Odpowiedz_'
'Odpo'
'Odkrywaj_'
'Odbi'
'Octa'
'Occupation_'
'Occu'
'Obraz_'
'Obraz'
'Oba'
'OV'
'ORT'
'OPIS_'
'OCEB_'
'Nowo'
'Noval'
'Notice_'
'Nota_'
'Norwegian_'
'Norte_'
'Noc'
'Nis'
'Nil'
'Nike_'
'Niezależn'
'Niewi'
'Niektórzy_'
'Niego_'
'Ni_'
'Newspaper'
'New'
'Nev'
'Neus'
'Nettom_'
'Nendaz_'
'Neg'
'Nec'
'Near_'
'Nazi_'
'Naukowy'
'Nauka_'
'Nauk'
'Nauczyciel'
'Nauczanie_'
'Natura_'
'Natur'
'Nations_'
'Nation'
'Następny_'
'Następ'
'Nasi_'
'Nas_'
'Narodów_'
'Narodzeni'
'Nano'
'Najwyższy_'
'Najnowsza_'
'Nagaz24_'
'NZ_'
'NV'
'NP_'
'NOW_'
'NE_'
'NBP_'
'NASDAQ_'
'N2_'
'Mę'
'Mą'
'Myśl'
'Muslims_'
'Multiple_'
'Multi'
'Mul'
'Much_'
'Mołdawii_'
'Motors'
'Motorola_'
'Motor'
'Motel_'
'Moskw'
'Morza_'
'Mori'
'Moreover_'
'Mora'
'Monthly_'
'Monte'
'Mongolia_'
'Mona'
'Mon'
'Moli'
'Mojżesz'
'Moja_'
'Mog'
'Moduł_'
'Modelingu_'
'Mnie'
'Międzynarodow'
'Mix'
'Mitsubishi_'
'Mist'
'Missi'
'Miscellanea_'
'Mis'
'Mira'
'Minimaln'
'Mini'
'Mim'
'Millennium_'
'Military_'
'Milion_'
'Mila'
'Mil'
'Mike_'
'Mik'
'Miguel_'
'Mieszka'
'Mied'
'Mie'
'Michel_'
'Michał_'
'Michal'
'Mich'
'Mexican_'
'Method'
'Meteosat_'
'Met'
'Messaging_'
'Message_'
'Mess'
'Mek'
'Meet_'
'Medium_'
'Mediolan'
'McGaughey_'
'McAlester_'
'Małe_'
'Maxim'
'Mauri'
'Mau'
'Matte'
'Matt'
'Matk'
'Mate'
'Maszyn'
'Master'
'Marzec_'
'Marr'
'Marl'
'Marit'
'Maris'
'Marine_'
'Marco_'
'Marc'
'Marble_'
'Maraton_'
'Mapy_'
'Manufacturing_'
'Mant'
'Manchester_'
'Mam'
'Maksymaln'
'Make'
'Mahjong_'
'Madry'
'Mace'
'MOTO'
'MOD'
'MI_'
'MIK'
'ME_'
'MENT'
'MEN'
'MED_'
'MB'
'MAR'
'Lut'
'Lust_'
'Lusatian_'
'Lun'
'Lumia_'
'Luksusowy_'
'Luksembur'
'Lošinj_'
'Lowe'
'Lott'
'Lotniczej_'
'Loro_'
'Looking_'
'Long'
'Londyn'
'Logi'
'Loc'
'Living_'
'Lite'
'Lit'
'Liquid'
'Lipiec_'
'Links_'
'Lini'
'Linda'
'Liga_'
'Liczn'
'Libraries_'
'Libertex_'
'Liberal'
'Levit'
'Less_'
'Lep'
'Lens_'
'Lely_'
'Lekarz_'
'Leitz_'
'Lege'
'Lead'
'Laz'
'Lauren_'
'Las'
'LanguageEnglish_'
'Lamp'
'Lam'
'Lag'
'Lacrosse_'
'Labour_'
'Labor'
'Lab'
'LS'
'LIN'
'LIGHT'
'LIFE_'
'LID'
'LEG'
'LAN_'
'Kwiecień_'
'Kupując'
'Kun'
'Kultura'
'Kultur'
'Kul'
'Kujawsko_'
'Ktoś_'
'Kto_'
'Krótki_'
'Króli'
'Królestwa_'
'Kryzys_'
'Krk_'
'Kris'
'Kraus_'
'Kraje_'
'Kości'
'Koszty_'
'Korzystając_'
'Koro'
'Korek_'
'Kor_'
'Kons'
'Konieczn'
'Kong_'
'Konferencj'
'Kompleks_'
'Komple'
'Komitet_'
'Kolejny_'
'Kolbe'
'Kohlmarkt_'
'Kobr'
'Kob'
'Knowledge_'
'Kni'
'Kluczow'
'Klau'
'Kind'
'Kill_'
'Kilka'
'Kij'
'Kid'
'Kee'
'Kaz'
'Kawa'
'Kau'
'Karn'
'Kara'
'Kapitał'
'Kamen'
'Kale'
'Kac'
'Kab'
'KW'
'KT'
'KR_'
'KR'
'KG_'
'KGHM_'
'Jury_'
'Joz'
'Joshua_'
'Jordan_'
'Jor'
'Jona'
'Jon'
'Joh'
'Job_'
'Jersey_'
'Jem'
'Jednym_'
'Jedno_'
'Jean'
'Jaxon_'
'Japonia_'
'Jane'
'James'
'Jam'
'Jakości_'
'Jakkolwiek_'
'Jaki_'
'Jag'
'Jaco'
'JPG_'
'JP'
'JO'
'JE'
'Izbie_'
'Izajasza_'
'Iz'
'Ivan_'
'Ita'
'Issues_'
'Israeli'
'Iraq_'
'Inwest'
'Inve'
'Intr'
'Interview_'
'Interior_'
'Interconnected_'
'Interc'
'Interactive_'
'Intelligen'
'Intel'
'Integrat'
'Instal'
'Ins'
'Innovative_'
'Inn'
'Informati'
'Informacja_'
'Informac'
'Info'
'Infinity_'
'Industrial_'
'Indonezja_'
'Indo'
'Indian_'
'Indiach_'
'Independence_'
'Increase'
'Incom'
'In'
'Imprez'
'Imagine_'
'Im'
'Illinois_'
'Il_'
'Idź_'
'Idea_'
'Ibis_'
'IU'
'ISM_'
'IO_'
'IF'
'ICP'
'Hydraulic'
'Hur'
'Hunt'
'Hul'
'Hua'
'Hr'
'Hours_'
'Hosting_'
'Hostal_'
'Host'
'Horse'
'Horn'
'Horizon_'
'Honda_'
'Homer_'
'Holi'
'Holandii_'
'Hoi'
'Hof'
'Hitler_'
'Hilton_'
'Hil'
'Hem'
'Helsin'
'Heli'
'Hein'
'Heights_'
'Heb_'
'Heavenly_'
'Hav'
'Hardwood_'
'Harbour_'
'Hanoi_'
'Hannes_'
'Hann'
'Handlow'
'Hamburg_'
'Halloween_'
'Half_'
'Hal'
'Hajovna_'
'Haiti_'
'Hag'
'HW'
'HTTP_'
'HOTEL_'
'HD'
'HClips_'
'HC_'
'HB'
'HAR'
'Głównym'
'Gło'
'Gwiazdki_'
'Gwi'
'Gwarancja_'
'Gub'
'Guangzhou_'
'Gua'
'Grzegorz_'
'Growth_'
'Greg'
'Grav'
'Gratuluję_'
'Grant_'
'Granad'
'Gran'
'Graci'
'Gr'
'Govern'
'Gold'
'Gol'
'Gloss'
'Globali'
'Gli'
'Glasgow_'
'Gla'
'Girls_'
'Gir'
'Gift_'
'Gib'
'Gia'
'Ghost_'
'Germans_'
'Genev'
'Gem'
'Gay'
'Gate_'
'Garr'
'Gand'
'Galway_'
'Galileo_'
'Galilei_'
'Galerie_'
'Gale'
'Gabriel'
'GT'
'GOD'
'GH'
'GD'
'G2_'
'Funkcja_'
'Fundusz'
'Fundacja_'
'Funda'
'Fun'
'Fryderyk'
'Front_'
'Français_'
'Franç'
'Franziskanerplatz_'
'Francusk'
'Franco_'
'Fr'
'Founded_'
'Fotografia_'
'Fortuna'
'Former_'
'Foot'
'Foods_'
'Fontan'
'Fly'
'Flu'
'Florida_'
'Florencj'
'Flor'
'Flights_'
'Fit'
'Fis'
'Firmy_'
'Firm_'
'Fir'
'Fio'
'Finished_'
'Finansowego_'
'Finans'
'Filtr_'
'Fight_'
'Field_'
'Festiwal_'
'Ferr'
'Fen'
'Feli'
'Fee'
'Fed'
'Feb_'
'Featured_'
'Fat'
'Fall'
'Facility_'
'Faces_'
'Facebook'
'Fac'
'Fabry'
'FT_'
'FS_'
'FROM_'
'FRA'
'FORM'
'FIT'
'FC'
'FACTOR'
'Extra'
'Extension_'
'Expa'
'Excel_'
'Exa'
'Ex_'
'Ewangeli'
'Every'
'Eve_'
'Evaluation_'
'Europę_'
'Europejskiemu_'
'Europejskich_'
'Europeana'
'Euroc'
'EuroMillions_'
'Eur'
'Eu'
'Et'
'Essen'
'Essaouira_'
'Especially_'
'Erg'
'Erasmus_'
'Epic'
'Eph_'
'Entr'
'England_'
'Energii_'
'Encou'
'Enc'
'Empire_'
'Emperor_'
'Em'
'Ell'
'Elizabeth_'
'Eliasza_'
'Eleganc'
'Electronic_'
'Ei'
'Egyptian_'
'Egiptu_'
'Egipt_'
'Egip'
'Effect'
'Edynburg'
'Educat'
'Editor_'
'Edit_'
'Eden_'
'Eb'
'EU'
'ENI'
'ELL'
'EE'
'ECO'
'EB'
'E2'
'E0'
'Dług'
'Dzierżawa_'
'Dzie'
'Dział_'
'Dział'
'Dzia'
'Dysku'
'Dys'
'Dynasty_'
'Duż'
'Dura'
'Duni_'
'Dubaju_'
'Du_'
'Dry'
'Drogi'
'Driver_'
'Dri'
'Drag'
'Dr'
'Dor'
'Dopiero_'
'Dong'
'Done'
'Donat'
'Don'
'Domina'
'Dome'
'Dolphin'
'Dollar_'
'Distributors_'
'Disp'
'Directory_'
'Directed_'
'Dir'
'Diego_'
'Diana_'
'Diamond_'
'Dialog'
'Diagonal_'
'Diag'
'Dia'
'Det'
'Despite_'
'Designer'
'Denver_'
'Demokratów_'
'Delicious_'
'Deli'
'Delete_'
'Delegat'
'Deinstalacja_'
'Defend'
'Declaration'
'Dat'
'Dani'
'Dancer_'
'Dan_'
'Dai'
'Da_'
'DY'
'DT'
'DS_'
'DP_'
'DOS_'
'DG'
'DES_'
'DAT'
'DAR'
'Człowiek'
'Członkowie_'
'Członk'
'Częstochowa_'
'Często_'
'Czyta'
'Czesk'
'Czerwiec_'
'Czerw'
'Czarn'
'Cyrillic'
'Cyr_'
'Cypr'
'Cutting_'
'Customize_'
'Custome'
'Curr'
'Cu_'
'Crystal_'
'Cross'
'Created_'
'Cracow_'
'Cr'
'CountriesSelect_'
'Count'
'Cou'
'Costs_'
'Costa_'
'Corte'
'Cortana_'
'Corporate_'
'Core_'
'Contractor_'
'Continue_'
'ContinentsSelect_'
'Conte'
'Consum'
'Consulting_'
'Congress_'
'Congo_'
'Cond'
'Concept'
'Conc'
'Compre'
'Components_'
'Complain_'
'Comp'
'Communi'
'Command'
'Comf'
'Comb'
'Colour'
'Colors_'
'Colomb'
'Colo'
'Collégien_'
'Cold_'
'Coa'
'Cluj_'
'Clinical_'
'Cli'
'Cleanliness_'
'Clara_'
'Clar'
'Claas_'
'Cia'
'Chrystusie_'
'Chongqing_'
'Chisinau_'
'Chian'
'Chemicznego_'
'Charlie_'
'Charakterystyki_'
'Charaktery'
'Chap'
'Change'
'Chal'
'Chairman_'
'Chair_'
'Chai'
'Cer'
'Cen'
'Cell_'
'Cał'
'Cave_'
'Catch_'
'Casting_'
'Cast_'
'Carolin'
'Carn'
'Caribbean_'
'Cards_'
'Cardi'
'Capital_'
'Cana'
'Camde'
'CU'
'CT_'
'COMPACT_'
'CMS_'
'CK'
'CJ'
'CIN'
'CIECH_'
'CH_'
'CHO'
'CFM_'
'CET'
'CEO_'
'CAR'
'C2_'
'C1_'
'Błękitn'
'Było_'
'Był'
'Byli'
'Buyer_'
'Butt_'
'Bush'
'Bus'
'Burger'
'Buko'
'Bugs'
'Budyn'
'Budget'
'Buddhist_'
'Buddh'
'Budapesztu_'
'Bubble_'
'Brze'
'Brooklyn_'
'Bridge_'
'Breaker_'
'Breadcrumb'
'Brazilian_'
'BravoTube_'
'Brand_'
'Brand'
'Boy'
'Bou'
'Born'
'Bol_'
'Bogdanka_'
'Bob'
'Boa'
'Bo_'
'Blizzard_'
'Bli'
'Ble'
'Blanc_'
'Bj'
'Biznes'
'Biur'
'Billion_'
'Bill_'
'Bik'
'Bid'
'Bibliotek'
'Biblio'
'Białe_'
'Biał'
'Bezpieczn'
'Beth'
'Beta'
'Berkeley_'
'Bendi'
'Belarusian_'
'Belarus_'
'Beirut_'
'Beh'
'Beginner_'
'Bee'
'Beds_'
'Bedroom_'
'Beauty_'
'Beat'
'Beaches_'
'Bea'
'Bałty'
'Bał'
'Bathrobe_'
'Bast'
'Basket'
'Base_'
'Barr'
'Barn'
'Bari'
'Barcelonie_'
'Barcelon'
'Bara'
'Bangkok_'
'Bang'
'Band'
'Ball'
'Bah'
'Bagh'
'Badania_'
'BY_'
'BX'
'BU_'
'BUS_'
'BTX'
'BT'
'BSOD_'
'BODY'
'BK_'
'BK'
'BH_'
'BAS'
'B2B_'
'Azo'
'Azjatyck'
'Azerb'
'Aydın_'
'Ay'
'Award_'
'Avedøre_'
'Autorzy_'
'Autor_'
'Author'
'Austrian_'
'Austin_'
'Audio'
'Aud'
'Atos_'
'Atlas_'
'Atl'
'Assembly_'
'Artykuły_'
'Artykuł_'
'Artificial_'
'Arthur_'
'Aro'
'Armeni'
'Arka'
'Argent'
'Arg'
'Archiwum_'
'Architect'
'Arc_'
'Apr_'
'App_'
'App'
'Apostle_'
'Antwerp_'
'Anton'
'Ano'
'Announcement'
'Anne'
'Ann'
'Animal'
'Ani'
'Angl'
'Andrzej_'
'Andrew'
'Andr'
'Ancient_'
'Analdin_'
'Amsterdam'
'Amer'
'Amendment_'
'Ambas'
'Alto_'
'Alternative_'
'Alte'
'Alps_'
'Along_'
'Alo'
'Alm'
'Alliance_'
'Alfama_'
'Alexandr'
'Alexander_'
'Albo'
'Albi'
'Albert'
'Albania_'
'Alan'
'Aktualn'
'Akceptujemy_'
'Akademi'
'Airport'
'Air'
'Agr'
'Afryce_'
'Afganistan'
'Aero'
'Advertising_'
'Adve'
'Adults_'
'Ado'
'Adj'
'Additionally_'
'Addi'
'AdBrite_'
'Ace'
'Above_'
'AXIS_'
'API_'
'AO'
'AND_'
'AI_'
'AH'
'ACTA_'
'ACC'
'A5'
'A0'
'?"'
'? -'
'>_'
'; '
':: _'
': -_'
'999'
'984'
'971'
'960'
'950'
'94_'
'9410'
'923'
'92'
'8923_'
'888_'
'880'
'87_'
'850'
'840'
'802_'
'7M'
'720'
'6PAK_'
'682'
'619_'
'604'
'602_'
'5th_'
'597_'
'550_'
'550'
'4m'
'4Y_'
'4K_'
'413_'
'40m'
'4000_'
'395_'
'385_'
'381_'
'365_'
'330_'
'308_'
'30757_'
'301'
'3000_'
'2Y_'
'2M'
'282'
'258_'
'255'
'240'
'238_'
'234_'
'229'
'221_'
'20m'
'208'
'1m_'
'1km_'
'1a_'
'1Z'
'1D'
'199'
'1988_'
'1984_'
'1978_'
'1971_'
'1970_'
'1964_'
'196'
'1958_'
'1956_'
'1949_'
'1948_'
'1930_'
'1921_'
'190_'
'18th_'
'18560_'
'182'
'18'
'179_'
'178_'
'176'
'175_'
'175'
'169'
'164_'
'164'
'15934_'
'158_'
'156'
'150'
'149_'
'149'
'144'
'140'
'137_'
'136'
'131_'
'129_'
'128_'
'127_'
'126'
'119_'
'11418_'
'11215_'
'112'
'10th_'
'10GbE_'
'108_'
'105_'
'105'
'10499_'
'1024_'
'100m'
'08'
'014'
'013'
'00pm'
'001_'
'001'
'. '
'.[_'
'...+_'
'... (_'
'.)'
'.'_'
'."--_'
'." _'
'." (_'
'. ._'
'. ..._'
'. -'
'. ('
'->'
'--"_'
'- '
',' _'
', ..._'
', '_'
'*._'
'**'
'*) - _'
'* '
'*'
') , _'
'( _'
'' '
'%'
'". '
'".'
'" '
'!)_'
'!"_'
'!!!_'
' ↓ _'
' ›_'
' ‹ _'
' … _'
' – "_'
' –'
' £ _'
' @ _'
' ;'
' :)'
' : '
' .._'
' ... (_'
' - '
' )._'
' ) '
' (...)'
' %._'
' "._'
' ! _'
'→'
'›'
'…]'
'…) _'
'”)._'
'”) _'
'“ _'
'“'
'’'
'​​'
'ь'
'ч'
'усский'
'ук'
'ск'
'п'
'ос'
'о_'
'ни'
'м_'
'ла'
'й_'
'и_'
'з'
'а_'
'С'
'О'
'А'
'ω'
'σ'
'ρ'
'ν_'
'η'
'ά'
'żądan'
'żą_'
'żółtym'
'żółty'
'żółte_'
'żółt'
'żółciow'
'żył_'
'żył'
'żywotnoś'
'żywot'
'żywnościowej_'
'żyt'
'żyn'
'żym'
'żyją'
'żydowsk'
'życzenia'
'żwir'
'ższy'
'żsam'
'żołnierzy_'
'żołnierza_'
'żowy_'
'żowa'
'żny_'
'żnik_'
'żliwia'
'żliw'
'żeńskie_'
'żeński'
'żeń'
'żeniem_'
'żeni'
'żelaza_'
'żegl'
'żebyśmy_'
'żałowa'
'żarka_'
'żan'
'żadnym'
'żadne_'
'żadn'
'Żądan'
'Żywności_'
'Żyw'
'Żydowsk'
'Żyd'
'Życie_'
'Życia_'
'Żelazko_'
'źród'
'źr'
'źnia'
'ździe_'
'ździ'
'ův'
'ů_'
'št'
'šice_'
'Št'
'şa'
'ş'
'Ş'
'świętych_'
'święty_'
'święto_'
'święto'
'świętem_'
'świątyni_'
'świąty'
'świąteczne'
'świeżo'
'świetny'
'świetln'
'świetle'
'światło'
'świadomy'
'świadomość_'
'świadomości_'
'świadkami_'
'świadczy_'
'świadczon'
'śródlądow'
'środowisku_'
'środowiskow'
'środowiskiem_'
'środowiskach_'
'środowisk_'
'środkiem_'
'środkami_'
'środka_'
'średniozaawansowanych_'
'średniod'
'średnio'
'średni'
'śr'
'śpiesz'
'śnych_'
'śnię'
'śniejsz'
'śli_'
'śledzeni'
'śled'
'śla'
'ścił_'
'ściąga'
'ściąg'
'ścisły'
'ścisłe'
'ściom'
'ścio'
'ścieżki_'
'ścież'
'ściem_'
'ściek'
'ściej_'
'ścianą_'
'ścia'
'Święty'
'Świeże'
'Świetn'
'Świe'
'Świata_'
'Świad'
'Środkowy'
'Środkowo_'
'Środkowej_'
'Średnio'
'Średni'
'Śled'
'Śl'
'ŚCI'
'řichovice_'
'ńsku_'
'ńskim_'
'ńskie_'
'ński'
'ńscy_'
'ńczyć_'
'ńczo'
'ńcem_'
'Ń'
'łędn'
'łączenia_'
'łącze'
'łą'
'łów'
'łyżecz'
'ływa'
'łuż'
'łuk'
'łuje'
'łożysko'
'łożyska'
'łoż'
'łość_'
'łoś'
'łown'
'łowej_'
'łowan'
'łonie_'
'łodzone'
'łodzi'
'łodni'
'łku_'
'łka_'
'łen'
'łek_'
'łego_'
'łceni'
'łc'
'łaś'
'łańcuchowe_'
'łańcuch_'
'łań'
'łał_'
'łazienkę_'
'łazienką_'
'ławy_'
'ławe'
'łatwą_'
'łatwością_'
'łatk'
'łan'
'łamani'
'łagodnie'
'ładunk'
'ładu_'
'ładowarka'
'ładny'
'ładan'
'łada'
'łaci'
'łach_'
'łabędzie_'
'Łącznoś'
'Łączn'
'Łącz'
'Łód'
'Łużyckich_'
'Łukasz_'
'Łukas'
'Łu'
'Łodzi_'
'Ło'
'Łatwo'
'Łas'
'ŁOWA_'
'ŁO'
'ŁAD'
'ı'
'ężenia_'
'ężeni'
'ęża'
'ęła_'
'ęzyczny'
'ęty_'
'ęta_'
'ępuj'
'ępstw'
'ęli'
'ększ'
'ękczy'
'ędz'
'ędn'
'ęciem_'
'ęci_'
'ębn'
'ębior'
'če'
'ča'
'Čeština_'
'ćwicze'
'Ć_'
'ąży'
'ąża'
'ązani'
'ątn'
'ątki_'
'ąte'
'ąpił'
'ąga_'
'ądź'
'ądzi'
'ądzeni'
'ądkow'
'ąde'
'ączeni'
'ă'
'ād'
'ých_'
'ür'
'ün'
'öl'
'ö_'
'ół_'
'óz'
'ówno'
'ówna'
'ówk'
'ós'
'óln'
'ócenia_'
'óbuj_'
'óbow'
'ób_'
'ñsk'
'ï'
'íl'
'ë'
'én_'
'éc'
'ça_'
'år'
'är'
'äc'
'ã'
'ás'
'ák_'
'ák'
'ácho'
'Ø'
'×_'
'ÓW'
'Ã³d'
'Ã'
'¿'
'»)'
'¹dz'
'¹cych_'
'·'
'´_'
'²'
'° _'
'© _'
'©'
'£_'
' € _'
' • _'
' / _'
' -'
'   '
'  '
'złożyć_'
'złożonych_'
'złożonoś'
'złożone'
'złote'
'zło_'
'złama'
'zł'
'zęb'
'zące'
'ząc_'
'zów'
'zzl'
'zzi'
'zza_'
'zz_'
'zyński_'
'zył'
'zyst'
'zyna'
'zymy_'
'zyków_'
'zyjn'
'zyg'
'zwykłe_'
'zwyczajnie_'
'zwyczajn'
'zwyczaj_'
'zwyc'
'zwrócił_'
'zwróci'
'zwrócenie_'
'zwró'
'zwrotów_'
'zwrotn'
'zwracan'
'zwracam'
'zwołan'
'zwolnieni'
'zwiększając_'
'związki'
'związanego_'
'zwir'
'zwierzę'
'zwier'
'zwiedzający'
'zwiast'
'zważywszy_'
'zwalczani'
'zużycie_'
'zuty_'
'zupełn'
'zup'
'ztw'
'zto'
'zsz'
'zręczn'
'zrozumieć_'
'zrocz'
'zrobiła'
'zrobił_'
'zredukowa'
'zrealizowany_'
'zrealizowan'
'zrealizowa'
'zpa'
'zości_'
'zowe_'
'zowa'
'zostałyby_'
'zostal'
'zorganizowanej_'
'zony_'
'zone'
'zom'
'zod'
'zobowiązani'
'zobowiązan'
'zobowiąz'
'zobacz'
'znowu_'
'zniszczone'
'zniszczeń_'
'zniszczenie_'
'zniszczenia_'
'znikn'
'znia'
'znego_'
'znanym'
'znanego_'
'znana_'
'znamion'
'znam_'
'znaleziony'
'znalezienia_'
'znalezieni'
'znalazł_'
'znaków_'
'znakomite'
'znakomit'
'znak'
'znajomość_'
'znajomemu_'
'znajdziemy_'
'znajdzie_'
'znajdujących_'
'znajduj'
'znacząco_'
'znaczące'
'znaczn'
'znaczeniem_'
'zmą_'
'zmy'
'zmodyfikowany'
'zmniejszy_'
'zmiennych_'
'zmienna_'
'zmienione'
'zmieniający'
'zmien'
'zmie'
'zmi'
'zmartwychwstania_'
'zmartw'
'zlokalizowane_'
'zli_'
'zlecenia_'
'zle'
'zku_'
'zka'
'zk'
'zjeżdżalni'
'zje'
'zja_'
'ził'
'zię'
'zić_'
'ziół_'
'zisz'
'zione_'
'zing'
'zine_'
'zin'
'zimy_'
'zimowy'
'zimow'
'zimno'
'zima_'
'zik'
'ziew'
'zieni'
'ziemnego_'
'ziemn'
'zielonych_'
'zielone'
'ziej_'
'zidentyfikowanych_'
'zhen'
'zhe'
'zgub'
'zgromadzi'
'zgromadze'
'zgodzić_'
'zgodności_'
'zginęło_'
'zgiełku_'
'zga'
'zeń_'
'zewski_'
'zewod'
'zewnętrzn'
'zewa'
'zespołow'
'zespołem_'
'zespoł'
'zespole'
'zerwo'
'zero_'
'zeniem_'
'zela_'
'zego'
'zechce'
'zebra'
'zdy'
'zdrowie_'
'zdro'
'zdradzi'
'zdobyci'
'zdefiniowane_'
'zdecydowa'
'zdarzeń_'
'zdarzeni'
'zdarz'
'zczę'
'zczu'
'zczel'
'zcy'
'zbur'
'zbudować_'
'zbudowa'
'zbrojnych_'
'zbrodni'
'zbo'
'zbliża'
'zbliż'
'zbiorowo_'
'zbiorow'
'zbieranie_'
'zbieran'
'zbieg'
'zbadani'
'zb'
'zaś'
'załącz'
'założyć_'
'założy'
'założenie'
'założeni'
'założ'
'załam'
'załadun'
'zazna'
'zazdrosny'
'zawrzeć_'
'zawodowe'
'zawieszka'
'zawieszenia_'
'zawiesić_'
'zawierając'
'zawiera'
'zawartość_'
'zawart'
'zawar'
'zautomatyzowany'
'zatwierdzone_'
'zatwierdzani'
'zatrzymuj'
'zatrudniony'
'zatrudnienie_'
'zatrudnieni'
'zatrudni'
'zatopi'
'zatoc'
'zato'
'zation_'
'zasy'
'zastrzeżeni'
'zastosowaniu_'
'zastosowaniem_'
'zaskocz'
'zasięg'
'zasilani'
'zasilacza_'
'zasila'
'zasi'
'zasadę_'
'zasadniczo_'
'zasada'
'zarządzając'
'zarys'
'zarezerwuj_'
'zarejestrowani_'
'zarazić_'
'zarabiać_'
'zapłacić_'
'zaprosz'
'zaprosić_'
'zaprezentowan'
'zaprezent'
'zapraszamy_'
'zapra'
'zapożycz'
'zapowi'
'zapomnia'
'zapisywa'
'zapisan'
'zapisa'
'zapie'
'zapewniać_'
'zapewnian'
'zapewniające'
'zapasów_'
'zapasowy_'
'zapasowy'
'zapasowe'
'zapar'
'zaobserwowa'
'zaniedb'
'zanieczyszczeń_'
'zanieczyszczenia_'
'zanie_'
'zanie'
'zamykani'
'zamyka'
'zamra'
'zamor'
'zamontowa'
'zamo'
'zamku_'
'zamknięty'
'zamk'
'zamieszanie'
'zamierza_'
'zamierza'
'zamienia'
'zam_'
'zalogować_'
'zalogowaniu_'
'zalo'
'zależnych_'
'zależna_'
'zaleceni'
'zaleca_'
'zal'
'zakładów_'
'zakł'
'zakwaterowa'
'zakupić_'
'zakr'
'zakończył_'
'zakończyć_'
'zakończenia_'
'zakonnik'
'zakl'
'zaki'
'zakażeni'
'zakazu_'
'zakazan'
'zakaz'
'zajęcia_'
'zajęcia'
'zaję'
'zają'
'zajmować_'
'zajmowa'
'zajmie'
'zaje'
'zainteresował'
'zainteresowanymi_'
'zainteresowany'
'zainteresowanie'
'zainstalowani'
'zainstal'
'zainfekowany_'
'zagład'
'zagęszczani'
'zagrożeń_'
'zagrożenia_'
'zagrożenia'
'zagrażają'
'zagraża_'
'zagrał'
'zagraniczne'
'zagraniczn'
'zagadnień_'
'zagadnieni'
'zadłużeni'
'zadzwo'
'zadzi'
'zadowolony_'
'zadowoli'
'zadowolenie_'
'zado'
'zade'
'zadania'
'zadan'
'zaczęł'
'zaczął_'
'zacznie_'
'zaczn'
'zacze'
'zacyjn'
'zacj'
'zachęci'
'zachowywa'
'zachowują'
'zachowuje_'
'zachodz'
'zachodu_'
'zabytkowym_'
'zabudow'
'zabrać_'
'zabl'
'zabiera'
'zabiegi_'
'zabezpieczeni'
'zabezpiecz'
'zabawy_'
'zabawka'
'zabaw'
'zaawansowany'
'zaawansowane_'
'zaangażowanie_'
'zaangażowania_'
'zaangażowa'
'yż'
'yńskie'
'yły_'
'yzy_'
'yzacji_'
'yza'
'ywy'
'ywood_'
'ywny'
'ywność_'
'ywna_'
'ywi'
'ywały'
'ywaniu_'
'ywania_'
'ywamy_'
'ytów'
'yty_'
'ytut'
'ytu'
'ytor'
'ytkow'
'ytet'
'ytec'
'yt_'
'yt'
'ysz_'
'ystyczn'
'ysty'
'ystem'
'ystal'
'ysta'
'yso'
'yski_'
'yska'
'ysk_'
'ysk'
'ypto'
'yours'
'younger_'
'yok'
'yog'
'ynni'
'yni'
'ynek_'
'ynac'
'ymizm'
'ymia'
'yleni'
'ykowane'
'yko'
'ykling'
'ykl'
'ykański'
'yjskiego_'
'yjnymi_'
'yjnego_'
'yj'
'yi_'
'yi'
'yfikowany'
'yfikacj'
'yes_'
'ydu'
'ydent'
'ydenc'
'ycze'
'ycyjny_'
'yciel_'
'yci'
'ychczas_'
'ychani'
'yce_'
'ybie'
'yas'
'yards'
'yan'
'yK'
'xx_'
'xx'
'xts_'
'xley'
'xing_'
'xia'
'xh'
'xes_'
'xe'
'xb'
'xam'
'xD'
'x7'
'x20'
'włączon'
'włącznie_'
'włączeniu_'
'włącza'
'włącz'
'włókna_'
'włócz'
'włoski'
'właściwym_'
'właściciel'
'własnej_'
'władzę_'
'władze_'
'władza_'
'władz_'
'wła'
'węgiersk'
'węgie'
'wę'
'wątpliw'
'wątpienia_'
'wąt'
'wąski'
'wą'
'wózek_'
'wóz'
'wór_'
'wór'
'wód'
'wzywam_'
'wzywając'
'wzywa_'
'wzrostowi_'
'wzrastające'
'wzrasta'
'wzorow'
'wzornictw'
'wzor'
'wzno'
'wzmacniacz_'
'wzmacnia_'
'wzmacnia'
'wzięcia_'
'wzi'
'wzg'
'wzbudz'
'wzajemnie_'
'wzajemne'
'wyżywieni'
'wyższym_'
'wyższej_'
'wyższa_'
'wyświetleni'
'wyświetlane_'
'wyświetlan'
'wyśl'
'wyścigi_'
'wyłączyć_'
'wyłącza'
'wyłącz'
'wyła'
'wył'
'wyzwol'
'wyzwań_'
'wyzwaniem_'
'wyznaczonym'
'wyznacza_'
'wyzna'
'wyz'
'wywoływa'
'wywołuj'
'wytyczn'
'wyty'
'wytworzenie_'
'wytwor'
'wytrzymałość_'
'wytrzymałości_'
'wytrzym'
'wytr'
'wysłucha'
'wysła'
'wyszukiwarka_'
'wyszukiwarek_'
'wyszukiwanie_'
'wyszukiwa'
'wyszukać_'
'wysyłać_'
'wysyłany'
'wysyłan'
'wysy'
'wysunięt'
'występując'
'występ_'
'wystąpił'
'wystąpi'
'wystawowe'
'wystawia'
'wystawi'
'wystawach_'
'wystar'
'wyst'
'wyspecjalizowan'
'wysokim_'
'wysiłków_'
'wysiłki_'
'wysiłk'
'wysię'
'wyróżnienie'
'wyróżnia_'
'wyró'
'wyroby_'
'wyrażają'
'wyraża'
'wyraźny_'
'wyrazi'
'wyprodukowan'
'wyprawy_'
'wypożyczalni_'
'wypożyczalni'
'wypowiedz'
'wypowi'
'wyposaży'
'wyposażoną_'
'wyposażona_'
'wyposażon'
'wypoczynkowe_'
'wypoczynk'
'wypełnion'
'wypełnienie_'
'wypełni'
'wypału_'
'wypadow'
'wypadk'
'wypa'
'wyp'
'wyobraż'
'wynosząc'
'wynosił'
'wynikając'
'wynagrodzeni'
'wyna'
'wyn'
'wymó'
'wymuszon'
'wymogów_'
'wymiarach_'
'wymiar_'
'wymiana_'
'wymian'
'wymi'
'wymagać_'
'wymagani'
'wymagana_'
'wymagan'
'wymagają_'
'wym'
'wylądował_'
'wylic'
'wykupi'
'wykształcenia_'
'wykształceni'
'wykrywan'
'wykry'
'wykr'
'wykończenie_'
'wykorzystywać_'
'wykorzystywani'
'wykorzystują_'
'wykorzystaniu_'
'wykorzystaniem_'
'wykorzystane_'
'wykonywania_'
'wykonywani'
'wykonują_'
'wykonuje'
'wykonawcze_'
'wykonawc'
'wykonaną_'
'wykonany_'
'wykonany'
'wykonanie'
'wykonal'
'wykluczyć_'
'wykluczone_'
'wykluczenie_'
'wykazał'
'wykazali'
'wykaz'
'wyjątkowy'
'wyjątkow'
'wyjąt'
'wyjaśnia'
'wyjaśni'
'wygłosi'
'wygrał_'
'wygr'
'wygodn'
'wygląda_'
'wygląd_'
'wyglÄ_'
'wydoby'
'wydm'
'wydawnictw'
'wydawać_'
'wydaw'
'wydarzył'
'wydarzeniem_'
'wydarzenie_'
'wydarzeniach_'
'wydajny_'
'wydajn'
'wydaj'
'wyd'
'wyczerpując'
'wycofa'
'wyciągać_'
'wycis'
'wychudzona_'
'wychodz'
'wych'
'wycen'
'wybuchowy'
'wybrzeżu_'
'wybrzeża_'
'wybrani_'
'wybrana_'
'wybra'
'wyborców_'
'wyborcze'
'wszystk'
'wszelkimi_'
'wszedł_'
'wszechświecie_'
'wstępny'
'wstępne_'
'wstępne'
'wstęp'
'wstąpił_'
'wstą'
'wstwa_'
'wstrzyma'
'wstrzy'
'wstawi'
'współpracują'
'współpracowników_'
'współprac'
'współdzi'
'współczynnik'
'współczesnych_'
'wspólnotow'
'wspóln'
'wspomnie'
'wspomn'
'wspierania_'
'wspierane_'
'wspieran'
'wspaniałą_'
'wspaniałe'
'wskutek_'
'wskazów'
'wskazują'
'wskazanie_'
'wskaz'
'wsk'
'wsi'
'wschód_'
'wschodząc'
'ws'
'wrócił_'
'wrócić_'
'wrzu'
'wrze'
'wrz'
'wri'
'wre'
'wrażliwy_'
'wrażliw'
'wpływy_'
'wpływają'
'wpłyną'
'wpół'
'wprowadzony'
'wprowadził'
'wprowadz'
'wpraw'
'wpisywa'
'wpisan'
'wpi'
'wpad'
'wołowin'
'woła'
'woven_'
'wou'
'worth'
'worship_'
'worrie'
'worm_'
'workplace'
'workout_'
'workf'
'worker_'
'woo'
'woni'
'wolumen'
'wolu'
'wolontari'
'wolno_'
'wolnego_'
'wolf'
'wojo'
'województwa_'
'województw'
'wojen'
'woj'
'wodos'
'wodo'
'wodnych_'
'wodne_'
'woda'
'wnętrzn'
'wnętrze_'
'wnętrza_'
'wnętrz_'
'wnych_'
'wno'
'wniosko'
'wniczy'
'wnic'
'wnia'
'wnego_'
'wne'
'wliczon'
'wlanhlp_'
'wkracza'
'wka'
'wił'
'więzienia_'
'więzi_'
'większy_'
'większością_'
'większego_'
'wiążąc'
'wiąże_'
'wiąz'
'wizytę_'
'wizytów'
'wizyty_'
'wizyt'
'wizyjne_'
'wizji_'
'wizerun'
'witnesses_'
'witnessed_'
'witness'
'withstand'
'withdrawal_'
'withdraw'
'wist'
'wisdom_'
'wirusa_'
'wirtualny_'
'wiosną_'
'wion'
'wiodące_'
'wini'
'wing'
'wine'
'windy_'
'winds_'
'winami_'
'wina_'
'willingness_'
'willing_'
'willi_'
'wille_'
'wilgotności_'
'wilgotno'
'wikipedia_'
'wiet'
'wierzę'
'wierzących_'
'wiersz'
'wierny'
'wiernie_'
'wiern'
'wien'
'wielostronn'
'wieloosobow'
'wieloma_'
'wielko'
'wielka_'
'wieków_'
'wieki_'
'wiedzia'
'wiedza_'
'wiedz'
'wieczny'
'wieczne'
'widżet'
'widzę_'
'widząc_'
'widzą_'
'widział_'
'widzia'
'widzi'
'widz'
'widow'
'widokow'
'widoczne_'
'widget'
'widać_'
'widac'
'wicz_'
'wick'
'wibrac'
'wiatr'
'wiarygodnoś'
'wiar'
'wiaj'
'wiadom'
'white'
'whey_'
'whereby_'
'where'
'wheat_'
'wgl'
'wf'
'weźmie'
'wezwani'
'wezwa'
'wewnętrznego_'
'wewnętrzna_'
'weterynarii_'
'westionowan'
'weryfikacji_'
'werset'
'wer_'
'wentylowany'
'wentylac'
'wencja'
'wencj'
'wem_'
'well'
'welcoming_'
'wek_'
'wejście_'
'wejści'
'wejd'
'weg'
'weekly_'
'wedle_'
'weapon_'
'weal'
'weake'
'weak_'
'wdzięczny_'
'wdz'
'wdrażania_'
'wdr'
'wczyk'
'wczesny'
'wci'
'wchodząc'
'wchodził_'
'wchodzić_'
'wch'
'wca'
'wbudowany_'
'wbrew_'
'waży'
'ważnym_'
'ważnie'
'ważne'
'ważn'
'wałe'
'wał'
'wazon'
'waves_'
'waterproof_'
'waterf'
'wate'
'watche'
'watch'
'wasze_'
'wasze'
'wasz'
'washing_'
'wash'
[...]
