'<pad>'
'<EOS>'
', _'
'._'
'the_'
'_'
'in_'
'of_'
'and_'
'und_'
'der_'
'to_'
'die_'
'a_'
'-_'
'. _'
's_'
'is_'
'for_'
'von_'
'den_'
'zu_'
'n_'
'The_'
'on_'
'that_'
'für_'
'ist_'
'with_'
': _'
'e_'
'en_'
'mit_'
'an_'
' (_'
'das_'
'auf_'
'des_'
'be_'
'are_'
'es_'
'Sie_'
'as_'
'Die_'
'eine_'
'im_'
'I_'
'ein_'
'this_'
'by_'
'from_'
'it_'
' - _'
'dem_'
't_'
'nicht_'
'you_'
'will_'
'or_'
'not_'
'werden_'
'was_'
') _'
'er_'
'sich_'
'r_'
'have_'
'sind_'
'at_'
'dass_'
'/_'
'which_'
'we_'
'In_'
'wird_'
':_'
'ing_'
'can_'
'um_'
'has_'
''_'
'auch_'
'd_'
'wir_'
'1_'
'all_'
'als_'
'2_'
'über_'
'so_'
'oder_'
'also_'
'y_'
'aus_'
'ed_'
'sie_'
'einen_'
' "_'
'your_'
'European_'
'EU_'
'hat_'
'haben_'
'?_'
'am_'
'Das_'
'our_'
'zur_'
'ich_'
'einer_'
'3_'
'more_'
'Der_'
'wie_'
'their_'
'ung_'
'nach_'
'bei_'
' – _'
'einem_'
'its_'
'5_'
'but_'
'können_'
',_'
'; _'
'- _'
'’_'
'one_'
'o_'
'This_'
'zum_'
'they_'
'A_'
'4_'
'us_'
'nur_'
'It_'
'" _'
'durch_'
'm_'
'about_'
'Commission_'
'kann_'
')._'
'been_'
'new_'
'te_'
'We_'
'!_'
'other_'
'bis_'
'Ich_'
'6_'
'de_'
'wurde_'
'Es_'
'time_'
'there_'
'up_'
'vor_'
'war_'
'should_'
'l_'
'only_'
'Union_'
'10_'
'would_'
'diese_'
'Wir_'
'uns_'
'do_'
' , _'
'into_'
'sein_'
'were_'
'dieser_'
')_'
'ten_'
'8_'
'mehr_'
'aber_'
'ng_'
'his_'
'wenn_'
'who_'
'noch_'
'man_'
'7_'
'very_'
'my_'
'like_'
'he_'
'Kommission_'
'out_'
'no_'
'these_'
'sehr_'
'people_'
'first_'
'them_'
'), _'
'alle_'
'year_'
'than_'
'when_'
'20_'
'use_'
'unter_'
'daß_'
'0_'
'if_'
'i_'
'S_'
'vom_'
'ly_'
'online_'
'Council_'
'must_'
'g_'
'9_'
'müssen_'
'Europe_'
'years_'
'countries_'
'k_'
'Mr_'
'two_'
'well_'
'any_'
'such_'
'ihre_'
'what_'
'information_'
'(_'
'work_'
'al_'
'between_'
'Hotel_'
'zwischen_'
'eines_'
'Member_'
'many_'
'30_'
'now_'
'h_'
'If_'
'ungen_'
'ion_'
'sowie_'
'had_'
'States_'
'over_'
'most_'
'may_'
'gibt_'
'! _'
' „_'
'hier_'
'anderen_'
'You_'
'% _'
'some_'
'11_'
'me_'
'dieses_'
'And_'
'For_'
'Jahr_'
'' _'
'made_'
'able_'
'way_'
'seine_'
'per_'
'free_'
'development_'
'12_'
'system_'
'make_'
'da_'
'? _'
'diesem_'
'Im_'
' “_'
'Ihre_'
'"_'
' ._'
'important_'
'room_'
'her_'
'dann_'
'z_'
'support_'
'place_'
'just_'
'Und_'
'15_'
'world_'
'le_'
'Menschen_'
'C_'
'because_'
'after_'
'B_'
'area_'
'against_'
'President_'
'Europäischen_'
'Diese_'
'see_'
'c_'
'E_'
' & _'
'order_'
'neue_'
'need_'
'through_'
'number_'
'2013_'
'take_'
'available_'
'Wenn_'
'where_'
'how_'
'Europa_'
'part_'
'wurden_'
'possible_'
'keine_'
'even_'
'both_'
'There_'
'day_'
'Ein_'
'used_'
'under_'
'those_'
'then_'
'right_'
're_'
'unsere_'
'same_'
'muss_'
'“ _'
'x_'
'rs_'
'immer_'
'000_'
'st_'
'here_'
'different_'
'Zeit_'
'Parliament_'
'Mitgliedstaaten_'
'Jahren_'
'without_'
'Ihnen_'
';_'
'2015_'
'last_'
'ihr_'
'25_'
'still_'
'Entwicklung_'
'said_'
'neuen_'
'market_'
'end_'
'andere_'
'know_'
'future_'
'Herr_'
'As_'
'24_'
'..._'
'But_'
'report_'
'mich_'
'international_'
'ihrer_'
'hotel_'
'good_'
'being_'
'zwei_'
'million_'
'Mit_'
'2009_'
'16_'
'diesen_'
'Welt_'
'Jahre_'
'18_'
'high_'
'finden_'
'Informationen_'
'All_'
'2010_'
'times_'
'products_'
'him_'
'gegen_'
'dies_'
'damit_'
'ation_'
'habe_'
'et_'
'children_'
'On_'
'13_'
'unserer_'
'could_'
'With_'
'November_'
'within_'
'policy_'
'km_'
'find_'
'u_'
'political_'
'level_'
'get_'
'europäischen_'
'does_'
'ch_'
'case_'
'already_'
'14_'
' '_'
've_'
'small_'
'seiner_'
'letzten_'
'games_'
'economic_'
'each_'
'back_'
'US_'
'German_'
'2011_'
'” _'
'real_'
'ohne_'
'life_'
'jetzt_'
'during_'
'Hotels_'
'D_'
'seit_'
'file_'
'ers_'
'Spiele_'
'sondern_'
'services_'
'public_'
'own_'
'offers_'
'ies_'
'house_'
'data_'
'P_'
'Internet_'
'th_'
'mir_'
'gen_'
'Unternehmen_'
'Rat_'
'Germany_'
'Er_'
'50_'
'waren_'
'since_'
'ge_'
'etwas_'
'before_'
' / _'
'wieder_'
'se_'
'quality_'
'lich_'
'heute_'
'days_'
'come_'
'ab_'
'service_'
'ne_'
'human_'
'company_'
'com_'
'TV_'
'Bereich_'
'Auf_'
'set_'
'machen_'
'example_'
'every_'
'ce_'
'around_'
'Wie_'
'T_'
'So_'
'Europäische_'
'Art_'
'2012_'
' _'
'want_'
'viele_'
'rights_'
'möchte_'
'further_'
'based_'
'System_'
'Seite_'
'Maßnahmen_'
'today_'
'go_'
'ganz_'
'ersten_'
'That_'
'September_'
'Präsident_'
'100_'
'social_'
'du_'
'another_'
'Eine_'
'national_'
'long_'
'great_'
'To_'
'R_'
'Bericht_'
'wo_'
'sten_'
'seinen_'
'second_'
'much_'
'ihren_'
'help_'
'course_'
'They_'
'New_'
'große_'
'country_'
'city_'
'access_'
'Stadt_'
'At_'
'21_'
'weil_'
'men_'
'following_'
'f_'
'einige_'
'Our_'
'Frau_'
'22_'
'2014_'
'too_'
'jedoch_'
'form_'
'energy_'
'companies_'
'bar_'
'areas_'
'God_'
'28_'
'2006_'
'water_'
'viel_'
'sollte_'
'selbst_'
'pro_'
'nt_'
'financial_'
'erhalten_'
'business_'
'always_'
'He_'
'40_'
'2008_'
'00_'
'wollen_'
'process_'
'land_'
'gut_'
'geht_'
'el_'
'car_'
'bin_'
'bereits_'
'Was_'
'Tag_'
'Land_'
'L_'
'Für_'
'Berlin_'
'April_'
'2007_'
'view_'
'tion_'
'three_'
'point_'
'iert_'
'best_'
'allen_'
'Dies_'
' : _'
'using_'
'say_'
'ns_'
'living_'
'geben_'
'denen_'
'b_'
'age_'
'19_'
'17_'
'ter_'
'taken_'
'situation_'
'project_'
'liegt_'
'including_'
'ia_'
'fact_'
'believe_'
'bed_'
'away_'
'China_'
'Alle_'
'."_'
'trade_'
'sollten_'
'schen_'
'rooms_'
'region_'
'power_'
'play_'
'open_'
'ons_'
'management_'
'look_'
'found_'
'Zusammenarbeit_'
'V_'
'M_'
'2016_'
'2000_'
' | _'
'ry_'
'question_'
'p_'
'necessary_'
'bietet_'
'art_'
'Vor_'
'USA_'
'Minister_'
'Leben_'
'G_'
'während_'
'shall_'
'related_'
'projects_'
'measures_'
'line_'
'denn_'
'current_'
'common_'
'alles_'
'World_'
'Euro_'
'Bedeutung_'
'27_'
'"._'
'systems_'
'special_'
'position_'
'hatte_'
'far_'
'ensure_'
'drei_'
'conditions_'
'beim_'
'When_'
'Teil_'
'Nach_'
'Lage_'
'Daten_'
'Commissioner_'
'Aber_'
' ..._'
'würde_'
'tun_'
'site_'
'put_'
'private_'
'name_'
'least_'
'hen_'
'down_'
'control_'
'Unterstützung_'
'Rahmen_'
'N_'
'EUR_'
'Arbeit_'
'After_'
'while_'
'ts_'
'together_'
'she_'
'production_'
'old_'
'möglich_'
'law_'
'kommen_'
'group_'
'given_'
'What_'
'United_'
'State_'
'Deutschland_'
'term_'
'stehen_'
'ste_'
'give_'
'change_'
'ble_'
'These_'
'Parlament_'
'Group_'
'26_'
'", _'
'soll_'
'sehen_'
'schon_'
'offer_'
'less_'
'la_'
'itself_'
'ihn_'
'ie_'
'erste_'
'entfernt_'
'continue_'
'X_'
'Ihr_'
'Auch_'
'Artikel_'
' % _'
'unseren_'
'ob_'
'legal_'
'lassen_'
'large_'
'health_'
'family_'
'environment_'
'did_'
'dazu_'
'clear_'
'again_'
'Zimmer_'
'U_'
'Service_'
'O_'
'Frage_'
'2004_'
'wäre_'
'website_'
'therefore_'
'something_'
'results_'
'programme_'
'present_'
'next_'
'mm_'
'meine_'
'little_'
'ische_'
'etc_'
'darauf_'
'contact_'
'cannot_'
'action_'
'Website_'
'Israel_'
'An_'
'60_'
'2005_'
'protection_'
'prices_'
'particular_'
'off_'
'light_'
'ago_'
'Region_'
'One_'
'Lord_'
'Community_'
'23_'
'2003_'
'verschiedenen_'
'sche_'
'result_'
'lichen_'
'insbesondere_'
'individual_'
'increase_'
'ihm_'
'großen_'
'einfach_'
'cooperation_'
'basis_'
'Bei_'
'“_'
'weitere_'
'ty_'
'things_'
'stellen_'
'rn_'
'problem_'
'local_'
'home_'
'hand_'
'few_'
'become_'
'air_'
'Online_'
'Ihrer_'
'Frauen_'
'Als_'
'2001_'
'... _'
'sagte_'
'research_'
'provide_'
'nun_'
'ment_'
'means_'
'macht_'
'ins_'
'full_'
'deren_'
'aller_'
'Spiel_'
'No_'
'Ländern_'
'However_'
'How_'
'Haus_'
' -_'
'whether_'
'welche_'
'single_'
'side_'
'main_'
'located_'
'ern_'
'em_'
'che_'
'called_'
'better_'
'among_'
'Play_'
'Millionen_'
'May_'
'March_'
'K_'
'Jesus_'
'Fall_'
'Ende_'
'Am_'
'why_'
'tes_'
'sicher_'
'played_'
'non_'
'enjoy_'
'davon_'
'citizens_'
'besonders_'
'ate_'
'Kinder_'
'29_'
'works_'
'total_'
'sector_'
'rules_'
'os_'
'once_'
'natürlich_'
'months_'
'ls_'
'keit_'
'industry_'
'ihnen_'
'game_'
'fully_'
'experience_'
'environmental_'
'doch_'
'dafür_'
'chen_'
'care_'
'bieten_'
'Produkte_'
'Juni_'
'June_'
'F_'
'Dieses_'
'December_'
'’ _'
'zeigt_'
'weiter_'
'value_'
'until_'
'think_'
'son_'
'security_'
'rund_'
'period_'
'kommt_'
'interest_'
'ihrem_'
'especially_'
'create_'
'ca_'
'bringen_'
'beiden_'
'allem_'
'activities_'
'Thema_'
'Länder_'
'During_'
'32_'
'young_'
'women_'
'wirklich_'
'whole_'
'w_'
'terms_'
'ted_'
'space_'
'sagen_'
'role_'
'really_'
'proposal_'
'product_'
'often_'
'meisten_'
'known_'
'field_'
'design_'
'close_'
'certain_'
'centre_'
'call_'
'body_'
'Weise_'
'Programm_'
'Preis_'
'From_'
'Da_'
': "_'
'yet_'
'worden_'
'various_'
'stellt_'
'ss_'
'software_'
'problems_'
'politischen_'
'person_'
'page_'
'ous_'
'ors_'
'net_'
'könnte_'
'importance_'
'heit_'
'government_'
'gehen_'
'fast_'
'eigenen_'
'effective_'
'easy_'
'decision_'
'comes_'
'cm_'
'came_'
'additional_'
'account_'
'Gott_'
'Google_'
'France_'
'Committee_'
'Bank_'
'August_'
'technology_'
'taking_'
'start_'
'red_'
'peace_'
'others_'
'music_'
'liche_'
'ig_'
'hin_'
'europäische_'
'estate_'
'einmal_'
'dabei_'
'ck_'
'aid_'
'Ziel_'
'Oktober_'
'Möglichkeit_'
'Kunden_'
'Kosten_'
'International_'
'Information_'
'II_'
'Dezember_'
'Bürger_'
'08_'
'01_'
'wissen_'
'vier_'
'upon_'
'updates_'
'transport_'
'team_'
'table_'
'stay_'
'state_'
'several_'
'sch_'
'rt_'
'request_'
'particularly_'
'oil_'
'nen_'
'nature_'
'mal_'
'list_'
'ischen_'
'ien_'
'ic_'
'hinaus_'
'heart_'
'food_'
'double_'
'big_'
'below_'
'Your_'
'Weg_'
'Uhr_'
'Politik_'
'Ihren_'
'East_'
'Airport_'
'words_'
'towards_'
'ting_'
'strong_'
'specific_'
'share_'
'seinem_'
'range_'
'policies_'
'past_'
'ner_'
'needs_'
'near_'
'nde_'
'na_'
'll_'
'les_'
'issue_'
'innerhalb_'
'hope_'
'halten_'
'growth_'
'forward_'
'five_'
'dort_'
'daher_'
'breakfast_'
'besteht_'
'ar_'
'adopted_'
'Um_'
'Sicherheit_'
'Regierung_'
'Projekt_'
'Personen_'
'Mitglieder_'
'M'
'Fragen_'
'Falun_'
'Durch_'
'AG_'
'31_'
'05_'
'.”_'
' '
'ves_'
'unser_'
'stand_'
'sen_'
'ren_'
'nor_'
'night_'
'material_'
'major_'
'lot_'
'live_'
'kein_'
'ja_'
'ions_'
'internationalen_'
'implementation_'
'having_'
'hatten_'
'gilt_'
'framework_'
'existing_'
'ent_'
'customers_'
'currently_'
'beautiful_'
'ally_'
'Wasser_'
'Staaten_'
'Schutz_'
'Namen_'
'Herrn_'
'Ergebnis_'
'Directive_'
'Court_'
'Beispiel_'
'America_'
'200_'
' _'
'working_'
'via_'
'version_'
'took_'
'statt_'
'show_'
'sei_'
'parking_'
'never_'
'ness_'
'nd_'
'modern_'
'm2_'
'ler_'
'left_'
'kleine_'
'kind_'
'ity_'
'investment_'
'history_'
'exchange_'
'etwa_'
'ende_'
'employment_'
'economy_'
'communication_'
'alten_'
'agreement_'
'University_'
'Please_'
'Nähe_'
'My_'
'Hilfe_'
'Hier_'
'G'
'Ebene_'
'Auto_'
'04_'
' . _'
'zusammen_'
'wichtig_'
'users_'
'ure_'
'third_'
'reason_'
'pool_'
'points_'
'natural_'
'making_'
'love_'
'looking_'
'language_'
'key_'
'include_'
'half_'
'global_'
'gegenüber_'
'ganzen_'
'developed_'
'darüber_'
'budget_'
'ben_'
'application_'
'according_'
'] _'
'\u_'
'Umwelt_'
'Probleme_'
'Problem_'
'Paris_'
'I'
'American_'
'Added_'
'80_'
'500_'
'2017_'
'185_'
'09_'
'zurück_'
'town_'
'supply_'
'subject_'
'step_'
'society_'
'safety_'
'provided_'
'möchten_'
'meeting_'
'markets_'
'ling_'
'lange_'
'king_'
'ieren_'
'however_'
'führen_'
'floor_'
'euch_'
'done_'
'direkt_'
'deutlich_'
'details_'
'dessen_'
'debate_'
'date_'
'changes_'
'besten_'
'befindet_'
'bedeutet_'
'attention_'
'Zeiten_'
'South_'
'Seiten_'
'San_'
'Restaurant_'
'Mio_'
'London_'
'La_'
'John_'
'French_'
'Barcelona_'
'Article_'
'ß_'
'weiterhin_'
'ways_'
'voll_'
'unserem_'
'type_'
'resolution_'
'reform_'
'positive_'
'personal_'
'performance_'
'nichts_'
'nehmen_'
'minutes_'
'members_'
'mein_'
'meet_'
'matter_'
'issues_'
'idea_'
'held_'
'gute_'
'going_'
'general_'
'front_'
'four_'
'format_'
'facilities_'
'extension_'
'everything_'
'events_'
'erreichen_'
'enthalten_'
'easily_'
'difficult_'
'costs_'
'complete_'
'besser_'
'ber_'
'beginning_'
'arbeiten_'
'addition_'
'Vorschlag_'
'Version_'
'Verbindung_'
'T'
'Software_'
'Richtung_'
'Richtlinie_'
'Recht_'
'März_'
'Musik_'
'His_'
'Dr_'
'DLL_'
'Bilder_'
'Bedingungen_'
'Anwendung_'
'Africa_'
': „_'
'week_'
'visit_'
'thus_'
'themselves_'
'stage_'
'sea_'
'resources_'
'rental_'
'remain_'
'regulation_'
'questions_'
'que_'
'price_'
'member_'
'makes_'
'konnte_'
'kleinen_'
'jeden_'
'institutions_'
'helfen_'
'gehört_'
'friendly_'
'ert_'
'developing_'
'daran_'
'cy_'
'crisis_'
'created_'
'content_'
'contains_'
'competition_'
'co_'
'apartment_'
'Zum_'
'Tagen_'
'St_'
'Spain_'
'Seit_'
'Russia_'
'Republic_'
'Ort_'
'Mitarbeiter_'
'Japan_'
'January_'
'ISO_'
'Home_'
'Hinblick_'
'Grund_'
'Gottes_'
'Geschichte_'
'Europas_'
'Do_'
'Christ_'
'90_'
'* _'
' »_'
' [_'
'• _'
'zen_'
'weniger_'
'video_'
'v_'
'treatment_'
'tragen_'
'successful_'
'steht_'
'proposed_'
'please_'
'operation_'
'neu_'
'materials_'
'führt_'
'foreign_'
'f'
'eren_'
'effects_'
'due_'
'directly_'
'del_'
'darf_'
'building_'
'bring_'
'bleiben_'
'authorities_'
'along_'
'ads_'
'Wirtschaft_'
'W_'
'Verfügung_'
'Umsetzung_'
'Treaty_'
'Spielen_'
'S'
'Rolle_'
'October_'
'Nacht_'
'Mai_'
'Liste_'
'Gemeinschaft_'
'Energie_'
'Chinese_'
'C'
'Bild_'
'B'
'2002_'
'1999_'
'. '
'– _'
'word_'
'wegen_'
'vielen_'
'verwendet_'
'top_'
'soon_'
'solutions_'
'solution_'
'sofort_'
'schaffen_'
'respect_'
'requirements_'
'required_'
'reports_'
'release_'
'provides_'
'politik_'
'pay_'
'parties_'
'oft_'
'nden_'
'muß_'
'mobile_'
'might_'
'ments_'
'let_'
'latest_'
'keep_'
'ierung_'
'hohe_'
'hard_'
'groups_'
'ging_'
'gerade_'
'fünf_'
'ful_'
'freedom_'
'files_'
'fest_'
'feel_'
'essential_'
'equipment_'
'enden_'
'century_'
'billion_'
'betrifft_'
'bereit_'
'bekannt_'
'beach_'
'[_'
'Windows_'
'W'
'Von_'
'Today_'
'Some_'
'Punkt_'
'P'
'O'
'Now_'
'National_'
'Mittel_'
'Markt_'
'Mal_'
'Grundlage_'
'Gesundheit_'
'General_'
'Development_'
'Aus_'
'06_'
'ähnliche_'
'zwar_'
'ze_'
'wish_'
'weiß_'
'weit_'
'ur_'
'transfer_'
'training_'
'technical_'
'ta_'
'strategy_'
'ster_'
'standard_'
'sign_'
'shower_'
'series_'
'risk_'
'responsible_'
'res_'
'recht_'
'reach_'
'ra_'
'progress_'
'politische_'
'plan_'
'len_'
'led_'
'leading_'
'könnten_'
'knowledge_'
'integration_'
'ings_'
'ine_'
'image_'
'ige_'
'holiday_'
'großer_'
'gab_'
'enough_'
'efforts_'
'early_'
'dialogue_'
'cross_'
'cht_'
'check_'
'center_'
'box_'
'bitte_'
'added_'
'Zukunft_'
'Systems_'
'Strategie_'
'Sport_'
'Spanien_'
'Situation_'
'Schritt_'
'Prozent_'
'Natur_'
'More_'
'Man_'
'Ihrem_'
'H_'
'Förderung_'
'Erfahrung_'
'Dieser_'
'DVD_'
'By_'
'Beitrag_'
'Affairs_'
'., _'
'. (_'
', "_'
'zed_'
'würden_'
'wide_'
'village_'
'turn_'
'summer_'
'study_'
'stop_'
'sogar_'
'shown_'
'short_'
'sent_'
'schnell_'
'responsibility_'
'remains_'
'quickly_'
'produced_'
'possibility_'
'original_'
'location_'
'levels_'
'leben_'
'lead_'
'ken_'
'keinen_'
'ke_'
'involved_'
'included_'
'impact_'
'hotels_'
'guests_'
'ft_'
'former_'
'folgenden_'
'erst_'
'directive_'
'connection_'
'clearly_'
'border_'
'book_'
'annual_'
'agree_'
'active_'
'Zahl_'
'V'
'Unsere_'
'Team_'
'Qualität_'
'PC_'
'Of_'
'Nutzung_'
'Möglichkeiten_'
'Karte_'
'July_'
'Japanese_'
'Italy_'
'Institute_'
'House_'
'Here_'
'Hamburg_'
'Gebiet_'
'Fehler_'
'Februar_'
'Dienstleistungen_'
'D'
'City_'
'35_'
'&_'
' ?_'
'„_'
'x'
'weiteren_'
'vor'
'unterstützen_'
'tax_'
'takes_'
'spielte_'
'sound_'
'regard_'
'received_'
'rates_'
'practice_'
'photos_'
'needed_'
'move_'
'mindestens_'
'links_'
'liegen_'
'kitchen_'
'jedes_'
'improve_'
'ierte_'
'hours_'
'ground_'
'goal_'
'gentlemen_'
'genau_'
'ganze_'
'focus_'
'excellent_'
'don_'
'cal_'
'Y_'
'West_'
'Rates_'
'Parlaments_'
'Park_'
'Minuten_'
'Justice_'
'Juli_'
'Januar_'
'J'
'Italian_'
'IP_'
'Frieden_'
'Free_'
'Flughafen_'
'Familie_'
'Doch_'
'Czech_'
'Bevölkerung_'
'A'
'70_'
'07_'
'02_'
' — _'
'é_'
'wenig_'
'weltweit_'
'vote_'
'verschiedene_'
'unterstützt_'
'types_'
'thing_'
'station_'
'staff_'
'ssen_'
'sowohl_'
'shop_'
'seen_'
'search_'
'restaurant_'
'read_'
'processes_'
'principle_'
'presented_'
'places_'
'partner_'
'nämlich_'
'nce_'
'media_'
'mail_'
'machine_'
'low_'
'longer_'
'legislation_'
'jedem_'
'je_'
'items_'
'internal_'
'instead_'
'indem_'
'ier_'
'gives_'
'gemacht_'
'forms_'
'film_'
'face_'
'event_'
'erreicht_'
'erlaubt_'
'erforderlich_'
'ebenfalls_'
'decisions_'
'concerning_'
'brought_'
'besucht_'
'bereich_'
'bekommen_'
'ant_'
'almost_'
'Während_'
'Wort_'
'Weitere_'
'Video_'
'Universität_'
'USB_'
'U'
'Produktion_'
'Policy_'
'Organisation_'
'Mediterranean_'
'Homepage_'
'GmbH_'
'Frühstück_'
'Fotos_'
'F'
'Entscheidung_'
'English_'
'EN_'
'Church_'
'Brüssel_'
'Brussels_'
'Auswirkungen_'
'Anzahl_'
'Abkommen_'
'2'
'“, _'
'zeit_'
'workers_'
'wohl_'
'wine_'
'welcome_'
'understand_'
'sustainable_'
'success_'
'sprechen_'
'spielen_'
'sollen_'
'siehe_'
'shows_'
'ship_'
'send_'
'screen_'
'ring_'
'requests_'
'regarding_'
'receive_'
'property_'
'program_'
'previous_'
'percent_'
'opportunity_'
'opened_'
'news_'
'model_'
'meiner_'
'ks_'
'ker_'
'ideal_'
'guarantee_'
'growing_'
'greater_'
'gerne_'
'gas_'
'force_'
'famous_'
'erung_'
'entwickelt_'
'ens_'
'einzelnen_'
'derzeit_'
'decided_'
'd'
'consider_'
'concerned_'
'child_'
'cases_'
'capital_'
'bzw_'
'aware_'
'ations_'
'appropriate_'
'analysis_'
'amount_'
'alone_'
'ad_'
'activity_'
'above_'
'ability_'
'Zusammenhang_'
'Wert_'
'Unterkunft_'
'Tatsache_'
'Straße_'
'Sprache_'
'Spielfreie_'
'Spanish_'
'Saint_'
'Programme_'
'Position_'
'Person_'
'Mo'
'Mitglied_'
'Meer_'
'Mail_'
'Last_'
'Jahres_'
'Italien_'
'Investitionen_'
'H'
'Gäste_'
'February_'
'Central_'
'Center_'
'British_'
'Austria_'
'.“_'
' ( _'
'zehn_'
'y'
'wichtigsten_'
'visited_'
'terrace_'
'steps_'
'six_'
'sites_'
'sing_'
'says_'
'ro_'
'regional_'
'proposals_'
'procedures_'
'procedure_'
'population_'
'plant_'
'picture_'
'party_'
'objectives_'
'normal_'
'ning_'
'nice_'
'minute_'
'leicht_'
'job_'
'ite_'
'internet_'
'independent_'
'igen_'
'ideas_'
'i'
'higher_'
'handelt_'
'goods_'
'gemeinsamen_'
'fight_'
'fen_'
'features_'
'fair_'
'enthält_'
'either_'
'einigen_'
'download_'
'direct_'
'deshalb_'
'dar_'
'cs_'
'covered_'
'context_'
'bank_'
'approach_'
'applied_'
'anderer_'
'allow_'
'airport_'
'address_'
'actually_'
'Zugang_'
'X'
'Villa_'
'Verwendung_'
'Verbesserung_'
'Updates_'
'Then_'
'Tee_'
'Studio_'
'Russian_'
'Platz_'
'Office_'
'News_'
'Museum_'
'Landwirtschaft_'
'Küche_'
'Kontakt_'
'Ko'
'Industrie_'
'Höhe_'
'Gong_'
'Gesellschaft_'
'Garten_'
'Forschung_'
'Form_'
'Festival_'
'Farben_'
'Erfolg_'
'Energy_'
'Dinge_'
'Darüber_'
'Costa_'
'Breakfast_'
'Bo'
'Bereichen_'
'Aussprache_'
'Asia_'
'72_'
'45_'
'44_'
'33_'
'300_'
'1997_'
'-, _'
'öffentlichen_'
'zeigen_'
'wobei_'
'werde_'
'vielleicht_'
'verwenden_'
'verfügbar_'
'update_'
'throughout_'
'text_'
'supported_'
'style_'
'states_'
'solche_'
'seines_'
'road_'
'review_'
'representatives_'
'rent_'
'rather_'
'rate_'
'quite_'
'produce_'
'players_'
'pe_'
'outside_'
'opportunities_'
'opinion_'
'oben_'
'nächsten_'
'nie_'
'network_'
'month_'
'money_'
'military_'
'mann_'
'mainly_'
'lle_'
'kosten_'
'jeder_'
'ionen_'
'inside_'
'includes_'
'implemented_'
'immediately_'
'hätte_'
'ha_'
'glaube_'
'ger_'
'folgende_'
'findet_'
'euros_'
'established_'
'erwartet_'
'entwickeln_'
'eigene_'
'eben_'
'documents_'
'dining_'
'dich_'
'devices_'
'den'
'democracy_'
'concerns_'
'ces_'
'card_'
'built_'
'beste_'
'beispielsweise_'
'behalf_'
'befinden_'
'ausgestattet_'
'ated_'
'ale_'
'actions_'
'accommodation_'
'Ziele_'
'Z'
'Woche_'
'Wirtschafts'
'Wien_'
'Western_'
'Vater_'
'Produkt_'
'Mrs_'
'Monaten_'
'Mehr_'
'Madrid_'
'Kultur_'
'Kirche_'
'Kampf_'
'K'
'Iran_'
'Interesse_'
'IT_'
'Hinzugefügt_'
'Haupt'
'Hand_'
'Geist_'
'Games_'
'Fällen_'
'Ergebnisse_'
'EC_'
'Download_'
'Day_'
'Damit_'
'Code_'
'Club_'
'Christian_'
'CD_'
'Bed_'
'Bar_'
'Angebot_'
'Also_'
'42_'
'03_'
'. "_'
'+_'
' ‘_'
'Übereinkommen_'
'Öffentlichkeit_'
'Ä'
'« _'
'ziehen_'
'ya_'
'wirtschaftliche_'
'wichtigen_'
'web_'
'weather_'
'v'
'unique_'
'tra'
'test_'
'sure_'
'sun_'
'students_'
'sprach_'
'skin_'
'simply_'
'section_'
'schöne_'
'sales_'
'relations_'
'regions_'
'recently_'
'reality_'
'ready_'
'published_'
'programmes_'
'phone_'
'persons_'
'ow_'
'operating_'
'nutzen_'
'nimmt_'
'ngen_'
'n'
'medium_'
'maximum_'
'ma_'
'link_'
'lines_'
'lang_'
'ladies_'
'labour_'
'kam_'
'ka_'
'justice_'
'joint_'
'insgesamt_'
'initiative_'
'huge_'
'head_'
'happy_'
'gemeinsam_'
'gefunden_'
'funding_'
'eten_'
'ene_'
'employees_'
'education_'
'designed_'
'darum_'
'dadurch_'
'considered_'
'concern_'
'computer_'
'completely_'
'color_'
'collection_'
'clients_'
'civil_'
'certainly_'
'calls_'
'brand_'
'booking_'
'black_'
'bad_'
'Zugriffe_'
'Werte_'
'Wednesday_'
'Verhandlungen_'
'Tage_'
'Research_'
'Raum_'
'R'
'Presidency_'
'Party_'
'OS_'
'No'
'Monate_'
'Mensch_'
'Members_'
'Mann_'
'Macht_'
'Lösungen_'
'Li'
'J_'
'Gruppe_'
'Greece_'
'Gesamt'
'Frankreich_'
'Frankfurt_'
'Einsatz_'
'Dateien_'
'Datei_'
'CO2_'
'Bitte_'
'Besuche_'
'Behörden_'
'Außerdem_'
'Ausstellung_'
'Anwendungen_'
': '
'…_'
'® _'
'wider_'
'wichtiger_'
'wall_'
'walk_'
'victims_'
'verfügt_'
'verbessert_'
'verbessern_'
'thousands_'
'thank_'
'structure_'
'simple_'
'significant_'
'setzen_'
'separate_'
'se'
'schützen_'
'rest_'
'relationship_'
'regular_'
'raum_'
'protect_'
'potential_'
'player_'
'ping_'
'physical_'
'parts_'
'partners_'
'office_'
'objective_'
'note_'
'nationalen_'
'mountain_'
'models_'
'mis'
'meters_'
'meinen_'
'mehrere_'
'map_'
'm'
'llen_'
'letzte_'
'later_'
'konnten_'
'klar_'
'ive_'
'integrated_'
'il_'
'igkeit_'
'hohen_'
'globalen_'
'gleichen_'
'genießen_'
'gegeben_'
'garden_'
'fundamental_'
'frei_'
'follow_'
'faith_'
'fahren_'
'est_'
'ermöglicht_'
'drive_'
'customer_'
'cultural_'
'cover_'
'community_'
'commitment_'
'coming_'
'choose_'
'central_'
'c'
'browser_'
'bathroom_'
'base_'
'b'
'aufgenommen_'
'asked_'
'ard_'
'agreed_'
'advantages_'
'York_'
'Y'
'Vorteile_'
'Verwaltung_'
'Up_'
'Unser_'
'Umgebung_'
'Transport_'
'Top_'
'Technik_'
'Standard_'
'Since_'
'Rights_'
'Reise_'
'Reihe_'
'Puzzle_'
'Press_'
'PDF_'
'Optionen_'
'Neu'
'Max_'
'Many_'
'Link_'
'Lei_'
'L'
'Ireland_'
'Inserate_'
'Health_'
'Government_'
'Geld_'
'Friday_'
'Foreign_'
'Finanz'
'Even_'
'Energie'
'EIB_'
'Deutsche_'
'Design_'
'DE_'
'Currently_'
'Christus_'
'Business_'
'Bezug_'
'Bad_'
'Auswahl_'
'Antwort_'
'Android_'
'800_'
'75_'
'48_'
'4'
'2020_'
'" (_'
' €_'
' ('
' $_'
'ät_'
'ßt_'
'Über_'
'Änderungen_'
'»_'
'´_'
'zweiten_'
'writing_'
'whose_'
'wer_'
'weight_'
'völlig_'
'visits_'
'values_'
'ums_'
'to'
'thousand_'
'though_'
'thanks_'
'technische_'
'suchen_'
'storage_'
'stark_'
'sse_'
'später_'
'sozialen_'
'source_'
'sometimes_'
'setzt_'
'sense_'
'seems_'
'seek_'
'schwer_'
'school_'
'requires_'
'reich_'
'reduced_'
'reading_'
'priority_'
'press_'
'or'
'opening_'
'ns'
'ms_'
'mittel_'
'message_'
'mean_'
'maintenance_'
'los_'
'lies_'
'late_'
'lack_'
'internationale_'
'in'
'ical_'
'ian_'
'homepage_'
'haus_'
'gt_'
'getting_'
'gestellt_'
'genommen_'
'finance_'
'final_'
'father_'
'everyone_'
'ever_'
'ess_'
'equipped_'
'entire_'
'efficient_'
'e'
'display_'
'ding_'
'di_'
'develop_'
'description_'
'demand_'
'death_'
'deal_'
'concept_'
'clean_'
'church_'
'choice_'
'ch'
'cause_'
'carried_'
'bringt_'
'brauchen_'
'board_'
'ber'
'beide_'
'ask_'
'apply_'
'answer_'
'ans_'
'allows_'
'aimed_'
'acht_'
'Zurzeit_'
'Zur_'
'Zentrum_'
'Wachstum_'
'Volk_'
'Ukraine_'
'Turkey_'
'Therefore_'
'Te'
'Switzerland_'
'Stunden_'
'Start_'
'Standpunkt_'
'Social_'
'See_'
'Regionen_'
'Q'
'Präsidentin_'
'Projekte_'
'Programms_'
'Preise_'
'Pi'
'Music_'
'Mrd_'
'Microsoft_'
'Meinung_'
'Mar'
'Linie_'
'Licht_'
'Krise_'
'Kommissar_'
'Kollegen_'
'Its_'
'Island_'
'Is_'
'IS'
'ID_'
'Hintergrund_'
'Herzen_'
'Gruppen_'
'Global_'
'First_'
'Every_'
'Einige_'
'E'
'Deshalb_'
'Convention_'
'Blick_'
'Augen_'
'Although_'
'64_'
'55_'
'36_'
'1996_'
'1'
'.)_'
', '
' € _'
' :_'
'”, _'
'ßen_'
'z'
'worldwide_'
'worked_'
'wollte_'
'win_'
'wichtige_'
'wi'
'wants_'
'views_'
'verstehen_'
'verbunden_'
'vehicles_'
'va_'
'ut_'
'user_'
'un_'
'uf'
'tt_'
'true_'
'tions_'
'telephone_'
'teilen_'
'stone_'
'stable_'
'south_'
'solchen_'
'size_'
'setting_'
'select_'
'schaft_'
'satellite_'
'sagt_'
'risks_'
'response_'
'reservation_'
'reasons_'
'radio_'
'ps_'
'principles_'
'prevent_'
'prepared_'
'post_'
'perhaps_'
'perfect_'
'park_'
'paid_'
'outdoor_'
'official_'
'offering_'
'o'
'no'
'neuer_'
'negotiations_'
'nahm_'
'met_'
'mentioned_'
'meinem_'
'leisten_'
'learn_'
'jeweils_'
'j'
'ism_'
'ire_'
'innovative_'
'industrial_'
'hoch_'
'größere_'
'got_'
'gi'
'ges_'
'geeignet_'
'fragen_'
'formal_'
'fish_'
'fields_'
'fall_'
'facts_'
'exercise_'
'exactly_'
'erte_'
'ermöglichen_'
'erklärte_'
'erfüllt_'
'enable_'
'elements_'
'einschließlich_'
'discussion_'
'dir_'
'detail_'
'darin_'
'culture_'
'contribution_'
'continued_'
'conference_'
'climate_'
'cher_'
'businesses_'
'buildings_'
'bleibt_'
'bit_'
'benefit_'
'balance_'
'assistance_'
'ary_'
'approved_'
'apartments_'
'ang_'
'allein_'
'aim_'
'act_'
'achieved_'
'accept_'
'ab'
'a'
'Zu_'
'Zeitpunkt_'
'Wo'
'Vor'
'Viele_'
'Verordnung_'
'Verfahren_'
'Verbraucher_'
'Update_'
'Time_'
'Suite_'
'Sohn_'
'She_'
'Security_'
'Schwierigkeiten_'
'Schaffung_'
'Room_'
'Regel_'
'Read_'
'Player_'
'Plan_'
'Partner_'
'Open_'
'Ne'
'Nationen_'
'Mu'
'Montag_'
'Mittwoch_'
'Market_'
'Management_'
'Main_'
'Lu'
'Lo'
'LORD_'
'Körper_'
'Kraft_'
'Ja'
'Integration_'
'Insel_'
'Herausforderungen_'
'Größe_'
'Grenzen_'
'Greek_'
'Grad_'
'Finally_'
'Environment_'
'Entscheidungen_'
'EG_'
'Director_'
'Dann_'
'Da'
'Co'
'Che'
'Bol'
'Board_'
'Bildung_'
'Beziehungen_'
'Bau'
'Australia_'
'Arbeiten_'
'Angelegenheiten_'
'Anforderungen_'
'Air_'
'Agency_'
'AR'
'600_'
'39_'
'38_'
'25'
'1998_'
'150_'
'10'
'.'
'). _'
' » _'
' > _'
' + _'
'… _'
'öffnen_'
'ändern_'
'Über'
'Öl_'
'zahlreiche_'
'ye_'
'woman_'
'wife_'
'west_'
'warum_'
'voted_'
'vorhanden_'
'vision_'
'vehicle_'
'ur'
'treffen_'
'trans'
'ton_'
'ties_'
'thought_'
'ten'
'task_'
'tan'
'studies_'
'stability_'
'spezifische_'
'speak_'
'somit_'
'so'
'snow_'
'sis_'
'serve_'
'self_'
'sechs_'
'season_'
'safe_'
'richtig_'
'return_'
'registered_'
'reduction_'
'reduce_'
'recent_'
'rd_'
'provisions_'
'presence_'
'practical_'
'port_'
'police_'
'playing_'
'participants_'
'pages_'
'pa'
'ot_'
'ones_'
'notwendig_'
'nothing_'
'nis_'
'nd'
'moment_'
'marketing_'
'manager_'
'lt_'
'lost_'
'loss_'
'lokalen_'
'li_'
'length_'
'komplett_'
'kaufen_'
'k'
'jobs_'
'je'
'ise_'
'interests_'
'installation_'
'income_'
'id_'
'ice_'
'hold_'
'highly_'
'highest_'
'heißt_'
'geworden_'
'gesamten_'
'genutzt_'
'gehören_'
'geführt_'
'gave_'
'gallery_'
'function_'
'friends_'
'finally_'
'eye_'
'experienced_'
'expect_'
'eu'
'erkennen_'
'entsprechend_'
'ele'
'effect_'
'dürfen_'
'du'
'dly_'
'digital_'
'der'
'democratic_'
'daily_'
'crime_'
'cost_'
'contribute_'
'considerable_'
'conclusions_'
'committed_'
'comfortable_'
'club_'
'closer_'
'click_'
'cars_'
'capacity_'
'bisher_'
'bestimmt_'
'benefits_'
'bedrooms_'
'beachten_'
'bau_'
'band_'
'balcony_'
'aufgrund_'
'arrival_'
'ana_'
'aims_'
'agriculture_'
'across_'
']_'
'Winter_'
'Werk_'
'Webseite_'
'Web_'
'WTO_'
'WI'
'Vorschriften_'
'Vertrag_'
'Vereinigten_'
'Urlaub_'
'UK_'
'Türkei_'
'Tour_'
'Tool_'
'Swiss_'
'Suche_'
'Spirit_'
'Special_'
'Sommer_'
'So'
'Sicherheits'
'Server_'
'See'
'Samstag_'
'Ri'
'Reform_'
'Praxis_'
'Poker_'
'Phase_'
'Paul_'
'Organisationen_'
'Nr_'
'Not_'
'North_'
'N'
'Most_'
'Moreover_'
'Mi'
'Man'
'Malta_'
'Mac_'
'Lösung_'
'Lissabon_'
'Lisbon_'
'Kunst_'
'Krieg_'
'Kontrolle_'
'King_'
'Ju'
'Ja_'
'Inter'
'Institut_'
'In'
'Idee_'
'Hungary_'
'Holy_'
'Ho'
'He'
'Ha'
'Gi'
'Gerät_'
'Funktion_'
'Formen_'
'Familien_'
'Euro'
'El'
'Economic_'
'Eastern_'
'Du_'
'Debatte_'
'David_'
'Dar'
'Dank_'
'Croatia_'
'Christmas_'
'Centre_'
'Ca'
'Buch_'
'Boden_'
'Bis_'
'Bio'
'Aufnahme_'
'Aufgaben_'
'Arten_'
'Anfang_'
'Andere_'
'Alter_'
'According_'
'Ab'
'22'
'20'
'1995_'
'12'
' ... _'
'öffentliche_'
'ö'
'í'
'é'
'äußerst_'
'ären_'
'zation_'
'wählen_'
'written_'
'wor'
'wonderful_'
'wirtschaftlichen_'
'wind_'
'whom_'
'white_'
'wanted_'
'vo'
'visitors_'
'verkehr_'
'verfügen_'
'ver_'
'valid_'
'usw_'
'unto_'
'unternehmen_'
'uni'
'turned_'
'try_'
'trip_'
'travel_'
'ti_'
'thy_'
'the'
'ter'
'technologies_'
'tasks_'
'sts_'
'stelle_'
'stein_'
'ste'
'statements_'
'standards_'
'speed_'
'sicherzustellen_'
'ses_'
'sen'
'scope_'
'scientific_'
'schreiben_'
'schließen_'
'save_'
'sale_'
'run_'
'richtige_'
'removed_'
'released_'
'regionalen_'
'que'
'purpose_'
'punkt_'
'providing_'
'properties_'
'priorities_'
'pictures_'
'persönlichen_'
'pe'
'patients_'
'otherwise_'
'ory_'
'onen_'
'on'
'nuclear_'
'ng'
'neues_'
'nder_'
'namely_'
'nahe_'
'nach'
'mus_'
'mittels_'
'mind_'
'methods_'
'menschlichen_'
'maßnahmen_'
'majority_'
'lösen_'
'lly_'
'limit_'
'licher_'
'lebt_'
'leave_'
'languages_'
'laden_'
'ky_'
'klicken_'
'ität_'
'ities_'
'ischer_'
'influence_'
'increased_'
'ichen_'
'ht_'
'houses_'
'hour_'
'hot_'
'historical_'
'historic_'
'happened_'
'h'
'glass_'
'gewesen_'
'geschehen_'
'gel'
'fördern_'
'friend_'
'flat_'
'fixed_'
'favour_'
'facing_'
'extremely_'
'express_'
'exhibition_'
'eu_'
'establishment_'
'erster_'
'error_'
'erhältlich_'
'enter_'
'encourage_'
'elle_'
'eher_'
'earth_'
'duty_'
'ds_'
'do'
'dienen_'
'deutsche_'
'detailed_'
'dedicated_'
'creation_'
'couple_'
'contained_'
'condition_'
'comprehensive_'
'complex_'
'commercial_'
'closed_'
'cken_'
'cher'
'changed_'
'challenges_'
'bus_'
'bu'
'bt_'
'broad_'
'blue_'
'becomes_'
'became_'
'bea'
'baren_'
'bare_'
'average_'
'automatically_'
'authority_'
'atz_'
'ator_'
'atmosphere_'
'artists_'
'anti'
'agreements_'
'ag_'
'adoption_'
'add_'
'achieve_'
'Zu'
'Wohnung_'
'Wochen_'
'Why_'
'While_'
'War_'
'Vorschläge_'
'Valencia_'
'Use_'
'Uni'
'UN_'
'Tours_'
'Tod_'
'Thomas_'
'Text_'
'TA'
'Sunday_'
'Strand_'
'Stadt'
'Spiel'
'Sha'
'Sea_'
'Science_'
'Schweiz_'
'Royal_'
'Republik_'
'Regulation_'
'Regierungen_'
'Regelung_'
'RO'
'Protokoll_'
'Produkt'
'Poland_'
'Peter_'
'Parkplatz_'
'PA'
'Nicht_'
'Nachdem_'
'Mutter_'
'Monday_'
'Mietwagen_'
'Michael_'
'Meter_'
'Martin_'
'Linux_'
'Life_'
'Le_'
'Landschaft_'
'Landes_'
'Lake_'
'La'
'Ku'
'Kommissarin_'
'Kenntnis_'
'Jerusalem_'
'Jahrhundert_'
'Institutionen_'
'Holiday_'
'Geschäfts'
'Ger'
'Freitag_'
'Film_'
'Fenster_'
'Europcar_'
'ER_'
'Du'
'Donnerstag_'
'Dienst_'
'Den_'
'De'
'Dabei_'
'DIN_'
'Chi'
'Car_'
'Car'
'Bundes'
'Before_'
'Because_'
'Aufmerksamkeit_'
'Aufgabe_'
'Aufenthalt_'
'Au'
'Arbeits'
'Anschluss_'
'Anfrage_'
'Aktivitäten_'
'Adresse_'
'1994_'
'1993_'
'1992_'
'195'
'11'
'.) _'
') '
' ; _'
'ß'
'zimmer_'
'yourself_'
'wenige_'
'welches_'
'welcher_'
'watch_'
'waste_'
'ware_'
'ving_'
've'
'unterschiedlichen_'
'um'
'u'
'tätig_'
'tool_'
'te'
't'
'swimming_'
'surface_'
'strengthen_'
'starts_'
'ss'
'square_'
'spirit_'
'similar_'
'sieben_'
'seeking_'
'sed_'
'seat_'
'saw_'
'sa_'
'rural_'
'rin'
'rich_'
'resistance_'
'relevant_'
'relativ_'
'registration_'
'reference_'
're'
'rapporteur_'
'r'
'purposes_'
'proper_'
'promote_'
'powerful_'
'plätze_'
'photo_'
'performed_'
'per'
'pass_'
'package_'
'paar_'
'oren_'
'one'
'obwohl_'
'nti'
'notice_'
'nes_'
'nb'
'multi'
'movement_'
'mode_'
'mi'
'mes_'
'mel'
'mehreren_'
'med_'
'managed_'
'machines_'
'lässt_'
'luxury_'
'lower_'
'lose_'
'lo'
'limited_'
'likely_'
'legt_'
'leaders_'
'lan'
'kennen_'
'jede_'
'ja'
'item_'
'issued_'
'inter'
'insurance_'
'increasing_'
'improvement_'
'ie'
'häufig_'
'ht'
'hoffe_'
'her'
'helps_'
'heating_'
'heard_'
'hand'
'guten_'
'gs_'
'go'
'gezeigt_'
'getan_'
'gesamte_'
'gesagt_'
'gebracht_'
'fähigkeit_'
'funds_'
'fun_'
'fuel_'
'ff_'
'festgelegt_'
'feature_'
'fear_'
'fe_'
'fand_'
'ey_'
'es'
'erklärt_'
'erhöht_'
'ere_'
'elections_'
'einzige_'
'ed'
'dro'
'doing_'
'distribution_'
'differences_'
'deutschen_'
'demands_'
'deine_'
'dein_'
'cut_'
'conflict_'
'coffee_'
'class_'
'chinesischen_'
'chance_'
'buy_'
'build_'
'bright_'
'besuchen_'
'besonderen_'
'behind_'
'basic_'
'barkeit_'
'background_'
'awareness_'
'außerhalb_'
'außerdem_'
'at'
'assist_'
'appearance_'
'anzu'
'annehmen_'
'ance_'
'aktuellen_'
'ah_'
'agen_'
'affected_'
'accessories_'
'Zeitraum_'
'Zeichen_'
'Year_'
'Wettbewerb_'
'Wer_'
'Water_'
'Wa'
'Vorteil_'
'Vielfalt_'
'Vergleich_'
'Veranstaltungen_'
'Thus_'
'Test_'
'Terrasse_'
'Technologie_'
'Steuer'
'Sterne_'
'Stand_'
'Sicht_'
'Shop_'
'Services_'
'Se'
'Schlafzimmer_'
'Santa_'
'Sa'
'SM'
'Rück'
'Ra'
'Public_'
'Pu'
'Prozess_'
'Projekt'
'Plan'
'Pa'
'Or'
'Only_'
'ON_'
'Nun_'
'Notwendigkeit_'
'Ni'
'Nations_'
'Na'
'Mor'
'Mitte_'
'Mit'
'Ministry_'
'Middle_'
'Media_'
'Maria_'
'MI'
'MA'
'Luxembourg_'
'Live_'
'Liebe_'
'Le'
'Latin_'
'Kinder'
'Kategorie_'
'Jo'
'Jean_'
'Je'
'Is'
'Initiative_'
'Inhalt_'
'Ihres_'
'Ideen_'
'High_'
'Herren_'
'Handel_'
'Hal'
'Gu'
'Groß'
'Go'
'Geräte_'
'Gemeinsamen_'
'Gas_'
'Forschungs'
'Firma_'
'Fe'
'Facebook_'
'Ent'
'Elemente_'
'EN'
'EC'
'Druck'
'Dollar_'
'Direkt'
'Dialog_'
'Daher_'
'Chrome_'
'Can_'
'CI'
'CH'
'Bur'
'Bulgaria_'
'Bewertung_'
'Benutzer_'
'Belgium_'
'Bel'
'Bekämpfung_'
'Behandlung_'
'Beach_'
'Basis_'
'Ba'
'Ar'
'Apartment_'
'Ansicht_'
'Analyse_'
'Amsterdam_'
'Action_'
'93_'
'85_'
'5'
'47_'
'34_'
'1000_'
'0'
'/ _'
'. - (_'
'öl'
'ón_'
'í_'
'­_'
'} _'
'zweite_'
'zudem_'
'zahlreichen_'
'zahlen_'
'ying_'
'ye'
'xHamster_'
'wood_'
'witness_'
'went_'
'weg_'
'weder_'
'violence_'
'villas_'
'versuchen_'
'verlassen_'
'ver'
'usually_'
'uses_'
'unten_'
'understanding_'
'under'
'umfassenden_'
'ue'
'tut_'
'trees_'
'traffic_'
'traditional_'
'told_'
'tly_'
'temperature_'
'tell_'
'teil_'
'technischen_'
'super'
'substantial_'
'substances_'
'su'
'steel_'
'started_'
'sorgen_'
'someone_'
'solid_'
'served_'
'serious_'
'selected_'
'sectors_'
'schließlich_'
'scher_'
'ri_'
'rg'
'reserve_'
'require_'
'religious_'
'regulations_'
'record_'
'recommend_'
'reached_'
'prior_'
'pressure_'
'president_'
'prepare_'
'pre'
'poverty_'
'po'
'plants_'
'planning_'
'phase_'
'p'
'organizations_'
'organization_'
'organised_'
'oo'
'ol'
'offices_'
'nu'
'nte_'
'ngs_'
'neben_'
'nationaler_'
'nahme_'
'möglicherweise_'
'myself_'
'multi_'
'mother_'
'mission_'
'ming_'
'method_'
'meter_'
'mer_'
'mer'
'medicine_'
'mark_'
'lokale_'
'ln_'
'liefern_'
'legislative_'
'lediglich_'
'la'
'kurz_'
'kommenden_'
'ko'
'kg_'
'ju'
'jo'
'japanisch_'
'ir'
'investments_'
'introduced_'
'institutional_'
'ing'
'implement_'
'iger_'
'ier'
'hält_'
'hy'
'hostels_'
'hn'
'hl'
'he'
'hast_'
'governments_'
'gleich_'
'gewährleisten_'
'gewinnen_'
'geschaffen_'
'genug_'
'gen'
'gemäß_'
'gemeinsame_'
'foot_'
'followed_'
'flexibility_'
'fine_'
'financing_'
'falls_'
'fallen_'
'extensive_'
'ette_'
'estimated_'
'erweitert_'
'ement_'
'electronic_'
'ela'
'ein'
'effort_'
'efficiency_'
'ech'
'ea'
'drugs_'
'draft_'
'document_'
'discrimination_'
'discover_'
'dis'
'des'
'delivered_'
'de'
'dar'
'ct_'
'crucial_'
'creating_'
'cra'
'core_'
'controls_'
'contacts_'
'construction_'
'constant_'
'connected_'
'combined_'
'colour_'
'cli'
'cks_'
'ci'
'ches_'
'cheap_'
'charge_'
'character_'
'ce'
'castle_'
'carry_'
'cally_'
'burg_'
'burden_'
'buchen_'
'bi'
'beyond_'
'bestehen_'
'besondere_'
'berg_'
'beds_'
'beauty_'
'bald_'
'back'
'ba'
'au'
'attack_'
'assessment_'
'ass_'
'artist_'
'angenommen_'
'ange'
'ancient_'
'amendments_'
'although_'
'alte_'
'ai'
'agricultural_'
'ag'
'acts_'
'Za'
'Wunsch_'
'Wohn'
'Wi'
'White_'
'Where_'
'Wettbewerbsfähigkeit_'
'Wahl_'
'Vorhaben_'
'Vertreter_'
'Vergangenheit_'
'Unter_'
'Unfortunately_'
'Un'
'Umwelt'
'Twitter_'
'Trade_'
'Three_'
'Texas_'
'Telefon_'
'Stimme_'
'Report_'
'Regional_'
'Rechte_'
'Radio_'
'RE'
'Prüfung_'
'Präsidenten_'
'Prof_'
'Pro'
'Polen_'
'Personal_'
'Partnerschaft_'
'Partei_'
'Osten_'
'Or_'
'Ol'
'Nur_'
'Neue_'
'Nach'
'Mobile_'
'Mitteilung_'
'Menschenrechte_'
'Meeting_'
'Meeres'
'Materialien_'
'Material_'
'Maschinen_'
'Manager_'
'Lebens'
'Laufe_'
'Land'
'Königreich_'
'König_'
'Kosovo_'
'Klima_'
'Kingdom_'
'Ka'
'Johannes_'
'Jetzt_'
'Investment_'
'Instrumente_'
'Installation_'
'Inseln_'
'Infrastruktur_'
'Human_'
'Hoffnung_'
'Herstellung_'
'Hauses_'
'HO'
'HD_'
'Griechenland_'
'Gewicht_'
'Gebieten_'
'Gebiete_'
'Gast'
'Gar'
'Ga'
'Fraktion_'
'Foto_'
'Forum_'
'Fortschritte_'
'Food_'
'Flash_'
'Fi'
'Ferienhäuser_'
'Federal_'
'Fa'
'Entschließung_'
'Enterprise_'
'Ed'
'ES'
'Dorf_'
'Deutsch_'
'Damen_'
'DE'
'County_'
'Conference_'
'Bor'
'Block'
'Bild'
'Bestimmungen_'
'Bemühungen_'
'Beim_'
'Balkon_'
'Ausland_'
'Angebote_'
'Allerdings_'
'Agriculture_'
'Additional_'
'Abstimmung_'
': “_'
'60'
'50'
'120_'
'.._'
', “_'
'): _'
' [[_'
' (+_'
' !_'
'”._'
'–_'
'н'
'übernehmen_'
'ör'
'Überwachung_'
'Änderung_'
'» _'
'°_'
'zusammenstellung_'
'zing_'
'zer'
'ystem_'
'won_'
'wo'
'wishes_'
'window_'
'weise_'
'wa'
'w'
'voting_'
'vorgelegt_'
'vollständig_'
'videos_'
'veröffentlicht_'
'verfolgen_'
'ved_'
'variety_'
'uri'
'urban_'
'upper_'
'ungs'
'unge'
'understood_'
'una'
'umfasst_'
'uft_'
'uch_'
'tät_'
'tten_'
'trust_'
'trotz_'
'tro'
'translation_'
'topic_'
'tic_'
'ti'
'target_'
'tar'
'tag_'
'ständig_'
'stress_'
'stellte_'
'stated_'
'star_'
'stands_'
'standing_'
'st'
'spricht_'
'spending_'
'soziale_'
'sm_'
'ski_'
'situated_'
'sit'
'sion_'
'sieht_'
'shape_'
'sha'
'session_'
'schwierig_'
'scale_'
'sanctions_'
'sal'
's'
'round_'
'roof_'
'river_'
'ringen_'
'richtigen_'
'reu'
'returned_'
'respond_'
'rer_'
'requested_'
'regards_'
'refer_'
'rede'
'recovery_'
'rechte_'
'ran'
'provision_'
'properly_'
'produzieren_'
'pieces_'
'pen_'
'payments_'
'par'
'output_'
'ort_'
'organisations_'
'older_'
'og'
'officially_'
'objects_'
'numbers_'
'normalerweise_'
'nn_'
'neuesten_'
'neither_'
'negative_'
'ned_'
'modified_'
'modernen_'
'moderne_'
'minimum_'
'meines_'
'max_'
'lo_'
'linken_'
'largest_'
'lagen_'
'l'
'kt_'
'kt'
'knows_'
'ki_'
'junge_'
'isch_'
'is'
'io_'
'intended_'
'instruments_'
'ingen_'
'increasingly_'
'improved_'
'illegal_'
'il'
'ik_'
'ica_'
'hören_'
'hätten_'
'husband_'
'hol'
'hinsichtlich_'
'hin'
'himself_'
'happen_'
'hands_'
'handeln_'
'hair_'
'günstige_'
'guidelines_'
'gro'
'green_'
'gold_'
'goes_'
'geöffnet_'
'generally_'
'gelegen_'
'gekommen_'
'gebiet_'
'functions_'
'fra'
'forest_'
'fore'
'folgen_'
'flow_'
'finished_'
'filled_'
'felt_'
'factors_'
'extra_'
'extended_'
'evening_'
'erzielen_'
'erwarten_'
'erneut_'
'eri'
'erhält_'
'erfüllen_'
'erfolgreich_'
'erfolgen_'
'equal_'
'entweder_'
'engine_'
'endlich_'
'enables_'
'en'
'emp'
'emissions_'
'eln_'
'element_'
'eingesetzt_'
'einge'
'ef'
'durchgeführt_'
'door_'
'dll_'
'displayed_'
'disease_'
'discussed_'
'direction_'
'dient_'
'di'
'developments_'
'desire_'
'dep'
'degree_'
'deep_'
'decide_'
'dates_'
'daten_'
'dangerous_'
'cycle_'
'customs_'
'credit_'
'continuing_'
'consumers_'
'competence_'
'communities_'
'client_'
'cha'
'cable_'
'bro'
'borders_'
'bodies_'
'ble'
'bilden_'
'bewusst_'
'bevor_'
'bestimmte_'
'benutzen_'
'beitragen_'
'behandelt_'
'begin_'
'ban'
'ay_'
'aufzu'
'au_'
'attractive_'
'attitude_'
'attacks_'
'associated_'
'aspects_'
'article_'
'arbeitet_'
'applications_'
'appears_'
'appear_'
'announced_'
'animal_'
'angesichts_'
'anderes_'
'alternative_'
'allowed_'
'agenda_'
'accordance_'
'Zustand_'
'Zeit'
'Z_'
'Wärme'
'Welt'
'Wasser'
'Wahrheit_'
'WLAN_'
'WC_'
'Vo'
'Villen_'
'Vertrauen_'
'Versionen_'
'Verkehrs'
'Verkauf_'
'Vereinten_'
'Val'
'Ur'
'Tuesday_'
'Tru'
'Tradition_'
'Tiere_'
'Themen_'
'Thank_'
'Tat_'
'Take_'
'TE'
'Süd'
'Systeme_'
'Sweden_'
'Städte_'
'Station_'
'Square_'
'Spieler_'
'Son'
'Society_'
'Ski'
'Schule_'
'Schließlich_'
'Robert_'
'Reservierung_'
'Rent_'
'RA'
'Q_'
'Punkte_'
'Puerto_'
'Prioritäten_'
'Pri'
'Preis'
'Post'
'People_'
'Patienten_'
'Parteien_'
'Par'
'Page_'
'PO'
'Ober'
'Next_'
'Netherlands_'
'Nachrichten_'
'Ms_'
'Mother_'
'Modell_'
'Methoden_'
'Medien_'
'Markt'
'Mari'
'Madam_'
'Ma'
'MS_'
'MP'
'Länge_'
'Leistung_'
'LE'
'Kurz'
'Kriterien_'
'Konzept_'
'Kindern_'
'Kapital'
'Jews_'
'Interessen_'
'Insgesamt_'
'Innovation_'
'Innen_'
'Inn_'
'Heute_'
'Handels'
'HERR_'
'Gründen_'
'Green_'
'Gold_'
'Geschwindigkeit_'
'Gemeinde_'
'Gelegenheit_'
'Gebäude_'
'Garantie_'
'Further_'
'Funktionen_'
'Fund_'
'Find_'
'Finanzierung_'
'Father_'
'Farbe_'
'Erklärung_'
'Erde_'
'El_'
'EM'
'Dusche_'
'Durchführung_'
'Druck_'
'Doppelzimmer_'
'Diskussion_'
'Dimension_'
'Di'
'Details_'
'Denn_'
'Denmark_'
'Demokratie_'
'Debian_'
'Dafa_'
'Cy'
'Cor'
'Computer_'
'Communication_'
'Check_'
'Canada_'
'CE_'
'Bu'
'Browser_'
'Bre'
'Bra'
'Book_'
'Besucher_'
'Beschreibung_'
'Bereiche_'
'Belgien_'
'Bei'
'Banken_'
'Bal'
'Auto'
'Aussicht_'
'Association_'
'Are_'
'Arab_'
'Anlage_'
'Ad'
'Accommodation_'
'Abschnitt_'
'80'
'65_'
'43_'
'41_'
'400_'
'2018_'
'1991_'
'1988_'
'00'
','
' {_'
' -, _'
'üsse_'
'ür'
'über'
'ó'
'ägen_'
'á'
'à_'
'Änderungsantrag_'
'zusätzlich_'
'zurück'
'zu'
'zt_'
'ys_'
'ya'
'wrong_'
'wing_'
'westlichen_'
'weiteres_'
'websites_'
'warm_'
'volume_'
'voller_'
'volle_'
'verändert_'
'versucht_'
'verpflichtet_'
'verlieren_'
'ven_'
'usual_'
'uss_'
'useful_'
'use'
'units_'
'unit_'
'ug_'
'tz'
'tte_'
'tt'
'truth_'
'trends_'
'transactions_'
'train_'
'touch_'
'totally_'
'tor_'
'tit'
'tis'
'testing_'
'tel_'
'teil'
'surrounding_'
'sur_'
'sur'
'supports_'
'supporting_'
'suitable_'
'sufficient_'
'submitted_'
'structural_'
'stri'
'strength_'
'strategic_'
'story_'
'stor'
'stoffe_'
'spring_'
'sports_'
'spielt_'
'sphere_'
'spezielle_'
'speziell_'
'spent_'
'species_'
'speaking_'
'spaces_'
'sol'
'ski'
'sharing_'
'sh_'
'sf'
'ser'
'sel_'
'secure_'
'sea'
'schönen_'
'scheint_'
'saying_'
'rück'
'rufen_'
'rten_'
'rte_'
'ro'
'rn'
'rise_'
'rin_'
'rie'
'ride_'
'ria_'
'ri'
'reviews_'
'reserved_'
'reforms_'
'rau'
'quiet_'
'qui'
'qualität_'
'qualified_'
'pur'
'prüfen_'
'proof_'
'promoting_'
'programs_'
'profile_'
'producers_'
'presents_'
'precisely_'
'prayer_'
'poor_'
'pleased_'
'plastic_'
'plans_'
'placed_'
'piece_'
'peaceful_'
'participate_'
'parents_'
'pain_'
'packaging_'
'owners_'
'overall_'
'over'
'out'
'ou'
'orti'
'ori'
'opposition_'
'opinions_'
'op'
'onto_'
'ological_'
'oe'
'object_'
'numerous_'
'nts_'
'north_'
'ni_'
'nder'
'natürlichen_'
'natürliche_'
'nachdem_'
'na'
'mut'
'ms'
'mostly_'
'morning_'
'mm'
'minister_'
'me'
'matters_'
'markt'
'manufacturers_'
'mal'
'ma'
'lung_'
'lu'
'locations_'
'lit'
'li'
'les'
'len'
'legen_'
'learning_'
'launched_'
'langen_'
'land'
'lan_'
'lage_'
'künftig_'
'kostenlos_'
'kle'
'ki'
'ker'
'kaum_'
'kamen_'
'jeweiligen_'
'ir_'
'ip'
'investigation_'
'introduction_'
'institution_'
'infrastructure_'
'inde'
'ina'
'impossible_'
'images_'
'igung_'
'ierten_'
'ians_'
'hoch'
'ho'
'hip_'
'hinter_'
'heraus_'
'helpful_'
'heiten_'
'gutes_'
'grounds_'
'gleichzeitig_'
'gleich'
'glauben_'
'gift_'
'ght_'
'gestalten_'
'geschützt_'
'geschrieben_'
'geschlossen_'
'ger'
'gelangen_'
'gan'
'gain_'
'ga'
'führenden_'
'fühlen_'
'furniture_'
'fu'
'fruit_'
'fort'
'formats_'
'flight_'
'ff'
'ferner_'
'fellow_'
'eyes_'
'external_'
'extent_'
'expertise_'
'exclusively_'
'exclusive_'
'ex'
'evil_'
'euro_'
'et'
'ero'
'erinnern_'
'erhöhen_'
'erheblich_'
'equality_'
'entscheidenden_'
'entrance_'
'enterprises_'
'ensuring_'
'empfehlen_'
'emi'
'ely_'
'elegant_'
'einander_'
'ehen_'
'ehemaligen_'
'ebenso_'
'east_'
'earlier_'
'driver_'
'domestic_'
'doctor_'
'diseases_'
'derzeitigen_'
'depends_'
'denke_'
'delivery_'
'da'
'ction_'
'criteria_'
'continues_'
'contemporary_'
'concrete_'
'components_'
'comply_'
'completed_'
'competitive_'
'comparison_'
'compared_'
'coloring_'
'col'
'code_'
'co'
'challenge_'
'causes_'
'bul'
'braucht_'
'blood_'
'bility_'
'betrachtet_'
'beschäftigt_'
'berücksichtigt_'
'benötigen_'
'ben'
'begrüßt_'
'bear_'
'bar'
'awarded_'
'avoid_'
'avi'
'ausgezeichnete_'
'aten_'
'approximately_'
'anyone_'
'anderem_'
'alter_'
'alt_'
'allgemeinen_'
'aktiv_'
'air'
'actual_'
'achten_'
'accepted_'
'acc'
'absolutely_'
'Word_'
'Welcome_'
'War'
'Volks'
'Vertrags_'
'Verständnis_'
'Verpflichtungen_'
'Verfolgung_'
'Unterschied_'
'Tätigkeit_'
'Transfer_'
'Trans'
'Tra'
'Titel_'
'Thursday_'
'Teilnehmer_'
'Technology_'
'Tausende_'
'Tar'
'Symbol_'
'Support_'
'Such_'
'Studenten_'
'Sto'
'Stellen_'
'Sta'
'Sozial'
'Sonne_'
'Sli'
'Set_'
'Secretary_'
'Schweden_'
'Safe_'
'SMEs_'
'SI'
'Rü'
'Russland_'
'Ro'
'River_'
'Richtlinien_'
'Ret'
'Restaurants_'
'Reservierungen_'
'Red_'
'Red'
'Project_'
'Privat'
'Pre'
'Portugal_'
'Patent_'
'Old_'
'Obwohl_'
'Objekt_'
'Nummer_'
'NS'
'NA'
'Mädchen_'
'Mont'
'Mol'
'Model_'
'Menge_'
'Mehrheit_'
'Mac'
'Lü'
'Links_'
'Line_'
'Lesen_'
'Len'
'Leistungen_'
'Lehrer_'
'Lassen_'
'Lar'
'Landschaften_'
'Küste_'
'Künstler_'
'Kur'
'Kra'
'Kor'
'Konferenz_'
'Kommissions'
'Know_'
'Ki'
'Ke'
'Karten_'
'Jugendlichen_'
'James_'
'Ist_'
'Israels_'
'Iraq_'
'Informations'
'Industrie'
'Industrial_'
'Indien_'
'Hy'
'Hostel_'
'Hochschul'
'Hoch'
'Herausforderung_'
'Heil'
'Haushalts'
'Great_'
'Gra'
'Gewalt_'
'Geo'
'Gen'
'Gemeinden_'
'Gem'
'Gefühl_'
'Gef'
'Ge'
'Gas'
'Game_'
'Fu'
'Freunde_'
'Fonds_'
'Fol'
'Flo'
'Fin'
'File_'
'Fi_'
'Fahrzeuge_'
'FI'
'Express_'
'Erweiterung_'
'Entwicklungs'
'En'
'Employment_'
'Einstellungen_'
'Einklang_'
'Einigung_'
'Einführung_'
'ES_'
'ER'
'EF'
'Dutch_'
'Dress_'
'Do'
'Des'
'DO'
'Con'
'Click_'
'Christians_'
'Camping_'
'CC'
'CA'
'Büro_'
'Boot_'
'Blut'
'Bi'
'Beschäftigung_'
'Bahnhof_'
'Award_'
'Ausrüstung_'
'Auge_'
'Au_'
'Atmosphäre_'
'Armut_'
'Arch'
'Arbeitnehmer_'
'Anti_'
'Ans'
'Ak'
'Agreement_'
'Adobe_'
'Absatz_'
'AS'
'AN'
'AC_'
'AC'
'66_'
'6'
'58_'
'57'
'49'
'29'
'26'
'200'
'160_'
'01'
'.: _'
',” _'
'"'
'!'
' °_'
' «_'
'  _'
'™ _'
'—_'
'‑_'
'с'
'ère_'
'äu'
'äge_'
'ä'
'à'
'Überzeugung_'
'Ü'
'Ägypten_'
'zusätzliche_'
'zusammen'
'zone_'
'zes_'
'zentrum_'
'zeit'
'ze'
'zahl_'
'yl_'
'yer_'
'wünschen_'
'www_'
'wichtigste_'
'wesentlichen_'
'weiterer_'
'wagen_'
'vorliegenden_'
'vorgeschlagen_'
'vorge'
'voll'
'voice_'
'vis'
'versch'
'vergessen_'
'vergangenen_'
'verb'
'updated_'
'unt'
'unabhängig_'
'umgesetzt_'
'uer'
'ua'
'twice_'
'tri'
'transparency_'
'trag'
'traditions_'
'tors_'
'tits_'
'tin'
'thou_'
'th'
'territory_'
'temporary_'
'tel'
'techniques_'
'talks_'
'sämtliche_'
'supplies_'
'suite_'
'suffering_'
'street_'
'strategies_'
'stove_'
'star'
'stadt_'
'staatliche_'
'ssi'
'spot_'
'spezifischen_'
'spanischen_'
'sources_'
'sounds_'
'solidarity_'
'sold_'
'significantly_'
'sides_'
'si'
'shopping_'
'shoes_'
'shed_'
'seven_'
'selection_'
'sel'
'schwanz_'
'schemes_'
'sche'
'scha'
'sau'
'sa'
'rä'
'rr'
'ries_'
'rge'
'rg_'
'renovated_'
'remove_'
'religion_'
'reliable_'
'relation_'
'relating_'
'reichen_'
'rei'
'regulatory_'
'regime_'
'rank'
'puzzle_'
'purchase_'
'pul'
'pu'
'professional_'
'proceedings_'
'privaten_'
'prevention_'
'pretty_'
'precise_'
'practitioners_'
'post'
'ports_'
'popular_'
'plus_'
'pi'
'perspective_'
'pers_'
'peoples_'
'payment_'
'passed_'
'organized_'
'organisation_'
'organic_'
'options_'
'option_'
'ona'
'ologie_'
'olo_'
'oc'
'ob'
'nten_'
'nta'
'nken_'
'nk'
'nine_'
'nig'
'ngs'
'nger_'
'nf'
'neu'
'ner'
'nen'
'nah'
'morgen_'
'moral_'
'monitoring_'
'mit'
'min_'
'mid_'
'mess'
'mention_'
'memory_'
'meist_'
'mehr'
'measure_'
'maximale_'
'maximal_'
'match_'
'lü'
'läuft_'
'looks_'
'logy_'
'lk'
'lives_'
'lie'
'license_'
'lf'
'lesen_'
'ler'
'leaving_'
'leads_'
'leader_'
'lay_'
'lam'
'kostenlosen_'
'ko_'
'klare_'
'kar'
'jährlich_'
'judgment_'
'ium_'
'itu'
'ita'
'island_'
'ious_'
'ions'
'interesting_'
'interested_'
'instrument_'
'installieren_'
'innen_'
'ini'
'informieren_'
'industrie_'
'ili'
'icht_'
'ian'
'hundred_'
'humanitarian_'
'hr'
'hof_'
'ho_'
'historischen_'
'hi'
'hall_'
'hal'
'guest_'
'gu'
'gruppe_'
'groß_'
'greatest_'
'gra'
'goals_'
'girls_'
'girl_'
'gestimmt_'
'gesetzt_'
'gesehen_'
'gesch'
'geo'
'genannten_'
'gem'
'gelten_'
'gefallen_'
'gebaut_'
'gar_'
'gar'
'ga_'
'funktionieren_'
'freight_'
'freien_'
'freie_'
'frei'
'frage_'
'forth_'
'fort_'
'forces_'
'fle'
'fit_'
'finanziellen_'
'finanzielle_'
'films_'
'figures_'
'fication_'
'ffe'
'fe'
'faster_'
'farm_'
'families_'
'experiences_'
'except_'
'europa_'
'est'
'essen_'
'erzielt_'
'erwähnt_'
'erscheint_'
'erfordert_'
'erfahren_'
'equivalent_'
'ep'
'eo'
'entstehen_'
'entspricht_'
'entsprechenden_'
'entschieden_'
'entscheiden_'
'entry_'
'entlang_'
'enti'
'ense'
'ens'
'enlargement_'
'enen_'
'ema'
'ell_'
'ell'
'el'
'eit_'
'einzu'
'eingeführt_'
'ehr'
'eh'
'ee_'
'edge_'
'eating_'
'eat_'
'dy_'
'dung_'
'drug_'
'drop_'
'drink_'
'dri'
'dogs_'
'doesn_'
'discussions_'
'difference_'
'diejenigen_'
'died_'
'device_'
'daughter_'
'database_'
'dan'
'damage_'
'currency_'
'criminal_'
'court_'
'copy_'
'converted_'
'contracts_'
'consumer_'
'consequences_'
'conducted_'
'conclusion_'
'competitiveness_'
'compensation_'
'compact_'
'committee_'
'colors_'
'closely_'
'ckt_'
'cke_'
'ck'
'cities_'
'chten_'
'che'
'charges_'
'chain_'
'category_'
'cards_'
'car'
'bri'
'breiten_'
'bra'
'born_'
'bo'
'bitten_'
'bez'
'beträgt_'
'bestimmten_'
'bessere_'
'beschrieben_'
'beings_'
'behold_'
'bedroom_'
'bedingungen_'
'beaches_'
'be'
'bal'
'bach_'
'availability_'
'außer_'
'ausschließlich_'
'asi'
'ar'
'appointed_'
'applies_'
'appeal_'
'appe'
'anything_'
'anti_'
'anlage_'
'animals_'
'ani'
'ander'
'allowing_'
'allerdings_'
'alis'
'aktuelle_'
'ages_'
'adventure_'
'ade'
'acting_'
'ach_'
'accordingly_'
'absolut_'
'abhängig_'
'abgeschlossen_'
'] '
'Zweitens_'
'Zweifel_'
'Zwei_'
'Zug'
'Worten_'
'Wohnungen_'
'Wo_'
'Wissenschaftler_'
'Win'
'Wi_'
'Who_'
'Wetter_'
'Wettbewerbs'
'West'
'Wein'
'Vienna_'
'Vi'
'Verfügbarkeit_'
'Verein'
'Verantwortung_'
'Unterkünfte_'
'Umsatz_'
'Umfang_'
'Um'
'Treffen_'
'Tre'
'Tor_'
'To'
'Tier'
'Through_'
'The'
'Thailand_'
'Texte_'
'Tags_'
'Tages_'
'Table_'
'Sun_'
'Summit_'
'Street_'
'Ste'
'Staat_'
'Sports_'
'Sonnen'
'Solidarität_'
'Site_'
'Signal_'
'She'
'Sektor_'
'Schutz'
'Schritte_'
'Schlüssel'
'Saturday_'
'Sar'
'San'
'Sam'
'SS'
'SO'
'SE'
'SA_'
'Round_'
'Ros'
'Rome_'
'Romania_'
'Roma_'
'Risiko_'
'Ressourcen_'
'Rei'
'Registrierung_'
'Rede_'
'Rechtsvorschriften_'
'Rechnung_'
'Punkten_'
'Provinz_'
'Premium_'
'Power_'
'Portal_'
'Port_'
'Pool_'
'Points_'
'Planung_'
'Per'
'Pe'
'Over'
'Other_'
'Original_'
'Once_'
'Ob'
'Number_'
'Nu'
'Notes_'
'New'
'Netzwerk_'
'Neben_'
'Natürlich_'
'Name_'
'NO'
'NI'
'NG'
'NATO_'
'Männer_'
'Moses_'
'Mon'
'Mitteln_'
'Metro_'
'Mer'
'Maß_'
'Mat'
'Marke_'
'Mark_'
'Mark'
'Marg'
'Luxus_'
'Luft_'
'Let_'
'Lebensmittel'
'Lebens_'
'Lang'
'Landwirte_'
'Lam'
'LT'
'LA'
'Kühlschrank_'
'Kunst'
'Kulturen_'
'Kri'
'Kommunikation_'
'Komm'
'Klima'
'Klicken_'
'Kar'
'Kabel_'
'KMU_'
'Ji'
'Jacob_'
'Item_'
'Islam_'
'Inhalte_'
'India_'
'Inc_'
'IV_'
'IP'
'IM'
'Hor'
'Hit'
'Hinweis_'
'Herz_'
'Heizung_'
'Hauptstadt_'
'Hamas_'
'Grund'
'Großbritannien_'
'Grenz'
'Glas'
'Gla'
'Gesundheits'
'Gesch'
'Gerechtigkeit_'
'Gegen'
'Gedanken_'
'Galerie_'
'Gal'
'GE'
'Fälle_'
'Fuß_'
'Friends_'
'Frei'
'Frank_'
'Foundation_'
'Fo'
'Firmen_'
'Finland_'
'Family_'
'Fach'
'Erfüllung_'
'Erfahrungen_'
'End'
'Eli'
'Einzel'
'Eins'
'Einrichtungen_'
'Ei'
'Effizienz_'
'Each_'
'EI'
'EA'
'Dokumente_'
'Division_'
'Dienstag_'
'Despite_'
'Desktop_'
'De_'
'Dan'
'DR'
'Consumer_'
'Com'
'Children_'
'Charta_'
'Charles_'
'CE'
'Bü'
'Bus_'
'Bus'
'Bildschirm_'
'Betriebs'
'Beteiligung_'
'Besuch_'
'Bern'
'Bereits_'
'Ben'
'Basic_'
'Bar'
'Band'
'Bahn_'
'BA'
'Austrian_'
'Ausschuss_'
'Ausgaben_'
'Ausdruck_'
'Ausbildung_'
'Aus'
'Auffassung_'
'Auf'
'Area_'
'Arbeitsplätze_'
'Apartments_'
'Ansatz_'
'An'
'Amt_'
'Amarillas'
'Ala'
'Ag'
'Afrika_'
'Afghanistan_'
'Adventure_'
'AP'
'@_'
'> _'
'99_'
'98_'
'88'
'82_'
'70'
'59_'
'52_'
'49_'
'46_'
'37'
'3'
'20th_'
'1990_'
'1989_'
'193'
'190'
'14'
'1010_'
'100'
'. “_'
'. - _'
') - _'
'‘_'
'и'
'š'
'übertragen_'
'überall_'
'è'
'är'
'Ö'
'«_'
'zus'
'zieren_'
'zi'
'zentrale_'
'zeiten_'
'zar'
'yr'
'xi'
'wort'
'work'
'wodurch_'
'wn_'
'wirksam_'
'winter_'
'wild_'
'wert_'
'welt'
'welchen_'
'wahrscheinlich_'
'vorgesehen_'
'vollen_'
'ville_'
'villa_'
'vi'
'versions_'
'vermeiden_'
'verhindern_'
'verfahren_'
'verf'
'van_'
'van'
'vacation_'
'us'
'urge_'
'unver'
'unterzeichnet_'
'universities_'
'und'
'unbe'
'ufen_'
'ue_'
'täglich_'
'tzen_'
'tz_'
'tur'
'tu'
'trägt_'
'trying_'
'tritt_'
'tried_'
'traditionellen_'
'track_'
'toward_'
'tools_'
'tomorrow_'
'tm'
'tle'
'title_'
'tischen_'
'tische_'
'tin_'
'tho'
'thermal_'
'thee_'
'tet_'
'terrorism_'
'tch_'
'talk_'
'sä'
'sver'
'sub'
'studio_'
'student_'
'starting_'
'starke_'
'sse'
'spo'
'split_'
'spiele_'
'spiel_'
'specifically_'
'spa'
'sorted_'
'sort_'
'sonst_'
'sons_'
'smaller_'
'slow_'
'signed_'
'sge'
'settings_'
'sets_'
'seien_'
'sei'
'seem_'
'seconds_'
'schwe'
'schlecht_'
'schlagen_'
'schicken_'
'scheinen_'
'sch'
'rü'
'runs_'
'running_'
'rp'
'row_'
'ric'
'restructuring_'
'respective_'
'resort_'
'represent_'
'reported_'
'ren'
'remember_'
'religiösen_'
'relax_'
'refugees_'
'recognized_'
'rapid_'
'rage_'
'rad_'
'ra'
'providers_'
'profitieren_'
'produziert_'
'presidency_'
'por'
'politisch_'
'persönliche_'
'personnel_'
'periods_'
'patent_'
'paragraph_'
'para'
'paper_'
'painting_'
'pa_'
'ously_'
'ourselves_'
'os'
'optional_'
'operate_'
'oli'
'ole'
'offered_'
'nächste_'
'nze'
'nz'
'notes_'
'nge_'
'newly_'
'nearly_'
'ne'
'nation_'
'nan'
'nahmen_'
'mögliche_'
'mä'
'mp'
'mor'
'monitor_'
'mo'
'miss'
'messen_'
'merely_'
'ment'
'medical_'
'measured_'
'massage_'
'maschinen_'
'marked_'
'manufacturing_'
'mandate_'
'maintain_'
'machte_'
'länger_'
'lä'
'ls'
'los'
'loan_'
'ller_'
'lived_'
'listen_'
'linked_'
'linie_'
'lin'
'lighting_'
'liebe_'
'letter_'
'lernen_'
'le'
'ld_'
'ld'
'latter_'
'lar'
'langsam_'
'lag_'
'künftige_'
'kraft_'
'konkrete_'
'knew_'
'kids_'
'ken'
'kel'
'keinerlei_'
'ke'
'kat'
'ka'
'it'
'ists_'
'ismus_'
'isierung_'
'internationaler_'
'installed_'
'installations_'
'ino_'
'ine'
'improving_'
'impressive_'
'immune_'
'immediate_'
'ile_'
'ig'
'iehen_'
'höchste_'
'hu'
'http_'
'hood_'
'hlen_'
'hl_'
'hire_'
'hidden_'
'herunterladen_'
'hed_'
'heavy_'
'heated_'
'hear_'
'hau'
'har'
'happens_'
'halte_'
'ha'
'guide_'
'gs'
'größte_'
'großes_'
'gri'
'governance_'
'gone_'
'glo'
'gleiche_'
'gewährleistet_'
'gewonnen_'
'getroffen_'
'gerecht_'
'genannt_'
'gemeinsames_'
'gel_'
'geboren_'
'gang_'
'g'
'ft'
'fre'
'französischen_'
'frame_'
'fourth_'
'for'
'fo'
'fin'
'fest'
'feet_'
'fee_'
'fashion_'
'farmers_'
'facilitate_'
'extend_'
'expressed_'
'experts_'
'exist_'
'exceptional_'
'examples_'
'europäischer_'
'ethnic_'
'establish_'
'erz'
'erten_'
'erte'
'erscheinen_'
'ers'
'erhielt_'
'ergriffen_'
'erfolgt_'
'era'
'er'
'environs_'
'entsprechende_'
'entf'
'entered_'
'entdecken_'
'ent'
'enf'
'endo'
'ena'
'email_'
'ellen_'
'electric_'
'einfache_'
'einerseits_'
'eindeutig_'
'eigentlich_'
'ei_'
'ei'
'eg'
'eb'
'ea_'
'driving_'
'drinking_'
'drawing_'
'division_'
'distance_'
'disa'
'direkten_'
'director_'
'dio'
'difficulty_'
'det_'
'desired_'
'described_'
'depending_'
'dennoch_'
'demokratischen_'
'demo'
'deinem_'
'degrees_'
'defined_'
'deals_'
'danach_'
'cou'
'correct_'
'coordination_'
'conversion_'
'controlled_'
'contrast_'
'contract_'
'constantly_'
'conflicts_'
'conditioning_'
'concert_'
'compilation_'
'compatible_'
'combination_'
'com'
'colleagues_'
'collaboration_'
'cock_'
'clo'
'cht'
'cho'
'chi'
'chaft_'
'cell_'
'ceiling_'
'categories_'
'cate'
'cast_'
'carbon_'
'campaign_'
'calling_'
'button_'
'buch_'
'bs_'
'brings_'
'boots_'
'bildet_'
'biggest_'
'bie'
'beteiligt_'
'besch'
'berühmten_'
'berücksichtigen_'
'berichtet_'
'bereitgestellt_'
'benötigt_'
'bel'
'bei'
'begrüße_'
'beginnen_'
'bathrooms_'
'bars_'
'band'
'balanced_'
'bab'
'automatic_'
'auszu'
'aus'
'aufge'
'auf'
'attractions_'
'att'
'ating_'
'ase_'
'as'
'arsch_'
'arms_'
'arm'
'ari'
'architecture_'
'ara'
'appreciate_'
'ap'
'ans'
'angeht_'
'ane'
'andererseits_'
'anbieten_'
'analyzes_'
'an'
'amendment_'
'ama'
'am'
'allocated_'
'all'
'al'
'ahr'
'advanced_'
'advance_'
'aden_'
'ada_'
'ad'
'ach'
'absolute_'
'abroad_'
'Zusammen'
'Zentral'
'Zahlen_'
'Ya'
'Wissen_'
'Wirklichkeit_'
'Wird_'
'William_'
'Weiter'
'Wege_'
'Web'
'Weather_'
'Warum_'
'Wand'
'Voll'
'Vielzahl_'
'Video'
'Veröffentlichung_'
'Very_'
'Verwaltungs'
'Verm'
'Verk'
'Verg'
'Vereinigtes_'
'Vereinbarung_'
'Verbot_'
'Veranstaltung_'
'Ve'
'Van_'
'VI'
'Unter'
'Transport'
'Transparenz_'
'Tor'
'Tisch_'
'Tickets_'
'Their_'
'Text'
'Tel_'
'Teile_'
'Teil'
'Technologien_'
'Ta'
'TXXX_'
'TI'
'Summer_'
'Städten_'
'Stuhl_'
'Straßen'
'Stone_'
'Sti'
'Steuern_'
'Stellungnahme_'
'Status_'
'Staats'
'Speicher'
'Spa_'
'Sp'
'Sonntag_'
'Son_'
'Sitzung_'
'Sinne_'
'Sinn_'
'Sim'
'Show_'
'Shi'
'Seiten'
'Sco'
'Schul'
'Schu'
'Schlüssel_'
'Schlussfolgerungen_'
'Schalt'
'Scha'
'Sand'
'Safety_'
'SC'
'Rund'
'Ruhe_'
'Rom'
'Roh'
'Rio_'
'Rico_'
'Rest_'
'Reisen_'
'Reise'
'Regulierung_'
'Rechts_'
'Real_'
'Raum'
'RI'
'Quelle_'
'Qualitäts'
'Präsidentschaft_'
'Prä'
'Programmen_'
'Process_'
'Prize_'
'Prinzipien_'
'Pra'
'Port'
'Po'
'Place_'
'Pflicht_'
'Peru_'
'Partnership_'
'Para'
'Pair_'
'PRO'
'PC'
'Operation_'
'Oder_'
'Norden_'
'Nord'
'Nevertheless_'
'Network_'
'Nature_'
'Natur'
'Nahen_'
'NG_'
'NE'
'München_'
'Mö'
'My'
'Musik'
'Monat_'
'Mobilität_'
'Mitgliedstaat_'
'Min'
'Mexican_'
'Methode_'
'Mess'
'Medical_'
'Mc'
'Maßnahme_'
'May'
'Maschinen'
'Mas'
'Mart'
'Mal'
'Mah'
'ME'
'Luft'
'Luc'
'Leiter_'
'Leit'
'Language_'
'Lande_'
'LI'
'LED_'
'Krankheit_'
'Koordinierung_'
'Konzern'
'Komfort_'
'Klimaanlage_'
'Kir'
'Kein_'
'Kategorien_'
'Kann_'
'Kan'
'Just_'
'Joseph_'
'Jede_'
'Je_'
'JA'
'Investitions'
'Internal_'
'Indian_'
'Indeed_'
'IN'
'III_'
'Hör'
'Häuser_'
'Hälfte_'
'Hotel'
'Hot_'
'Hir'
'Hersteller_'
'Hause_'
'Haus'
'Hans_'
'Ham'
'HA'
'Gut_'
'Gold'
'Go_'
'Gipfel_'
'Ges'
'Gerichtshof_'
'Gemeinschafts'
'Geld'
'Geh'
'Gegensatz_'
'Geb'
'GDP_'
'GAP_'
'GA'
'Freiheit_'
'Franz_'
'Foto'
'Fortschritt_'
'Forscher_'
'For'
'Folge_'
'Flüge_'
'Flug'
'Flexibilität_'
'Filter'
'Ferienwohnung_'
'Familien'
'Fal'
'Fahr'
'FA'
'Experten_'
'Ern'
'Entwicklungen_'
'Entfernung_'
'Elementen_'
'Elektronik_'
'Elektro'
'Einrichtung_'
'Einkauf_'
'Earth_'
'EU'
'EPÜ_'
'EP'
'EEC_'
'Dänemark_'
'Dor'
'Doppel'
'Don_'
'Dokument_'
'Department_'
'Den'
'Delegation_'
'Decision_'
'Dazu_'
'Data_'
'Cu'
'Cre'
'Contact_'
'Common_'
'Clo'
'Class_'
'CK'
'Bürgerinnen_'
'Bulgarien_'
'Binnenmarkt_'
'Bildungs'
'Bible_'
'Beziehung_'
'Bettwäsche_'
'Betrieb_'
'Bet'
'Bestandteil_'
'Beihilfen_'
'Beginn_'
'Badezimmer_'
'BM'
'BIP_'
'Ausbau_'
'Aufgrund_'
'Asyl'
'Aspekte_'
'As'
'App_'
'Antrag_'
'Ant'
'Anstrengungen_'
'Anmeldung_'
'Anlagen_'
'Angel'
'Album_'
'Al_'
'Al'
'Aktion_'
'Achtung_'
'Access_'
'Abu_'
'AT'
'AS_'
'A4_'
'95_'
'95'
'9001_'
'9'
'89_'
'84'
'68_'
'61_'
'57_'
'54'
'41'
'35'
'30'
'27'
'21'
'192'
'16'
'0s_'
'07'
'02'
'...._'
'-/_'
'*_'
''._'
'%._'
'". _'
' )._'
' ) _'
' $ _'
'€'
'”_'
'“._'
'ück'
'überzeugt_'
'übermittelt_'
'öffnet_'
'öffentlich_'
'ätze_'
'ät'
'Überprüfung_'
'Übernahme_'
'zz'
'zy'
'zwei'
'zunächst_'
'zumindest_'
'zugänglich_'
'zuge'
'zug_'
'zuf'
'zo'
'zit'
'zin'
'ziemlich_'
'zentralen_'
'za'
'yp'
'yo'
'wünsche_'
'wollten_'
'win'
'wiederum_'
'western_'
'welcomed_'
'weisen_'
'weeks_'
'waves_'
'wand'
'walt'
'wait_'
'wa_'
'volumes_'
'vin'
'viel'
'vertreten_'
'verloren_'
'verkaufen_'
'vergleichen_'
'verantwortlich_'
'va'
'utz'
'uto'
'ut'
'untersch'
'unl'
'union_'
'ungsge'
'une'
'un'
'umgeben_'
'ume_'
'uli'
'ues_'
'ud_'
'ucht'
'uan'
'tzung_'
'typischen_'
'twenty_'
'ture_'
'tum_'
'ts'
'transparent_'
'traditionelle_'
'tradition_'
'trading_'
'tower_'
'tor'
'tone_'
'tisch_'
'tig'
'tieren_'
'ticket_'
'thoughts_'
'tent'
'tele'
'teile_'
'technik_'
'teams_'
'taught_'
'tatsächlich_'
'targeted_'
'ta'
'süd'
'sy'
'surprised_'
'surely_'
'suppliers_'
'sun'
'sucht_'
'stra'
'stories_'
'sto'
'stin'
'stets_'
'stays_'
'status_'
'stattfinden_'
'stations_'
'statement_'
'sta'
'sso'
'spi'
'spend_'
'specifications_'
'speaker_'
'sortiert_'
'songs_'
'smooth_'
'smoking_'
'sla'
'sized_'
'sitting_'
'sin'
'sil'
'signs_'
'sight_'
'shops_'
'shi'
'sheet_'
'server_'
'selbstverständlich_'
'seite_'
'seid_'
'sections_'
'sec'
'schwarz_'
'schl'
'sbe'
'salt_'
'sage_'
'russischen_'
'rung_'
'rum_'
'rte'
'route_'
'rot_'
'rk_'
'rk'
'ris'
'riffen_'
'resulted_'
'restaurants_'
'respect'
'residents_'
'represents_'
'replaced_'
'renewable_'
'remote_'
'remained_'
'reliability_'
'relevanten_'
'relaxation_'
'rejected_'
'reisen_'
'reg'
'reflect_'
'referred_'
'reden_'
'red'
'recognised_'
'rechts_'
'rea'
'rc'
'raw_'
'rated_'
'quick_'
'quarter_'
'präsentiert_'
'prä'
'proposing_'
'propose_'
'programm_'
'processing_'
'pro'
'printing_'
'print_'
'pri'
'preis_'
'practices_'
'ppen'
'pp'
'powers_'
'posts_'
'possibly_'
'positiv_'
'positions_'
'politischer_'
'plu'
'ple'
'pla'
'pit'
'persönlich_'
'permitted_'
'permanent_'
'pc'
'patient_'
'path_'
'pass'
'participation_'
'pal'
'ovi'
'overcome_'
'our'
'ound'
'ot'
'osi'
'ors'
'orm'
'organ_'
'ore_'
'orders_'
'oral_'
'optimale_'
'operators_'
'operations_'
'operated_'
'opera'
'ont'
'oni'
'om_'
'ok_'
'oh'
'officer_'
'od'
'obvious_'
'obtain_'
'obligations_'
'ny_'
'nung_'
'nse'
'notwendigen_'
'noise_'
'nisse_'
'nic'
'neun_'
'networks_'
'nc'
'nations_'
'nationale_'
'nar'
'nachhaltige_'
'möglichkeiten_'
'm²_'
'museum_'
'moved_'
'mon'
'moments_'
'mol'
'module_'
'mmer'
'mitglieder_'
'missing_'
'miles_'
'mi_'
'metal_'
'messages_'
'membership_'
'mein'
'mechanism_'
'mechanical_'
'mat'
'maschine_'
'mar'
'manufacturer_'
'mand'
'manchmal_'
'mai'
'mag_'
'längst_'
'ländlichen_'
'ly'
'lunch_'
'lp'
'lowest_'
'lob'
'lm'
'lle'
'lity_'
'liste_'
'limits_'
'lier'
'lieben_'
'leistungen_'
'lde'
'launch_'
'landscape_'
'ku'
'kti'
'kte_'
'kr'
'konzentrieren_'
'kla'
'kind'
'kes_'
'kept_'
'keiten_'
'karte_'
'kannte'
'kannst_'
'judge_'
'joy_'
'japanische_'
'j_'
'ive'
'ior_'
'involvement_'
'investors_'
'introduce_'
'interface_'
'inter_'
'inte'
'instance_'
'ins'
'innovations_'
'inner'
'initial_'
'informationen_'
'individuals_'
'index_'
'indeed_'
'increases_'
'ina_'
'immigration_'
'ily_'
'ihres_'
'ih'
'iges_'
'iens_'
'ien'
'identified_'
'ide_'
'ial_'
'humanity_'
'hten_'
'hor'
'holy_'
'hinzu'
'hinter'
'hill_'
'hilfe_'
'hervor_'
'hergestellt_'
'hem_'
'helping_'
'hell_'
'harmony_'
'gut'
'größten_'
'größeren_'
'gruppen_'
'gla'
'gkeit_'
'giving_'
'gh'
'gg'
'gewissen_'
'gep'
'gelegt_'
'gef'
'ged_'
'geber_'
'gat'
'garantieren_'
'furnishings_'
'furnished_'
'freundlich_'
'freue_'
'founded_'
'forum_'
'fortsetzen_'
'formed_'
'forced_'
'foot'
'flu'
'flowers_'
'fishing_'
'firm_'
'finding_'
'fill_'
'fighting_'
'festival_'
'festen_'
'feste_'
'failure_'
'expression_'
'explained_'
'expert_'
'expensive_'
'expected_'
'existence_'
'existed_'
'exe_'
'evidence_'
'evaluation_'
'etz'
'ets_'
'ete_'
'esti'
'este'
'establishing_'
'ery_'
'erse'
'errichtet_'
'erli'
'erleben_'
'erle'
'ering_'
'erin_'
'erie_'
'erheben_'
'erh'
'ergr'
'erforderliche_'
'erf'
'erei'
'ere'
'entsprechen_'
'entscheidend_'
'entitled_'
'enten_'
'entdeckt_'
'enken_'
'ender_'
'ended_'
'end'
'enc'
'empfohlen_'
'emergency_'
'em'
'els'
'elo'
'eligible_'
'electrical_'
'election_'
'einzelne_'
'einfachen_'
'eigen'
'effectively_'
'ede'
'echten_'
'eas'
'ds'
'dra'
'down'
'dollars_'
'divided_'
'diverse_'
'dit'
'discuss_'
'disco'
'ding'
'dimension_'
'determined_'
'destruction_'
'despite_'
'deliver_'
'deli'
'delegations_'
'define_'
'deeply_'
'debt_'
'dealing_'
'dead_'
'dea'
'darstellt_'
'dark_'
'dank_'
'cutting_'
'cul'
'cu'
'ctive_'
'cro'
'crimes_'
'covers_'
'counter_'
'conventional_'
'containing_'
'contain_'
'consumption_'
'conscious_'
'cons'
'confirmation_'
'confidence_'
'conduct_'
'conclude_'
'con'
'communications_'
'comfort_'
'combines_'
'colla'
'cohesion_'
'clothing_'
'cleaning_'
'classic_'
'chte_'
'chemical_'
'characteristics_'
'char'
'chan'
'cc'
'cation_'
'capable_'
'cancer_'
'camera_'
'cal'
'ca'
'buffet_'
'buch'
'bringing_'
'bridges_'
'bound_'
'boost_'
'books_'
'bod'
'bly_'
'blu'
'blo'
'bio'
'bil'
'bewegen_'
'betroffen_'
'betont_'
'bestätigt_'
'beste'
'best'
'besitzen_'
'beruht_'
'bers'
'bel_'
'behaviour_'
'behavior_'
'bef'
'bee'
'ball_'
'baby_'
'azi'
'authentic_'
'auswärtige_'
'ausdrücklich_'
'attempt_'
'ato'
'ative_'
'ast'
'ase'
'arrived_'
'aro'
'appro'
'appeared_'
'ant'
'anschluss_'
'anlagen_'
'angezeigt_'
'angepasst_'
'angen_'
'angel'
'angeboten_'
'and'
'anal_'
'amerikanischen_'
'amateure_'
'alp'
'album_'
'ai_'
'ahead_'
'agency_'
'agen'
'affect_'
'advantage_'
'adults_'
'ado'
'administrative_'
'adequate_'
'addressed_'
'adding_'
'ack'
'accompanied_'
'acceptable_'
'able'
'Zwischen'
'Zustimmung_'
'Zoll'
'Zivil'
'Zentren_'
'Yu'
'Yes_'
'Worte_'
'Wissenschaft_'
'Wirtschafts_'
'Wirkung_'
'Wind_'
'Willen_'
'Wichtig'
'Wesen_'
'Werkzeug_'
'Wein_'
'Weil_'
'Wegen_'
'Wald'
'WESTERN_'
'Väter_'
'Vorbereitung_'
'Vol'
'Vers'
'Verringerung_'
'Verkehr_'
'Verhalten_'
'Verfahrens'
'Verbraucher'
'Ver'
'VAT_'
'Unternehmens'
'Umgang_'
'UR'
'UN'
'UE'
'Tür_'
'Tätigkeiten_'
'Turkish_'
'Tu'
'Ton_'
'Thanks_'
'Teilnahme_'
'Tages'
'TC'
'Süden_'
'Syn'
'Swedish_'
'Super'
'Sub'
'Stück_'
'Stu'
'Strom'
'Strategy_'
'Stimm'
'Steinmeier_'
'Startseite_'
'Star_'
'St'
'Sprachen_'
'Spr'
'Sport'
'Spar'
'Spa'
'Source_'
'Sollte_'
'Solar'
'Sm'
'Sitz'
'Sil'
'Si'
'Shower_'
'Serbia_'
'Selbst'
'Section_'
'Secondly_'
'Schönheit_'
'Schwer'
'Schwa'
'Schulen_'
'Schr'
'School_'
'Scho'
'Sau'
'Sat_'
'Sara'
'Sant'
'SB'
'Rumänien_'
'Ru'
'Rose_'
'Rooms_'
'Roman_'
'Rock'
'Rica_'
'Revolution_'
'Review_'
'Representative_'
'Rennen_'
'Ren'
'Regi'
'Rea'
'Prüf'
'Prozesse_'
'Prop'
'Projekten_'
'Professor_'
'Produkten_'
'Products_'
'Probe'
'Pro_'
'Private_'
'Preisen_'
'Pol'
'Plat'
'Pisane_'
'Pin'
'Pie'
'Photo_'
'Photo'
'Ph'
'Pflege'
'Pflanzen'
'Pet'
'Pensionen_'
'Papier'
'Paper_'
'Palestinian_'
'PL'
'Over_'
'Os'
'Organization_'
'Option_'
'Ohne_'
'Oh_'
'Offenbarung_'
'Nutzer_'
'Nutzen_'
'Nor'
'Net_'
'Nein_'
'NGOs_'
'Märkte_'
'Musiker_'
'Munich_'
'Morgen_'
'Moment_'
'Mitgliedern_'
'Miss'
'Ministers_'
'Mini'
'Milliarden_'
'Milan_'
'Mil'
'Miet'
'Messe_'
'Merkmale_'
'Merc'
'Men'
'Meine_'
'Mehr'
'Me_'
'Maße_'
'Maschine_'
'Mary_'
'Marken_'
'Mag'
'MO'
'Luxemburg_'
'Louis_'
'Located_'
'Lind'
'Lin'
'Light_'
'Levi'
'Leute_'
'Lesung_'
'Legal_'
'Lea'
'Lager'
'LU'
'LO'
'König'
'Kö'
'Käufer_'
'Kultur'
'Kru'
'Krisen'
'Korruption_'
'Korea_'
'Kontroll'
'Kon'
'Kommentare_'
'Klein'
'Kern_'
'Kapitel_'
'Kal'
'Kaiser_'
'KR'
'KE'
'Judah_'
'Jewish_'
'Jesu_'
'Internationalen_'
'Innovations'
'Innen'
'Image_'
'IN_'
'IG'
'IEC_'
'IC'
'Hu'
'History_'
'Hintergrund'
'Hin'
'Hilfs'
'Hil'
'Hi_'
'Herr'
'Herbst_'
'Her'
'Hel'
'Head_'
'Hallo_'
'Gute_'
'Guest_'
'Gründe_'
'Grün'
'Gri'
'Grand_'
'Gr'
'Good_'
'Golf_'
'Globalisierung_'
'Gleich'
'Gericht_'
'Gegend_'
'Gefahr_'
'Garden_'
'GR'
'Förder'
'Fußball_'
'Furthermore_'
'Frühstücksbuffet_'
'Fri'
'FreeBSD_'
'Ford_'
'Following_'
'Fli'
'Fla'
'Fil'
'Festlegung_'
'Fest'
'Ferr'
'Ferienwohnungen_'
'Fehler'
'Fat'
'Falle_'
'FR_'
'FR'
'Essen_'
'Erwachsene_'
'Erd'
'Erb'
'Er'
'Englisch_'
'England_'
'Empfehlungen_'
'Element_'
'Eisenbahn'
'Einhaltung_'
'Eindruck_'
'Eigenschaften_'
'Edition_'
'Economy_'
'Eco'
'ET'
'Due_'
'Dr'
'Doha_'
'Disc'
'Digital_'
'Diego_'
'Dia'
'Description_'
'Datenbank_'
'Darlehen_'
'Danish_'
'DI'
'DER_'
'DA'
'Cyprus_'
'Cut'
'Cup_'
'Cra'
'Colline_'
'College_'
'Cli'
'Clark_'
'Cla'
'Chang'
'Chance_'
'Cha'
'Ch'
'Ce'
'Castle_'
'Captain_'
'Can'
'CHF_'
'CEO_'
'CA_'
'Bug'
'Budapest_'
'Browse_'
'Bro'
'Bridge_'
'Brasilien_'
'Brand'
'Br'
'Both_'
'Blue_'
'Black_'
'Big_'
'Bett_'
'Bestellung_'
'Best_'
'Beschwerde'
'Berichterstatter_'
'Berg'
'Benutzer'
'Benevento_'
'Ben_'
'Bell'
'Bedarf_'
'Bea'
'Be'
'Bank'
'Band_'
'Balkan_'
'Bag'
'Bade'
'BO'
'BEST_'
'Available_'
'Außenminister_'
'Außen'
'Autos_'
'Autor_'
'Automobil'
'Australian_'
'Aussch'
'Aussage_'
'Auss'
'Auslegung_'
'Ausge'
'Ausführung_'
'Audio_'
'Asian_'
'Armee_'
'Arm'
'Arc'
'Ansichten_'
'Anpassung_'
'Anna_'
'Angaben_'
'Anerkennung_'
'Analysis_'
'Americans_'
'Amendment_'
'Am'
'Allgemeine_'
'Ale'
'Aktien'
'Agrar'
'Agentur_'
'Absicht_'
'Abschluss_'
'Abkommens_'
'Abgeordneten_'
'AL'
'AG'
'?'
'://_'
'97_'
'96_'
'88_'
'86'
'74'
'73'
'700_'
'69_'
'62_'
'59'
'55'
'45'
'3D_'
'37_'
'32'
'250_'
'23'
'229_'
'1st_'
'1980_'
'194'
'191'
'187'
'186'
'180'
'13'
'128_'
'05'
'/'
'...'
'.)._'
'. – _'
'+'
');_'
') (_'
'' '
'''
'$ _'
'" '
'! '
' …_'
' :: _'
' ("_'
' " _'
'…'
'”'
'о'
'л'
'Š'
'üt'
'üh'
'übrigen_'
'überz'
'ös'
'ée_'
'ätzen_'
'änder'
'án'
'Österreich_'
'Öl'
'© _'
'|_'
'zza_'
'zweiter_'
'zuzu'
'zusätzliche'
'zuständige_'
'zuständig_'
'zurückge'
'zung_'
'zunehmend_'
'zuletzt_'
'zugute_'
'zerstört_'
'zen'
'ysi'
'ys'
'ym'
'yesterday_'
'yellow_'
'ws_'
'wrote_'
'write_'
'worth_'
'worst_'
'wissenschaften_'
'willing_'
'whi'
'weshalb_'
'werk_'
'werk'
'wer'
'welcomes_'
'weiter'
'weite_'
'weit'
'weist_'
'weg'
'weak_'
'warten_'
'wand_'
'wan'
'waiting_'
'wahr_'
'wahr'
'wahl_'
'vorgestellt_'
'vollem_'
'viv'
'vity_'
'vital_'
'visible_'
'violent_'
'vielmehr_'
'vieler_'
'victory_'
'via'
'verwendeten_'
'verst'
'vermitteln_'
'verfolgt_'
'ven'
'variable_'
'vani'
'ux_'
'uti'
'uss'
'urs_'
'urgently_'
'urgent_'
'ures_'
'ured_'
'up'
'unterschiedliche_'
'untereinander_'
'unter'
'unseres_'
'unmöglich_'
'unm'
'unless_'
'ungarischen_'
'une_'
'unbedingt_'
'una_'
'umwelt'
'umfassende_'
'ult'
'uld'
'ula'
'ul'
'uk'
'ufe_'
'ude'
'uchen_'
'ually_'
'ual'
'tü'
'ty'
'tung_'
'tube_'
'tter'
'trifft_'
'treated_'
'tre'
'transferred_'
'tourists_'
'tourist_'
'tour_'
'tou'
'tons_'
'ton'
'tlich_'
'tive_'
'tissue_'
'tionen_'
'tine_'
'tics_'
'thre'
'thin_'
'thereby_'
'tf'
'teuer'
'testen_'
'terminal_'
'temp'
'teilte_'
'tau'
'tat_'
'taste_'
'tan_'
'talking_'
'symptoms_'
'swa'
'sus'
'surrounded_'
'super_'
'suit'
'suggest_'
'successfully_'
'stärker_'
'stärken_'
'stä'
'stylish_'
'stressed_'
'strengthening_'
'strenge'
'stream_'
'stock_'
'stieg_'
'stellung_'
'stellten_'
'steam_'
'starken_'
'stammt_'
'stages_'
'spro'
'sprache_'
'spots_'
'sport_'
'speeches_'
'specially_'
'spar'
'sp'
'sorg'
'son'
'somewhat_'
'solve_'
'solar_'
'sof'
'sna'
'smus_'
'smart_'
'sleep_'
'sle'
'sizes_'
'situations_'
'significance_'
'sicherheit_'
'ships_'
'ship'
'shell_'
'sheets_'
'she'
'sharp_'
'sh'
'set'
'sensitive_'
'sending_'
'seits_'
'seemed_'
'schw'
'schneller_'
'schm'
'schlägt_'
'schlechten_'
'schi'
'schein'
'schafft_'
'scene_'
'scanner_'
'sb'
'savings_'
'sat_'
'sam'
'rücken_'
'rän'
'runde_'
'rule_'
'ruhig_'
'rti'
'rter'
'rt'
'rst'
'rs'
'rre'
'rot'
'rose_'
'ros'
'roots_'
'ron'
'roads_'
'rm'
'rke'
'rine_'
'riesigen_'
'rid'
'richten_'
'rf'
'revolution_'
'resulting_'
'restrictions_'
'resp'
'resource_'
'resistant_'
'researchers_'
'rese'
'repeated_'
'repe'
'relatively_'
'relative_'
'rel'
'reicht_'
'reich'
'regelmäßig_'
'refu'
'references_'
'reduces_'
'recycling_'
'recorded_'
'recommended_'
'recognition_'
'rechts'
'receiving_'
'receives_'
'rear_'
'realise_'
'rbe'
'rat_'
'rar'
'raised_'
'raise_'
'ragen_'
'rag'
'race_'
'quer'
'qua'
'pte'
'pt_'
'prüfung_'
'provider_'
'protected_'
'projekt_'
'profit_'
'probably_'
'printed_'
'prin'
'prim'
'pres'
'preparation_'
'preis'
'prec'
'pray_'
'praktischen_'
'pra'
'port'
'polnischen_'
'plenty_'
'pleasure_'
'platte_'
'platform_'
'planned_'
'plane'
'pin'
'pilot_'
'piele_'
'pha'
'pf'
'pers'
'perfekte_'
'penetration_'
'partnership_'
'partly_'
'parks_'
'papers_'
'panel_'
'pan'
'oy'
'owner_'
'own'
'overview_'
'oven_'
'outcome_'
'oti'
'ort'
'org_'
'optimal_'
'operator_'
'op_'
'ons'
'ommen_'
'om'
'ology_'
'ol_'
'off'
'of'
'odi'
'ode_'
'od_'
'och'
'occur_'
'occasions_'
'obtained_'
'observe_'
'oa'
'nt'
'nsu'
'nst'
'none_'
'nommen_'
'nom'
'nischen_'
'nin'
'nie'
'ni'
'net'
'nennen_'
'ndig'
'ndi'
'ndes_'
'names_'
'nachge'
'möglichst_'
'mögen_'
'my'
'mu'
'mt'
'moving_'
'mountains_'
'motor_'
'motor'
'mobility_'
'mo_'
'mittlerweile_'
'mittleren_'
'mini_'
'middle_'
'mg_'
'metres_'
'meteo_'
'men'
'medi'
'mbo'
'mber'
'mb'
'master_'
'massive_'
'maritime_'
'mari'
'maps_'
'manufacture_'
'manual_'
'manage_'
'maintained_'
'lte_'
'lt'
'lor'
'loo'
'logistics_'
'logie_'
'logical_'
'log_'
'listed_'
'lin_'
'liest_'
'liefert_'
'library_'
'letters_'
'leider_'
'leiden_'
'leg'
'lebens'
'leather_'
'lea'
'lb'
'laufen_'
'lation_'
'lat'
'lasting_'
'larger_'
'lar_'
'laid_'
'lac'
'lab'
'künftigen_'
'kun'
'kten_'
'kombiniert_'
'kol'
'kis'
'kin_'
'keys_'
'kes'
'keits'
'kas'
'kan'
'jungen_'
'journey_'
'ji'
'jener_'
'jene_'
'ization_'
'itz_'
'itte_'
'isen_'
'isation_'
'internationally_'
'interfaces_'
'interessiert_'
'intelligent_'
'inspired_'
'inneren_'
'inn'
'initiatives_'
'inform_'
'individuelle_'
'inbegriffen_'
'impression_'
'imposed_'
'implementing_'
'ille'
'ility_'
'ila'
'ika'
'ik'
'ierungs'
'iere_'
'ied_'
'identify_'
'ide'
'ici'
'ia'
'hör'
'höhere_'
'höchsten_'
'hängt_'
'humanitäre_'
'hostel_'
'homo'
'homes_'
'hom'
'holes_'
'holds_'
'hnen_'
'historische_'
'hinzufügen_'
'hinweisen_'
'hinge'
'hing_'
'hielt_'
'heu'
'here'
'helped_'
'heim_'
'height_'
'hectares_'
'heat_'
'hauptsächlich_'
'harm_'
'hard'
'haften_'
'habt_'
'gun_'
'guaranteed_'
'größer_'
'größe_'
'groß'
'griechischen_'
'greatly_'
'golf_'
'gn'
'glaubt_'
'gin'
'gh_'
'gez'
'gewe'
'gesto'
'gespielt_'
'geringe'
'gelungen_'
'geleistet_'
'gefragt_'
'gate_'
'gas'
'gabe_'
'führung_'
'fähig_'
'funktioniert_'
'funktion'
'funded_'
'fulfilled_'
'früheren_'
'fruits_'
'fri'
'freuen_'
'fresh_'
'frau_'
'frames_'
'fr'
'fossil'
'formula'
'fordern_'
'folgt_'
'fliehen_'
'fis'
'fires_'
'fireplace_'
'fire_'
'finger_'
'findings_'
'finanziert_'
'filed_'
'fiel_'
'fi'
'fer_'
'fell_'
'feeling_'
'federal_'
'fans_'
'fan'
'faire'
'failed_'
'facto_'
'extrem_'
'externen_'
'explore_'
'expenditure_'
'expansion_'
'exact_'
'eure_'
'eti'
'ess'
'ese'
'eröffnet_'
'ert'
'erstklassigen_'
'erstellen_'
'ersetzen_'
'ern'
'ergänzen_'
'ergreifen_'
'ergeben_'
'erfa'
'entwickelten_'
'entscheidende_'
'entsch'
'ensch'
'enr'
'enl'
'enhanced_'
'ened_'
'ende'
'ence_'
'enb'
'enabled_'
'empty_'
'employ'
'emission_'
'else_'
'electro'
'eiten_'
'eingerichtet_'
'eingehalten_'
'eingegangen_'
'einfacher_'
'einf'
'eilung_'
'eigener_'
'egen_'
'effektiv_'
'edition_'
'economies_'
'easier_'
'ear'
'durchaus_'
'durch'
'duration_'
'dun'
'dual_'
'dry_'
'drives_'
'doubt_'
'doors_'
'dominant_'
'dom'
'documentation_'
'diversity_'
'disposal_'
'disorder_'
'diskutieren_'
'disappoint'
'dimensions_'
'digitalen_'
'dig'
'diesmal_'
'dien'
'didn_'
'dia'
'desto_'
'dest'
'descriptions_'
'derer_'
'deposit_'
'dent'
'denken_'
'deiner_'
'deinen_'
'definiert_'
'dee'
'ded_'
'decrease_'
'declare_'
'debian_'
'dating_'
'darunter_'
'damals_'
'covering_'
'courts_'
'courses_'
'corporate_'
'cor'
'contrary_'
'contents_'
'confirmed_'
'configuration_'
'cond'
'concepts_'
'concentration_'
'compromise_'
'component_'
'competitors_'
'commitments_'
'comments_'
'comment_'
'coast_'
'coach_'
'coa'
'classification_'
'classical_'
'claims_'
'claim_'
'cla'
'cing_'
'chief_'
'chen'
'chat_'
'charming_'
'characters_'
'chamber_'
'certified_'
'certification_'
'certificate_'
'cart_'
'care'
'cap'
'cant'
'camp'
'bs'
'britischen_'
'breite_'
'break_'
'branch_'
'bracht_'
'bought_'
'bottom_'
'bo_'
'blatt_'
'bisschen_'
'bisherigen_'
'bis'
'birth_'
'bili'
'bezug_'
'bezogen_'
'bezeichnet_'
'bezahlen_'
'bett_'
'beteiligen_'
'bestätigen_'
'bestellen_'
'bestehenden_'
'beschreibt_'
'beschlossen_'
'berühmte_'
'bert_'
'berichten_'
'berg'
'benutzt_'
'bek'
'beinhaltet_'
'behalten_'
'beha'
'beginnt_'
'beendet_'
'beeinflussen_'
'bedien'
'bau'
'baro'
'banks_'
'ban_'
'bahn'
'außen_'
'autumn_'
'automatisch_'
'auto'
'auswählen_'
'auss'
'ausgerichtet_'
'ausge'
'aum_'
'auftr'
'auer_'
'audio_'
'aub'
'ati'
'ates_'
'ater'
'assets_'
'asset_'
'asse'
'asks_'
'asiatisch_'
'arte'
'arrest_'
'arrangements_'
'arrangement_'
'army_'
'arg'
'archive_'
'arbeit_'
'approx_'
'apart_'
'ante'
'anst'
'anne'
'anden_'
'anda'
'ances_'
'amm'
'amerikanische_'
'alter'
'alt'
'allgemeine_'
'alität_'
'ali'
'alen_'
'ala_'
'akzeptieren_'
'ake'
'ak'
'aj'
'ahl'
'aft'
'affen_'
'administration_'
'adjust_'
'adapt'
'actors_'
'act'
'ache_'
'accident_'
'accessible_'
'acceptance_'
'abzu'
'abst'
'abspritzen_'
'absence_'
'abs'
'abi'
']] _'
']]'
']._'
'['
'Zuverlässigkeit_'
'Zusatz'
'Zurich_'
'Zugriff_'
'Zudem_'
'Zim'
'Zi'
'Zertifizierung_'
'Zahlungs'
'Zahlungen_'
'ZE'
'Yo'
'Wür'
'Wäsche'
'Währungs'
'Wohnzimmer_'
'Wochenende_'
'Within_'
'Win32_'
'Wieder'
'Wie'
'Werke_'
'Welche_'
'Weihnachten_'
'Week_'
'Wedding_'
'Websites_'
'Washington_'
'Waren_'
'Walter_'
'Wall'
'Wahlen_'
'WE'
'Vorsitzes_'
'Voraussetzungen_'
'Voraussetzung_'
'Virgin_'
'Vier'
'Videos_'
'Verzeichnis_'
'Verteidigung_'
'Verstärkung_'
'Verst'
'Versch'
'Verla'
'Verfassung_'
'Verb'
'Ven'
'Valley_'
'VA'
'Unterschiede_'
'Untersch'
'Unternehmens_'
'Unterhaltung_'
'Uns'
'Ul'
'UV_'
'US'
'UNG_'
'Ty'
'Turn'
'Tro'
'Tri'
'Tower_'
'Top'
'Tonnen_'
'Ton'
'Tochter_'
'Titan_'
'Tests_'
'Test'
'Ten'
'Tele'
'Tee'
'Tan'
'Tam'
'Tab'
'TU'
'TS'
'TH'
'TE_'
'TA_'
'Südtirol_'
'Sä'
'Symbole_'
'Swa'
'Sustainable_'
'Sur'
'Suchen_'
'Stunde_'
'Studien'
'Studie_'
'Strukturfonds_'
'Struktur_'
'Struktur'
'Strom_'
'Stre'
'Straßen_'
'Straf'
'Stor'
'Stipendium_'
'Stefan_'
'Start'
'Star'
'Stan'
'Stahl_'
'Stadi'
'Stabilität_'
'Spring_'
'Spitzen'
'Spin'
'Spezial'
'Spe'
'Spaß_'
'Southern_'
'Sound_'
'Sou'
'Sorge_'
'Sonder'
'Sommer'
'Sieg_'
'Ser'
'Selbst_'
'Sekunden_'
'Seil'
'Sei'
'Search_'
'Schwi'
'Schn'
'Schle'
'Schlaf'
'Schiff_'
'Schie'
'Samsung_'
'Salvador_'
'Sach'
'SL'
'SCH'
'Rückseite_'
'Rural_'
'Run'
'Rules_'
'Rou'
'Rot'
'Rod'
'Road_'
'Richt'
'Release_'
'Regeln_'
'Rechts'
'Raums_'
'Rap'
'RU'
'RAT'
'Que'
'Quality_'
'Präsentationen_'
'Prozess'
'Protection_'
'Problemen_'
'Princess_'
'Prime_'
'Prag_'
'Power'
'Posted_'
'Post_'
'Politiker_'
'Polish_'
'Point_'
'Plätze_'
'Play'
'Platz'
'Pl'
'Pictures_'
'Phänomen_'
'Phil'
'Pflanzen_'
'Periode_'
'Peace_'
'Paul'
'Patente_'
'Patent'
'Park'
'Papier_'
'Pakete_'
'PS_'
'PS'
'PR'
'PE'
'Orthodox_'
'Orten_'
'Opti'
'Op'
'On'
'Ob_'
'OR'
'ON'
'OC'
'Ny'
'Nutz'
'Num'
'Note_'
'Not'
'Non_'
'Niederlanden_'
'Niederlande_'
'Neu_'
'Natural_'
'Nar'
'Nam'
'Mus'
'Motorcycle_'
'Motor'
'Moscow_'
'Monats_'
'Modern'
'Modelle_'
'Modell'
'Mittelmeer_'
'Mittel'
'Mitglieds'
'Mitarbeitern_'
'Ministerin_'
'Minibar_'
'Mineral'
'Mindest'
'Mill'
'Mikrowelle_'
'Michel'
'Mexiko_'
'Met'
'Mel'
'Mein_'
'Mei'
'Mega'
'Med'
'Me'
'Marketing_'
'Marie_'
'Map_'
'Mangel_'
'Main'
'Mai'
'MT'
'MC'
'Lounge_'
'Logo_'
'Listen_'
'Lis'
'Lim'
'Liefer'
'Leu'
'Leitung_'
'Leistungs'
'Legi'
'Law_'
'Lau'
'Lager_'
'LL'
'LE_'
'Kü'
'Körper'
'Kä'
'Kunststoff'
'Kunden'
'Kroatien_'
'Kreis_'
'Kredit'
'Krankheiten_'
'Kong_'
'Kom'
'Koch'
'Kno'
'Kn'
'Klar'
'Kit_'
'Kis'
'Kilometer_'
'Ker'
'Kauf_'
'Katalog_'
'Karl_'
'Kali'
'Kaffee_'
'Kaffee'
'KT_'
'Justiz_'
'Junior_'
'Jun'
'Jigsaw_'
'Jedes_'
'JavaScript_'
'Jahr'
'Israeli_'
'Islands_'
'Islamic_'
'Ir'
'Institut'
'Ing'
'Im'
'Ihm_'
'IR'
'IF'
'IE_'
'Hö'
'Hyper'
'Hub'
'Honduras_'
'Hol'
'Hoff'
'Hochzeit_'
'Herz'
'Hera'
'Hen'
'Heating_'
'Haut_'
'Has'
'Harmonisierung_'
'Hard'
'Handtücher_'
'Hafen_'
'HT'
'HS'
'HR'
'HM'
'HERRN_'
'HE'
'Grundrechte_'
'Gru'
'Grand'
'Golden_'
'Gleichgewicht_'
'Gl'
'Gewährleistung_'
'Get_'
'Gesetz_'
'Georgia_'
'George_'
'Geno'
'Generation_'
'Gei'
'Ged'
'Gebühr_'
'Gaza_'
'GT'
'GP'
'GNU_'
'GI'
'GB_'
'Führung_'
'Färbung_'
'Fä'
'Full_'
'Freunden_'
'Fre'
'Frank'
'Franc'
'Forderung_'
'Folgen_'
'Flug_'
'Flower_'
'Firefox_'
'Filter_'
'Fett'
'Fax_'
'Fashion_'
'Fair_'
'Extra'
'Event_'
'Eva_'
'Europa'
'Esta'
'Ers'
'Erhöhung_'
'Erfindung_'
'Entscheidungs'
'Engel_'
'End_'
'Em'
'Einwohner_'
'Einw'
'Einfluss_'
'Ein'
'Eigentums_'
'Egypt_'
'Education_'
'Ec'
'EWSA_'
'EG'
'ECU_'
'Drive_'
'Dre'
'Dra'
'Dort_'
'Dog'
'Distribution_'
'Din'
'Dienste_'
'Dick'
'Dhabi_'
'Deutschen_'
'Detail_'
'Derzeit_'
'Dauer_'
'Datei'
'Date_'
'Daniel_'
'Dadurch_'
'DU'
'DC_'
'Curacao_'
'Control_'
'Congo_'
'Conf'
'Conditions_'
'Compa'
'Comp'
'Col'
'Cloud_'
'Climate_'
'Ci'
'Charter_'
'Charakter_'
'Change_'
'Chancen_'
'Catholic_'
'Cate'
'Cast'
'Casino_'
'Cart'
'Carr'
'Caribbean_'
'Cap'
'Cam'
'California_'
'Cala'
'CO'
'CD'
'Bä'
'Brü'
'Britain_'
'Boston_'
'Bos'
'Bon'
'Blo'
'Bit'
'Bisher_'
'Bis'
'Bevölkerungs'
'Beste_'
'Beste'
'Best'
'Bert'
'Berichts_'
'Berichte_'
'Bereitstellung_'
'Belgian_'
'Beiträge_'
'Beide_'
'Befehl_'
'Bedürfnisse_'
'Bauer_'
'Bau_'
'Balkans_'
'Baby_'
'BL'
'Ausw'
'Austin_'
'Ausschusses_'
'Augen'
'Aufs'
'Assembly_'
'Asien_'
'Ashton_'
'Ari'
'Arbeitsmarkt_'
'App'
'Ap'
'Anst'
'Ange'
'Andreas_'
'Amts'
'Among_'
'Amerika_'
'Aluminium_'
'Ali'
'Alb'
'Age_'
'Act_'
'Academy_'
'Abteilungen_'
'Abs'
'Abgesehen_'
'Abenteuer_'
'Abend'
'Abe'
'Aa'
'AK'
'? '
'=_'
'92_'
'91_'
'8'
'7th_'
'76_'
'76'
'75'
'67_'
'63_'
'51_'
'2nd_'
'28'
'24'
'209'
'1986_'
'1976_'
'1960_'
'196'
'188'
'180_'
'17th_'
'15'
'09'
'." _'
'," _'
', »_'
', '_'
'+ _'
'", "_'
'!"_'
' … _'
' ? _'
' /_'
' * _'
' )_'
' "'
'” '
'ы'
'т'
'р'
'м'
'е'
'ž'
'č'
'ünde'
'übertr'
'überprüfen_'
'überhaupt_'
'ø'
'ösung_'
'österreichischen_'
'ér'
'äußer'
'äume_'
'äum'
'äre_'
'ängt_'
'ände_'
'ältesten_'
'älter_'
'älle_'
'ähnlich_'
'äg'
'ßig'
'Überl'
'Übergangs'
'Öko'
'Öffnen_'
'Ã_'
'´ _'
'zählen_'
'zuverlässig_'
'zurückzu'
'zunehmen_'
'zulassen_'
'zukünftige_'
'zukommen_'
'zug'
'zufolge_'
'zip'
'ziert_'
'zier'
'ziel'
'zieht_'
'ziehe'
'zeug_'
'zel'
'zeigte_'
'zeichnen_'
'yte'
'yri'
'youth_'
'yd'
'yb'
'xe'
'xa'
'wö'
'wärme'
'wären_'
'wä'
'workshop_'
'wonder_'
'wohnen_'
'wohl'
'wle'
'with'
'wirkt_'
'wirksame_'
'wirken_'
'winning_'
'wines_'
'windows_'
'willkommen_'
'wiesen_'
'wieder'
'wid'
'wesentlicher_'
'wesentlich_'
'wend'
'welt_'
'welfare_'
'weine'
'weil'
'weigh'
'weich'
'wei'
'weekend_'
'wear_'
'wasser'
'washing_'
'warme'
'war'
'walls_'
'wald_'
'vs_'
'votes_'
'vorstellen_'
'vorschriften_'
'vorgenommen_'
'vorbereitet_'
'vorbe'
'vollständigen_'
'vol'
'virus_'
'vir'
'vier'
'vieles_'
'verz'
'verwe'
'verursacht_'
'verursachen_'
'vertrieben_'
'vertical_'
'verteilt_'
'vert'
'verstärkt_'
'verstärken_'
'versp'
'versorg'
'verme'
'verlangt_'
'verkauft_'
'verg'
'verd'
'verbundenen_'
'verbindungen_'
'veran'
'vas'
'vary_'
'varieties_'
'variant'
'valley_'
'utet_'
'ute_'
'usch'
'ursprünglichen_'
'urs'
'uring_'
'upt'
'unzu'
'unwi'
'unterst'
'unterschiedlicher_'
'unterscheiden_'
'unta'
'unsu'
'uns'
'unre'
'universe_'
'universal_'
'ungefähr_'
'unfa'
'unde'
'ums'
'umgehen_'
'ult_'
'ule'
'ular_'
'ul_'
'ug'
'uert_'
'udi'
'uar'
'tö'
'té'
'tätigkeit_'
'tä'
'typical_'
'tti'
'tsche'
'träger_'
'truly_'
'truktur'
'tric'
'transmission_'
'transition_'
'trafficking_'
'trademarks_'
'toys_'
'towns_'
'tory_'
'top'
'tonnes_'
'tle_'
'tk'
'tions'
'tiles_'
'tiefe'
'tief_'
'tid'
'tickets_'
'tia'
'threats_'
'thread'
'therap'
'theological_'
'tg'
'tests_'
'ters_'
'tern'
'termina'
'tension_'
'tend_'
'telling_'
'teilweise_'
'technologien_'
'tech_'
'teacher_'
'taxes_'
'tat'
'tas'
'tar_'
'tap'
'tank_'
'tage_'
'tage'
'sü'
'systeme_'
'systematic_'
'sy_'
'switches_'
'survey_'
'summit_'
'summari'
'substantially_'
'subjects_'
'stö'
'ständigen_'
'structures_'
'strengthened_'
'stream'
'stopped_'
'stil'
'stic_'
'sti'
'stell'
'stayed_'
'stattfindet_'
'stars_'
'stand'
'sst'
'ssion_'
'ssen'
'ssa'
'spread_'
'sprachen_'
'spra'
'spoken_'
'spite_'
'spiel'
'sper'
'spectacular_'
'speaks_'
'sparen_'
'spacious_'
'spa_'
'sozialer_'
'soweit_'
'southern_'
'souls_'
'soul_'
'soldiers_'
'solches_'
'soil_'
'sofa_'
'sobald_'
'sme'
'sma'
'slightly_'
'sli'
'sitzen_'
'sitz'
'sister_'
'sing'
'sierung_'
'siert_'
'sicherstellen_'
'sicherlich_'
'sicher'
'shot_'
'shift_'
'sheep_'
'sexual_'
'serviert_'
'servant_'
'separately_'
'semi'
'sektor_'
'sehe_'
'seeing_'
'seeds_'
'secret_'
'searching_'
'scoring_'
'schu'
'scenes_'
'scar'
'sation_'
'sandy_'
'sand'
'sachen_'
'rz'
'ry'
'rut'
'rus'
'run'
'rum'
'ruct'
'ru'
'rth'
'rsch'
'rred_'
'rov'
'routes_'
'rop'
'rolle_'
'rod'
'rob'
'roa'
'rna'
'rma'
'riv'
'ring'
'rily_'
'richtlinie_'
'rib'
'revol'
'revenue_'
'reveal_'
'reti'
'restricted_'
'restored_'
'ress_'
'responsibilities_'
'respektieren_'
'residential_'
'resi'
'reservieren_'
'represented_'
'representative_'
'representation_'
'reply_'
'repeat_'
'rem'
'relief_'
'relatives_'
'reis_'
'rein_'
'reifen_'
'regularly_'
'register_'
'regelung_'
'refuse_'
'refine'
'refers_'
'ree'
'reducing_'
'recommendations_'
'reception_'
'rec'
'reb'
'realize_'
'realistic_'
'reaction_'
'rder'
'rde'
'rd'
'rche'
'ray_'
'rats_'
'ratifi'
'rati'
'rate'
'rat'
'ras'
'rap'
'ram'
'rad'
'rac'
'rab'
'quelle_'
'qualification_'
'q_'
'q'
'purely_'
'pump_'
'publish_'
'publication_'
'ption_'
'prove_'
'protein_'
'prol'
'projekte_'
'professionelle_'
'prof'
'processed_'
'pris'
'priest_'
'prefer_'
'pre_'
'prakti'
'pou'
'pot'
'posted_'
'portal_'
'pon'
'poly'
'politics_'
'politicians_'
'poli'
'pol'
'plates_'
'plate_'
'plat'
'plan'
'pixels_'
'pil'
'picturesque_'
'photo'
'philosophy_'
'ph'
'pflege'
'pert'
'personen'
'periode_'
'peri'
'perform_'
'percentage_'
'pen'
'pel_'
'pei'
'pea'
'pay'
'path'
'passiert_'
'passenger_'
'partition_'
'participated_'
'parliamentary_'
'parallel_'
'pap'
'pane'
'paket_'
'pairs_'
'padd'
'outstanding_'
'ous'
'ou_'
'ost_'
'ost'
'originally_'
'ore'
'ordnung_'
'ordinary_'
'order'
'ord'
'orange_'
'opposite_'
'opponents_'
'opo'
'operational_'
'opens_'
'ong'
'onal_'
'omin'
'oll_'
'olitik_'
'olg'
'old'
'ola_'
'oi'
'officers_'
'offene_'
'offen_'
'offen'
'occasion_'
'obviously_'
'obstacles_'
'oberen_'
'obe'
'nö'
'näher_'
'nz_'
'nut'
'nste'
'now'
'notably_'
'northern_'
'nonetheless_'
'nnen_'
'nne'
'nn'
'nit'
'nist'
'nis'
'nights_'
'nger'
'ney_'
'new'
'nevertheless_'
'nes'
'nerv'
'nel'
'nearby_'
'nds_'
'nde'
'nci'
'navigation_'
'natur'
'national'
'named_'
'nahezu_'
'nachdrücklich_'
'mur'
'multiple_'
'multilateral_'
'movies_'
'movie_'
'motion_'
'mosaic_'
'mos'
'mont'
'mono'
'modular_'
'moc'
'mobilen_'
'mittel'
'mitge'
'mission'
'minorities_'
'minor_'
'ministeri'
'minimi'
'mineral_'
'mine'
'min'
'mild_'
'migration_'
'mieten_'
'mier'
'mie'
'micro'
'met'
'menu_'
'meditation_'
'meant_'
'meaning_'
'mba'
'mas_'
'mas'
'markt_'
'manufactured_'
'manner_'
'manifest'
'managers_'
'man'
'lös'
'längere'
'lädt_'
'lve'
'lun'
'lter_'
'loving_'
'lovely_'
'lounge_'
'losen_'
'looked_'
'logo_'
'logic_'
'logi'
'lock_'
'loc'
'lls_'
'llis'
'lling_'
'lli'
'literature_'
'liquid'
'ließen_'
'ließ_'
'lieb'
'licht_'
'lichkeit_'
'liches_'
'lic'
'liberalisation_'
'liability_'
'lf_'
'ley_'
'lem'
'leitet_'
'leichter_'
'leich'
'lei'
'legend'
'leg_'
'lbe'
'layout_'
'layer_'
'laws_'
'lau'
'late'
'lass'
'lang'
'lands_'
'lake_'
'kürzlich_'
'kö'
'kurzer_'
'kur'
'kunde_'
'kosten'
'korr'
'kor'
'koordiniert_'
'konzipiert_'
'kontrollieren_'
'konf'
'komplexen_'
'komplette_'
'komple'
'kommen'
'komfortable_'
'kn'
'km'
'kleineren_'
'klasse_'
'klarer_'
'kitchenette_'
'kit_'
'kings_'
'kh'
'kern_'
'keeping_'
'kb'
'katholischen_'
'kate'
'jüngsten_'
'jährige_'
'judicial_'
'join_'
'jemand_'
'jahre'
'jahr_'
'iz'
'ix_'
'itäts'
'itäten_'
'itt'
'iste'
'ist'
'issen'
'ison'
'ish_'
'isch'
'ira_'
'ional_'
'involves_'
'involve_'
'invites_'
'inv'
'interview_'
'internen_'
'intention_'
'intensive_'
'intend_'
'integriert_'
'integrate_'
'int_'
'insur'
'ink'
'inge'
'informiert_'
'informed_'
'informations_'
'info_'
'infections_'
'inf'
'ines_'
'indicators_'
'indi'
'independently_'
'ind'
'inc'
'improvements_'
'imports_'
'import_'
'impa'
'immun'
'imi'
'ima'
'illegalen_'
'ill'
'ildung_'
'ild'
'ila_'
'igungen_'
'ign'
'igi'
'ight'
'ifi'
'ielt_'
'ids_'
'ident'
'ida'
'icher'
'ible_'
'ibi'
'iPod_'
'höheren_'
'hren_'
'hot'
'hop'
'hon'
'holidays_'
'holding_'
'hoher_'
'hof'
'hochwertige_'
'hma'
'hler_'
'hit_'
'hinder'
'hinauf_'
'highlight_'
'high'
'hier'
'hi_'
'hes_'
'hero_'
'herauszu'
'herausge'
'hem'
'helle_'
'heil'
'heaven_'
'hearing_'
'head'
'haupts'
'hat'
'hart_'
'hardware_'
'hardly_'
'handling_'
'handel_'
'han'
'halte'
'haft_'
'guter_'
'guided_'
'guidance_'
'grundsätzlich_'
'grundlegende_'
'gre'
'grass_'
'graph_'
'grand'
'gramm_'
'gor'
'gni'
'gliche_'
'gli'
'gewählt_'
'gewidmet_'
'gew'
'gets_'
'getr'
'gestärkt_'
'gestattet_'
'gest'
'gesellschaftliche_'
'geschäft'
'geräumige_'
'gerät_'
'gern_'
'gericht'
'gerechte'
'geprüft_'
'geplante_'
'genuine_'
'gent'
'genehmigt_'
'gena'
'gemeinschaft'
'gelöscht_'
'gehe'
'gehabt_'
'geh'
'gegründet_'
'gegen'
'gefordert_'
'gedr'
'ged'
'gebühren'
'geb'
'gal'
'fy_'
'fund_'
'functioning_'
'fulness_'
'fuer_'
'ften_'
'fte'
'fs_'
'frühen_'
'fridge_'
'frequently_'
'frequency_'
'freiheit_'
'französische_'
'franc'
'frag'
'founder_'
'foundation_'
'formerly_'
'formation_'
'forget_'
'fordert_'
'ford_'
'follows_'
'fläche_'
'flows_'
'fli'
'fiscal_'
'firmly_'
'finde_'
'filter_'
'figure_'
'fift'
'festgestellt_'
'festge'
'fer'
'fen'
'female_'
'feld_'
'fehlt_'
'feed_'
'fax_'
'fastest_'
'fahrt_'
'fach_'
'fa'
'extra'
'ext'
'exposure_'
'explain_'
'expir'
'expand_'
'exists_'
'exhibit'
'exercises_'
'excluded_'
'exciting_'
'evi'
'eur_'
'eug'
'euer_'
'etzung_'
'eth_'
'eth'
'esta'
'esen_'
'erwerben_'
'erweise_'
'erstreckt_'
'erstellt_'
'ersch'
'err'
'erlebt_'
'erla'
'erklären_'
'ergibt_'
'erge'
'eren'
'erc'
'erb'
'era_'
'epi'
'entspannen_'
'entscheidender_'
'ents_'
'entirely_'
'ente'
'enste'
'enst'
'enormen_'
'eno'
'enjoyed_'
'enhance_'
'enha'
'engineering_'
'engage_'
'eng_'
'enforcement_'
'energie_'
'endung_'
'enda'
'encounter'
'emphasise_'
'emer'
'ement'
'eller_'
'elle'
'eli'
'elektronische_'
'elektrische_'
'elected_'
'ekt'
'ek_'
'ek'
'einzigen_'
'einloggen_'
'eigenes_'
'eid'
'egen'
'eg_'
'effektive_'
'ee'
'economically_'
'eck'
'echte_'
'ec_'
'ease_'
'dynamic_'
'dwell'
'dust_'
'dump'
'dt'
'dst'
'dritten_'
'dritt'
'dress_'
'drei'
'drawn_'
'draw_'
'drau'
'drain'
'doubts_'
'don'
'dog_'
'dness_'
'divine_'
'district_'
'distr'
'discovered_'
'discipline_'
'discharge_'
'dirty_'
'directed_'
'dignity_'
'digitale_'
'difficulties_'
'dienst_'
'dic'
'diameter_'
'dge_'
'deutsch'
'determine_'
'determination_'
'deter'
'detect'
'destinations_'
'designs_'
'derung'
'deri'
'dem'
'dei_'
'definitely_'
'deficits_'
'default_'
'declaration_'
'decades_'
'deb'
'dd'
'datum_'
'darstellen_'
'dargestellt_'
'danken_'
'dankbar_'
'dagegen_'
'cycling_'
'cuts_'
'cute_'
'cur'
'cult_'
'critical_'
'creates_'
'cream_'
'countryside_'
'counter'
'count'
'corresponding_'
'corner_'
'convenient_'
'constructed_'
'const'
'consol'
'consists_'
'considers_'
'considering_'
'consideration_'
'considerably_'
'confirm_'
'conf'
'concluded_'
'concentrated_'
'conc'
'con_'
'composed_'
'completion_'
'complement'
'command_'
'combating_'
'collect_'
'coin_'
'code'
'coco'
'clu'
'cloud_'
'ckl'
'cia_'
'chw'
'choices_'
'chl'
'chi_'
'chemicals_'
'chemi'
'chances_'
'chaften_'
'ceremony_'
'cer'
'centuries_'
'cent_'
'cen'
'cells_'
'caused_'
'catering_'
'catch_'
'cash_'
'carefully_'
'cara'
'camp_'
'calle'
'cab'
'bücher_'
'bü'
'bur'
'budgets_'
'briefly_'
'bridge_'
'boxes_'
'bor_'
'bol'
'blowjob_'
'blog_'
'blin'
'bli'
'bist_'
'bislang_'
'biodiversity_'
'bind'
'binary_'
'bin'
'bild'
'bilateralen_'
'bike_'
'bezeichnen_'
'bezahlt_'
'bewertet_'
'betreiben_'
'betonen_'
'besondere'
'bereitet_'
'bereiten_'
'berechtigt_'
'bera'
'bequem_'
'beneficial_'
'believed_'
'beispiel'
'beg'
'bedeuten_'
'baut_'
'batt'
'bases_'
'bark'
'bahn_'
'bag_'
'aza'
'az'
'award_'
'author_'
'aut_'
'ausser'
'ausreichend_'
'ausl'
'ausgewählt_'
'ausgew'
'ausgelegt_'
'aufs_'
'aufgeführt_'
'aufgebaut_'
'atz'
'atu'
'attract'
'assume_'
'assu'
'assessments_'
'aspect_'
'artistic_'
'arten_'
'arrange_'
'arm_'
'arit'
'aries_'
'are'
'ards_'
'ard'
'arch'
'ara_'
'applicable_'
'appeal'
'apparently_'
'apa'
'anz'
'antique_'
'anticipated_'
'anten_'
'ante_'
'anschließen_'
'anniversary_'
'angesehen_'
'angenehm_'
'angegebenen_'
'angegeben_'
'ang'
'anerkannt_'
'anc'
'ami'
'amazing_'
'alongside_'
'aller'
'alb'
'aktiven_'
'airports_'
'ains_'
'ahren_'
'agt_'
'afen_'
'ae'
'advice_'
'adj'
'adi'
'ade_'
'acquisition_'
'acquired_'
'aci'
'achieving_'
'accurate_'
'accounting_'
'academic_'
'absch'
'abge'
'aa'
'\'
'Zürich_'
'Zun'
'Zul'
'Zuhause_'
'Zucker'
'Zubehör_'
'Zorn_'
'Zoom_'
'Zoo_'
'Zollbe'
'Zo'
'Zivilgesellschaft_'
'Zin'
'Ziel'
'Zie'
'Zer'
'Zeichnung_'
'Ze'
'YpagesEurope_'
'YouTube_'
'Yet_'
'Ye'
'Wünsche_'
'Wärme_'
'Wählen_'
'Wort'
'Work'
'Wor'
'Wolfgang_'
'Wol'
'Wohlstand_'
'Wit'
'Wissens'
'Wirk'
'Winters'
'Will'
'Wild'
'Wiederherstellung_'
'Wer'
'Wellness_'
'Weisheit_'
'We'
'Wasch'
'Wartung_'
'Warenkorb_'
'Wandel_'
'Wan'
'Wales_'
'Wal'
'Wahr'
'WS'
'Völker_'
'Vorlage_'
'Vorgehen_'
'Vom_'
'Volvo_'
'Voith_'
'Viv'
'Vit'
'Visual_'
'Visit_'
'Vision_'
'Visa_'
'Villas_'
'Vietnam_'
'Vie'
'Veränderungen_'
'Veränderung_'
'Verze'
'Vertrieb_'
'Vertretern_'
'Versuch'
'Vermögen_'
'Verfahrens_'
'Verde'
'Verbreitung_'
'Vel'
'Varianten_'
'Va'
'VS'
'VP_'
'VI_'
'VE'
'Us'
'Unterzeichnung_'
'Universitäten_'
'Univers'
'Umweltschutz_'
'Umf'
'UNO_'
'UNION_'
'UL'
'Typ_'
'Two_'
'Tunnel_'
'Tren'
'Treiber_'
'Trag'
'Traditionen_'
'Touristen_'
'Torre'
'Todes'
'Tische_'
'Therm'
'Terr'
'Termin'
'Tennis_'
'Temperatur_'
'Teilen_'
'Techni'
'Teams_'
'Team'
'Teach'
'Tat'
'Taste_'
'Taschen_'
'Tabelle_'
'TTIP_'
'TRA'
'TO'
'THE_'
'System'
'Syrian_'
'Surf'
'Super_'
'Suites_'
'Suc'
'Subs'
'Su'
'Stärkung_'
'Stärke_'
'Stuttgart_'
'Student_'
'Stro'
'Strip_'
'Streifen_'
'Strategien_'
'Stra'
'Stock'
'Stil_'
'Steuer_'
'Stell'
'Stat'
'Standards_'
'Standard'
'Stamm'
'Space_'
'Sowohl_'
'Socialist_'
'Sobald_'
'Sky'
'Skip'
'Ski_'
'Sixt_'
'Sit'
'Sing'
'Sin'
'Simulation_'
'Siege'
'Sho'
'Shar'
'Series_'
'Serie_'
'Serb'
'Select_'
'Sel'
'Sektoren_'
'Seine_'
'Sehr_'
'Sea'
'Scot'
'Schön'
'Schwerpunkt_'
'Schwe'
'Schrift'
'Schon_'
'Schmerzen_'
'Schlag'
'Schienen'
'Schengen_'
'Schei'
'Schau'
'Schatz_'
'Schalter_'
'Savo'
'Satelliten'
'Sammlung_'
'Sales_'
'Sai'
'Sachen_'
'SU'
'ST'
'SR_'
'SP_'
'SP'
'SD'
'SA'
'Rum'
'Roy'
'Rosen'
'Roman'
'Romagna_'
'Rog'
'Ris'
'Rie'
'Richter_'
'Richard_'
'Ric'
'Rhein_'
'Rezeption_'
'Resultate_'
'Resolution_'
'Religion_'
'Reich_'
'Regierungschefs_'
'Regen'
'Reform'
'Reco'
'Reader_'
'Ratspräsident'
'Rats'
'Railway_'
'Radi'
'Rad'
'RS'
'RC_'
'RC'
'Programmier'
'Profile_'
'Professional_'
'Problems_'
'Privacy_'
'Priorität_'
'Priester_'
'Pot'
'Porto_'
'Plus_'
'Plaza_'
'Platte'
'Planck_'
'Picture_'
'Petro'
'Perspektive_'
'Performance_'
'Pati'
'Pat'
'Past'
'Passwort_'
'Partnern_'
'Parkplätze_'
'Parking_'
'Parc'
'Panel_'
'Pan'
'Paket_'
'Pacific_'
'Paar_'
'PVC_'
'PPE_'
'PCs_'
'Out_'
'Ost'
'Orts'
'Original'
'Ordner_'
'Order_'
'Opfer_'
'Obst_'
'Obama_'
'OP'
'OK_'
'Norda'
'Nonnen_'
'Niveau_'
'Nikola'
'Nic'
'Net'
'Neg'
'Nat'
'Nano'
'Nan'
'Nachricht_'
'NR'
'NET_'
'NAS_'
'Mün'
'Mü'
'Möchten_'
'Mängel_'
'Mut_'
'Muster_'
'Motor_'
'Mode'
'Mission_'
'Minute_'
'Mini_'
'Mik'
'Miguel_'
'Mexico_'
'Menschenrechts'
'Medizin_'
'Mathematik_'
'Marktes_'
'Marina_'
'Manu'
'Manchmal_'
'Male_'
'Mala'
'Mak'
'Macht'
'MS'
'MEMO_'
'MED'
'M1'
'Lös'
'Lö'
'Lot'
'Long'
'Lokal'
'Liter_'
'List_'
'Les_'
'Leitlinien_'
'Lei'
'Led'
'Learn_'
'Late'
'Lat'
'Las_'
'Lap'
'Landkarte_'
'Lan'
'Laden_'
'Lac'
'Labor_'
'Lab'
'LP_'
'LD'
'LA_'
'Küsten'
'Kurs_'
'Kub'
'Kriegs'
'Krieges_'
'Kr'
'Kos'
'Kooperation_'
'Kontext_'
'Kontakt'
'Konkurrenz_'
'Konflikt_'
'Kombination_'
'Kolleginnen_'
'Klaus_'
'Kino'
'Kin'
'Kha'
'Kel'
'Keine_'
'Kat'
'Kas'
'Kap'
'Kanada_'
'Kam'
'Kabel'
'Jungen_'
'Jung'
'Jugendliche_'
'Job_'
'Jen'
'Jeder_'
'Jahrhunderts_'
'Jack'
'It'
'Iranian_'
'Irak_'
'Investi'
'Interna'
'Innovationen_'
'Initiativen_'
'Info'
'Industry_'
'Indem_'
'Inc'
'Immun'
'Immobilienportal_'
'Immobilienanzeigen_'
'Ide'
'IWF_'
'IT'
'IO'
'IKT_'
'IA_'
'Hü'
'Hände_'
'Hund_'
'Hum'
'Hostels_'
'Hong_'
'Holz'
'Hochzeits'
'Hinsicht_'
'Hindernisse_'
'Himmel_'
'Him_'
'Hi'
'Hell'
'Hektar_'
'Heiligen_'
'Hed'
'Hea'
'Having_'
'Har'
'Happy_'
'Hann'
'Handlung'
'Handels_'
'Hand'
'Hall_'
'Halbinsel_'
'Hai'
'HI'
'HC'
'Guests_'
'Grundlagen_'
'Große_'
'Griff_'
'Gre'
'Gou'
'Golf'
'Glo'
'Glauben_'
'Giovanni_'
'Gie'
'Gestaltung_'
'Gestalt_'
'Gespräche_'
'Geschäfte_'
'Geschäft_'
'Gerichte_'
'Georgien_'
'Geneva_'
'General'
'Genehmigung_'
'Gene'
'Gall'
'GO'
'GM'
'Führungs'
'Führer_'
'Fähigkeit_'
'Fusion'
'Fundamental_'
'Frucht'
'Friedrich_'
'Frie'
'Freude_'
'Freizügigkeit_'
'Framework_'
'Fra'
'Fort'
'Formular_'
'Form'
'Force_'
'Follow_'
'Flu'
'Flotte_'
'Fle'
'Flagge_'
'Fix_'
'Fischerei_'
'Fischer_'
'Financial_'
'Finance_'
'Feuer'
'Ferner_'
'Fern'
'Feld_'
'Fel'
'Fed_'
'Fassung_'
'Farm_'
'Faktoren_'
'Fahrer_'
'Fabr'
'FS'
'FL'
'FE'
'FA_'
'External_'
'Exposured_'
'Explorer_'
'Exit_'
'Exhibition_'
'Ex'
'Evangelium_'
'Ev'
'Eurozone_'
'Euch_'
'Eta'
'Estonia_'
'Est'
'Erst_'
'Ernährungs'
'Erinnerung_'
'Erf'
'Ereignisse_'
'Entwicklungszusammenarbeit_'
'Enjoy_'
'Englisch'
'Engagement_'
'Eng'
'Energien_'
'Energieeffizienz_'
'Emissions'
'Emissionen_'
'Email_'
'Eltern_'
'Electric_'
'Einzelheiten_'
'Eingangs'
'Einb'
'Eigentümer_'
'Ehe'
'Effekt_'
'Edel'
'Ecke_'
'Eb'
'Eagle'
'EZB_'
'EX'
'EV'
'EPC_'
'ED'
'EBIT_'
'Dub'
'Drucker'
'Dro'
'Dreh'
'Domini'
'Doc'
'Display'
'Disk'
'Dis'
'Digital'
'Det'
'Dennoch_'
'Democrats_'
'Democratic_'
'Demo'
'Dem_'
'Delhi_'
'Del'
'Declaration_'
'Deck'
'Dec'
'Datenschutz_'
'Datens'
'Daten'
'Dam'
'Dal'
'DV'
'DP'
'Customers_'
'Cur'
'Cs_'
'Creative_'
'Cr'
'Country_'
'Corr'
'Copyright_'
'Cooperation_'
'Cookies_'
'Company_'
'Comm'
'Co_'
'Classic_'
'Christen_'
'Chinas_'
'Chil'
'Chicago_'
'Chemical_'
'Cathedral_'
'Cas'
'Carp'
'Carol'
'Carn'
'Carlos_'
'Cargo_'
'Cann'
'Camp'
'Call_'
'Cab'
'CU'
'CT'
'CR'
'CF'
'Bürgern_'
'Bö'
'Button_'
'Burg'
'Building_'
'Budget_'
'Bruder_'
'Bru'
'Brot_'
'Brand_'
'Bou'
'Botschaft_'
'Bosnien_'
'Bosch_'
'Bonn_'
'Blätter_'
'Blog_'
'Bli'
'Bla'
'Bir'
'Bibliothek_'
'Beweis_'
'Bewegung_'
'Bew'
'Betrag_'
'Berufs'
'Berg_'
'Berechnung_'
'Ber'
'Belarus_'
'Beitritt_'
'Beispiele_'
'Behold_'
'Begriff_'
'Beauty_'
'Beau'
'Batterien_'
'Bat'
'Barroso_'
'Ban'
'Ball_'
'Bak'
'Bahn'
'Bac'
'BU'
'BS'
'BMW_'
'BE'
'BC_'
'Ausstellungen_'
'Ausstattung_'
'Ausschuß_'
'Ausr'
'Ausnahmen_'
'Ausgrenzung_'
'Ausführungen_'
'Ausb'
'Ausarbeitung_'
'Auftrag_'
'Aufbau_'
'Audi_'
'Att'
'Ast'
'Ass'
'Aspekt_'
'Arts_'
'Argentina_'
'Architekten_'
'Arbeitskräfte_'
'Arabi'
'Apple_'
'Apo'
'Apart_'
'Anzeigen_'
'Anzeige_'
'Anwesen_'
'Anwender'
'Antworten_'
'Anton_'
'Another_'
'Anne_'
'Annahme_'
'Ann'
'Anliegen_'
'Angesichts_'
'Angelegenheit_'
'Amb'
'Ama'
'Alternative_'
'Alte_'
'Alt'
'Alps_'
'Alm'
'Alles_'
'All'
'Alkohol_'
'Alg'
'Albert'
'Aj'
'Air'
'Aid_'
'Agenda_'
'Adriatic_'
'Accommodations_'
'Abw'
'Abraham_'
'Above_'
'About_'
'Abl'
'Abd'
'Abb_'
'AU_'
'AU'
'AI'
'AB'
'A1_'
':'
'98'
'94'
'91'
'900_'
'89'
'87'
'85'
'78'
'73_'
'71_'
'7'
'69'
'68'
'67'
'64'
'63'
'56'
'47'
'40'
'350_'
'34'
'31'
'232_'
'226_'
'211'
'2019_'
'1967_'
'1944_'
'1933_'
'185'
'183'
'17'
'15th_'
'1576_'
'.” _'
'.“ _'
'- '
'-'
',..._'
', „_'
', ._'
'); _'
'('
'%, _'
'%)'
'$'
'#_'
' …'
' • _'
' […]_'
' ['
' ...'
' -- _'
' +_'
' #_'
'−_'
'“-_'
'‘ _'
'і_'
'і'
'а'
'č_'
'ün'
'ül'
'ührung_'
'ühl'
'üblichen_'
'überwinden_'
'übersch'
'überprüft_'
'übernimmt_'
'übergeben_'
'überein'
'üb'
'ü'
'öse_'
'ört_'
'örper'
'ören_'
'öpf'
'öm'
'öl_'
'öglich'
'ño'
'ín_'
'æ'
'äus'
'äufe'
'ässer'
'äss'
'är_'
'änge_'
'ändig'
'äll'
'ähnliche'
'ähig'
'ägt_'
'äd'
'ächt'
'äch'
'Überwindung_'
'Übersetzung_'
'Übernachtungen_'
'Öst'
'É'
'Ärzte_'
'· _'
'zählt_'
'zze'
'zwischen'
'zwanzig_'
'zuvor_'
'zutiefst_'
'zuständigen_'
'zul'
'zugenommen_'
'zufügen_'
'zufrieden_'
'zuerst_'
'zubereitet_'
'zte'
'zog_'
'zitierten_'
'zimmern_'
'zierten_'
'ziele_'
'zero_'
'zer_'
'zentrums_'
'zent'
'zeitige'
'zeichnet_'
'zeichen_'
'you'
'yon'
'yle'
'yes_'
'yan'
'xes_'
'xe_'
'würde'
'wunderschönen_'
'wr'
'worse_'
'wooden_'
'wohn'
'wk'
'withdrawal_'
'wisdom_'
'wirtschaftlicher_'
'wirtschaft_'
'wireless_'
'wir'
'wins_'
'will'
'wiederher'
'wie'
'widersprechen_'
'widely_'
'wich'
'whereas_'
'wheel_'
'wesentliche_'
'wesens_'
'wes'
'wertvoll'
'werke_'
'wenigen_'
'wenden_'
'wellness_'
'weißen_'
'weitgehend_'
'weiterge'
'weh'
'wege_'
'wedding_'
'wechsel'
'wea'
'waters_'
'water'
'watches_'
'wann_'
'walking_'
'wahre_'
'wahre'
'wage_'
'wachsende'
'voters_'
'vorzulegen_'
'vorhandenen_'
'vorbei_'
'void'
'vocation'
'visual_'
'visa_'
'villages_'
'vgl_'
'vet'
'veröffentlichte_'
'vertrete'
'vertrag'
'verteilen_'
'verste'
'verspricht_'
'versorgung_'
'versen'
'versehen'
'verschr'
'verschli'
'versammlung_'
'versa'
'verringern_'
'verne'
'vermieden_'
'verletzt_'
'verl'
'verhindert_'
'vergleichbare'
'verfügbaren_'
'verfahrens_'
'vereinbar_'
'verein'
'verdi'
'verde'
'verbringen_'
'verabschiedet_'
'vera'
'venture_'
'vent'
'vely_'
'var_'
'valuable_'
'val'
'vag'
'utt'
'uts'
'utlich'
'ution_'
'uta'
'usi'
'usage_'
'ury_'
'urr'
'urgi'
'urgency_'
'urge'
'urf_'
'ure'
'ura_'
'ups'
'unvergessliche'
'unterstreichen_'
'unterliegen_'
'unterhalt'
'unmittelbarer_'
'unmittelbar_'
'unknown_'
'unk'
'university_'
'univers'
'unity_'
'united_'
'ungska'
'ungsf'
'ungsd'
'unges'
'ungerecht'
'unf'
'uner'
'unemployment_'
'unemployed_'
'undertaken_'
'underline'
'unden_'
'unco'
'umso_'
'ui'
'uhr_'
'uge'
'uder'
'ucht_'
'ubi'
'ub'
'türkischen_'
'tze_'
'tv'
'tus_'
'turns_'
'turnover_'
'tter_'
'ttel'
'tsch'
'trucks_'
'truck_'
'tru'
'troops_'
'trocken_'
'tries_'
'trial_'
'treten_'
'tree_'
'tre_'
'traveled_'
'transportation_'
'transparente'
'transform'
'transeuropäischen_'
'trains_'
'trails_'
'tragic_'
'traditioneller_'
'towels_'
'touched_'
'tos'
'tori'
'tore'
'tongues_'
'toilet'
'tner'
'tli'
'tl'
'titten_'
'tional'
'tings_'
'till_'
'tif'
'tierte_'
'tiefer_'
'tib'
'thu'
'thrust_'
'thro'
'threat_'
'thinking_'
'thick_'
'thic'
'thi'
'theor'
'themes_'
'themen_'
'tha'
'terrorist'
'terror_'
'terrible_'
'terri'
'termin'
'tens_'
'tennis_'
'tende'
'temple_'
'telefon'
'teilt_'
'teilnehmen_'
'technologische_'
'teachers_'
'tea'
'taxi_'
'taxation_'
'tav'
'tatsächlichen_'
'taste'
'tasche_'
'targets_'
'talent_'
'tal_'
'tain'
'tac'
'tabl'
'taaten_'
'swe'
'sv'
'superb_'
'sung'
'suit_'
'suffer_'
'suche_'
'subsidiary_'
'subs'
'subjected_'
'stü'
'stärkere_'
'stunning_'
'struggle_'
'stro'
'strictly_'
'strei'
'streets_'
'strategische'
'strategie_'
'straight_'
'stored_'
'store_'
'stood_'
'stoff_'
'stimmen_'
'stimm'
'stig'
'stic'
'stet'
'sters_'
'stern'
'ster'
'steigern_'
'stehende_'
'steering_'
'stee'
'sted_'
'stea'
'statt'
'statistical_'
'stat'
'starten_'
'stag'
'stad'
'staaten_'
'staat_'
'ssig'
'ssel_'
'spre'
'spray'
'sport'
'spor'
'spoke_'
'spiritual_'
'spiegelt_'
'spiegel'
'sph'
'speziellen_'
'speichern_'
'speech_'
'specify_'
'specialists_'
'speciali'
'spannende'
'sought_'
'sorgfältig_'
'solving_'
'solely_'
'solange_'
'sogenannten_'
'soft_'
'sofern_'
'sno'
'smokers_'
'sm'
'slow'
'slide_'
'sleep'
'sky_'
'sko'
'skills_'
'ske'
'sk'
'sins_'
'singer_'
'sin_'
'simpli'
'signals_'
'sign'
'sierte'
'sie'
'sichtbare'
'sichtbar_'
'sicht'
'showing_'
'showed_'
'short'
'shares_'
'shared_'
'sfe'
'sex_'
'setzten_'
'settlement_'
'settle_'
'sert'
'seriously_'
'sentence_'
'sensible_'
'sens'
'seller_'
'sell_'
'selben_'
'seiten_'
'seekers_'
'see'
'secondary_'
'seats_'
'seasons_'
'sda'
'script_'
'screening_'
'scientists_'
'science_'
'schü'
'schön_'
'schutz_'
'schuhe_'
'schuf_'
'schneiden_'
'schlu'
'schlechte_'
'sches_'
'schenk'
'scheme_'
'schaften_'
'scen'
'scans_'
'scann'
'saving_'
'satisfaction_'
'satisf'
'sat'
'sar'
'sand_'
'sammeln_'
'samen_'
'sah_'
'safeguard_'
'sacrifices_'
'sacrifice_'
'sach'
'räume_'
'rvative'
'rund'
'ruling_'
'ruhigen_'
'ruhige_'
'ruh'
'ruft_'
'rud'
'ruck'
'rub'
'rta'
'rse'
'rren'
'rou'
'roten_'
'ros_'
'ror_'
'root_'
'roller_'
'roll'
'robust_'
'road'
'rly_'
'rl'
'rising_'
'rischen_'
'ript'
'rim'
'rig_'
'riding_'
'richtung_'
'richtet_'
'richt'
'ria'
'rhythm'
'rh'
'reward'
'revision_'
'reverse_'
'revealed_'
'reve'
'retro'
'ret_'
'ret'
'resu'
'rest'
'ress'
'responses_'
'resolve_'
'reservations_'
'repr'
'repertoire_'
'renowned_'
'renewed_'
'rene'
'reme'
'religions_'
'relie'
'relate_'
'rela'
'reine'
'rein'
'regret_'
'regi'
'regardless_'
'reflection_'
'reflecti'
'reduzieren_'
'redit'
'recon'
'reck'
'rechtliche_'
'recht'
'rechnen_'
'rece'
'reasonable_'
'reagieren_'
'read'
'react'
'reaching_'
'rde_'
'raums_'
'rand_'
'ral_'
'ral'
'rain'
'railway_'
'rail_'
'rail'
'rai'
'raft'
'radi'
'rade'
'rack'
'quote_'
'ques_'
'quarterly_'
'qu'
'pure_'
'ptu'
'psychological_'
'pst'
'pse'
'prozesse'
'prozess_'
'province_'
'proto'
'protects_'
'protecting_'
'prote'
'prospe'
'proportion_'
'prop'
'promoted_'
'prom'
'projection_'
'programmen_'
'profiles_'
'professionellen_'
'produktion_'
'productivity_'
'proceed'
'privilege'
'primary_'
'preventive_'
'preservation_'
'prepa'
'preliminary_'
'preferred_'
'predict'
'precious_'
'practised_'
'pr'
'pping_'
'ppi'
'pper'
'pp_'
'potentially_'
'possibilities_'
'positiven_'
'pos'
'portion'
'pod'
'pn'
'pm_'
'plo'
'pleasant_'
'plea'
'plays_'
'playground_'
'plane_'
'placing_'
'pl'
'pissing_'
'pipe'
'pie'
'pick_'
'phy'
'photograph'
'phenomenon_'
'pflicht'
'pfe'
'perspectives_'
'personally_'
'pere'
'perception_'
'pepper_'
'pending_'
'ped_'
'pd'
'pattern_'
'patents_'
'passengers_'
'participating_'
'parti'
'parte'
'parliament_'
'param'
'paradise_'
'paket'
'pain'
'packe'
'pace_'
'oß_'
'ows_'
'owe'
'overs'
'overnight_'
'outs_'
'outs'
'ott'
'ote_'
'oss'
'osit'
'ose_'
'ose'
'origin_'
'orientiert_'
'orientation_'
'orien'
'organize_'
'organisierten_'
'oran'
'ora'
'optimum_'
'oppose'
'opoli'
'opie_'
'oo_'
'ongoing_'
'onds_'
'ond'
'ona_'
'omo'
'ommen'
'ometer_'
'ome_'
'oma'
'ologische'
'olive_'
'oke'
'oint_'
'ographi'
'ogene'
'og_'
'oftware_'
'officials_'
'offensichtlich_'
'offenen_'
'offenbar_'
'oda'
'occurs_'
'occupation_'
'occasionally_'
'obtaining_'
'obst'
'observed_'
'observ'
'obs'
'oat'
'nötig_'
'nze_'
'ntr'
'ntie'
'nte'
'nr'
'novel_'
'notwendige_'
'notified_'
'not'
'normalen_'
'non'
'nomin'
'nois'
'nni'
'nma'
'nla'
'nj'
'niveau_'
'nische_'
'nim'
'nieder'
'nicht'
'ngleich'
'ngen'
'nge'
'neuste'
'neun'
'nett_'
'ners'
'neo'
'nem'
'neighbourhood_'
'neighbour'
'neig'
'nehme_'
'negotiating_'
'nee'
'neck_'
'ndl'
'nda_'
'ncil'
'nces_'
'nau'
'nas_'
'narrow_'
'name'
'nal_'
'nai'
'nachhaltigen_'
'mü'
'mö'
'mäßig'
'märkte_'
'männliche_'
'mussten_'
'musikalische_'
'musicians_'
'musical_'
'muscle_'
'murder'
'mung'
'mund'
'mpt'
'mouse_'
'mounted_'
'mountain'
'motivat'
'monster_'
'monks_'
'mom_'
'modul'
'modernes_'
'moderner_'
'moderate_'
'moderat'
'modell_'
'mode'
'mn'
'mmi'
'ml_'
'mixture_'
'mixed_'
'mittlere'
'mitten_'
'miteinander_'
'mistakes_'
'missed_'
'mile_'
'mil'
'migrant'
'mid'
'micro_'
'mic_'
'metro_'
'metre_'
'merge'
'mel_'
'meetings_'
'medizin'
'medicines_'
'mechanisms_'
'measurement_'
'meaningful_'
'meal_'
'mea'
'maßgeblichen_'
'maybe_'
'matic_'
'mati'
'masturbation_'
'master'
'mass'
'markier'
'margin'
'manu'
'mant'
'manage'
'makers_'
'maintaining_'
'machinery_'
'mach'
'mac'
'lüsse_'
'lächerlich'
'lying_'
'lus'
'lungen_'
'lud'
'ltung'
'lts'
'lte'
'loud'
'lots_'
'lon_'
'loans_'
'loading_'
'load_'
'llt_'
'llo'
'llig'
'lists_'
'lische'
'lis'
'lips'
'linien_'
'lings'
'linge_'
'lim'
'liked_'
'lik'
'lig'
'lift_'
'lift'
'lick_'
'lick'
'lichkeiten_'
'licenses_'
'licences_'
'lg'
'letztlich_'
'lets_'
'lern'
'lend'
'leitung_'
'leisure_'
'legung_'
'legendary_'
'laute'
'laut_'
'launching_'
'lauf'
'laser_'
'las_'
'largely_'
'langfristige_'
'lade'
'lad'
'laboratory_'
'labels_'
'küssen_'
'köstlichen_'
'kämpfen_'
'käm'
'kulturellen_'
'kultur_'
'ktiv_'
'ktionen_'
'kro'
'kritische_'
'krieg'
'kreis_'
'kre'
'krank'
'kop'
'kontaktieren_'
'konstruktive'
'konk'
'konfrontiert_'
'komp'
'kommuni'
'kno'
'kni'
'kne'
'klo'
'klima'
'kli'
'kleinere_'
'kleiner_'
'kleid_'
'klassi'
'klaren_'
'kit'
'kilometres_'
'kilo'
'kend'
'kel_'
'keiner_'
'keeps_'
'karten_'
'kalt_'
'kal'
'kW_'
'jähr'
'jur'
'junction_'
'juice_'
'js'
'jointly_'
'jetzigen_'
'jet'
'jes'
'jemanden_'
'jederzeit_'
'ject'
'jan'
'jam'
'jah'
'ize'
'iu'
'itt_'
'itor'
'ition_'
'iti'
'iter'
'iten_'
'ite'
'italienischen_'
'istische_'
'isten_'
'isse_'
'isn_'
'ised_'
'isa'
'irk'
'involving_'
'invitation_'
'investigate_'
'investiert_'
'invent'
'intr'
'interior_'
'intergovernmental_'
'intends_'
'inten'
'intellectual_'
'int'
'instructions_'
'instructed_'
'instantly_'
'install_'
'inst'
'inspiriert_'
'inspire_'
'insofern_'
'inn_'
'init'
'inister_'
'ining_'
'inier'
'ini_'
'inhabitants_'
'ingly_'
'infringement_'
'infr'
'infl'
'infection_'
'inen_'
'indoor_'
'indigenous_'
'indicati'
'indicate_'
'ims'
'impr'
'impose_'
'imported_'
'impli'
'immo'
'imm'
'illustrati'
'illon'
'illegale_'
'ilit'
'ile'
'igen'
'iffe'
'ieß'
'ierungen_'
'iers_'
'iehung'
'iefer'
'ied'
'ieben_'
'idyllic_'
'ido'
'idi'
'identity_'
'identification_'
'iden'
'id'
'ict'
'ick'
'icht'
'ica'
'ibility_'
'ib'
'iat'
'ias_'
'iPhone_'
'iPad_'
'höher_'
'hängen_'
'hä'
'humans_'
'hu_'
'hs'
'hrungs'
'hrt_'
'hr_'
'hp'
'housing_'
'household_'
'horizontal_'
'honour_'
'honor'
'hone'
'hoffen_'
'hob_'
'hnt_'
'hmen_'
'hir'
'hinzu_'
'hinweg_'
'hilft_'
'hilf'
'hike'
'hia'
'heutigen_'
'het'
'herzlich'
'hervorragende_'
'hervorr'
'hervorgehoben_'
'hervorge'
'herunter_'
'heritage_'
'heri'
'hene'
'henden_'
'hei'
'hebt_'
'heav'
'healing_'
'heads_'
'hea'
'haus'
'harte'
'harmoni'
'harmful_'
'harm'
'happening_'
'hang'
'handle'
'handi'
'ham_'
'ham'
'haltung_'
'halter_'
'halt_'
'halt'
'hai'
'hafte_'
'haft'
'günstig'
'gäng'
'gä'
'gutem_'
'gungen_'
'gung_'
'gue_'
'gten_'
'gste'
'grünen_'
'grün_'
'grow_'
'grosse'
'greifen_'
'greif'
'greenhouse_'
'gree'
'grau'
'grate'
'graphs_'
'grapes_'
'granted_'
'gram'
'governmental_'
'governed_'
'gott'
'gos_'
'gon'
'goldene'
'golden_'
'gnit'
'gne'
'gna'
'globalis'
'glad_'
'ght'
'geändert_'
'gewünschte_'
'gewachsen_'
'gestern_'
'gesprochen_'
'gesp'
'gesetzlichen_'
'gesell'
'geschieht_'
'geschickt_'
'geschah_'
'geräte_'
'gers_'
'geringe_'
'gerettet_'
'gerechtfertigt_'
'geraten_'
'geniessen_'
'gener'
'genehmig'
'gene_'
'gene'
'gender_'
'genauso_'
'gemeinschaftliche_'
'geltenden_'
'geln_'
'gele'
'geld'
'geko'
'gegenwärtig_'
'gegangen_'
'geführten_'
'gefällt_'
'gefertigt_'
'gede'
'gedacht_'
'gebraucht_'
'geboten_'
'gebo'
'gebilligt_'
'gear'
'ge'
'gau'
'gasse_'
'garten_'
'gardens_'
'garantiert_'
'gap_'
'gan_'
'gall'
'fünfzehn_'
'fällig_'
'fähr'
'fä'
'fying_'
'functionality_'
'functional_'
'früher_'
'frühe'
'frozen_'
'froh_'
'fro'
'frisch_'
'freely_'
'freedoms_'
'fr_'
'found'
'forgotten_'
'forg'
'forests_'
'foresee'
'forecast_'
'football_'
'foods_'
'foli'
'folgende'
'focused_'
'flower_'
'flo'
'flexible_'
'flexibel_'
'flas'
'fix_'
'fitness_'
'fisheries_'
'firms_'
'firm'
'fir'
'finds_'
'fil'
'ficken_'
'fice'
'fia'
'ffi'
'fernsehen_'
'feld'
'fehler'
'fees_'
'feels_'
'feder'
'fed_'
'feasible_'
'fass'
'fas'
'fanden_'
'fairly_'
'fail_'
'fahrzeuge'
'fahrer_'
'fahr'
'facial_'
'ezi'
'ey'
'extremists_'
'extreme_'
'extraordinary_'
'exploitation_'
'expectations_'
'execut'
'exclusion_'
'exclude_'
'exchanges_'
'exception_'
'exc'
'examination_'
'exam_'
'exakt_'
'ex_'
'ewi'
'eva'
'eute'
'ett'
'etr'
'etic'
'ete'
'etablierte'
'essi'
'esse'
'esp'
'ese_'
'esc'
'erzählte_'
'erzielte_'
'erzeugt_'
'erworben_'
'erwe'
'erwarte'
'erst'
'erschienen_'
'erreichten_'
'erreichte_'
'erleichtern_'
'erkunden_'
'erk'
'erhöhten_'
'erhoben_'
'ergie'
'erga'
'erg_'
'erforder'
'erfolgreiche_'
'erde_'
'erba'
'erati'
'equi'
'equat'
'equally_'
'enz'
'enw'
'entwicklung_'
'entstand_'
'entre'
'entity_'
'entin'
'enth'
'entfalten_'
'enormous_'
'enorm'
'enn'
'enlarge'
'enk'
'eni'
'eng'
'ene'
'employers_'
'employed_'
'emphasize_'
'eme'
'ember'
'embedded_'
'elt_'
'elt'
'elsewhere_'
'elf_'
'elevat'
'elegance_'
'electricity_'
'eld_'
'eld'
'elb'
'einzusetzen_'
'einzigartige_'
'einzigartige'
'einverstanden_'
'einstimmig_'
'einsetzen_'
'einhalten_'
'eingestellt_'
'eingeladen_'
'einbar'
'eil_'
'eil'
'eight_'
'eigen_'
'eich'
'ehn'
'egg_'
'egal'
'efi'
'editor_'
'editions_'
'edit_'
'edit'
'edia'
'eden'
'edel'
'ecti'
'ecological_'
'eco'
'eau_'
'eastern_'
'ean'
'dürfte_'
'déc'
'dä'
'duties_'
'dure'
'durchschnittlichen_'
'dura'
'dt_'
'druck_'
'drivers_'
'driven_'
'dringend_'
'drag_'
'draft'
'dr'
'downloaded_'
'dow'
'doubl'
'dot'
'dor'
'doppelte'
'doppel_'
'domain_'
'documentary_'
'dl'
'diving_'
'diver'
'dition'
'distributed_'
'distinct_'
'dist'
'diskutiert_'
'disk'
'disappear'
'disabled_'
'directory_'
'directives_'
'directions_'
'dinner_'
'din'
'dil'
'digung_'
'digen_'
'diet_'
'dienst'
'dichte'
'dh'
'dg'
'devastating_'
'deutsch_'
'deut'
'destroyed_'
'designer_'
'describe_'
'derartige'
'dependent_'
'dependence_'
'depend_'
'deny_'
'dense'
'denkt_'
'demonstrated_'
'dell'
'delivers_'
'delete_'
'defines_'
'defence_'
'decorated_'
'deco'
'declared_'
'decken_'
'dec'
'debates_'
'deadline_'
'dauern_'
'dauerhaften_'
'dau'
'dateien_'
'dat'
'das'
'dangers_'
'dance_'
'damaged_'
'dal'
'dad_'
'dachte_'
'currencies_'
'cure_'
'cuisine_'
'cture_'
'cted_'
'crystal_'
'cru'
'crowd_'
'cross'
'criticism_'
'credibility_'
'cred'
'creative_'
'cre'
'craft_'
'cozy_'
'coverage_'
'cosm'
'correctly_'
'copies_'
'cop'
'cooperate_'
'cool_'
'cook_'
'coo'
'convinced_'
'conviction_'
'converter_'
'controller_'
'contributing_'
'contributes_'
'contractual_'
'constitutes_'
'consistent_'
'consist'
'conservation_'
'connecti'
'congratulate_'
'confident'
'concentrat'
'conce'
'comprises_'
'composers_'
'compliance_'
'complexity_'
'compete'
'compare_'
'compar'
'commonly_'
'commission_'
'commerce_'
'commanded_'
'comm'
'combat_'
'colours_'
'collective_'
'cold_'
'coherent_'
'coating_'
'coated_'
'clubs_'
'cloudy_'
'clicks_'
'clarity_'
'cke'
'cit'
'cigarettes_'
'cide'
'chul'
'chuhe_'
'chs'
'chosen_'
'chn'
'ching_'
'chin'
'chill'
'chie'
'chemische_'
'checke'
'characterized_'
'channels_'
'channel_'
'changing_'
'chal'
'cessa'
'cere'
'cer_'
'centres_'
'ced_'
'cease'
'cci'
'caves_'
'cau'
'cata'
'carte_'
'cart'
'captain_'
'caps'
'capability_'
'cann'
'cana'
'can'
'campsite_'
'calendar_'
'bä'
'buses_'
'burn_'
'bung'
'budgetary_'
'brü'
'brun'
'brief_'
'breed'
'breaking_'
'bread_'
'brea'
'bre'
'brauch'
'brands_'
'branches_'
'braindumps_'
'br'
'boy'
'bound'
'bou'
'boot_'
'bookings_'
'bon'
'boat_'
'block'
'blend'
'blasen_'
'bla'
'biolog'
'biog'
'binden_'
'binde'
'bildung_'
'bilateral_'
'bikes_'
'bh'
'bezüglich_'
'beziehen_'
'bewunder'
'bewerten_'
'bewegt_'
'bett'
'betrieb_'
'betrieb'
'betreffenden_'
'betreffend_'
'betra'
'bestimmter_'
'bestimm'
'beschäftigen_'
'berührt_'
'beruflichen_'
'beruf'
'bericht_'
'berei'
'berechnet_'
'bens'
'belt_'
'belonging_'
'belong_'
'bell'
'bekämpfen_'
'bekannte'
'beitr'
'beis'
'beheben_'
'behe'
'begins_'
'beginn_'
'bege'
'began_'
'beer_'
'beef_'
'bedeutende_'
'bedeute'
'bedanken_'
'becoming_'
'beantworten_'
'bb'
'bauen_'
'battle_'
'batteries_'
'bath_'
'bath'
'basierte'
'basiert_'
'barbecue_'
'bag'
'bacteria_'
'babys'
'ba_'
'ays_'
'aw'
'ave'
'ava'
'autonome_'
'autonom'
'automat'
'authorised_'
'ausw'
'ausstellung_'
'aussch'
'ausgesetzt_'
'ausgeschlossen_'
'ausgesch'
'ausgel'
'ausgeführt_'
'ausgedrückt_'
'ausch'
'ausb'
'aufnahme_'
'aufmerksam_'
'aufgezeichnet_'
'aufgew'
'aufgefordert_'
'aufen'
'aufbau'
'audience_'
'atic_'
'ath'
'ata_'
'asylum_'
'ast_'
'assure_'
'assen_'
'assembly_'
'assa'
'asking_'
'artu'
'arts_'
'arti'
'art'
'arrive_'
'arov_'
'arl'
'ark_'
'ark'
'arises_'
'arise_'
'aris'
'ario'
'aren'
'architekt'
'arbeite'
'approval_'
'appr'
'app_'
'ao'
'anzus'
'anzahl_'
'ants_'
'ano_'
'ano'
'ania_'
'angi'
'angewiesen_'
'angewendet_'
'angesprochen_'
'angekündigt_'
'anf'
'anerkannte'
'ane_'
'ande'
'anb'
'ams_'
'amp'
'amounts_'
'ame'
'ambitious_'
'ambi'
'alti'
'alternative'
'allocation_'
'allo'
'alive_'
'alisierung_'
'ale'
'albe'
'aktuell_'
'aktualisiert_'
'aktivitäten_'
'ak_'
'ais'
'ahn_'
'ahn'
'agree'
'agi'
'agg'
'agents_'
'aged_'
'aga'
'afterwards_'
'affirm'
'affecting_'
'affairs_'
'aesthetic_'
'ael'
'advocate'
'advise_'
'advise'
'advertise'
'advantageous_'
'adopt_'
'admin_'
'adds_'
'addressing_'
'ada'
'acul'
'activated_'
'acquis_'
'aco'
'ack_'
'accu'
'accounts_'
'accommodations_'
'abwe'
'abstract'
'ably_'
'abgesch'
'aben'
'abd'
'abb'
'aba'
'`_'
']'
'\\_'
'Zü'
'Zy'
'Zwi'
'Zweite'
'Zwei'
'Zwecke_'
'Zweck_'
'Zuständigkeit_'
'Zuschauer_'
'Zusammen_'
'Zug_'
'Zoll_'
'Zha'
'Zentralbank'
'Zellen_'
'Zap'
'Zahlung_'
'Young_'
'YelloChina_'
'Wüste_'
'Wände_'
'Währung_'
'Wä'
'Wu'
'Written_'
'Would_'
'Workshops_'
'Works_'
'Words_'
'Women_'
'Wolfram_'
'Wohl'
'Wissenschaftliche'
'Wirtschaftswachstum_'
'Wir'
'Wind'
'Will_'
'Wilhelm_'
'Wil'
'Wiederauf'
'WiFi_'
'Whirlpool_'
'Wetterbedingungen_'
'Westen_'
'Wes'
'Werkzeuge_'
'Werk'
'Weltm'
'Wellness'
'Well'
'Weiterentwicklung_'
'Weit'
'Weine_'
'Weihnachts'
'Wei'
'Way'
'Wars'
'Ware_'
'Wanderungen_'
'Wander'
'Wahrscheinlichkeit_'
'Wagner_'
'WW'
'WG_'
'Völkern_'
'Voting_'
'Vorstands'
'Vorstand_'
'Vorsitzender_'
'Vorher'
'Vorbe'
'Vorausschau_'
'Volumen_'
'Visi'
'Vis'
'Viren'
'Vincent_'
'Vin'
'Viertel'
'Vielen_'
'Viel_'
'Victoria_'
'Verz'
'Verwirklichung_'
'Verwa'
'Verträge_'
'Vertrages_'
'Verschl'
'Verschiedene_'
'Versa'
'Verpflichtung_'
'Verlä'
'Verluste_'
'Verlust_'
'Verl'
'Verkäufer_'
'Verhältnis_'
'Vergebung_'
'Verf'
'Vereinbarungen_'
'Verein_'
'Verbrauch_'
'Verbindungs'
'Verbesserungen_'
'Verarbeitung_'
'Vent'
'Vegas_'
'Vaters_'
'Vas'
'Various_'
'Van'
'Valle'
'VIS_'
'VIP_'
'VER'
'Ut'
'User_'
'Urs'
'Urlaubs'
'Upgrade_'
'Up'
'Unterw'
'Untersuchung_'
'Unterk'
'Universum_'
'Unit_'
'Ungarn_'
'Une'
'Una'
'Umständen_'
'Umsch'
'Umfeld_'
'Ukrainian_'
'Uganda_'
'UM_'
'Tür'
'Tö'
'Type_'
'Twin'
'Tun'
'Tube_'
'Tsche'
'Ts'
'Trotz_'
'Trip'
'Trie'
'Trib'
'Traum_'
'Training_'
'Train'
'Track_'
'Tr'
'Tourismus_'
'Tools_'
'Too'
'Tom'
'Tol'
'Tod'
'Tin'
'Til'
'Tier_'
'Tief'
'Thor'
'Things_'
'Theater_'
'Terms_'
'Telekommunikations'
'Telefon'
'Technologies_'
'Techniken_'
'Tech_'
'Tau'
'Tal_'
'Tai'
'Tagung_'
'TS_'
'TRO'
'TL'
'TF'
'TER'
'TEN'
'Süß'
'Südamerika_'
'Südafrika_'
'Süd_'
'Sz'
'Syrien_'
'Syria_'
'Symphony_'
'Sweet_'
'Sun'
'Suchmaschinen'
'Stä'
'Study_'
'Studien_'
'Students_'
'Structural_'
'Streit'
'Strasbourg_'
'Stornierung'
'Store_'
'Stimmen_'
'Still'
'Stiftung_'
'Ster'
'Stellung_'
'Stelle_'
'Stein_'
'Stein'
'Statu'
'Standort_'
'Stahl'
'Staats_'
'Spät'
'Sprach'
'Spie'
'Speci'
'Spanisch_'
'Span'
'Sowjetunion_'
'Sony_'
'Sonnensch'
'Songs_'
'Someone_'
'Solutions_'
'Solo'
'Sol_'
'Sol'
'Sl'
'Sitz_'
'Situationen_'
'Situated_'
'Sis'
'Single_'
'Sind_'
'Simon_'
'Sierra_'
'Siehe_'
'Siedlung'
'Sicherheitsrat'
'Should_'
'Shopping_'
'Shoes_'
'Shanghai_'
'Shan'
'Sevilla_'
'Sensor'
'Sendung_'
'Send'
'Sege'
'Second_'
'Seat'
'Schä'
'Schulungen_'
'Schreiben_'
'Schreib'
'Schools_'
'Schnitt_'
'Schloss'
'Schiffe_'
'Scheme_'
'Schal'
'Schaden_'
'Sc'
'Sat'
'Sardinia_'
'Samuel_'
'Salzburg_'
'Sala'
'Sal'
'Sag'
'Saf'
'Sad'
'Sachsen_'
'Sache_'
'Saa'
'STA'
'SN'
'SL_'
'SF'
'Rückkehr_'
'Rücken_'
'Rätsel_'
'Ry'
'Rut'
'Rule_'
'Rub'
'Rotterdam_'
'Rosa_'
'Rom_'
'Roger_'
'Risiko'
'Risiken_'
'Ring'
'Rh'
'Rey'
'Revi'
'Resort_'
'Reserve'
'Rep'
'Renaissance_'
'Religionen_'
'Relati'
'Rel'
'Rek'
'Reinigung_'
'Reifen_'
'Reichtum_'
'Regions_'
'Regionalpolitik_'
'Regional'
'Regime_'
'Regierungs'
'Ref'
'Record'
'Rechtsprechung_'
'Rech'
'Rebe'
'Reaktion_'
'Re'
'Rauch'
'Rasen'
'Ras'
'Range_'
'Ram'
'Rai'
'Rahmen'
'Radio'
'Rad_'
'Racing_'
'RN'
'RL'
'RD_'
'RD'
'RB'
'Quartal_'
'Quar'
'Pä'
'Ps_'
'Protest'
'Pros'
'Programm'
'Produktivität_'
'Produktions'
'Problematik_'
'Prinzip_'
'Print'
'Presse_'
'Presse'
'Praktizierenden_'
'Praktizierende_'
'Pou'
'Pop'
'Pont'
'Polizei_'
'Pok'
'Pod'
'Pläne_'
'Plug_'
'Playa_'
'Plattform_'
'Platten_'
'Pietro_'
'Pier'
'Pick'
'Philippe_'
'Phili'
'Phasen_'
'Pets_'
'Pes'
'Peri'
'Perhaps_'
'Patri'
'Parts_'
'Parameter'
'Paradies_'
'Palm'
'Palette_'
'Palermo_'
'Palace_'
'Pal'
'Pag_'
'Packaging_'
'Pack'
'PP'
'PN'
'PI'
'PHP_'
'Ov'
'Outdoor_'
'Otherwise_'
'Ot'
'Oster'
'Ort'
'Opposition_'
'Opel_'
'Online'
'Oma'
'Ok'
'Officer_'
'Od'
'Oberfläche_'
'OV'
'OT'
'OS'
'OPE'
'OL'
'OF_'
'Nürnberg_'
'Nä'
'Nov'
'Nos_'
'Normen_'
'Nord_'
'Noch_'
'Nob'
'Night_'
'Nichtraucherzimmer_'
'Nicht'
'Neua'
'Netz'
'Nehmen_'
'Nea'
'National'
'Nap'
'NP'
'NOT'
'NM'
'Männlich_'
'Männern_'
'Muster'
'Muse'
'Mur'
'Mul'
'Movie'
'Mountain'
'Motto_'
'Motoren_'
'Moskau_'
'Mose_'
'Mosaik_'
'Mos'
'Moral'
'Montenegro_'
'Monte'
'Monica_'
'Mond_'
'Mond'
'Mobil'
'Mittelpunkt_'
'Mitteilungen_'
'Mittag'
'Mira'
'Ministeri'
'Minimal'
'Minderheiten_'
'Militär'
'Mili'
'Mile'
'Mikro'
'Mig'
'Mid'
'Micro'
'Metall'
'Mes'
'Merk'
'Menschheit_'
'Mem'
'Meister'
'Meinungen_'
'Meer'
'Medium_'
'Medi'
'Mec'
'Mazedonien_'
'Maus'
'Maurit'
'Matt'
'Math'
'Master_'
'Mars'
'Marokko_'
'Mario_'
'Mare'
'Maps_'
'Manda'
'Managing_'
'Malware_'
'Mall'
'Make_'
'Mais'
'Maintain'
'Magazin_'
'Machine'
'MW'
'MP_'
'MP3_'
'MM_'
'ML'
'MF'
'MD'
'MB_'
'MA_'
'MAT'
'MAR'
'Lä'
'László_'
'Ly'
'Lunch'
'Lug'
'Low_'
'Looking_'
'Lodge_'
'Location_'
'Lizenz_'
'Live'
'Linz_'
'Lieblings'
'Lie'
'Licht'
'Liber'
'Lib'
'Lia'
'Level_'
'Lev'
'Leuten_'
'Let'
'Lese'
'Lern'
'Leon'
'Lem'
'Leis'
'Lein'
'Leicht'
'Leib_'
'Lehr'
'Leg'
'Lebensmittelsicherheit_'
'Learning_'
'Las'
'Ladies_'
'Label_'
'LL_'
'LLE'
'LCD_'
'LC'
'Königs_'
'Kämpfe'
'Ky'
'Kreuz_'
'Kreis'
'Korrektur_'
'Kopie'
'Kopf_'
'Koo'
'Konzert_'
'Konzepte_'
'Kontinent_'
'Kontakte_'
'Konferenz'
'Komponist_'
'Kohle'
'Klu'
'Klimawandels_'
'Kle'
'Klassen_'
'Klasse_'
'Kla'
'Kie'
'Key_'
'Kenne'
'Kenn'
'Kath'
'Kata'
'Karlsruhe_'
'Karel_'
'Kara'
'Kapazität_'
'Kanal'
'Kaiserin_'
'KU'
'KO'
'KA_'
'KA'
'Jü'
'Justiz'
'Jury_'
'Jugend'
'Juan_'
'Jordan_'
'Joe_'
'Joa'
'Jim_'
'Jane'
'Jan_'
'Jamaica_'
'Jag'
'Irland_'
'Irish_'
'Intervention_'
'Interpretation_'
'Interp'
'Inte'
'Int'
'Instrument'
'Instead_'
'Instan'
'Inse'
'Ink'
'Indonesia_'
'Individu'
'Indi'
'Impulse_'
'Improving_'
'Imperial_'
'Immobilien'
'Imm'
'Il_'
'Ib'
'ISS'
'IRC_'
'ION_'
'INTER'
'ING_'
'INE'
'IA'
'Höhe'
'Höchst'
'Händler_'
'Hä'
'Hus'
'Host'
'Horn_'
'Hop'
'Home'
'Hohen_'
'Hof'
'Hl_'
'Him'
'Hier'
'Herzegowina_'
'Herunterladen_'
'Hence_'
'Help_'
'Heiz'
'Heimat_'
'Heim'
'Heft'
'Heaven_'
'Heart_'
'Haut'
'Haustiere_'
'Haushalt_'
'Haupta'
'Haupt_'
'Harv'
'Hart'
'Harmonie_'
'Hamburger_'
'Halb'
'Hahn'
'Haare_'
'Haar'
'HIV_'
'HER'
'Güter'
'Göt'
'Gut'
'Guidelines_'
'Gui'
'Guar'
'Gründung_'
'Grundsätze_'
'Grenze_'
'Green'
'Gree'
'Gran_'
'Grafik_'
'Govern'
'Gott'
'Gor'
'Glaubens_'
'Given_'
'Girl_'
'Gipfel'
'Gil'
'Gewinn_'
'Gewinn'
'Geste'
'Gesetzgebung_'
'Gesetze_'
'Gese'
'Gerichts'
'Genfer_'
'Generator_'
'Gemeinschaften_'
'Gelegenheiten_'
'Geldb'
'Gel'
'Gehminuten_'
'Gefä'
'Gebäuden_'
'Gebet'
'Garage_'
'GS'
'GPS_'
'GEN'
'GD_'
'GARDENA_'
'Fü'
'Fur'
'Fund'
'Fun'
'Früchte_'
'Fronte'
'Front_'
'Friedens_'
'Friedens'
'Free'
'Fred_'
'Fraunhofer_'
'Frauen'
'Fr'
'Formulierung_'
'Formel'
'Forderungen_'
'Folk'
'Fokus_'
'Focus_'
'Flüchtlings'
'Flughafen'
'Fleisch_'
'Fishing_'
'Fisheries_'
'Fisch_'
'Fire'
'Finnland_'
'Fingern_'
'Filme_'
'Film'
'Fie'
'Ferien_'
'Feld'
'Feind_'
'Feier'
'Farb'
'Far'
'Fans_'
'Fan'
'Fahrzeug_'
'Fahrt_'
'Facilities_'
'Fa_'
'FTP_'
'FOR_'
'FOR'
'FH'
'Extreme'
'Expert_'
'Exp'
'Europäische'
'Europeans_'
'Eucharist_'
'Eu'
'Esszimmer_'
'Ess'
'Erwartungen_'
'Ernst_'
'Erkenntnis_'
'Erinnerungen_'
'Eric'
'Erhaltung_'
'Erhalt'
'Erh'
'Ergebnissen_'
'Erfahren_'
'Ereignis_'
'Erbe_'
'Erasmus_'
'Epis'
'Epi'
'Environmental_'
'Entwicklungsa'
'Entspannung_'
'Entspannen_'
'Entschlossenheit_'
'Entscheidungsträger_'
'Entscheide'
'Engineering_'
'Energieverbrauch_'
'Empfang'
'Empf'
'Emilia_'
'Ell'
'Einzelpersonen_'
'Einvernehmen_'
'Eintrag_'
'Einstellung_'
'Einsatz'
'Einkaufsmöglichkeiten_'
'Einfl'
'Eind'
'Eigentum_'
'Eigentlich_'
'Eier_'
'Eg'
'Edinburgh_'
'Ear'
'EWR_'
'ET_'
'EM_'
'EL_'
'EIN'
'EEA_'
'Durch'
'Dun'
'Drei'
'Downloads_'
'Down'
'Doppel_'
'Donald_'
'Don'
'Dome'
'Dom'
'Dok_'
'Director'
'Diesen_'
'Die'
'Diamant'
'Diabetes_'
'Devi'
'Detail'
'Der'
'Dela'
'Def'
'Days_'
'Datum_'
'Datenschutz'
'Darm'
'Dance_'
'Dama'
'Dach'
'DS'
'DOS_'
'DM_'
'DF'
'DES'
'Customs_'
'Crystal_'
'Cross_'
'Cro'
'Coup'
'Cou'
'Cors'
'Corporate_'
'Corn'
'Cop'
'Cool'
'Contr'
'Container'
'Constitution_'
'Consequently_'
'Cons'
'Connecti'
'Congress_'
'Cong'
'Cond'
'Compared_'
'Communications_'
'Comments_'
'Command'
'Colombia_'
'Cologne_'
'Colli'
'Clip_'
'Civil_'
'Cit'
'Cin'
'Christoph_'
'Christi_'
'Chris_'
'Cho'
'Chile_'
'Chief_'
'Chemi'
'Cheap_'
'Char'
'Chan'
'Chamber_'
'Cer'
'Categories_'
'Catalonia_'
'Cash_'
'Card_'
'Cant'
'Campingplatz_'
'Camb'
'CS_'
'CO_'
'CON'
'COMP'
'CN'
'CIA_'
'CHE'
'CF_'
'CAR'
'By'
'Buy_'
'But'
'Bull'
'Bul'
'Buenos_'
'Budgets_'
'Bud'
'Buches_'
'Buch'
'Brücke_'
'Brus'
'Bruc'
'Brill'
'Brett'
'Break'
'Bran'
'Brain_'
'Bow'
'Botschafter_'
'Bosnia_'
'Bolivien_'
'Body_'
'Blut_'
'Binnen'
'Bildern_'
'Bicycle_'
'Bibel_'
'Bezahlung_'
'Bez'
'Bewältigung_'
'Besuchen_'
'Bestreben_'
'Bestimmung_'
'Besides_'
'Beschr'
'Beschl'
'Berücksichtigung_'
'Berliner_'
'Bergbau'
'Beni'
'Bene'
'Being_'
'Beihilfe_'
'Behörde_'
'Beh'
'Begegnung_'
'Befr'
'Bef'
'Be_'
'Bay_'
'Bauernhof_'
'Bauern'
'Batterie_'
'Bathroom_'
'Bath_'
'Baska_'
'Baron_'
'Barb'
'Bai'
'Back_'
'Bach'
'Baby'
'BUR'
'BT'
'BIL'
'BI'
'BCO_'
'BBC_'
'BB'
'Az'
'Aviation_'
'Avenue_'
'Av'
'Außengrenzen_'
'Automotive_'
'Automati'
'Autobahn_'
'Auszeichnung_'
'Auswahl'
'Austr'
'Ausrichtung_'
'Ausnahme_'
'Ausl'
'Ausgangs'
'Ausfuhr'
'Ausflüge_'
'Ausf'
'Ausdrucks'
'August'
'Aufzug_'
'Aufz'
'Auftr'
'Aufst'
'Aufnahme'
'Attack_'
'At'
'Astro'
'Assessment_'
'Ash'
'Artikeln_'
'Arr'
'Aro'
'Argumente_'
'Arg'
'Arena_'
'Architektur_'
'Arbeitsweise_'
'Arbeitsplatz_'
'Arbeitslosigkeit_'
'Arbeitsl'
'Ara'
'Appro'
'Application_'
'Appeal_'
'Any_'
'Anwendungs'
'Anweisungen_'
'Anw'
'Anti'
'Anteil_'
'Ansprüche_'
'Anspruch_'
'Anreize_'
'Anne'
'Anna'
'Anlass_'
'Ankunft_'
'Anhänge'
'Angeln_'
'Anf'
'And'
'Analysen_'
'Anal'
'Amp'
'Amendments_'
'Alliance_'
'Alfa'
'Alexander_'
'Aktionsplan_'
'Aktions'
'Akt'
'Aires_'
'Airb'
'Ah'
'Agricultural_'
'Agenturen_'
'Aga'
'Afghan_'
'Aero'
'Adv'
'Admi'
'Add_'
'Adam'
'Active_'
'Acht'
'Abwasser'
'Abteilung_'
'Abreise_'
'Abr'
'Abendessen_'
'Abbildung_'
'Abba'
'Abb'
'AV'
'AT_'
'AP_'
'AND_'
'AM'
'AF'
'AD'
'ACP_'
'; '
': '_'
'96'
'94_'
'84_'
'82'
'81'
'800'
'79'
'77_'
'72'
'71'
'65'
'62'
'61'
'600'
'58'
'56_'
'53'
'51'
'439'
'400'
'33'
'210'
'19th_'
'1985_'
'1977_'
'1970_'
'197'
'18th_'
'1892_'
'1891_'
'184'
'182'
'181'
'174'
'170_'
'170'
'140_'
'130_'
'123'
'1200_'
'119'
'118'
'117_'
'116_'
'113_'
'110_'
'104_'
'08'
'001_'
'.†_'
'.. _'
'.-_'
'.- _'
'. „_'
',, _'
', (_'
') – _'
')'
'$_'
'"-_'
'" - _'
' ‚_'
' –_'
' © _'
' <'
' -'
' ,_'
' %._'
' # _'
'  '
'我'
'”. '
'” (_'
'“)'
'“ (_'
'’ (_'
'ь'
'ық'
'ті'
'ре'
'к'
'з'
'ек'
'д'
'в'
'ар'
'ал'
'ła'
'ě'
'Č'
'ć_'
'ā'
'üste'
'üs'
'üro_'
'üre'
'üpf'
'üp'
'ünd'
'ührt_'
'ühr'
'üglich_'
'ücks'
'üch'
'üblich'
'überw'
'übertragung'
'übersetzt_'
'überschreite'
'überr'
'übernachten_'
'übern'
'übermitteln_'
'übergreifend'
'überge'
'ú'
'öte'
'öt'
'östlichen_'
'öst'
'öss'
'örung'
'örtliche'
'öne'
'öll'
'ökonomische_'
'ökologischen_'
'öhl'
'öger'
'öffentlichkeit_'
'öff'
'öd'
'öbe'
'ña'
'ît'
'î'
'és_'
'ém'
'ég'
'ça'
'äuter'
'äts'
'äter_'
'äte'
'äs'
'ärung_'
'ärf'
'änk'
'ängig'
'änger'
'äng'
'äne'
'ändischen_'
'ändert_'
'än'
'älteren_'
'älte'
'äler'
'ähr'
'ähl'
'äher'
'ägyptischen_'
'äf'
'ädig'
'ßung_'
'ßte'
'ßt'
'ßl'
'ßer_'
'ße_'
'Überwach'
'Übertragung_'
'Überstellung_'
'Übersetzungen_'
'Übersch'
'Überrasch'
'Überg'
'Übereinkommens_'
'Ø'
'Öffnung_'
'Í'
'Änderungsanträge_'
'Änderungsantr'
'Änderungs'
'Á'
'»._'
'®'
'« (_'
' % _'
' '
'zähl'
'zykl'
'zy_'
'zwölf_'
'zweit'
'zweif'
'zweckmäßig'
'zwe'
'zuw'
'zustimmen_'
'zusammenzuarbeiten_'
'zusammenges'
'zurückk'
'zun'
'zuk'
'zugunsten_'
'zugehör'
'zub'
'zs'
'zoo'
'zo_'
'zm'
'zl'
'ziu'
'zil'
'zierte_'
'zi_'
'zess'
'zentral_'
'zellen_'
'zeitung'
'zan'
'zahlungen_'
'zahlt_'
'zah'
'za_'
'ypages'
'yn'
'yme'
'yla'
'yl'
'yball'
'yard'
'yacht'
'xx_'
'xt'
'xid'
'xel_'
'würdig_'
'wörter_'
'wärt'
'wus'
'wunderbaren_'
'wunderbare'
'wun'
'wuchs'
'writers_'
'write'
'wri'
'wre'
'worship_'
'worried_'
'workforce_'
'woods_'
'wonder'
'wonach_'
'wom'
'wol'
'wn'
'wissenschaftliche_'
'wissens'
'wiss'
'wise_'
'wis'
'wirtschaftlich_'
'wirst_'
'wirksamen_'
'wirkliche'
'wirk'
'wire_'
'winners_'
'winner_'
'winds_'
'windigkeit'
'wind'
'willkürlich'
'willig'
'wies'
'wiederauf'
'width_'
'widme'
'wichtiges_'
'wi_'
'whilst_'
'whereby_'
'wheel'
'whe'
'whatever_'
'wh'
'wette'
'wettbewerb'
'werte_'
'werte'
'werks_'
'werfen_'
'werdet_'
'werbung_'
'wenigsten_'
'wen'
'weltweiten_'
'well'
'welding_'
'welchem_'
'weiße'
'weitergeleitet_'
'weitaus_'
'weis'
'weibliche'
'ween_'
'weekly_'
'wee'
'wed'
'webcam_'
'weapons_'
'weak'
'we'
'wave_'
'waterf'
'wat'
'wassers'
'was'
'wartet'
'wart_'
'ward_'
'ward'
'wal'
'wahren_'
'wahl'
'wah'
'vul'
'vsk'
'vov'
'vous_'
'vorübergehend_'
'vorzu'
'vorwärts_'
'vorteil'
'vorsi'
'vorschr'
'vorliegt_'
'vorliegen_'
'vorkommen_'
'vorhergehenden_'
'vorher_'
'vorher'
'vorhaben_'
'vorges'
'vorg'
'vorbereite'
'voluntary_'
'vollständiges_'
'vollständige_'
'volle'
'voca'
'viti'
'vita'
'vit'
'visi'
'virtuellen_'
'virtual_'
'violated_'
'vil'
'vierte_'
'vielfältig'
'vie'
'victim_'
'vice_'
'vibra'
'veter'
'vest'
'vessels_'
'veröffentlichten_'
'verändern_'
'verzeichnis_'
'verzeichnen_'
'verze'
'verwirkliche'
'verwende'
'verweist_'
'verwaltung'
'verurteilen_'
'vertri'
'vertre'
'vertrauens'
'vertrauen_'
'versäum'
'versu'
'verstärkte_'
'verstärk'
'versicher'
'versi'
'versetz'
'verschl'
'verschie'
'versammelt'
'vers_'
'vers'
'verringert_'
'verpflicht'
'verma'
'verlieh'
'verlie'
'verletz'
'verleiht_'
'verlangen_'
'verkündet'
'verkehr'
'verk'
'verification_'
'verif'
'veri'
'verhältnis'
'verhä'
'verhaftet_'
'verh'
'vergrößer'
'vergl'
'vergi'
'verfolg'
'vereint_'
'vereinfacht'
'verbände'
'verbreitete'
'verbreitet_'
'verbre'
'verbraucher'
'verbracht'
'verbra'
'verboten_'
'verantwortungs'
'verans'
'ventilat'
'vel_'
'vegetation_'
'vegeta'
'vat'
'vast_'
'variables_'
'varia'
'var'
'vans_'
'val_'
'vai'
'uz'
'uv'
'utu'
'utilis'
'utensils_'
'uten_'
'uten'
'ustr'
'uste'
'ust'
'usst'
'ussi'
'usl'
'useless_'
'usa'
'urt_'
'uro'
'urn'
'urlaub_'
'upload'
'upl'
'uph'
'upgrade_'
'uo'
'unwanted_'
'unu'
'untersuch'
'unterstützten_'
'unterschiedlich_'
'unternommen_'
'untern'
'unterl'
'unteren_'
'unterbrochen_'
'unsch'
'unlock'
'unko'
'universellen_'
'uniti'
'unin'
'uniform_'
'unified_'
'ungsz'
'ungswe'
'ungsverfahren'
'ungsver'
'ungss'
'ungsr'
'ungsp'
'ungsa'
'ungar'
'unfts'
'unfr'
'unfortunate'
'undu'
'undis'
'undi'
'undertake'
'understand'
'underp'
'undermine'
'unden'
'unda'
'unce'
'unc'
'unbes'
'unbea'
'unable_'
'unabhängige'
'umweltfreundliche_'
'umweltfreundlich'
'umst'
'uml'
'umgewandelt_'
'umfassendes_'
'umfassend'
'umfangreichen_'
'umfang_'
'ume'
'uma'
'ulou'
'ulation_'
'ulati'
'ulare'
'ukt'
'uk_'
'ugu'
'ugen_'
'uerung'
'uer_'
'uelle_'
'ud'
'uchung'
'uchs'
'uc'
'ubern'
'uba'
'tück_'
'täte'
'tärke_'
'tändige'
'täglichen_'
'tägliche_'
'tzt_'
'tzt'
'tzi'
'tzer_'
'typ_'
'typ'
'twin_'
'twin'
'twi'
'twelve_'
'turm'
'turb'
'tungs'
'tue'
'tude_'
'tuberculosis_'
'tub'
'tual_'
'tto_'
'ttet_'
'ttes_'
'tta_'
'tse'
'tschi'
'trä'
'trust'
'trouble_'
'trotzdem_'
'tropical_'
'trop'
'trockner_'
'trockene'
'trigger'
'trend_'
'treib'
'treaty_'
'tream_'
'trea'
'travelle'
'traveling_'
'travelers_'
'traurig'
'trauma_'
'trat_'
'transposition_'
'transporting_'
'translator'
'transfers_'
'transaction_'
'transa'
'trans_'
'tram'
'trained_'
'traditionell_'
'tradition'
'tracks_'
'trace'
'tr'
'toxi'
'tours_'
'tourism_'
'touris'
'tour'
'tortoise_'
'topics_'
'tongue_'
'tolerance_'
'tok'
'toffe'
'tob'
'tlanti'
'tischer_'
'tire'
'tipp'
'tip_'
'tint_'
'timi'
'timel'
'till'
'tik_'
'tiere'
'tier'
'tief'
'tically_'
'threshold_'
'thm'
'thinks_'
'thickness'
'theme_'
'themati'
'thei'
'than'
'textile_'
'text'
'tet'
'testosterone_'
'test'
'territories_'
'territorial_'
'terrasse_'
'terr'
'tern_'
'tenz'
'tender_'
'tendency_'
'tence_'
'tempora'
'temperatures_'
'tellung'
'tellt'
'telle_'
'tell'
'tein_'
'teils_'
'teilnehme'
'tei'
'teh'
'teen_'
'technologie_'
'technological_'
'technischer_'
'technisch_'
'techn'
'tec'
'teaching_'
'tea_'
'tches_'
'tche'
'tch'
'tausend_'
'tausend'
'tausch'
'tatsächliche_'
'tation_'
'tariff_'
'tari'
'tape_'
'tant'
'tang'
'tand_'
'talked_'
'tale_'
'tal'
'takt'
'tair'
'tailored_'
'tailor_'
'tai'
'tagung_'
'tags_'
'tadt_'
'tabled_'
'szi'
'sze'
'sz'
'sys_'
'synthetic_'
'symposium_'
'symbolis'
'swi'
'sustainability_'
'survive_'
'surr'
'surcharge_'
'supra'
'suppress'
'supposed_'
'supplier_'
'suppl'
'superior_'
'sunny_'
'summ'
'sum_'
'sum'
'suggests_'
'sug'
'suffic'
'success'
'suc'
'subtle'
'substance_'
'subsidiarity_'
'subsequently_'
'subscribe_'
'subm'
'sua'
'ständige_'
'städtischen_'
'styli'
'stup'
'stuff_'
'stuf'
'studying_'
'studied_'
'stu'
'ström'
'stry_'
'strukturelle'
'struggl'
'strip_'
'string'
'strikt_'
'strict_'
'stric'
'stretched_'
'stretch'
'stress'
'streng'
'strategi'
'strap'
'strand_'
'stran'
'straight'
'stores_'
'stops_'
'stocks_'
'sto_'
'stly_'
'stliche'
'stit'
'stischen_'
'stische_'
'stille'
'stiff'
'steuern_'
'steuerliche'
'steuer'
'stere'
'stem_'
'steigen_'
'steig'
'stehe'
'steck'
'steady_'
'staying_'
'statu'
'statistic'
'startete_'
'starke'
'starben_'
'stall'
'stakeholders_'
'stake_'
'stain'
'stack'
'stabilis'
'stabil'
'staatlichen_'
'staat'
'sta_'
'ssung'
'sste'
'ssor'
'sser_'
'ssene'
'ssch'
'srecht'
'squ'
'späte'
'spu'
'sprozess_'
'spreading_'
'sprachige_'
'sportliche'
'sponsor'
'spl'
'spirituellen_'
'spice'
'spektakulär'
'spei'
'speculat'
'spectrum_'
'spect'
'specified_'
'specialist_'
'speci'
'spea'
'spannung_'
'spam'
'sovereignty_'
'sorgt_'
'sorgfältige'
'sor'
'sophisticated_'
'sop'
'sonstige'
'song_'
'solide_'
'socio_'
'societies_'
'snail'
'smittel_'
'smi'
'slowly_'
'slot_'
'slope'
'slide'
'slat'
'sl'
'skill'
'skeptisch_'
'skate_'
'sk_'
'sixty_'
'sive_'
'sitzt_'
'sitt'
'sist'
'sis'
'simultaneously_'
'simplify_'
'simplifi'
'silence_'
'signature_'
'sig'
'sifica'
'sieren_'
'sichergestellt_'
'sicheren_'
'sic'
'sian_'
'si_'
'shoulder'
'shou'
'shorte'
'shore'
'shoot_'
'shoe_'
'sho'
'shine_'
'shaving_'
'sharpe'
'shar'
'shapes_'
'shall'
'shadow_'
'shade_'
'sha_'
'sgr'
'sfähig'
'sexuelle_'
'severe_'
'sevent'
'setup_'
'serve'
'serie'
'separated_'
'separat'
'sensor_'
'senior_'
'seminars_'
'sells_'
'selecting_'
'selbst'
'sehe'
'segment_'
'sees_'
'seel'
'secur'
'secrecy_'
'seating_'
'searche'
'screw'
'scratch'
'sco'
'sci'
'schönsten_'
'schöne'
'schätz'
'schädliche'
'schwieriger_'
'schwierigen_'
'schwere'
'schwarzer_'
'schwarzen_'
'schutzes_'
'schuld'
'schriftlich_'
'schrift'
'schrieb_'
'schra'
'schr'
'schnell'
'schn'
'schme'
'schlimm'
'schließt_'
'schle'
'schie'
'schau'
'scenario_'
'scatter'
'scan'
'sca'
'sc'
'saved_'
'sausage_'
'saur'
'sauna_'
'saubere_'
'satisfy_'
'sati'
'sanit'
'san'
'samt_'
'samples_'
'sample_'
'sam_'
'saith_'
'sail_'
'sai'
'sagten_'
'sag'
'safely_'
'sac'
'sab'
'rüste'
'römischen_'
'rö'
'rz_'
'rw'
'russische_'
'rup'
'runden_'
'ruler'
'ruin'
'ruf'
'rua'
'rts'
'rtin'
'rste'
'rra_'
'royal'
'routine_'
'rote_'
'rote'
'rota'
'rose'
'rosa_'
'romantic_'
'rom_'
'rom'
'rolle'
'roll_'
'role'
'rol_'
'rohr'
'rocks_'
'rock_'
'rock'
'rochen_'
'robust'
'robes_'
'rne_'
'rmi'
'rm_'
'rle'
'ritu'
'ritte'
'riti'
'rite'
'rit_'
'rit'
'risi'
'ringt_'
'rings_'
'rik_'
'rik'
'rigid_'
'right'
'riet'
'riesige_'
'ries'
'riere'
'rier'
'rien_'
'rieben_'
'rieb'
'riche'
'rgen'
'revolutionäre_'
'revolutionary_'
'revise'
'reveals_'
'returns_'
'rette'
'rett'
'retr'
'retaining_'
'restrictive_'
'restricti'
'respectively_'
'resolved_'
'residence_'
'rescue'
'reproduc'
'representing_'
'reporting_'
'repli'
'replacement_'
'repair_'
'repai'
'renz'
'render'
'renam'
'removal_'
'remember'
'remaining_'
'rely_'
'religiöse'
'releases_'
'relationships_'
'rejection_'
'reject_'
'reitung'
'reite'
'reise_'
'reinig'
'reinforce_'
'reine_'
'reichs'
'reibungslosen_'
'reibung'
'reiben_'
'regulated_'
'regulate'
'regionen_'
'regionale_'
'regen'
'regeln_'
'regelmäßigen_'
'regelmä'
'rega'
'refused_'
'refr'
'reflected_'
'refle'
'refer'
'reduziert_'
'recti'
'recover_'
'recou'
'reconstruction_'
'reconciliation_'
'recognise'
'recogni'
'reco'
'recipes_'
'rechtlich_'
'rechte'
'rech'
'recei'
'reca'
'rebel'
'realization_'
'realisiert_'
'realisier'
'reale'
'reagiert_'
'reader_'
'rds_'
'rdn'
'rdl'
'rdin'
'rchy_'
'rch'
'rbeit_'
'rba'
'rb'
'raße_'
'rasch_'
'rarely_'
'rapidly_'
'rant'
'rans'
'rang'
'rand'
'ranch'
'ramm'
'ram_'
'radikal'
'radical'
'radiation_'
'racht_'
'quota'
'quo'
'quis'
'quent_'
'quen'
'quellen_'
'quart'
'qualitative_'
'qualitativ_'
'qualify'
'qual'
'qm_'
'qi_'
'qi'
'puts_'
'pursui'
'pun'
'pumpkin_'
'pump'
'publishes_'
'publisher_'
'pto'
'pti'
'psychische_'
'psych'
'psi'
'ps'
'prüf'
'präsent'
'pruden'
'prox'
'proven_'
'proved_'
'prov'
'proud_'
'pros'
'proportion'
'prophe'
'promptly_'
'promotion'
'promises_'
'promised_'
'promi'
'prohibited_'
'programming_'
'programme'
'prog'
'profound_'
'profit'
'professor'
'professionell'
'professionals_'
'profession_'
'productive_'
'producing_'
'producer_'
'procurement_'
'process'
'prob'
'prize_'
'priv'
'prisoners_'
'prison_'
'printer_'
'prince'
'primarily_'
'priests_'
'priced_'
'previously_'
'prevalent_'
'preserve'
'presentation_'
'prescribe'
'premi'
'preme'
'predict_'
'predecessor_'
'praye'
'praktische_'
'praise_'
'prache_'
'ppro'
'ppe'
'powder_'
'potenziellen_'
'positi'
'pose'
'portrait_'
'porno_'
'porn_'
'populations_'
'popul'
'pocket'
'plötzlich_'
'plot'
'pli'
'ples_'
'plenary_'
'pledge'
'plas'
'planung_'
'plain'
'place'
'pitches_'
'pilot'
'pier'
'piel_'
'pic_'
'pic'
'physischen_'
'physic'
'physi'
'phu'
'phrase_'
'photographer'
'phon'
'phi'
'phe'
'phan'
'pflicht_'
'pfl'
'pfe_'
'pets_'
'petrol_'
'pet_'
'personalized_'
'person'
'permits_'
'permission_'
'performances_'
'perfekte'
'perceive'
'pera'
'pension_'
'pens'
'pend'
'penalties_'
'pell'
'pel'
'pedi'
'pati'
'paths_'
'passt_'
'passports_'
'passion_'
'passieren_'
'passende_'
'passend_'
'passen'
'partnerschaft'
'particul'
'particles_'
'pari'
'parent_'
'parameter_'
'parad'
'pans'
'palm_'
'paint_'
'pai'
'pact_'
'packages_'
'ozialist'
'oz_'
'oxi'
'ox_'
'ox'
'owned_'
'owing_'
'ow'
'ovie'
'overca'
'oval_'
'ova'
'ov'
'outlined_'
'outl'
'ousness_'
'oun'
'ought_'
'otte'
'oto'
'othek'
'otel'
'ossen_'
'osse'
'osk'
'osen'
'osc'
'orr'
'orn_'
'orientierte'
'oriented_'
'orgung'
'orge'
'organising_'
'organisierte_'
'organisiert_'
'organise'
'org'
'ores'
'ordnungsgemäß_'
'ordnung'
'ordnet_'
'ordne'
'ordinate'
'ordered_'
'ordentlich'
'orde'
'orda'
'orch'
'oration_'
'orat'
'optimieren_'
'opp'
'oph'
'operativen_'
'operationelle'
'open'
'opa'
'ont_'
'onsten_'
'onne'
'oning_'
'omi'
'ome'
'omb'
'olution'
'olla'
'oll'
'olierte'
'olet'
'oku'
'oki'
'oid_'
'ohnern_'
'ohn'
'ohlen'
'ogi'
'ogenen_'
'ogen_'
'ogan'
'offizielle'
'oden'
'ode'
'ocke'
'ock'
'obo'
'obliged_'
'obligatorisch'
'objekte_'
'obje'
'obili'
'nähe_'
'näh'
'nächste'
'näc'
'nä'
'nwa'
'nw'
'nv'
'nutzung_'
'nto_'
'ntl'
'ntion'
'nth'
'nter'
'nso'
'nsil'
'nsi'
'npo'
'nov'
'nota'
'north'
'norms_'
'normale'
'nodes_'
'nnte_'
'nnt_'
'nnt'
'nnial_'
'nner_'
'nne_'
'nm'
'nko'
'nk_'
'nity_'
'nitten_'
'niti'
'nisch_'
'nir'
'ning'
'nik_'
'nien_'
'niemals_'
'nico'
'nia_'
'nia'
'ngnis'
'ngl'
'nfor'
'newspapers_'
'newsletter_'
'nev'
'neur'
'neuere'
'netze_'
'netze'
'netz_'
'networking_'
'nesi'
'nerin'
'nent'
'nelle'
'nell'
'nehmer'
'negotia'
'necessity_'
'neb'
'ndlich_'
'ndet_'
'ndene'
'nda'
'ncy_'
'nche'
'nca'
'nburg_'
'nationals'
'nat'
'nas'
'narrow'
'nant'
'nannten_'
'namen_'
'nale'
'nal'
'nage'
'nachzu'
'nachweis'
'nacht'
'nachfolgen'
'nab'
'mün'
'müd'
'mäßige'
'mächtige'
'mystical_'
'mystery_'
'mutual_'
'musi'
'mund_'
'mst'
'msc'
'mpf'
'mpa'
'mp_'
'movements_'
'mou'
'motorway'
'motors_'
'motivation_'
'mother'
'mot'
'moreover_'
'mora'
'monuments_'
'monaster'
'moment'
'modules_'
'modifications_'
'modern'
'mobili'
'mmt_'
'mmen_'
'mmen'
'ml'
'mix_'
'mitzu'
'mittlerem_'
'mitteln_'
'mittelalterliche'
'mitt'
'mitglied'
'mite'
'mischen_'
'misch'
'mins'
'minimal'
'minder'
'mina'
'milk_'
'militärischen_'
'militärische'
'milit'
'mig'
'mia'
'metri'
'meteor'
'metaph'
'meta'
'messer_'
'mercy_'
'mente_'
'mental'
'menschliche_'
'mend'
'meint'
'meg'
'mee'
'medizinische_'
'medal'
'meat_'
'measurements_'
'meantime_'
'mc'
'mbi'
'maße'
'maß_'
'mate'
'match'
'massiv'
'masse_'
'mass_'
'marr'
'marking_'
'marke'
'manipulation_'
'mani'
'manchen_'
'mall'
'malig'
'male_'
'maker_'
'make'
'mah'
'magnitude_'
'magnetische'
'magnetic_'
'magi'
'mache_'
'lösung_'
'löst_'
'läßt_'
'lär'
'länge'
'lände'
'lyn_'
'lwe'
'luxurious_'
'lux'
'lust_'
'lup'
'luggage_'
'luck'
'lub'
'lton_'
'loves_'
'losses_'
'lossen'
'losigkeit_'
'lose'
'lon'
'lohnt_'
'logistic_'
'logischen_'
'log'
'load'
'ln'
'llt'
'llo_'
'lively_'
'liu'
'liste'
'lisi'
'linke'
'lingu'
'linger'
'linen_'
'limitation'
'lighte'
'light'
'lifetime_'
'lieferungen_'
'liefer'
'lieber_'
'lie_'
'lict'
'lichste'
'licher'
'lich'
'licence_'
'liaison_'
'liab'
'lia_'
'lfe_'
'ley'
'lex'
'lev'
'letzte'
'lessons_'
'less'
'lesben_'
'leitungen_'
'leitete_'
'leitende'
'leite'
'leistungsfähig'
'leistungs'
'leiste'
'leid'
'lei_'
'lehnen_'
'legte_'
'legs_'
'legitima'
'legi'
'legally_'
'legali'
'legale'
'led'
'lectures_'
'lecke'
'lec'
'lebendigen_'
'lebende'
'lebe'
'leaves_'
'learnt_'
'leadership_'
'lds_'
'ldin'
'lder_'
'lba'
'lays_'
'laying_'
'lay'
'lawyer'
'law'
'lautet_'
'laundry_'
'latt'
'lateral'
'laten'
'last'
'lasse'
'langfristigen_'
'langem_'
'lamps_'
'lamp'
'ladi'
'labor'
'label_'
'küste_'
'kürz'
'kün'
'kühl'
'körperliche_'
'körperlich'
'körper'
'kwa'
'kurzfristige'
'kurzem_'
'kurze_'
'kurz'
'kunst'
'kunden'
'kund'
'kum'
'kulturelle_'
'kul'
'ktion'
'kte'
'ksa'
'ks'
'kräfte_'
'krise_'
'kratische'
'kraft'
'kra'
'kostenloses_'
'kopiere'
'kontrolliert_'
'konsultieren_'
'konstru'
'konse'
'kons'
'konkreter_'
'konkreten_'
'kon'
'kommunistische_'
'komm'
'komfortabel_'
'kombinieren_'
'kolo'
'knowing_'
'kling'
'klein_'
'klassischen_'
'klassische'
'klassen_'
'kk'
'killed_'
'keyword_'
'kette_'
'ket'
'kers_'
'kenne_'
'kenn'
'keines'
'keinem_'
'kehrt_'
'kaufte'
'kauf'
'kati'
'kar_'
'kapital'
'kanischen_'
'kam'
'kalte'
'kai'
'kabel_'
'jüdische'
'jährlichen_'
'jähriges_'
'jurisdiction_'
'jun'
'jumping_'
'joyful_'
'journalists_'
'journalist'
'jord'
'jon'
'joining_'
'jenseits_'
'jemals_'
'jeglicher_'
'jar'
'jan_'
'iß'
'izier'
'izen'
'iz_'
'iy'
'iven_'
'iv_'
'itze'
'itz'
'itute_'
'itione'
'itig'
'itia'
'itel'
'ited_'
'italienische_'
'itali'
'istic'
'ista'
'isse'
'issa'
'iss'
'iso'
'islands_'
'isla'
'isier'
'isches_'
'irtschaft_'
'irs_'
'irrigation_'
'irre'
'iron_'
'iri'
'irat'
'ipl'
'ioti'
'ios'
'ioni'
'ion'
'investigati'
'investieren_'
'investi'
'intuitive_'
'introducing_'
'intervention'
'interr'
'interpret_'
'internationales_'
'intern'
'interessante'
'interdi'
'interc'
'interactive_'
'intensive'
'intensity_'
'intelligente_'
'intelligen'
'intellect'
'integrierten_'
'integral_'
'insufficient_'
'instruct'
'institution'
'inste'
'installiert_'
'install'
'insta'
'insist'
'insight_'
'insect'
'inquiries_'
'innovation_'
'innocent_'
'inmate'
'inl'
'inkl_'
'ink_'
'inj'
'initiate_'
'inis'
'inhaber'
'inh'
'infrastru'
'informelle'
'infolge_'
'infinity_'
'infer'
'infe'
'ineff'
'ined_'
'industriellen_'
'indung'
'indlich'
'individuellen_'
'indisch_'
'indisc'
'indirekte'
'indigene'
'indicated_'
'incur'
'incredibl'
'incorporate'
'inco'
'inclusion_'
'incident'
'inche'
'inch_'
'incentive_'
'inb'
'inar'
'inal_'
'inadequate_'
'importi'
'immi'
'immer'
'imat'
'imagine_'
'imagination_'
'im'
'illustrate'
'illu'
'illness_'
'illes'
'illa'
'ilita'
'ilfe'
'iler'
'ildungs'
'iki'
'ike'
'ikat'
'ikan'
'igt_'
'igra'
'igli'
'igkeiten_'
'iger'
'ified_'
'iff_'
'iff'
'ifer'
'ießen_'
'iete'
'iest_'
'iently_'
'ient_'
'ielen_'
'ieg'
'ieferung'
'idy'
'identifizier'
'ideale_'
'ideale'
'ideal'
'idat'
'ics_'
'ico_'
'ico'
'ichtet'
'ichten_'
'icherung_'
'icher_'
'iche_'
'ich'
'ican'
'ic'
'ibt_'
'ibl'
'iba'
'iani'
'ialis'
'iage_'
'höhe'
'höf'
'höchste'
'hö'
'häuser'
'häufig'
'här'
'hy_'
'hw'
'hunting_'
'hung_'
'hung'
'hundert'
'huan'
'hts'
'htm_'
'hti'
'hte_'
'hrung_'
'households_'
'hous'
'hou'
'hosts_'
'hostil'
'host_'
'hospital_'
'horse_'
'horse'
'horn_'
'hop_'
'honourable_'
'holz'
'holt'
'holder'
'hochz'
'hmi'
'hmer_'
'hm_'
'hly_'
'hle'
'hit'
'his'
'hion'
'hinunter'
'hint'
'hink'
'hingewiesen_'
'hinein_'
'hinein'
'hinaus'
'hills'
'hil'
'hierfür_'
'hielten_'
'hexa'
'herz'
'hervorragend_'
'hervorheben_'
'heruntergeladen_'
'herunter'
'herum_'
'herstelle'
'herself_'
'herrscht_'
'herkömmliche'
'herausragend'
'heraus'
'hend'
'help'
'hell'
'hel'
'heißen_'
'heiß'
'heitlich'
'heim'
'heiligen_'
'heilig'
'hearts_'
'heart'
'hear'
'headquarters_'
'heading_'
'haven_'
'hav'
'haushalts'
'hausg'
'harmoniz'
'harde'
'happi'
'hant'
'hang_'
'handlungen_'
'handarbeit_'
'hall'
'halbe_'
'hah_'
'hafter'
'habitat'
'habit'
'haber_'
'haar'
'güter'
'günstigsten_'
'günstigen_'
'gültig_'
'gänger'
'gus'
'gula'
'gul'
'guilty_'
'guides_'
'gui'
'guard'
'gte_'
'gst'
'grüne'
'gründen_'
'gründ'
'größter_'
'größerer_'
'größ'
'grundlegenden_'
'grundlegend'
'gru'
'grown_'
'gross_'
'groo'
'grip'
'grin'
'griff'
'griechisch'
'grid'
'grenz'
'greeting'
'gratis_'
'graphie_'
'graphics_'
'graphic_'
'graphi'
'gradual_'
'grade'
'grad_'
'grace_'
'gr'
'govern'
'goodness_'
'gonna_'
'god'
'gner'
'glu'
'globale_'
'glied'
'gleichwertig'
'gleichermaßen_'
'gleicher_'
'gle'
'glas'
'gl'
'gk'
'gio_'
'giga'
'gier'
'gie_'
'gie'
'gia_'
'ghe'
'gging_'
'ggi'
'ggen'
'gf'
'gezielt'
'gewünscht'
'gewählten_'
'gewäh'
'gewor'
'gewonnenen_'
'gewisse_'
'gewan'
'gewaltige'
'gewalt'
'gewa'
'getroffene'
'geta'
'get'
'gesä'
'gesundheit'
'gestr'
'gestellte'
'geste'
'gestartet_'
'gestaltet_'
'gespeichert_'
'gespannt_'
'gesichert_'
'gesetzlich'
'gesetz_'
'gesellschaftlichen_'
'gese'
'geschäft_'
'geschlossenen_'
'geschenk'
'gescheitert'
'geschafft_'
'ges'
'geräumigen_'
'geräten_'
'gerufen_'
'german'
'gerl'
'gerei'
'geographische_'
'geographical_'
'genu'
'gentle'
'genre_'
'geno'
'genetically_'
'genetic_'
'generi'
'generell_'
'generation_'
'generating_'
'generated_'
'generate_'
'genc'
'gemütliche'
'gemessen_'
'gemein'
'gelöst_'
'gelung'
'gels'
'gelesen_'
'gelernt_'
'geleitet_'
'gelbe'
'gela'
'gekn'
'gekennzeichnet_'
'gek'
'geistigen_'
'geistige'
'gehörte_'
'gehalten_'
'gegenwärtigen_'
'gegenwärtige_'
'gegebenenfalls_'
'geförderte'
'gefördert_'
'gefährdete'
'gefolgt_'
'gefe'
'gefasst'
'gefahren_'
'geeigneten_'
'geehrte'
'gebr'
'gebli'
'gebildet'
'gebiete'
'geben'
'gea'
'gba'
'gathered_'
'gast'
'gari'
'gangen_'
'gamb'
'fürs'
'für'
'füllen_'
'führte_'
'führer_'
'führende_'
'führ'
'fühl'
'füg'
'förmig'
'fällt_'
'fälle_'
'furthermore_'
'furt'
'fund'
'fun'
'fulfill'
'ftig'
'fte_'
'frühzeitig'
'front'
'fright'
'fried'
'freund'
'fres'
'frequent_'
'freie'
'fraud_'
'französischem_'
'französisch'
'frank'
'fragte_'
'fou'
'fortschr'
'forsch'
'formi'
'formen_'
'format'
'form'
'forgiven_'
'forderung'
'forderte'
'forc'
'fonds_'
'folk_'
'folgender_'
'folg'
'fold_'
'fol'
'foc'
'flü'
'fly'
'fluss'
'fluid_'
'flood'
'flights_'
'flie'
'flex'
'fleisch_'
'fleet_'
'flam'
'flache'
'fla'
'fizierte'
'fitt'
'fits_'
'fische_'
'finishes_'
'finierte'
'fines'
'fine'
'filter'
'filming_'
'filling_'
'file'
'figur'
'fi_'
'ffs_'
'ffer'
'ffen_'
'feucht'
'fett'
'feststellen_'
'festgelegten_'
'fertigt_'
'fertig'
'ferr'
'fern'
'feren'
'fens'
'fein'
'feier'
'fehlte_'
'fehler_'
'fehlenden_'
'fehlende_'
'fehl'
'fea'
'favo'
'fathers_'
'fat_'
'faszinierend'
'fassung_'
'farms_'
'farben_'
'fangen_'
'fan_'
'familien'
'familiar_'
'famili'
'fam'
'fal'
'fail'
'fah'
'factor_'
'facility_'
'facilitating_'
'fache_'
'fach'
'fabric_'
'fa_'
'eß'
'extremen_'
'extreme'
'extract'
'externe'
'extends_'
'expressive_'
'expresses_'
'export'
'explains_'
'experiments_'
'experimental_'
'experiment'
'expenses_'
'expen'
'expecting_'
'expe'
'expanding_'
'expand'
'exotische'
'exklusive'
'exit'
'existieren_'
'exist'
'exile'
'exhibitions_'
'exer'
'excess_'
'exceed'
'examine_'
'examine'
'exaggerat'
'ewert'
'ewa'
'ew_'
'evolution_'
'evol'
'everywhere_'
'every'
'ever'
'even'
'evaluate_'
'ev_'
'european_'
'euro'
'eures_'
'eure'
'euer'
'ette'
'etrie'
'ethic'
'eternal_'
'eter'
'eten'
'esty_'
'ester_'
'este_'
'ession_'
'essentially_'
'essen'
'esi'
'esh'
'esellschaft_'
'esch'
'escape'
'esca'
'esa'
'erzählen_'
'erwähnte_'
'erweiterten_'
'erweitern_'
'erw'
'eruf'
'ertigt'
'ersucht_'
'erstellte'
'erste'
'ersta'
'ersi'
'erset'
'erre'
'erp'
'ernste'
'erneuerbare_'
'ermutigen_'
'erma'
'erläutert_'
'erlei'
'erlauben_'
'erlau'
'erl'
'erku'
'erkennbar'
'erke'
'erich'
'eria_'
'erhöhte_'
'erholen_'
'ergänz'
'ergebnis'
'erfuhr_'
'erfordern_'
'erfolgreichste'
'erfolgreichen_'
'erende'
'ereign'
'erd'
'eras'
'erarbeite'
'equity_'
'epti'
'eo_'
'enz_'
'envi'
'entsteht_'
'entstanden_'
'entsprechender_'
'entspannte'
'entschlossen_'
'entscheidet_'
'entscheid'
'ents'
'entrepreneur'
'entlas'
'ention'
'enthusias'
'entfernen_'
'entertainment_'
'entering_'
'ensures_'
'ensi'
'ensemble_'
'ensche'
'ensa'
'enorme_'
'enjoys_'
'enjoy'
'enin'
'engines_'
'engineers_'
'engi'
'engere'
'engagement_'
'engaged_'
'ending'
'endgültigen_'
'endgültig_'
'encrypt'
'encouraging_'
'enburg'
'enan'
'enact'
'empfindlich'
'empfin'
'empfangen_'
'empf'
'emotions_'
'emotional_'
'emon'
'emitt'
'emerging_'
'embl'
'emb'
'els_'
'ellung_'
'ello'
'elles_'
'ella_'
'eliminating_'
'eliminate_'
'elektronisch'
'eleganten_'
'elect'
'eits'
'eitet_'
'eite_'
'eis'
'einzig'
'einzelstaatliche'
'einzeln_'
'eintr'
'einschl'
'einsch'
'eins_'
'eins'
'einrichtungen_'
'einricht'
'einnehmen_'
'einmaligen_'
'einiges_'
'einiger_'
'einig'
'eingetr'
'einges'
'eingereichte'
'eingegeben_'
'eingeb'
'eind'
'eim'
'eignet_'
'eigens'
'eifen_'
'eie'
'eide'
'eichen_'
'eiche'
'eibung_'
'ehrt_'
'ehrgeizige'
'ehnung_'
'ehefrau_'
'egeln_'
'ege'
'ega'
'effe'
'eer'
'educational_'
'edu'
'edly_'
'edited_'
'economical_'
'ecke_'
'echter'
'echt'
'echnungen_'
'ec'
'ebo'
'ebn'
'eben'
'earthquake_'
'earth'
'earn'
'ear_'
'eag'
'eS'
'eC'
'dünne'
'dysfunction_'
'dynamischen_'
'dynamics_'
'dy'
'durchschnittliche_'
'durchsch'
'durchs'
'durchl'
'durchgeführten_'
'durchg'
'durchführt_'
'durchführen_'
'durchd'
'dupl'
'dunkel'
'dungen_'
'duc'
'dual'
'dte'
'dse'
'drücke'
'drum_'
'drucken_'
'druck'
'dru'
'dring'
'dried_'
'dream_'
'draw'
'drama_'
'dp'
'download'
'dou'
'dotted_'
'dose'
'dorthin_'
'dorm'
'dorf_'
'doppelt_'
'doo'
'donation_'
'dli'
'dle_'
'dk'
'divi'
'dive_'
'disturb'
'distributors_'
'distinguished_'
'distincti'
'disre'
'dispos'
'displaced_'
'dispar'
'disp'
'disku'
'dishes_'
'dish'
'discussing_'
'discriminat'
'disch'
'disc_'
'disagree'
'directors_'
'dire'
'diplomatic_'
'dim'
'dig_'
'differently_'
'dif'
'dier'
'dienstleistungen_'
'dienste_'
'dictat'
'dicke'
'dian_'
'diabetes_'
'dge'
'df'
'devoted_'
'devot'
'detention_'
'detaillierte_'
'detail'
'det'
'deswegen_'
'dess'
'deserves_'
'describ'
'descendants_'
'ders'
'dern_'
'dern'
'derma'
'deport'
'departure_'
'departments_'
'demonstration'
'demonstrate_'
'demi'
'demand'
'delightful_'
'delic'
'delegation_'
'deleg'
'delays_'
'delay_'
'dekor'
'deh'
'definitiv_'
'definition_'
'defend_'
'defen'
'defe'
'def'
'decreed_'
'deckt_'
'decke'
'deci'
'decent_'
'debat'
'deaths_'
'dde'
'daylight_'
'dauerhafte_'
'dauerhaft_'
'dauer'
'datei_'
'darzu'
'darstell'
'daraus_'
'danke_'
'danger_'
'dane'
'damages_'
'dam_'
'dam'
'dairy_'
'cy'
'cut'
'customized_'
'customize_'
'curve'
'cumshot_'
'cum'
'cub'
'cts_'
'ctor_'
'ctiv'
'ct'
'cry'
'crus'
'crises_'
'criminal'
'crib'
'cri'
'cree'
'creatures_'
'creature_'
'creati'
'cran'
'covenant_'
'courtyard_'
'courage'
'cour'
'couples_'
'couch_'
'cott'
'corresponds_'
'corp'
'corners'
'copie'
'cope_'
'coordinated_'
'cooperating_'
'cookie'
'convince_'
'convey_'
'convey'
'converting_'
'convert_'
'conversation_'
'convenience'
'conven'
'conv'
'contract'
'contra'
'continuously_'
'continuous_'
'continuation_'
'contingent_'
'containers_'
'container_'
'consulting_'
'consultations_'
'consultation_'
'consular_'
'consu'
'constructi'
'constraints_'
'consolidate'
'considerations_'
'consensus_'
'consecutive_'
'conse'
'consciousness_'
'conscience_'
'congr'
'confus'
'configurations_'
'confi'
'conducti'
'condemn'
'concludes_'
'conceived_'
'compromises_'
'compr'
'compositions_'
'composer_'
'complicat'
'compatibility_'
'comp'
'communa'
'commodit'
'commit'
'commen'
'commemorat'
'commander_'
'come'
'colour'
'coloni'
'collector_'
'collected_'
'colle'
'coins_'
'coin'
'coil_'
'coe'
'cock'
'coat_'
'coastal_'
'cloud'
'clothes_'
'clos'
'clock_'
'clinical_'
'climb_'
'climb'
'cleared_'
'clear'
'clean'
'cle'
'clarif'
'claim'
'ckung'
'cked_'
'civilians_'
'civilian_'
'citizenship_'
'circumstances_'
'cip'
'cinema_'
'cine'
'cil'
'cier'
'chutz_'
'churches_'
'chunge'
'chu'
'chts'
'chtigung_'
'chtigen_'
'chtige_'
'chti'
'chtet_'
'chter_'
'chter'
'chse'
'chs_'
'chri'
'chrei'
'chr'
'chlo'
'chle'
'chkeit'
'chis'
'chir'
'chicken_'
'chest_'
'ches'
'chent'
'chell'
'cheid'
'chef'
'cheese'
'checks_'
'check'
'cheapest_'
'chau_'
'chau'
'chase'
'charity_'
'charged_'
'charg'
'chaos_'
'champion'
'chalte'
'chairs_'
'chai'
'ceramic'
'cepti'
'cents_'
'centers_'
'cellar_'
'cell'
'cel_'
'cea'
'cco'
'cce'
'catch'
'cat_'
'cat'
'casts_'
'cast'
'cas'
'carriers_'
'carpet_'
'cardboard'
'capita'
'candidate_'
'candida'
'cancellation_'
'camps_'
'came'
'calm'
'calibration_'
'calculations_'
'calculated_'
'cad'
'büro'
'bürgerliche'
'buying_'
'butt'
'bust'
'bus'
'burnt_'
'burn'
'bundle'
'bunch_'
'bull'
'bugs_'
'bte_'
'brück'
'brothers_'
'brother_'
'broke'
'broch'
'broadband_'
'breites_'
'breit'
'breathing_'
'break'
'brave'
'braun'
'brand'
'brake'
'brachte_'
'bow_'
'boundary_'
'bottle_'
'bot'
'bord'
'borat'
'boot'
'booked_'
'book'
'boo'
'bone'
'bonds_'
'bon_'
'blut'
'blonde_'
'blocks_'
'block_'
'blind_'
'blickt'
'blicken'
'blessing'
'blauen_'
'blau_'
'blam'
'black'
'bkommen_'
'bittet_'
'bits_'
'birthday_'
'binding_'
'billi'
'bill_'
'bid'
'bibli'
'bewegungen_'
'bewegung_'
'bevorstehenden_'
'bevor'
'beträchtlich'
'betru'
'betroffenen_'
'betrieben_'
'betriebe_'
'beten_'
'bete'
'bet_'
'bet'
'bestand'
'besseren_'
'besitzt_'
'besiedel'
'besichtig'
'beseitigt_'
'bese'
'beschädigt_'
'beschr'
'besche'
'besa'
'berühmt_'
'beru'
'bert'
'bern'
'berichte'
'bereitung_'
'bereiche_'
'berechtig'
'beraten_'
'beobachten_'
'bene'
'bend'
'benannt_'
'bemerken'
'beln_'
'believer'
'belief_'
'beliebten_'
'beliebige'
'bekunde'
'bekommt_'
'bekanntge'
'bekannte_'
'beizutragen_'
'beige'
'beide'
'behindert'
'behauptet_'
'behaupten_'
'behandlung'
'behandeln_'
'begun_'
'begrü'
'begrenzt'
'begleitet_'
'beginne'
'begeister'
'begann_'
'befürworte'
'beende'
'beeindruckende'
'beein'
'bedürf'
'bedeutendste'
'bede'
'bedauer'
'bedarf_'
'beda'
'bearing_'
'bearbeit'
'bble'
'battery_'
'bate'
'basi'
'barriers_'
'barer_'
'banne'
'banking_'
'ballo'
'axis_'
'ax_'
'await'
'awa'
'aver'
'automatische'
'autom'
'authors_'
'authorisation_'
'authoris'
'aute'
'auszus'
'ausweis'
'austausch_'
'ausschlie'
'ausländischen_'
'ausgezeichneten_'
'ausgezeichnete'
'ausgestattete'
'ausges'
'ausger'
'ausgeg'
'ausgef'
'ausgebildet'
'ausgebe'
'ausgaben_'
'ausführ'
'ausd'
'aufzubauen_'
'aufs'
'aufrecht'
'aufnehmen_'
'aufh'
'aufgelöst_'
'aufgel'
'aufgeg'
'aufgeb'
'aufgaben_'
'aufforder'
'aufenthalt_'
'audit_'
'audit'
'audi'
'atur_'
'attraktive_'
'attracti'
'attend_'
'attend'
'attempts_'
'ators_'
'atoms_'
'atmospheric_'
'atlanti'
'ativen_'
'ativ'
'atisch'
'ations'
'ational'
'ateg'
'assisted_'
'assigned_'
'assessed_'
'assess_'
'assert'
'asser'
'aspiration'
'aso'
'ashi'
'artigen_'
'ars_'
'arri'
'armen_'
'arische_'
'arin'
'aria'
'argument_'
'argued_'
'ares_'
'aren_'
'archiv'
'aqu'
'aps'
'appoint'
'applying_'
'applicant_'
'api'
'anzuwenden_'
'anzeigen_'
'anz_'
'anywhere_'
'anwesend_'
'anwende'
'anw'
'antwortete_'
'anteil'
'anta'
'answered_'
'anstatt_'
'anspruchsvolle'
'anspr'
'ansi'
'anschau'
'anre'
'anpass'
'annulment_'
'announcement'
'announce_'
'anno'
'anni'
'anna'
'ann_'
'anl'
'anko'
'anklicken_'
'ank_'
'animat'
'anic'
'anhäng'
'angr'
'angle_'
'angle'
'anger_'
'angenommenen_'
'angenehme_'
'angene'
'angemessene_'
'angemessene'
'angemessen_'
'angemeldet'
'angelegt'
'angeh'
'angeg'
'angebot'
'angeb'
'anfä'
'aner'
'ands_'
'andlung_'
'anders_'
'andern_'
'andel'
'anbelangt_'
'analysiert_'
'analogue_'
'anal'
'ana'
'amtierende'
'amt_'
'amongst_'
'amenities_'
'amend_'
'amend'
'amateur_'
'alu'
'altogether_'
'alte'
'altar_'
'alo'
'alls_'
'allowances_'
'allies_'
'allgemein_'
'allge'
'alleine_'
'alleged_'
'alleg'
'alle'
'alk'
'alit'
'alist'
'algorithm_'
'ald'
'alarmi'
'ala'
'aku'
'aktivi'
'aktiv'
'akademische'
'aka'
'aison_'
'aine'
'aic_'
'ahu'
'ahrt_'
'ags_'
'agn'
'aggressive_'
'ager_'
'agentur_'
'agencies_'
'ageing_'
'aft_'
'afrikanischen_'
'afrikanische_'
'afraid_'
'afford'
'affiliate'
'affects_'
'affection'
'af'
'advis'
'adve'
'adult_'
'adopting_'
'admission_'
'administrati'
'adjusted_'
'adhere'
'ader'
'addiction_'
'addi'
'activati'
'acle_'
'acknowledge_'
'acid'
'achte_'
'achte'
'achievement_'
'achen_'
'ace_'
'ace'
'accuracy_'
'acco'
'accession_'
'accessing_'
'acce'
'aca'
'ac'
'abzusch'
'abzielt'
'abundant'
'abt'
'absp'
'abschließend'
'abort'
'abkommen_'
'abgest'
'abgesehen_'
'abges'
'abgerufen_'
'abgef'
'abgeb'
'abbi'
'], _'
'[ _'
'Zwangs'
'Zw'
'Zutaten_'
'Zut'
'Zust'
'Zusammensetzung_'
'Zusammensetzspiel_'
'Zusage'
'Zurück_'
'Zuge_'
'Zuf'
'Zuerst_'
'Zucker_'
'Zone_'
'Zivilisation'
'Zimmern_'
'Zielsetzung'
'Zielen_'
'Ziege'
'Zhuan'
'Zet'
'Zertifi'
'Zerstörung_'
'Zentrums_'
'Zentrale_'
'Zen_'
'Zell'
'Zeitungen_'
'Zeitung_'
'Zeitalter_'
'Zeile'
'Zei'
'Zealand_'
'Zan'
'Youtube_'
'Youth_'
'You'
'Yog'
'Yi'
'Yesterday_'
'Ye_'
'Yacht'
'XX'
'XVI'
'XL'
'Würde_'
'Wö'
'Wäscheservice_'
'Wälder_'
'Wurzeln_'
'Wurs'
'Wur'
'Wunder'
'Work_'
'Wood'
'Wolf_'
'Wohn_'
'Wohle'
'Wohlbefinden_'
'With'
'Wissens_'
'Wirtschaftsw'
'Winter'
'Window_'
'Wim'
'Willkommen_'
'Wild_'
'Widerstand_'
'Wider'
'Who'
'White'
'Whe'
'Wh'
'Wetter'
'Wester'
'Wesens_'
'Wertsch'
'Werten_'
'Werbung_'
'Wen'
'Well_'
'Weitere'
'Weiterbildung_'
'Weis'
'Weinberg'
'Weg'
'Wechsel'
'Webcam_'
'Watt_'
'Watch_'
'Waschmaschine_'
'Warr'
'Warnungen_'
'Waren'
'Wann_'
'Wandern_'
'Wallström_'
'Wahrung_'
'Wagen'
'Wag'
'Waffen'
'Wachstums'
'Wach'
'WD_'
'WB'
'Vätern_'
'Vorz'
'Vorst'
'Vorsitz'
'Vorschub'
'Vors'
'Vorha'
'Vorgehensweise_'
'Vorg'
'Vorf'
'Vordergrund_'
'Voraus'
'Volle'
'Volkswirtschaft_'
'Volkswagen_'
'Vizepräsident_'
'Vita'
'Visum'
'Visuali'
'Visionen_'
'Virg'
'Viktor_'
'Vier_'
'Vielleicht_'
'Vict'
'Vice_'
'Via_'
'Veröffentlich'
'Verzögerungen_'
'Verwende'
'Verwandte'
'Verw'
'Veru'
'Vertriebs'
'Vertretung_'
'Vertragsparteien_'
'Vertiefung_'
'Verteilung_'
'Verteidigungs'
'Vert'
'Versp'
'Verschw'
'Versand_'
'Versammlung_'
'Verr'
'Verpackung'
'Verordnungen_'
'Verne'
'Vermietung_'
'Verleih_'
'Verle'
'Verhandlungs'
'Verh'
'Vergleichen_'
'Vergew'
'Verge'
'Verdi'
'Verd'
'Verbotenen_'
'Veranstaltungsr'
'Vera'
'Venedig_'
'Vegeta'
'Var'
'Vale'
'Val_'
'Vac'
'VP'
'VD'
'VC'
'Urteil_'
'Ursachen_'
'Ursache_'
'Ups'
'Until_'
'Unters'
'Unterg'
'Unterbrechung'
'Unk'
'Unge'
'Unf'
'Under_'
'Unbe'
'Unabhängigkeit_'
'Umweltp'
'Umweltk'
'Umweltauswirkungen_'
'Umstände_'
'Ums'
'Umr'
'Umge'
'Ud'
'USS'
'USD_'
'UP'
'UNESCO_'
'UND'
'Täufer_'
'Typ'
'Twi'
'Turnier'
'Tur'
'Tuni'
'Tschechische'
'Trä'
'Trotzdem_'
'Trini'
'Trig'
'Tresor_'
'Treibstoff'
'Treib'
'Treffpunkt_'
'Treatment_'
'Travel'
'Translation'
'Transformation'
'Transaktionen_'
'Trainings'
'Trading_'
'Tourism_'
'Touris'
'Touren_'
'Total_'
'Total'
'Tonne_'
'Tomaten_'
'Toleranz'
'Tokyo_'
'Toiletten'
'Toi'
'Tochtergesellschaft'
'Tisch'
'Tir'
'Tip'
'Times_'
'Time'
'Tiefe_'
'Tibet'
'Ti'
'Thr'
'Thir'
'Think_'
'Thi'
'There'
'Therapie_'
'Therap'
'Theor'
'Theo'
'Thai_'
'Th'
'Texten_'
'Terroristen_'
'Terrorismus_'
'Terror_'
'Terminal_'
'Termin_'
'Ter'
'Ten_'
'Tempo'
'Temperaturen_'
'Temperatur'
'Tempel'
'Telekommunikation_'
'Teils'
'Teilnehmern_'
'Teilnehmer'
'Tei'
'Technologie'
'Tec'
'Taxation_'
'Tasche_'
'Tanz'
'Tana'
'Talk'
'Tal'
'Taj'
'Tagung'
'Tagsüber_'
'Tac'
'Tablet'
'TU9_'
'TT'
'TP_'
'TIC'
'TG'
'TEL'
'TEIL'
'TECH'
'TD'
'Sünden'
'Sünde_'
'Südost'
'Söhne'
'Säule'
'Sämtliche_'
'Szene_'
'Szenari'
'Systemen_'
'Syno'
'Synchron'
'Symp'
'Swimming_'
'Swi'
'Sw'
'Sv'
'Supreme_'
'Suppl'
'Superior_'
'Sum'
'Sul'
'Sui'
'Sudan_'
'Subvention'
'Stühle_'
'Stü'
'Stämme_'
'Style_'
'Stud'
'Strukturen_'
'Stroh_'
'Stress_'
'Straßburg_'
'Strat'
'Stran'
'Stockholm_'
'Stimmung_'
'Stev'
'Steuerzahler_'
'Steuerung_'
'Step'
'Stempel'
'Stellen'
'Steinen_'
'Steck'
'Stea'
'Staub'
'Statt_'
'Statistik_'
'Starte'
'Stadtzentrum_'
'Stadtv'
'Stadtt'
'Stabilis'
'Stab'
'Staatsd'
'Staatsangehörige'
'Staates_'
'Sprit'
'Sprint_'
'Spre'
'Spitze_'
'Spit'
'Spir'
'Spende'
'Spektr'
'Speise'
'Speicher_'
'Speciali'
'Speak'
'Spaziergang_'
'Spannungen_'
'Sozialdemokrat'
'Souvenir'
'Sound'
'Sortiment_'
'Sorgen_'
'Sor'
'Soo'
'Sommers'
'Sometimes_'
'Soma'
'Solomon_'
'Sollten_'
'Soll_'
'Soli'
'Soleil_'
'Sold'
'Solche_'
'Solana_'
'Sog'
'Soci'
'Snow'
'Sn'
'Smartphone'
'Slow'
'Slovakia_'
'Slo'
'Skil'
'Sitzungen_'
'Sir'
'Silver_'
'Sika'
'Sign'
'Siena_'
'Sie'
'Sid'
'Sicherheitsr'
'Sicher'
'Sic'
'Sibe'
'Shuttle_'
'Show'
'Shin'
'Shell_'
'Sex_'
'Sex'
'Several_'
'Seve'
'Setz'
'Setting'
'Session'
'Service'
'Server'
'Serv'
'Serbien_'
'Senkung_'
'Sen'
'Seminar'
'Sem'
'Self_'
'Sein_'
'Sehenswürdigkeiten_'
'Seen_'
'Scott_'
'Schüler_'
'Schü'
'Schöpfer_'
'Schäd'
'Schwerpunkte_'
'Schwell'
'Schweizer_'
'Schwarz_'
'Schuman'
'Schulter'
'Schulden_'
'Schuhe_'
'Schriften_'
'Schnittstellen'
'Schnell'
'Schneider_'
'Schne'
'Schmie'
'Schluss_'
'Schließ'
'Schli'
'Schla'
'Schl'
'Schim'
'Schil'
'Schiff'
'Schiene_'
'Schicht_'
'Schic'
'Schi'
'Scheiben'
'Scheck'
'Sche'
'Schatten_'
'Schafe_'
'Schaf'
'Sch'
'Scan'
'Savi'
'Save_'
'Sauna_'
'Saul_'
'Sauer'
'Saudi_'
'Santos_'
'Sand_'
'Samb'
'Sam_'
'Salze'
'Sale_'
'Sale'
'Sak'
'Safari_'
'Sabi'
'SW'
'SV_'
'SUITE_'
'STR'
'STE'
'SS_'
'SSA'
'SPIEL_'
'SMS_'
'SK'
'SIS'
'SH_'
'SH'
'SER'
'SAT_'
'SAP_'
'SAN'
'SAM'
'Rückzug'
'Rücks'
'Rückgang_'
'Rückf'
'Rücken'
'Russischen_'
'Russisch'
'Russ'
'Runde_'
'Rui'
'Ruhe'
'Rufen_'
'Ruf_'
'Route'
'Roth'
'Ross'
'Roo'
'Roll'
'Rolex_'
'Roche_'
'Rocca_'
'Roberto_'
'Road'
'Rit'
'Rind'
'Riga_'
'Rich'
'Rettung_'
'Resurrection_'
'Restaur'
'Ressource_'
'Respons'
'Respekt_'
'Resi'
'Reservation_'
'Res'
'Representatives_'
'Renten'
'Renn'
'Rena'
'Rem'
'Releases_'
'Rela'
'Reis'
'Reinigungs'
'Reife'
'Registerkarte_'
'Register_'
'Regel'
'Reg'
'Refugee'
'Reduktion_'
'Reduc'
'Redi'
'Rede'
'Redaktion_'
'Rechten_'
'Rechnungshofs_'
'Rechnungs'
'Rece'
'Raume'
'Rau'
'Rat'
'Rail_'
'Rahmenprogramms_'
'Rahmenbedingungen_'
'Rabatt_'
'RT_'
'RT'
'RON'
'RK_'
'RE_'
'REACH_'
'Qui'
'Quellcode_'
'Quan'
'Qualitätss'
'Quadratmeter_'
'Quad'
'Qua'
'QL'
'Pyr'
'Pur'
'Punkt'
'Pumpe'
'Publish'
'Publikation_'
'Prüfungs'
'Präz'
'Präsenz_'
'Präsentation_'
'Provence_'
'Protocol_'
'Protect'
'Prophet_'
'Propert'
'Promotion'
'Projekts_'
'Program_'
'Produktp'
'Produktiv'
'Product_'
'Produ'
'Prima'
'Prices_'
'Previ'
'Prevention_'
'Presses'
'Pres'
'Premierminister_'
'Premiere_'
'Praktisch_'
'Potsdam_'
'Potenzial'
'Positive_'
'Popular'
'Pope_'
'Pool'
'Pom'
'Polyester'
'Poll'
'Politik'
'Political_'
'Poli'
'Pole'
'Poc'
'Plänen_'
'Plen'
'Planet'
'Pla'
'Pirates_'
'Pirate'
'Pir'
'Pip'
'Pino'
'Pina'
'Picc'
'Physic'
'Photovoltaik_'
'Photos_'
'Philo'
'Phentermin_'
'Pharisäer_'
'Phar'
'Pfe'
'Pey'
'Personen'
'Personal'
'Pers'
'Perry_'
'Perform'
'Pere'
'Per_'
'Penn'
'Pen'
'Pel'
'Peking_'
'Ped'
'Paz'
'PayPal_'
'Pause_'
'Paulus_'
'Patten_'
'Patrick_'
'Patentanmeldung_'
'Passion_'
'Passagier'
'Pass'
'Partnerschaft'
'Partnerländer'
'Partit'
'Partie'
'Participa'
'Parti'
'Part_'
'Parker_'
'Parken_'
'Pariser_'
'Parallel_'
'Parad'
'Papa'
'Panzer'
'Pane'
'Panasonic_'
'Pan_'
'Palestine_'
'Pakistan_'
'Paket'
'Pad'
'PV'
'PU'
'PT_'
'PT'
'PL_'
'PHA'
'PH'
'PE_'
'PD'
'PB_'
'Ozon'
'Ozean_'
'Oxford_'
'Ostsee'
'Ostr'
'Osteuropas_'
'Osa'
'Ortschaft_'
'Orte_'
'Orl'
'Orig'
'Orientierung'
'Organis'
'Organ_'
'Orchideen_'
'Orchestra_'
'Optimier'
'Opfern_'
'Operationen_'
'Operation'
'Opera_'
'Oper'
'Open'
'Ombudsman_'
'Olympischen_'
'Olympics_'
'Oliver_'
'Olde'
'Offizie'
'Offic'
'Offer'
'Offen'
'Of'
'Objektiv'
'Oberflächen'
'Oase_'
'OW'
'OU'
'OM'
'OEM_'
'OD'
'Nuraghe_'
'Nur'
'Null'
'Nova_'
'Note'
'Nota'
'Norway_'
'North'
'Normal'
'Norm'
'Nordost'
'Noord_'
'Non'
'Nokia_'
'Niko'
'Nijmegen_'
'Niederl'
'Nichtregierungsorganisationen_'
'Nichtraucher'
'Nice_'
'Nexus'
'Newspapers_'
'News'
'Neuseeland_'
'Neues_'
'Neuer'
'Netze_'
'Netze'
'Netto'
'Neo'
'Neben'
'Navigationsleiste_'
'Navig'
'Nava'
'Nationals'
'Nation'
'Nass'
'Nanny_'
'Nai'
'Nahrungs'
'Nahrung_'
'Nahe_'
'Nah'
'Nad'
'Nachhaltigkeit_'
'Nachfolger_'
'Nachf'
'Nachbarschaft_'
'Nac'
'NV'
'NT'
'NL_'
'NF'
'NER'
'NEN'
'ND_'
'NDE'
'ND'
'NAV'
'Müller_'
'Mönche_'
'Möbel'
'Muslims_'
'Muslim_'
'Muskel'
'Mund_'
'Multipl'
'Multi'
'Moza'
'Mount_'
'Motorrad'
'Moti'
'Mot'
'Mosai'
'Moritz_'
'Mori_'
'Montreal'
'Mono'
'Momente_'
'Molek'
'Modus_'
'Modernisierung_'
'Modellen_'
'Model'
'Mode_'
'Mod_'
'Mittela'
'Mitte'
'Mitbr'
'Mist'
'Mischung_'
'Min_'
'Mills_'
'Million'
'Millennium'
'Mieten_'
'Miete_'
'Midcap_'
'Micro_'
'Mic'
'Metall_'
'Metal_'
'Meta'
'Messung_'
'Merkel_'
'Merger'
'Menschenrechten_'
'Menschen'
'Memory_'
'Meinungs'
'Meilen_'
'Mehrere_'
'Medizinische_'
'Medikamente_'
'Medikament'
'Medicin'
'Medic'
'Mechanismus_'
'Mechanismen_'
'McC'
'Maß'
'Maximal'
'Max'
'Mauritius_'
'Maure'
'Mauer'
'Matte'
'Match_'
'Massi'
'Massen'
'Massagen_'
'Maske'
'Maritime_'
'Marcel_'
'Manuel_'
'Mans'
'Mandel'
'Manche_'
'Manahmen_'
'Mam'
'Malt'
'Mali'
'Maki'
'Makeover_'
'Major'
'Maj'
'Mailingliste'
'Mailand_'
'Magni'
'Magnet'
'Maestro_'
'Madagas'
'Mad'
'Mach'
'Maastricht_'
'MUS'
'MOL_'
'MEN'
'Lé'
'Luo'
'Luftverkehrs'
'Lucerne_'
'Ltd_'
'Lou'
'Lotterie'
'Lore'
'Long_'
'Logo'
'Log'
'Lodging_'
'Living_'
'Little_'
'Lithium_'
'Literature_'
'Lite'
'Lipi'
'Lion'
'Link'
'Lines_'
'Line'
'Limit'
'Lil'
'Likewise_'
'Like_'
'Lieferkette'
'Library_'
'Li_'
'Letzten'
'Letzte'
'Letzendlich_'
'Lesb'
'Lernen_'
'Lenk'
'Lektion_'
'Leitungen_'
'Leiter'
'Leistungsfähigkeit_'
'Leider_'
'Leidens'
'Leide'
'Lehrs'
'Lehren_'
'Leh'
'Legislativ'
'Lee_'
'Lebensweise_'
'Leave_'
'Laz'
'Lay'
'Lausanne_'
'Laur'
'Laufwerk'
'Lauf'
'Laste'
'Laser_'
'Lao'
'Lamy_'
'Lack'
'LS'
'LK'
'LIN'
'LAN_'
'LAND_'
'Künstler'
'Können_'
'Kw'
'Kurd'
'Kron'
'Kritik_'
'Krieger_'
'Kreuz'
'Kreise'
'Kraft'
'Kosten'
'Kosmos_'
'Kope'
'Konzert'
'Konzept'
'Konze'
'Konve'
'Konto'
'Konsultation_'
'Konsultation'
'Kons'
'Kongresse'
'Kong'
'Komponenten_'
'Komplex'
'Kompl'
'Kompetenz'
'Kompa'
'Kommentar_'
'Kombi'
'Kolo'
'Kohä'
'Knoc'
'Km_'
'Klinik'
'Klimaschutz'
'Kliente'
'Klick_'
'Klavier'
'Klassi'
'Klan'
'Kitchen'
'Kirs'
'Kirchen_'
'Kind_'
'Kind'
'Kim_'
'Kilo'
'Kiel_'
'Ketten'
'Kes'
'Kern'
'Ken'
'Kell'
'Kauf'
'Kau'
'Katastrophe_'
'Kast'
'Karto'
'Kapazitäten_'
'Kant'
'Kandidat'
'Kampfes_'
'Kammer'
'Kamera_'
'Kame'
'Kalk'
'Kale'
'Kaiser'
'Kai'
'KS'
'KM'
'KI_'
'KB_'
'Jünger_'
'Jüdische'
'Jö'
'Justi'
'Jur'
'Julia'
'Jugend_'
'Juden_'
'Jude'
'Journalisten_'
'Journal_'
'Jones_'
'John'
'Johann_'
'Jin'
'Jewel'
'Jesu'
'Jenn'
'Jehovah_'
'Jazz_'
'Jav'
'Jau'
'Jan'
'Jahrhunderte_'
'Jahreszeiten_'
'Jahrestag'
'JU'
'JE'
'Ivo'
'Isa'
'Irr'
'Io'
'Investor'
'Investitionsf'
'Inv'
'Intra'
'Interview_'
'Internetzugang_'
'Internet'
'Internationale_'
'Interi'
'Interface'
'Interessen'
'Interessantes_'
'Intelligen'
'Integrations'
'Integra'
'Institution_'
'Installations'
'Innerhalb_'
'Innenhof_'
'Inhalts'
'Inhal'
'Infrastrukturen_'
'Infos_'
'Informatik_'
'Informa'
'Info_'
'Inflation'
'Infineon_'
'Ine'
'Industriepolitik_'
'Indonesien_'
'Indo'
'Individuali'
'Indikator_'
'Indians_'
'Index_'
'Inca'
'Important_'
'Import_'
'Impo'
'Implant'
'Immer'
'Illusion'
'Id'
'Ice'
'IX'
'ITA_'
'IMF_'
'IE'
'ID'
'ICT_'
'ICA'
'IB'
'IAS'
'Hütte_'
'Hühner'
'Hügel_'
'Hyatt_'
'Hunt_'
'Hunger_'
'Hungarian_'
'Hunderte_'
'Hunden_'
'Hubert_'
'Hos'
'Horizon'
'Hon'
'Holz_'
'Holm'
'Holl'
'Holding_'
'Hohen'
'Hohe_'
'Hochschulen_'
'Histori'
'Hire_'
'Hierarchie'
'Hex'
'Herber'
'Helsinki_'
'Heinz_'
'Height'
'Heck'
'Heathrow_'
'Hayd'
'Hav'
'Haushaltsplan'
'Hauptst'
'Hau'
'Hat'
'Hass'
'Hardware_'
'Harb'
'Hanover_'
'Handy'
'Haltung_'
'Halte'
'Hals'
'Halle_'
'Hague_'
'Haftung_'
'Haar_'
'HU'
'HTC_'
'HN'
'HG_'
'HDMI_'
'HAN'
'Günst'
'Gästeb'
'Gärten_'
'Gä'
'Gy'
'Guts'
'Gutes_'
'Gur'
'Guinea_'
'Guang'
'Grünen_'
'Gruppen'
'Grundstück_'
'Grunds'
'Grundr'
'Grundprinzipien_'
'Grunde_'
'Grub'
'Gro'
'Grill_'
'Grill'
'Griech'
'Greenwich_'
'Grav'
'Graue_'
'Gran'
'Gram'
'Graf'
'Gradi'
'Grac'
'Grab'
'Gottes'
'Goth'
'Gos'
'Good'
'Glück_'
'Globalis'
'Gleichzeitig_'
'Gle'
'Glaub'
'Gir'
'Gio'
'Gift'
'Gibt_'
'Gian'
'Gewissen'
'Gewinner_'
'Gewinne'
'Gewebe_'
'Gewalt'
'Get'
'Gesicht_'
'Geschäftspartnern_'
'Geschäftsführ'
'Geschmack_'
'Geschlecht'
'Geschirr'
'Geschic'
'Gert'
'Gerichten_'
'Gerard_'
'Gera'
'Gepäckaufbewahrung_'
'Georg_'
'Generationen_'
'Generalversammlung_'
'Generalsekretär_'
'Generaldirekt'
'Gen_'
'Gemälde_'
'Gemeinde'
'Gemein'
'Gele'
'Geistes_'
'Gehäuse'
'Geheimnis'
'Gefangene'
'Gedenk'
'Geburtstag'
'Geboren_'
'Gebi'
'Gaz'
'Gay_'
'Gattung'
'Gast_'
'Garn'
'Gardens_'
'Garantien_'
'Gara'
'Ganze'
'Ganz'
'Game'
'Gali'
'Gab'
'GU'
'GRA'
'GM_'
'GMT_'
'GMOs_'
'GL_'
'GH'
'GGJ_'
'GF_'
'GA_'
'GAN'
'Führungss'
'Führungskräfte_'
'Füh'
'För'
'Föderation_'
'Fö'
'Fähigkeiten_'
'Fächern_'
'Fußgänger'
'Fußball'
'Fut'
'Funds_'
'Funde_'
'Frühjahr_'
'Früh'
'Froh'
'Friu'
'Fris'
'Freund'
'Freuen_'
'Fresh'
'Fremd'
'Freizeit'
'Freilassung_'
'Fredd'
'Frattini_'
'Franken'
'Frag'
'Fortschritts'
'Formula_'
'Format'
'Forest_'
'Foo'
'Folgen'
'Folge'
'Flüss'
'Flüchtlinge_'
'Flächen_'
'Fläche_'
'Fly'
'Fluss_'
'Flugzeug'
'Flugg'
'Flowers_'
'Flori'
'Florence_'
'Fliege'
'Flexicurity_'
'Flag_'
'Flag'
'Flachbild_'
'Fix'
'Fischereia'
'Fischerei'
'Fische'
'Firm'
'Finnis'
'Fine_'
'Finder_'
'Finanzkrise_'
'Finanzinstituten_'
'Figure'
'Figur_'
'Field_'
'Fib'
'Festplatte_'
'Festivals_'
'Fertigungs'
'Fertigung_'
'Fernseher_'
'Ferienhaus_'
'Ferien'
'Fenster'
'Feng_'
'Fen'
'Feli'
'Fein'
'Federation_'
'Fast_'
'Fas'
'Farbt'
'Fang'
'Fals'
'Falls_'
'Fakt'
'Fair'
'Fahrzeugen_'
'Fahrt'
'Fahrradverleih_'
'Fahrrad'
'Fahre'
'Face'
'FSC_'
'FO'
'FM_'
'FM'
'FIN'
'FEMIP_'
'FD'
'FC_'
'FB'
'Extra_'
'Extr'
'Extension_'
'Exposition_'
'Export_'
'Expo_'
'Explosion'
'Experts_'
'Experimente'
'Exper'
'Exi'
'Excel'
'Ew'
'Event'
'Europ'
'Ethernet_'
'Eth'
'Et'
'Estland_'
'Estate_'
'Essenz_'
'Esp'
'Escape_'
'Es'
'Eröffnung_'
'Erö'
'Erziehung_'
'Erzeugnisse_'
'Erw'
'Erstellen_'
'Error_'
'Erreichung_'
'Ermittl'
'Erm'
'Erleichterung_'
'Erleben_'
'Erla'
'Erl'
'Eri'
'Ergänzung'
'Erg'
'Erfolge_'
'Erfind'
'Erden_'
'Erdbeben_'
'Erachtens_'
'Era'
'Equipment_'
'Ep'
'Entwurf_'
'Entwicklungsländern_'
'Entwicklungshilfe_'
'Entwickler_'
'Entschädigung_'
'Entschließungsantrag_'
'Entschl'
'Entfernen_'
'Entf'
'Entertainment_'
'Entdecken_'
'Enc'
'Empfehlung_'
'Emotion'
'Emm'
'Emi'
'Elisabeth_'
'Elev'
'Element'
'Electronic_'
'Elb'
'Einzig'
'Einzelnen_'
'Eintr'
'Einst'
'Einsparungen_'
'Einschränkungen_'
'Einsch'
'Einrei'
'Einm'
'Einhei'
'Eingliederung_'
'Eingang_'
'Eing'
'Einfü'
'Einfuhren_'
'Einfuhr_'
'Einfach'
'Eine'
'Eigentümern_'
'Eigen'
'Eife'
'Eiche'
'Ehren'
'Effekten_'
'Effekte_'
'Edward_'
'Edelstahl_'
'Ecuador_'
'Ebo'
'Eber'
'Easy_'
'Easter_'
'Ea'
'EUROPÄISCHEN_'
'EUROPE_'
'EURO'
'ERLIN'
'ERI'
'EQ'
'EP_'
'ENT'
'EL'
'EE_'
'ECT'
'ECG'
'EB'
'E8'
'Düsseldorf_'
'Dörfer_'
'Däm'
'Dynami'
'Durchs'
'Durchf'
'Dura'
'Dunkel'
'Dune'
'Duc'
'Dual_'
'Dry'
'Drogen_'
'Drittstaat'
'Dritten_'
'Drittel_'
'Dringlichkeit'
'Drei_'
'Downloader_'
'Dos'
'Doo'
'Dona'
'Dominican_'
'Domain'
'Dol'
'Dokuments_'
'Does_'
'Disziplin_'
'Display_'
'Diskussionen_'
'Diskriminierung_'
'Dir_'
'Diploma'
'Dio'
'Diff'
'Dienstleistungs'
'Dienstleist'
'Dienst'
'Diener_'
'Did_'
'Dichte_'
'Dian'
'Diamanten_'
'Diagramm'
'Diagnos'
'Deutschlands_'
'Deut'
'Dete'
'Deswegen_'
'Designer_'
'Design'
'Denke'
'Deni'
'Deleg'
'Dele'
'Dekoration_'
'Defen'
'Deck_'
'Debat'
'Deb'
'Death_'
'Dead_'
'Dea'
'Dau'
'Datenver'
'Database_'
'Das'
'Dark_'
'Darfur_'
'Dara'
'Danke_'
'Dank'
'Daniel'
'Daneben_'
'Dancing_'
'Damen'
'Dahinter_'
'Dah'
'Dach_'
'DIE_'
'DHL_'
'DG_'
'DER'
'DDR_'
'DB'
'Côte_'
'Customer_'
'Cus'
'Curt'
'Culture_'
'Cultural_'
'Crown_'
'Cross'
'Croatian_'
'Cris'
'Crim'
'Cri'
'Creat'
'Cran'
'Cov'
'Court'
'Course_'
'Cour'
'Count'
'Cost'
'Cosmo'
'Corp'
'Core'
'Coordinat'
'Converter_'
'Convert_'
'Conve'
'Continu'
'Continental_'
'Content'
'Contemporary_'
'Consulting_'
'Construction_'
'Conservat'
'Conse'
'Connect'
'Conce'
'Computers_'
'Compu'
'Como_'
'Comment'
'Comb'
'Colum'
'Collect'
'Code'
'Coc'
'Clients_'
'Clemen'
'Cle'
'Claude_'
'Clar'
'Cities_'
'Cirque_'
'Chrom'
'Chip'
'Chian'
'Chemikalien_'
'Charlotte_'
'Chara'
'Chaos_'
'Chance'
'Champion_'
'Champ'
'Cham'
'Chair_'
'Centr'
'Cent'
'Cel'
'Cata'
'Casa'
'Care_'
'Cap_'
'Cannabis_'
'Cand'
'Canadiens_'
'Cana'
'Campingplätze_'
'Camping'
'Campe'
'Campbell_'
'Camp_'
'Call'
'Calculat'
'Cal'
'Café'
'CZK_'
'CSS_'
'CP'
'COM_'
'CNC_'
'CMC_'
'CIS_'
'CC_'
'CAT'
'Bündnis_'
'Bügel'
'Börsen'
'Bäumen_'
'Bush'
'Burg_'
'Bundestag'
'Buchung_'
'Brun'
'Brot'
'Bron'
'Broad'
'Brit'
'Bris'
'Brin'
'Brig'
'Briefe_'
'Brief'
'Brid'
'Bren'
'Breme'
'Breite_'
'Brazilian_'
'Braut'
'Brass'
'Brandenburg_'
'Branche_'
'Box_'
'Boul'
'Bot'
'Borde'
'Boote_'
'Boo'
'Bohr'
'Bogen'
'Boch'
'Blu'
'Bloom'
'Block_'
'Ble'
'Blau_'
'Blau'
'Blackb'
'Black'
'Bist'
'Birmingham_'
'Biotechnologie_'
'Biologie_'
'Bindung'
'Binde'
'Bin'
'Billi'
'Bill'
'Bilde'
'Bilanz'
'Bier'
'Bibli'
'Bh'
'Bewegungs'
'Beu'
'Betten_'
'Betriebssystem'
'Betrachtung'
'Bete'
'Besuch'
'Bestätigung_'
'Bestimmt'
'Besten_'
'Bestell'
'Bestand'
'Beschlüsse'
'Beschluss_'
'Beschichtung_'
'Besch'
'Berichterstatters_'
'Berichterstatterin_'
'Berge_'
'Berei'
'Beratungen_'
'Beobachtung_'
'Benutzung_'
'Benjamin_'
'Benennung_'
'Benefit_'
'Benedi'
'Bemerkungen_'
'Belastung_'
'Bekenntnis'
'Beitrags'
'Beijing_'
'Behinder'
'Behandlungs'
'Bege'
'Beförderungs'
'Beethoven_'
'Bede'
'Bedauer'
'Bed'
'Becke'
'Bec'
'Baum'
'Bauhaus_'
'Batt'
'Bass'
'Base_'
'Base'
'Baroness_'
'Barc'
'Bara'
'Banke'
'Bangkok_'
'Baltic_'
'Balkanstaaten_'
'Bald'
'Balcony_'
'Bakterien_'
'Bajo'
'Bahrain_'
'Bah'
'Badewanne_'
'Bad'
'Background_'
'Babys_'
'Babel'
'BF_'
'BE_'
'BD'
'BA_'
'BAT'
'Azur'
'Ay'
'Aval'
'Ava'
'Außenpool_'
'Außenpolitik_'
'Außen_'
'Autovermietung_'
'Autoren_'
'Autor'
'Automatische'
'Autob'
'Authority_'
'Ausz'
'Auswirkung_'
'Aussehen_'
'Ausschüsse_'
'Ausschluss'
'Auslands'
'Ausla'
'Ausgabe_'
'Ausga'
'Ausg'
'Aur'
'Auflösung_'
'Auflage_'
'Aufführung'
'Audi'
'Attent'
'Atlantik'
'Atlantic_'
'Athen_'
'Athen'
'Ate'
'Assoziation'
'Asso'
'Assistenten_'
'Assist'
'Assi'
'Aspekten_'
'Ask_'
'Asi'
'Aserbaidschan_'
'Arzneimittel'
'Artif'
'Articles_'
'Arte'
'Arme'
'Arl'
'Argentini'
'Archiv'
'Arbeitspl'
'Arbeitsmarkt'
'Arbeitsgruppe_'
'Arbeitgeber_'
'Arbeiter_'
'Arabian_'
'Aqu'
'Apps_'
'Appartements_'
'Apostle_'
'Apfel_'
'Anzeichen_'
'Anz'
'Anwesenheit_'
'Antonio_'
'Anthony_'
'Anstieg_'
'Anschl'
'Anruf_'
'Anrei'
'Anr'
'Annual_'
'Anno'
'Animation_'
'Anhänger_'
'Anha'
'Angst_'
'Angriff_'
'Angabe_'
'Ang'
'Anfänger_'
'Anfragen_'
'Ane'
'André'
'Andrea_'
'Andr'
'Ando'
'Anders'
'Andalusien_'
'Anbieter_'
'Ana'
'Ams'
'Amm'
'Amig'
'Ami'
'Amerika'
'Ambiente_'
'Amazon_'
'Always_'
'Alta'
'Alpen_'
'Allow'
'Allgemeinen_'
'Allergie'
'Aller'
'Allein_'
'Alien'
'Algeri'
'Alc'
'Albanien_'
'Alba'
'Alamo'
'Aktivi'
'Aktionsplans_'
'Aktionen_'
'Akk'
'Akademie_'
'Airline'
'Ai'
'Afrika'
'Aff'
'Adve'
'Adria'
'Administrator'
'Adi'
'Ade'
'Address_'
'Address'
'Acrobat_'
'Accept'
'Acc'
'Abt'
'Abst'
'Abschluß'
'Abschluss'
'Abschie'
'Absch'
'Ablauf_'
'Abhängig'
'Abgeordnete_'
'Abgas'
'Abend_'
'Abbild'
'Ab_'
'AX_'
'AVR_'
'AVI_'
'AUDI'
'AN_'
'AM_'
'AL_'
'ALL'
'ALE'
'AKP_'
'AF_'
'AE'
'ACT'
'?“'
'?) _'
'= _'
'= '
': € _'
': »_'
': «_'
'99'
'93'
'92'
'90'
'86_'
'83'
'79_'
'760'
'720'
'700'
'66'
'54_'
'53_'
'4m'
'4G_'
'480'
'450_'
'43'
'3G'
'38'
'3710_'
'36'
'352_'
'3500_'
'280_'
'262_'
'260_'
'250'
'240_'
'220_'
'21st_'
'199'
'198_'
'1987_'
'1984_'
'1982_'
'1979_'
'1978_'
'1972_'
'1968_'
'1953_'
'1950_'
'1926_'
'1925_'
'1920_'
'1890_'
'189'
'187_'
'176_'
'173'
'165'
'164'
'163'
'157'
'154'
'151'
'13th_'
'135_'
'133_'
'131'
'124_'
'122_'
'114_'
'110'
'106_'
'102'
'101_'
'0m'
'04'
'03'
'000'
'.’_'
'.[_'
'....'
'..." _'
'... (_'
'..'
'.), _'
'. . '
',.'
',"'
', - _'
'))'
'', _'
'', '_'
'')'
''''
'' , '_'
'%_'
'% '
'# '
'")._'
'") _'
'!”'
'!)'
'!!!'
' “ _'
' “'
' ’'
' ´_'
' |_'
' >_'
' = _'
' :'
' ), _'
' ''
' %) _'
' %'
' ! _'
' !'
'�_'
'♥'
'™'
'€ _'
'….'
'”, “_'
'” - _'
'“. _'
'“ '
'’.'
'’, _'
'— _'
'ң'
'ың_'
'те'
'та'
'ст'
'на'
'и_'
'ер'
'де'
'б'
'ż'
'še'
'ń'
'člen'
'ă'
'ý_'
'üße'
'ützte'
'ütz'
'ütung_'
'üstung'
'üst'
'üssen_'
'üsselung_'
'üss'
'ürzt_'
'ürliche'
'ürf'
'ünftig'
'ündete'
'ümm'
'üllt_'
'üll'
'ülen_'
'ührung'
'ührende'
'ühren'
'üge_'
'üge'
'üf'
'üde'
'ücken_'
'ücke_'
'ücher'
'üche'
'übung_'
'übte'
'übrigens_'
'überzeugen_'
'überwältigen'
'überwi'
'überwacht_'
'übertrag'
'überst'
'übersi'
'übersehen_'
'überraschen_'
'überrasch'
'übermäßigen_'
'übermäßige_'
'übermäßig_'
'überm'
'überlege'
'überleb'
'überlassen_'
'überla'
'überl'
'überh'
'übergehe'
'überga'
'überdurchschnittlich'
'überd'
'überaus_'
'überarbeite'
'üben_'
'öße'
'ötig'
'ösung'
'öster'
'öste'
'össer_'
'ösen_'
'ösch'
'örse_'
'örfer'
'örderung'
'örder'
'önlich'
'önen'
'ön'
'ökonomi'
'ökologisch'
'ök'
'öhte'
'öhne'
'öcke'
'ôte'
'ñer'
'éve'
'ét'
'éra'
'ées_'
'édi'
'éa'
'ès_'
'ème_'
'èg'
'ço'
'äußerster_'
'äußersten_'
'äußern'
'äußere'
'äuser_'
'äumt_'
'ätzt_'
'ätzlich'
'ästhetischen_'
'äste'
'äst'
'ässli'
'ässig'
'ärts'
'ärmste'
'ärk'
'ärisch'
'ärin'
'ärb'
'äo'
'änglich'
'ändl'
'änd'
'ämpft'
'äm'
'ältig'
'älteste_'
'ältere_'
'ält_'
'ält'
'äle_'
'äische'
'ährung'
'ählt_'
'ähle'
'ähige'
'äh'
'ägige'
'äger_'
'äen_'
'äck_'
'ächtnis'
'ächtige'
'ächst'
'ä_'
'ât'
'â_'
'án_'
'ág'
'áce'
'àe'
'ßnahmen_'
'ßliche'
'ßige_'
'ßen'
'ße'
'Üernahmebüros_'
'Übrigen_'
'Überz'
'Übertrag'
'Übersicht_'
'Übersetz'
'Überraschung_'
'Überprüfen_'
'Übermittlung'
'Überleben'
'Übergabebüro_'
'Überf'
'Übereinstimmung_'
'Überblick_'
'Überarbeitung_'
'Überall_'
'Üb'
'ÜBER'
'Öle'
'Ökosysteme_'
'Ökonomie_'
'Ökonome'
'Öffentliche_'
'Öffentlich'
'Î'
'Äußerung'
'Äußer'
'Ärm'
'Är'
'Ähnlich_'
'Ähnlich'
'» '
'·_'
'²_'
'° _'
'«.'
'«, _'
'«'
'£_'
'}'
'| _'
'{_'
'züglich'
'zügig'
'züge_'
'züg'
'zä'
'zzle'
'zzi'
'zwi'
'zweites_'
'zweitens_'
'zweifellos_'
'zweier'
'zwecke'
'zwanzig'
'zwangs'
'zuzus'
'zuwe'
'zuverlässigen_'
'zuverlässige_'
'zuverlässig'
'zuständ'
'zustell'
'zustande_'
'zustand_'
'zusammenkomm'
'zusammengeführt_'
'zusammenge'
'zusammenarbeiten'
'zusagen_'
'zurückgreifen_'
'zurückgeg'
'zurückerstattet_'
'zur'
'zunehmende_'
'zunehmende'
'zum'
'zulässig'
'zulä'
'zukünftig_'
'zuh'
'zugrunde'
'zugr'
'zugleich_'
'zugewiesen'
'zugestimmt_'
'zugeschnitten_'
'zugesch'
'zuges'
'zugelassenen_'
'zugelassen_'
'zugehörigen_'
'zufällig'
'zuerkennen_'
'zuerhalten_'
'zubereite'
'zt'
'zp'
'zor'
'zones_'
'zonen_'
'zona'
'zom'
'zogen_'
'zk'
'zis'
'zipa'
'zion'
'zio'
'zig_'
'zig'
'zierung'
'zielle'
'ziehungen_'
'zieh'
'zie'
'zid'
'zia'
'zh'
'zf'
'zeugt_'
'zeugnisse_'
'zeugen_'
'zettel_'
'zertifikat'
'zert'
'zerst'
'zep'
'zentrale'
'zentr'
'zene'
'zeitlich_'
'zeitgleich_'
'zeitge'
'zeite'
'zeigten_'
'zeichnung'
'zeichnete_'
'zei'
'zehnt'
'zeh'
'zedon'
'zbo'
'zbe'
'zahlung_'
'zahllose'
'zahlenden_'
'yz'
'ywo'
'yton_'
'yti'
'yth'
'ysty'
'ysteme_'
'yse_'
'ypti'
'yph'
'yourselves_'
'yog'
'yn_'
'yment_'
'ylo'
'yle_'
'yields_'
'yield'
'yg'
'yer'
'yen_'
'yell'
'yearl'
'ydr'
'ycl'
'yc'
'yang_'
'yage'
'xp'
'xo'
'xit'
'xist'
'xis'
'xing_'
'ximat'
'xid_'
'xed_'
'würdige'
'würdig'
'wür'
'wünschenswert'
'wü'
'wäs'
'währung'
'wähl'
'wäch'
'wur'
'wungen_'
'wundervolle_'
'wunderschöne_'
'wu'
'wt'
'wrath_'
'wouldn_'
'worthy_'
'wort_'
'worry_'
'worn_'
'worlds_'
'workshops_'
'workout_'
'wool'
'wood'
'wollt_'
'wohnt'
'wohin_'
'woher_'
'wochen_'
'wl'
'witness'
'wit'
'wissenschaftlichen_'
'wissenschaftlich_'
'wissenschaft_'
'wisely_'
'wirtschaftl'
'wirts'
'wirt'
'wirkungsvolle'
'wings_'
'wing'
'willen_'
'wilderness_'
'wilden_'
'wig_'
'wiegend'
'wiederholt_'
'wiederhol'
'wiederge'
'widespread_'
'widerst'
'widerspricht_'
'widerspiegeln_'
'widersp'
'wider'
'wicke'
'wich_'
'wholesale_'
'wherever_'
'where'
'whenever_'
'westlich'
'wesen_'
'werts'
'wertig'
'wers_'
'werkstoff'
'wering_'
'were'
'werdenden_'
'wende_'
'wen_'
'wem'
'weltweite_'
'welle'
'wel'
'weites'
'weitergegeben_'
'weiterf'
'weiten_'
'weiss_'
'weisend'
'wein'
'weiche_'
'weibliche_'
'weht_'
'wegweisende'
'weed_'
'wecken_'
'wechseln_'
'wechsel_'
'wec'
'weari'
'weapon'
'wealth'
'weaken'
'wd'
'watt'
'waterfall_'
'watched_'
'watch'
'wassera'
'wasser_'
'wasn_'
'washe'
'wash'
'waschen_'
'wasche_'
'wart'
'warranty_'
'warrants_'
'warr'
'warnt'
'warning'
'warn'
'warm'
'ware'
'wards_'
'wandern'
'wandel'
'wall'
'walke'
'wak'
'wait'
'wai'
'wahrhaft'
'wagen'
'wachstum_'
'wachs'
'wable'
'völ'
'ví'
'vá'
'vy_'
'vulnerable_'
'vste'
'vri'
'vre'
'vr'
'voyeur_'
'voucher_'
'vou'
'vorzus'
'vorzeitig'
'vorz'
'vorwe'
'vorst'
'vorsichtig_'
'vorschlagen_'
'vorschlag_'
'vorschl'
'vorrangig'
'vorr'
'vornehmen_'
'vorne_'
'vorläufige'
'vorlegen_'
'vorle'
'vorherige'
'vorhergesagt_'
'vorha'
'vorgesehenen_'
'vorgeschrieben'
'vorgeschlagenen_'
'vorgeschlagene_'
'vorgelegten_'
'vorgegebenen_'
'vorgef'
'vorde'
'vorbildliche'
'vorbehalten_'
'vorauss'
'vorausgesetzt_'
'voranzub'
'vorans'
'vorange'
'voran'
'vorab'
'volumen'
'volu'
'voltage_'
'vollzog'
'vollkommen_'
'vollendet'
'volcano_'
'volcan'
'vola'
'voices_'
'vo_'
'vital'
'visuelle'
'visual'
'visitor_'
'visiting_'
'visib'
'visa'
'virtue'
'virale'
'viou'
'violin'
'viole'
'violations_'
'violation_'
'violate_'
'vio'
'vintage_'
'vineyards_'
'vineyard_'
'vine_'
'vin_'
'vili'
'vik_'
'vigno'
'vig'
'viewed_'
'vierten_'
'vierte'
'vielfältigen_'
'vielfach'
'vid'
'victor'
'vice'
'vica'
'vic_'
'vic'
'vibration'
'vez'
'vey'
'veto_'
'vestition'
'veste'
'veröffentlichen_'
'veränderte'
'verzweifelt'
'verzicht'
'verzeichnet_'
'verwundert'
'verwirklicht_'
'verwiesen_'
'verwi'
'verwendete_'
'verweigert_'
'verweigern_'
'verwandte_'
'verwandt'
'verwandel'
'verwalte'
'verw'
'verurteilt_'
'verur'
'vertraut'
'vertra'
'vertikalen_'
'vertikal'
'vertief'
'verteilung_'
'verteidigt_'
'vertei'
'versuchte'
'versuch_'
'verständigt'
'verstreut'
'versteckt_'
'verspreche'
'versorgt_'
'versichern_'
'verses_'
'verschwunden'
'verschwi'
'verschoben_'
'verschlossen'
'verschlei'
'verschlechtert'
'verschiedenste'
'verschiedener_'
'verschickt_'
'verschaff'
'versamm'
'verr'
'verpass'
'verpack'
'vernünftigen_'
'vernünftige'
'vernetzt'
'vernac'
'vermutlich_'
'vermut'
'vermittelt'
'vermietung_'
'vermieten_'
'vermi'
'verläß'
'verlässliche'
'verläss'
'verließ_'
'verleihen_'
'verleg'
'verlang'
'verlagert'
'verla'
'verkü'
'verkleidung_'
'verklei'
'verkehrs_'
'verhängt'
'verhei'
'verheerend'
'verhalte'
'vergeben_'
'verge'
'verführt_'
'verfügbar'
'verfü'
'verfäl'
'verfolgung_'
'verfassungs'
'vereinigt'
'vereinbarte'
'vereinbar'
'verehr'
'verdient_'
'verda'
'verbundene_'
'verbrauch_'
'verblieben_'
'verbleibende'
'verbleib'
'verbl'
'verbindliche'
'verbinden_'
'verbinde'
'verbesserte_'
'verband_'
'verarbeitung_'
'verarbeitenden_'
'verant'
'veranstaltungen_'
'veranstaltet_'
'veranstalte'
'veraltete'
'verabschiede'
'venu'
'ventur'
'vention'
'venti'
'veness_'
'vene'
'vein_'
'veil'
'vegetarian'
'vegetables_'
'vation'
'vate'
'vase'
'varying_'
'variieren_'
'varie'
'vantage'
'valve'
'valuation_'
'validity_'
'valid'
'vale'
'vacuum_'
'vaccination'
'vaca'
'uß_'
'uzie'
'uy'
'ux'
'uve'
'uu'
'utze'
'utterly_'
'uton'
'utionär'
'utilization_'
'utilit'
'uth'
'uter'
'ute'
'uta_'
'usur'
'ustrie'
'ustic'
'uster'
'ussions_'
'usschusses_'
'ussch'
'usion'
'usen_'
'usb'
'ursprüngliche_'
'ursprünglich_'
'url'
'urit'
'urie'
'urg_'
'uren_'
'urd'
'urce'
'urc'
'urban'
'urate_'
'uran'
'ural_'
'ura'
'upter_'
'upte'
'upr'
'uppe'
'upgrade'
'unzählige'
'unz'
'unvo'
'unverz'
'unvermeidlich_'
'unverhältnismäßig'
'unvergleich'
'unum'
'unterzogen_'
'unterzeichneten_'
'unterzeichnen_'
'unterworfen_'
'unterwegs_'
'unterw'
'unterteil'
'untersucht_'
'untersuchen_'
'unterstütze_'
'unterstrich_'
'unterschied_'
'unters'
'unternehmerische_'
'unternehmens'
'unterkünfte'
'unterkunft_'
'unterge'
'untere_'
'unterdrücken_'
'unterbreite'
'unterb'
'unte'
'unst'
'unsichtbar'
'unsa'
'unreal'
'unqu'
'unpre'
'unpa'
'unp'
'uno_'
'unnel_'
'unna'
'unn'
'unmittelbare_'
'unmi'
'unlimited_'
'unlike_'
'unlich'
'unli'
'unlawful_'
'unkte_'
'unkte'
'unjust_'
'universelle'
'unite'
'ungswi'
'ungstechnik_'
'ungssystem'
'ungsprozess'
'ungspr'
'ungso'
'ungsma'
'ungse'
'ungsber'
'ungsb'
'ungsans'
'ungnahmen_'
'unglaublich_'
'ungewöhnlich'
'ungest'
'ungel'
'ungeachtet_'
'ung'
'unft_'
'unfor'
'unfair_'
'unfair'
'unexpected'
'unerläßlich_'
'unent'
'unendlichen_'
'unen'
'uneingeschränkte'
'unein'
'unds_'
'underwa'
'underw'
'undertaking_'
'underta'
'underg'
'undeniable_'
'unde_'
'uncon'
'unci'
'uncertain'
'unberührte'
'unbekannt_'
'unbede'
'unbear'
'unb'
'unauthorized_'
'unauf'
'unau'
'unan'
'unabhängigen_'
'umzus'
'umzu'
'umweltm'
'umw'
'umständ'
'umsi'
'umsetzen_'
'umrechn'
'umpf'
'ummer'
'umh'
'umges'
'umgebung'
'umgeb'
'umge'
'umfassender'
'umfassen_'
'umfangreiche_'
'umfangreiche'
'umfa'
'umf'
'umenten_'
'umente'
'ument'
'umeni'
'umbi'
'umb'
'ulu'
'ulla'
'ulin'
'ulen_'
'uldige'
'ulate_'
'ulat'
'uits_'
'uit'
'uish'
'uing_'
'uil'
'ui_'
'ugs'
'ugnis_'
'ugin'
'ught'
'uft'
'ufe'
'uf_'
'uet'
'uen_'
'uellen_'
'uel_'
'uebe'
'uds'
'uction'
'uct'
'uckt'
'uck'
'uche_'
'uche'
'ucci'
'ubt'
'uble'
'uber'
'ube_'
'ua_'
'türkis'
'türe'
'tümer'
'täts'
'tätige_'
'tätige'
'tän'
'täg'
'tzw'
'tzu'
'tzend'
'tza'
'tyre'
'typische_'
'typisch_'
'typically_'
'typi'
'two'
'twe'
'tw'
'tv_'
'turning_'
'turen_'
'ture'
'tur_'
'tunnel'
'tuning_'
'tune_'
'tun'
'tums'
'tuhl_'
'tudi'
'tua'
'ttu'
'ttra'
'tto'
'ttle_'
'ttig'
'ttern_'
'tte'
'tsun'
'tst'
'tso'
'tschaft'
'tröstete_'
'träge'
'trupp'
'tron'
'trom_'
'troll'
'trockenen_'
'triple_'
'trinken_'
'trin'
'trieb'
'trie'
'trick_'
'tribute_'
'tribu'
'tribes_'
'tribe_'
'trials_'
'treu_'
'tret'
'trenn'
'trem'
'trek'
'treiben'
'treff'
'treatments_'
'treat_'
'treasures_'
'trays_'
'travelling_'
'traveller_'
'traumatic_'
'trat'
'trapp'
'transpose'
'transportiert_'
'transporte'
'transplantation_'
'transp'
'transnational_'
'transmitted_'
'transmit'
'translati'
'translated_'
'translate_'
'transistor_'
'transgress'
'transformation_'
'transferring_'
'transcend'
'transaktion'
'tranquil'
'traits_'
'trait'
'traine'
'trail_'
'trail'
'tragische'
'traf_'
'trade'
'tract'
'trace_'
'trac'
'tra_'
'tr_'
'toxic'
'town'
'tournament'
'touches_'
'totalitarian'
'totalit'
'total'
'tot_'
'torture_'
'torium_'
'torial'
'tooth'
'toolkit_'
'too'
'tonic'
'tones_'
'tome'
'tomatoes_'
'toma'
'tom'
'tolog'
'tolles_'
'tolle'
'toll'
'toleran'
'toler'
'toilet_'
'toff'
'toe_'
'tod'
'toc'
'tobacco_'
'tniss'
'tn'
'tmp'
'tman'
'tlo'
'tless'
'tler_'
'tland_'
'tivi'
'tiver_'
'tive'
'tiv'
'tituti'
'titi'
'tish'
'tires_'
'tired_'
'tiqu'
'tips_'
'tious_'
'tiona'
'tion'
'tio'
'tina'
'timme'
'timing_'
'timer'
'time'
'tim'
'tilt'
'tility_'
'til_'
'til'
'tike'
'tight_'
'tight'
'tigen'
'tige_'
'tige'
'tifi'
'tier_'
'tien'
'tied_'
'tick'
'tici'
'tical_'
'tial'
'tia_'
'ths_'
'thrus'
'thrown_'
'throw'
'throne_'
'threatened_'
'thorough'
'thor'
'thon'
'thirty_'
'thirds_'
'thir'
'thiop'
'thermische_'
'thermi'
'theri'
'there'
'therapeutische'
'therapeutic'
'ther_'
'theft_'
'theatre_'
'theater_'
'thal'
'thai_'
'tge'
'tform'
'texts_'
'teure'
'teuerste_'
'tete_'
'testimonies_'
'testifies_'
'testi'
'tested_'
'tert'
'ters'
'terrace'
'ternehmen'
'terminated_'
'tering_'
'teria'
'teri'
'terbo'
'tente'
'tension'
'tens'
'tene'
'tenan'
'templates_'
'temperatur_'
'temperatur'
'tem_'
'tellen_'
'teles'
'telefonisch_'
'telecommunications_'
'teig_'
'tehende'
'tehen_'
'teeth_'
'ted'
'technique_'
'tear'
'teaches_'
'teach'
'tc'
'tbar'
'tax'
'tausche'
'tausch_'
'taucht'
'tauchen_'
'tattoo_'
'tatte'
'tati'
'taten_'
'tate_'
'tasteful_'
'tas_'
'tare'
'tande'
'tandard'
'tam'
'talt'
'tall'
'tale'
'takeover'
'take'
'tail_'
'tail'
'tags'
'tag'
'tafel_'
'tackling_'
'tackle'
'tablets_'
'tables_'
'tabilität_'
'tabe'
'tab_'
'tab'
'taats'
'sünde'
'südlichen_'
'süda'
'säure'
'säu'
'sämtlichen_'
'systemic_'
'systematisch'
'synthetische'
'synergies_'
'syndrome'
'sync'
'sympath'
'symmetri'
'symbols_'
'symbol_'
'symbol'
'sword_'
'swor'
'swo'
'switched_'
'swing'
'swim_'
'swert'
'swel'
'sweise_'
'sweet_'
'sweet'
'swea'
'swap_'
'swallow_'
'svoll_'
'svertr'
'sverfahren_'
'sverein'
'suspicio'
'suspension_'
'suspended_'
'suspect'
'surviv'
'surrounds_'
'surprising'
'surprise_'
'surplus'
'surpass'
'surg'
'surfaces_'
'surf'
'sura'
'supporters_'
'supplied_'
'supplementary_'
'supp'
'supervision_'
'superma'
'sunset'
'summe'
'sulf'
'suited_'
'suggestions_'
'suggested_'
'suffere'
'sues_'
'suddenly_'
'suck'
'suchte'
'successor_'
'successive'
'succeeded_'
'succeed'
'subvention'
'subt'
'subst'
'subsidi'
'subsequent_'
'subscription_'
'submit_'
'submissi'
'subcontract'
'sub_'
'stützt_'
'stücken_'
'stück_'
'stüc'
'störende_'
'störend_'
'stätte_'
'stätig'
'stärksten_'
'stärkste'
'stärkeren_'
'stärke_'
'stände'
'ständ'
'styles_'
'stur'
'stung_'
'stun'
'stufen'
'studieren_'
'studie'
'stud'
'stuck_'
'strä'
'struktur_'
'structuring_'
'struct'
'struc'
'strophe_'
'strongly_'
'strong'
'strom'
'stroll'
'strips_'
'strip'
'string_'
'strikte'
'strik'
'streng_'
'streck'
'stre'
'straße_'
'strategie'
'strain'
'strahl'
'straf'
'str'
'stot'
'storm_'
'stoppe'
'stopp'
'stone'
'stolz'
'stole'
'stoffen_'
'stoff'
'stockings_'
'stle'
'stl'
'stirbt_'
'stir'
'stipulated_'
'stimuli'
'stimulati'
'stimulate_'
'stimul'
'stimmung_'
'stimmt_'
'stie'
'sticking_'
'sticker'
'stick_'
'sthe'
'steuert_'
'steuer_'
'stes_'
'sterben_'
'stens'
'sten'
'stellvertretende'
'steine_'
'stein'
'steile'
'steigert'
'steigenden_'
'stehenden_'
'stbe'
'stau'
'statutory_'
'statute'
'statue_'
'stattgefunden_'
'statische'
'stationiert'
'station'
'static'
'startet_'
'standp'
'standen_'
'standardmäßig'
'standardize'
'standardi'
'stance_'
'stamp'
'stalt'
'stal'
'stake'
'stainless_'
'stag_'
'stabilisier'
'stabilen_'
'stabile_'
'stab'
'ssystem'
'ssy'
'sstudi'
'sstr'
'sst_'
'ssp'
'sson'
'sslich'
'ssis'
'ssions'
'ssinge'
'ssin'
'ssib'
'ssh'
'sseur'
'ssed_'
'sschuss'
'ssan'
'srä'
'sre'
'sra'
'sr'
'sque'
'sq_'
'spüren_'
'spür'
'späteren_'
'spä'
'sprüche_'
'springs_'
'spring'
'sprin'
'spreche_'
'spreads_'
'sprachig'
'spr'
'sporadi'
'spon'
'spolitischen_'
'spolitik_'
'spoil'
'splä'
'spin'
'spiele'
'spezielles_'
'spezialisierte'
'spezialisiert_'
'spezialis'
'spezi'
'sperr'
'spen'
'spekt'
'speichert_'
'speedi'
'speed'
'specialized_'
'spe'
'spas'
'spare_'
'spap'
'spanische_'
'spanis'
'span'
'sozialis'
'soziales_'
'sozial'
'sow'
'sovereign_'
'sov'
'souve'
'southwester'
'source'
'sounding_'
'sound'
'sos'
'sorts_'
'sort'
'soot'
'sonnigen_'
'sonnig'
'sona'
'somm'
'somewhere_'
'somehow_'
'some'
'solve'
'solo_'
'sollst_'
'solide'
'soli'
'solcher_'
'sog'
'soe'
'sodass_'
'socket'
'socialis'
'soci'
'sne'
'snake'
'snacks_'
'smoothly_'
'smoke_'
'smo'
'smith_'
'smen_'
'smel'
'sman'
'smallest_'
'slösung'
'slots_'
'slose'
'slogan_'
'slo'
'slight'
'slice'
'sleeves_'
'slas'
'sland_'
'skul'
'sku'
'skir'
'skinny_'
'sket'
'ska_'
'ska'
'sively_'
'siv'
'sius_'
'sitzend'
'situati'
'sition_'
'sit_'
'sische_'
'sions'
'sio'
'sinnvolle_'
'sinnvoll_'
'sinne'
'sinn_'
'sinken_'
'sink'
'singul'
'simultane'
'simulat'
'simis'
'similar'
'silverware_'
'silver_'
'silien'
'sili'
'signing_'
'signif'
'signall'
'signal_'
'sights_'
'sier_'
'sien'
'sieg'
'sieb'
'sident'
'sichtigen_'
'sichern_'
'sicherheits'
'sichere_'
'sibl'
'sia_'
'sia'
'shutt'
'shui'
'shrin'
'showcasing_'
'shot'
'shortly_'
'shoot'
'shock_'
'shock'
'shir'
'shipped_'
'shipments_'
'shining_'
'shing'
'shield'
'shes_'
'shelter'
'shell'
'shei'
'sharks_'
'shareholder_'
'shaped_'
'shame_'
'sham'
'shad'
'sgebiet'
'sfond'
'sexy_'
'sexuelle'
'sexualit'
'sex'
'severely_'
'seve'
'setzte_'
'settle'
'serving_'
'serl'
'serial_'
'seri'
'sere'
'serbische'
'ser_'
'sequence_'
'sequen'
'separate'
'sentiment'
'sentenced_'
'sentenc'
'sensors_'
'senso'
'sensib'
'sensi'
'sensation_'
'senkung_'
'senkrecht'
'senke'
'sener'
'sends_'
'senden_'
'senate_'
'seminar'
'semi_'
'seme'
'seltene'
'selten_'
'seln_'
'sell'
'selektiv_'
'select'
'seldom_'
'selber_'
'sektor'
'sekret'
'sek'
'seized_'
'seitigkeit_'
'seitige'
'seitig_'
'seither_'
'seitens_'
'seitdem_'
'segment'
'seed'
'secular_'
'sechste_'
'seasonal'
'seas_'
'seam_'
'seal_'
'sd'
'sculptures_'
'sculpt'
'scul'
'scrutin'
'scroll'
'scripts_'
'scri'
'screens'
'scree'
'scrap'
'scr'
'score_'
'score'
'scor'
'scl'
'scien'
'schön'
'schädlich_'
'schä'
'schwimm'
'schwierig'
'schwerwiegend'
'schwerer'
'schwere_'
'schwer'
'schwedische'
'schwarze'
'schwachen_'
'schwache'
'schwach_'
'schwa'
'schutzge'
'schuss'
'schung_'
'schuh_'
'scht_'
'schrittweise_'
'schritten'
'schritt'
'schriftlichen_'
'schriftliche_'
'schreibt_'
'schreibe'
'schreck'
'schoo'
'schonen'
'scholar'
'schock'
'schnitt'
'schnellen_'
'schnelle_'
'schmutzige'
'schmale'
'schlüssel'
'schluck'
'schlimm_'
'schließe_'
'schlicht'
'schliche'
'schlei'
'schlan'
'schlaf'
'schien_'
'schief'
'schied'
'schick'
'scheine_'
'schei'
'schedules_'
'scheduled_'
'schedule'
'schaut'
'schauen_'
'schat'
'scharf'
'schalte'
'schaftliche'
'schaftl'
'schaf'
'scenic_'
'scape_'
'scal'
'sbur'
'sberg_'
'sbeding'
'savour'
'sauce_'
'saubere'
'satz_'
'sas'
'sarge'
'sard'
'sant'
'sans'
'sank'
'sanier'
'sange'
'sanctuary_'
'sancti'
'san_'
'same'
'salvation_'
'salon'
'salaries_'
'sala'
'sak'
'saint'
'sahen_'
'safeguards_'
'safeguard'
'saf'
'sadly_'
'sad_'
'sacri'
'sacr'
'sabo'
'rüs'
'ründe'
'rücksicht'
'rückgängig_'
'röße'
'röt'
'ré'
'räumen_'
'ränken_'
'räge_'
'räg'
'räfte'
'räder_'
'rzeug'
'rzen'
'rze_'
'rys'
'rweise_'
'rvi'
'rv'
'rus_'
'rupt'
'rungen_'
'rung'
'rumänische'
'ruled_'
'rui'
'ruhe_'
'ruf_'
'rue'
'rudel'
'rucks'
'rubr'
'rtun'
'rto'
'rtlich'
'rtier'
'rtet_'
'rtation_'
'rsi'
'rschutz'
'rscha'
'rsa'
'rri'
'rre_'
'rra'
'rpf'
'rpas'
'roy_'
'roy'
'routen_'
'rounds_'
'round'
'roughly_'
'rosi'
'root'
'roof'
'ront_'
'roni'
'rone_'
'romantische'
'roma'
'rollen_'
'rok'
'roi'
'rogramm_'
'rogramm'
'rog'
'rof'
'robuste_'
'robot'
'robe_'
'rnob'
'rni'
'rme'
'rman_'
'rmac'
'rlich'
'rla'
'rkung_'
'rkt'
'rken'
'riz'
'rivers_'
'rium_'
'ritten'
'ritt'
'rite_'
'risti'
'rist_'
'risk'
'rise'
'rische_'
'ripe'
'rip'
'rio'
'rino_'
'rinnen_'
'rims_'
'riminat'
'rimin'
'rille'
'rill'
'rigu'
'rightly_'
'riger'
'rige'
'rift_'
'riffe_'
'riff'
'riedenheit_'
'riechen_'
'richtig'
'richte_'
'richt_'
'riches'
'richen'
'rical'
'riat_'
'rhof'
'rhetoric'
'rhein'
'rhe'
'rha'
'rgence_'
'rge_'
'rfi'
'rfe'
'revolutioni'
'revive'
'revitali'
'review'
'retro_'
'reten'
'retar'
'retain'
'reta'
'resurrect'
'resume_'
'resultieren_'
'rests_'
'restrict'
'restlichen_'
'resta'
'ression'
'ressi'
'responsi'
'responded_'
'respektiert_'
'resort'
'resolutions_'
'resol'
'reso'
'resist'
'reside'
'reserven_'
'reserv'
'rer'
'requiring_'
'requirement_'
'republic_'
'repu'
'repräsentiert_'
'reproductive_'
'repro'
'repress'
'reporte'
'replacing_'
'replace_'
'replace'
'repeatedly_'
'repeat'
'repay'
'reparier'
'rep'
'renti'
'renta'
'renoviert_'
'renovati'
'renommierte'
'renew_'
'rende'
'rend'
'removing_'
'removable_'
'reminds_'
'remind'
'remin'
'remedy_'
'remedies_'
'remarkably_'
'remarkable_'
'remark'
'rem_'
'reli'
'relevante_'
'relaxing_'
'rek'
'rejoice'
'reiß'
'reiterated_'
'reiterat'
'reiten_'
'reise'
'reint'
'reinst'
'reinigung_'
'reinforces_'
'reinforced_'
'reinforc'
'reimbursement_'
'reihe'
'reign'
'reifen'
'reife_'
'reichhaltige'
'reiches_'
'reichend'
'reiche_'
'rei_'
'rehabilitation_'
'regulat'
'regr'
'registrierte'
'registrier'
'regist'
'regional'
'regiert'
'regain_'
'refusal_'
'refund'
'reforme'
'reform'
'reflects_'
'referring_'
'referendum_'
'ref'
'redundan'
'redis'
'redirect'
'recycled_'
'recu'
'rectang'
'recreational_'
'recreati'
'recover'
'records_'
'recommendation_'
'recognize'
'recognising_'
'recipient_'
'recipe_'
'reci'
'rechtmä'
'rechteckigen_'
'rechn'
'rechende'
'rechen_'
'recharge'
'recalled_'
'recall_'
'rebo'
'rebels_'
'reass'
'reasoned_'
'reas'
'reapp'
'realit'
'realistische'
'realisation_'
'realis'
'reali'
'real'
'reaffirm'
'readiness_'
'readers_'
'rding_'
'rdi'
'rdern'
'rded_'
'rchen_'
'rbl'
'rbi'
'rben_'
'rbeite'
'rbe_'
'rb_'
'rax_'
'raum'
'rative_'
'ration_'
'ratio_'
'rating_'
'ratify'
'rast'
'rass'
'rasi'
'rasen_'
'rasche'
'rare_'
'raphi'
'ranging_'
'rangige'
'ran_'
'ramp'
'raman'
'rall'
'rak'
'raising_'
'rainy_'
'raini'
'rain_'
'raid_'
'rahmen_'
'rahmen'
'ragt_'
'ragon'
'raffin'
'raf'
'radios_'
'raci'
'rach_'
'rach'
'quo_'
'quit_'
'quir'
'quier'
'quie'
'quet_'
'quet'
'questi'
'quest'
'quem_'
'quat'
'quasi_'
'quarr'
'quantitative'
'quantit'
'quant'
'qualitäten_'
'qualifizierter_'
'qualifizierte_'
'qualifications_'
'qualifi'
'quadratischen_'
'quadra'
'pärchen_'
'puzz'
'putting_'
'pute'
'pushe'
'push'
'pus_'
'pursuit_'
'pursue_'
'pursue'
'purpl'
'purchasing_'
'purchased_'
'pur_'
'pup'
'punkte_'
'punkt'
'punishment_'
'punish'
'pulsierende'
'pulle'
'publizier'
'publishing_'
'public'
'publi'
'pub_'
'ptions_'
'psycholog'
'psychiatri'
'prüfungen_'
'prüft'
'präzisen_'
'präzise_'
'präsident_'
'präsentieren_'
'präg'
'prun'
'prozeß_'
'proze'
'provis'
'provi'
'prou'
'protocol'
'protesti'
'protectionism_'
'prot'
'prostitution_'
'prospect_'
'prosecution_'
'pros_'
'prophylax'
'prophets_'
'prophet_'
'prompted_'
'promotes_'
'promoter'
'promise_'
'prominent_'
'proletarisch'
'projekten_'
'projekt'
'prohibit_'
'progressive_'
'progressi'
'prognosis_'
'profitiert'
'professions_'
'professionalism_'
'professional'
'produkti'
'produkte_'
'produkt'
'produc'
'proclaim'
'processor_'
'procedural_'
'proc'
'problemati'
'problem'
'probiere'
'prizes_'
'privatis'
'private'
'privacy_'
'prise_'
'priori'
'prio'
'prinzip_'
'principal_'
'princess_'
'primi'
'prime_'
'priester'
'pricing_'
'priati'
'preview'
'prevents_'
'prevent'
'prevails_'
'prevail'
'pressur'
'pressing_'
'pressed_'
'presidential_'
'preserving_'
'present'
'prese'
'presc'
'prerequisite_'
'prepare'
'preparations_'
'premium_'
'premiere'
'premature'
'prejudice'
'pregnant_'
'preferences_'
'preferen'
'pref'
'precision_'
'precher'
'preceding_'
'preceden'
'preach'
'prall'
'pragmatische'
'pragmatic_'
'practise'
'practically_'
'prac'
'ppt_'
'ppl'
'ppier'
'ppel'
'pped_'
'power'
'pour'
'potenziell'
'potentiell'
'potenti'
'poten'
'potato'
'pota'
'postponed_'
'postp'
'poster'
'postal_'
'possesse'
'possess_'
'positives_'
'positione'
'poses_'
'portugiesischen_'
'portfolio_'
'porteur'
'portacontainer_'
'porta'
'popular'
'popo_'
'pop_'
'poor'
'pools_'
'pollute'
'pollut'
'politisches_'
'politike'
'politically_'
'polit'
'police'
'poles_'
'polar_'
'pointing_'
'pointed_'
'poi'
'poetry_'
'poet'
'plötzlichen_'
'plätzen_'
'pläne'
'plungen_'
'plugs_'
'plugin'
'plin'
'pled_'
'playful'
'platzier'
'platz_'
'platin'
'platform'
'plastics_'
'plaster_'
'plasma_'
'planet_'
'pj'
'pixel'
'pitze'
'pitch'
'pis'
'pira'
'pin_'
'pilz_'
'pillars_'
'pillar_'
'pilgrim'
'pige'
'pig'
'pierc'
'piel'
'pict'
'pick'
'pianist'
'pia'
'pi_'
'phäre'
'physiologi'
'physikalischen_'
'phr'
'php_'
'photographic_'
'phosph'
'phones_'
'phob'
'phis'
'philosophical_'
'philosophi'
'phil'
'phie_'
'pher_'
'pher'
'phen'
'phase'
'pharmazeutische'
'pflichtige'
'pflanze'
'pfel_'
'pez'
'petro'
'petit'
'pet'
'pest_'
'pes'
'perv'
'personenbezogenen_'
'personenbezogene'
'personalis'
'persist'
'persecution_'
'persecut'
'perpet'
'permissi'
'permanent'
'periodic'
'perfume'
'performs_'
'performing_'
'perfekt_'
'perfectly_'
'perfect'
'perc'
'perate'
'pep'
'peni'
'penal'
'peiche'
'pedestrian_'
'peda'
'pect'
'peck'
'peac'
'pb'
'paus'
'pattern'
'patron'
'patien'
'patholog'
'patented_'
'paten'
'patch_'
'pat'
'pastor'
'passive'
'passing_'
'passes_'
'passa'
'partic'
'partial_'
'pars'
'parlamentarischen_'
'parlament'
'parkplatz_'
'park'
'parental_'
'pard'
'paras'
'parameters_'
'paraly'
'parallele'
'papier_'
'panorama_'
'pann'
'pani'
'pan_'
'palästinensische_'
'paintings_'
'painted_'
'packs_'
'packing'
'packet_'
'pack_'
'paci'
'pach'
'paare_'
'pH'
'oßen_'
'oxif'
'oxide'
'ovsk'
'overlooking_'
'ovat'
'outso'
'outputs_'
'outline_'
'outer'
'outcomes_'
'ours_'
'ounce'
'oul_'
'oubt'
'otte_'
'other'
'oten'
'ota'
'oste'
'oso'
'osition_'
'osh_'
'osa_'
'orthodoxe'
'orte'
'oro_'
'ornitho_'
'ornament'
'oriu'
'orit'
'oris'
'orio'
'originale'
'origina'
'oriental'
'orgasm_'
'organizing_'
'organizational_'
'organiz'
'organism'
'organisieren_'
'organisatorische'
'organisationen_'
'organisational_'
'organis'
'orf'
'orene'
'ored_'
'ordnungsgemäße'
'ordnete_'
'ordiniert_'
'ordination_'
'ordina'
'orchestra'
'orbit'
'orbene'
'oramic'
'ora_'
'optische_'
'option'
'optimiz'
'optimistic_'
'optimism_'
'optimis'
'optimiert_'
'optimier'
'optimale'
'optic'
'opti'
'opt'
'oppress'
'opposi'
'opol'
'opfer'
'operates_'
'oper'
'oote'
'oot'
'onst'
'ono'
'onna'
'onischen_'
'onis'
'onieren_'
'onier'
'onia_'
'oni_'
'ones'
'oner_'
'oned_'
'onabl'
'omp'
'omme'
'omm'
'ominat'
'omen_'
'omen'
'omar'
'ols_'
'ologi'
'olle_'
'olle'
'olischen_'
'olische_'
'olis'
'olgung'
'olf'
'olen'
'oldest_'
'oks_'
'oko'
'ok'
'oist'
'ois'
'oire_'
'oir'
'oint'
'oining_'
'oin'
'ohol'
'ohnehin_'
'ograph'
'ogra'
'ogne_'
'ogna_'
'ogena'
'oge'
'oga_'
'offs'
'offiziell_'
'offi'
'offensichtlich'
'offenes_'
'offener_'
'offenbart'
'offe_'
'oed'
'ody'
'odu'
'ocu'
'octo'
'ock_'
'ochschule_'
'ochen_'
'occurrence'
'occurr'
'occupy'
'occupie'
'occupational_'
'ocation_'
'obsession'
'observation_'
'obligato'
'obligation_'
'obli'
'obi'
'oberfläche'
'oad'
'nützliche'
'nütz'
'nüpf'
'nügen'
'nü'
'nötigen_'
'nördlichste'
'nym'
'ny'
'nve'
'nutzt_'
'nutrition_'
'nut_'
'nur'
'nungen_'
'nummer'
'numeri'
'null'
'nue'
'nud'
'ntw'
'ntum'
'nts'
'ntroll'
'ntration'
'ntrag'
'ntly_'
'nting_'
'nthin'
'nted_'
'nswert'
'nscha'
'np'
'nowadays_'
'nous_'
'nourishe'
'nou'
'notwendiger'
'notion_'
'notify_'
'notification'
'noticeabl'
'notic'
'noti'
'noten_'
'noted_'
'notebook'
'nose'
'nos_'
'normali'
'norm'
'nor'
'noon_'
'noo'
'nominations_'
'nominat'
'nog'
'nod'
'nock'
'nochmals_'
'nna'
'nlä'
'nlich'
'nli'
'nlage_'
'nkt_'
'nker'
'nkel'
'nke'
'nja'
'nitz_'
'nitt_'
'nitt'
'nitrogen_'
'nite'
'nisse'
'nisi'
'nisches_'
'nip'
'ningen_'
'ninet'
'nig_'
'nieren'
'niemand_'
'niedriger_'
'niedrigen_'
'niedrige'
'niederländische'
'niedergelegt_'
'nied'
'nickel_'
'niche'
'nian_'
'nheit'
'nhau'
'nha'
'ngung_'
'ngt_'
'ngo'
'nges'
'ngend'
'ngel_'
'ngel'
'ney'
'neutral_'
'neuli'
'neuem_'
'netz'
'nette'
'nest'
'nesses_'
'nern_'
'nergie_'
'neoli'
'nente_'
'nenn'
'neme'
'nein_'
'neighbors_'
'neighborhood_'
'neide'
'nei'
'nehmung'
'negotiated_'
'negotiate_'
'negl'
'negative'
'negat'
'neg'
'neckl'
'necessarily_'
'neat'
'nearest_'
'ndurch'
'ndung_'
'ndr'
'ndow'
'nding_'
'ndigen_'
'nders_'
'ndelt'
'ndar'
'nco_'
'ncia'
'nchen_'
'nce'
'nberg_'
'navig'
'nauti'
'nato'
'native_'
'nationality_'
'nati'
'nated_'
'nate_'
'nar_'
'nano'
'namens_'
'nam'
'nak'
'nails_'
'nail_'
'nahme'
'nag'
'nack'
'nachzudenken_'
'nachhaltig'
'nachfolgende'
'nachd'
'müß'
'mütig'
'müssten_'
'müsste_'
'müss'
'möglichen_'
'mäßigen_'
'mäß'
'märkten_'
'männlich'
'más'
'mysterious_'
'mysql_'
'mysql'
'mys'
'mußten_'
'mußte_'
'mutter'
'muster_'
'musst_'
'musst'
'musse'
'muslimische'
'musikalischen_'
'musik_'
'museums_'
'muse'
'muscles_'
'municipality_'
'municipalities_'
'multitude_'
'multilaterale'
'mulat'
'mtheit'
'mt_'
'mps_'
'mpli'
'mple'
'mpla'
'mpi'
'mpfe'
'mper'
'mpe'
'moves_'
'mouth'
'mour'
'mount'
'motorhome'
'motiviert_'
'motivated_'
'moti'
'mosqu'
'morpho'
'morgens_'
'moratorium_'
'moralischen_'
'mood'
'moo'
'monument'
'monte'
'moni'
'monet'
'monat'
'mona'
'mon_'
'molek'
'molecul'
'moisture_'
'moist'
'modify_'
'modi'
'modernsten_'
[...]
