'<pad>_'
'<EOS>_'
' , _'
' ._'
'a_'
'_'
'se_'
'v_'
'na_'
'je_'
'i_'
's_'
'o_'
'že_'
' . _'
'u_'
'to_'
'z_'
'y_'
'do_'
'k_'
' - _'
' ( _'
'si_'
'e_'
'pro_'
'm_'
'í_'
've_'
'ale_'
'jsem_'
'jako_'
'á_'
'za_'
'é_'
'ho_'
'by_'
'ou_'
'V_'
'  _'
'tak_'
'po_'
'ch_'
'jsou_'
'ě_'
'které_'
'nebo_'
' ) _'
'od_'
' ?_'
't_'
'A_'
'ů_'
'ý_'
'mi_'
'„ _'
'co_'
'jak_'
' " _'
'em_'
' :_'
'který_'
'jeho_'
'l_'
'už_'
'byl_'
'jen_'
'ní_'
'aby_'
'mu_'
'až_'
'než_'
'když_'
'při_'
'ze_'
'má_'
'také_'
'1_'
'ých_'
'jsme_'
' : _'
'bylo_'
'být_'
'ého_'
'která_'
'však_'
'bude_'
'byla_'
'Na_'
'2_'
' . " _'
'ještě_'
'jí_'
' ) ._'
'jejich_'
'pak_'
' / _'
'ani_'
'ji_'
' – _'
' . "_'
'není_'
'či_'
'li_'
'před_'
'-_'
'mezi_'
'n_'
'své_'
'podle_'
' ) , _'
'ím_'
'3_'
' ;_'
'te_'
'kde_'
' „ _'
'mě_'
'tím_'
'může_'
'To_'
'tom_'
'ým_'
'ke_'
'ce_'
'Je_'
' !_'
'5_'
'toho_'
'ne_'
'ém_'
'tu_'
'la_'
'tedy_'
'ům_'
'nás_'
'bez_'
'již_'
'kdy_'
'roce_'
'roku_'
'me_'
' ,_'
'4_'
'let_'
'Ale_'
' , “ _'
'tam_'
'S_'
'měl_'
'protože_'
'další_'
'tomu_'
'velmi_'
'kteří_'
'byly_'
'ně_'
'pod_'
'nad_'
'I_'
'ky_'
'Když_'
'r_'
'více_'
'Z_'
' . “_'
'ty_'
'její_'
'něco_'
'mají_'
'ka_'
'první_'
'c_'
'nic_'
'ti_'
'nám_'
'třeba_'
'ek_'
'K_'
'pouze_'
'proto_'
' , " _'
'6_'
'O_'
'musí_'
'této_'
'ými_'
'lze_'
', _'
'přes_'
'ích_'
'ten_'
'asi_'
'já_'
'proti_'
'š_'
'ním_'
' “ _'
'h_'
'nich_'
'U_'
'd_'
'což_'
'společnosti_'
'budou_'
'p_'
'j_'
'právě_'
'Jak_'
'všech_'
' : " _'
'0_'
'ta_'
'jim_'
'všechny_'
'ové_'
'cí_'
'například_'
'stále_'
' % _'
'ku_'
'případě_'
'době_'
'ly_'
'it_'
'mít_'
'kterou_'
'Kč_'
'8_'
'7_'
'Po_'
'měla_'
'jde_'
'dva_'
'._'
'řekl_'
'at_'
'al_'
'č_'
'Pokud_'
'bych_'
'svou_'
'10_'
'především_'
'mohou_'
'Co_'
'práce_'
'ci_'
'ách_'
'totiž_'
'kolem_'
'ému_'
'on_'
'té_'
'uje_'
'Pro_'
' . . ._'
'ČR_'
'dobře_'
'teď_'
'lo_'
'dnes_'
'jste_'
'jeden_'
'nové_'
'tři_'
'Podle_'
'něj_'
'svého_'
'Ve_'
'pokud_'
'vám_'
'stejně_'
'ání_'
'né_'
'vůbec_'
'zde_'
'tohoto_'
'ová_'
'ech_'
'kdo_'
'ni_'
'sebe_'
'ami_'
'ovi_'
'vlastní_'
'často_'
'všechno_'
'ám_'
'možné_'
'několik_'
'C_'
'těchto_'
'korun_'
'lidí_'
'ovšem_'
'9_'
'20_'
'Za_'
'nikdy_'
'svých_'
'oblasti_'
'tento_'
'místo_'
'byli_'
'letech_'
'il_'
'zejména_'
'ost_'
'dvě_'
'jej_'
'vás_'
'D_'
'rok_'
'Při_'
'nejen_'
'den_'
'30_'
'M_'
'mohl_'
'jiné_'
' _'
'víc_'
'zcela_'
'sám_'
'trhu_'
'firmy_'
'dokonce_'
'jež_'
'P_'
'České_'
'ž_'
'( _'
' ? "_'
'téměř_'
'tomto_'
'zda_'
'svůj_'
'15_'
'příliš_'
'zase_'
'větší_'
'sice_'
'např_'
'dalších_'
'lidé_'
'b_'
'vždy_'
'druhé_'
' . , _'
'člověk_'
'chvíli_'
'každý_'
'dvou_'
'g_'
'systém_'
'prostředí_'
'Tak_'
'takže_'
'práci_'
'E_'
'nyní_'
'řešení_'
'moc_'
'měli_'
'poslední_'
'patří_'
'st_'
'přímo_'
'tyto_'
'Do_'
'sobě_'
'život_'
' )_'
'systému_'
'celé_'
'svým_'
'trochu_'
'x_'
'znovu_'
'procent_'
'tady_'
'říká_'
'jednou_'
'es_'
'rámci_'
'T_'
'čas_'
'něm_'
'řízení_'
'část_'
'společnost_'
'ější_'
'tisíc_'
'snad_'
'Já_'
'12_'
'stát_'
'Pak_'
'těch_'
'možnost_'
'zařízení_'
'cích_'
'dál_'
'velké_'
'osti_'
'B_'
'života_'
'dále_'
'ná_'
'období_'
' " , _'
'jenom_'
'zatím_'
'části_'
'děti_'
'přitom_'
'proč_'
'přece_'
'opět_'
'ení_'
'J_'
'50_'
'světa_'
'navíc_'
'sebou_'
'dobu_'
'díky_'
'možná_'
'méně_'
'během_'
'sem_'
'ův_'
'Jen_'
'všichni_'
'ují_'
'in_'
'ej_'
'R_'
'nejsou_'
'tě_'
'straně_'
'Praha_'
'vyšší_'
'několika_'
'vlastně_'
'strany_'
'včetně_'
' " . _'
'taky_'
'neboť_'
'jestli_'
'Jeho_'
'později_'
'věci_'
'naše_'
'celý_'
'země_'
'vše_'
' . . . _'
'někdo_'
'L_'
'hned_'
'Od_'
'kdyby_'
'zákona_'
'ské_'
'Byl_'
'ování_'
'dost_'
'tzv_'
'nemá_'
'rychle_'
'pár_'
'doby_'
'nikdo_'
'světě_'
'mnoho_'
'tuto_'
'spolu_'
'jedné_'
'někdy_'
'jehož_'
'století_'
'způsobem_'
'ovat_'
'jsi_'
'náš_'
'jednoho_'
'vy_'
'jinak_'
'svém_'
'N_'
'rovněž_'
'. _'
'AV_'
'Jako_'
'mám_'
'ný_'
'AC_'
'tato_'
'Y_'
'dne_'
'AD_'
'nebyl_'
'pomocí_'
'oči_'
'níž_'
'en_'
'Praze_'
'Už_'
'AP_'
'nimi_'
'eme_'
'nakonec_'
'samozřejmě_'
'nichž_'
'opravdu_'
'můžete_'
'11_'
'zároveň_'
'informace_'
' ? “_'
'Al_'
'chce_'
'kvůli_'
'množství_'
'100_'
'le_'
'hlavně_'
'dlouho_'
'tehdy_'
'nebylo_'
'některé_'
'spíše_'
'situace_'
'AU_'
'úplně_'
'nových_'
'mm_'
'znamená_'
'vody_'
'bychom_'
'nový_'
' “ ._'
'mimo_'
'ruce_'
'některých_'
'různých_'
'mně_'
'pět_'
'nebude_'
'vá_'
'er_'
'ať_'
'ových_'
'naopak_'
'ila_'
'čtyři_'
'Ten_'
'hlavní_'
'de_'
'nou_'
'ny_'
'abych_'
'Proto_'
'takové_'
'základní_'
'místě_'
'české_'
'mne_'
'my_'
'naší_'
'As_'
'Ag_'
'ceny_'
'celou_'
'mohla_'
'stojí_'
'zemí_'
'ES_'
'města_'
'Aš_'
'dosud_'
'potom_'
'F_'
'základě_'
'počet_'
'vedle_'
'25_'
'mělo_'
'začal_'
'Bylo_'
'peníze_'
'Tento_'
'16_'
'jiných_'
'zřejmě_'
'můžeme_'
'ova_'
'jednání_'
'km_'
'18_'
'mohli_'
'skutečně_'
'jednotlivých_'
'měly_'
'včera_'
'ma_'
'Ne_'
'ala_'
'mnohem_'
'EU_'
'žádné_'
'většinou_'
'00_'
'nu_'
'jednu_'
'ící_'
' ,  _'
'největší_'
'14_'
'tí_'
'problém_'
'40_'
'ostatní_'
'lepší_'
'zemědělství_'
'současné_'
'zemi_'
'času_'
'G_'
'19_'
'člověka_'
'ona_'
'kg_'
'ř_'
'hodně_'
'milionů_'
'alespoň_'
'nutné_'
'nemůže_'
'skupiny_'
'kou_'
'ví_'
'hodin_'
'máme_'
'služby_'
'stavu_'
'  ,_'
'jiného_'
'toto_'
'H_'
'nabízí_'
'obou_'
'vé_'
'trh_'
'ť_'
'ího_'
'kterým_'
'situaci_'
'13_'
'domů_'
'slova_'
'ovou_'
'kromě_'
'ň_'
'USA_'
'dá_'
'dobré_'
'dělat_'
'zhruba_'
'roky_'
'pořád_'
'Tato_'
'pracovní_'
'ec_'
'jaké_'
'17_'
'problémy_'
'jedna_'
'chtěl_'
'íme_'
'jedno_'
'rozdíl_'
'vždycky_'
'nějaké_'
'ředitel_'
'zatímco_'
'něho_'
'Ty_'
'státní_'
'školy_'
'energie_'
' “ , _'
'nového_'
'Sém_'
'posledních_'
'Není_'
'dítě_'
'no_'
'rukou_'
'cenu_'
'řekla_'
'ných_'
'rozhodnutí_'
'zájem_'
'sama_'
'velice_'
'republiky_'
'vidět_'
'pohled_'
'svět_'
'mnoha_'
'us_'
'přesně_'
'Proč_'
' ) - _'
'ší_'
'typu_'
'ční_'
'málo_'
'malé_'
'platí_'
'našich_'
'f_'
',  _'
'el_'
'místa_'
'prostě_'
'Jan_'
'an_'
'firma_'
'jejichž_'
'velký_'
'finanční_'
'X_'
'ženy_'
'letos_'
'hlediska_'
'První_'
'tolik_'
'cena_'
'mé_'
'němž_'
'jistě_'
'jich_'
'oval_'
'pocit_'
'Ta_'
'nelze_'
'rád_'
'kterých_'
'Sb_'
'ď_'
' ' _'
'vlády_'
'minut_'
'nebyla_'
'Byla_'
'kam_'
'Další_'
'došlo_'
'ra_'
'ko_'
'prý_'
'činnosti_'
'vůči_'
'nějaký_'
'60_'
'programu_'
'ků_'
'dětí_'
'dříve_'
'deset_'
'musel_'
'informací_'
'státu_'
'možnosti_'
'kW_'
'tou_'
'lidi_'
'území_'
'služeb_'
'jící_'
'domu_'
'náklady_'
'nejlepší_'
'lety_'
'ový_'
'Kromě_'
'podmínky_'
'emi_'
'způsob_'
'stal_'
'paní_'
'půl_'
'republice_'
'žádný_'
'dal_'
'noci_'
'funkce_'
'konce_'
'skoro_'
'ský_'
'VA_'
'řadu_'
'hlavu_'
'VI_'
'ních_'
'ie_'
'změny_'
'Í_'
'prvním_'
'prostor_'
'sociální_'
'W_'
'um_'
'daleko_'
'všem_'
'výrazně_'
'zákon_'
'dveře_'
'součástí_'
'projektu_'
'Jsou_'
'dvěma_'
'Seb_'
'et_'
'čím_'
'můj_'
'konci_'
'každé_'
'muž_'
'hlavou_'
'če_'
'večer_'
'SEK_'
'tvoří_'
'sti_'
'moci_'
' ! "_'
'výsledky_'
'ha_'
'sec_'
'Mezi_'
'SEA_'
'SEČ_'
'různé_'
'menší_'
' ; _'
'ruku_'
'SEŠ_'
'firem_'
'Evropě_'
'dostal_'
'opatření_'
'ké_'
'zboží_'
'využití_'
'ú_'
'střední_'
'postupně_'
'80_'
'určitě_'
'Teď_'
'doma_'
'lépe_'
'českých_'
'tj_'
'výše_'
'obvykle_'
'jiný_'
'dispozici_'
'obchodní_'
'ostí_'
'out_'
'Jde_'
'výroby_'
'žena_'
' …_'
'vedení_'
'němu_'
'prostřednictvím_'
'roli_'
'uvedl_'
'novou_'
'takový_'
'poté_'
'VŠ_'
'poměrně_'
'ete_'
'VS_'
'vývoj_'
'nižší_'
'ově_'
'řada_'
'VB_'
'oba_'
' ? " _'
' & _'
'ají_'
'teprve_'
'našeho_'
'průběhu_'
'ili_'
'Ani_'
'2010_'
'VP_'
'Ing_'
'cestu_'
'tří_'
'třetí_'
'poprvé_'
'21_'
'stav_'
'ali_'
'umožňuje_'
'řady_'
'dní_'
'práva_'
'věc_'
'zem_'
'organizace_'
'prostoru_'
'půdy_'
'ice_'
'mohlo_'
'skutečnosti_'
'druhý_'
'program_'
' . )_'
'chování_'
'24_'
'úrovni_'
'jenž_'
'začala_'
'kterém_'
'jméno_'
'mnou_'
'neměl_'
'celkem_'
'použití_'
'jít_'
'jejím_'
'Ještě_'
'věcí_'
'umění_'
'přesto_'
'cm_'
'pomoci_'
'kem_'
'konečně_'
'důležité_'
'smrti_'
'většina_'
'vysoké_'
'druhou_'
'Také_'
'září_'
'budeme_'
'představuje_'
'hodnoty_'
'22_'
'dat_'
'přišel_'
'stalo_'
'věku_'
'kterého_'
'zemích_'
'ace_'
'právo_'
'hodiny_'
'viděl_'
'Tyto_'
' ? _'
'nová_'
'byste_'
'společností_'
'Možná_'
'souvislosti_'
'směrem_'
'velkou_'
'případně_'
'sami_'
'udělat_'
'počtu_'
'ře_'
'přístup_'
'Kdo_'
'pan_'
'stejné_'
'Á_'
'íc_'
' % ._'
'ček_'
'anebo_'
'jedním_'
'án_'
'výkon_'
'pohledu_'
'ano_'
'provozu_'
'Protože_'
'ská_'
'říct_'
'technologie_'
'2011_'
'Ano_'
'vede_'
'íte_'
'týden_'
'Česká_'
'produkce_'
'svými_'
'ík_'
'právní_'
'působí_'
'90_'
'Před_'
'šest_'
'ven_'
'No_'
'kolik_'
'začátku_'
'spolupráci_'
'výkonu_'
'životě_'
'Naď_'
'podařilo_'
'apod_'
'podíl_'
'vliv_'
'Evropy_'
'zahraničí_'
'získat_'
'ími_'
'Dnes_'
'ráno_'
'osob_'
'činnost_'
'abychom_'
'řadě_'
'podobě_'
'stroje_'
'ry_'
'okolí_'
'máte_'
'nově_'
'Díky_'
'spíš_'
'celá_'
'nal_'
' + _'
'přičemž_'
'budu_'
'buď_'
'ského_'
'případech_'
'É_'
'unie_'
'tohle_'
'podporu_'
'muže_'
'pomalu_'
'70_'
'stran_'
'Jejich_'
'ó_'
'moje_'
' § _'
'docela_'
'slovo_'
'2012_'
'smyslu_'
'těla_'
'říci_'
'nač_'
'dolarů_'
'podobně_'
'jedná_'
'srdce_'
'ovy_'
'snadno_'
'najednou_'
' * _'
'cesty_'
'výši_'
'va_'
'dny_'
'zvýšení_'
'čí_'
'vf_'
'procenta_'
'naprosto_'
'velkých_'
'pěti_'
'Petr_'
'jasné_'
'aniž_'
'banky_'
'peněz_'
'atd_'
'zpracování_'
'zvláštní_'
'Jiří_'
'péče_'
'dy_'
'vláda_'
'měsíců_'
'Evropské_'
'Až_'
'Jenže_'
'sil_'
'Její_'
'návrh_'
'stí_'
'jednom_'
'snaží_'
'nějakou_'
'značky_'
'zdrojů_'
'aplikace_'
'naň_'
' ! " _'
'význam_'
'jakou_'
'současně_'
'model_'
'smlouvy_'
'muži_'
'cen_'
'dolů_'
'vzduchu_'
'nať_'
',_'
'ální_'
'dům_'
'200_'
'podmínek_'
'prostředky_'
'Má_'
'Takže_'
'též_'
'vě_'
'oddělení_'
'českého_'
'brzy_'
'ěji_'
'životní_'
'využít_'
'23_'
'ští_'
'ného_'
'2000_'
'aspoň_'
'žen_'
'sítě_'
'da_'
'Zatímco_'
'dle_'
'ru_'
'celého_'
'nejvíce_'
'zpátky_'
'komise_'
'nějak_'
'podniku_'
'projekt_'
'pozornost_'
'dát_'
'ění_'
'Tím_'
'možno_'
'muset_'
'otec_'
'osobní_'
'Právě_'
'ká_'
'ostatních_'
'snížení_'
'hlas_'
'každého_'
'Jsem_'
'knihy_'
'Každý_'
'eš_'
'dochází_'
'možností_'
'srovnání_'
'zrovna_'
'Prahy_'
'tělo_'
'miliardy_'
'viz_'
'zkušenosti_'
'akce_'
'Že_'
'stranu_'
'Navíc_'
'takto_'
'národní_'
'výrobce_'
'nemají_'
'sto_'
'jel_'
'praxi_'
'ing_'
'tímto_'
'společně_'
'cké_'
'předtím_'
'ři_'
'dalším_'
'zemědělské_'
'Měl_'
'íš_'
'domácí_'
'určité_'
'tvář_'
'naši_'
'číslo_'
'prakticky_'
'otázku_'
'dostat_'
'budete_'
'ací_'
'nejvyšší_'
'šel_'
'někde_'
'vztahu_'
'ak_'
'pomoc_'
'systémy_'
'cestě_'
'nemusí_'
'ství_'
'plně_'
'zdraví_'
'cílem_'
'války_'
'ba_'
'nemohl_'
'loni_'
'šlo_'
'SI_'
'vhodné_'
'mil_'
'obr_'
'nim_'
'bývá_'
'vztah_'
'rozhodně_'
'* _'
'Ý_'
'amp_'
'2009_'
'pracovat_'
'vnitřní_'
'jejího_'
'začíná_'
'otázky_'
'jed_'
'okamžitě_'
'rozvoj_'
'požadavky_'
'data_'
'město_'
'II_'
'smysl_'
'musíme_'
'růst_'
'Ze_'
'rodiny_'
'počátku_'
'nadále_'
'Š_'
'metrů_'
'ního_'
'očima_'
'najít_'
'Č_'
'věděl_'
'léta_'
'áním_'
'hlavy_'
'jeh_'
'mého_'
'občas_'
'vím_'
'slov_'
'ující_'
'podstatě_'
'obě_'
'vzhledem_'
'Ů_'
'pravdu_'
'35_'
'avšak_'
'vat_'
'nikoli_'
'funkci_'
' = _'
'spojení_'
'jaký_'
'procesu_'
'tvrdí_'
'du_'
'čem_'
'2013_'
'ro_'
'nákladů_'
'mohly_'
'poněkud_'
'politiky_'
'důvodů_'
'typ_'
'Ě_'
'byť_'
'svému_'
'prostředků_'
'stál_'
'vaše_'
'pojištění_'
'námi_'
'skutečnost_'
'Všechny_'
'obchodu_'
'Například_'
'použít_'
'noc_'
'provedení_'
'moderní_'
'potřeby_'
'potřeba_'
'vlasy_'
'jší_'
'hodnocení_'
'ministr_'
'velká_'
'síly_'
'vědět_'
'výrobu_'
'dobrý_'
'malý_'
'zůstává_'
'nohy_'
'dlouhé_'
'proces_'
'ané_'
'existuje_'
'zas_'
'dokud_'
'neustále_'
'případ_'
'vi_'
'verze_'
'tun_'
'jediný_'
'cím_'
' ? “ _'
'ulici_'
'všeho_'
'přibližně_'
'45_'
'obraz_'
'úroveň_'
'svoji_'
'sou_'
'stala_'
'ilo_'
'mezinárodní_'
'Nebo_'
'postavení_'
'vývoje_'
'ministerstva_'
'prvních_'
'Mám_'
'nijak_'
'průmyslu_'
'systémů_'
'konec_'
'míry_'
'každém_'
'pole_'
'osoby_'
'onemocnění_'
'problémů_'
'chtějí_'
'minulosti_'
'mluvit_'
'nýbrž_'
'SR_'
'ového_'
'Stejně_'
'min_'
'mléka_'
'zdravotní_'
'rady_'
' , , _'
'městě_'
'dávno_'
'Společnost_'
'technologií_'
'měsíce_'
'myslím_'
'Přesto_'
'dvacet_'
'cestou_'
'celém_'
'států_'
' " ._'
'ák_'
'generace_'
'konstrukce_'
'komunikace_'
'vý_'
'hry_'
'ina_'
'politické_'
'obsah_'
'vedoucí_'
'zdroje_'
'w_'
'listopadu_'
'původní_'
'zvířat_'
'vání_'
'konkrétní_'
'pr_'
'Kdyby_'
'matka_'
'zdá_'
'dělá_'
'uvnitř_'
'podniků_'
'okna_'
'druhého_'
'dnů_'
'míst_'
'přijde_'
'ských_'
'kvalitní_'
'zpět_'
'pravda_'
'Jež_'
'stolu_'
'majetku_'
'pacientů_'
'soudu_'
'jednotlivé_'
'kvality_'
'předseda_'
'is_'
'důvodu_'
'staré_'
'jejíž_'
'zvláště_'
'takového_'
'otázka_'
'str_'
'zájmu_'
'28_'
'Toto_'
'techniky_'
'setkání_'
'500_'
'starší_'
'Myslím_'
'vrátil_'
'denně_'
'místnosti_'
'dokáže_'
'vzniku_'
'zaměstnanců_'
'nout_'
'mění_'
'uvádí_'
'jasně_'
'žádná_'
'še_'
'odst_'
'soutěže_'
'výrobků_'
'taková_'
'auto_'
'Všichni_'
'dává_'
'oblast_'
'jé_'
'Potom_'
'auta_'
'speciální_'
'štěstí_'
'dnech_'
'Jestliže_'
'ročně_'
'činí_'
'zadní_'
'ký_'
'našem_'
'skupina_'
'vypadá_'
'ené_'
'plné_'
'ovým_'
'pracuje_'
'2008_'
'stačí_'
'obce_'
'fakt_'
'val_'
'dnešní_'
'druhů_'
'musím_'
'rodiče_'
'lidem_'
'kdysi_'
'oni_'
'říkal_'
'Jana_'
'New_'
'ovala_'
'prezident_'
'těm_'
'obsahuje_'
'údaje_'
'každou_'
'prací_'
'oboru_'
'napětí_'
'takovou_'
'očí_'
'životního_'
'rychlost_'
'téma_'
'ín_'
'zprávy_'
'okamžiku_'
'místní_'
'27_'
'Q_'
' . . . "_'
'materiálu_'
'miliard_'
'strach_'
'strojů_'
'ul_'
'škol_'
'jejích_'
'Ti_'
'začne_'
'nejméně_'
'My_'
'Josef_'
'státy_'
'sedm_'
'ob_'
'důvod_'
'současnosti_'
'nicméně_'
'Pavel_'
'získal_'
'prvního_'
'produktů_'
'ily_'
'tví_'
'dveří_'
'Vzhledem_'
'policie_'
'těžké_'
'stavby_'
'názor_'
'Ú_'
'ejte_'
'26_'
'Německu_'
'osm_'
'český_'
'pravděpodobně_'
'světlo_'
'vysokou_'
'vzdělávání_'
'druhu_'
'ýma_'
'důsledku_'
'dřív_'
'malých_'
'ic_'
'ov_'
'film_'
'bys_'
'ců_'
'slouží_'
'postup_'
'veřejné_'
'čky_'
'Během_'
'stává_'
'čeká_'
'dosáhnout_'
'názoru_'
'čka_'
'růstu_'
'Windows_'
'škole_'
'soud_'
'ické_'
'spolupráce_'
'hlavním_'
'druhy_'
'ia_'
'žádnou_'
'celkové_'
'průměru_'
'uprostřed_'
'deseti_'
'dob_'
'ochranu_'
'druhém_'
'ohledu_'
'částí_'
'raději_'
'lidské_'
'Aby_'
'hranice_'
'doba_'
'krok_'
'cz_'
'používá_'
' ° _'
'mužů_'
'300_'
'31_'
'myslí_'
'světla_'
'Nyní_'
'musela_'
'žít_'
'úřadu_'
'polovině_'
'obyvatel_'
'řečeno_'
'čase_'
'vážně_'
'všude_'
'aly_'
'př_'
'světové_'
'podobné_'
'vědomí_'
'Jednou_'
'ředitele_'
'výzkumu_'
'ODS_'
'Jeden_'
'kol_'
'chtěla_'
'podpory_'
'iny_'
'zahraniční_'
'udělal_'
'pozici_'
'oproti_'
'základních_'
'vozu_'
'směru_'
'místech_'
'dodává_'
'měsíc_'
'vytvořit_'
'1992_'
'obecně_'
'prohlásil_'
'museli_'
'voda_'
'jiným_'
'nebyly_'
'jisté_'
'studie_'
'nejde_'
'děje_'
'jek_'
'Asi_'
'pořádku_'
'ěte_'
'zpravidla_'
'Brně_'
'zeptal_'
'přišla_'
'stane_'
'ujeme_'
'stavební_'
'odpovídá_'
'hodnotu_'
'členů_'
'představit_'
'ukazuje_'
'jednak_'
'někoho_'
'delší_'
'Ž_'
'kultury_'
'návrhu_'
'krize_'
'vztahy_'
'nost_'
'kvalitu_'
'filmu_'
'resp_'
'schopnost_'
'hrát_'
'nevím_'
'Nakonec_'
'díla_'
'ledna_'
'vychází_'
'paměti_'
'byt_'
' - - _'
'lu_'
'neměla_'
'přední_'
'novým_'
'pryč_'
'podmínkách_'
'cesta_'
'Nic_'
'áme_'
'funkcí_'
'Nový_'
'vou_'
'ících_'
'odpověď_'
'Tam_'
'výsledků_'
'ekonomické_'
'centra_'
'of_'
'přináší_'
'tentokrát_'
'svoje_'
'prvky_'
'Brno_'
'Martin_'
'ministra_'
'provoz_'
'uj_'
'milionu_'
'letošního_'
'smrt_'
'pravidla_'
'jediné_'
'jiná_'
'bohužel_'
'nejlépe_'
'vzal_'
'vlastnosti_'
'vodou_'
'kola_'
'rozhodl_'
'prodeje_'
'začít_'
'Bude_'
'Ď_'
're_'
'Ř_'
'Česku_'
'takhle_'
'produkty_'
'pohybu_'
'míru_'
'internetu_'
'vidí_'
'napsal_'
'dala_'
' ! _'
'projektů_'
'modelu_'
'fondu_'
'někteří_'
'vůz_'
'ruky_'
'začali_'
'špatně_'
'zel_'
'dostatečně_'
'rostlin_'
'Ó_'
'ii_'
'dojem_'
'strana_'
'os_'
'IV_'
'stanice_'
'příští_'
'veřejnosti_'
'2007_'
' % , _'
'vydání_'
'domě_'
'plochy_'
'tisíce_'
'Většina_'
'masa_'
'bodů_'
'*_'
'pane_'
'eur_'
'tomuto_'
' . ( _'
'Václav_'
'tým_'
'velikosti_'
'Jestli_'
'Některé_'
'třídy_'
'chcete_'
'příklad_'
'nechal_'
'nechat_'
'q_'
'tebe_'
'cího_'
'všechna_'
'nebezpečí_'
'Nové_'
'riziko_'
'- _'
'utí_'
'správy_'
'těžko_'
'nesmí_'
'vodu_'
'oblastech_'
'ot_'
'okolo_'
'nejprve_'
'investice_'
'aktivity_'
'budovy_'
'předem_'
'koncem_'
'ráda_'
'výsledek_'
'dané_'
'Tady_'
'zet_'
'podniky_'
'zajistit_'
'mluví_'
'změn_'
'režimu_'
'alo_'
'Dále_'
'slunce_'
'péči_'
'Ň_'
'jména_'
'malá_'
'výrobky_'
'duchu_'
'značně_'
'prodej_'
'On_'
'ným_'
'dvakrát_'
' . ) _'
'aci_'
'radost_'
'dopravy_'
'evropské_'
'dojde_'
'Samozřejmě_'
'Bez_'
'váš_'
'maximální_'
'potravin_'
'Přitom_'
' ! “_'
'agentury_'
'najdete_'
'látky_'
'něhož_'
'150_'
'skupin_'
'daně_'
'OS_'
'lidmi_'
'pokoje_'
'nahoru_'
'prezidenta_'
'jím_'
'druh_'
'as_'
'velkým_'
'všemi_'
'změnu_'
'Nikdy_'
'hlavě_'
'zdě_'
'náhle_'
'dostala_'
' , „ _'
'podnik_'
'zdravotnictví_'
'podnikání_'
'or_'
'29_'
'pracovníků_'
'šesti_'
'omezení_'
'práv_'
'čně_'
'nemocnice_'
'řešit_'
'zákazníků_'
'evropských_'
'takových_'
'objemu_'
'vých_'
'většinu_'
'rokem_'
'OH_'
'Ať_'
'verzi_'
'ministerstvo_'
'čtyř_'
'rozpočtu_'
'třech_'
'Karel_'
'Vždyť_'
'hnutí_'
'zůstal_'
'ovu_'
'ochrany_'
'Ť_'
'měření_'
'nedávno_'
'Snad_'
'hodinu_'
'mou_'
'Se_'
'rozvoje_'
'října_'
'Pod_'
'chvíle_'
'zej_'
'budoucnosti_'
'typy_'
'bezpečnosti_'
'Kde_'
'května_'
'leží_'
'dodal_'
'původně_'
'nebudou_'
'hledat_'
'jte_'
'nástroje_'
'Zoe_'
'Zde_'
'hraje_'
'chtěli_'
'oblastí_'
'nabídky_'
'Naopak_'
'2006_'
'sis_'
'zeť_'
'SK_'
'potřebuje_'
'ovali_'
'sociálních_'
'chybí_'
'června_'
'Velké_'
'2004_'
'materiál_'
'objevil_'
'nastavení_'
'dalšího_'
'zásadní_'
'žije_'
'válce_'
'kterými_'
'sv_'
'hospodářství_'
'abyste_'
'moře_'
'ří_'
'rádi_'
'kilometrů_'
'NA_'
'zvlášť_'
'řádu_'
'bílé_'
'materiálů_'
'vrátit_'
'veškeré_'
'funguje_'
'středu_'
'skou_'
'Oba_'
'názvem_'
'druhá_'
'rozsahu_'
'55_'
'společné_'
'údajů_'
'správně_'
'starý_'
'modely_'
'počítače_'
'kus_'
'dílo_'
'metody_'
'jednotky_'
'týká_'
'objem_'
'zástupce_'
'televize_'
'formou_'
'vozidla_'
'jinou_'
'cíle_'
'týmu_'
'Lidé_'
'finančních_'
'praxe_'
'následně_'
'nutno_'
'financí_'
'následující_'
'chci_'
'1990_'
'dubna_'
'mírně_'
'černé_'
'běžné_'
'dobrou_'
'vozidel_'
'případů_'
'působení_'
'kategorie_'
'Bůh_'
'stejný_'
'úspěch_'
'hodnota_'
'dostane_'
'vztahů_'
'1993_'
'náměstí_'
'souladu_'
'kterému_'
'jménem_'
'1991_'
'ímu_'
'vyžaduje_'
'prsty_'
' -_'
'Někdy_'
'úřad_'
'ít_'
'ev_'
'projekty_'
'povrchu_'
'síť_'
'nejčastěji_'
'hotelu_'
'výběr_'
'změnit_'
'umí_'
'formy_'
'dí_'
'slovy_'
'vést_'
'zdálo_'
'jinde_'
'zajištění_'
'Naše_'
'využívá_'
'set_'
'motoru_'
'jednoduché_'
'sta_'
'dítěte_'
'organizací_'
'formě_'
'relativně_'
'snažil_'
'zní_'
'plán_'
'motor_'
'pracovních_'
'výrobě_'
'probíhá_'
'pozice_'
'německé_'
'SL_'
'Pan_'
'název_'
'sotva_'
'americké_'
'odpoledne_'
'platit_'
'dalo_'
'látek_'
'aktivní_'
'dovnitř_'
'rychlosti_'
'Zatím_'
'zl_'
'stroj_'
'bytu_'
'pana_'
'používat_'
'hu_'
'SV_'
'západní_'
'Místo_'
'akcií_'
'SN_'
'mysli_'
'Nikdo_'
'každá_'
'otce_'
'Přestože_'
'stůl_'
'OU_'
'poskytuje_'
'svazu_'
'zdi_'
'technické_'
'line_'
'počasí_'
'podstatně_'
'školství_'
'vlastním_'
'přestože_'
' "_'
'stránky_'
'správné_'
'SF_'
'lehce_'
'vzít_'
'nutí_'
'vyplývá_'
'dalšími_'
'Vy_'
'okamžik_'
'schopen_'
'republika_'
'povinnost_'
'převážně_'
' . ) ._'
'vlastních_'
'čímž_'
'dopravní_'
'vysoce_'
'vozů_'
'uji_'
'obsahu_'
'2005_'
'čele_'
'Již_'
'kulturní_'
'aktuální_'
'400_'
'chuť_'
'top_'
'zahraničních_'
'tlak_'
'dno_'
'touto_'
'sledovat_'
'něž_'
'zajímavé_'
'textu_'
'reakce_'
'Škoda_'
'vína_'
'aj_'
'tváře_'
'nechce_'
'por_'
'letošní_'
'Nicméně_'
'pokračovat_'
'Jedná_'
'hranici_'
'východní_'
'Hlavní_'
'Všechno_'
'nachází_'
'našel_'
'2014_'
'75_'
'mí_'
'začaly_'
'financování_'
'tradiční_'
'začalo_'
'1989_'
'» _'
'32_'
'českém_'
'barvy_'
'silně_'
'Ke_'
'át_'
'nějaká_'
'dopis_'
'drží_'
'března_'
'přání_'
'jakým_'
'minimální_'
'TV_'
'společného_'
'ód_'
'pravidelně_'
'systémem_'
'IT_'
'rizika_'
'roste_'
'částečně_'
'teorie_'
'aplikací_'
'musíte_'
'komory_'
'příběh_'
'Vedle_'
'cký_'
'pozitivní_'
' … _'
'ána_'
'těsně_'
'přichází_'
'Tohle_'
'vysoký_'
'mnohé_'
'pohyb_'
'zaměstnanci_'
'produkci_'
'rukama_'
'neměli_'
'duše_'
'jedinou_'
'tok_'
'ustanovení_'
'úkol_'
'vysoká_'
'slyšet_'
'způsobu_'
'časem_'
'parlamentu_'
'Jakmile_'
'telefon_'
'natolik_'
'pokles_'
'ovo_'
'plánu_'
'spočívá_'
'veřejných_'
'ované_'
'ační_'
'výrobní_'
'ěl_'
'banka_'
'sílu_'
'lí_'
'zlepšení_'
'kanceláře_'
'Zároveň_'
'klidně_'
'myšlenky_'
'ány_'
'The_'
'ut_'
'programy_'
'vlastního_'
'2001_'
'zůstat_'
'zřejmé_'
'ším_'
'ením_'
'čísla_'
'obchod_'
'su_'
'historii_'
'komunikaci_'
'obcí_'
'měst_'
'OSN_'
'250_'
'myšlení_'
'vytvoření_'
'fázi_'
'nedá_'
'cíl_'
'nemám_'
'Ovšem_'
'objeví_'
'tisku_'
'vyšetření_'
'potřebné_'
'šanci_'
'schopnosti_'
'výzkum_'
'dokázal_'
'fotografie_'
'zástupci_'
'Nová_'
'úpravy_'
'automaticky_'
'minimálně_'
'příležitost_'
'krátce_'
'rozšíření_'
'vo_'
'vývoji_'
'chceme_'
'pokoji_'
'ode_'
'prvků_'
'Francie_'
'Poslední_'
'zákazníky_'
'ses_'
'nikoliv_'
'neví_'
'aplikaci_'
'IP_'
'pražské_'
'OK_'
'aut_'
'zvuk_'
'obchodních_'
'zemědělských_'
'ekonomiky_'
'ja_'
'klubu_'
'cítil_'
'budoucí_'
'výboru_'
'Měla_'
'rovnou_'
'nemohou_'
'2003_'
'zvyšuje_'
'Sn_'
' " ( _'
'zaměstnání_'
'svá_'
'stejnou_'
'hodnot_'
'tel_'
'ět_'
'Tomáš_'
'píše_'
'firmě_'
'prof_'
'nejvíc_'
'existují_'
'častěji_'
'ženu_'
'malou_'
'dr_'
'nohou_'
'výběru_'
'většině_'
'podzim_'
'činností_'
'text_'
'ostatně_'
'ústavu_'
'ovládání_'
'1994_'
'dostali_'
'programů_'
'považuje_'
'miliónů_'
' • _'
'vítězství_'
'nosti_'
'obrazu_'
'cosi_'
'závěru_'
'Největší_'
'spoustu_'
'Slovensku_'
'vysvětluje_'
'Může_'
'používají_'
'kroky_'
'pevně_'
'ohledem_'
'dobrá_'
'2002_'
'ulice_'
'velkého_'
'horní_'
' ) . _'
'maso_'
'odborné_'
'ukázal_'
'liší_'
'pohybuje_'
'akci_'
'tudíž_'
'volby_'
'nabídku_'
'stará_'
'stála_'
'vybavení_'
'kého_'
'tváří_'
'mld_'
'ěn_'
'autor_'
'mých_'
'vzdělání_'
'Základní_'
'áš_'
'horší_'
'dodnes_'
'jednat_'
'pravé_'
'hlavních_'
'zkušeností_'
'ar_'
'pacienta_'
'Někteří_'
'ýc_'
'Třeba_'
'hmotnost_'
' — _'
'šla_'
'podívat_'
'vzduch_'
'kousek_'
'materiály_'
'značné_'
'trvá_'
'stranou_'
'sdružení_'
'léčby_'
'koně_'
'posledním_'
'čku_'
'konference_'
'áte_'
'máš_'
'• _'
'příležitosti_'
'NÍ_'
'poli_'
'vu_'
'tem_'
'podpora_'
'tiše_'
'ad_'
'Národní_'
'dali_'
'tní_'
'porovnání_'
'srpna_'
'kách_'
'výrobců_'
'denní_'
'centrum_'
'syn_'
'energii_'
'výjimkou_'
'dlouhou_'
'pracoval_'
'normální_'
'úsilí_'
'občanů_'
'změna_'
'silné_'
'ZD_'
'několikrát_'
'dlouhodobě_'
'určitou_'
'Avšak_'
'nější_'
'Velmi_'
'minulého_'
'nárůst_'
'vzniká_'
'Cena_'
'kategorii_'
'názory_'
'čekat_'
'seděl_'
'lékař_'
'knih_'
'údajně_'
'ZŠ_'
'tvaru_'
'jazyk_'
'míře_'
'čemu_'
'plynu_'
'ena_'
'těmi_'
'členy_'
'zjistit_'
'způsoby_'
'výroba_'
'budoucnost_'
'člověku_'
'vnější_'
'mladých_'
'očích_'
'sobotu_'
'Německa_'
'končí_'
'Marie_'
'USB_'
'dojít_'
'smlouvu_'
'cizí_'
'ihned_'
'přístupu_'
'výraz_'
'jednoznačně_'
'umožní_'
'jdou_'
'získala_'
'přijít_'
'odpověděl_'
'vozy_'
'starých_'
'šéf_'
'pečlivě_'
'známé_'
'nejspíš_'
'skupině_'
'Máme_'
'bezpečnost_'
'ován_'
'osobně_'
'oběma_'
'teploty_'
'polovinu_'
'července_'
'pozdě_'
'státního_'
'paliva_'
'chtít_'
'prosím_'
'nemohla_'
'jo_'
'strategie_'
'televizní_'
'jednoduše_'
'obličej_'
'krev_'
'plnění_'
'vodě_'
'věnovat_'
'myslel_'
'nejdříve_'
'vedl_'
'Čechách_'
'Teprve_'
'John_'
'pochopitelně_'
'zdroj_'
'jestliže_'
'vodní_'
'změně_'
'odkud_'
'jediná_'
'krve_'
'televizi_'
'ený_'
'úrovně_'
'Přes_'
'ZV_'
'cká_'
'cca_'
'tmo_'
'vydal_'
'OV_'
'jinými_'
'kampaň_'
'zbytek_'
'inu_'
'reklamy_'
'lékaře_'
'pohledem_'
' [ _'
'kontroly_'
'Dokonce_'
'řeči_'
'povinnosti_'
'bu_'
'lásky_'
'listy_'
'úvahu_'
'vznikla_'
'prospěch_'
'lékaři_'
'využívat_'
'ží_'
'samo_'
'patrně_'
'agentura_'
'náhodou_'
'poloviny_'
'ková_'
'hod_'
'půdě_'
'viděla_'
'vytváří_'
'krku_'
'zdarma_'
'sen_'
'Čím_'
'dohromady_'
'existence_'
'ztráty_'
'vstupu_'
'stylu_'
'informační_'
'kých_'
'ŽP_'
'ál_'
'body_'
'původu_'
'onu_'
'historie_'
'nějakého_'
'firmu_'
'knihu_'
'dělal_'
'zuby_'
'česká_'
'generální_'
'stěny_'
'vším_'
'řekne_'
'1995_'
'třicet_'
'tepla_'
'produkt_'
'zaměstnance_'
'žil_'
'neděli_'
'ském_'
'aný_'
'zvýšit_'
'venku_'
'doslova_'
'budeš_'
'Zn_'
'IX_'
'problému_'
'zůstala_'
'instituce_'
'události_'
'označení_'
'politických_'
'závislosti_'
'majetek_'
'nízké_'
'souvisí_'
'představují_'
'kontrolu_'
'čeho_'
'dohody_'
'sítí_'
'kůže_'
'lidských_'
'dotace_'
'120_'
'poměr_'
'mluvčí_'
'hmotnosti_'
'Firma_'
'kraje_'
'oleje_'
'zdaleka_'
'vysokých_'
'psát_'
'koupit_'
'zákonem_'
'starosti_'
'Don_'
'zákoníku_'
'm2_'
'výrobci_'
'třemi_'
'dostatek_'
'bank_'
'koho_'
'David_'
'zahrnuje_'
'ená_'
'nechtěl_'
'článku_'
'velikost_'
'jaká_'
'skupinu_'
'and_'
' . . _'
'mohu_'
'očekávat_'
'noční_'
'okolností_'
'počítač_'
'přednost_'
'Státní_'
'týdnů_'
'státních_'
'Francii_'
'Než_'
'musejí_'
'maximálně_'
'letošním_'
'většiny_'
'tlaku_'
'otevřel_'
'Více_'
'Jedním_'
'áni_'
'podíval_'
'typů_'
'létě_'
'Německo_'
'Tu_'
'   _'
'podání_'
'fond_'
'poznání_'
'nt_'
'am_'
'plný_'
'mj_'
'devět_'
'učení_'
'íce_'
'Řekl_'
'tý_'
'týdny_'
'Jaké_'
'společenství_'
'rostliny_'
'prosince_'
'Lze_'
'krát_'
'významné_'
'charakter_'
'rodina_'
'čekal_'
'službu_'
'osoba_'
'státech_'
'konferenci_'
'MS_'
'úspěšně_'
'matky_'
'nikoho_'
'kvalita_'
'vzhůru_'
'členové_'
'předchozí_'
'potíže_'
'Člověk_'
'uvedené_'
'František_'
'  ._'
'udržet_'
'desky_'
'armády_'
'kami_'
'dosažení_'
'sektoru_'
'pozor_'
'pěkně_'
'pojetí_'
'mnohdy_'
'schopni_'
'vidím_'
'jediným_'
'zisk_'
'sedí_'
'podél_'
'nedostatek_'
'února_'
'dětmi_'
'ideální_'
'veřejnost_'
'karty_'
'role_'
'telefonu_'
'1997_'
'neb_'
'předpisů_'
'Jsme_'
'noviny_'
'zprávu_'
'im_'
'rozhodování_'
'připojení_'
'vstup_'
'mobilní_'
'druhým_'
'prohlášení_'
'ovoce_'
'nem_'
'Doc_'
'uživatelů_'
'Podobně_'
'ném_'
'rychlostí_'
'ici_'
'bezpečnostní_'
'centrální_'
'takovém_'
'orgány_'
'zvířata_'
'slyšel_'
'procesů_'
'hl_'
'dveřmi_'
'pěstování_'
'tenkrát_'
'ějším_'
'pa_'
'Jinak_'
'Čech_'
'hlavního_'
'600_'
'účast_'
'řeč_'
'přišli_'
'uspořádání_'
'íci_'
'desítky_'
'zí_'
'rána_'
'65_'
'Spojených_'
'rozhovoru_'
'mladé_'
'dlouhá_'
'běžně_'
'jakoby_'
'bolest_'
'negativní_'
'zastavil_'
'roční_'
'tů_'
'veřejného_'
'zůstane_'
'klidu_'
'hovoří_'
'ročníku_'
'spotřeby_'
'boj_'
'modelů_'
'počítá_'
'regionu_'
'sa_'
'cest_'
'zajišťuje_'
'áno_'
'mo_'
'poměru_'
'36_'
'hodnotě_'
'vybrat_'
'nástroj_'
'jakož_'
'sledování_'
'klientů_'
'ováním_'
'Nevím_'
'politika_'
'vládní_'
'zavedení_'
'efekt_'
'hudby_'
'aná_'
'Oe_'
'loňského_'
'zjistil_'
'Jaroslav_'
'používání_'
'kým_'
'Chtěl_'
'KU_'
'bolesti_'
'hospodářské_'
'zpráva_'
'Poté_'
'krátké_'
'dokonale_'
'nástrojů_'
'vní_'
'divadla_'
'Cílem_'
'1999_'
'Země_'
'SE_'
'ostatními_'
'orgánů_'
'nezbytné_'
'hledání_'
'odešel_'
'tvar_'
'odvětví_'
'široké_'
'jednotek_'
'Dalším_'
'závěr_'
'ed_'
'padesát_'
'1000_'
'centru_'
'parametry_'
'spotřeba_'
'znění_'
'poškození_'
'toč_'
' - , _'
'škola_'
'požadavků_'
'kolo_'
'her_'
'rty_'
'sportovní_'
'vždyť_'
'nabídce_'
'provést_'
'Petra_'
'beze_'
'víme_'
'největším_'
'kraji_'
'kombinaci_'
'ií_'
'rodičů_'
'vaší_'
'přírody_'
'pravidel_'
'ník_'
'otázkou_'
'stovky_'
'rozdíly_'
'postele_'
'kole_'
'Často_'
'ng_'
'snížit_'
'dole_'
'operace_'
'ml_'
'zkušenost_'
'dosavadní_'
'nice_'
'zákony_'
'rozhodla_'
'papíru_'
'Můj_'
'příjmů_'
'nimiž_'
'víte_'
'těmto_'
'struktury_'
'tol_'
'lé_'
'chodí_'
'výkonem_'
'věděla_'
'napadlo_'
'III_'
'list_'
'vysvětlit_'
'záleží_'
'" _'
'přímé_'
'aktivit_'
'dětem_'
'nároky_'
'řidiče_'
'hudební_'
'ává_'
'jest_'
'obavy_'
'naděje_'
'fondů_'
'bod_'
'snadné_'
'kusů_'
'studia_'
'UK_'
'tož_'
'zvedl_'
'blízko_'
'man_'
'hlava_'
'přijetí_'
'problémem_'
'měsících_'
'vznik_'
'yl_'
'vlastnictví_'
'uvedených_'
'půjde_'
'nařízení_'
'myslet_'
'stránkách_'
'kniha_'
'Vladimír_'
'lékařů_'
'vrátí_'
'samotné_'
'rů_'
'osud_'
'mladý_'
'op_'
'vod_'
'OÚ_'
'pozadí_'
'Byli_'
'špatné_'
'lodi_'
'cítí_'
'jenže_'
'Český_'
'navzájem_'
'výhradně_'
'abys_'
'ckých_'
'proudu_'
'veletrhu_'
'akcí_'
'ších_'
'člen_'
'jakmile_'
'kové_'
'Nad_'
'najevo_'
'vítr_'
'tenhle_'
'totéž_'
'případy_'
'počítat_'
'povrch_'
'bo_'
'nevěděl_'
'rada_'
'pořádně_'
'spojené_'
'dosáhl_'
'čtení_'
'toň_'
'/ _'
'cem_'
'minulý_'
'rychlé_'
'dosahuje_'
'DOS_'
'včas_'
'záležitost_'
'33_'
'jaře_'
'ticho_'
'seznam_'
'1996_'
'řeky_'
'povolení_'
'déle_'
'hrozí_'
'knize_'
'standardní_'
'populace_'
'rodině_'
'univerzity_'
'dají_'
'b'
'novém_'
'znát_'
'zelené_'
'nebyli_'
'přítomnost_'
'vzadu_'
'neexistuje_'
'vel_'
'ovaly_'
'odpovídající_'
'akcie_'
'pokračuje_'
' . ._'
'1998_'
'Jedna_'
'vámi_'
'vala_'
'silný_'
'nce_'
'odborníků_'
'investic_'
'školní_'
'vyšel_'
'uplatnění_'
'vůle_'
'nejsem_'
'dech_'
'tváři_'
'soubor_'
'významně_'
' ) :_'
'stromy_'
'IQ_'
'zájmy_'
'světle_'
'ujte_'
'dě_'
'různými_'
'výhody_'
'KB_'
'fáze_'
'jiném_'
'měnit_'
'šaty_'
'sedmi_'
'základ_'
' , « _'
'koní_'
'děl_'
'respektive_'
'Bohužel_'
'parku_'
'snižuje_'
'ýho_'
'pomáhá_'
'kuchyně_'
'LN_'
'Tehdy_'
'režim_'
'Kdy_'
'mluvil_'
'klasické_'
'nabídka_'
'pátek_'
'Stále_'
'GB_'
'pokračoval_'
'zemřel_'
'ceně_'
'dlouhý_'
'chodit_'
'jídlo_'
'osobních_'
'spodní_'
'týdne_'
'zákonů_'
'ač_'
'hmoty_'
'kteře_'
'tržní_'
'výsledkem_'
' ) ;_'
'CD_'
'ši_'
'Ministerstvo_'
'řad_'
'Něco_'
'bodu_'
'odpovědi_'
'analýzy_'
'ono_'
'soutěž_'
'nabídnout_'
'po'
'objevila_'
'vlivem_'
'05_'
'stupně_'
'mladší_'
'Tedy_'
'podporuje_'
'síla_'
'jímž_'
'úspěchu_'
'jazyka_'
'vnitra_'
'postupy_'
'lní_'
'mozku_'
'nabízejí_'
'litrů_'
'lem_'
'jistý_'
'polovina_'
'osobnosti_'
'umožňují_'
'ol_'
'titul_'
'amerických_'
'pracovního_'
'nese_'
'láska_'
'principu_'
'připomíná_'
'domy_'
'rozlišení_'
' » _'
'postupu_'
'dělají_'
'viděli_'
'obchodního_'
'aných_'
'realizaci_'
'procesy_'
'ploch_'
'sku_'
'VŠE_'
'Evropská_'
'neviděl_'
'nemoci_'
'sí_'
'pondělí_'
'úřady_'
'jících_'
'znám_'
'číst_'
'využívají_'
'uživatele_'
'Dor_'
'miliony_'
'díval_'
'ama_'
'hy_'
'hra_'
'Aleš_'
'zná_'
'ela_'
'Systém_'
'očekávání_'
'řídí_'
'dětství_'
'vynikající_'
'dvaceti_'
'škody_'
'KV_'
'jízdy_'
'manželství_'
'považovat_'
'cukru_'
'znalosti_'
'víš_'
'nahoře_'
'motory_'
'budov_'
'pokoj_'
'tajemství_'
'využívání_'
'krásné_'
'loď_'
'takovým_'
'kůži_'
'dění_'
'žáků_'
'obrazy_'
'dopředu_'
'vlny_'
'těle_'
'víno_'
'Byly_'
'Hned_'
'součást_'
'vznikl_'
'rozdělení_'
'řídit_'
'dobou_'
'kům_'
'někam_'
'silnici_'
'pře_'
'spousta_'
'zkrátka_'
'stránce_'
'článek_'
'významu_'
'tis_'
'kombinace_'
'kampaně_'
'Němci_'
'osmi_'
'technologii_'
'zákazníka_'
'rozsah_'
'pracují_'
'Dva_'
'bývají_'
'Proti_'
'takřka_'
'brát_'
'Tři_'
'vzájemně_'
'volně_'
'dřeva_'
' . . . " _'
'pochází_'
'pořadí_'
'Určitě_'
'nákup_'
'týkající_'
'sky_'
'přede_'
'ČSFR_'
'klid_'
'politiku_'
'těmito_'
'Zdá_'
'normy_'
'úst_'
'důležitá_'
'skončil_'
'investiční_'
'Náš_'
'posteli_'
'potřebu_'
'hospodaření_'
'rychleji_'
'dně_'
'objektu_'
'vedou_'
'odpovědnost_'
'yho_'
'HD_'
'bývalého_'
'hru_'
'členem_'
'Jo_'
'jižní_'
'ický_'
'trhy_'
'vězení_'
'individuální_'
'přehled_'
'styl_'
'jimi_'
'rem_'
'zasedání_'
'eho_'
'rostoucí_'
'průmysl_'
'závisí_'
'předpokládá_'
'jiní_'
'průběh_'
'vyjádření_'
'odpor_'
'kdybych_'
'zabývá_'
'vého_'
'CZ_'
'h'
'vlastností_'
'stanovení_'
'zad_'
'třídě_'
'42_'
'působil_'
'bytě_'
'– _'
'konstrukcí_'
'era_'
'řád_'
'zítra_'
'Jenom_'
'návratu_'
'zatížení_'
'provádí_'
'cky_'
'zabezpečení_'
'pokus_'
'Obě_'
'čistě_'
'85_'
'ícím_'
'podaří_'
'jedině_'
'elektrické_'
'důvody_'
'nemocnici_'
'boje_'
'známý_'
'ějších_'
'skotu_'
'produktu_'
'Paní_'
'lidského_'
'Zdeněk_'
'kl_'
'loňském_'
'95_'
'postoj_'
'nebe_'
'národního_'
'mnozí_'
'optimální_'
'34_'
'dog_'
'média_'
'časopisu_'
'digitální_'
'proud_'
'vek_'
'plyn_'
'organizaci_'
'řeší_'
'šli_'
'nemocných_'
'Vše_'
'starého_'
'trend_'
'om_'
' ! “ _'
'papír_'
'bývalý_'
'přístroje_'
'hodí_'
'brambor_'
'bývalé_'
'funkční_'
'prudce_'
'budoucnu_'
'lžíce_'
'Kr_'
'vysílání_'
'syna_'
'rozměry_'
'představení_'
'účely_'
'MUDr_'
'svobody_'
'ovými_'
'znamenalo_'
'komplexní_'
'nápad_'
'doporučení_'
'skutečné_'
'ačkoli_'
'lesa_'
'ckého_'
'Ir_'
'pomůže_'
'nákupu_'
'automobilů_'
'účasti_'
'studií_'
'koncepce_'
'38_'
'stopy_'
'nebi_'
'zdrojem_'
'potřebují_'
'hektarů_'
'48_'
'ge_'
'Druhý_'
'mým_'
'složení_'
'pes_'
'čních_'
'lá_'
'klienty_'
'Celý_'
'hledá_'
'efektivní_'
'stanoví_'
'držel_'
'ukázalo_'
'kompletní_'
'majitel_'
'obsahem_'
'školu_'
'otočil_'
'vůli_'
'nými_'
'diskuse_'
'neboli_'
'vysokým_'
'událostí_'
'známo_'
'samy_'
'určitý_'
'plnou_'
'institucí_'
'vzala_'
'pocity_'
'potřeb_'
'uo_'
'nejdřív_'
'znamení_'
'Jack_'
'existenci_'
'vašeho_'
'říkala_'
'pochopit_'
'ským_'
'tvorby_'
'potenciál_'
'tvrzení_'
'adresu_'
'37_'
'zapotřebí_'
'obrovské_'
'Musí_'
'kapsy_'
'buněk_'
'kter_'
'sestra_'
'nejdůležitější_'
'vyšších_'
'důsledky_'
'rodinu_'
'nikde_'
'následujících_'
'CE_'
'hlasem_'
'sy_'
'půdu_'
'divadlo_'
'staveb_'
'Slovensko_'
'vzdálenosti_'
'Alex_'
'pojišťovny_'
'ana_'
'kvalitě_'
'pr'
' % ) _'
'vojenské_'
'chvilku_'
'připravit_'
' . :_'
'odtud_'
'patnáct_'
'utkání_'
'Máte_'
'up_'
'spotřebu_'
'břehu_'
'testu_'
'představenstva_'
'příštího_'
'silou_'
'stavebních_'
'Evropa_'
'ář_'
'ukončení_'
'vrátila_'
'ony_'
'začínají_'
'vrací_'
'největších_'
' .  _'
'uvědomil_'
'malého_'
'týdnu_'
'blízkosti_'
'zemědělci_'
'zády_'
'stromů_'
'silnice_'
'ovalo_'
'· _'
'říkám_'
'Id_'
'rozhraní_'
' . ) , _'
'ající_'
'představu_'
'800_'
'postavit_'
'Chci_'
'rozhodnout_'
'studentů_'
'přírodní_'
'vedla_'
'čin_'
'účelem_'
'neznamená_'
'výšky_'
'Musím_'
'Iv_'
'ostatním_'
'di_'
'cítit_'
'formu_'
'ochraně_'
'vědy_'
'provozní_'
'podobu_'
'okno_'
'obrany_'
'vrstvy_'
'snaha_'
'seznamu_'
'situací_'
'KA_'
'plány_'
'konkurence_'
'Americe_'
'Jistě_'
'jakési_'
'stranách_'
'ročník_'
'českou_'
'středních_'
'novin_'
'dneska_'
'mléko_'
'nějakým_'
'stole_'
'informaci_'
'stejném_'
'lednu_'
'Rady_'
'žijí_'
'zeptala_'
'severní_'
'získání_'
'pivo_'
'nesmírně_'
'mém_'
'večeři_'
'ae_'
'dostává_'
'ární_'
'očekává_'
'umístění_'
'cvičení_'
'průzkumu_'
'Konečně_'
'psal_'
'termín_'
'Miroslav_'
'jse_'
'technika_'
'nohama_'
'červené_'
'Milan_'
'Yorku_'
'žádost_'
'pokaždé_'
'soukromé_'
'Letos_'
'uvedla_'
'pojem_'
'ovém_'
'bydlení_'
'Group_'
'konstrukci_'
'ovány_'
'bázi_'
'US_'
'objektů_'
'síti_'
'nutně_'
'záření_'
'svědčí_'
'tá_'
'energetické_'
'rozhodující_'
'profesor_'
'spát_'
'účinnosti_'
'otázek_'
'určit_'
'jistotu_'
'stávající_'
'velkém_'
'dou_'
'samé_'
'opatrně_'
'rohu_'
'řešením_'
'poklesu_'
'příjmy_'
'předpisy_'
'oficiální_'
') _'
'privatizace_'
'krokem_'
'dějin_'
' , - _'
'tebou_'
'prasat_'
'chovu_'
'celek_'
'sir_'
'jet_'
'reklamní_'
'nímž_'
'Itálie_'
'značek_'
'technických_'
'zbraní_'
'oblečení_'
'připadá_'
'mimořádně_'
'sloužit_'
'médií_'
'pán_'
'pero_'
'faktory_'
'příslušné_'
'zjištění_'
'Ev_'
'aní_'
'Moje_'
'Českou_'
'vyrábí_'
'dosti_'
'naději_'
'Můžete_'
'přinesl_'
'zákazníkům_'
'služba_'
'dovolit_'
'ocenění_'
'buňky_'
'najde_'
'zi_'
'účinky_'
'každému_'
'vedením_'
'zahájení_'
'tobě_'
'nepochybně_'
'návrhy_'
'manažer_'
'vypadal_'
'rameny_'
'Max_'
'éh_'
'otevřené_'
'Tuto_'
'předsedy_'
'elektřiny_'
'říkat_'
'Michal_'
'uhlí_'
'kukuřice_'
'žádosti_'
'ež_'
'Rusku_'
'Británii_'
'ními_'
'zal_'
'určitých_'
'desítek_'
'větších_'
' × _'
'členských_'
'provádět_'
'prodeji_'
'metod_'
'Každá_'
'pobřeží_'
'důležitý_'
'zachování_'
' ’ _'
'nemáme_'
'literární_'
'ploše_'
'pří_'
'terénu_'
'případné_'
'firmou_'
'hor_'
'složky_'
'účinnost_'
'důraz_'
'be_'
'činu_'
'vládě_'
'Británie_'
'větším_'
'uvést_'
'plánování_'
'tradice_'
'tuhle_'
'ea_'
'ěm_'
'Robert_'
'rozhovor_'
'dívka_'
'přišlo_'
'sin_'
'Ona_'
'odmítl_'
'nit_'
'přítomnosti_'
'bytů_'
'Znovu_'
'obchodů_'
'večera_'
'válka_'
'politice_'
'odrůd_'
'kuchyni_'
'výstavy_'
'tlačítko_'
'finále_'
'připravuje_'
'Měli_'
'demokracie_'
'princip_'
'nemůžeme_'
'motorů_'
'strašně_'
'zisku_'
'zrušení_'
'poskytnout_'
'sic_'
'regionální_'
'nárok_'
'málem_'
'volné_'
'držet_'
'mus_'
'vým_'
'přijmout_'
'duši_'
'literatury_'
'jejímž_'
'Především_'
'smlouva_'
'jimž_'
'pacient_'
'ována_'
'terapie_'
'předmětem_'
'říkají_'
'výsledku_'
'léky_'
'třetím_'
'celkového_'
'úkoly_'
'ická_'
'drobné_'
'stanic_'
'hrál_'
'zaplatit_'
'Součástí_'
'zabránit_'
'ďte_'
'Velká_'
'čili_'
'odrůdy_'
'tisk_'
'PR_'
'ústa_'
'věřit_'
'shromáždění_'
'ženou_'
'americký_'
'rozvoji_'
'Mezinárodní_'
'ukázat_'
'PC_'
'projevuje_'
'klienta_'
'staly_'
'teplo_'
'přesvědčení_'
'léčbě_'
'boku_'
'psaní_'
'obrátil_'
'dvanáct_'
'prostory_'
'vědí_'
'místních_'
' “_'
'volbách_'
'příjem_'
'jíž_'
'Google_'
'piva_'
'barev_'
'jeví_'
'rozhodli_'
'zákazník_'
'ž'
'Boha_'
'fungovat_'
'44_'
'oznámil_'
'žádném_'
'pobytu_'
'vzájemné_'
'Což_'
'souboru_'
'nos_'
'DPH_'
'nul_'
'čtvrtletí_'
'servis_'
'Ostatně_'
'hudba_'
'displej_'
'bratr_'
'správní_'
'boty_'
'iti_'
'design_'
'Stačí_'
'areálu_'
'vhodný_'
'ukazují_'
'ických_'
'pšenice_'
'každým_'
'listů_'
'Dobře_'
'charakteru_'
'základním_'
'sůl_'
'modré_'
'pouhých_'
'mistrovství_'
'ovací_'
'příštím_'
'energií_'
'skončila_'
'ue_'
'účet_'
'pot_'
'cenou_'
'Václava_'
'německých_'
'DVD_'
'přirozeně_'
'Zákon_'
'stupeň_'
'Rusko_'
'jakékoli_'
'chyby_'
'Muž_'
'ňuje_'
'vypadat_'
'nechci_'
'obtížné_'
'dl_'
'znal_'
'vejce_'
'Jaký_'
'sdělení_'
'povinností_'
'Děti_'
'širší_'
'téhle_'
'hrozně_'
'Počet_'
'znamenat_'
'staví_'
'posledního_'
'školách_'
'podobný_'
'městech_'
'udělá_'
'nejbližší_'
'některá_'
'trvale_'
'filmů_'
'př'
'Nebylo_'
'ňa_'
'jeme_'
'určené_'
'Foto_'
'postavil_'
'ČEZ_'
'kám_'
'částky_'
'zákazníci_'
'ca_'
'směr_'
'doktor_'
' … “_'
'globální_'
'životu_'
'společenské_'
'něčím_'
'ODA_'
'ovaný_'
'federace_'
'praktické_'
'konkrétně_'
'ícího_'
'Vždycky_'
'nemohli_'
'vysvětlení_'
'čtyřicet_'
'so_'
'Dr_'
'teplota_'
'přípravy_'
'věnuje_'
'Vím_'
'ených_'
'pevné_'
'profesionální_'
'pracovníci_'
'podezření_'
'Takové_'
'LED_'
'budoucna_'
'minulých_'
'stavbu_'
'úsměv_'
'hle_'
'zemědělců_'
'dílů_'
'úprava_'
'Kolik_'
'íky_'
'vlivu_'
'krizi_'
'objevují_'
'povolání_'
'regulace_'
'slovenské_'
'přesvědčen_'
'sdělil_'
'premiér_'
' '
'St_'
'dávky_'
'daří_'
'metoda_'
'Výsledky_'
'dla_'
'č'
'přípravě_'
'boji_'
'potraviny_'
'odpovědnosti_'
'92_'
'mínění_'
'zpráv_'
'poznal_'
'oko_'
'právních_'
'dveřím_'
'městské_'
'hlasy_'
'forma_'
'založení_'
'podílu_'
'motorem_'
'ner_'
'operační_'
'vají_'
'důvodem_'
'věk_'
'autorů_'
'nádraží_'
'zimě_'
'stejným_'
'filmy_'
'přípravu_'
'chceš_'
'takt_'
'našli_'
'Jeno_'
'dcera_'
'udělala_'
'ztratil_'
'současných_'
'maminka_'
'internet_'
'chystá_'
'dostalo_'
'proc_'
'dodávky_'
'oka_'
'rameno_'
'počítači_'
'starších_'
'církve_'
'úsměvem_'
'disk_'
'vysoko_'
'muselo_'
'amerického_'
'věří_'
'kB_'
'realizace_'
'zastavit_'
'příčinou_'
'menších_'
'okraji_'
'dívky_'
'výdaje_'
'vytváření_'
'muzea_'
'nemovitostí_'
'software_'
'ME_'
'c'
'zu_'
'zbytečně_'
'začnou_'
'poskytování_'
'díl_'
'úkolem_'
'zabývat_'
'kámen_'
'ochrana_'
'požadavek_'
'Tomu_'
'dávají_'
'myšlenka_'
'rá_'
'léčba_'
'tvůj_'
'daní_'
'jindy_'
'vesmíru_'
'nejmenší_'
'skla_'
'údolí_'
'představy_'
'mez_'
'překvapení_'
'tradičně_'
'plochu_'
'ey_'
'Srí_'
'výrobních_'
'případu_'
'určení_'
'unii_'
'voleb_'
'brání_'
'nebudu_'
'ik_'
'čtvrtek_'
'okruhu_'
'Musíme_'
'au_'
'dokumenty_'
'partnery_'
'postavy_'
'tvorbu_'
'spánku_'
'the_'
'levé_'
'účastníků_'
'domácích_'
'sestry_'
'přesné_'
'stálo_'
'obličeje_'
'navzdory_'
'přírodě_'
'počtem_'
'zastoupení_'
'závod_'
'bytí_'
'klesá_'
'určen_'
'áci_'
'násilí_'
'správu_'
'jakýsi_'
'jediného_'
'eno_'
'nemělo_'
'Hlavním_'
'užívání_'
'úterý_'
'učí_'
'vznikají_'
'přesvědčit_'
'řadou_'
'výstavby_'
'Euro_'
'duchovní_'
'obrázek_'
'zásadně_'
'lidu_'
'cítila_'
'divize_'
'tradici_'
'dopad_'
'vytvářet_'
'pomyslel_'
'výbor_'
'hře_'
'managementu_'
'signál_'
'tvorbě_'
'Auto_'
'cokoli_'
'můžu_'
'plodin_'
'Jiřího_'
'Moravě_'
'Později_'
'řidič_'
'ště_'
'olej_'
'domácnosti_'
'čtí_'
'někomu_'
'souhlas_'
'jídla_'
'tiskové_'
'oken_'
'otevřela_'
'Ivan_'
'obec_'
'svědomí_'
'techniku_'
'zač_'
'potvrdil_'
'Sám_'
'ga_'
'sé_'
'enou_'
'změnil_'
'najdeme_'
'otevřít_'
'obilí_'
'běží_'
'nakladatelství_'
'značku_'
'příjmu_'
'položil_'
'silnější_'
'předměty_'
'vyšla_'
'průměr_'
'přinejmenším_'
'39_'
'Josefa_'
'Ford_'
'odchodu_'
'Mnoho_'
'marketingu_'
'cílů_'
'krajiny_'
'nasazení_'
'zkoušky_'
'ťak_'
'zato_'
'léčbu_'
'podobných_'
'stanici_'
'soustavy_'
'odstranění_'
'vystoupení_'
'představil_'
'Otec_'
'jimiž_'
'naproti_'
'asociace_'
'snažila_'
'nedokázal_'
'změní_'
'trzích_'
'celku_'
'vzdálenost_'
'fungování_'
'ska_'
'ym_'
'získali_'
'Češi_'
'doposud_'
'dávat_'
'ne'
'týče_'
'Mají_'
'vybraných_'
'národních_'
'poslal_'
'vytáhl_'
'ity_'
'posléze_'
'záležitosti_'
'kt_'
'Czech_'
'čisté_'
'družstva_'
'nestačí_'
'působit_'
'dokumentů_'
'tehdejší_'
'usmál_'
'ředitelem_'
'Media_'
'celkový_'
'Současně_'
'čtyřech_'
'životem_'
'částku_'
'hrají_'
'platby_'
'zahrady_'
'zbraně_'
'průmyslové_'
'Karla_'
'Paříži_'
'Ach_'
'VE_'
'Prostě_'
'George_'
'vojáci_'
'jezdí_'
'Kčs_'
'obecné_'
'oč_'
'nikomu_'
'un_'
'hvězdy_'
'šance_'
'černý_'
'vali_'
' % ) ._'
'komu_'
'třikrát_'
'koupil_'
'německého_'
'vzápětí_'
'pozornosti_'
'živé_'
'porušení_'
'květnu_'
'vazby_'
'PROM_'
'výskyt_'
'soutěži_'
'novinky_'
'ako_'
'začátkem_'
'běžných_'
'červnu_'
'kroků_'
'Ostatní_'
'jemně_'
'ovlivnit_'
'vládu_'
'dívat_'
'značka_'
'venkova_'
'lásku_'
'podal_'
'zádech_'
'á'
'ud_'
'ion_'
'vidění_'
'odborných_'
'ckou_'
'Králové_'
'vojáků_'
'výročí_'
'Rovněž_'
'strategii_'
'ich_'
'záležitostí_'
'webu_'
'daň_'
'délce_'
'příkladem_'
'nějž_'
'řepky_'
'AK_'
'ruka_'
'prodávat_'
'absolutní_'
'videa_'
'objevuje_'
'hudbu_'
'zy_'
'tomhle_'
'novými_'
'jistá_'
'vlevo_'
'jelikož_'
'věnoval_'
'soudní_'
'forem_'
'majitele_'
'odejít_'
'tma_'
'snímku_'
'plná_'
'konkurenci_'
'pochopil_'
'jmenuje_'
'řekli_'
'reagovat_'
'odpadů_'
'Eva_'
'SGI_'
'hráči_'
'sém_'
'líbí_'
'firemní_'
'von_'
'kraj_'
'Takový_'
'učit_'
'dlouhodobé_'
'nechala_'
'přijel_'
'ukázala_'
'stránek_'
'trvat_'
'paměť_'
'spol_'
'av_'
'barvu_'
'zeď_'
'restaurace_'
'policejní_'
'klient_'
'smluv_'
'osem_'
'vaši_'
'náročné_'
'Ruska_'
'64_'
'výnos_'
'minuty_'
'snižování_'
'der_'
'ekonomických_'
'moment_'
'siř_'
'získá_'
'židli_'
'poznat_'
'odpadu_'
'l'
'kontaktu_'
'ovlivňuje_'
'účinek_'
'desetiletí_'
'odborníci_'
'věděli_'
'bezpečí_'
'Můžeme_'
'stupňů_'
'vzhled_'
'Taky_'
'nízkou_'
'tek_'
'popisuje_'
'nejenom_'
'Ameriky_'
'kontakt_'
'předních_'
'veřejně_'
'král_'
'CH_'
'43_'
'schodech_'
'začátek_'
'rozpočet_'
'pol_'
'hodlá_'
'studium_'
'íku_'
'všemu_'
'stě_'
'stejná_'
'manžel_'
'čs_'
'možných_'
'pozemku_'
'kontextu_'
'obor_'
'nahradit_'
'letní_'
'čela_'
'Klaus_'
'1968_'
'tahle_'
'zůstávají_'
'dostanou_'
'naposledy_'
'vstoupil_'
'dosáhla_'
'99_'
'BMW_'
'úspěšné_'
'mladí_'
'zpočátku_'
'nemohu_'
'doprava_'
'09_'
'Třetí_'
'právního_'
'skončí_'
'prodat_'
'ičky_'
'41_'
'álně_'
'díly_'
'čce_'
'ok_'
'ekologické_'
'vyjádřit_'
'mládí_'
'ěla_'
'partnera_'
'trpí_'
'én_'
'chová_'
'osvětlení_'
'¯ _'
'současný_'
'větru_'
'180_'
'stabilní_'
'EN_'
'vysvětlil_'
'52_'
'moři_'
'všiml_'
'eny_'
'fyzické_'
'Ačkoli_'
'Někdo_'
'rodu_'
'mezinárodních_'
'nejnižší_'
'využitím_'
'dnem_'
'46_'
'projev_'
'Řada_'
'stavba_'
'nepodařilo_'
'sociálního_'
'Nejvyšší_'
'čtyřmi_'
'DNA_'
'přenos_'
'určena_'
'znaky_'
'historické_'
'generaci_'
'dopravu_'
'faktorů_'
'éo_'
'Moc_'
'Výsledkem_'
'Kolem_'
'zvyšování_'
'světových_'
'výhodou_'
'nejrůznějších_'
'dokument_'
'Alše_'
'ité_'
'nejlepším_'
'pracoviště_'
'našla_'
'karet_'
'Itálii_'
'ý'
'trenér_'
'm3_'
'bere_'
'lékařské_'
' ] _'
'výkony_'
'malým_'
'svaz_'
'vlasů_'
'měsíci_'
'věcech_'
'psa_'
'naučit_'
'hluboko_'
'vpravo_'
' , . _'
'zakázky_'
'alkoholu_'
'Ministr_'
'náboženství_'
'reakci_'
'ňí_'
'blíží_'
'průmyslových_'
'MB_'
'matku_'
'dětské_'
'ačkoliv_'
'chovat_'
'těžce_'
'kroku_'
'anou_'
'poruchy_'
'místem_'
'hory_'
'vyhrál_'
'1948_'
'elektrárny_'
'Polsku_'
'ležel_'
'časopis_'
'ovaných_'
'Alte_'
'700_'
'rozporu_'
'Bank_'
'Londýně_'
'nejlepších_'
'všecko_'
'fotografií_'
'českým_'
'Pouze_'
'významný_'
'propojení_'
'kolena_'
'přátel_'
'vytvořil_'
'významnou_'
'obrovský_'
'bankovní_'
'představa_'
'obětí_'
'návrat_'
'nalézt_'
'pacienty_'
'dodat_'
'autoři_'
'AS_'
'Alen_'
'snažit_'
'vesnice_'
'nimž_'
'objekt_'
'Českého_'
'Jste_'
'Axle_'
'míra_'
'patřil_'
'Ostrava_'
'podstatné_'
'rozhodne_'
'nutnost_'
'Pořád_'
'téhož_'
'důležitou_'
'schopností_'
'byty_'
'íka_'
'závodu_'
'les_'
'cyklu_'
'ěné_'
'USD_'
'cími_'
'kapitálu_'
'daném_'
'uviděl_'
'strachu_'
'úlohu_'
'zámku_'
'stáří_'
'Boží_'
'ramena_'
'soukromých_'
'mzdy_'
'projevy_'
'Copak_'
'plocha_'
'řek_'
'jme_'
'rizik_'
'mezitím_'
'zásady_'
'narození_'
'naštěstí_'
'ruské_'
'nů_'
'Číně_'
'ovaná_'
'jednotlivými_'
'zmizel_'
'obsahují_'
'sleduje_'
'Najednou_'
'ině_'
'revoluce_'
'příštích_'
'věd_'
'chleba_'
'video_'
'kovi_'
'poznamenal_'
'nemoc_'
'světem_'
'polohy_'
'zace_'
'coby_'
'ex_'
'nedošlo_'
'1945_'
'ránu_'
'Druhá_'
'oborů_'
'vstupní_'
'připraven_'
'březnu_'
'Česko_'
'JE_'
'složité_'
'bloku_'
'nešlo_'
'eni_'
'francouzské_'
'samostatně_'
'vyšším_'
'La_'
'zení_'
'sledoval_'
'93_'
'studenti_'
'nek_'
'tivní_'
'série_'
'ohledně_'
'volný_'
'zmíněné_'
'prom_'
'ati_'
'Dvě_'
'kategorií_'
'příjemné_'
'ap_'
'ér_'
'říjnu_'
'snaze_'
'mů_'
'jemuž_'
'mír_'
'středně_'
'srdci_'
'požádal_'
'uvědomit_'
'roz_'
'Víte_'
'zvolit_'
'obyvatelstva_'
'národa_'
'vyšetřování_'
'výrazné_'
'hodinách_'
'osudu_'
'é'
'51_'
'Zdálo_'
'dobrého_'
'ur_'
'parametrů_'
'zbytky_'
'významných_'
'kancelář_'
'mužem_'
'Jižní_'
'Téměř_'
'otázce_'
'Pavla_'
'současného_'
'ejší_'
'nabídne_'
'kosti_'
'útoku_'
'zjevně_'
'vybaven_'
'pór_'
'nedaleko_'
'znalostí_'
'bílý_'
'lý_'
'levnější_'
'německý_'
'osobu_'
'disku_'
'úvěrů_'
'předpokládat_'
'jakousi_'
'celkově_'
'objevily_'
'známe_'
'Richard_'
'autora_'
'výskytu_'
'Slunce_'
'dostupné_'
'nemůžu_'
'krále_'
'ryby_'
'jednoduchý_'
'zájmů_'
'zbavit_'
'Program_'
'ži_'
'Slovenska_'
'kontrola_'
'daného_'
'reformy_'
'pozemků_'
'jih_'
'základem_'
'objekty_'
'rodinné_'
'sklo_'
'vhodná_'
'vpředu_'
'jemu_'
'dotací_'
'komunikační_'
'Microsoft_'
'jejímu_'
'procento_'
'Vůbec_'
'ropy_'
'premiéra_'
'přinesla_'
'koruny_'
'ita_'
'ter_'
'blíž_'
'je'
'dílem_'
'otci_'
' " - _'
'čního_'
'svobodu_'
'elektronické_'
'dubnu_'
'délka_'
'zahradě_'
'del_'
'r'
'mediální_'
'vyřešit_'
'trest_'
'Jákob_'
'otevření_'
'zástupců_'
'vytvářejí_'
'prvé_'
'stavy_'
'lodí_'
'kousky_'
'110_'
'zásadě_'
'občané_'
'kdykoli_'
'sněhu_'
'Několik_'
'množstvím_'
'test_'
'letadla_'
'Havel_'
'příspěvek_'
'cemi_'
'předchozích_'
'management_'
'moderních_'
'vnímání_'
'oknem_'
'slzy_'
'poněvadž_'
'uk_'
'konkrétních_'
'Existuje_'
'odboru_'
'návštěvě_'
'Fi_'
'st'
'zásoby_'
'celkovou_'
'přítel_'
'minulém_'
'podlaze_'
'čním_'
'01_'
'rní_'
'celých_'
'gu_'
'rychlejší_'
'nízká_'
'nohu_'
'orgán_'
'léků_'
'prol_'
'pochopení_'
'jede_'
'četl_'
'dem_'
'Kvůli_'
'společný_'
'77_'
'přátelé_'
'domova_'
'přijal_'
'tion_'
'aktivně_'
'strukturu_'
'politickou_'
'dráhy_'
'výhodu_'
'Velký_'
'Zejména_'
'zvíře_'
'investovat_'
'pe_'
'záda_'
'ujete_'
'poslanci_'
'chlapec_'
'ženě_'
'bě_'
'měsíčně_'
'Nejprve_'
'Te_'
'Takto_'
'kdož_'
'kanceláři_'
'listu_'
'prodává_'
'hovořit_'
'130_'
'metru_'
'obchody_'
'fondy_'
'pracovním_'
'správný_'
'zajistí_'
'úspory_'
'můžeš_'
'kapacity_'
'týdně_'
'ukáže_'
'kostela_'
'tmy_'
'Projekt_'
'zajímá_'
'poslanců_'
'klade_'
'naším_'
' “ ( _'
'obci_'
'Prezident_'
'policii_'
'klub_'
'úpravu_'
'smrtí_'
'pokusil_'
'jasný_'
'rozmezí_'
'dokázala_'
'armáda_'
'šek_'
'finančně_'
'podnikatelů_'
'únoru_'
'úseku_'
'redakce_'
'přirozené_'
'ika_'
'oficiálně_'
'nutnosti_'
'zranění_'
'napsat_'
'podobného_'
'něčeho_'
'Problém_'
'délky_'
'stejného_'
'konání_'
'iv_'
'telné_'
'přijdou_'
'Mohl_'
'návštěvu_'
'kém_'
'vně_'
'krásná_'
'zápas_'
'ického_'
'zakázek_'
'učitele_'
'stránku_'
'předmětů_'
'popřípadě_'
'snu_'
'pravý_'
'směsi_'
'známých_'
'nejhorší_'
'SSSR_'
'považují_'
'nebezpečné_'
'šetření_'
'řetězce_'
' . - _'
'dodavatele_'
'ejí_'
'sexuální_'
'mysl_'
'pohlaví_'
'brambory_'
'Tentokrát_'
'právem_'
'následky_'
'teda_'
'daný_'
'kritéria_'
'esem_'
'označil_'
'přidáme_'
'47_'
'Věr_'
'prho_'
'teorii_'
'politického_'
'postupů_'
'texty_'
'nastavit_'
'škoda_'
'seděla_'
'Wi_'
'zvýšil_'
'podoby_'
'49_'
'příběhu_'
'účtu_'
'mg_'
'koncentrace_'
'reklamu_'
'skončení_'
'KSČ_'
'Občas_'
' . " " _'
'letiště_'
'ekonomicky_'
'tka_'
'linie_'
'ducha_'
'některý_'
'vyjádřil_'
'ovzduší_'
'časy_'
'tito_'
'subjektů_'
'letí_'
'zdánlivě_'
'Veb_'
'pravou_'
'surovin_'
'zobrazení_'
'líp_'
'Svět_'
'sp_'
'pražském_'
'í'
'kontrolní_'
'ua_'
'kluk_'
'výrobku_'
'založena_'
'schopna_'
'představitelé_'
'pracovníky_'
'obchodním_'
'kratší_'
'pokusy_'
'bránit_'
'sní_'
'vydat_'
'šího_'
'ton_'
'dívá_'
'učitel_'
'rychlý_'
'odstranit_'
'Věděl_'
'střechy_'
'výstavbu_'
'Celkem_'
'samostatné_'
'poblíž_'
'Anna_'
'Tom_'
'center_'
'jem_'
'dalšímu_'
'lid_'
'miliónu_'
'sníh_'
'ivní_'
'operaci_'
'pravdy_'
'yk_'
'samotného_'
'Vaše_'
'zapojení_'
'krav_'
'návštěvy_'
'cha_'
'varianty_'
'udělali_'
'interiéru_'
'podporovat_'
'jaksi_'
'žili_'
'Celá_'
'dopisy_'
'ay_'
'přinést_'
'čtenáři_'
'papíry_'
'hluboké_'
'spatřil_'
'národ_'
'Ceny_'
'lů_'
'hlasů_'
'Plzeň_'
'potřebovat_'
'záměr_'
'čaj_'
'smu_'
'zůstaly_'
'severu_'
'souborů_'
'republiku_'
'tele_'
'infekce_'
'metodou_'
'sporu_'
'lokální_'
'Z'
'EK_'
'studiu_'
'trvalo_'
'Veg_'
'klíč_'
'evropského_'
'go_'
'připravil_'
'subjekty_'
'Brna_'
'ústav_'
'vyprávění_'
'musely_'
'ička_'
'tématu_'
'sk_'
'plateb_'
'předmět_'
'com_'
'nákladní_'
'články_'
'žádostí_'
'norem_'
'plní_'
'alej_'
'Prosím_'
'zvýší_'
'tlakem_'
'formátu_'
'ohrožení_'
'neměly_'
'sedět_'
'kolegy_'
'poskytují_'
'dni_'
'styku_'
'lehké_'
'na'
'důkaz_'
'ck_'
'dlouhých_'
'univerzitě_'
'počítačů_'
'radši_'
'šém_'
'čů_'
'rozum_'
'hc_'
'ct_'
'ováno_'
'54_'
'přinese_'
'vypadalo_'
'němuž_'
'stěně_'
'skutečností_'
'91_'
'balení_'
'počátkem_'
'Máš_'
'eně_'
'jev_'
'čekala_'
'přenosu_'
'van_'
'oh_'
'změnou_'
'pustil_'
'prosinci_'
' . – _'
'zjistili_'
'odolnost_'
'CSc_'
'Matka_'
'Většinou_'
'letu_'
'hranic_'
'světu_'
'přicházejí_'
'dobrým_'
'Vláda_'
'icí_'
'zeleniny_'
'Asociace_'
'Kam_'
'upozornil_'
'silná_'
'scény_'
'změnám_'
'chu_'
'vytvoří_'
'vypadala_'
'vidíme_'
'změnila_'
'hospodářských_'
'platnost_'
'vyrábět_'
'železniční_'
'Martina_'
'HDP_'
'pohon_'
'mladá_'
'průměrné_'
'PRO_'
'zajímavý_'
'smus_'
'Vám_'
'útok_'
'zaměření_'
'místy_'
'mobilních_'
'marketing_'
'Vlastně_'
'čekají_'
'parlament_'
'hráčů_'
'menu_'
'dobrých_'
'uznání_'
'úrovní_'
'ošetření_'
'oheň_'
'sazby_'
'Rada_'
'nka_'
'most_'
'dveřích_'
'soubory_'
'Obecně_'
'tyhle_'
'potvrzuje_'
'stín_'
'chodil_'
'doporučuje_'
'měsíční_'
'PRAHA_'
'termínu_'
'Československa_'
'onen_'
'vyjde_'
'160_'
'cení_'
'myslela_'
'východ_'
'volební_'
'skrze_'
'odporu_'
'rysy_'
'tech_'
'NATO_'
' ) ,_'
'dokumentace_'
'známá_'
'spravedlnosti_'
'lesní_'
'Mercedes_'
'alce_'
'občany_'
'Obr_'
'struktura_'
'jíc_'
'66_'
'osobě_'
'zimní_'
'sme_'
'partnerem_'
'přechod_'
'diskusi_'
'zůstalo_'
'srpnu_'
'partner_'
'mail_'
'rozumí_'
'prstů_'
'az_'
'tor_'
'marně_'
'splnění_'
'příležitostí_'
'pražského_'
'Peter_'
'mozek_'
'konkurenční_'
'potřeboval_'
'patrné_'
'opakovaně_'
'býk_'
'56_'
'dolní_'
'stanovisko_'
'm'
'úřadů_'
'? _'
'původního_'
'našim_'
'podporou_'
'známky_'
'rekonstrukce_'
'y'
'meziročně_'
'národů_'
'malém_'
'ě'
'koncept_'
'nato_'
'fakulty_'
'a'
'napříč_'
'smlouvě_'
'obrázku_'
'Jsi_'
'dvojice_'
'jasem_'
'mateřské_'
'stínu_'
': _'
'vší_'
'Janko_'
'lidská_'
'výdajů_'
'haly_'
'reklama_'
'blíže_'
'související_'
'ztrátu_'
'tr_'
'pu_'
'orgánu_'
'čeští_'
'íků_'
'keře_'
'Autor_'
'bojovat_'
'jezdit_'
'přechodu_'
'zdravotních_'
'bílá_'
'černá_'
'víry_'
'rány_'
'rát_'
'finančního_'
'Pane_'
', , _'
'Víš_'
'logické_'
'strom_'
'deště_'
'pomohl_'
'obrat_'
'velkými_'
'kartu_'
'správa_'
'daňové_'
'trendy_'
'chybu_'
'zákaz_'
'ZPA_'
'podpoře_'
'ř'
'říkali_'
'obvyklé_'
'přírodních_'
'kávu_'
'přestal_'
'tvé_'
'chov_'
'Vždy_'
'volba_'
'Le_'
'ISO_'
'příprava_'
'možný_'
'f'
'něčem_'
'původ_'
'porostů_'
'předpokladu_'
'Taková_'
'Jánko_'
'tlačítka_'
'studii_'
'ností_'
'Nejde_'
'zapomněl_'
'stanovit_'
'člověkem_'
'eli_'
'dovolené_'
'fotografii_'
'definitivně_'
'io_'
'Svazu_'
'Opravdu_'
'uzavření_'
'uvažovat_'
'CO2_'
'hodnotou_'
'cům_'
'čísle_'
'nky_'
'Evropu_'
'městem_'
'směs_'
'vyhnout_'
'stoupá_'
'350_'
'pop_'
'Viděl_'
'testování_'
'drahé_'
'blízké_'
'logicky_'
'jícím_'
' « _'
'hodnotí_'
'politický_'
'dohodu_'
'mostu_'
'snažili_'
'pouhé_'
'jarní_'
'popis_'
'šíření_'
'narodil_'
'krk_'
'AG_'
'skutečný_'
'FS_'
'přístroj_'
'žáci_'
'alek_'
'zázemí_'
'ejch_'
'skupinou_'
'křídla_'
'poradce_'
'brány_'
'Chceme_'
'vedlo_'
'představ_'
'ničím_'
'základního_'
' ( ) _'
'linky_'
'žení_'
'takž_'
'realizovat_'
'respondentů_'
'pohyby_'
'vůně_'
'tky_'
'sko_'
'odlišné_'
'Nebyl_'
'hledal_'
'zima_'
'jednotka_'
'infrastruktury_'
'unikátní_'
'kameny_'
'ztrácí_'
'uši_'
'poměry_'
'uvedení_'
'organismu_'
'kontrole_'
'manžela_'
'ů'
'přiznat_'
'jícího_'
'kdys_'
'utrpení_'
'povinen_'
'čl_'
'ničemu_'
'podat_'
'směrnice_'
'výrobek_'
'02_'
'zaměstnanec_'
'pozoroval_'
'budování_'
'Rakousku_'
'představila_'
'ával_'
'Polska_'
'dostávají_'
'Jarko_'
'Apple_'
'poznatky_'
'vědecké_'
'sportu_'
'pohybují_'
'ata_'
'zvuku_'
'zemědělského_'
'tl_'
'softwaru_'
'důvěru_'
'válku_'
'1988_'
'navrhl_'
'ozval_'
'dozadu_'
'jistou_'
'diváků_'
'vrcholu_'
'celková_'
'zdůraznil_'
'másla_'
'jednomu_'
'umělecké_'
'osou_'
'zlé_'
'UT_'
'Olomouc_'
'jaderné_'
'rou_'
'Poprvé_'
'53_'
'prošel_'
'hodinky_'
'specifické_'
'trhů_'
'iho_'
'jedince_'
'§ _'
'vedlejší_'
'určitého_'
'poptávky_'
'sl_'
'výstava_'
'čelo_'
'jihu_'
'generálního_'
'reálné_'
'Ostravě_'
'do'
'jhem_'
'zaměstnavatele_'
'bohatství_'
'nechali_'
'intenzivní_'
'táta_'
'testy_'
'návštěvníků_'
'jednoduchá_'
'metr_'
'vašich_'
'AL_'
'školení_'
'baterie_'
'Evropského_'
'složek_'
'son_'
'každoročně_'
'povahy_'
'rodin_'
'informačních_'
'Komise_'
'vstal_'
'Opět_'
'okraj_'
'Návrh_'
'KDS_'
'papírů_'
'skvěle_'
'jším_'
'rozsáhlé_'
'dostaly_'
'jalo_'
'poptávka_'
'trvání_'
'há_'
'Intel_'
'Anglii_'
'studenty_'
'Ačkoliv_'
'soukromého_'
'poradenství_'
'necháme_'
'ekonomický_'
'částic_'
'ory_'
'organizační_'
'agentur_'
'72_'
'uvedeno_'
'postel_'
'Nejvíce_'
'uživatelé_'
'emise_'
'dáme_'
'knihovny_'
'opustit_'
'úkolů_'
'York_'
'dopoledne_'
'britské_'
'manželka_'
'upozorňuje_'
'ministerstvu_'
'ych_'
'icích_'
'ya_'
'výnosy_'
'stavbě_'
'býlí_'
'vyžadují_'
'politická_'
'plus_'
'podílí_'
'choroby_'
'Bruselu_'
'udržení_'
'opravy_'
'Chvíli_'
'ýt_'
'předsedou_'
'detaily_'
'áři_'
'barevné_'
'projít_'
'činy_'
'šení_'
'segmentu_'
'divadelní_'
'čistý_'
'ČSN_'
'líto_'
'eň_'
'prvek_'
'neplatí_'
'ěk_'
'mistr_'
'Paul_'
'átor_'
'šou_'
'rozhoduje_'
'kal_'
'silnou_'
'napůl_'
'uživatel_'
'sociálně_'
'Kdybych_'
'tmě_'
'by'
'existovat_'
'jízdě_'
'duševní_'
'obvodu_'
'vozidlo_'
'myšlenku_'
'úzce_'
'rovině_'
'zbytečné_'
'soukromí_'
'lně_'
'řádně_'
'lese_'
'Bohu_'
'matce_'
'Žádný_'
'Takhle_'
'koná_'
'operací_'
'signálu_'
'Žena_'
'překvapivě_'
'ČSSD_'
'sekce_'
'stavebnictví_'
'odpovědět_'
'románu_'
'poskytovat_'
'ez_'
'učinit_'
'chyba_'
'festivalu_'
'63_'
'u'
'dokázali_'
'vrstev_'
'analýza_'
'necelých_'
'principy_'
'dám_'
'Nejen_'
'přispívá_'
'podnikatele_'
'odmítá_'
'vnitřního_'
'cíli_'
'Toho_'
'vydala_'
'emisí_'
'obrázky_'
'vlna_'
'šéfa_'
'životnost_'
'místnost_'
'účel_'
'tvoje_'
'hluboce_'
'Jelikož_'
'nejrůznější_'
'stroji_'
'hledají_'
'Q'
'MU_'
'CIO_'
' - " _'
'čísel_'
'58_'
'kontakty_'
'projevu_'
'rámec_'
'rt_'
'nahlas_'
'bezprostředně_'
'průměrná_'
'podruhé_'
'musíš_'
'partnerů_'
'moji_'
'oku_'
'ula_'
'vývojem_'
'Buď_'
'projeví_'
'událost_'
'všeobecně_'
'kořeny_'
'daly_'
'širokou_'
'jíst_'
'Předseda_'
'deníku_'
'typické_'
'Adam_'
'Naštěstí_'
'zuje_'
'řadí_'
'zeptat_'
'založil_'
'smích_'
'přímý_'
'deska_'
'Část_'
'předpoklady_'
'příčiny_'
'dokážou_'
'dobách_'
'Moravy_'
'nechá_'
'tank_'
'ústavy_'
'nadšení_'
'zdát_'
'oběti_'
'chránit_'
'stačilo_'
'podmínkou_'
'HP_'
'bílou_'
'Nejlepší_'
'speciálních_'
'prachu_'
'členství_'
'zlato_'
'krásný_'
'výrazem_'
'jichž_'
'sty_'
'komora_'
'federální_'
'žila_'
'vedly_'
'státě_'
'zřízení_'
'chrání_'
'různě_'
'nestalo_'
'zbývá_'
'doopravdy_'
'použitím_'
'vidíte_'
'dražší_'
'přínos_'
'nabídl_'
'Zřejmě_'
'Malé_'
'álních_'
'tak'
'významným_'
'oru_'
'sluneční_'
'osobnost_'
'sport_'
'pacienti_'
'zvýšené_'
'dil_'
'uskuteční_'
'jakých_'
'roků_'
'zemědělce_'
'Daniel_'
'čil_'
'výška_'
'ekonomika_'
'správce_'
'teplotu_'
'posouzení_'
'objevit_'
'bratra_'
'jarko_'
'vydává_'
'porodu_'
'osobností_'
'nacházejí_'
'dovolenou_'
'novinách_'
'třiceti_'
'říše_'
'96_'
'stávají_'
'pokračování_'
'nechtěla_'
'dokumentu_'
'důkladně_'
'áky_'
'tzn_'
'zachovat_'
'he_'
'květy_'
'Chcete_'
'dopravních_'
'službách_'
'lesů_'
'sny_'
'věty_'
'politiků_'
'dával_'
'obratu_'
'140_'
'zavolal_'
'dů_'
'dítěti_'
'nastoupil_'
'třetího_'
'San_'
'Důležité_'
'dit_'
'nedokáže_'
'výšce_'
'jamko_'
'inovace_'
'zvuky_'
'zvedla_'
'SOU_'
'pravidelné_'
'samotný_'
'dodržování_'
'červenci_'
'povede_'
'černou_'
'jakékoliv_'
'tně_'
'ré_'
'chlap_'
'zaplatí_'
'Slovenské_'
'léto_'
'fa_'
'starost_'
'Rozhodně_'
'CO_'
'obrazů_'
'kruhu_'
'duch_'
'témata_'
'jist_'
'fi_'
'koncepci_'
'žádá_'
'výhodné_'
'domácím_'
'Důvodem_'
'zlaté_'
'zař_'
'íček_'
'morální_'
'novely_'
'prezentace_'
'rostou_'
'zvýšila_'
'rs_'
'2015_'
'plném_'
'chápat_'
'ler_'
'literatuře_'
'podpořit_'
'chod_'
'cestách_'
'sále_'
'bydlí_'
'vpřed_'
'účinné_'
'Ústí_'
'přežití_'
'Michael_'
'platební_'
'hotel_'
'titulu_'
'úvahy_'
'košili_'
'oceli_'
'příběhy_'
'onoho_'
'internetové_'
'prázdné_'
'Musel_'
'myslíte_'
'kusy_'
'snímky_'
'minutu_'
'občanské_'
'F'
'Chtěla_'
'1500_'
'setkat_'
'barva_'
'mezinárodního_'
'tuku_'
'blok_'
'tělesné_'
'otcem_'
'zvláštního_'
'rozšířit_'
'klienti_'
'Své_'
'zřetelně_'
'podlahu_'
'ostře_'
'jakožto_'
'chyb_'
'zapomenout_'
'tabulky_'
'postižení_'
'pobyt_'
'vyplatí_'
'óu_'
'ys_'
'pojišťovna_'
'písm_'
'bohaté_'
'Čas_'
'stáli_'
'doplňuje_'
'ztráta_'
'celým_'
'vlak_'
'čtenáře_'
'volit_'
'myslíš_'
'bílého_'
'zčásti_'
'příklady_'
'pneumatiky_'
'traktoru_'
'nějakém_'
'odpovědí_'
'náměstek_'
'Agrární_'
'selhání_'
'církev_'
'Naproti_'
'divu_'
'ju_'
'68_'
'vážné_'
'spor_'
'pádu_'
'určeny_'
'skrývá_'
'požadavkům_'
'ste_'
'dostanete_'
'stěn_'
'šedesátých_'
'neposlední_'
'Konec_'
'následné_'
'sektor_'
'Mně_'
'značkou_'
'Asie_'
'vyskytuje_'
'označením_'
'instalace_'
'službě_'
'pohybovat_'
'radu_'
'ič_'
'dlo_'
'ředitelka_'
'předchozím_'
'horách_'
'Jenomže_'
'opustil_'
'nazývá_'
'Život_'
'pozorovat_'
'důležitější_'
'ženské_'
'zdejší_'
'nechtějí_'
'57_'
'určitá_'
'hráče_'
'brýle_'
'Jaká_'
'byv_'
'ai_'
'ějšího_'
'snahu_'
'těhotenství_'
'široký_'
'ryb_'
'zvolna_'
'analýzu_'
'problematiku_'
'autě_'
'tématem_'
'll_'
'expozice_'
'Severní_'
'start_'
'klientům_'
'podívala_'
'přikývl_'
'záběru_'
'ekonomického_'
'těší_'
'pravděpodobné_'
'komerční_'
'vědci_'
'ěním_'
'nemusel_'
'd'
'univerzální_'
'js_'
'pracovník_'
'většího_'
'Československu_'
'neřekl_'
'román_'
'Českých_'
'prezidentem_'
'postoje_'
'verzí_'
'stavět_'
'přátelství_'
'domácího_'
'Marek_'
'teplé_'
'telefonní_'
'výjimky_'
'pohlédl_'
'reakcí_'
'zaměstnavatel_'
'iky_'
'pozdější_'
'prodejní_'
'čtvrt_'
'povinné_'
'přímých_'
'stěží_'
'déšť_'
'stali_'
'drobných_'
'Čína_'
'stupni_'
'účastníci_'
'jednodušší_'
'názvu_'
'KY_'
'žáky_'
'dřevo_'
'silniční_'
'B'
'snahy_'
'spojených_'
'š'
'Mimo_'
'zaň_'
'nejnovější_'
'izolace_'
'každodenní_'
'vzniklo_'
'usmála_'
'Nelo_'
'budově_'
'tělem_'
'Volkswagen_'
'obyvatelé_'
'zá_'
'starou_'
'dodala_'
'aného_'
'3000_'
'oví_'
'hloubky_'
'volného_'
'Přesně_'
'způsobuje_'
'záznam_'
'dělala_'
'vyskytují_'
'vznikly_'
'státem_'
'desek_'
'UP_'
'vybírat_'
'láhev_'
'KDU_'
'užití_'
'oznámení_'
'Anglie_'
'Polsko_'
'níci_'
'enu_'
'špatný_'
'čení_'
'prostředek_'
'displeje_'
'stromu_'
'galerie_'
'ab_'
'aa_'
'uplatnit_'
'příznaky_'
'radosti_'
'připadalo_'
'ekonomickou_'
'částka_'
'ležela_'
'těžký_'
'historických_'
'úspěšný_'
'slunci_'
'uložení_'
'dohodě_'
'yn_'
'prosadit_'
'jazykem_'
'byznys_'
'tit_'
'vyvolává_'
'Bým_'
'Renault_'
'důležitých_'
'vyhlášky_'
'posílení_'
'deník_'
'externí_'
'vzdělávací_'
'zlepšit_'
'páry_'
'Sdružení_'
'výchovy_'
'speciálně_'
'jednalo_'
'International_'
'lidský_'
'jakém_'
'ávat_'
'demokratické_'
'cos_'
'tvrdil_'
'tvrdě_'
'ovládat_'
'byls_'
'nedostatku_'
'druhému_'
'veliké_'
'konfliktu_'
'faktorem_'
'omezit_'
'hladiny_'
'125_'
'97_'
'úmyslu_'
'vstříc_'
'okruh_'
'činil_'
'Šlo_'
'hlad_'
'zbraň_'
'kontrolou_'
'kdežto_'
'Zemi_'
'těl_'
'devíti_'
'traktor_'
'postupovat_'
'ujících_'
'ření_'
'království_'
'názorů_'
'spotřebitele_'
'web_'
'nevadí_'
'nemožné_'
'dělení_'
'nádrže_'
'židle_'
'dohoda_'
'podlahy_'
'originální_'
'nech_'
' (_'
'zjistila_'
'kov_'
'údržbu_'
'vzpomínky_'
'přelomu_'
'prochází_'
'dokončení_'
'Moderní_'
'Práce_'
'restauraci_'
'pravdě_'
'písku_'
'řidiči_'
'připravila_'
'dostatečné_'
'čištění_'
'konečné_'
'vět_'
'paže_'
'správnou_'
'chlapce_'
'vytápění_'
'teré_'
'traktory_'
'oné_'
'dělali_'
'TA_'
'vezme_'
'telefony_'
'článků_'
'sklizeň_'
'OKD_'
'spolupracovat_'
'uju_'
'stol_'
'Nelze_'
'Krátce_'
'valy_'
' % ) , _'
'zadních_'
'matkou_'
'černých_'
'bílých_'
'kopce_'
'zájmem_'
'koupi_'
'ekonomiku_'
'účetní_'
'uvedeny_'
'mapy_'
'snímek_'
'obličeji_'
'dějiny_'
'nemocí_'
'88_'
'pozemky_'
'Město_'
'98_'
'býval_'
'máma_'
'nepatří_'
'domov_'
'milion_'
'státním_'
'třebaže_'
'volbu_'
'ohně_'
'znova_'
'opak_'
'výklad_'
'Loni_'
'Mnozí_'
'59_'
'tvrdé_'
'skládá_'
'kapacitu_'
'způsobit_'
'pro'
'icky_'
'ěmi_'
'klíčové_'
'webových_'
'jinému_'
'Existují_'
'dcery_'
'základu_'
'vteřin_'
'připojit_'
'Den_'
'js'
'plnit_'
'kla_'
'vrstva_'
'obchodování_'
'spisovatel_'
'divadle_'
'hla_'
'veškerou_'
'spojuje_'
'učitelů_'
'Tímto_'
'současná_'
'radostí_'
'nebudeme_'
' , * _'
'kultura_'
'dáno_'
'pití_'
'Vás_'
'vskutku_'
'označuje_'
'kávy_'
'určuje_'
'občan_'
'IS_'
'čekali_'
'karoserie_'
'podrobně_'
'postava_'
'dospělých_'
'farmy_'
'složitější_'
'vybral_'
'vycházet_'
'stavebního_'
'áře_'
'cukr_'
'výhod_'
'přizpůsobit_'
'víceméně_'
'tvary_'
'bí_'
'Labem_'
'62_'
'Trochu_'
'týdnech_'
'konstatoval_'
'Audi_'
'cenných_'
'popř_'
'designu_'
'08_'
'67_'
'firmám_'
'zle_'
'danou_'
'řeknu_'
'atraktivní_'
'De_'
'správě_'
'platné_'
'hou_'
'pocitu_'
'nění_'
'podobná_'
'betonu_'
'dřevěné_'
'vzniknout_'
'domem_'
'Nejdřív_'
'uveden_'
'hodině_'
'splnit_'
'bezpečně_'
'vybrané_'
'pravil_'
'nm_'
'ulicích_'
'žluté_'
'představí_'
'seděli_'
'EM_'
'svojí_'
'pohonem_'
'nci_'
'instalaci_'
'Dne_'
'prevence_'
'odborníky_'
'nabízet_'
'navštívit_'
'automobily_'
'skladování_'
'rozdělit_'
'zdravé_'
'soudce_'
' . / _'
'jemné_'
'dopravě_'
'disponuje_'
'rozumu_'
'odešla_'
'primární_'
'Budu_'
'hvězd_'
'budova_'
'varianta_'
'py_'
'právním_'
'trestní_'
'úvěr_'
'provádění_'
'Číny_'
'Brzy_'
'zařazení_'
'tické_'
'populární_'
'zařízením_'
'bezpečné_'
'?_'
'ptal_'
'automobil_'
'dosaženo_'
'rně_'
'kapitole_'
' ( " _'
'Nemám_'
'dvora_'
'rodinných_'
'traktorů_'
'stop_'
'mladého_'
'běžný_'
'itu_'
'nůž_'
'rozhodovat_'
'ligy_'
'vstoupit_'
'věže_'
'cestovní_'
'áka_'
'úpravě_'
'pololetí_'
'najdou_'
'přispět_'
'technického_'
'potrubí_'
'hezky_'
'lidskou_'
'vodních_'
'bát_'
'koalice_'
'pobočky_'
'mlčky_'
'poplatky_'
'úprav_'
'zdravotního_'
'přešel_'
'muzeu_'
'cizích_'
'hlasu_'
'ickou_'
'rekonstrukci_'
'přítele_'
'přísně_'
'94_'
'zásah_'
'tón_'
'stanovené_'
'běž_'
'N'
'Rád_'
'autem_'
'ař_'
'vyprávěl_'
'ij_'
'nutná_'
'izace_'
'úzké_'
'původních_'
'Moskvě_'
'domácností_'
'titulů_'
'frekvence_'
'sté_'
'byr_'
'míří_'
'poezie_'
'pověst_'
'itě_'
'různá_'
'příjemně_'
'krásně_'
'zastavení_'
'aktivita_'
'Němec_'
'získává_'
'ko'
'básník_'
'teplotě_'
'čtrnáct_'
'ismus_'
'třetiny_'
'úvěry_'
'vyzkoušet_'
'zahraničního_'
'umět_'
'setkal_'
'Nově_'
'Žádné_'
'směsí_'
'pomáhat_'
'kt'
'některým_'
'metodu_'
'pneumatik_'
'Samsung_'
'týdeníku_'
'poloze_'
'obtížně_'
'cítím_'
'dělí_'
'lásce_'
'vznikne_'
'přípravky_'
'hlasitě_'
'automatické_'
'zeměmi_'
'odvahu_'
'odpověděla_'
'interní_'
'domnívá_'
'minulost_'
'zásad_'
'iště_'
'namísto_'
'svatého_'
'Prahu_'
'litru_'
'T'
'aspekty_'
'představoval_'
'GPS_'
'přístrojů_'
'Oproti_'
'Col_'
'Františka_'
'ýh_'
'vysokého_'
'nechybí_'
'důchodu_'
'časů_'
'posadil_'
'zachránit_'
'nil_'
'ja'
'vnitřním_'
'vrátili_'
'skladu_'
'id_'
'dopisu_'
'centimetrů_'
'plánuje_'
'Sony_'
'ČOV_'
'někým_'
'téže_'
'park_'
'patnácti_'
'přemýšlet_'
'řídicí_'
'nd_'
'obyvatele_'
'Y'
'ěj_'
'Střední_'
'dopady_'
'Vývoj_'
'těžkých_'
'manažerů_'
'viny_'
'nezaměstnanosti_'
'zásob_'
'písně_'
'starat_'
'podnikatel_'
'třetinu_'
'vystoupil_'
'integrace_'
'slyšela_'
'hosty_'
'Včera_'
'plat_'
'převzal_'
'dna_'
'Velkou_'
'konat_'
'vnímat_'
'oznámila_'
'přál_'
'politici_'
'víru_'
'zvládnout_'
'hodil_'
'pořádá_'
'zajímavá_'
'majitelé_'
'reality_'
'jíme_'
'dyž_'
'pozitivně_'
'stropu_'
'Dobré_'
'značnou_'
'neboj_'
'úvěru_'
'áku_'
'odvolání_'
'nepříliš_'
'dozvěděl_'
'vize_'
'sníží_'
'kapacita_'
'nedostatky_'
'nářadí_'
'výš_'
'potřebujeme_'
'ovlivňují_'
'všechnu_'
'Spolu_'
'.  _'
'PZO_'
'jara_'
'jízdní_'
'Prvním_'
'tvořit_'
'soli_'
'výhled_'
'mrtvých_'
'jších_'
'touha_'
'občanského_'
'pozorování_'
'nejsme_'
'panu_'
'nejrychleji_'
'délku_'
'for_'
'zrak_'
'tatínek_'
'vesměs_'
'přípravků_'
'pevný_'
'dívala_'
'nabídkou_'
'vydrží_'
'vcelku_'
'Dobrý_'
'vyjadřuje_'
'bojí_'
'bezpečnostních_'
'Nechci_'
'scéně_'
'menším_'
'závody_'
'pozdějších_'
'niž_'
'sortimentu_'
'Ministerstva_'
'baru_'
'úkor_'
'Rakouska_'
'vnitřních_'
'naučil_'
'soustředit_'
'následuje_'
'Chce_'
'agrární_'
'vládou_'
'chlapci_'
'dceru_'
'částech_'
'situacích_'
'hale_'
'běhu_'
'+ _'
'zabít_'
'mládeže_'
'reaguje_'
'plynů_'
'bou_'
'stvím_'
'likvidaci_'
'taký_'
'studené_'
'rozvíjet_'
'stály_'
'nástrojem_'
'dodavatelů_'
'dar_'
'Spojené_'
'pravidlo_'
'000_'
'nej_'
'Čechy_'
'ns_'
'SRN_'
'OVÁ_'
'dovozu_'
'Rychle_'
'čné_'
'závěry_'
'lesy_'
'držela_'
'Budeme_'
'trošku_'
'jezera_'
'družstvo_'
'světového_'
'elektráren_'
'panelu_'
'právu_'
'Dá_'
'prach_'
'setí_'
'kyseliny_'
'orientaci_'
'soutěží_'
'pokračovala_'
'kd_'
'hosté_'
'finančním_'
'náladu_'
'krátký_'
'jmění_'
'webové_'
'nov_'
'cýh_'
'předmětu_'
'zkoumání_'
'úplné_'
'PVO_'
'Anebo_'
'sedadla_'
'za'
'došel_'
'normálně_'
'cm3_'
'zjistí_'
'tajné_'
'vycházejí_'
'ván_'
'publikace_'
'MF_'
'Dříve_'
'ěli_'
'vzali_'
'kontrolovat_'
'různým_'
'obory_'
'Vídni_'
'kritérií_'
'Olomouci_'
'klasických_'
'stačil_'
'vašem_'
'informoval_'
'Cesta_'
'potvrzení_'
'podpor_'
'kapitola_'
'Asii_'
'vém_'
'policisté_'
'tká_'
'hnědé_'
'hmot_'
'variant_'
'kabiny_'
'veletrh_'
'kalhoty_'
'hlášení_'
'představitelů_'
'suroviny_'
'investičních_'
'trati_'
'návrhů_'
'jedinců_'
'jdu_'
'zrna_'
'nemáte_'
'th_'
'určitým_'
'til_'
'účelu_'
'dána_'
'spory_'
'VL_'
'chemické_'
'evropský_'
'dědictví_'
'pomáhají_'
'vešel_'
'plátky_'
'škodu_'
'ptá_'
'rozhodnutím_'
'příkaz_'
'dvůr_'
'Jasou_'
'nechte_'
'pokusu_'
'Patří_'
'výstup_'
'česky_'
'trestního_'
'provozních_'
'někdejší_'
'stejných_'
'ňování_'
'měřítku_'
'šedesát_'
'ura_'
'Národního_'
'ON_'
'čerstvé_'
'vesnici_'
'schválení_'
'dvanácti_'
'i'
'standard_'
'disky_'
'čte_'
'regulaci_'
'myšlenek_'
'zůstali_'
'ingu_'
'důkazy_'
'založené_'
'stavů_'
'osobního_'
'efektivně_'
'nemovitosti_'
'datum_'
'faktor_'
'upravit_'
'způsobů_'
'nenapadlo_'
'kanceláří_'
'výnosu_'
'krátkou_'
'inflace_'
'časové_'
'Bože_'
'vané_'
'černého_'
'hladinu_'
'americká_'
'členské_'
'pohledy_'
'problematice_'
'Neměl_'
'požádat_'
'pražských_'
'aně_'
'ložnice_'
'MZe_'
'kapacitou_'
'Zvláštní_'
'“ _'
'eného_'
'architektury_'
'nějakých_'
'zlata_'
'ach_'
'mezinárodním_'
'Doufám_'
'pl_'
'privatizaci_'
'plic_'
'éry_'
'gen_'
'aktivitu_'
'relativní_'
'textů_'
'ictví_'
'cokoliv_'
'záhy_'
'eru_'
'padesáti_'
'vky_'
'našemu_'
'jsouc_'
'ov'
'nemohlo_'
'Roman_'
'výkonný_'
'úhlu_'
'vytvořila_'
'změnilo_'
'ramen_'
' ( § _'
'průzkum_'
'jakkoli_'
'velikostí_'
'ministrem_'
'výuky_'
'muzeum_'
'zadání_'
'novináři_'
'VF_'
'včerejší_'
'pojistné_'
'nejpozději_'
'povědomí_'
'W'
'zavřel_'
'váhu_'
'označit_'
'generál_'
'čtvrté_'
'tradičních_'
'považoval_'
'tal_'
'potenciální_'
'Dosud_'
'zajímat_'
'seznámit_'
'pořídit_'
'kostí_'
'konkrétního_'
'výjimečně_'
'kampaní_'
'vzpomněl_'
'nejstarší_'
'Hlavně_'
'časté_'
'scénu_'
'běžného_'
'Výhodou_'
'extrémně_'
'Rakousko_'
'Ředitel_'
'tepelné_'
'74_'
'určených_'
'kombinací_'
'vůdce_'
'vzrostl_'
'mem_'
'moderního_'
'náhradu_'
'Druhou_'
'samého_'
'proběhla_'
'kd'
'investorů_'
'atmosféru_'
'připravena_'
'rozměrů_'
'tendenci_'
'nímu_'
'snažíme_'
'ženská_'
'těžší_'
'kulturních_'
'založen_'
'ts_'
'něčemu_'
'Zato_'
'nápravy_'
'láskou_'
'vyvolat_'
'vypadají_'
'upozornit_'
'ovce_'
'ía_'
'ino_'
'trestu_'
'příčin_'
'nárůstu_'
'desku_'
'tuny_'
'jmou_'
'západních_'
'plodiny_'
'povídá_'
'tvorba_'
'poslání_'
'okolní_'
'ničeho_'
'našimi_'
'kulturu_'
'stovek_'
'x'
'tvrdit_'
'lék_'
'dálnici_'
'čtvrti_'
'aje_'
'Zcela_'
'vzorků_'
'účastníky_'
'mocí_'
'bolestí_'
'oblíbené_'
'dějinách_'
'hlásí_'
'německá_'
'poslat_'
' . '
'otevře_'
'Nejsem_'
'myši_'
'Začal_'
'Ondřej_'
'ležet_'
'Situace_'
'opakovat_'
'procentní_'
'lou_'
'cibule_'
'zmizela_'
'mouky_'
'dokola_'
'živin_'
'ine_'
'postupem_'
'pracovala_'
'oběd_'
'kvalitou_'
'novinkou_'
'kurzu_'
'absolutně_'
'žádoucí_'
'postav_'
'ZA_'
'vyrovnat_'
'semináře_'
'dílu_'
'bance_'
'italské_'
'věda_'
'tunelu_'
'komunikací_'
'mobil_'
'níků_'
'Komerční_'
'61_'
'cenové_'
'rd_'
'hovořil_'
'yně_'
'dusíku_'
'ále_'
'poslouchat_'
'opozice_'
'Hodně_'
'východu_'
'strávil_'
'sboru_'
'jádro_'
'mý_'
'ER_'
'fungují_'
'Budou_'
'81_'
'stu_'
'starosta_'
'koncert_'
'evidence_'
'přiznání_'
'komfort_'
'vlaku_'
'rám_'
'pí_'
'znají_'
'řece_'
'zdravotnických_'
'výstavě_'
'technikou_'
'skončilo_'
'náklad_'
'jasno_'
'dluh_'
'člena_'
'technicky_'
'cit_'
'učitelé_'
'učinil_'
'pojmy_'
'any_'
'zdravotním_'
'ekonomická_'
'píseň_'
'ese_'
'5000_'
'baví_'
'tmavé_'
'klesla_'
'kamery_'
'vyhlášení_'
'umožňující_'
'bavit_'
'Mary_'
'výrazný_'
'tvím_'
'prodloužení_'
'nižších_'
'poradit_'
'zájemce_'
'kód_'
'operačního_'
'L'
'Čechů_'
'hnojiv_'
'dělám_'
'kat_'
'ručně_'
'vztazích_'
'Ladislav_'
'nemusíte_'
'veterinární_'
'pokoušel_'
'vybaveny_'
'kapitán_'
'H'
'suché_'
'podává_'
'následek_'
'střediska_'
'DO_'
'pád_'
'pána_'
'uješ_'
'terapii_'
'podávání_'
'podílet_'
'celkovém_'
'Jakub_'
'Ó'
'síle_'
'Pravda_'
'závodů_'
'spí_'
'yla_'
'inteligentní_'
'nápady_'
'aktuálně_'
'dokázat_'
'proběhne_'
'poj_'
'civilizace_'
'houby_'
'2020_'
'tendence_'
'Street_'
'chuti_'
'hradu_'
'průměrný_'
'letý_'
'odbornou_'
'obsahovat_'
'Sport_'
'znalost_'
'ro'
')_'
'S'
'jakými_'
'internetových_'
'krmiva_'
'režisér_'
'dálnice_'
'promluvit_'
'ičku_'
'84_'
'společnou_'
'StB_'
'Indie_'
'jedenáct_'
'křesla_'
'holka_'
'dnešního_'
'kdybychom_'
'hem_'
'ee_'
'tříd_'
'medicíny_'
'LA_'
'City_'
'Říká_'
'náhradní_'
'zaměřené_'
'ence_'
'dnešních_'
'metry_'
'tisíci_'
'následujícím_'
'spotřebitelů_'
'budovu_'
'odpovídají_'
'úmrtí_'
'bla_'
'chodbě_'
'zdí_'
' , '
'obsahující_'
'neštěstí_'
'startu_'
'vy'
'vánoční_'
'g'
'skrz_'
'zaslouží_'
'vlivy_'
'76_'
'ucha_'
'profil_'
'podnikatelé_'
'ely_'
'sortiment_'
'liber_'
'Svoboda_'
'věta_'
'900_'
'Mau_'
'obchodě_'
'důležitým_'
'považuji_'
'oběť_'
'Jedno_'
'odpad_'
'odráží_'
'ína_'
'zd_'
'ose_'
'89_'
'usnesení_'
'klíčových_'
'ral_'
'generací_'
'patřila_'
'Motor_'
'užitečné_'
'překonat_'
'dávku_'
'hal_'
'prozatím_'
'vývozu_'
'Malý_'
'kyně_'
'požaduje_'
'knížky_'
'ri_'
'Stát_'
'ón_'
'rová_'
'jeli_'
'dosahují_'
'chorob_'
'krevní_'
'82_'
'Jean_'
'struktur_'
'rádio_'
'programem_'
'HZDS_'
'Facebooku_'
'toku_'
'zážitek_'
'červená_'
'ústřední_'
'připomněl_'
'Vysoké_'
'sek_'
'energetických_'
'požadované_'
' ( '
'výměnu_'
'pohodlí_'
'soudí_'
'rad_'
'ochoten_'
'volantem_'
'nakládání_'
'automobilu_'
' . ?_'
'spolehlivě_'
'životy_'
'Maria_'
'hrála_'
'ovský_'
'ch'
'novému_'
'des_'
'seriál_'
'prostorách_'
'určitém_'
'přečíst_'
'úspor_'
'jmen_'
'sérii_'
'výživy_'
'snímků_'
'rozšiřuje_'
'post_'
've'
'jádra_'
'otočila_'
'jinam_'
'P'
'Mgr_'
'kudy_'
'jazyků_'
'městských_'
'technologické_'
'časově_'
'cestující_'
'nastal_'
'aplikovat_'
'sě_'
'zdůrazňuje_'
'přidat_'
'nosí_'
'formální_'
'babička_'
'činit_'
'69_'
'Neboť_'
'sklizně_'
'450_'
'Váš_'
'znaků_'
'med_'
'poznámky_'
'utím_'
'kdykoliv_'
'export_'
'prevenci_'
'nik_'
'pravděpodobností_'
'závislost_'
'navštívil_'
'UA_'
'plyne_'
'navždy_'
'ase_'
'zla_'
'Internet_'
'skutečnou_'
'cenné_'
'telefonů_'
'administrativní_'
'sp'
'1987_'
'tř'
'alternativní_'
'vyrazil_'
'hřiště_'
'patře_'
'jdi_'
'hráč_'
'ú'
'revoluci_'
'výstavbě_'
'anglicky_'
'vzoru_'
'jmenoval_'
'peří_'
'počkat_'
'ČNR_'
'vloni_'
'výrobou_'
'bývalých_'
'X'
'serveru_'
'distribuce_'
'vyšlo_'
'začínal_'
'sbírky_'
'kte_'
'brzo_'
'čh_'
'kapitál_'
'uvolnění_'
'pojišťoven_'
'sta'
'taká_'
'Mohou_'
'vzpomíná_'
'Otázka_'
'silnic_'
'ranní_'
'politicky_'
'burze_'
'zařadit_'
'profesní_'
'bytosti_'
'Vlastní_'
'odpovídat_'
'ochotni_'
'Maj_'
'čtenářů_'
'souvislost_'
'schopné_'
'kolegové_'
'Informace_'
'Dobrá_'
'kapitoly_'
'vzdálené_'
'polí_'
'úspěchy_'
'poplatků_'
'popsat_'
'Dokud_'
'současném_'
'dovoz_'
'půda_'
'Policie_'
'konkrétním_'
'trvalé_'
'vem_'
'vyhledávání_'
'čko_'
'Hradec_'
'celkových_'
'příslušných_'
'server_'
'byznysu_'
'stávajících_'
'zastavila_'
'věřím_'
'odhadnout_'
'ústrojí_'
'SMS_'
' %_'
'výkonnost_'
'elné_'
'ista_'
'slabé_'
'nes_'
'smluvní_'
'Novák_'
'pustit_'
'ůže_'
'dejte_'
'směřuje_'
'navýšení_'
'mo'
'základy_'
'určený_'
'důsledkem_'
'obočí_'
'kovu_'
'Londýna_'
'kdesi_'
'Němců_'
'sv'
'objevili_'
'požadavku_'
'ztratila_'
'územní_'
'vín_'
'okny_'
'ent_'
'Cítil_'
'obrábění_'
'široká_'
'užívat_'
'příspěvku_'
'poledne_'
'veliký_'
'rozměr_'
'čest_'
'zkušební_'
'větve_'
'psychologie_'
'odjel_'
'zóny_'
'polní_'
'K'
'Základem_'
'sk'
'testů_'
'stolku_'
'ČSOB_'
'Tou_'
'ťo_'
'hráli_'
'ele_'
'obrovskou_'
'nedokázala_'
'uvědomila_'
'SS_'
'částice_'
'vývoz_'
'zvláštním_'
'podobnou_'
'ismu_'
'Příklad_'
'doklady_'
'okně_'
'Ježíš_'
'online_'
'ávají_'
'ně'
'závazky_'
'kovů_'
'tituly_'
'tvůrčí_'
'jho_'
'Svou_'
'vyvíjí_'
'inou_'
'lístky_'
'86_'
'oživení_'
'soudy_'
'zvyšují_'
'informovat_'
'byl'
'uzavřít_'
'smíchu_'
'boží_'
'krmiv_'
'databáze_'
'přišly_'
'definice_'
'RA_'
'uv_'
'zajišťují_'
'značný_'
'nesou_'
'akt_'
'vzorku_'
'nevidí_'
'chodby_'
'te'
'vybudovat_'
'doplnit_'
'připomenout_'
'Řekla_'
'potřebujete_'
'zastaví_'
' - "_'
'kyz_'
'momentálně_'
'zákoně_'
'ČOS_'
'z'
'1986_'
'ška_'
'vlastními_'
'srdeční_'
'podporují_'
'kte'
'jednotku_'
'73_'
'linii_'
'porostu_'
'lidech_'
'omezené_'
' " , " _'
'mrtvý_'
'navazuje_'
'šedé_'
'naznačuje_'
'časopisů_'
'negativně_'
'žebříčku_'
'ovcí_'
'tamní_'
'týkají_'
'vojáky_'
'hi_'
'současnou_'
'druhých_'
'technik_'
'neumí_'
'nedávné_'
'minimum_'
'eí_'
'výkladu_'
'umožnit_'
'konstatovat_'
'sídlo_'
'upřímně_'
'ks_'
'uvedeného_'
'acích_'
'snížil_'
'použil_'
'doktora_'
'Američané_'
'Čtyři_'
'výnosů_'
'ERP_'
'servisu_'
'zkoušek_'
'velitel_'
'cyklus_'
'některými_'
'komponenty_'
'Ph_'
'demokracii_'
'pohonu_'
'orientace_'
'dechu_'
'řízením_'
'oběhu_'
'zámek_'
'Doktor_'
'zmíněných_'
'dokonalé_'
'zemědělskou_'
'obrátit_'
'letadlo_'
'licence_'
'převodovka_'
'nepříjemné_'
'1980_'
'vrchní_'
'Net'
'Ženy_'
'udržovat_'
'pokrok_'
'kter'
'něte_'
'můžou_'
'vyjít_'
'nafty_'
'elegantní_'
'působící_'
'Africe_'
'tajemník_'
'álního_'
'slovem_'
'Žádná_'
'ei_'
'výkonů_'
'společenských_'
'vlasti_'
'ls_'
'nakolik_'
'kupní_'
'0'
'provedl_'
'Kniha_'
'gy_'
'ledu_'
'mistra_'
'jízdu_'
'rodiči_'
'krvi_'
'příslušného_'
'mála_'
'argumenty_'
'kůň_'
'dojmem_'
'skladby_'
'visí_'
'komisi_'
'skvělé_'
'nedal_'
'ušetřit_'
'stabilitu_'
'západ_'
'chodu_'
'nezávisle_'
'jen'
'hlasování_'
'pozorně_'
'obchodech_'
'ěme_'
'osobním_'
'Dítě_'
'zásahu_'
'takzvané_'
'zoufale_'
'ánu_'
'prezentaci_'
'klinické_'
'ldyž_'
'spojit_'
'příslušenství_'
'78_'
'profesora_'
'chlazení_'
'pořadu_'
'ministrů_'
'slabší_'
'zákoník_'
'Znamená_'
'zelenou_'
'podnikatelské_'
'poskytne_'
'kvalitních_'
'dostupných_'
'heslo_'
'mizí_'
'žádným_'
'spuštění_'
'dosah_'
'I'
'trávy_'
'návštěvníci_'
'Kontakt_'
'pás_'
'zátěž_'
'kluci_'
'níže_'
'nestojí_'
'výpověď_'
'Paříže_'
'Nova_'
'bl_'
'Ř'
'povahu_'
'vlhkosti_'
'legislativy_'
'Jindřich_'
'přesněji_'
'doufám_'
'Jednotlivé_'
'Facebook_'
'led_'
'jak'
'CI_'
'Řím_'
'způsobil_'
'původním_'
'Příkladem_'
'Antonín_'
'Android_'
'ávání_'
'ruského_'
'vzdát_'
'transformace_'
'zahájil_'
'cigaretu_'
'nízkých_'
'nervy_'
'dosáhne_'
'závodě_'
'obrazovce_'
'naprosté_'
'záznamy_'
'záměru_'
'ude_'
'dítětem_'
'klesl_'
'ČT_'
'Benz_'
'boční_'
'nezávislé_'
'novela_'
'komunikovat_'
'chrámu_'
'akutní_'
'bankovnictví_'
'pře'
'poznatků_'
'index_'
'paláce_'
'chutí_'
'zvýšenou_'
'dodávek_'
'Ý'
'iček_'
'uživatelům_'
'nemění_'
'potíží_'
'vůni_'
'otevřeně_'
'in'
'souhlasu_'
'1984_'
'podvozku_'
'max_'
'kultuře_'
'rámu_'
'pohybem_'
'Starý_'
'kterés_'
'uvažuje_'
'prodávají_'
'Pomocí_'
'zavést_'
'hleděl_'
'ta'
'nízký_'
'přímou_'
'posoudit_'
'sedmdesátých_'
'rodinou_'
'výborně_'
'cenách_'
'východě_'
'střechu_'
'plánů_'
'nské_'
'svaly_'
'se'
'ovské_'
'nanejvýš_'
'elo_'
'D'
'mimochodem_'
'snížila_'
'vs_'
'ěný_'
'Dům_'
'ým'
'str'
'svědectví_'
'struktuře_'
'gie_'
'válkou_'
'vchodu_'
'Mladá_'
'typem_'
'předchozího_'
'níky_'
'nezná_'
'Skupina_'
'třetina_'
'Jaroslava_'
'Letošní_'
'zaměřuje_'
'Postupně_'
'vydavatelství_'
'Plzni_'
'pomyslela_'
'sociálním_'
'ckým_'
'Každé_'
'ést_'
'zlo_'
'obvinění_'
'otevírá_'
'francouzský_'
'Harry_'
'Celé_'
'03_'
'subjekt_'
'vice_'
'příspěvky_'
'slíbil_'
'Rok_'
'objektivní_'
'lepším_'
'poplatek_'
'ylo_'
'kolektivní_'
'"_'
'přáteli_'
'Řešení_'
'nebol_'
'Prý_'
'slečna_'
'obrazovky_'
'spotřebě_'
'Sotva_'
'In'
'oprávnění_'
'iž_'
'emoce_'
'dílny_'
'ČNB_'
'Koncem_'
'sklon_'
'kariéru_'
'živočišné_'
'ujícím_'
'devadesátých_'
'ruční_'
'finance_'
'1985_'
'vyloučit_'
'velcí_'
'nemocného_'
'ýc'
'nákladních_'
'kolegů_'
'ostrov_'
'CAD_'
'zdravotnické_'
'lidové_'
'stačit_'
'71_'
'Naši_'
'úspěchem_'
'zaměřit_'
'novi_'
'Paříž_'
'prokázat_'
'mrtvé_'
'staletí_'
'vrchol_'
'slovenských_'
'přístavu_'
'zájemci_'
'prstem_'
'padl_'
'osmé_'
'nečekaně_'
'čerstvě_'
'náručí_'
'postavu_'
'exportu_'
'uzavírá_'
'krajině_'
'zamířil_'
'nástupu_'
'ho'
'stanovena_'
'přemýšlel_'
'Šel_'
'nevěděla_'
'Ů'
'mann_'
'komodit_'
'Ráno_'
'pádem_'
'TO_'
'čínské_'
'předpoklad_'
'fakultě_'
'1939_'
'úvodu_'
'nade_'
'83_'
'výšku_'
'zelená_'
'domku_'
'pojmu_'
'zbytku_'
'bejt_'
'Man_'
'Původní_'
'studovat_'
'probíhají_'
'lt_'
'rostlinné_'
'minulé_'
'společných_'
'pravděpodobnost_'
'luxusní_'
'kostel_'
'vedoucího_'
'TE_'
'vzduchem_'
'horizontu_'
'odpady_'
'položky_'
'ča_'
'mému_'
'zázrak_'
'novinek_'
'zůstanou_'
'Finanční_'
'AT_'
'jelo_'
'pomoct_'
'běh_'
'symbol_'
'plody_'
'působnosti_'
'porozumění_'
'álním_'
'nezbývá_'
'plášť_'
'ústavní_'
'foto_'
'Původně_'
'1969_'
':_'
'220_'
'schopny_'
'neboř_'
'zmizí_'
'Myslel_'
'pokusů_'
'čkou_'
'životním_'
'reálném_'
'průběžně_'
'limity_'
'účinku_'
'koncernu_'
'tar'
'čtenář_'
'ív_'
'napřed_'
'zákonu_'
'mat'
'Japonsku_'
'čelit_'
'naplnění_'
'právnické_'
'následovat_'
'jejími_'
' ‘ _'
'grafické_'
'klasický_'
'yt_'
'přejít_'
'považován_'
'obcích_'
'zvyšovat_'
'skončit_'
'ostmi_'
'navrhuje_'
'sféry_'
'lová_'
'chybět_'
'díle_'
'okolnosti_'
'umělé_'
'barevných_'
'pevných_'
'Všude_'
'přijímat_'
'úvodní_'
'volant_'
'těšit_'
'Top_'
'větu_'
'tabulce_'
'Plus_'
'NHL_'
'věčně_'
'Přece_'
'Nedávno_'
'ekonomice_'
'Toyota_'
'žijící_'
'jednal_'
'sever_'
'probíhat_'
'Ivana_'
'dětských_'
'Jakl_'
'měří_'
'bloků_'
'zabil_'
'Skoro_'
'Odpověď_'
'padesátých_'
'Navzdory_'
'clo_'
'porosty_'
'autobus_'
'čelní_'
'Československo_'
'filmové_'
'čehož_'
'nejvyšším_'
'televizních_'
'otáček_'
'lové_'
'získané_'
'pil_'
'odchází_'
'odd_'
'osvobození_'
'setkáváme_'
'výrazu_'
'přiznal_'
'naplno_'
'tábora_'
'akciové_'
'Unie_'
'prvkem_'
'fakta_'
'mimo'
'padá_'
'autorem_'
'standardu_'
'otevřených_'
'osmdesátých_'
'světovou_'
'příslušný_'
'87_'
'přestala_'
'týmy_'
'radnice_'
'TDI_'
'Náhle_'
'procesor_'
'ocení_'
'Oni_'
'přepravu_'
'pracovali_'
'dlaně_'
'primárně_'
'hlubší_'
'jmenován_'
'platnosti_'
'nesl_'
'nynější_'
'připravené_'
'nákupní_'
'rodičům_'
'nebudete_'
'nebí_'
'trval_'
'nedalo_'
'nec_'
'volá_'
'červenou_'
'ss_'
'připraveni_'
'UŠ_'
'překážky_'
'zn_'
'uložit_'
'Maďarsku_'
'nemocnic_'
'výpovědi_'
'nemůžete_'
'nku_'
'Nevy'
'Muži_'
'1200_'
'ás_'
'zajímavých_'
'vztahuje_'
'AD'
'zprávě_'
'dán_'
'jazyce_'
'hmotností_'
'hostů_'
'uzavřel_'
'způsobené_'
'ostré_'
'osobou_'
'ztrát_'
'náleží_'
'uvádějí_'
'oněch_'
'virtuální_'
'uměl_'
'vyprávět_'
'dostupnost_'
'volání_'
'ptát_'
'vzniklé_'
'nosit_'
'výstavu_'
'klobouk_'
'návštěvníky_'
'ěná_'
'výměny_'
'hodnotit_'
'jmi_'
'věž_'
'konstatuje_'
'paži_'
'známého_'
'největšího_'
'změnami_'
'ováni_'
'otevřely_'
'desce_'
'bál_'
'volal_'
'ulic_'
'řo'
'Však_'
'pravém_'
'kompaktní_'
'ant_'
'É'
'klíče_'
'Mezitím_'
'notebook_'
'Rudolf_'
'ČLK_'
'G'
'ochranné_'
'poskytnutí_'
'uvidí_'
'rázem_'
'řídil_'
'veřejnou_'
'respektovat_'
'dámy_'
'bílkovin_'
'pozdní_'
'jakási_'
'Afriky_'
'signály_'
'francouzského_'
'oj_'
'spotřební_'
'Ě'
'nosu_'
'ce'
'dávka_'
'dohledu_'
'Helena_'
'ley_'
'city_'
'mluvili_'
'Výrobce_'
'Král_'
'C'
'komunistické_'
'filozofie_'
'daňových_'
'veškerá_'
'vyrábějí_'
'U'
'pravomoci_'
'způsobí_'
'kanál_'
'váme_'
'Mark_'
'jménu_'
'mechanismus_'
'kritiky_'
'šťastný_'
'ěna_'
'novinka_'
'zúčastnil_'
'A'
'hromady_'
'shora_'
'měny_'
'jakosti_'
'běžnou_'
'přidal_'
'momentu_'
'číslem_'
'příkladu_'
'výstavba_'
'přátele_'
'prohlásila_'
'Miloš_'
'manažeři_'
'dlaní_'
'zhodnocení_'
'družstev_'
'okraje_'
'kamene_'
'prohlédnout_'
'dobrovolně_'
'dešti_'
'přijala_'
'valo_'
'podobným_'
'ruchu_'
'4000_'
'sál_'
'spektrum_'
'Jednoho_'
'vyrobit_'
'vojenských_'
'zdravý_'
'w'
'leč_'
'ňte_'
'podepsal_'
'ker_'
'personální_'
'adrese_'
'zpravodajství_'
'rozložení_'
'výbavy_'
'alkohol_'
'podmínkám_'
'stěnu_'
'pohodlně_'
'četné_'
'posun_'
'seriálu_'
'mimořádné_'
'vykazuje_'
'rozlišením_'
'átu_'
'patra_'
'ova'
'Grand_'
'lík_'
'Jakš_'
'zakázku_'
'víkendu_'
'potřebám_'
'tiž_'
'Model_'
'stíny_'
'servisní_'
'letecké_'
'Celková_'
'průvodce_'
'miluje_'
'jakž_'
'samém_'
'dobrodružství_'
'stálé_'
'podnicích_'
' : , _'
'údaj_'
'profilu_'
'zvolen_'
'máslo_'
'užívá_'
'pánové_'
'Ústavu_'
'zahlédl_'
'politik_'
'pocházejí_'
'ob'
'zavádění_'
'nikam_'
'ům'
'Novém_'
'šíří_'
'jevy_'
'1970_'
'horké_'
'iu_'
'věnována_'
'místopředseda_'
'Nebyla_'
'240_'
'tempo_'
'Nemá_'
'Business_'
'skříně_'
'kce_'
'zklamání_'
'vyslovil_'
'cestování_'
'Jákl_'
'problémům_'
'záměrně_'
'kon_'
'aneb_'
'vhodnou_'
'praví_'
'středisko_'
'úsek_'
'světový_'
'eb_'
'Větší_'
'dej_'
'krizí_'
'OD_'
'anu_'
'témat_'
'portfolia_'
'In_'
'česko_'
'ničí_'
'literatura_'
'vhodných_'
'dovednosti_'
'dnešním_'
'umělců_'
'sekund_'
'zdroji_'
'lidstva_'
'ET'
'Česka_'
'sehnat_'
'que_'
'účetnictví_'
'06_'
'ná'
'dotaz_'
'získávání_'
'uživateli_'
'obrátila_'
'ničem_'
'jasná_'
'Zájem_'
'snahou_'
'O2_'
'žádat_'
'vajec_'
'odhad_'
'hluk_'
'kurz_'
'jsm_'
'panel_'
'zaci_'
'milovat_'
'al'
'výhodnější_'
'uspokojení_'
'HO_'
'pochybnosti_'
'chovatelů_'
'volí_'
'počáteční_'
'svahu_'
'palubě_'
'dárek_'
'varování_'
'soudem_'
'důvěry_'
'středního_'
'vl_'
'montáž_'
'okolních_'
'Zvláště_'
'mladík_'
'básně_'
'překladu_'
'Večer_'
'položek_'
'mládež_'
'IBM_'
'Svaz_'
'volbou_'
'sněmovny_'
'Dal_'
'E'
'radikální_'
'Mobile_'
'hůř_'
'vydali_'
'podrobnosti_'
'sportovních_'
'ance_'
'lístek_'
'zemědělská_'
'MPa_'
'barvou_'
'zemní_'
'polohu_'
'zábradlí_'
'uplynulých_'
'ekologických_'
'spojena_'
'obdobím_'
' ´ _'
'potravy_'
'vyznačuje_'
'disků_'
'iku_'
'hrad_'
'pít_'
'kovy_'
'legislativní_'
'chtělo_'
'pocitem_'
'image_'
'třída_'
'zemědělcům_'
'kruh_'
'přerušení_'
'otevřený_'
'řil_'
'ard_'
'vedoucích_'
'sféře_'
'jaro_'
'rolí_'
'efektu_'
'malými_'
'inovací_'
'bok_'
'sovětské_'
'pozic_'
'bud'
'pěkné_'
'lodě_'
'osy_'
'ženám_'
'anglické_'
'zřídka_'
'letišti_'
'váží_'
'bý_'
'zápasu_'
'komplikací_'
'dívku_'
'Kneře_'
'ukázaly_'
'nevíme_'
'cel_'
'ovládá_'
'Kateřina_'
'světlem_'
'akční_'
'Stanislav_'
'kilogramů_'
'živý_'
'prosté_'
'xu_'
'Vyšší_'
'koření_'
'Siemens_'
'milióny_'
'marketingové_'
'správná_'
'vědeckých_'
'Aspoň_'
'pepř_'
'říkalo_'
'dřívější_'
'karta_'
'kanálů_'
'jaderných_'
'dálky_'
'detailů_'
'sex_'
'zvyklí_'
'pod'
'úze_'
'rozkaz_'
'řazení_'
'sdělit_'
'student_'
' /_'
'Černý_'
'seminář_'
'pomohla_'
'ňují_'
'manipulaci_'
'klére_'
'tých_'
'rozdílu_'
'řádku_'
'1938_'
'převodovkou_'
'populaci_'
'Kapitola_'
'regionálních_'
'páté_'
'neviděla_'
'Celkově_'
'vítěz_'
'praktických_'
'těžká_'
'pravá_'
'Např_'
'EC_'
'knížku_'
'Indii_'
'nocí_'
'variantu_'
'technický_'
'vrstvu_'
'odborná_'
'Centrum_'
'vyrovnání_'
'vstoupila_'
'uskutečnit_'
';_'
'uzavřené_'
'vlastnost_'
'řů_'
'žaludku_'
'venkovní_'
'zemím_'
'vu'
'how_'
'mluvila_'
'nežádoucí_'
'střechou_'
'pojmem_'
'schodiště_'
'zoufalství_'
'či'
'Bill_'
'nemocné_'
'jso_'
'che_'
'íh_'
'ža_'
'prim_'
'účty_'
'výměna_'
'dosáhly_'
'íkem_'
'neme_'
'kanálu_'
'vypráví_'
'koupí_'
'přechází_'
'zastupitelstva_'
'pasivní_'
'dávce_'
'zovat_'
'intenzivně_'
'provozuje_'
'léčení_'
'výkonnosti_'
'těžkou_'
'pásma_'
'sl'
'zmínil_'
'odl_'
'přepravy_'
'ST_'
'Pán_'
'fyzicky_'
'mnohokrát_'
'Těžko_'
'udržuje_'
'tržby_'
'LCD_'
'zařízeních_'
'tvarů_'
'trvala_'
'tra_'
'ostrově_'
'osiva_'
'neslyšel_'
'břicho_'
'án'
'snažím_'
'pouhým_'
'používané_'
'vlastník_'
'Jane_'
'souhlasí_'
'pracující_'
'šti_'
'Br'
'reprezentace_'
'pořádek_'
'poruch_'
'Ekonom_'
'Voda_'
'kova_'
'hop_'
'uf_'
'V'
'žádného_'
'Jeně_'
'zajímavou_'
'Společnosti_'
'váním_'
'show_'
'Zprávy_'
'investoři_'
'bilance_'
'MW_'
'rý_'
'terý_'
'— _'
'čtyřiceti_'
'pevnou_'
'oknu_'
'Los_'
'James_'
'překlad_'
'áček_'
'vyššího_'
'odrůda_'
'ptáků_'
'rek_'
'pláště_'
'úkolu_'
'promluvil_'
'potřebnou_'
'ole'
'médiích_'
'ran_'
'sídlem_'
'ki_'
'žu_'
'ztratí_'
'ícími_'
'motivy_'
'dvoře_'
' ) : _'
'Španělsku_'
'Objem_'
'héo_'
'dostatečnou_'
'půlnoci_'
'nižším_'
'holky_'
'750_'
'podvozek_'
'míní_'
'li'
'Pomalu_'
'ujme_'
'Maďarsko_'
'zrušit_'
'maximum_'
'vlastnostmi_'
'děla_'
'víra_'
'Platí_'
'ruský_'
'osobám_'
'chodníku_'
'podílem_'
'konstrukční_'
'Pr'
'vými_'
'stáhnout_'
'snů_'
'79_'
'vyhodnocení_'
'převod_'
'přistoupil_'
'závislé_'
'oc_'
'to'
'cíh_'
'vstupuje_'
'ubytování_'
'kina_'
'správního_'
'MěÚ_'
'Design_'
'otevřená_'
'solí_'
'nelíbí_'
'mini'
'získaly_'
'znak_'
'silným_'
'prostředím_'
'AN_'
'sester_'
'Ran'
'vracet_'
'napsala_'
'mim_'
'vykonávat_'
'procenty_'
'ejme_'
'Vedení_'
'venkově_'
'vlhkost_'
'Druhým_'
'Dnešní_'
'zániku_'
'tušení_'
'svědky_'
'yv_'
'komplex_'
'IT'
'inteligence_'
'střed_'
'sdílení_'
'Výroba_'
'mnohých_'
'listí_'
'hezké_'
'zavrtěl_'
'postižených_'
'notebooku_'
'čích_'
'prví_'
'poradí_'
'obecní_'
'cy_'
'problematiky_'
'chovají_'
'posuzování_'
'počítačové_'
'VW_'
'. . . _'
'nula_'
'dovoluje_'
'MA_'
'Nám_'
'nemocný_'
'prsa_'
'mechanismy_'
'tab_'
'patřit_'
'eným_'
'položila_'
'stavem_'
'pořad_'
'chvílí_'
'Nemohl_'
'poskytl_'
'bytost_'
'temné_'
'choval_'
'čaje_'
'přesnost_'
'Karlovy_'
'ní'
'yž_'
'elektronických_'
'lež_'
'vytvořili_'
'prší_'
'hospodářského_'
'zasmál_'
'rovnice_'
'tabulka_'
'vstupem_'
'náboženské_'
'CR_'
'Ž'
'slibuje_'
'historicky_'
'popsal_'
'teplot_'
'hladké_'
'poslanec_'
'obrovská_'
'Roku_'
'výkonné_'
'vi'
'typicky_'
'potěšení_'
'slavnostní_'
'ém'
'telný_'
'uvedena_'
'valné_'
'Doba_'
'vědom_'
'hvězda_'
'prsou_'
'oři_'
'dospěl_'
'společnostmi_'
'jedinci_'
'dráhu_'
'ery_'
' " ) _'
'kapse_'
'vinu_'
'konceptu_'
'převodu_'
'fronty_'
'tku_'
'podzemní_'
'planety_'
'per_'
'inspekce_'
'připadal_'
'ťte_'
'O'
'170_'
'lit_'
'bezprostřední_'
'kritické_'
'materiálem_'
'distribuci_'
'pracovišti_'
'podzimu_'
'Izrael_'
'schůzku_'
'rozpětí_'
'přiblížit_'
'ES'
'škod_'
'cho'
'aktéry_'
'Bratislavě_'
'Vladimíra_'
'šak_'
'ověřit_'
'ČTK_'
'jakého_'
'ac_'
'Tenhle_'
'loňský_'
'jednotlivce_'
' , ._'
'uvažoval_'
'modelem_'
'dosáhli_'
'bar_'
'penězi_'
'stanovených_'
'neuvěřitelně_'
'kových_'
'Alespoň_'
'Berlíně_'
'vozem_'
'mar'
'Abychom_'
'zavolat_'
'Peníze_'
'minutách_'
'prodejce_'
'chytil_'
'životních_'
'manažera_'
'dopisů_'
'04_'
'ANSI_'
'odehrává_'
'košile_'
'vymezení_'
'Hana_'
'Bosně_'
'vnějších_'
'skvělý_'
'dav_'
'klepněte_'
'off_'
'hrách_'
'bral_'
'J'
'zo_'
'nakrájíme_'
'svazek_'
'Vzal_'
'výslovně_'
'zapojit_'
'LF_'
'střešní_'
'snižují_'
'dnu_'
'brzdy_'
'May_'
'por'
'bodem_'
'dodržovat_'
'dorazil_'
'nedostatkem_'
'rezervy_'
'popisu_'
'pasu_'
'odmítla_'
'hladina_'
'fólie_'
'ZE_'
'bohatě_'
'lení_'
'rozhovory_'
'vzor_'
'Zda_'
'Stalo_'
'zápis_'
'přinášejí_'
'oborech_'
'analýze_'
'spolupracuje_'
'Jenu_'
'volbě_'
'regionů_'
'řečí_'
'armádě_'
'Uvedl_'
'aktére_'
'pozvání_'
'pří'
'převodovky_'
'IN_'
'vyzval_'
'zadním_'
'teorií_'
'eo_'
'celní_'
'até_'
'ger_'
'RS_'
'volných_'
'nejsilnější_'
'ze'
'kreativní_'
'nému_'
'evropském_'
'[ _'
'Un'
'tv_'
'vyspělých_'
'jil_'
'definovat_'
'bot_'
'psy_'
'mlčení_'
'činila_'
'příslušníků_'
'dvojí_'
'Tomáše_'
'Data_'
'špatná_'
'rozdílné_'
'občanství_'
'Závěr_'
'dospělé_'
'dostaneme_'
'balíček_'
'nejvýznamnější_'
' ) – _'
'tec_'
'prst_'
'látka_'
'výzvu_'
'bezpochyby_'
'potřebných_'
'partnerství_'
'rozumět_'
'obalu_'
'zelených_'
'elektrický_'
'tiskárny_'
'dostatečný_'
'výchozí_'
'ukazatele_'
'SUV_'
'1950_'
'květiny_'
'dílčí_'
'Vyplývá_'
'Š'
'literaturu_'
'integraci_'
'DA_'
'iniciativy_'
'tenké_'
'motivace_'
'odhaduje_'
'odchod_'
'stolem_'
'náhrady_'
'předním_'
'církevní_'
'voják_'
'přeje_'
'ctví_'
'bratři_'
'tah_'
'představovat_'
'úpravou_'
'počínaje_'
'MHz_'
'všeobecné_'
'krmné_'
' % ( _'
'touhy_'
'hodit_'
'porce_'
'paliv_'
'krvácení_'
'postavila_'
'pal_'
'zemřela_'
'Říkal_'
'továrny_'
'logie_'
'narazil_'
'k'
'spojená_'
'bud_'
'Dveře_'
'2'
'všimla_'
'komplikace_'
'prošla_'
'schválila_'
'nízkým_'
'ovité_'
'kyslíku_'
'kurs_'
'mrzí_'
'prodejny_'
'agenturu_'
'Podpora_'
'Nového_'
'Nejčastěji_'
'snídani_'
'krásy_'
'klávesnice_'
'dluhy_'
'kostele_'
'07_'
'zadarmo_'
'partneři_'
'krávy_'
'Výkon_'
'hnojení_'
'RAM_'
'návštěva_'
'zvládne_'
'scénář_'
'ovaného_'
'nastává_'
'itelné_'
'upravuje_'
'působila_'
'příjemný_'
'Uže_'
'palivo_'
'kupé_'
'předpokladem_'
'OS'
'ék_'
'kompetence_'
'fyzických_'
'Washingtonu_'
'1'
'ál'
'japonské_'
'obloze_'
'kanály_'
'dařilo_'
'výpočet_'
'takovému_'
'eu_'
'jistotou_'
'rodinného_'
'ao_'
'podílejí_'
'konzervativní_'
'výrobcem_'
'neděle_'
'formát_'
'věřil_'
'čnost_'
'Výsledek_'
'Sama_'
' )  _'
'ovanou_'
'hůře_'
'přímým_'
'šířka_'
'zápisu_'
'koupila_'
'Dneska_'
'it'
'chy_'
'Průměrná_'
'letadel_'
'berou_'
'Jena_'
'umělci_'
'společenského_'
'Pět_'
'písní_'
'večeře_'
'obzvlášť_'
'Management_'
'standardně_'
'Stál_'
'zabýval_'
'součásti_'
'dělo_'
'místního_'
'zaměstnanosti_'
'ruských_'
'Zajímavé_'
'čerpání_'
'žel_'
'Alice_'
'daných_'
'vš'
'komisí_'
'zaznamenal_'
'rat_'
'pojistného_'
'živí_'
'víkend_'
'nedostal_'
'če'
'nákladu_'
'přežít_'
'obnovitelných_'
'zvykem_'
'ise_'
'hospodářskou_'
'marek_'
'dojnic_'
'cop_'
'umístit_'
'obchodníci_'
'masivní_'
'koneckonců_'
'rychlou_'
'festival_'
'výpočtu_'
'úřední_'
'Moskva_'
'děvče_'
'vyhovuje_'
'PA_'
'vše'
'československé_'
'sálu_'
'náročnější_'
'znali_'
'zaměstnancům_'
'nábytek_'
'od'
'dos'
'kupředu_'
'Ja_'
'Věděla_'
'Vypadá_'
'postavili_'
'žně_'
'pohledávky_'
'vlastníků_'
'sluncem_'
'prázdný_'
'německém_'
'oe_'
'kontaktů_'
'Lake_'
'čit_'
'Ú'
'mysleli_'
'prodejem_'
'nádobí_'
'one'
'vysokými_'
'nápoje_'
'dobrém_'
'modernizace_'
'jazyky_'
'hledali_'
'dívek_'
'podivné_'
'trasy_'
'limit_'
'seznámil_'
'opakoval_'
'příště_'
'chemických_'
'Zpočátku_'
' ) ( _'
'přijeli_'
'tělesa_'
'nadějí_'
'bu'
'zov'
'přednášky_'
'miloval_'
'ye_'
'cigarety_'
'stá'
'zubů_'
'koni_'
'Malá_'
'JUDr_'
'využil_'
'EUR_'
'hluku_'
'slyší_'
'Oči_'
'záběr_'
'vzrostla_'
'jenu_'
'znamenal_'
'půdní_'
'vraždy_'
'rozhodnuto_'
'Elizabeth_'
'šatech_'
'eště_'
'žní_'
'Nejspíš_'
'Nad'
'reklamních_'
'přízemí_'
'hraní_'
'Agentura_'
'www_'
'proběhlo_'
'oční_'
' " " _'
'budoucího_'
'tablet_'
'nástup_'
'cestujících_'
'Tito_'
'Mnohé_'
'rozhlasu_'
'Hradci_'
'odkaz_'
'kdybyste_'
'humor_'
'ana'
'objevilo_'
'tichý_'
'čemuž_'
'názvy_'
'nejvhodnější_'
'par_'
'panely_'
'statistiky_'
'genů_'
'Evropský_'
'palubní_'
'Jinými_'
'táhne_'
'evidenci_'
'pa'
'myšlenkou_'
'automobilky_'
'zisky_'
'ocitl_'
'bezmála_'
'Uvnitř_'
'Ň'
'eji_'
'br'
'1967_'
'ár_'
'pouhou_'
'samotná_'
'GE_'
'pořízení_'
'kabát_'
'levné_'
'stability_'
'obnovení_'
'sů_'
'slušně_'
'sklenici_'
'aktiv_'
'etu_'
'poměrů_'
'objemem_'
'Seznam_'
'radě_'
'ji'
'navázat_'
'nastane_'
'Pro'
'spoření_'
'ála_'
'subjektu_'
'strategií_'
'jakýkoli_'
'hl'
'teoreticky_'
'koule_'
'vln_'
'displeji_'
'éh'
'yb_'
'postaví_'
'jakéhokoli_'
'áků_'
'významná_'
'oa_'
'otevřenou_'
'redakci_'
'RI'
'rekord_'
'níku_'
'mechanické_'
'kontrol_'
'brněnské_'
'ztrátě_'
'hladině_'
'soudního_'
'technickou_'
'kvalifikace_'
'příčinu_'
'provedena_'
'organismus_'
'sá_'
'sloužil_'
'krmení_'
'tlačítkem_'
'investory_'
'potvrdila_'
'dv'
'principů_'
'litr_'
'jeskyně_'
'zdůraznit_'
'Přišel_'
'touhu_'
'Aplikace_'
'závažné_'
'konala_'
'hub_'
'chodili_'
'Tahle_'
'zpracovat_'
'psi_'
'dávek_'
'zbývající_'
'kaž_'
'trápí_'
'použit_'
'áty_'
'investici_'
'přesný_'
'pi_'
'mléčné_'
'ryze_'
'útoky_'
'spo'
'fi'
'dokumentaci_'
'panem_'
'LG_'
'podstaty_'
'produkcí_'
'studoval_'
'zachytit_'
'spokojen_'
'vybavena_'
'obnovu_'
'tel'
'módní_'
'prost'
'Všechna_'
'1982_'
'budoucích_'
'racionální_'
'konflikt_'
'ztrátou_'
'vystupuje_'
'voličů_'
'prádlo_'
'jakýmsi_'
'podoba_'
'1983_'
'posílit_'
'zápěstí_'
'sin'
'ouď_'
'městského_'
'zimu_'
'zaslechl_'
'časopisy_'
'obilovin_'
'Obvykle_'
'registraci_'
'sporů_'
'plochou_'
'polské_'
'počty_'
'jed'
'příznivé_'
'milý_'
'použity_'
'hlouběji_'
'da'
'nejčastější_'
'Pár_'
'schopná_'
'některého_'
'Tolik_'
'rytmu_'
'Ví_'
'pohledávek_'
'otázkách_'
'Mimochodem_'
'večerní_'
'Dlouho_'
'ýv'
'ukládání_'
'potkal_'
'činů_'
'splňuje_'
'týmů_'
'motiv_'
'standardy_'
'sová_'
'kost_'
'návrhem_'
'čet_'
'výbava_'
'kupodivu_'
'Moskvy_'
'LO'
'platy_'
'nehty_'
'dráze_'
'zápase_'
'srdcem_'
'pěkný_'
'Lukáš_'
'interiér_'
'drůbeže_'
'krajů_'
'Zase_'
'div_'
'psů_'
'myš_'
'vaření_'
'hektar_'
'ějí_'
'zkusit_'
'předal_'
'obdržel_'
'duší_'
'uí_'
'jao_'
'aři_'
'řit_'
'odešli_'
'typický_'
'povrchem_'
'majitelů_'
'360_'
'důsledně_'
'vybudování_'
'pozn_'
'obchodníků_'
'Abú_'
'vyměnit_'
'žá'
'rizikem_'
'jízda_'
'jevů_'
'odhalit_'
'pěšky_'
'civilní_'
'kufru_'
'hnojiva_'
'Myslíte_'
'kí'
'samostatný_'
'Thomas_'
'nevědí_'
'přečetl_'
'socialismu_'
'ka'
'krví_'
'Ť'
'čistého_'
'pouhý_'
'uvedli_'
'vracel_'
'soukromý_'
'lek_'
'díry_'
'ora_'
'Pozor_'
'tm_'
'paprsky_'
'doporučit_'
'připravili_'
'dotazy_'
'stopu_'
'jaky_'
'nábytku_'
'personálu_'
'zá'
'odsud_'
'Nadace_'
'nouze_'
'1964_'
'kový_'
'Ci_'
'velkému_'
'podávat_'
'pokusit_'
'personál_'
'opačném_'
'probudil_'
'hudbě_'
'Ně'
'očividně_'
'obzvláště_'
'1960_'
'vadí_'
'dopadne_'
'padla_'
'aným_'
'AT'
'Výše_'
'Cestou_'
'Změna_'
'PS'
'vyučování_'
'kterýs_'
'občanům_'
'Ki'
'ČSL_'
'ío_'
'adu_'
'ers_'
'politickým_'
'účastní_'
'pracovníka_'
'národním_'
'pozemek_'
'nu'
'spustil_'
'nežli_'
'mezí_'
'slavné_'
'úředníci_'
'hm_'
'és_'
'příslušníci_'
'centrem_'
'zabývají_'
'Záleží_'
'kariéry_'
'zážitky_'
'chápe_'
'stresu_'
'land_'
'spal_'
'me'
'uplatňuje_'
'nici_'
'tuzemských_'
'prodal_'
'omezuje_'
'ucí_'
'životů_'
'parlamentní_'
'neobyčejně_'
'žáka_'
'akademie_'
'měl'
'stanou_'
'hon_'
'konal_'
'Rusové_'
' - '
'rovné_'
'energetiky_'
'frekvenci_'
'příchodu_'
'podzimní_'
'acím_'
'vel'
'oz_'
'chodila_'
'pas_'
'přístupem_'
'dáma_'
'naleznete_'
'starým_'
'ím'
'stránka_'
'místním_'
'docházelo_'
'dočasně_'
'kolega_'
'děj_'
'bezesporu_'
'pl'
'hrubé_'
'kovou_'
'rny_'
'rie_'
'hovoru_'
'Nejdříve_'
'republik_'
'pronesl_'
'samotnou_'
'dotaci_'
'čila_'
'vydržet_'
'připravují_'
'Podíval_'
'souvisejících_'
'spokojeni_'
'atý_'
'odborného_'
'ňě_'
'prestižní_'
'postižením_'
'nadace_'
'dokáží_'
'průměrně_'
'předpis_'
'měrou_'
'mě'
'AŠ_'
'pevnost_'
'vzhledu_'
'zodpovědnost_'
'Nás_'
'okem_'
'modul_'
'Jecho_'
'HDMI_'
'atmosféra_'
'íe_'
'natož_'
'spolehlivost_'
'touží_'
'stojící_'
'sklizni_'
'odměnu_'
'lhůty_'
'sešli_'
'tkáně_'
'železa_'
'obdobně_'
'Bratislava_'
'hospodářský_'
'Uf_'
'lesích_'
'vzrušení_'
'manželky_'
'moderním_'
'základny_'
'CIA_'
'Mohla_'
'éra_'
'Havla_'
'Zkrátka_'
'technologických_'
'Podíl_'
'podstatu_'
'íl_'
'řídící_'
'uzl_'
'ostrova_'
'vnějším_'
'projevil_'
'pochyb_'
'dopise_'
'il'
'britský_'
'ivé_'
'biologické_'
'absurdní_'
'Frank_'
'Rose_'
'nete_'
'bohatý_'
'krajinu_'
'ého'
'jazykové_'
'stanoviska_'
'příroda_'
'žák_'
'hodný_'
'hrudi_'
'sítích_'
'národy_'
'vztek_'
'požadovat_'
'děláme_'
'davu_'
'výraznější_'
'věcmi_'
'ptáci_'
'Kdysi_'
'učil_'
'měkké_'
'silnicích_'
'Tomo_'
'zahraničním_'
'Nejsou_'
'nezávislost_'
'spojen_'
'ložiska_'
'kamenné_'
'Rozdíl_'
'okresní_'
'statku_'
'ium_'
'týdeník_'
'postižené_'
'autobusu_'
'možnostech_'
'hlav_'
'ane'
'výstupu_'
'IE_'
'vil_'
'zněl_'
'napájení_'
'Johna_'
'růže_'
'graf_'
'GHz_'
'rozhovorů_'
'krátkém_'
'odhadů_'
'mezd_'
'Firmy_'
'ěm'
'Slyšel_'
'sledují_'
'projevem_'
'Změny_'
'uvěřit_'
'diváky_'
'Náklady_'
'voze_'
'1918_'
'úhel_'
'novinářů_'
'navigace_'
'1976_'
'školního_'
'dluhu_'
'těsto_'
'svoboda_'
'dosavadních_'
'zaručuje_'
'sezóny_'
' . . . “_'
'vací_'
'použité_'
'Věřím_'
'vrstvou_'
'německou_'
'láhve_'
'Ny'
'SP'
'Jeny_'
'všechní_'
'St'
'vzácné_'
'fu_'
'cu_'
'nepřímo_'
'výzvy_'
'spořitelny_'
'provede_'
'poslouchal_'
'Podobné_'
'hala_'
'Abych_'
'Japonsko_'
'stech_'
'převzetí_'
'komplexu_'
'jejž_'
'špatnou_'
'stvoření_'
'ičtí_'
'nastat_'
'klimatu_'
'doplnil_'
'Obchodní_'
'Lucie_'
'středním_'
'soudů_'
'registrace_'
'podala_'
'320_'
'silami_'
'osmdesát_'
'manželkou_'
'poslance_'
'individuálně_'
'dou'
'Mac'
'slovenského_'
'přípravku_'
'polích_'
'technická_'
'kapacit_'
'kin_'
'štění_'
'potenciálu_'
'zmínit_'
'očekávají_'
'poznala_'
'kulturního_'
'dohled_'
'obrazem_'
'spalování_'
'býka_'
'sídlí_'
'umístěny_'
'tržeb_'
'nejspíše_'
'hnout_'
'tajně_'
'Londýn_'
'Jediné_'
'větví_'
'kritika_'
'běžném_'
'Med_'
'1981_'
'2500_'
'třídu_'
'růstem_'
'1949_'
'natáčení_'
'nápis_'
'nakupovat_'
'dodavatel_'
'Ad'
'ed'
'prostředkem_'
'areál_'
'báseň_'
'červený_'
'bloky_'
'vit_'
'radí_'
'nedělá_'
'IP'
'složku_'
'placení_'
'Celkový_'
'řez_'
'vydá_'
'rozhodlo_'
'ae'
'položit_'
'omyl_'
'staří_'
'chléb_'
' , ( _'
'hojně_'
'celků_'
'NT'
'uvidíme_'
'sbor_'
'nákupy_'
'lka_'
'jednotné_'
'líbilo_'
'SM'
'věnují_'
'vlád_'
'napadení_'
'cen'
'ozimé_'
'Zhruba_'
'českými_'
'moči_'
'firmami_'
'ckém_'
'nádoby_'
'Pa_'
'zpěv_'
'host_'
'úzu_'
'ren_'
'sedadel_'
'památky_'
'jednoduchou_'
'životnosti_'
'DS'
'Příprava_'
'rovná_'
'Pracovní_'
'svý_'
'verše_'
'slušné_'
'prvo'
'prohlížel_'
'výstupy_'
'slovní_'
'pásu_'
'Víc_'
'Sparta_'
'krabice_'
'existující_'
'jaku_'
'charakteristiky_'
'Výběr_'
'vazbu_'
'hovor_'
'čtvrtý_'
'sazeb_'
'vrhl_'
'Okamžitě_'
'starém_'
'rodí_'
'ST'
'zvenčí_'
'příkladů_'
'ury_'
'ministerstvem_'
'regionech_'
'pochopila_'
'výzkumné_'
'tř_'
'tvrdý_'
'ge'
'talent_'
'port_'
'Celou_'
'snazší_'
'zemědělský_'
'itou_'
'řetězců_'
'sm_'
'ck'
'štábu_'
'změnách_'
'vědomím_'
'dokazuje_'
'klasickou_'
'fyzikální_'
'rozpadu_'
'rozhodčí_'
'projevit_'
'lin_'
'An'
'1972_'
'fantazie_'
'ša_'
'Li_'
'živých_'
'potřebný_'
'obranu_'
'kaz_'
'průměrnou_'
'farmě_'
'bolí_'
'nepřítele_'
'ir'
'Vysoká_'
'Jednak_'
'nutím_'
'neí_'
'le'
'AB'
'že'
'schopný_'
'dýchání_'
'dialog_'
'míč_'
'laboratoře_'
'Joe_'
'oucí_'
'záznamu_'
'sankce_'
'spotřebou_'
'ět'
'vydávat_'
'vládne_'
'kání_'
'kon'
'poháru_'
'nemohly_'
'diváci_'
'dek_'
'Jakou_'
'Spotřeba_'
'tuzemské_'
'předchůdce_'
'mírou_'
'pohonných_'
'nástupce_'
'PS_'
'hesla_'
'Společně_'
'společném_'
'doc_'
'nebýt_'
'celo'
'tep_'
'považována_'
'požáru_'
'sjednocení_'
'ety_'
'Mu'
'zprvu_'
'směry_'
'získají_'
'vysokém_'
'zlatý_'
'jaka_'
'ochranou_'
'nahradí_'
'ých'
'rpo'
'představovala_'
'potřebovala_'
'zvláštních_'
'klubů_'
'dodávají_'
'výzkumů_'
'symbolem_'
'fotbal_'
'řeka_'
'oř'
'éru_'
'Jim_'
'plno_'
'smyslem_'
'Air_'
'pd'
'ah_'
'čekání_'
'jakoukoli_'
'závislá_'
'souhlasit_'
'neš_'
'cílové_'
'Uni'
'pokouší_'
'rod'
'mise_'
'zrychlení_'
'novo'
'pH_'
'xe_'
'specializované_'
'levou_'
'kultur_'
'formace_'
'potěší_'
'objevovat_'
'známou_'
'zaplatil_'
'naposled_'
'zničit_'
'revoluční_'
'ny'
') ._'
'přijali_'
'ín'
'World_'
'Al'
'jakéhosi_'
'hne_'
'češtiny_'
'pražský_'
'šly_'
'Sociální_'
'slyšeli_'
'em'
'noha_'
'distribuční_'
'rozvíjí_'
'facto_'
'Rozhodnutí_'
'kříž_'
'souhlasil_'
'nechtěli_'
'společná_'
'úže_'
'ází_'
'Go'
'křesťanské_'
'Juste_'
'přístupy_'
'vozíku_'
'jt'
'Musíte_'
'tvůrce_'
'SV'
'jednotlivým_'
'židovské_'
'nejvýše_'
'fronta_'
'Nick_'
'ukládá_'
'mobilu_'
'herec_'
'tvořily_'
'Dle_'
'zacházení_'
'kopie_'
'ol'
'vědění_'
'En'
'stva_'
'střeše_'
'místností_'
'křesle_'
'Horní_'
'va'
'Filip_'
'vhodně_'
'Mé_'
'expertů_'
'dlouhodobý_'
'přínosem_'
'lepšího_'
'1920_'
' ? " " _'
'citlivé_'
'účinně_'
'dlouhými_'
'vstoupí_'
'vepřového_'
'pode_'
'ám'
'výrobního_'
'Dostal_'
'ivě_'
'výraznou_'
'majetkem_'
'ty'
'praxí_'
'znakem_'
'scéna_'
'Jugoslávie_'
'látku_'
'tová_'
'podklady_'
'post'
'let'
'přímého_'
'William_'
'Fond_'
'koncentraci_'
'monitor_'
'systémech_'
' -  _'
'kdosi_'
'DE'
'vejde_'
'popředí_'
'šetří_'
'dlouhodobého_'
'spokojeně_'
'Europe_'
'šťastná_'
'blázen_'
'sebevědomí_'
'Pojď_'
'Budějovice_'
' . „ _'
'dodávat_'
'So_'
'M'
'křesťanství_'
'pokroku_'
'obav_'
'tisíciletí_'
'chi_'
'potravinářské_'
'Inter'
'ak'
'získáte_'
'pravdou_'
'Hyundai_'
'úlohy_'
'Multi'
' , ) _'
'fungující_'
'určeno_'
'nat_'
'Staré_'
'Pre'
'vady_'
'krásu_'
'interpretace_'
'americkou_'
'ád_'
'nejbližších_'
'Gro'
'prahu_'
'1941_'
'námořní_'
'řidičů_'
'jeny_'
'geny_'
'čtyřválec_'
'tvého_'
'přidává_'
'akorát_'
'málokdo_'
'dlouhým_'
'firmách_'
'divit_'
'bul_'
'Tor'
'Hel'
'znečištění_'
'převzít_'
'postaven_'
'sluchátka_'
'ment_'
'Ma_'
'fotky_'
'volném_'
'sledovala_'
'chystal_'
'znáte_'
'hrůzou_'
'Divadlo_'
'tiché_'
'nejraději_'
'1979_'
'přineslo_'
'lehký_'
'vka_'
'německy_'
'genu_'
'tové_'
'pošty_'
'ěly_'
'plemene_'
'R'
'sídla_'
'Tá'
'ánek_'
'zelený_'
'rejstříku_'
'sestru_'
'ochotně_'
'vyjednávání_'
'dřevěných_'
'ívá_'
'zvolil_'
'sit_'
'neo_'
' ] ._'
'ňovat_'
'transakce_'
'stáje_'
'okrese_'
'šem_'
'lékařem_'
'zahájila_'
'vizi_'
'firemních_'
'kdybys_'
'americkém_'
'chemie_'
'úředníků_'
'cenově_'
'veškerý_'
'ine'
'Jejím_'
'umožnil_'
' ® _'
'socialistické_'
'prostorem_'
'počítačem_'
'autobusů_'
'zkoušku_'
'přijat_'
'et'
'mrtvého_'
' . . . , _'
'nároků_'
'datové_'
'Zlín_'
'podílel_'
'rovi_'
'odborník_'
'lahví_'
'vedoucím_'
'lidstvo_'
'umístěn_'
'kompletně_'
'zásahy_'
'odhadu_'
'Power_'
'zátěže_'
'slabý_'
'drahá_'
'sam'
'ělo_'
'ubylo_'
'Kampaň_'
'vyhláška_'
'rozšiřování_'
'zeleninu_'
'rovnováhu_'
'široce_'
'uměleckých_'
'uk'
'Marii_'
'písemně_'
'nepotřebuje_'
'prodejen_'
'Angeles_'
'kamarády_'
'bakterie_'
'Film_'
'bližší_'
'skutečná_'
'měřit_'
'mat_'
'přestane_'
'politikou_'
'nervózní_'
'provozování_'
'paradoxně_'
'likvidace_'
'ýhc_'
'běžná_'
'kn'
'No'
'policistů_'
'pamětí_'
'místu_'
'předložit_'
'obří_'
'CNG_'
'barvě_'
'víře_'
'cibuli_'
'koupelny_'
'ačních_'
'  , _'
'1975_'
'rové_'
'elektrického_'
'Je'
'zdál_'
'jasnou_'
'druhem_'
'kr'
'pohromadě_'
'znala_'
'hot_'
'DA'
'ústy_'
'snižovat_'
'roh_'
'přestat_'
'důsledek_'
' . : _'
'vyplývající_'
'schéma_'
'pokyny_'
'tvůrci_'
'red_'
'podmínkami_'
'tradičním_'
'ée_'
'ky'
'AIDS_'
'postupné_'
'vědě_'
'wa_'
'zaměřením_'
'áe'
'stručně_'
'ovlivňovat_'
'doplnění_'
'metra_'
'získávají_'
'rakouské_'
'jediném_'
'lehčí_'
'expozici_'
'identifikovat_'
'schůzky_'
'líbit_'
'ženami_'
'dialogu_'
'vědců_'
'příběhů_'
'před'
'delegace_'
'ER'
'potvrzují_'
'ví'
'ekologického_'
'ť'
'šílenství_'
'veřejný_'
'ÝCH_'
'lékařství_'
'evropská_'
'Í'
'propad_'
'profese_'
'ČVUT_'
'pevnosti_'
'ův'
'přijímá_'
'zl'
'skými_'
'hromada_'
'1978_'
'umělce_'
'kvóty_'
'cizím_'
'NÉ_'
'poptávku_'
'korunu_'
'ujícího_'
'Jiné_'
'spisovatelů_'
'krásnou_'
'Agro'
'manželku_'
'čo'
'nebo'
'e'
'západním_'
'zimy_'
'stadiu_'
'displejem_'
'vesmír_'
'Krista_'
'jmenovat_'
'energeticky_'
'smě_'
'Por'
'přijela_'
'dovedností_'
'plynule_'
'kouzlo_'
'Po'
'technice_'
'odborů_'
'dědeček_'
'spravedlnost_'
'biomasy_'
'ývá_'
'pásmu_'
'podobá_'
'Evropskou_'
'gram_'
'Euro'
'Dívka_'
'trochou_'
'slyším_'
'mince_'
'kabel_'
'vzkaz_'
'nedojde_'
'dohodli_'
'argument_'
'manipulace_'
'1944_'
'NO'
'Organizace_'
'premiéru_'
'portálu_'
'nádherné_'
'nejvyšších_'
'zaujal_'
'rozumné_'
'obojí_'
'informačního_'
'řádky_'
'prostředku_'
'řadách_'
'točí_'
'špatného_'
'odborný_'
'Nejvyššího_'
'časně_'
'evropskou_'
'dlouhém_'
' (  _'
'výlučně_'
'stmi_'
'lil_'
'hr'
'zákazu_'
'kala_'
'váhy_'
'pozval_'
'atmosféře_'
'spol'
'one_'
'patřilo_'
'ózy_'
'trenéra_'
'dálce_'
'Albert_'
'loňské_'
'integrované_'
'use_'
'spektra_'
'sa'
'hovězího_'
'dím_'
'vojenského_'
'“_'
'podněty_'
'knihovně_'
'bodě_'
'učitelka_'
'adresy_'
'schodů_'
'isté_'
'projevů_'
'pozná_'
'budovat_'
'restaurací_'
'lis_'
'běžným_'
'hotové_'
'ň'
'resortu_'
'Španělsko_'
'kombi_'
'Světové_'
'krajina_'
'zažil_'
'případem_'
'rodinný_'
'patřily_'
'1947_'
'neznámý_'
'ber_'
'pohlédla_'
'charakteristické_'
'íma_'
'výrok_'
'myší_'
'čelem_'
'jedn'
'uzd_'
'fe_'
'stěnách_'
'1946_'
'zadíval_'
'neb'
'jídlu_'
'ťu'
'vl'
'čemž_'
'vizuální_'
'mezní_'
'kle_'
'prázdná_'
'vější_'
'F1_'
'řetězec_'
'ekologicky_'
'zlepšuje_'
'kovové_'
'úzy_'
'ústí_'
'vítěze_'
'solidní_'
'plných_'
'dovede_'
'rovnováhy_'
'obrázků_'
'dobro_'
'dominantní_'
'University_'
'umístěna_'
'id'
'orné_'
'Mal'
'áč_'
'hluboký_'
' . “ _'
'Ď'
'ie'
'Sam_'
'málokdy_'
'koliv_'
'termíny_'
'považujeme_'
'platu_'
'nosem_'
'lepšímu_'
'zvěře_'
'taje_'
'vazba_'
'ječmene_'
'účastí_'
'vnímá_'
'Domácí_'
'lokality_'
'euro_'
'zásobování_'
'definitivní_'
'vsak_'
'drama_'
'Vánoce_'
'SK'
'vybrali_'
'skupinách_'
'základnu_'
'ickým_'
'Mladé_'
'publikum_'
'hybridní_'
'Univerzity_'
'rozhlas_'
'SS'
'potřebná_'
'možnostmi_'
'dodatečně_'
'Ivo_'
'uz_'
'spojeny_'
'pach_'
'opravu_'
'komunismu_'
'objev_'
'zelí_'
'fo'
'trestného_'
'zích_'
'svobodě_'
'íny_'
'komunikačních_'
'oje_'
'jistoty_'
'cent_'
'ác_'
'připadala_'
'hranicí_'
'Ce_'
'Hitler_'
'provozovat_'
'mA_'
'vost_'
'slib_'
'připraveny_'
'dotázaných_'
'zahájena_'
'zahrnují_'
'Peugeot_'
'áí_'
'Budete_'
'jej'
'NĚ_'
'pravým_'
'novinku_'
'kterak_'
'připravený_'
'bil_'
'dluhopisů_'
'Amerika_'
'užl_'
'Vidím_'
'Mao_'
'scénáře_'
'ady_'
'slovenský_'
'TOP_'
'absence_'
'Novým_'
'roztoku_'
'projektem_'
'samotných_'
'kočka_'
'rn'
'smutek_'
'vládních_'
'vlně_'
'Škody_'
'rychlá_'
'posádky_'
'semen_'
'vzorky_'
'až'
'vyloučení_'
'jazyku_'
'dlouhého_'
'přesvědčeni_'
'SNS_'
'nástroji_'
'květin_'
'bývalo_'
'1940_'
'rostlina_'
'Henry_'
'získalo_'
'opakuje_'
'ara_'
'potvrdit_'
'itý_'
'odbyt_'
'míň_'
'Times_'
'ces'
'balík_'
'pohodě_'
'Viz_'
'La'
'řekněme_'
'letních_'
'DM_'
'reálně_'
'redukci_'
'Park_'
'Ou'
'Office_'
'TY_'
'Opel_'
'pokrytí_'
'ití_'
'zájemců_'
'skému_'
'skutečného_'
'ebo_'
'dostupná_'
'udává_'
'sáhnout_'
'ROM_'
'úzkost_'
' ' , _'
'výstupní_'
'autory_'
'Československé_'
'výbavě_'
'registru_'
'jednotlivá_'
'Západ_'
'čtvrt'
'Zrovna_'
'ťa_'
'odpovídal_'
'Č'
'vaný_'
'preventivní_'
'komponent_'
'zlatých_'
'reklamě_'
' “ – _'
'prosazovat_'
'kláštera_'
'přijede_'
'geneticky_'
'Volvo_'
'vykazují_'
'podpisu_'
'nehrozí_'
'zhluboka_'
'úspěšná_'
'podpoří_'
'os'
'minulostí_'
'galerii_'
'držení_'
'Ben_'
'Chceš_'
'při'
'komentáře_'
'Rodiče_'
'předá_'
'minerální_'
'lovu_'
'zábavu_'
'uniknout_'
'jednáním_'
'doklad_'
'známým_'
'vybrala_'
'ministři_'
'říkáte_'
'řed_'
'příspěvků_'
'zavřela_'
'xa'
'tz_'
'kvalifikaci_'
'břeh_'
'žaludek_'
'ue'
'problémech_'
'Austrálie_'
'udělám_'
'pomyšlení_'
'členům_'
'pistoli_'
'trať_'
'působením_'
'sklenice_'
'praktický_'
'Jediný_'
'dohod_'
'sedla_'
'monitoru_'
'přivedl_'
'krytí_'
'qe'
'pěstovat_'
'ina'
'dokonalý_'
'kupónové_'
'kolech_'
'nti'
'lov_'
'Davida_'
'ýn_'
'gesto_'
'zemního_'
'kne_'
'poloviční_'
'Ba_'
'černém_'
'pokyn_'
'svaté_'
'natáhl_'
'mořské_'
'Ie'
'fakticky_'
'AP'
'nní_'
'syndrom_'
'údržby_'
'atmosféry_'
'středověku_'
'hledí_'
'ičce_'
'OU'
'NE_'
'zmíněný_'
'sí'
'ěd'
'Ýe'
'náročná_'
'proudy_'
'Někde_'
'obzoru_'
'Oldřich_'
'Nor'
'překvapením_'
'Příliš_'
'slámy_'
'brána_'
'oy'
'Viktor_'
'Studie_'
'Možnost_'
'sedl_'
'té'
'portfolio_'
'kr_'
'trestné_'
'kampani_'
'hezký_'
'extrémní_'
'ee'
'Vtom_'
'Vašák_'
'žit_'
'než'
'ili'
'probíhala_'
'ýn'
'bílým_'
'obsluhy_'
'historického_'
'PI'
'závazků_'
'šťávy_'
'čtější_'
'příchod_'
'tašky_'
'rozšířila_'
'obyčejný_'
'advokátní_'
'vány_'
'Zdeňka_'
'tz'
'Mě_'
'Beneš_'
'pásy_'
'herci_'
'Mohli_'
'výměně_'
'přesahuje_'
'minutě_'
'ENÍ_'
'strop_'
'lesních_'
'ěny_'
'divné_'
'vina_'
'záruky_'
'ku'
'1974_'
'vedli_'
'regulační_'
'kříže_'
'Jasně_'
') , _'
'vnějšího_'
'růžové_'
'proběhl_'
'klasického_'
'získaných_'
'opřel_'
'účinností_'
'ávala_'
'schránky_'
'éři_'
'sedmdesát_'
'krátká_'
'cé_'
'Ch_'
'vlast_'
'opakování_'
'denního_'
'nosné_'
'jehlo_'
'št_'
'bní_'
'autobusy_'
'úzů_'
'průměrem_'
'čnosti_'
'zahájením_'
'stažení_'
'soupeře_'
'jízd_'
'sna_'
'poranění_'
'Současná_'
'Ca_'
'možnou_'
'Osobně_'
'vajíčka_'
'veřejném_'
'Maďarska_'
'schody_'
'zrcadla_'
'Nabízí_'
'zezadu_'
'naprostou_'
'hladce_'
'jela_'
'poslali_'
'kurzy_'
'burzy_'
'berg_'
'Kun'
'ideálním_'
'kongresu_'
'pri'
'spisovatele_'
'časový_'
'zpívat_'
'kléry_'
'dopadlo_'
'bazénu_'
'přítelkyně_'
'vý'
'ležící_'
'zúčastnit_'
'okamžité_'
'Super'
'Tri'
'vyhrát_'
'region_'
'aktuálním_'
'Americký_'
'Ée'
'vinou_'
'stánku_'
'přeci_'
'zahájit_'
'nen_'
'důstojník_'
'Římě_'
'Úplně_'
'světlé_'
'nechává_'
'nabídla_'
'troj'
'smát_'
'bývala_'
'svítí_'
'pá'
'nezávislých_'
'úrovních_'
'záměry_'
'transakcí_'
'sexu_'
'výlet_'
'válec_'
'neznal_'
'uší_'
'vstupů_'
'mrtvá_'
'VZP_'
'Čs_'
'nenápadně_'
'jd'
'tablety_'
'ale'
'panelů_'
'OV'
'proudem_'
'hrdina_'
'formálně_'
'sochy_'
'skály_'
'odměny_'
'svazku_'
'Svůj_'
'hmota_'
'zápasy_'
'slušný_'
'jení_'
'El'
'pleť_'
'SSD_'
'jete_'
'institutu_'
'ztratit_'
'produkční_'
'neznámé_'
'daná_'
'pokrčil_'
'neudělal_'
'specifických_'
'vegetace_'
'kůží_'
'krmných_'
'nic'
'nekonečné_'
'leda_'
'Sáby_'
'zdanění_'
'SE'
'slavný_'
'vstupy_'
'muzeí_'
'kódy_'
'deprese_'
'AM'
'kom'
'xo'
'veřejností_'
'veliká_'
'stů_'
'sousední_'
'faktu_'
'ec'
'(  _'
'britského_'
'takte_'
'kupovat_'
'Óe'
'kamarád_'
'dostání_'
'účinků_'
'obyčejně_'
'vyvíjet_'
'operačním_'
'hodina_'
' ]_'
'Ia'
'Domnívám_'
'vn'
'tvých_'
'Em'
'VII_'
'topení_'
'cigaret_'
'sáhl_'
'řa'
'připustit_'
'předpokladů_'
'doprovodu_'
'Slovo_'
'šestnáct_'
'MP'
'právnických_'
'konečném_'
'UP'
'zdravotně_'
'bakterií_'
'1977_'
'Úřadu_'
'zásadním_'
'podá_'
'obtíže_'
'kočky_'
'břicha_'
'produktem_'
'francouzských_'
'výrazným_'
'věnovala_'
'srovnatelné_'
'ld_'
'Nu_'
'elektrických_'
' ‚ _'
'kamenů_'
'nt'
'prá'
'zpod_'
'úa'
'át'
'přidané_'
'Zbytek_'
'třináct_'
'trendu_'
'přirozený_'
'zpětně_'
'chápání_'
'ži'
'synem_'
'otevřena_'
'přednosti_'
'nejlepšího_'
'Svým_'
'Si'
'vycházející_'
'sjezdu_'
'Neza'
'so'
'povedlo_'
'On'
'Marta_'
'obnovit_'
'nápojů_'
'mi'
'způsobila_'
'znamenají_'
'hé_'
'1942_'
'reagoval_'
'Íe'
'časopise_'
'Ča'
'šky_'
'am'
'zákazníkovi_'
'soustředění_'
'špičkové_'
'psychické_'
'neexistují_'
'účtů_'
'tru'
'kolika_'
'frontě_'
'Měsíc_'
'zahradu_'
'vysvětloval_'
'cestovního_'
'Přední_'
'tvá_'
'lých_'
'vhodnější_'
'přirozenou_'
'plným_'
'následoval_'
'kódu_'
' ( „ _'
'panství_'
'rády_'
'Jaromír_'
'komunální_'
'uměle_'
'nenašel_'
'Á'
'olejem_'
'Li'
'bankovních_'
'lné_'
'pravého_'
'speciálním_'
'Fe'
'vysoko'
'art_'
'CAM_'
'mr'
'eň'
'světová_'
'ria_'
'pseudo'
'praní_'
'čtrnácti_'
'propagaci_'
'poselství_'
'generála_'
'Ře'
'čtverečních_'
'slovu_'
'klimatizace_'
'dani_'
'vojenskou_'
'linku_'
'CS_'
'1973_'
'založit_'
'recese_'
'starostí_'
'cti_'
'1965_'
'bysl_'
'obdrží_'
'peněžní_'
'Ňe'
'sebemenší_'
'dívali_'
'1966_'
'klást_'
'kl'
'SD_'
'hrobu_'
'PO_'
'děláte_'
'bydliště_'
'kouř_'
'epo'
'zavedl_'
'obdobné_'
'VA'
'zaujme_'
'rna_'
'zmínku_'
'Tě_'
'zy'
'očkování_'
'Ao'
'óza_'
'psali_'
'pacientům_'
'lat_'
'náhoda_'
'nedochází_'
'eje_'
'zíral_'
'Noe_'
'žím_'
'pojď_'
'Áe'
'těsné_'
'špičky_'
'zobrazí_'
'ocelové_'
'občana_'
'nova_'
'jene_'
'hla'
'Ťe'
'něji_'
'nabídek_'
'Stavební_'
'Washington_'
'živočichů_'
'kmene_'
'Bohemia_'
'105_'
'vznikající_'
'ten'
'nebezpečný_'
'jedny_'
'vz'
'tre'
'rozšířil_'
'230_'
'plastů_'
'nejste_'
'byte_'
'používal_'
'Kotery_'
'stání_'
'pra'
'krátkých_'
'jíl_'
'vazbě_'
'procesem_'
'povaze_'
'Akademie_'
'ěných_'
'moh_'
'Gar'
'drogy_'
'ln'
'noví_'
'smí_'
'Chtěli_'
'vědomě_'
'komedie_'
'PRO'
'yo_'
'jednotlivců_'
'nálady_'
'průkaz_'
'ona'
'stěna_'
'současným_'
'mn'
'přepočtu_'
'SZIF_'
'Mi'
'takovéto_'
'druzí_'
'Velice_'
'dávala_'
'Háby_'
'tunu_'
'Edy_'
'právník_'
'vesele_'
'Ůe'
'příchodem_'
'odběru_'
'áv_'
'vele'
'ozvalo_'
'Xo'
'ovaní_'
'přibývá_'
'kamera_'
'-  _'
'qa'
'norma_'
'ó'
'přešla_'
'věkem_'
'svobodné_'
'nejmenším_'
'… _'
'rameni_'
'AL'
'doplňky_'
'TO'
'Dlouhý_'
'šetřit_'
'Ňa'
'přípravek_'
'náprav_'
'kliniky_'
'riziku_'
'obalů_'
'nee'
'dé'
'Ukázalo_'
'zná'
'nema'
'dohodnout_'
'Án'
'yd_'
'vzestup_'
'zabývající_'
'postačí_'
'válečné_'
'hoc_'
'vlnu_'
'vybavit_'
'nejedná_'
'Fiat_'
'Charles_'
'nemluvě_'
'Př'
'nad'
'Novotný_'
'6000_'
' – , _'
'jí'
'vyhrála_'
'nevěděli_'
'úředník_'
'Úřad_'
'gól_'
'alby_'
'Každopádně_'
'žijeme_'
'KO'
'x4_'
'oslovit_'
'milá_'
'sazba_'
'češtině_'
'know_'
'čků_'
'táboře_'
'poštovní_'
'nezbytná_'
'jablka_'
'příteli_'
'sekci_'
'každých_'
'iz'
'vláken_'
'1971_'
'kontinentu_'
'Totéž_'
'dn'
'Prima_'
'Švýcarsku_'
'dky_'
'umožnila_'
'styk_'
'připomínající_'
'požadují_'
'podpis_'
'lid'
'důkazem_'
'sdílet_'
'bi_'
'Sice_'
'Kvalita_'
'organické_'
'vě'
'mladým_'
'vá'
'výstavní_'
'představiteli_'
'mno'
'vys'
'Prů'
'skvrny_'
'TSI_'
'vyberte_'
'pol'
'jámě_'
'super'
're'
'DR'
'turistů_'
'předpisu_'
'ěv_'
'vydávání_'
'závodní_'
'kategoriích_'
'Pohled_'
'Autoři_'
'no'
'album_'
'pěstitelů_'
'mírné_'
'oceánu_'
'obilnin_'
'mléčných_'
'modernizaci_'
'ledvin_'
'samotě_'
'kresby_'
'rozšířené_'
'bra'
'pokusí_'
'vána_'
'vědu_'
'paláci_'
'Před'
'sady_'
'zvyku_'
'pě'
'podl_'
'Mečiar_'
'sě'
'Mič_'
'analýz_'
'íc'
'nožem_'
'Židů_'
'Ee'
'zvítězil_'
'dila_'
'nehody_'
'MI'
'formule_'
'bl'
'závěrečné_'
'potřebovali_'
'Stan'
'přez'
'lla_'
'manuální_'
'Dur'
'ženský_'
'výzkumných_'
'očekával_'
'vhodného_'
'běžel_'
'nařídil_'
'nazval_'
'átoři_'
'kursu_'
'vtom_'
'nda_'
'modrá_'
'šve_'
'cizího_'
'oc'
'Pon'
'vzpomínám_'
'vce_'
'Spíš_'
'vykřikl_'
'prvně_'
'Nechtěl_'
'účinná_'
'předání_'
'předností_'
'banku_'
'založený_'
'přenáší_'
'nemuseli_'
'Ráby_'
'pokuty_'
'dozvědět_'
'úvah_'
'Belgie_'
'roz'
'oxidu_'
'nesouhlasí_'
'dodá_'
'Ráž_'
'jezdil_'
'vojska_'
'vlivů_'
'daty_'
'aktuálních_'
'zevnitř_'
'reklam_'
'lt'
'tráví_'
'elektřinu_'
'tkání_'
'ost'
'Příští_'
'podmínku_'
'ier_'
'stavebním_'
'nikterak_'
'čistá_'
'domech_'
'žádal_'
'óu'
'vzorek_'
'klidný_'
'Generální_'
'bouře_'
'požádala_'
'eh_'
'rádia_'
'spánek_'
'nezáleží_'
'pomáhal_'
'dné_'
'mé'
'doufal_'
'válců_'
'Uprostřed_'
'používaných_'
'Káby_'
'vhodným_'
'Kop'
'kad'
'Jugoslávii_'
'docházet_'
'Haby_'
'vozík_'
'odbory_'
'asi'
'RA'
'prv'
'komoře_'
'reagují_'
'dárky_'
'Napadlo_'
'přehrávač_'
'nar_'
'stanu_'
'následujícího_'
'nedostatečné_'
'odhalení_'
'mojí_'
'kdokoli_'
'Open_'
'byst_'
'Ste'
'stra'
'adi'
'zn'
'podkladů_'
'mraky_'
'školních_'
'zapomněla_'
'použita_'
'poslouží_'
'výzkumy_'
'pojmů_'
'nápravu_'
'krása_'
'infekcí_'
'soustava_'
'odu_'
'ic'
'eb'
'znamenala_'
'dbát_'
'agenturou_'
'Ode'
'CP_'
'tk_'
'odmítnutí_'
'květů_'
'Ale'
'ms_'
'tila_'
'které'
'naživu_'
'zvané_'
'spojeno_'
'segment_'
'nesmysl_'
'Brazílie_'
'četla_'
'redukce_'
'nést_'
'Následně_'
'íj_'
'požární_'
'standardních_'
'rá'
'Val'
'čkem_'
'Šéf_'
'nepřišel_'
'er'
'koly_'
'dok'
'podivně_'
'barevný_'
'erem_'
'RT'
'íe'
'odpadních_'
'pokutu_'
'čtu_'
'realita_'
'ohni_'
'efekty_'
'mlčel_'
'sub'
'iluze_'
'Ďe'
'oé_'
'eček_'
'malíř_'
'év'
'MZ_'
'prsu_'
'go'
'bílém_'
'dnou_'
'aké_'
'samozřejmostí_'
'kněz_'
'ústech_'
'výborné_'
'vstala_'
'projevují_'
'gen'
'teta_'
'záchranu_'
'převést_'
'dílčích_'
'setkali_'
'rozvojem_'
'gi'
'návaznosti_'
'britských_'
'Dvořák_'
'Skutečnost_'
'zvážit_'
'rtu_'
'vysvětlovat_'
'soužití_'
'dovedl_'
'kro'
'třicátých_'
'orz'
'Alena_'
'  '
'peř'
'idy_'
'drahý_'
'Do'
'specializovaných_'
'přála_'
'van'
'eř'
'Mladý_'
'nález_'
'Klause_'
'tolika_'
'nastala_'
'herní_'
'Ga'
'zkoumat_'
'směrech_'
'vzdal_'
'domácnost_'
'q'
'nápisem_'
'blyl_'
'telná_'
'silných_'
'říkáme_'
'kruhy_'
'telé_'
'nikým_'
'vešla_'
'car'
'sy'
'sekundární_'
'odjet_'
'Právní_'
'190_'
'žu'
'předat_'
'HE'
'Němce_'
'Problémy_'
'1956_'
'salát_'
'způsobují_'
'kom_'
'OVÉ_'
'standardů_'
'obchodník_'
'maz_'
'CI'
'zhoršení_'
'životnímu_'
'tónem_'
'náročný_'
'Musela_'
'žo'
'uviděla_'
'POD'
'LU'
'Tur'
'Postup_'
'1953_'
'perfektní_'
'Trans'
'hudbou_'
'Sovětského_'
'obyčejné_'
'Mnohem_'
'živá_'
'evidentně_'
'Francouzi_'
'zpoždění_'
'schůzi_'
'Tvůj_'
'přijímání_'
'celky_'
'mel_'
'kouření_'
'Zítra_'
'západu_'
'lat'
'Mohu_'
'ěe'
'sledovali_'
'hrou_'
'ěk'
'uté_'
'si'
'dávali_'
'anglického_'
'ěv'
'farem_'
'Nebude_'
'ulicí_'
'Technologie_'
'Er'
'útěk_'
'zbožím_'
'hladinou_'
'Vod'
'Bud'
'mm'
'dálku_'
'dn_'
'armádu_'
'věnovali_'
'navrhnout_'
'fn'
'spokojenosti_'
'plod_'
'začínala_'
'Lib'
'veřejná_'
'výroky_'
'pt'
'kově_'
'zavřít_'
'půjdu_'
'pos'
'nezajímá_'
'moct_'
'ďo_'
'žky_'
'úniku_'
'uslyšel_'
'PP_'
'OB'
'nenávist_'
'umělec_'
'sběr_'
'Top'
'Maa_'
'sakra_'
'něčí_'
'vlákna_'
'ju'
'ňák_'
'dozorčí_'
'dotkl_'
'bohatou_'
'vylepšení_'
'páru_'
'lky_'
'odmítnout_'
'obsazení_'
'katastru_'
'panuje_'
'Fe_'
'moduly_'
'Star'
'Mer'
'zbylo_'
'odlišný_'
'ložnici_'
'Venku_'
'skutečným_'
'rod_'
'Základním_'
'Ei'
'nechtělo_'
'jednáních_'
'Smrt_'
'MÚ_'
'intenzity_'
'emisní_'
'MEN_'
'Být_'
'tradicí_'
'enní_'
'Použití_'
'proniknout_'
'písek_'
'kvalitního_'
'jedn_'
'el'
'známy_'
'digitálních_'
'Nač_'
'Ludvík_'
'pomohou_'
'chováním_'
'udělalo_'
'pilíře_'
'náročnost_'
'datových_'
'týdenní_'
'Japonska_'
'Bu'
'krabici_'
'řízené_'
'Vnitřní_'
'bůh_'
'čistou_'
'usu_'
'stu'
'Vídně_'
'UV_'
'terá_'
'majiteli_'
'cie_'
'Víme_'
'Následující_'
'obvod_'
'fotbalové_'
'společenský_'
'solární_'
'lm_'
'neméně_'
'výuku_'
'dru'
'těn'
'tr'
'příbuzných_'
'přispěl_'
'Věra_'
'Ce'
'řel_'
'uvedený_'
'realitu_'
'osmnáct_'
'důležitost_'
'trpělivost_'
'smířit_'
'šok_'
'zahrada_'
'žes_'
'marketingový_'
'efektivitu_'
'bydlet_'
'stáda_'
'nar'
'cele_'
'postupuje_'
'ola_'
'jin'
'mravní_'
'OF_'
'podnikům_'
'stárnutí_'
'nejdůležitějších_'
'křik_'
'Seděl_'
'strojem_'
'naznačil_'
'přep'
'učen'
'teoretické_'
'sil'
'eli'
'ačně_'
'ťe_'
'zúčastnilo_'
'nemusela_'
'reforma_'
'určená_'
'léčiv_'
'Pi'
'výbavou_'
'ft'
'donedávna_'
'zábavy_'
'tého_'
'došla_'
'doporučujeme_'
'NDR_'
'přesvědčil_'
'Pr_'
'éo'
'ňo'
'evropským_'
'eu'
'Ml'
'tlačí_'
'asistent_'
'ýe'
'poslala_'
'elektro'
'ráz_'
'podnikové_'
'zvolili_'
'Obsah_'
'týkajících_'
'Bern'
'Gr'
'sá'
'zu'
'hybrid_'
'Prague_'
'ťe'
'černým_'
'uznat_'
'smem_'
'zárukou_'
'umístěné_'
'informacemi_'
'zjistíte_'
'poezii_'
'detailní_'
'OP'
'zálivu_'
'venkov_'
'elektroniky_'
'poh'
'zen'
'pocitů_'
'něze_'
'dospělí_'
'délkou_'
'pověsti_'
'podnět_'
'ís_'
'společnostech_'
'spořitelna_'
'serverů_'
'úrazu_'
'pusu_'
'odstup_'
'eti_'
'Aha_'
'tvou_'
'nh'
'vojsk_'
'dvojici_'
'Profesor_'
'připravovat_'
'jet'
'Wa'
'lavici_'
'Hotel_'
'EL_'
'zast'
'NASA_'
'spadá_'
'souvislostí_'
'ter'
'bydlel_'
'Start_'
'nský_'
'slabě_'
'rozp'
'projektech_'
'některou_'
'jou_'
'zněla_'
'hol_'
'založená_'
'box_'
'krbu_'
'há'
'nabývá_'
'DS_'
'ukazatelů_'
'Éo'
'kapky_'
'ób'
'we_'
'svařování_'
'strategické_'
'SP_'
'sadu_'
'Veškeré_'
'budoucím_'
'termo'
'rka_'
'Nabídka_'
'TI'
'ůr'
'pró'
'Snažil_'
'Ob'
'Lan'
'uli_'
'suk'
'Van_'
'volbami_'
'Kam'
'Ali'
'RM_'
'ůa'
'zaujmout_'
'!_'
'červeného_'
'vzdělávacích_'
'drog_'
'talíř_'
'nd'
'aparátu_'
'hor'
'ab'
'ujal_'
'jě_'
'Úa'
'áž_'
'Hodnocení_'
'Židé_'
'záležet_'
'nízko_'
'naivní_'
'dlouze_'
' ) '
'rytmus_'
'zakládání_'
'velikou_'
'přenést_'
'opery_'
'103_'
'ději_'
'barvách_'
'zbytků_'
'správného_'
'nástupem_'
'trvající_'
'sladké_'
'režiséra_'
'interakce_'
'Zpráva_'
'Anti'
' ? !_'
'žené_'
'léčit_'
'legislativa_'
'Extra_'
'identity_'
'svalů_'
'přiblížil_'
'obecný_'
'Vrátil_'
'stop'
'jsou'
'denním_'
'hospodaří_'
'Pták_'
'hranicích_'
'architekt_'
'stoupl_'
'Ín'
'užít_'
'jistém_'
'íš'
'uvede_'
'problematika_'
'jeté_'
'městu_'
'eta_'
'ele'
'Táně_'
'Rou'
'Mor'
'vydělat_'
'stanoviště_'
'mužstva_'
'vypadaly_'
'sklad_'
'rum_'
'Ua'
'zjednodušení_'
'jdeme_'
'hmyzu_'
'padne_'
'olu_'
'zahrnující_'
'ymu_'
'Ju'
'koše_'
'hospodářská_'
'Mc'
'Skutečně_'
'Ot'
'říši_'
'Zástupci_'
'Neu'
'přimět_'
'fa'
'zeleně_'
'hřišti_'
'! _'
'ÉHO_'
'výživu_'
'py'
'otáčky_'
'uvidíte_'
'uv'
'ED'
'dost'
'Druhé_'
'vily_'
'ker'
'Ač_'
'áv'
'BO'
'sav'
'at'
'řeku_'
'Tomů_'
'opatřením_'
' –_'
'zajímají_'
'zavolala_'
'Řecko_'
'nského_'
'Ňo'
'spolehlivé_'
'Výstava_'
'Eo'
'svě'
'tko_'
'systémové_'
'důsledků_'
'časovém_'
'ře'
'vš_'
'Dan'
'ás'
'odmítají_'
'tempem_'
'Zvlášť_'
'Té_'
'aře_'
'značná_'
'orů_'
'dé_'
'čel_'
'ód'
'perspektivy_'
'cizinců_'
'Zeman_'
'schodišti_'
'Samo'
'ív'
'stres_'
'map_'
'lí'
'gr'
'OR_'
'zašel_'
'War'
'Těch_'
'výpočetní_'
'ate'
'nucen_'
'Děkuji_'
'pros'
'výbavu_'
'mluvčího_'
'Hz_'
'fyzická_'
'Vi'
'stačila_'
'uj'
'pokládá_'
'motivaci_'
'velitele_'
'nejvyššího_'
'robustní_'
'poradenské_'
'dětského_'
'sn_'
'tmu_'
'neuvěřitelné_'
'mírný_'
'hudebních_'
'ďe'
'ío'
'uzavřena_'
'přikývla_'
'ala'
'vodního_'
'nazvat_'
'chvílích_'
'Porsche_'
'zajištěna_'
'zr'
'zeptá_'
'ukončit_'
'památek_'
'péčí_'
'neschopnost_'
'Óo'
'procesoru_'
'Žd'
'skryté_'
'vydalo_'
'secí_'
'probíhající_'
'nádrž_'
'dětský_'
'upřeně_'
'čerpadla_'
'oleji_'
'linka_'
'dodávku_'
'Západu_'
'JAR_'
'tat_'
'prot'
'díme_'
'zvířete_'
'ticha_'
'připomínají_'
'přeš_'
'naučí_'
'ová'
'šatů_'
'vlastníka_'
'platformy_'
'recept_'
'chybějící_'
'konkurenceschopnosti_'
'OM'
'čen'
'ály_'
'výsledcích_'
'har'
' ? '
'sot'
'neob'
'Radek_'
'onemocněním_'
'rz'
'Ni'
'sýr_'
'liberální_'
'tréninku_'
'rtech_'
'mana_'
'Jedinou_'
'éa_'
'nádrží_'
'kmeny_'
'Yu'
'vyrobené_'
'televizí_'
'jablek_'
'horských_'
'fan'
'spustit_'
'česneku_'
'ÚV_'
'mini_'
'jednatel_'
'červených_'
'nesmějí_'
'střídavě_'
'písemné_'
'vyskočil_'
'absolvoval_'
'1963_'
'teri'
'propuštění_'
'náměstka_'
'páří_'
'obal_'
'Ýo'
'tav'
'pleti_'
'překvapilo_'
'důchod_'
'cukrem_'
'ane_'
'  -_'
'video'
'stá_'
'kritiku_'
'podotkl_'
'odpočinku_'
'následkem_'
'dání_'
'ředitelství_'
'vůní_'
'sběru_'
'est_'
'Miroslava_'
'tlačítek_'
'televizního_'
'nevěří_'
'otvory_'
'diskutovat_'
'HA'
'Red_'
'olá'
'ble'
'zvednout_'
'zd'
'árny_'
'itá_'
'efektivity_'
'ld'
'fotoaparát_'
'císaře_'
'FA'
'tmi_'
'dlaň_'
'složka_'
'hospody_'
'slavnostně_'
'potrvá_'
'hlavními_'
'molekuly_'
'licenci_'
'él'
'obrací_'
'out'
'Švédsku_'
'tv'
'samý_'
'rychlostní_'
'složitý_'
'horním_'
'Jednu_'
'Ov'
'muk_'
'organismů_'
'53'
'nr'
'bal_'
'XP_'
'toků_'
'ovského_'
'modrý_'
'fenomén_'
'vyvolal_'
'pátrání_'
'mladou_'
'lia_'
'uvědomuje_'
'ene'
'citlivost_'
'Čo'
'odsouzen_'
'Vedoucí_'
'stíhání_'
'schůze_'
'nutný_'
'izolaci_'
'budě_'
'zvýšením_'
'Můžu_'
'on'
'vé'
'len_'
'bojů_'
'Spíše_'
'volnou_'
'lp'
'ztratili_'
'předčasně_'
'kan'
'cukrovky_'
'nk_'
'nezávislosti_'
'MS'
'obyvatelstvo_'
'Tab_'
'pomohlo_'
'oli_'
'Nokia_'
'tla_'
'režii_'
'úsporu_'
'chůze_'
'EN'
'EB'
'čerpat_'
'otvor_'
'ota_'
'iPhone_'
'ez'
'šálek_'
'zaznamenala_'
'Slavia_'
'záruku_'
'tné_'
'zpívá_'
'smutné_'
'kulturním_'
'nty_'
'bo'
'zločin_'
'zat'
'postarat_'
'Španělska_'
'pronájmu_'
'mapu_'
'nějakému_'
'nežl_'
'zaměřena_'
'Ono_'
'sekundy_'
'trávě_'
'informacím_'
'Aa'
'Hi'
'zastupuje_'
'identifikaci_'
'vybavené_'
'sel'
'domníval_'
'závazek_'
'pustila_'
'daňového_'
'ret'
'ou'
'ly'
'1952_'
'nákladech_'
'portál_'
'časné_'
'tys_'
'návod_'
'pomůcky_'
'Způsob_'
'1961_'
'Akce_'
'horko_'
'úo'
'Nas'
'mil'
'Jednání_'
'sto'
'rostlinných_'
'podrobněji_'
'nedostane_'
'Musíš_'
'zvýšená_'
'vínem_'
'přítelem_'
'leasingu_'
'ei'
'divoké_'
'rok'
'nepatrně_'
'Ta'
'IV'
'občanský_'
'nezl_'
'čtyř'
'kufr_'
'církvi_'
'udržování_'
'symboly_'
'konkurencí_'
'dozvěděli_'
'bur'
'zování_'
'pohodlné_'
'horské_'
'vypořádat_'
'znělo_'
'přispívají_'
'týkat_'
'staro'
'poloha_'
'značení_'
'vtip_'
'staršího_'
'potichu_'
'zák_'
'vystoupí_'
'poskytla_'
'AV'
'zachránil_'
'um'
'spadl_'
'mužstvo_'
'Ti'
'Soutěž_'
'dokládá_'
'rst'
'Michaela_'
'Českém_'
'Úo'
'vojenský_'
'ucho_'
'turnaje_'
'hat'
'Marka_'
'óo'
'álu_'
'tóny_'
'teto_'
'jů_'
'Simon_'
'Qe'
'Ěe'
'Bohem_'
'vytáhla_'
'hlav'
'au'
'IA_'
'dcerou_'
'Odtud_'
'KON'
'záznamů_'
'živého_'
'klidné_'
'Izraele_'
'přijme_'
'doplňují_'
'korupce_'
'128_'
'objednat_'
'dlouhodobou_'
'Vzpomínám_'
'vyslovit_'
'možného_'
'drželi_'
'vzrostly_'
'vs'
'otu_'
'ďme_'
'Stojí_'
'půjčky_'
'eč'
'manažery_'
'přistoupit_'
'půli_'
'Roberta_'
'CA_'
'nože_'
'nej'
'kluby_'
'EV'
'1600_'
'srážek_'
'kapely_'
'qo'
'DM'
'ěnou_'
'oi_'
'fází_'
'182'
'oro'
'zen_'
'plánované_'
'gli'
'zar'
'avě_'
'účinkem_'
'ářů_'
'Úe'
'zrno_'
'výzva_'
'neutrální_'
'modrou_'
'Vzápětí_'
'paří_'
'Gi'
'roviny_'
'pták_'
'óe'
'samozřejmé_'
'pořadů_'
'mn_'
'ip_'
'připraveno_'
'ls'
'vrstvě_'
'chytré_'
'Význam_'
'spoje_'
'party_'
'mnohém_'
'hezká_'
'vsi_'
'podlaží_'
'normálních_'
'advokát_'
'pustili_'
'jakéhokoliv_'
'ver_'
'ocelových_'
'hlase_'
'DN'
'konkurenceschopnost_'
'DO'
'115_'
'čtyřikrát_'
'změnily_'
'manželé_'
'ÁNÍ_'
'jícími_'
'Ři'
'jejíchž_'
'závodech_'
'sně_'
'zrcadlo_'
'rozpoznat_'
'fyzickou_'
'dojmu_'
'Ud'
'ích'
'zo'
'usiluje_'
'kandidátů_'
'gáz_'
'ek'
'ON'
'Mělo_'
'meze_'
'vaším_'
'pravidelných_'
'králov'
'institut_'
'přo'
'dík_'
'dáte_'
'básníka_'
'mlékem_'
'intelektuální_'
'hrozné_'
'MTI_'
'klasickým_'
'val'
'právně_'
'pohyboval_'
'pláče_'
'neodpovídá_'
'dopadu_'
'rtů_'
'aliance_'
'školou_'
'Tr'
'whisky_'
'tt_'
'vycházel_'
'budce_'
'Sem_'
'Kate_'
'povrchové_'
'varoval_'
'nosil_'
'NE'
'4'
'zdali_'
'otáčení_'
'fe'
'ď'
'odolnosti_'
'ben'
'finální_'
'Vz'
' ( - _'
'ěa_'
'ud'
'sov'
'dodavateli_'
'Me_'
'doporučil_'
'úz'
'tělu_'
'neviděli_'
'Maminka_'
'opotřebení_'
'dl'
'Berlína_'
'210_'
'pochopitelné_'
'ózní_'
'své'
'slovenská_'
'německým_'
'naplnit_'
'len'
'550_'
'Řa'
'univerzita_'
'přepravní_'
'miliardu_'
'detail_'
'rané_'
'Došlo_'
'Jen'
'všechen_'
'vzpomínek_'
'Podívejte_'
'určí_'
'indexu_'
'éd'
'více'
'pasti_'
'dodavatelem_'
'studentům_'
'podv'
'uvolnit_'
'skříň_'
'Studio_'
'čný_'
'zdání_'
'výběrem_'
'neschopnosti_'
'Yo'
'vša_'
'boudě_'
'Dol'
'dolaru_'
'pochopili_'
'nov'
'Core_'
'řediteli_'
'přítomen_'
'obličejem_'
'Ío'
'nické_'
'pera_'
'nách_'
'oto_'
'Možnosti_'
'rychlého_'
'vzpomínka_'
'pat_'
'dospělosti_'
'zleva_'
'ui'
'postavena_'
'Nu'
'Ón'
'tanky_'
'nila_'
'Bos'
'ner'
'priority_'
'jako'
'fo_'
'děláš_'
'orgánem_'
'ato'
'Ur'
'zlý_'
'gramů_'
'generálním_'
'FN_'
'Áo'
'zvýšily_'
'volantu_'
'protokolu_'
'vyznačují_'
'anů_'
'Prof_'
'svatební_'
'subjektivní_'
'smál_'
'odjakživa_'
'zelenina_'
'ambice_'
'Pardubice_'
'íi_'
'nepřetržitě_'
'nje'
'jídle_'
'jezdec_'
'prezentovat_'
'dB_'
'as'
'baž_'
'For'
'Ýa'
'Éa'
'nesla_'
'hrob_'
'hotelů_'
'ur'
'ostrý_'
'produktivity_'
'mt'
'čn'
'Ústav_'
'opírá_'
'označují_'
'nedaří_'
'Stavba_'
'zmatek_'
'tažení_'
'Dost_'
'Ct'
'předs'
'krá'
'yz'
'rské_'
'kyselin_'
'jedinec_'
'filtr_'
'úr'
'šu_'
'zlatou_'
'kovat_'
'Geo'
'ok'
'koruna_'
'ody_'
'Bob_'
'mu'
'prodejů_'
'považovali_'
'hrany_'
'Poznámka_'
'Daniela_'
'uchazečů_'
'ni'
'jedu_'
'Nes'
'čtvrtinu_'
'rýže_'
'mluvím_'
'pláži_'
'nahradil_'
'takoví_'
'Austrálii_'
'stv'
'prostý_'
'opustila_'
'baterií_'
'Zařízení_'
'Otázkou_'
'útěku_'
'Óa'
'zavřené_'
'ul'
'představitele_'
'Pe'
'Ježíše_'
'Hans_'
'spolku_'
'agresivní_'
'režimy_'
'oď'
'ki'
'výtvarné_'
'církví_'
'lon'
'Cítila_'
'res_'
'přil_'
'us'
'Tre'
'zločinu_'
'příp_'
'náhradních_'
'np'
'Me'
'řezu_'
'úe'
'získávat_'
'střeva_'
'přesností_'
'ps_'
'hr_'
'ředitelů_'
'ini_'
'sou'
'nehod_'
'Západě_'
'podmínka_'
'levém_'
'dopravního_'
'vyrazit_'
'trestný_'
'styky_'
'spatřila_'
'řádově_'
'tí'
'paží_'
'obejít_'
'škálu_'
'zajetí_'
'investor_'
'Ěn'
'pouhá_'
'osolíme_'
'kvalit_'
'slabá_'
'projevila_'
'iu'
'Nemůžu_'
'Hele_'
'átko_'
'yl'
'samostatnou_'
'nestane_'
'zvěř_'
'ivý_'
'5'
'uře_'
'Toma_'
'nta_'
'Ban'
'zvedne_'
'hodné_'
'pák_'
'producentů_'
'odborně_'
'Hlas_'
'Říma_'
'Bro'
'směje_'
'sli'
'ation_'
'rizikové_'
'prav'
'agentuře_'
'non'
'rozhodují_'
'pozemcích_'
'mužům_'
'teplotní_'
'sna'
'Bím_'
'Ůa'
'sousedství_'
'rozměru_'
'Otevřel_'
'hovořili_'
'PE'
'nádorů_'
'ore'
'ma'
'boha_'
'Zvedl_'
'zimních_'
'nefunguje_'
'CT_'
'zarazil_'
'výhoda_'
'smutně_'
'proudění_'
'manželem_'
'bohatá_'
'ton'
'sloužící_'
'plemen_'
'kap'
'Neměla_'
'neřekla_'
'zin'
'Man'
'podstatnou_'
'odnesl_'
'doufat_'
'Ěa'
'ČS'
'jater_'
'ia'
'zpětné_'
'prvními_'
'divák_'
'dv_'
'Většinu_'
'zapadá_'
'členění_'
'opd'
'zneužití_'
'tmou_'
'zmíněného_'
'Ek'
'komunisté_'
'FP_'
'usilovat_'
'pe'
'Výzkum_'
'nejmladší_'
'pocítil_'
'chápu_'
'CIC_'
'Ťo'
'nadšením_'
'ING_'
'jšího_'
'Slo'
'nějších_'
'kování_'
'nejkrásnější_'
'Ťn'
'trvalý_'
'statistik_'
'skalní_'
'pevná_'
'napsáno_'
'Masaryk_'
'viď_'
'poučení_'
'řské_'
'vlhké_'
'hrůza_'
'angličtině_'
'ústní_'
'stáhl_'
'strachem_'
'Na'
'Win'
'nevidím_'
'vymyslet_'
'skutečných_'
'mání_'
'kamarádi_'
'tý'
'SN'
'Bývalý_'
'BA'
'stavení_'
'odstupem_'
'sezónu_'
'hledala_'
'svěží_'
'patrný_'
'Ústavní_'
'zv_'
'přiznává_'
'keř_'
'eura_'
'Qo'
'oli'
'Budějovicích_'
'usnul_'
'světovém_'
'rozhlédl_'
'osudy_'
'celostátní_'
'TS_'
'Nem'
'Maximální_'
'provedeno_'
'porozumět_'
'ověření_'
'nevěřil_'
'Dolní_'
'výchova_'
'troubě_'
'příjemce_'
'lhůtě_'
'náročnosti_'
'zaujímá_'
'dokladů_'
'režie_'
'posiluje_'
'log_'
'komodity_'
'Galerie_'
'šířku_'
'nemusejí_'
'provádějí_'
'optimalizaci_'
'mad'
'US'
'Ía'
'ponechat_'
'eč_'
'šími_'
'noze_'
'Pražské_'
'Dn'
'šť_'
'vku_'
'sbírku_'
'ťa'
'še'
'Myslíš_'
'ui_'
'roka_'
'tom'
'las'
'cá'
'és'
'tt'
'pla'
'napadne_'
'lampy_'
'kabině_'
'sla'
'Xn'
'DNES_'
'Ýn'
'vertikální_'
'stovku_'
'parkoviště_'
', '
'ůe'
'upo'
'status_'
'jíce_'
'pozvolna_'
'plicní_'
'fá'
'Jelcin_'
'zahradní_'
'poznali_'
'metodami_'
'dor'
'popo'
'lady_'
'kabely_'
'nerad_'
'diskusí_'
'Fin'
'Tenkrát_'
'Port'
'vazeb_'
'yne'
'emocí_'
'vyvinula_'
'sezóně_'
'Přímo_'
'cítili_'
'Státního_'
'vyprávěla_'
'konkurovat_'
'Trh_'
'zm'
'celosvětově_'
'problematikou_'
'ušetří_'
'žné_'
'půd_'
'Stará_'
'nechceme_'
'Ňn'
'jch_'
'hav'
'přestávce_'
'mobilního_'
'Pod'
'Én'
'slevy_'
'úzkosti_'
'samotném_'
'pokušení_'
'címu_'
'Xe'
'tímhle_'
'Mini_'
'tisková_'
'zené_'
'tům_'
'nn'
'kostní_'
'ev'
'cizině_'
' : '
'zasáhnout_'
'pů_'
'klasická_'
'energetickou_'
'Hor'
'Ůn'
'de'
'VE'
'Řn'
'strávit_'
'proti'
'podrobné_'
'grafu_'
'Kr'
'žek_'
'správným_'
'obnovy_'
'ptala_'
'plechu_'
'ír_'
'zastavili_'
'280_'
'Ser'
'vracejí_'
'okresu_'
'Ben'
'příplatek_'
'jmény_'
'qn'
'představě_'
'ješ_'
' " : _'
'strukturou_'
'hromadu_'
'Lim_'
'éoh_'
'sluší_'
'Řo'
'rov_'
'nalezení_'
'katalogu_'
'výrazněji_'
'nání_'
'Raději_'
'výhrady_'
'uloženy_'
'rub'
'kupříkladu_'
'Dun'
'Ún'
'ET_'
'ZD'
'Qn'
'vývojové_'
'ere_'
'domnívají_'
'tm'
'hu'
'eN'
'GT_'
'šéfem_'
'obsluha_'
'Jel_'
'vyloučeno_'
'Kdybychom_'
'Pv'
'oud'
'ťr'
'jní_'
'LI'
'pustí_'
'osvědčení_'
'dokončit_'
'mechanismu_'
'genetické_'
'zadního_'
'stře'
'stní_'
'ena'
'vytvořené_'
'snížením_'
'sedadlo_'
'Lenka_'
'stvo_'
'chlapi_'
'Dv'
'ét_'
'vidíš_'
'příslušníky_'
'pracovně_'
'sešel_'
'historický_'
'Vá'
'záměrem_'
'kapaliny_'
'hospodě_'
'Kro'
'sé'
'osm'
'ologie_'
'he'
'divoce_'
'datu_'
'břiše_'
'aspekt_'
'Vůz_'
'HU'
'Černá_'
'trik_'
'klad_'
'dneška_'
'mod'
'cizinci_'
'chůzi_'
'Současný_'
'Se'
'Láska_'
'podepsat_'
'zjistíme_'
'účelům_'
'Článek_'
'ryt'
'chladné_'
'kvót_'
'dne'
'Yn'
'elu_'
'uvedená_'
'použitých_'
'FE'
'potíž_'
'meziroční_'
'prvnímu_'
'CE'
'sněmu_'
'interpretaci_'
'dálnic_'
'mal'
'majitelem_'
'nuceni_'
'důvěrně_'
'talíře_'
'pom'
'1929_'
'vážný_'
'plného_'
'perfektně_'
'Nej'
'MP3_'
'umějí_'
'top'
'su'
'la'
'anglický_'
'fyziky_'
'zajímalo_'
'Předtím_'
'Ty'
'ěn'
'sit'
'takovými_'
'neod'
'OP_'
'EL'
'ure'
'strýc_'
'kár'
'zjištěno_'
'ostrovy_'
'dá'
'ti'
'odmítli_'
'mis_'
'Áa'
'pot'
'těžby_'
'1951_'
'školním_'
'devadesát_'
'kilo_'
'zajít_'
'nezam'
'napětím_'
'čáry_'
'povídat_'
'mer_'
'yp_'
'přit'
'smíchem_'
'nezávislý_'
'Kristus_'
'tl'
'řádek_'
'koň'
'složitá_'
'Len'
'volno_'
'palác_'
'kabinetu_'
'1900_'
'zavádí_'
'vů'
'potřebě_'
'erová_'
'AC'
'zkušenostmi_'
'Ni_'
'záběry_'
'snadná_'
'spokojený_'
'rp'
'roto_'
'úrokové_'
'nejvýznamnějších_'
'AN'
'lokalitě_'
'MO_'
'Ji'
'nemůžeš_'
'kaple_'
'ini'
'informuje_'
'spo_'
'hlavami_'
'Sand'
'Otočil_'
'Ned'
'GA'
'drah_'
'Začala_'
'zvyklý_'
'nedají_'
'ýr'
'var'
'odtamtud_'
'pěstitelé_'
'hovězí_'
'cho_'
'179'
'tendru_'
'poklesem_'
'ovlivní_'
'kdekoli_'
'ňd'
'tření_'
'pokusila_'
'mal_'
'vařit_'
'možným_'
'sku'
'prokázal_'
'Golf_'
'začínající_'
'prohlédl_'
'lůžka_'
'hraniční_'
'jz'
'dovolí_'
'údaji_'
'ručení_'
'iy_'
'rozpočtů_'
'ůt'
'čo_'
'vc'
'iční_'
'uc_'
'spustila_'
'poboček_'
'logo_'
'nemluví_'
'jakýkoliv_'
'chodbou_'
'Pravděpodobně_'
'zlepšování_'
'ned'
'obráběcích_'
'legrace_'
'aí_'
'Délka_'
'umírá_'
'požadavkem_'
'živě_'
'zásluhou_'
'výsledkům_'
'Jé_'
'sn'
'Srdce_'
'policista_'
'medaile_'
'výchovu_'
'používáme_'
'dostupný_'
'Fen'
'ženskou_'
'tabletu_'
'svatý_'
'RT_'
'líčení_'
'dí'
'bz'
'Han'
'závislý_'
'zmizely_'
'pracovišť_'
'SA_'
'135_'
'út'
'mul'
'HIV_'
'prodejci_'
'šampionátu_'
'Řecku_'
'tře_'
'ts'
'Jediným_'
'schůzce_'
'podo'
'tický_'
'52'
'psala_'
'americkým_'
'vaná_'
'TU'
'íl'
'nevíte_'
'dvacátého_'
'středem_'
'skóre_'
'ry'
'pu'
'kotle_'
'ica_'
'business_'
'árně_'
'uvažování_'
'individuálních_'
'Leo_'
'  (_'
'hrabě_'
'nepodaří_'
'pé'
'odejde_'
'komunity_'
'Podařilo_'
'ša'
'odběr_'
'las_'
'kartou_'
'ať'
'portrét_'
'Ir'
'rychlým_'
'dostáváme_'
'dostanu_'
'del'
'NG_'
'650_'
'usadil_'
'silného_'
'samostatných_'
'omylem_'
'načež_'
'čí'
'sezení_'
'plochách_'
'ovládací_'
'alba_'
'Méně_'
'připouští_'
'čerstvého_'
'uš'
'podnikatelských_'
'nezaměstnanost_'
'tekutiny_'
'kův_'
'počt'
'Členové_'
'respekt_'
'ar'
'Příběh_'
'svědkem_'
'pav'
'xe'
'Bílé_'
'uchu_'
'rizikových_'
'důrazem_'
'budí_'
'služební_'
'skleněné_'
'narušení_'
'veden_'
'meta'
'GM_'
'spousty_'
'rozdílů_'
'přiv'
'pon'
'oP'
'mapě_'
' . " ( _'
'příjezdu_'
'tvářích_'
'ňu_'
'avé_'
'TE'
'Sára_'
'uplatňují_'
'kostky_'
'ún'
'wa'
'výchově_'
'námitky_'
'jo'
'beton_'
'sucho_'
'sovi_'
'prči_'
'společným_'
'koupili_'
'jevu_'
'fr'
'zajišťovat_'
'honem_'
'TA'
'následovala_'
'frekvencí_'
'Mari'
'MMF_'
'áže_'
'ret_'
'elná_'
'ses'
'příslušnou_'
'Bosch_'
'90'
'ákem_'
'vlastníkem_'
'přes'
'oni'
'vrátím_'
'an'
'Vídeň_'
'Odborníci_'
'rn_'
'náskok_'
'implementace_'
'samu_'
'políbil_'
'omu_'
'ey'
'Bd'
'reálný_'
'pv'
'laboratoři_'
'chytit_'
'sh_'
'By'
'jedno'
'LA'
'oho_'
'RC_'
'školky_'
'vzájemných_'
'vystavovatelů_'
'hn'
'Lv'
'zub'
'Pom'
'krevního_'
'rot'
'To'
'Ně_'
'Lidi_'
'up'
'Táta_'
'zblízka_'
'pohlavní_'
'elektronicky_'
'rekordní_'
'níka_'
'husté_'
'fy_'
'Super_'
'vyšli_'
'kontaktní_'
'ej'
'Tradiční_'
'Ge'
'1936_'
'jan'
'UT'
'CK'
'ban'
'ACE_'
'zvedá_'
'spokojenost_'
'nádvoří_'
'kladou_'
'jakýchkoli_'
'dělníků_'
'Kor'
'servery_'
'prot_'
'lak_'
'vzpomenout_'
'vystoupit_'
'nep'
'nebezpečných_'
'úspěchů_'
'čv'
'osmi'
'Tar'
'Smith_'
'Jedině_'
'IM'
'samá_'
'kluka_'
'isme_'
'des'
'Bor'
'zasáhla_'
'zacházet_'
'biskup_'
'kli'
'čh'
'udi'
'vyp'
'bon'
'Uo'
'novináře_'
'křivky_'
'Speciální_'
'samice_'
'přehrávání_'
'viditelné_'
'rce_'
'Ideální_'
'yu'
'OD'
'zaujala_'
'přejde_'
'lních_'
'věšák_'
'vat'
'sor'
'ZE'
'Dlouhé_'
'Žo'
'zařídit_'
'nejrychlejší_'
'účinný_'
'éi'
'tmavě_'
'klop'
'AR_'
'výrobním_'
'padlo_'
'Ed'
'stylem_'
'křičel_'
'hk'
'experimentální_'
'následků_'
'blesk_'
'vybere_'
'užitkových_'
'sousedů_'
'ns'
'připraví_'
'nespokojen'
'It'
'lehkých_'
'vkladů_'
'posuzovat_'
'obrazovku_'
'Švédsko_'
'ari'
'Fan'
'visel_'
'div'
'vteřiny_'
'konstantní_'
'SO'
'sezony_'
'podklad_'
'klávesnici_'
'hat_'
'Hra_'
' ! ) _'
'úkony_'
'překročení_'
'náplň_'
'Text_'
'úv'
'Ne'
'Ea'
'udělení_'
'francouzská_'
'Německem_'
'využili_'
'medu_'
'hm'
'strašné_'
'dít_'
'nezmění_'
'Bn'
'Že'
'ow_'
'kterej_'
'Bluetooth_'
'Te'
'širokým_'
'mnohá_'
'Ya'
'pravidly_'
'končetin_'
'uměním_'
'EP'
'uro'
'Paka_'
'áa_'
'identifikace_'
'Lis'
'YouTube_'
'Princip_'
'stanoveny_'
'stanoven_'
'Sd'
'1930_'
'zují_'
'GI'
'3'
'slávy_'
'TN'
'skal_'
'tn'
'pozorovala_'
'krajích_'
'Lepší_'
'příkazy_'
'Novou_'
'ad'
'Minulý_'
'vyv'
'1962_'
'ústavů_'
'ujistil_'
'nacházíme_'
'neznám_'
'sklonku_'
'zúčastnili_'
'slaví_'
'platil_'
'áe_'
'riskovat_'
'kat'
'zaměřen_'
'narozeniny_'
'Prodej_'
'vzorem_'
'studijní_'
'nájmu_'
'Dub'
'žijících_'
'ěr'
'Dr'
'použije_'
'pilot_'
'dodatečné_'
'přidanou_'
'násilím_'
'( '
'černo'
'lišit_'
'sro'
'ii'
'Bach_'
'Post'
'vymyslel_'
'bí'
'posadila_'
'nadšeně_'
'Pa'
'Řízení_'
'učebnice_'
'prod'
'leccos_'
'klesly_'
'akcích_'
'Dejte_'
'ýi_'
'zt_'
'zodpovědný_'
'dary_'
'chtěly_'
'branky_'
'One_'
'Doma_'
'Mo_'
'orientovat_'
'kněží_'
'Blo'
'úm'
'ztrácejí_'
'nápadně_'
'Milana_'
'vzděláním_'
'tor'
'srov_'
'sal_'
'redaktor_'
'Viděla_'
'provedla_'
'počátek_'
'sluchátko_'
'oy_'
'die_'
'uru_'
'Dra'
'lize_'
'hů_'
'Jiný_'
'ško'
'čas'
'transformaci_'
'dě'
'Ak'
'mono'
'definuje_'
'souboj_'
'ecké_'
'RU'
'PA'
'značce_'
'kal'
'HS'
'Berlín_'
'Kom'
'stranami_'
'shodli_'
'publikaci_'
'poradců_'
'centrech_'
'OECD_'
'doleva_'
'Obraz_'
'archivu_'
'ÍM_'
'or'
'jsem'
'výjimku_'
'Sou'
'PR'
'Bytč_'
'íř'
'tu'
'Novinkou_'
'připomínal_'
'podnikat_'
'otvoru_'
'Green'
'šesti'
'totální_'
'pěst_'
'Úd'
'přát_'
'neroz'
'Kanadě_'
'atel_'
'Os'
'ňe_'
'fajn_'
'Německý_'
'relevantní_'
'rd'
'královna_'
'filozofii_'
'ór'
'odstraňování_'
'smlouvou_'
'ps'
'omezený_'
'volat_'
'Wi'
'Ver'
'1957_'
'výběrové_'
'tanec_'
'bul'
'oblíbený_'
'realitou_'
'Ra'
'Cr'
'ml'
'častější_'
'vyt'
'splatnosti_'
'SD'
'Máma_'
'Tn'
'bit'
'zem'
'zb'
'odpl'
'ýk'
'bankou_'
'nám'
'Neo'
'und_'
'tragédie_'
'svátek_'
'příl'
'lis'
'aa'
'Starší_'
'oň_'
'OE_'
'úspěšného_'
'oa'
'účinnou_'
'nějším_'
'mov'
'ňé_'
'zveřejnění_'
'pohybů_'
'přehledu_'
'etí_'
'áce_'
'sle'
'navenek_'
'lan'
'flo'
'eko'
'reformu_'
'pochlubit_'
'lázně_'
'Citroën_'
'rku_'
'Ke'
'uto_'
'tan'
'naznačují_'
'PH'
'Mark'
'sahá_'
'du'
'eá'
'Dan_'
'tráva_'
'zákonné_'
'vložit_'
'výměnou_'
'Mistr_'
'Řidič_'
'cel'
'Star_'
'porucha_'
'net'
'ůa_'
'investora_'
'adekvátní_'
'CH'
'tahu_'
'Sal'
'vědomi_'
'pohár_'
'Mohlo_'
'vytvořily_'
'bílými_'
'pistole_'
'novinář_'
'net_'
'šťávu_'
'váha_'
'přítomné_'
'pě_'
'cenami_'
'bála_'
'provedené_'
'obaly_'
'Cenu_'
'Bre'
'zabezpečit_'
'starosty_'
'JAN_'
'těsta_'
'komor_'
'porodní_'
'položku_'
'Far'
'žka_'
'ší'
'Myslela_'
'prožil_'
'samosprávy_'
'protokol_'
'enými_'
'eri'
'Kup'
'standardním_'
'Slovenská_'
'vz_'
'lhůta_'
'átory_'
'tolerance_'
'Rozhodl_'
'aň'
'At'
'zakladatel_'
'rož'
'don'
'cn'
'projde_'
'výrazy_'
'vlaky_'
'nejlevnější_'
'Sti'
'Současné_'
'třídění_'
'zajistil_'
'nejenže_'
'lím_'
'křeslo_'
'bé'
'ňn'
'áda_'
'volná_'
'kořenů_'
'klasifikace_'
'vytvořen_'
'prodejců_'
'IR'
'představitel_'
'270_'
'1958_'
'smysly_'
'rozšíří_'
'odbor_'
'nž'
'hora_'
'FC_'
'Deset_'
'obecná_'
'došli_'
'studiích_'
'sr'
'Konkrétně_'
'Jed_'
'rukopis_'
'ýb'
'ovní_'
'šťastně_'
'pn'
'jeviště_'
'jemný_'
'reprodukce_'
'předsedu_'
'mela_'
'koncepcí_'
'svět'
'prvku_'
'živo'
'zbarvení_'
'nevadilo_'
'Ostravy_'
'okres_'
'stříbrné_'
'jmenování_'
'jednoduchých_'
'den'
'zaplacení_'
'masem_'
'ada'
'AR'
'říkáš_'
'umožnilo_'
'til'
'mistrů_'
'kut'
'betonové_'
'aro'
'Software_'
'zle'
'uh'
'systematicky_'
'NÁ'
'Celkové_'
'éně_'
'Či'
'větrem_'
'non_'
'mechanicky_'
'Název_'
'strčil_'
'příliv_'
'min'
'ůk'
'slu'
'odpovědný_'
'dýchat_'
'Šá'
'ir_'
'rovně_'
'netýká_'
'ká'
'Alši_'
'480_'
'plot_'
'omezena_'
'kWh_'
'historik_'
'che'
'DC_'
'spoléhat_'
'sni_'
'zemře_'
'slovech_'
'Fejích_'
'upozornění_'
'nel_'
'atp_'
'skupinami_'
'alu_'
'Stalin_'
'Ži'
'nočním_'
'vyžadovat_'
'ukazatel_'
'naučila_'
'lal_'
'hmyz_'
'39'
'ci'
'nízko'
'televizním_'
'realitě_'
'jiho'
'knihovna_'
'nemáš_'
'hrůzu_'
'zástupcem_'
'lin'
'předměstí_'
'pražská_'
'Historie_'
'spolehlivosti_'
'náhodně_'
'angličtiny_'
'písničky_'
'Černé_'
'směřující_'
'skladů_'
'SC'
'ohrozit_'
'ače_'
'Var'
'Janem_'
' ' ._'
'územního_'
'nie_'
'CR'
'BA_'
'radi'
'Vk'
'zemské_'
'laboratorní_'
'MI_'
'ME'
'přivést_'
'porost_'
'odi'
'koncertu_'
'dohledem_'
'vv'
'sena_'
'realizuje_'
'mnu_'
'císař_'
'ťák_'
'vlakem_'
'180'
'Kv'
'ZV'
'ějšími_'
'pso'
'dia'
'ýi'
'ínu_'
'ruší_'
'TV'
'ESP_'
'vž'
'un'
'tepelně_'
'ava_'
'tábor_'
'podnikových_'
'šo'
'jednoty_'
'Líz_'
'év_'
'meč_'
'dot'
'MV_'
'sva'
'pěstuje_'
'zprávou_'
'režimů_'
'přerušil_'
'nepřítel_'
'Budeč_'
'Ber'
'ěš'
'ož_'
'lovi_'
'Fondu_'
'navrhla_'
'dodavatelé_'
'českému_'
'linek_'
'čná_'
'md'
'doko'
'PT'
'PhDr_'
'Md'
'váze_'
'odpoví_'
'objednávky_'
'katolické_'
'proc'
'rům_'
'24'
'ťme_'
'vozíků_'
'tě'
'úplný_'
'vlastnímu_'
'my'
'ěp'
'rky_'
'kurzů_'
'lit'
'bytové_'
'Bi'
'ři'
'výškou_'
'klan'
'známa_'
'pó'
'praktického_'
'karcinomu_'
'fv'
'Dosavadní_'
'třetích_'
'tních_'
'pochopí_'
'dramatu_'
'kud_'
'Zásadní_'
'přímém_'
'příloze_'
'ien'
'UM'
'Jí'
'Charlie_'
'povstání_'
'klíčovou_'
'dynamické_'
'aktivních_'
'Wn'
'Léčba_'
'něk'
'zaměřených_'
'definici_'
'Soud_'
'zas'
'nevhodné_'
'koli_'
'Ld'
'uz'
'papíře_'
'Nemůže_'
'netušil_'
'hyb'
'kolekce_'
'Lékaři_'
'naučili_'
'milé_'
'Pd'
'Nemohu_'
'Dana_'
'Cn'
'tuje_'
'mokré_'
'VI'
'Ut'
' ( + _'
'1919_'
'úsměvu_'
'zemřít_'
'rostoucím_'
'nepůjde_'
'Ukazuje_'
'101_'
'neustálé_'
'nabízených_'
'cela_'
'svobod_'
'hodnotami_'
'Koneckonců_'
'přesnou_'
'dd'
'prosto_'
'válečných_'
'velvyslanectví_'
'nepři'
'hrdlo_'
'Rd'
'nm'
'věcem_'
'výstav_'
'službou_'
'Vor'
' : ( _'
'iš'
'Smart_'
'odstavce_'
'odolné_'
'časových_'
'kompromis_'
'Paky_'
'Io'
'Pet'
'šr'
'unavený_'
'dr'
'nci'
'gat'
'penzijní_'
'Staro'
'útvaru_'
'wo'
'rzo'
'osu_'
'jal_'
'eurozóny_'
'energetického_'
'ves_'
'uskutečnil_'
'sebevraždu_'
'Proces_'
'samotným_'
'lineární_'
'mis'
'obraze_'
'komerčních_'
' ! '
'touhou_'
'mz'
'izolační_'
'formáty_'
'rozsudek_'
'Con'
'uplatní_'
'kolikrát_'
'zkouška_'
'tisíců_'
'oprav_'
'ay'
'rozvojových_'
'Tu'
'mit'
'iče_'
'Nk'
'narůstá_'
'oddílu_'
'hlíny_'
'pramenů_'
'Co'
'žte_'
'úvod_'
'špičku_'
'šlechtění_'
'Šv'
'odb'
'fasády_'
'usmívá_'
'chytrý_'
'napojení_'
'vyšly_'
'nič_'
'Ol'
'čík_'
'platů_'
'mívají_'
'lokalitách_'
'Cro'
'ča'
'él_'
'Mnichově_'
'zdiva_'
'výdrž_'
'stran'
'barvami_'
'částkou_'
'taneční_'
'CNC_'
'Be_'
'zpětnou_'
'tání_'
'trojice_'
'soustředí_'
'operačních_'
'uměleckého_'
'knihách_'
'hol'
'Pí'
'schopno_'
'bojuje_'
'UL'
' “ ) _'
'vk'
'rozeznat_'
'jednotný_'
'dal'
'is'
'drn'
'úložiště_'
'Jin'
'stiskl_'
'snáze_'
'proměnil_'
'rozvod_'
'ML'
'plo'
'nedělní_'
'ke'
'gu'
'omezen_'
'pan'
'počítačových_'
'Bur'
'ňo_'
'ickém_'
'aven'
'čekalo_'
'použito_'
'kel'
'jižním_'
'rání_'
'jedou_'
'  . _'
'řádků_'
'konflikty_'
'BI'
'čerstvý_'
'sdělila_'
'přísné_'
'hra'
'VO'
'spolehnout_'
'osobami_'
'mechanismů_'
'ée'
'včerejším_'
'vo'
'nápadů_'
'nají_'
'Kd'
'úloha_'
'zajisté_'
'tva_'
'pruhy_'
'ýt'
'zvířaty_'
'přehrávače_'
'Poly'
'tran'
'stravování_'
'klima_'
'dráha_'
'spotřebitelé_'
'kompetencí_'
'knižní_'
'domnívám_'
'tepl'
'dáli_'
'SR'
'Au'
'základů_'
'levice_'
'CD'
'1943_'
'shodné_'
'písmena_'
'šesté_'
'svobodně_'
'budek_'
'vylo_'
'měn_'
'telů_'
'ptám_'
'geo'
'46'
'koberec_'
'Vel'
'připomínky_'
'přijet_'
'extra'
'Mus'
'vrah_'
'ntní_'
'Iv'
'plat'
'kční_'
'99'
'1937_'
'Rt'
'Fakt_'
'OH'
'óa'
'spustí_'
'aru_'
'skok_'
'objektivně_'
'jedenácti_'
'Nn'
'Aktuální_'
'pacientovi_'
'eti'
'Qa'
'pohádky_'
'Od'
'nastoupit_'
'dotýká_'
'tá'
'tuzemsku_'
'složil_'
'Gal'
'slavného_'
'oprávněné_'
'aplikační_'
'sila_'
'ramene_'
'ius_'
'bydlo_'
'nch_'
'deficit_'
'dočkat_'
'bus_'
'bohatých_'
'Využití_'
'skočil_'
'Kája_'
'vnitřně_'
'soustavu_'
'pásmo_'
'ČS_'
'věží_'
'slo'
'překročit_'
'pytle_'
'nebrání_'
'mp'
'Is'
'vězňů_'
'výborný_'
'materiální_'
'lě'
'pohybovala_'
'nei'
'ha'
'Santa_'
'roč_'
'opo'
'Senátu_'
'schází_'
'rozměrech_'
'prázdniny_'
'dod'
'úseky_'
'nezbytně_'
'nem'
'Janu_'
'Hus'
'objemy_'
'věčné_'
'Největším_'
'Bran'
'zoufal'
'prameny_'
'dluhů_'
'pokusech_'
'náruče_'
'chovatelé_'
'Ďa'
'kafe_'
'lidským_'
'zdravého_'
'hotely_'
'Novela_'
'zábava_'
'mráz_'
'dříví_'
'itých_'
'eS'
' " ) , _'
'úspěšných_'
'vyplynulo_'
'ledové_'
'port'
'nepřed'
'ěo'
'připravená_'
'neuro'
'Kas'
'Dál_'
'slabost_'
'nevšiml_'
'přítomných_'
'Blue_'
'ťv'
'Čt_'
'vod'
'variabilní_'
'ré'
'bri'
'prasata_'
'OT'
'vzory_'
'ukončil_'
'Oo'
'ňov'
'xv'
'Ústřední_'
'shodě_'
'databázi_'
'velení_'
'šéfredaktor_'
'tuk_'
'55'
'unt'
'klientovi_'
'spojů_'
'pece_'
'klinických_'
'ýa'
'užitečná_'
'proboha_'
'bula_'
'hli_'
'čtvrtiny_'
'rti'
'mpo'
'Obdobně_'
'OR'
'známek_'
'omo'
'skvělou_'
'ord'
'dla'
' ( . _'
'nemyslím_'
'Američan_'
'využije_'
'společenskou_'
'rukavice_'
'umřel_'
'příměří_'
'nálezy_'
'formátů_'
'Muzeum_'
'stav'
'ken'
'vaných_'
'nemocní_'
'ovladače_'
'rozsáhlou_'
'nen'
'konvenční_'
'jas_'
'ema_'
'Rud'
'oo_'
'městečka_'
'be'
'Podívej_'
'25'
'spis_'
'dol'
'rom'
'aktéra_'
'Media'
'kombinované_'
'selat_'
'plodu_'
'Paku_'
'usnadňuje_'
'uličky_'
'shodují_'
'vykonává_'
'typická_'
'láká_'
'Kubec_'
'ávali_'
'chovatele_'
'plynem_'
'nálezu_'
'vlasech_'
'aM'
'OK'
'Avi'
'sovětských_'
'máslem_'
'Ros'
'ěni_'
'ók'
'půjdou_'
'obecného_'
'mluvíme_'
'ein'
'Full_'
'Den'
'měsícem_'
'městský_'
'analyzovat_'
'skladeb_'
'Gv'
'důkazů_'
'rk_'
'Bosny_'
'zpěvu_'
'optimalizace_'
'odpolední_'
'ted_'
'inter'
'pedagogické_'
'nabízel_'
'ňu'
'vyla_'
'přinesly_'
'ýd'
'produkuje_'
'koleje_'
'hotovosti_'
'trim_'
'boxu_'
'lokalit_'
'ekonomie_'
'Har'
'žb'
'ŽE_'
'spí'
'příznaků_'
'novu_'
'ary_'
'yi'
'nebývá_'
'mín'
'komfortu_'
'heslem_'
'emo'
'bv'
'PE_'
'obvodů_'
'dotknout_'
'Iráku_'
'kouře_'
'Zd'
'JEP_'
'Budče_'
'ležely_'
'kamenem_'
'druh'
'ah'
'světel_'
'psychologické_'
'nál'
'NI'
'vět'
'dokázaly_'
'ůj_'
'ft_'
'Lit'
'ák'
'zvukové_'
'poklesla_'
'osa_'
'ds'
'bit_'
'úhradu_'
'prachy_'
'automobilka_'
'Liberec_'
'záruka_'
'chlapců_'
'NÝ_'
'hypo'
'delším_'
'ouc_'
'mami_'
'makro'
'kalhot_'
'křídlo_'
'stanovuje_'
'inženýr_'
'uvedlo_'
'převzala_'
'nájemného_'
'pěstí_'
'klíně_'
'ró'
'pou_'
'jně_'
'dos_'
'bol'
'Ěv'
'připustil_'
'Typ_'
'zaměřený_'
'průmyslového_'
'plodů_'
'kému_'
'koncerty_'
'prvotní_'
'stolek_'
'nap_'
'Hr'
'čer'
'ucítil_'
'osmě_'
'jistým_'
'ěb'
'využívající_'
'herce_'
'filmových_'
'bytových_'
'šku_'
'specifický_'
'nahrazuje_'
'ředitelé_'
'dopadl_'
'veškerých_'
'představou_'
'avi'
'Ue'
'Jv'
'1800_'
'etapy_'
'dutiny_'
'virus_'
'sloupy_'
'nabízíme_'
'Ukrajině_'
'JAK_'
'upravené_'
'hromadné_'
'ato_'
'ía'
'porota_'
'lání_'
'Zuzana_'
'Kia_'
'ložisek_'
'STE'
'NO_'
'Evropou_'
'tance_'
'očím_'
'iva_'
'médium_'
'kmen_'
'jmenovala_'
'arch_'
'zaměstnává_'
'vybírá_'
'dřevin_'
'dk'
'alternativu_'
'obsluhu_'
'elný_'
'Xa'
'son'
'tovi_'
'nálada_'
'dosáhlo_'
'prac'
'dolar_'
'zvolte_'
'ozbrojených_'
'farmáři_'
'dli_'
'260_'
'varu_'
'ot'
'kos'
'ér'
'překvapeně_'
'postoji_'
'KU'
'posílat_'
'emu_'
'UN'
'Fo'
'oů_'
'ČSR_'
'íp_'
'vítězů_'
'předávání_'
'maďarské_'
'LÁ'
'Gn'
'mut'
'Vážně_'
'Kar'
' “ ?_'
'dvo'
'ukázky_'
'šířky_'
'přípravou_'
'ochranných_'
'dramatické_'
'biologie_'
'ö'
'mořem_'
'iš_'
'inscenace_'
'eš'
'So'
'Brusel_'
'we'
'trhem_'
'pok'
'ple'
'opakované_'
'Les'
'Ďn'
'kavárny_'
'ile'
'reálných_'
'otáčkách_'
'gv'
'Fr'
'narodila_'
'int'
'ham_'
'organismy_'
'možn'
'dokážeme_'
'Díval_'
'princ_'
'pokojů_'
'kůry_'
'komunistů_'
'Ůo'
'som'
'trase_'
'tce_'
'semináři_'
'BER'
'3500_'
'nároku_'
'jednotkou_'
'avý_'
'svěřil_'
'Izraeli_'
'řády_'
'ňan'
'nejsi_'
'nitra_'
'Ze'
'skvělá_'
'předcházet_'
'kilometry_'
'Veleba_'
'Můžeš_'
'Ch'
'Rad'
'Oe'
'Centra_'
'pakt_'
'louky_'
'hen'
'Zn'
'Re_'
'tvrdá_'
'potřetí_'
'mentální_'
'medaili_'
'agent_'
'Mil'
'obrátí_'
'22'
'molekul_'
'kontroluje_'
'nutností_'
'kruzích_'
'izaci_'
'Americká_'
'považovány_'
'dov'
'Ěo'
'tajemníka_'
'novelu_'
'Šu'
'úctu_'
'vyvolala_'
'statků_'
'malby_'
'Ry'
'Mad'
'1928_'
'přírodního_'
'zneužívání_'
'vzato_'
'Zadní_'
'útoků_'
'uplatňovat_'
'mužské_'
'Rozšíření_'
'utekl_'
'náročných_'
'jejic_'
'for'
'dodržení_'
'benzinu_'
'páni_'
'naráz_'
'Sí'
'Chybí_'
'Boris_'
'přítomností_'
'lžička_'
'jednoduchým_'
'dů'
'éa'
'nočních_'
'konečný_'
'Čekal_'
'mor'
'užívají_'
'ráv'
'opi'
'barokní_'
'Ger'
'zakládá_'
'protest_'
'LE_'
'ron'
'Ochrana_'
'skončily_'
'příbuzné_'
'lže_'
'IC'
'Ii'
'Ara'
'zasáhl_'
'bezpečný_'
'usmíval_'
'léty_'
'širším_'
'sm'
'přístroji_'
'hradí_'
'básní_'
'Japonci_'
'splňovat_'
'hoj_'
'historií_'
'Wy'
'vojenská_'
'hloubce_'
'Banky_'
'rozhlasové_'
'otevřeno_'
'orchestr_'
'tudy_'
'konečnou_'
'NY_'
'nejistoty_'
'št'
'poklesl_'
'boj'
'náhrada_'
'Pako_'
'ezi_'
'zpo'
'cely_'
'Slečna_'
'ťi_'
'ši'
'úřadem_'
'nemalé_'
'hněv_'
'chlad_'
'aparát_'
'50'
'zak'
'mí'
'šil_'
'pokrývá_'
'men_'
'kdy'
'Ja'
' % '
'Zem'
'zóně_'
'tvým_'
'regiony_'
'organických_'
'legraci_'
'křičí_'
'kvalitativní_'
'Vliv_'
'zao'
'nehodí_'
'Mezi'
'kre'
'Plzně_'
'lži_'
'kráčel_'
'bylas_'
'AK'
'experti_'
'gra'
'táhl_'
'Sl'
'neus'
'una_'
'Ještěd_'
'ponětí_'
'palce_'
'Saint_'
'zaznamenali_'
'br_'
'IF_'
'pošta_'
'1914_'
'yt'
'rov'
'osu'
'logistiky_'
'Dej_'
'založeno_'
'všecky_'
'star'
'šťastné_'
'obecných_'
'stálý_'
'dorazili_'
'cha'
'Rn'
'způsobilo_'
'normu_'
'átka_'
'původem_'
'Ul'
'Ťa'
'oí'
' \u _'
'lepších_'
'Tv'
'CRM_'
'zvýšený_'
'teze_'
'popadl_'
'ativní_'
'íz_'
'anými_'
'tře'
'hudebního_'
'hleděla_'
'etické_'
'TM'
'Německá_'
'AMD_'
'zk'
'hmotu_'
'Ha_'
'ANO_'
'neo'
'propagace_'
'poštu_'
'vzestupu_'
'plynoucí_'
'zásilek_'
'stálého_'
'rozv'
'polních_'
'copak_'
'atá_'
'Lu'
'čtvrtém_'
'poo'
'kombinovat_'
'BR'
'variantě_'
'rudé_'
'WA'
'problematické_'
'Ra_'
'zvyšující_'
'náprava_'
'konektor_'
'volala_'
'stravy_'
'rop'
'ŘE'
'FM_'
'připojil_'
'neliší_'
'zne'
'vyznání_'
'přijata_'
'kými_'
'kp'
'hrdiny_'
'Anit_'
'zpracovává_'
'Ple'
'FI'
'zadávání_'
'pracujících_'
'podívá_'
'podstatou_'
'odložil_'
'lib'
'doo'
'provozem_'
'Čeští_'
'stavbou_'
'par'
'opravit_'
'lokálních_'
'hrubého_'
'Cel'
'soudit_'
'nejob'
'konfliktů_'
'výjimečné_'
'ngu_'
'Ferrari_'
'polit'
'maximálním_'
'kruhů_'
'fázích_'
'kusu_'
'užší_'
'noho_'
'měnové_'
'aktu_'
'postavou_'
'Oz'
'nemusím_'
'módy_'
'hc'
'zásobníku_'
'ye'
'uu'
'Mluvil_'
'neznámého_'
'Fá'
'ťu_'
'uložené_'
'Pel'
'Op'
'Ýv'
'Technické_'
'výtahu_'
'výbornou_'
'rostly_'
'Hil'
'obědě_'
'ěr_'
'opustili_'
'důvěra_'
'nj'
'gesta_'
'kou'
'jednotlivci_'
'průměrného_'
'požár_'
'op'
'kmenů_'
'archiv_'
'ůs'
'orá'
'zásuvky_'
'prosazuje_'
'náplní_'
'šv'
'átů_'
'podzemních_'
'opačné_'
'nl'
'legendární_'
'architekta_'
'Menší_'
'stické_'
'některém_'
'hračky_'
'TU_'
'trouby_'
'píšu_'
'kvalitně_'
'děl'
'SI'
'DEM_'
'širokém_'
'točivý_'
'Év'
'sť'
'rámce_'
'oce_'
'lev'
'cizince_'
'bylos_'
'vztahem_'
'navrch_'
'Zá'
'Nd'
'Inc_'
'zobrazuje_'
'klientem_'
'kterás_'
'Jiná_'
'počítají_'
'útvary_'
'íž_'
'rozhodnou_'
'ICE_'
'íz'
'projevilo_'
'Západní_'
'uvědomoval_'
'studio_'
'překážek_'
'Sho'
'Franz_'
'Dor'
'61'
'Asus_'
'1933_'
'íval_'
'rí'
'možném_'
'eno'
'vodo'
'ús'
'nevz'
'falešné_'
'cht'
'ačního_'
'vraždu_'
'sebral_'
'spolu'
'ťo'
'síni_'
'vytáhnout_'
'uděláme_'
'poch'
'zkoušce_'
'ran'
'AI'
'jakkoliv_'
'hodila_'
'dovolil_'
'vybavený_'
'nylo_'
'jednoznačné_'
'Zlatý_'
'odr'
'bradu_'
'Nevěděl_'
'stoupla_'
'přírodu_'
'přestává_'
'POL'
'ón'
'spojený_'
'republikou_'
'nyla_'
'72'
'střecha_'
'eo'
'Rv'
'uzavřených_'
'efektivnější_'
'příjmení_'
'nemusíme_'
'Kapitán_'
'jídel_'
'1955_'
'řpi'
'odlišných_'
'elektrickým_'
'bulo_'
'lad_'
'ču_'
'áz'
'uspořádat_'
'půl'
'pomaleji_'
'dosahovat_'
'óz'
'partie_'
'mer'
'kondici_'
'hrubě_'
'alternativních_'
'yv'
'tušit_'
'předního_'
'Nejvíc_'
'Důvod_'
'km'
'ino'
'síně_'
'správném_'
'významného_'
'dosahu_'
'vsaku_'
'odpo'
'sklady_'
'Bal'
'ASZ_'
'věřící_'
'rozsáhlý_'
'zahrad_'
'uzavřela_'
'pos_'
'patro_'
'23'
'taj'
'pojištěn'
'Ruské_'
'Most_'
'příznivě_'
'odlišná_'
'hle'
'Vnější_'
'ut'
'rat'
'yo'
'vet'
'svobodný_'
'koutě_'
'Nejs'
'ČLS_'
'une'
'sterá_'
'modulů_'
'manželů_'
'hi'
'řd'
'čtenářům_'
'zanechal_'
'nest'
'nejs'
'iPad_'
'Mv'
'Ex'
'zlat'
'vů_'
'přístupů_'
'lžičky_'
'1959_'
'Út_'
'dostávat_'
'ac'
'Id'
'= _'
'RE'
'splňují_'
'nezbylo_'
'léku_'
'ved'
'usoudil_'
'ekonomickým_'
'ukládat_'
'složitých_'
'pk'
'mv'
'mst'
'Zne'
'Značka_'
'Pan'
'70'
'ape'
'RO'
'řá'
'zasmála_'
'pra_'
'mne'
'designem_'
'Konference_'
'Americké_'
'předu_'
'procentech_'
'pdo'
'studiem_'
'sestavy_'
'olejů_'
'toužil_'
'textem_'
'cle'
'pohřbu_'
'kace_'
'aktivitě_'
'zakázáno_'
'výuce_'
'ra'
'He_'
'Ba'
'ňme_'
'ryba_'
'vej_'
'sumu_'
'považováno_'
'Arthur_'
'třebas_'
'pá_'
'nájemce_'
'elektronický_'
'sedadle_'
'odlišit_'
'nictví_'
'vdov'
'smutku_'
'nc'
'mile_'
'dokonalosti_'
'ateliéru_'
'ŠT'
'východním_'
'pov'
'minerálních_'
'Zu'
'přepravě_'
'hektaru_'
'Poslanecké_'
'jihovýchodní_'
'cuje_'
'Jar'
'účastnit_'
'instituci_'
'orem_'
'Museli_'
'něh_'
'nekončí_'
'naklonil_'
'Nechte_'
'Ús'
'filosofie_'
'eza'
'rus'
'referenční_'
'křídel_'
'turisty_'
'MO'
'HR_'
'zachytil_'
'tli_'
'snadnou_'
'něn'
'dálkové_'
'Vodafone_'
'Cra'
'otázkami_'
'závěsu_'
'kvalitním_'
'zlomek_'
'ri'
'nz'
'napravit_'
'česnek_'
'tabule_'
'pozoruje_'
'Nal_'
'sun'
'dějích_'
'britská_'
'Pá_'
'Cože_'
'kolečka_'
'AS'
'Šest_'
'tra'
'stupněm_'
'nesmíme_'
'Sta'
'Říkám_'
'íb'
'zkrácení_'
'iň'
'Jeh_'
'těžkým_'
'ploché_'
'ori'
'matek_'
'Stav_'
'založili_'
'prů'
'j'
'Vr'
'snadněji_'
'pultu_'
'náboženských_'
'ex'
'znaku_'
'výkonného_'
'outi_'
'něj'
'kab'
'íd_'
'ua'
'rostla_'
'plastové_'
'stoprocentně_'
'Mir'
'jk'
'šoku_'
'pho'
'zamyšlení_'
'linií_'
'cv'
'zvládá_'
'uších_'
'Us'
'správních_'
'jeho'
'Ru'
'Lidové_'
'dočasné_'
'Kan'
'Dy'
'zachoval_'
'pohledů_'
'funkčnost_'
'farma_'
'Can'
'příjemná_'
'Naším_'
'žilo_'
'párů_'
'poz'
'nepří'
'cí'
'provedli_'
'Jn'
'mili'
'balíku_'
'tajemstvím_'
'mísy_'
'mohutné_'
'Pochopitelně_'
'JU'
'yi_'
'vnímají_'
'oi'
'železnice_'
'pláč_'
'královské_'
'Stroj_'
'Mr'
'stabilita_'
'lad'
'vb'
'jez'
'wd'
'onů_'
'dlani_'
'CT'
'vstát_'
'sz'
'rovnoměrně_'
'charakterizuje_'
'úroky_'
'Fle'
'178'
'zaz'
'vsaj_'
'Dou'
'Ňi'
'xi'
'upravovat_'
'stížnosti_'
'nak_'
'mlčí_'
'dosavadního_'
'poradci_'
'komponentů_'
'Společenství_'
'Son'
'ču'
'černými_'
'laskavě_'
'elé_'
'Fran'
'španělské_'
'spadla_'
'Lady_'
'tivně_'
'fen'
'ble_'
'vzorce_'
'humanitární_'
'Pri'
'ěch_'
'soukromá_'
'omezeným_'
'ndi'
'Míl_'
'sledovaných_'
'kli_'
'Ms'
'zt'
'zajímavým_'
'tradičního_'
'atu_'
'IL'
'slavnosti_'
'ideologie_'
'hliníku_'
'bytostí_'
'Nan'
'Case_'
'All'
'zajímavější_'
'výběrového_'
'fl_'
'svazky_'
'společensky_'
'poj'
'důrazně_'
'Hur'
'France_'
'ukazoval_'
'piř'
'děvčata_'
'De'
'Cy'
'chl_'
'Dubec_'
'privátní_'
'známku_'
'AE'
'správou_'
'éna_'
'různou_'
'připadat_'
'pozitivních_'
'poplatku_'
'oddíl_'
'nti_'
'can'
'rozdílem_'
'milost_'
'bič_'
'vteřinu_'
'spoustou_'
'obálku_'
'internetového_'
'Vše'
'ŠÍ_'
'vědeckého_'
'formulace_'
'all_'
'speciálního_'
'rallye_'
'euro'
'zkuste_'
'píce_'
'Karlových_'
'uš_'
'švech_'
'výpravy_'
'přestali_'
'ent'
'Velikost_'
'uí'
'mimořádnou_'
'jeďte_'
'inov'
'Dvou'
'pořady_'
'Noho_'
'Nedo'
'tvářil_'
'raz'
'Zo'
'Vo'
'26'
'šní_'
'ády_'
'tlaky_'
'pátý_'
'nevý'
'éu_'
'paty_'
'napadá_'
'ecn'
'Michala_'
'Jet'
'žlutá_'
'filmový_'
'Ův'
'tehdejšího_'
'intra'
'dh'
'strojírenství_'
'autu_'
'zvaný_'
'čt'
'stan_'
'automatickou_'
'víčka_'
'pres'
'modrých_'
'Klub_'
' . '_'
'šedesáti_'
'žv'
'uvědomí_'
'trestných_'
'och'
'Ná'
'rné_'
'otočí_'
'nasadil_'
'intervalech_'
'Právo_'
'naprostá_'
'Sat'
'ětí_'
'procházel_'
'negativních_'
'Morava_'
'tory_'
'leasing_'
'srovnávat_'
'dramaticky_'
'žadatel_'
'signálů_'
'nit'
'knihou_'
'grafika_'
'fel'
'MA'
'ží'
'Žen'
'írá_'
'run'
'pánvi_'
'vzpomněla_'
'metropole_'
'dostupnosti_'
'aukce_'
'óv'
'týmem_'
'sankcí_'
'přímá_'
'Otto_'
'Bez'
'postavené_'
'Stra'
'Pá'
'odp'
'Znám_'
'Které_'
'Federálního_'
'jezero_'
'Federální_'
'ule_'
'technologiemi_'
'nejdéle_'
'ČE'
'pů'
'přid'
'senátu_'
'rozlišit_'
'ntu_'
'Pin'
'střetu_'
'nechám_'
'slunečního_'
'ep'
'elektrickou_'
'Vin'
'VR'
'zákazníkem_'
'Kamil_'
'potravu_'
'aut'
'Udělal_'
'Noční_'
'smutný_'
'oo'
'ip'
'21'
'zúčastněných_'
'násl_'
'Pl'
'Kli'
'rost'
'rl'
'prozradil_'
'platilo_'
'multi'
'. " _'
'zobrazit_'
'výzvou_'
'hod'
'ovice_'
'pokračují_'
'ovati_'
'vsaků_'
'předčasné_'
'kilogram_'
'iv'
'zavřen'
'já'
'horizontální_'
'Problémem_'
'Bio'
'výbuchu_'
'schématu_'
'jižních_'
'zvyk_'
'zapomněli_'
'vsákl_'
'pohřeb_'
'fin'
'chaos_'
'oh'
'zničení_'
'nádherný_'
'ohrožuje_'
'kontra'
'přihlásit_'
'blízkých_'
'šířit_'
'starším_'
'licencí_'
'nedala_'
'menšího_'
'trendů_'
'nuly_'
'Tat'
'Luci'
'Louis_'
'lh'
'kapitána_'
'hodinou_'
'základními_'
'vzácně_'
'prošli_'
'prohlídky_'
'použili_'
'pravomocí_'
'nehodě_'
'maj_'
'zásadních_'
'inspiraci_'
'přednášek_'
'komfortní_'
'dorazí_'
'adresa_'
'trpělivě_'
'aktivním_'
'Ďo'
'trápení_'
'projednávání_'
'Wv'
'Bá'
'Bit'
'rozšiřovat_'
'NA'
'příbuzní_'
'elektronického_'
'Oa'
'Bou'
'vznikem_'
'lce_'
'Mit'
'tašku_'
'rostl_'
'předvedl_'
'automat_'
'RS'
'ůo'
'přesun_'
'ami'
'dobří_'
'Tro'
'dit'
'podel_'
'versus_'
'rozpor_'
'pila_'
'Řv'
'áh_'
'isty_'
'ger'
'Ui'
'Bon'
'odbytu_'
'dj'
'ode'
'asn'
'Yi'
'Chr'
'sovětského_'
'všechně_'
'voj'
'názorem_'
'cihel_'
'ankety_'
'horkou_'
'KSČM_'
'užitkovosti_'
'pozemních_'
'kývl_'
'IPS_'
'nepod'
'jídlem_'
'ys'
'spatřit_'
'podlé_'
'Tělo_'
'vášeň_'
'podléhá_'
'chytrých_'
'zat_'
'lle_'
'Trenér_'
'Chlapec_'
'way_'
'počítal_'
'mle'
'grafiky_'
'cová_'
'stn'
'mateřských_'
'hrdla_'
'VY'
'Kno'
'uá'
'schválil_'
'pracích_'
'age_'
'Místní_'
'rozvodu_'
'přenášet_'
'objetí_'
'hloubi_'
'Panasonic_'
'stan'
'odvahy_'
'IF'
'wv'
'táhla_'
'ročním_'
'ohrad'
'komisař_'
'bratrem_'
'Tatra_'
'viru_'
'ks'
'elektronickou_'
'Vd'
'Jak'
'potřebami_'
'mými_'
'léčebné_'
'hd'
'cy'
'Vypadal_'
'počínání_'
'štít_'
'30'
'výstupů_'
'vykládat_'
'vozíky_'
'mrtví_'
'italského_'
'udržel_'
'intervence_'
'Hal'
'úzký_'
'zmizet_'
'přílohy_'
'bydla_'
'nezbytnou_'
'emi'
'šťávou_'
'třem_'
'poukazuje_'
'otevřen_'
'logistických_'
'zv'
' ( , _'
'vypnout_'
'tvorbou_'
'pěkná_'
'pozoruhodné_'
'ito_'
'dřívějších_'
'bankovního_'
'Ďi'
'nenávisti_'
'kar'
'debaty_'
'1924_'
'Přehled_'
'útvar_'
'mikro'
'úbytek_'
'oblek_'
'lz'
'kukuřici_'
'Cá'
'ža'
'tip_'
'TS'
'sousedních_'
'lavice_'
'jm_'
'en'
'vit'
'aktualizace_'
'zbývajících_'
'sklem_'
'mnoho'
'zím_'
'vložíme_'
'otázkám_'
'vyhovět_'
'tích_'
'poa'
'Světlo_'
'íně_'
'tó_'
'met'
'fs'
'domek_'
'Frankfurtu_'
'rychlo'
'představ'
'Anči_'
'choroba_'
'62'
'vila_'
'Rodina_'
'Kotera_'
'ptačí_'
'Press_'
'výhledem_'
'tických_'
'synovi_'
'rm_'
'koaliční_'
'jn'
'věru_'
'poznámku_'
'nastoupí_'
'jídelny_'
'Ježích_'
'zp'
'chystají_'
'blude_'
'sat'
'pásky_'
'prostranství_'
'AG'
'zátěži_'
'iální_'
'istů_'
'Marketing_'
'Chod'
'hrub'
'evoluce_'
'zvolal_'
'zrušil_'
'zastával_'
'spala_'
'projednání_'
'hustě_'
'bý'
'Ješích_'
'Eko'
'EM'
'tov'
'Američanů_'
'48'
'žin'
'přístupné_'
'ovaným_'
'obtíží_'
'Zin'
'Julie_'
'pochybovat_'
'pocházející_'
'pozitivním_'
'obvody_'
'Anny_'
'ďo'
'rezerv_'
'dia_'
'úspora_'
'oat_'
'Pot'
'Ae_'
'Šn'
'vním_'
'ram'
'Podobný_'
'éře_'
'zrcadle_'
'stí'
'peklo_'
'dávkou_'
'Rozsah_'
'Nm_'
'edice_'
'blížící_'
'uskutečnila_'
'policejního_'
'ovo'
'dokončil_'
'Sparty_'
'půdách_'
'ht'
'Kdepak_'
'tichu_'
'srovnat_'
'ohromné_'
'Lt'
'zi'
'sukni_'
'prospěchu_'
'mluvilo_'
'baude_'
'MC'
'Dd'
'ruch_'
'multimediální_'
'modulu_'
'Komu_'
'102_'
'vysvětlila_'
'pou'
'polo'
'list'
'květu_'
'hed'
'centrálního_'
'publikací_'
'nda'
'Mur'
'ID_'
'vyvolá_'
'profilů_'
'pamatovat_'
'pí'
'poč'
'koz_'
'dýchacích_'
'Táň_'
'pachatel_'
'dvacátých_'
'cil_'
'td'
'stra_'
'ohledech_'
'mlhy_'
'cílovou_'
'lo'
'šit_'
'službami_'
'odmítal_'
'existovala_'
'Autodesk_'
'pytel_'
'historickou_'
'Ae'
'vál'
'naslouchat_'
'mk'
'žě_'
'řep'
'živou_'
'stoly_'
'poctivě_'
'plasty_'
'nedokázali_'
'nebudeš_'
'Ka_'
'IL_'
'tří'
'stem_'
'Zlaté_'
'Hodnota_'
'ČSA_'
'konferencí_'
'kapitolu_'
'hro'
'branou_'
'Lékař_'
'1925_'
'yly_'
'Nechal_'
'HC'
'áče_'
'ocenit_'
'monitorování_'
'ZÁ'
'Hd'
'1934_'
'vchodem_'
'moh'
'mno_'
'bývalým_'
'Pokaždé_'
'AU'
'špinavé_'
'stabilizaci_'
'Nv'
'Ana'
'tónu_'
'turné_'
'maminky_'
'ekonom_'
'uh_'
'rou'
'bej'
'Plav'
'tější_'
'tin_'
'parlamentních_'
'VÝ'
'řv'
'árna_'
'uvádět_'
'žádají_'
'přijatelné_'
'procesory_'
'něžně_'
'Pn'
'vsakl_'
'předp'
'náznak_'
'fakultu_'
'dva'
'PC'
'ářské_'
'ipo'
'technickým_'
'krajské_'
'Pierre_'
'vsaky_'
'Hlava_'
'tiskový_'
'Tim_'
'sbírka_'
'res'
'řu_'
'soupravy_'
'kup'
'SA'
'uri'
'poskytovatele_'
'netradiční_'
'ěno_'
'poznámka_'
'manažerka_'
'vrt'
'chráněné_'
'zadek_'
'obratem_'
'ibu'
'aj'
'Fn'
'zisků_'
'snížily_'
'cestovat_'
'dávkování_'
'sch_'
'jezdci_'
'jevišti_'
'standardem_'
'kap_'
'cet'
'vystupují_'
'přivezl_'
'oj'
'fil'
'diváka_'
'běžet_'
'aza'
'SL'
'wn'
'vykřikla_'
'sednout_'
'ranou_'
'dceři_'
'Art_'
'realizací_'
'kel_'
'vzájemného_'
'vystudoval_'
'souhlasem_'
'slovník_'
'Če_'
'předložil_'
'oě'
'králi_'
'drobná_'
'Gor'
'pivní_'
'ýo'
'proš'
'leté_'
'jeo_'
'býků_'
'úzkých_'
'ád'
'záběrem_'
'používali_'
'chybou_'
'Hen'
'Air'
'prstu_'
'celému_'
'Strana_'
'con'
'kol'
'fakulta_'
'brýlí_'
'žé_'
'Ev'
'íd'
'původce_'
'pokusili_'
'evy'
'vyjadřovat_'
'kz'
'ct'
'Honza_'
'Účastníci_'
'překážkou_'
'Národním_'
'nb'
'Regionální_'
'čelí_'
'zdravotnického_'
'lého_'
'Parlamentu_'
'Nar'
'soutěžní_'
'plech_'
'papírové_'
'„_'
'Íi'
'zápasů_'
'the'
'zrn'
'lince_'
'Sestra_'
'úspěšnou_'
'pak'
'vyvolávají_'
'rozdělena_'
'dluhopisy_'
'Vít_'
'studený_'
'sti'
'složit_'
'reformě_'
'parkovací_'
'bran'
'špičce_'
'domluvit_'
'chirurgie_'
'překážku_'
'povídky_'
'íčka_'
'zadavatele_'
'Setkání_'
'Coca_'
'zoval_'
'oč'
'dc'
'Nať_'
'mozkové_'
'masové_'
'malí_'
'podíváme_'
'hrůzy_'
'zmíněná_'
'varuje_'
'ff'
'energetická_'
'skot_'
'samo'
'inspirace_'
'deseti'
'Clinton_'
'toky_'
'Gd'
'nastupuje_'
'kó'
'kalendář_'
'rk'
'lomu_'
'TT'
'lot'
'každopádně_'
'interaktivní_'
'Stal_'
'Ái'
'vzájemná_'
'velí_'
'ovic_'
'kod'
'keři_'
'hodná_'
'Jerich_'
'71'
'žlázy_'
'přinesli_'
'Ho_'
' „ “ _'
'usilovně_'
'nepro'
'holčička_'
'El_'
'studenou_'
'jue_'
'šperky_'
'sousedy_'
'letošních_'
'Slováci_'
'žer'
'přibližuje_'
'ope'
'nedostatečně_'
'hoří_'
'balíky_'
'úžasné_'
'zdr'
'sc'
'rova_'
'oženil_'
'nedokážu_'
'tál'
'světelné_'
'prázdnou_'
'proh'
'tin'
'pramen_'
'podobnými_'
'dostatečná_'
'ŠI'
'odlišuje_'
'pto'
'pronájem_'
'komentář_'
'TI_'
'Poku_'
'přev'
'Av'
'th'
'sú'
'odm'
'nájemné_'
'VIII_'
'uti_'
'Kvalitní_'
'křídly_'
'jisti_'
'chem_'
'Fi'
'sestavit_'
'má'
'lesem_'
'lan_'
'farmářů_'
'chrám_'
'Nikde_'
'tus_'
'oá'
'náboj_'
'uložil_'
'pánem_'
'1932_'
'jistota_'
'Zs'
'ZP_'
'Tan'
'Dodnes_'
'řecké_'
'vrchu_'
'vních_'
'ao'
'Pěti'
'Belgii_'
'zásilky_'
'potvrdilo_'
'alo'
'Ost'
'DT'
'úst'
'plotu_'
'cku_'
'Představte_'
'čínských_'
'mlha_'
'ivně_'
'Dt'
'těles_'
'lehká_'
'křičet_'
'Nemohla_'
'Dalšími_'
'šum'
'píř'
'neju'
'kvalitnější_'
'Jedno'
'jenomže_'
'necelé_'
'Kanady_'
'zpracováním_'
'nejdůležitějším_'
'léčbou_'
'Hon'
'přem'
'kéž_'
'dětská_'
'Neod'
'Kdož_'
'semena_'
'přistupovat_'
'íř_'
'faktem_'
'ef'
'Xi'
'Pó'
'šk'
'Čk'
'výčet_'
'olympijské_'
'Kn'
'variantou_'
'tkví_'
'cap'
'zavrtěla_'
'vině_'
'57'
'Švýcarsko_'
'pozdrav_'
'plukovník_'
'vyniká_'
'rozlišovat_'
'rajčata_'
'lůžko_'
'lk'
'intenzita_'
'řetězci_'
'vla'
'platností_'
'olympijských_'
'Index_'
'nas'
'nahlédnout_'
'králem_'
'dent'
'Nez'
'platformu_'
'ohled_'
'spaní_'
'rezistence_'
'luk_'
'cs_'
'Su'
'Gy'
'větě_'
'sut'
'lékařská_'
'knout_'
'kladně_'
'tržních_'
'rodné_'
'příznivý_'
'pevným_'
'mus'
'ies_'
'funkcemi_'
'ýl'
'výkřik_'
'flexibilní_'
'aktivního_'
'Tvrdí_'
'zna'
'uložena_'
'sch'
'intervalu_'
'architektura_'
'ěti_'
'zvolí_'
'sněmovně_'
'obleku_'
'Ústavního_'
'statek_'
'rozsahem_'
'pevného_'
'kilometr_'
'im'
'Příčinou_'
'myšlence_'
'ké'
'kabelu_'
'dány_'
'čd'
'rad'
'provozovatele_'
'poschodí_'
'1954_'
'kvo'
'EA'
'snadný_'
'bet'
'sloup_'
'realitní_'
'dole'
'HR'
'profesorem_'
'platných_'
'As'
'ÁN'
'stoupající_'
'pokrýt_'
'kor'
'ient'
'zubní_'
'trénink_'
'spojují_'
'identitu_'
'Digital_'
'Ahoj_'
'červen'
'zek_'
'vský_'
'smluvních_'
'klíčem_'
'audio_'
'jě'
'zazvonil_'
'pic'
'aném_'
'závěsy_'
'probíhal_'
'hoře_'
'Info_'
'žalobu_'
'uř'
'posl'
'planetě_'
'nev'
'Deere_'
'Ýi'
'zkušenostech_'
'penze_'
'VL'
'Ig'
'odhady_'
'Partners_'
'Úi'
'prote'
'ovému_'
'oním_'
'Nissan_'
'nás'
'přidejte_'
'psycho'
'diabetu_'
'co'
'Prakticky_'
'sídle_'
'olov'
'nevys'
'Ye'
'Výrobci_'
'Ter'
'pi'
'ocitla_'
'infekci_'
'gymnázia_'
'ekologie_'
'životně_'
'poštou_'
'pomohli_'
'oznámit_'
'leželo_'
'zaměřená_'
'ub_'
'end'
'Ši'
'tri'
'PP'
'Eu'
'vát'
'vany_'
'týž_'
'prodá_'
'omezením_'
'kladen_'
'Prostřednictvím_'
'sucha_'
'ren'
'ocel_'
'kráse_'
'hromadě_'
'hlídat_'
'obávat_'
'Těm_'
'lap'
'dev'
'přeď_'
'pokladny_'
'doplněk_'
'šta'
'ďe_'
'vysílá_'
'připomínat_'
'dkg_'
'Hudba_'
'organizacemi_'
'hradě_'
'Wu'
'Jan'
'připojištění_'
'pěší_'
'policií_'
'ostrovů_'
'fólií_'
'Rk'
'Brown_'
'super_'
'prodalo_'
'policisty_'
'absenci_'
'Jméno_'
'Gold'
'tč'
'oficiálních_'
'neřeší_'
'žánru_'
'sedmnáct_'
'provozů_'
'náležitě_'
'šte_'
'tace_'
'předpokládal_'
'povaha_'
'SU'
'tunel_'
'nepřijde_'
'Pře'
'Ůi'
'stupních_'
'pz'
'potravinářských_'
'přesnější_'
'kop'
'založeny_'
'nastoupila_'
'íí_'
'zasahuje_'
'vyn'
'terén_'
'pamatuje_'
'italský_'
'Jirka_'
'ženských_'
'sla_'
'plevelů_'
'následnou_'
'inte'
'břišní_'
'stin'
'rs'
'odhalil_'
'Pu'
'Ói'
'nalezl_'
'zs'
'matematiky_'
'anem_'
'Dru'
'šíři_'
'zás'
'pořádný_'
'ideálně_'
'aby'
'Svato'
'přirozeného_'
'istické_'
'Tesco_'
'Mn'
'vedené_'
'prohrál_'
'němečtí_'
'dlouho'
'zimním_'
'onem_'
'chudé_'
'brněnského_'
'GT'
'vč'
'krátkodobé_'
'výrobcům_'
'Kot'
'konců_'
'dětskou_'
'Vil'
'Maso_'
'Budapešti_'
'zapálil_'
'mam'
'zavedením_'
'poklad_'
'Emil_'
'vstupních_'
'převahu_'
'lehkou_'
'Rumunsku_'
'IN'
'Mac_'
'řství_'
'publika_'
'nesní_'
'desetiletích_'
'Libor_'
'Hm_'
'nevede_'
'maj'
'Naň_'
'syndromu_'
'dokořán_'
'řu'
'Microsoftu_'
'ůn'
'vládního_'
'sít'
'ile_'
'dó'
'FIM_'
'vob'
'rozsudku_'
'podzemí_'
'Wo'
'Uz'
'Center_'
'BBC_'
'čá'
'časech_'
'tvůrců_'
'spot_'
'lázní_'
'Konstrukce_'
'KE'
'Flo'
'oslovil_'
'leze_'
'dělalo_'
'obýváku_'
'koncern_'
'blízký_'
'Antonína_'
'utéct_'
'turnaj_'
'Slova_'
'Jiřím_'
'DI'
'šev_'
'stávajícího_'
'nebezpečná_'
'ciziny_'
'seš_'
'mosty_'
'Mezinárodního_'
'těžkého_'
'bos'
'Brad'
'ňv'
'Éi'
'pivovaru_'
'odcházel_'
'nekonečně_'
'Vy'
'Alf'
'zdála_'
'Steve_'
'nez'
'mimořádný_'
'kuje_'
' « ._'
'Investiční_'
'řt'
'sev_'
'líbil_'
'oblouku_'
'Zkuste_'
'Vítkovice_'
'neop'
'moravských_'
'lékařských_'
'Musil_'
'řpe'
'vrhla_'
'profesi_'
'CC'
'žlutou_'
'čkách_'
'ovladač_'
'ney_'
'far'
'European_'
'tušil_'
'Růst_'
'Já'
'ůb'
'potenciálních_'
'zastává_'
'výsledný_'
'sova_'
'souvisejí_'
'doplňků_'
'Stejný_'
'Mont'
'Šli_'
'úmyslně_'
'opravdové_'
'ep_'
'člun_'
'sezoně_'
'pojmenování_'
'Tom'
'odle_'
'trávu_'
'lodní_'
'funkčních_'
'ůi'
'zemětřesení_'
'ber'
'Jiní_'
'tn_'
'slevu_'
'kva'
'UD'
'přátelsky_'
'profesí_'
'ný'
'aspektů_'
'KO_'
'zeptali_'
'sát'
'čina_'
'zašeptal_'
'výcvik_'
'notebooků_'
'eov'
'směřují_'
'posluchačů_'
'světelných_'
'luv'
'zavedla_'
'krajských_'
'výslechu_'
'reálného_'
'Vu'
'Td'
'památku_'
'49'
'hó_'
'anti_'
'1935_'
'kryt_'
'hájit_'
'Xv'
'Některá_'
'zahraničními_'
'pomalejší_'
'oí_'
'kořist_'
'řené_'
'zí'
'ďa_'
'vydávají_'
'pomalé_'
'nápoj_'
'myslíme_'
'minimálním_'
'zachována_'
'stre'
'sněhem_'
'imuno'
'ht_'
'viceprezident_'
'nezřídka_'
'nepříjemný_'
'bi'
'absolventů_'
'stanoveno_'
'prok'
'milovala_'
'mezi'
'výcviku_'
'sýra_'
'dělit_'
'Nemyslím_'
'Bý'
'průzkumů_'
'mostů_'
'išti_'
'uvolní_'
'řa_'
'protější_'
'procházejí_'
'malíře_'
'Prahou_'
'soustavě_'
'rol'
'dlouhodobých_'
'šestnácti_'
'západního_'
'soukromou_'
'odporem_'
'dvojnásobek_'
'sebe'
'nežádoucích_'
'ideál_'
'bývalá_'
'titulky_'
'rů'
'věkové_'
'ulicemi_'
'návštěv_'
'detailu_'
'Nin_'
'ípo'
'shrnout_'
'kameru_'
'jeh'
'enci_'
'uvolnil_'
'usí_'
'Bt'
'čího_'
'ujíc_'
'prudký_'
'pre'
'Para'
'vj'
'nami_'
'ial_'
'fax_'
'existujících_'
'Des'
'úd'
'přesná_'
'vznikaly_'
'vr'
'potu_'
'nao'
'kamaráda_'
'dělníci_'
'Sportovní_'
'odkazy_'
'hluboká_'
'Hod'
'nervózně_'
'magnetické_'
'antény_'
'ste'
'proto'
'dovedou_'
'UM_'
'SB'
'zápach_'
'příslušná_'
'provází_'
'Zemědělci_'
'zkusil_'
'pojede_'
'dan'
'Zahraniční_'
'Radi'
'KAPITOLA_'
'ruská_'
'modelování_'
'Podnik_'
'HO'
'střídání_'
'kriticky_'
'Von'
'kového_'
'jistého_'
'blížil_'
'marketingových_'
'Ln'
'zů_'
'větrání_'
'vystupovat_'
'vodíku_'
'upadl_'
'nete'
'nesen'
'And_'
'účastník_'
'uprchlíků_'
'přin'
'ven'
'poroty_'
'nasadit_'
'jakákoli_'
'HA_'
'tuků_'
'Zen'
'Home_'
'změ'
'nechcete_'
'kali'
'instrukce_'
'mak'
'jemnou_'
'člen'
'filtru_'
'fd'
'aktiv'
'Sha'
'váhání_'
'fantazii_'
'sbírek_'
'musil_'
'kněze_'
'dozvěděla_'
'Young_'
'nekon'
'chi'
'auto'
'vodách_'
'líčí_'
'FO'
'han'
'PU'
'vyhledat_'
'praktická_'
'potřebou_'
'lůžku_'
'Tit'
'závažných_'
'vzdálených_'
'pokládat_'
'vyloženě_'
'her'
'Karl_'
'ňoval_'
'učiteli_'
'dlouhodobém_'
'RN'
'radikálně_'
'Pul'
'God'
'radio'
'oti'
'opustí_'
'ič'
'Eco'
'zemědělec_'
'vyřešení_'
'tvořil_'
'spolehlivý_'
'četných_'
'nse'
'vyrazili_'
'D1_'
'Ša'
'vložil_'
'časového_'
'uvedeným_'
'slovníku_'
'mon'
'citu_'
'bek_'
'Bed'
'klimatických_'
'58'
'árních_'
'financovat_'
'dy'
'cka_'
'BU'
'týdnem_'
'soustav_'
'paro'
'Sur'
'příslušným_'
'zba'
'váže_'
'sd'
'rpo_'
'nápravě_'
'kov'
'chladu_'
'bezvědomí_'
'íp'
'ole_'
'podpořil_'
'Vý'
'Go_'
'zásada_'
'sportovního_'
'pouští_'
'dívám_'
'Cs'
'vůlí_'
'udělají_'
'splní_'
'sop'
'nč'
'ňa'
'výkřiky_'
'povídal_'
'erů_'
'Vypadalo_'
'King_'
'hlubokou_'
'dis'
'Pra'
'Bra'
'východních_'
'vyhlídky_'
'art'
'MAN_'
'oddíly_'
'nečekal_'
'šancí_'
'řila_'
'vyvinout_'
'neom'
'Stačilo_'
'Alexandr_'
'Úst'
'zanedlouho_'
'oba'
'dobrými_'
'Uvedené_'
'Premiér_'
'EC'
'Dis'
'řetěz_'
'Řd'
'Éd'
'vzbudil_'
'uch_'
'voní_'
'soukromým_'
'nesni_'
'vlastnit_'
'róz'
'centrálním_'
'syny_'
'exportní_'
'Ráda_'
'Jediná_'
'enk'
'směrů_'
'oble'
'brali_'
'Úm'
'ota'
'Wen'
'Přibližně_'
'vypovídá_'
'LE'
'ICT_'
'stehna_'
'pravidelný_'
'UR'
'Úv'
'přizpůsobení_'
'nechají_'
'mladších_'
'látkami_'
'logiky_'
'Zam'
'MK_'
'vyčerpání_'
'ovky_'
'lékařskou_'
'přátelům_'
'normálním_'
'našly_'
'vybranou_'
'neznámých_'
'manažerské_'
'ěí_'
'samostatná_'
'prostřední_'
'požadovanou_'
'posluchače_'
'chovali_'
'Met'
'stravu_'
'raných_'
'radnici_'
'podobném_'
'múze_'
'ist_'
'Řecka_'
'zpožděním_'
'instalovat_'
'PD'
'přírodou_'
'hov'
'System_'
'Energy_'
'Britové_'
'Rock'
'Nest'
'Nejdůležitější_'
'Googlu_'
'překonal_'
'právn'
'korupci_'
'aP'
'SZP_'
'zet'
'srážky_'
'přesnosti_'
'onom_'
'Cu'
'Žn'
'ík'
'dt'
'zpíval_'
'est'
'Ád'
'ocas_'
'dotkla_'
'bariéry_'
'1922_'
'schválen_'
'65'
'sum'
'rol_'
'literárních_'
'čern'
'nas_'
'jem'
'elů_'
'stříbro_'
'pozicích_'
'podivný_'
'Zákazníci_'
'Bk'
'vznikat_'
'levněji_'
'končetiny_'
'jednotu_'
'ilo'
'nábřeží_'
'Trvalo_'
'svědků_'
'prestiž_'
'ntů_'
'hot'
'KA'
'Dom'
'šan'
'sloužila_'
'regulovat_'
'porušování_'
'ici'
'etapě_'
'wellness_'
'ovládáním_'
'hodnotách_'
'ael_'
'vyvolalo_'
'středisku_'
'proveden_'
'ovi'
'dopadů_'
'Začíná_'
'1926_'
'jakoukoliv_'
'dívají_'
'rte'
'vn_'
'trestním_'
'hyper'
'Pokračování_'
'Internetu_'
'zam'
'obrovským_'
'míchání_'
'řem_'
'sedmé_'
'řešen_'
'tiskového_'
'stadia_'
'reproduktory_'
'nezdá_'
'bože_'
'mzda_'
'římské_'
'Ód'
'takovej_'
'sestrou_'
'misky_'
'Rychlost_'
'MET_'
'řk'
'otevřeným_'
'oblibě_'
'edo'
'chladicí_'
'rozbor_'
'komunálních_'
'italských_'
'chat_'
'Sla'
'vin_'
'gov'
'posledně_'
'chmele_'
'Ví'
'hs'
'dro'
'Qd'
'Prostor_'
'Pole'
'obj'
'Qi'
'ůp'
'typickým_'
'přís'
'psí_'
'prosazování_'
'nemocnicích_'
'hrálo_'
'farmu_'
'obt'
'ivn'
'zálohy_'
'podíleli_'
'šířce_'
'zvítězila_'
'pruh_'
'ms'
'akcionářů_'
'Ks'
'eventuálně_'
'svazů_'
'exilu_'
'benzin_'
'Noc_'
'Ěi'
'udrží_'
'Mezin_'
'ler'
'koupelně_'
'zmínka_'
'sse_'
'chodbu_'
'regionálního_'
'prostorů_'
'posloužit_'
'nezměnilo_'
'neobvyklé_'
'Vv'
'Tys_'
'Klíčové_'
'ós'
'reprezentuje_'
'implementaci_'
'hloubku_'
'díru_'
'175_'
'včely_'
'používán_'
'něm'
'nch'
'iem_'
'LAN_'
'vypo'
'vh'
'pla_'
'obi'
'natočil_'
'Zlíně_'
'náv'
'Sr'
'Qv'
'yte'
'smůlu_'
'pat'
'nedělal_'
'etn'
'všední_'
'novinářům_'
'nap'
'Carl_'
'Bis'
'vlnách_'
'ub'
'Lind'
'čtvrtina_'
'ptáky_'
'biopaliv_'
'Mě'
'Kéž_'
'řekni_'
'čepici_'
'přejel_'
'neděje_'
'Ukrajiny_'
'trendem_'
'souběžně_'
'visely_'
'omezování_'
'Pražská_'
'Cur'
'zvolené_'
'výjimečný_'
'složené_'
'nazývají_'
'nejbližším_'
'většímu_'
'viry_'
'Olomouce_'
'Irsku_'
'plastu_'
'Nepo'
'1927_'
'účinnější_'
'práh_'
'kontrast_'
'Rozhovor_'
'zbavil_'
'zajímal_'
'předků_'
'vrácení_'
'tury_'
'Nepro'
'Množství_'
'íu'
'íi'
'edn'
'By_'
'Ít'
'využívány_'
'proudí_'
'dních_'
'WE'
'MD'
'Kk'
'svazků_'
'181'
'kritériem_'
'fanoušků_'
'řeknou_'
'večeru_'
'chor'
'Lidových_'
'tním_'
'qi'
'Nemůžeme_'
'tém_'
'chybějí_'
'spolupracovníků_'
'dozoru_'
'din'
'Vietnamu_'
'GO'
'vlastníci_'
'položí_'
'ling_'
'krajní_'
'Sz'
'ule'
'stopa_'
'kabinet_'
'bitvě_'
'záchod_'
'pánů_'
'priorit_'
'Ťk'
'stáhla_'
'nebem_'
'zád'
'ida'
'Ton'
'Mo'
'uu_'
'sériové_'
'motorových_'
'Sport'
'Jej_'
'řím_'
'housle_'
'Maj'
'olo'
'krt'
'klo'
'Sala'
'Chu'
'zor'
'vzájemnou_'
'intervenční_'
'akr'
'úroků_'
'úp'
'semifinále_'
'páteře_'
'itel_'
'horních_'
'Hol'
'vstoupili_'
'potřeb'
'nadání_'
'fóra_'
'střílet_'
'pokoušela_'
'mán'
'kne'
'jist'
'hí'
'ejich_'
'cování_'
'Ko_'
'pachatele_'
'kladné_'
'hrubý_'
'vm'
'těšil_'
'nim'
'kav'
'doz'
'Hu'
'veřejným_'
'povídám_'
'palubu_'
'louce_'
'konektory_'
'ačka_'
'Předpokládá_'
'zán'
'nejne'
'nae'
'Autor'
'šit'
'zodpovědnosti_'
'klavír_'
'platný_'
'kopii_'
'jst'
'chá_'
'architektů_'
'Mike_'
'Banka_'
'utý_'
'terénní_'
'přežil_'
'Systems_'
'úplnou_'
'vydané_'
'posílá_'
'nádherně_'
'ZU'
'zně_'
'plyny_'
'nejtěžší_'
'hybridů_'
'alen'
'budiž_'
'Nemocnice_'
'Šo'
'přet'
'okn'
'tradic_'
'Všem_'
'pánve_'
'poděl_'
'ier'
'aktivitou_'
'Ančí_'
'Žu'
'těží_'
'systémům_'
'Investice_'
'zra'
'tění_'
'rech_'
'pravomoc_'
'poli'
'pin'
'kv'
'vklady_'
'Troj'
'IG'
'očekávané_'
'Kost'
'uspět_'
'těž'
'rozsáhlá_'
'Lou'
'1923_'
'vla_'
'tvořili_'
'prst'
'počest_'
'sha'
'reálnou_'
'rb'
'll'
'gle'
'end_'
'městečku_'
'holé_'
'západě_'
'sekundu_'
'prodejně_'
'kán'
'iz_'
'kus'
'INA_'
'zvuků_'
'zkušený_'
'zesilovače_'
'rys_'
'ote'
'pětkrát_'
'papež_'
'drá'
'Xd'
'Podmínky_'
'Andrej_'
'ťi'
'kamer_'
'činitele_'
'vzpomínal_'
'uje'
'náhlé_'
'letoun_'
'Part'
'nam'
'letá_'
'kin'
'Rachel_'
'Kdys_'
'Jav'
'199_'
'takzvaný_'
'KN'
'žou_'
'Ču'
'těl'
'neza'
'Pov'
'uživatelské_'
'známka_'
'ver'
'složkou_'
'reforem_'
'tvor_'
'vyz'
'privatizační_'
'potlačit_'
'držen'
'Es'
'tne_'
'lys'
'inovativní_'
'shodně_'
'ozve_'
'Wel'
'Brazílii_'
' " '
'tar_'
'elektrická_'
'zde'
'certifikát_'
'rozumně_'
'ená'
'VÁ_'
'rala_'
'Tož_'
'úspěšnost_'
'zlého_'
'tonu_'
'soudních_'
'prioritou_'
'pohnout_'
'lahve_'
'klesající_'
'tajných_'
'sejít_'
'přidá_'
'eín_'
'bt'
'Nech_'
'Kali'
'způsobeno_'
'občanských_'
'gel_'
'ain_'
'lidových_'
'Zdroj_'
'éb'
'politickém_'
'io'
'transport_'
'odchodem_'
'býti_'
'baterii_'
'Bohumil_'
'rozs'
'pravdivé_'
'hlásit_'
'ctěn'
'ster_'
'spontánní_'
'perspektivní_'
'mírové_'
'hrály_'
'zav'
'stěnou_'
'sové_'
'prohlídce_'
'omezenou_'
'ještěr_'
'Mul'
'vlo'
'prvenství_'
'oly_'
'hydro'
'Don'
'veli'
'nacházel_'
'bd'
'pozemní_'
'kritik_'
'jasu_'
'boky_'
'Green_'
'sedmi'
'af'
'ťd'
'ěje_'
'tloušťky_'
'probíhalo_'
'nejv'
'nakl'
'vejte_'
'dz'
'cop'
'volebního_'
'kovových_'
'osmnácti_'
'náladě_'
'krásných_'
'GU'
'Drive_'
'yro'
'schopn'
'pel'
'Ht'
'listopad_'
'Pražského_'
'slávu_'
'posunu_'
'kc'
'Nev'
'ůl'
'mapa_'
'Iz'
'ňt'
'Čv'
'zúčastní_'
'zeleného_'
'vyhlásil_'
'profily_'
'používány_'
'nepomůže_'
'lete_'
'svátky_'
'tou'
'rocku_'
'splnil_'
'otisky_'
'mezery_'
'Sovětský_'
'. '
'teplotou_'
'metodiky_'
'chy'
'Nejlépe_'
'stoprocentní_'
'oliv_'
'lidském_'
'Zat'
'Not'
'úloh_'
'Át'
'ukázali_'
'ukt'
'tická_'
'filmového_'
'vytvořena_'
'překvapil_'
'aS'
'oub'
'Podmínkou_'
'čl'
'tru_'
'oda'
'Zt'
'Ťi'
'pohybové_'
'Pe_'
'Fk'
'úhrady_'
'ách'
'určují_'
'oficiálním_'
'jar'
'sokol'
'digitálního_'
'bránil_'
'Tis'
'Bv'
'vysl'
'neje'
'Markéta_'
'ped'
'zjevné_'
'vid'
'uni'
'trpět_'
'opoziční_'
'hý'
'manager_'
'klesají_'
'dopadla_'
'Pal'
'pravila_'
'lig'
'Světová_'
'54'
'Šim'
'únava_'
'uspokojit_'
'ich'
'blb'
'roztok_'
'lice_'
'Yt'
'písma_'
'nejznámější_'
'jecích_'
'chyběl_'
'propojit_'
'pers'
'výbuch_'
'ster'
'poroste_'
'hřích_'
'dávám_'
'výkyvy_'
'unk'
'TR'
'Sin'
'Sad'
'uly_'
'trpěl_'
'medicíně_'
'iná'
'hruď_'
'úder_'
'limitu_'
'laboratoř_'
'Rat'
'čn_'
'Údaje_'
'intenzitu_'
'hou'
'eta'
'podlaha_'
'oporu_'
'Šd'
'event_'
'bude'
'Každou_'
'áo'
'věcně_'
'svíčky_'
'Voz'
'montáže_'
'krov'
'brá'
'Si_'
'Jitka_'
'širokého_'
'Ěd'
'jedy_'
'žádnému_'
'vlastníky_'
'oin'
'proce_'
'nákladem_'
'nedává_'
'bně_'
'statut_'
'specialistů_'
'sco'
'Tereza_'
'Ro_'
'ROZ'
'zařadil_'
'taktéž_'
'spojí_'
'ráje_'
'propadl_'
'mž_'
'nabyl_'
'Ďt'
'Ýd'
'rě'
'podstata_'
'automobilové_'
'Mí'
'Dřív_'
'stádo_'
'rozho'
'Maů_'
'rán'
'potažmo_'
'otevřeli_'
'Reuter_'
'teplotách_'
'pobočka_'
'mohutný_'
'lup'
'Rs'
'BI_'
'01'
'živ'
'odz'
'náboje_'
'najdu_'
'začneme_'
'nebezpečím_'
'koi'
'federálního_'
'teplý_'
'majetkové_'
'kno'
'di'
'Ňd'
'qv'
'řpí'
'yr'
'tepelných_'
'duchovního_'
'Poměrně_'
'ser'
'rej'
'Pit'
'ňk'
'častým_'
'zvukem_'
'nenajdete_'
'energetický_'
'zaměří_'
'vyjadřují_'
'podepsali_'
'gii_'
'bojoval_'
'neum'
'sč'
'hůl_'
'chronické_'
'uvědomují_'
'režimem_'
'opačný_'
'minus_'
'Kl'
'ff_'
'ere'
'dotyčný_'
'Hv'
'íná_'
'sklepa_'
'patřící_'
'don_'
'Jednalo_'
'Cu_'
'ivá_'
'ár'
'tentýž_'
'moudrost_'
'dopustil_'
'dodržet_'
'Sun'
'EX_'
'Áv'
'sklonil_'
'sako_'
'mav'
'kontrol'
'eP'
'drahých_'
'žití_'
'uč'
'roj_'
'následují_'
'avy_'
'Zi'
'Dlouhá_'
'využíván_'
'sci_'
'Matt_'
'Hb'
'naslouchal_'
'etiky_'
'dokážu_'
'abstraktní_'
'Čt'
'dvoj'
'Téma_'
'93'
'kontrakt_'
'Richarda_'
'výpočty_'
'vysílat_'
'tuhé_'
'ser_'
'Srbové_'
'zásahů_'
'nájemní_'
'místn'
'Vn'
'Ďd'
'pm'
'strukturální_'
'ZA'
'KAR'
'významnější_'
'odněkud_'
'Šla_'
'výměry_'
'prožívá_'
'lišty_'
'chaosu_'
'vzad_'
'květ_'
'knížka_'
'dokonalou_'
'babičky_'
'Pop'
'Aniž_'
'jednotce_'
'trasu_'
'psycholog_'
'een'
'ďv'
'stranám_'
'rum'
'obálky_'
'les'
'jistých_'
'doručení_'
'ced'
'bodech_'
'Elektro'
'železné_'
'úmysl_'
'porovnat_'
'OZ'
'1921_'
'porod_'
'žací_'
'zaznamenán_'
'zasloužil_'
'společenská_'
'nepřítomnosti_'
'Průměrný_'
'tal'
'Touto_'
'sklony_'
'duševně_'
'ďt'
'zující_'
'obvyklý_'
'eliminovat_'
'zánět_'
'zre'
'ypo'
'well_'
'státům_'
'postojů_'
'porazil_'
'rj'
'podáváme_'
'pit_'
'mnohým_'
'OL'
'Hora_'
'nejmodernější_'
'dav'
'chá'
'ťt'
'ái'
'zkoušení_'
'zajištěno_'
'sot_'
'ouz'
'fotoaparátu_'
'krocích_'
'Honda_'
'ďn'
'větev_'
'dku_'
'Procházka_'
'Íd'
'východisko_'
'robot_'
'óp'
'teče_'
'Pokles_'
'vyu'
'lte'
'zjišťování_'
'vesnic_'
'podíly_'
'chráněných_'
'anonymní_'
'Žt'
'škodí_'
'ČSSR_'
'vra'
'oti_'
'nin'
'kdekoliv_'
'Qt'
'Hradce_'
'Fd'
'špičkových_'
'rozhodn'
'nevym'
'bb'
'Lat'
'sec'
'reálná_'
'přemýšlení_'
'Cho'
'qk'
'Vm'
'Lé'
'žt'
'uin'
'ěi_'
'zlepší_'
'rak'
'rab'
'bs'
'inky_'
'Takovou_'
'věcné_'
'skříni_'
'klí'
'PETR_'
'skr'
'seminářů_'
'rál'
'nakoupit_'
'jn_'
'doplní_'
'aty_'
'Nena'
'točivého_'
'pód'
'né'
'ans'
'Seminář_'
'Pern'
'Kdybyste_'
'Jdu_'
'případný_'
'vážná_'
'ovci_'
'letním_'
'Yd'
'Cat'
'disponují_'
'celkovým_'
'živ_'
'tloušťce_'
'působilo_'
'klíčová_'
'řid'
'rohy_'
'primátora_'
'JO'
'vyso'
'vládnoucí_'
'ian_'
'bohatší_'
'Vol'
'Time_'
'Bol'
'žk'
'Ůd'
'toval_'
'stolní_'
'tice_'
'podob_'
'logiku_'
'limitů_'
'kádě_'
'jevem_'
'důležitosti_'
'VK'
'Tým_'
'schvalování_'
'pracně_'
'gem_'
'dozví_'
'autorka_'
'Srbů_'
'případných_'
'úpadku_'
'zájemcům_'
'zrodu_'
'velitelství_'
'pracovníkům_'
'muzei_'
'maminku_'
'ije_'
'cer'
'Moto'
'Gla'
'Fra'
'střech_'
'přispěla_'
'potenciálně_'
'zví'
'předn'
'předcházející_'
'mot_'
'gre'
'Sv'
'Di'
' / '
'Ňt'
'skleničku_'
'skladba_'
'signálem_'
'qt'
'niky_'
'fotbalového_'
'eden'
'Lar'
'Fu'
'rušení_'
'opa'
'odborníka_'
'bitvy_'
'wt'
'trvalého_'
'příčina_'
'přeb'
'drobný_'
'dpo'
'dlouhodobá_'
'Pál'
'Králov'
'myšlen'
'Cha'
'tvarem_'
'zadat_'
'tyčí_'
'Maz'
'Čes'
'nesmyslné_'
'Termín_'
'ňi'
'seskupení_'
'pohybovaly_'
'děkuji_'
'duchem_'
'74'
'kavárně_'
'jse'
'idea_'
'divizi_'
'NP_'
'striktně_'
'ože_'
'cest'
'STO'
'vt_'
'shoda_'
'diagnózy_'
'Nemáme_'
'Mluvčí_'
'Gt'
'upa'
'mou'
'lie_'
'bilanci_'
'nejjednodušší_'
'elo'
'důstojníků_'
'opozici_'
'odpočinek_'
'odpovídala_'
'Ťt'
'zve'
'mechaniky_'
'raf'
'programování_'
'ford_'
'HI'
'psací_'
'obchodníky_'
'krém_'
'isl'
'erov'
'Mas'
'vepřové_'
'salonu_'
'ptali_'
'bot'
'TRA'
'způsobilosti_'
'uzavřený_'
'skončili_'
'nosiče_'
'zašeptala_'
'připravoval_'
'nom'
'klon'
'gri'
'ecký_'
'Rozvoj_'
'Express_'
'DU'
'tratí_'
'kci_'
'ěj'
'trubky_'
'sob'
'podstatný_'
'odpružení_'
'bel'
'vítězem_'
'vyřeší_'
'vaříme_'
'usnout_'
'Pur'
'výroční_'
'pěstují_'
'pruhu_'
'ovládnout_'
'otvorů_'
'obr'
'lku_'
'Ly'
'prostorové_'
'opakovala_'
'jk_'
'išť_'
'Hy'
'rakoviny_'
'rea'
'nne'
'zpracovávat_'
'tvrd'
'představili_'
'prost_'
'profesionálních_'
'poznámek_'
'okamžiky_'
'masky_'
'liv'
'listech_'
'dodání_'
'chyběla_'
'Nastavení_'
'číslech_'
'Ót'
'tvořena_'
'projevovat_'
'lr'
'dce_'
'apo'
'vyrobí_'
'svěřen'
'komentoval_'
'kardio'
'Service_'
'čené_'
'zadavatel_'
'kloubů_'
'ádá_'
'tepelnou_'
'prstech_'
'lístků_'
'svod'
'kulturou_'
'inflaci_'
'demonstrace_'
'spojil_'
'slepice_'
'létech_'
'lli'
'kníže_'
'Óv'
'xi_'
'rozloze_'
'ďu'
'údržba_'
'tes'
'instalací_'
'fu'
'akcii_'
'tvořila_'
'odchylky_'
'obyvateli_'
'neobsahuje_'
'ata'
'Claire_'
'Mi_'
'108_'
'uděl'
'tího_'
'sklízecí_'
'odnětí_'
'dospělý_'
'Wd'
'Vej'
'Cl'
'Ůt'
'xy_'
'plá'
'naš'
'hrozbu_'
'Ss'
'pru'
'očekáváme_'
'živit_'
'volen'
'testovací_'
'dobr'
'Jt'
'73'
'žd'
'šd'
'přemýšlela_'
'podkladu_'
'malo'
'lez'
'extra_'
'Samozřejmostí_'
'Ip'
'teří_'
'sř'
'krajně_'
'DK'
'Cin'
'árn'
'vrata_'
'utn'
'mincí_'
'Um'
'Mar'
'těžiště_'
'Mt'
'vyko'
'uplynulém_'
'oblibou_'
'faktoru_'
'daních_'
'Lee_'
'odměna_'
'dovoleno_'
'cik_'
'balíků_'
'Lip'
'šest'
'úzkou_'
'ústavního_'
'prob'
'netrpělivě_'
'kamen_'
'Ět'
'reklamou_'
'přestalo_'
'vezmi_'
'nástavby_'
'nestačil_'
'milosti_'
'klíčový_'
'čtvrtého_'
'tle_'
'slepé_'
'molekulární_'
'homo'
'doporučuji_'
'ckými_'
'vad'
'rto'
'cloudu_'
'bývalí_'
'Tony_'
'CO'
'vypracování_'
'variantách_'
'tší_'
'snadnější_'
'převodovku_'
'odvíjí_'
'histo'
'vlá'
'hřbitov_'
'EU'
'ét'
'spou'
'regulací_'
'ošetřování_'
'notebooky_'
'písmo_'
'Ýt'
'trn'
'jin_'
'vyhráli_'
'žlutý_'
'únik_'
'zasahovat_'
'traktu_'
'ida_'
'hygienické_'
'Ma'
'vystaven_'
'dys'
'cu'
'Ticho_'
'specializuje_'
'překonání_'
'jídelně_'
'iž'
'ion'
'Rumunsko_'
'Nařízení_'
'zon'
'zap'
'vytvořeny_'
'uhl'
'kapela_'
'mj'
'mezinárodně_'
'kamenných_'
'chvil_'
'Uv'
'řiv'
'zub_'
'visela_'
'kariéře_'
'inem_'
'expanzi_'
'Zas'
'Olga_'
'sumy_'
'rven'
'přivedla_'
'oddělené_'
'lae_'
'gi_'
'adr'
'Company_'
'én'
'Eduard_'
'válek_'
'uze_'
'mědi_'
'jedinečné_'
'Kyz_'
' „_'
'žákům_'
'ávám_'
'světovým_'
'směřovat_'
'lm'
'emocionální_'
'vaří_'
'který'
'jko_'
'závazné_'
'vzdálený_'
'umístil_'
'klimatizaci_'
'chovů_'
'KR'
'opravdový_'
'Va'
'Tří'
'Stála_'
'Cla'
'CGI_'
'teli_'
'Gk'
'leden_'
'Big_'
'ěu'
'Ďv'
'mol_'
'hotový_'
'dotační_'
'NÁ_'
'1931_'
'poušti_'
'hnízda_'
'dm'
'Kladno_'
'tekutin_'
'spočítat_'
'polymer'
'mot'
'způsobily_'
'sem'
' " ) . _'
'nár'
'umřít_'
'ultra'
'sad_'
'potlačen'
'Oskar_'
'řepy_'
'ói'
'zahájen_'
'využila_'
'vak'
'syn'
'pokročilé_'
'jv'
'vousy_'
'smo'
'ráj_'
'rde'
'potkat_'
'obtížnější_'
'novy_'
'nejdražší_'
'Ky'
'právech_'
'PL'
'prohlížeče_'
'hud'
'Vojtěch_'
'zahrát_'
'uvědomili_'
'spontánně_'
'produktivitu_'
'úl'
'patrná_'
'obč'
'knih'
'brala_'
'Hk'
'deštěm_'
'útočiště_'
'tvrdili_'
'masku_'
'inka_'
'snah_'
'praktiky_'
'odjela_'
'dvířka_'
'titulem_'
'sán'
'oe'
'Nechybí_'
'Cítím_'
'ít'
'ovan'
'potvrdily_'
'nská_'
'nechť_'
'bil'
'řím'
'vin'
'had_'
'ež'
'chlapík_'
'soudci_'
'manov'
'Našel_'
'přde'
'Ťv'
'xk'
'systéme_'
'melodie_'
'suchý_'
'pili_'
'Ham'
'proniká_'
'kulturně_'
'investičního_'
'dávné_'
'Zast'
'zajištěn_'
'kni'
'uspořádala_'
'klinice_'
'bratry_'
'KÁ'
'Dole_'
'ót'
'xn'
'spisy_'
'emp'
'back_'
' ) / _'
'přátelské_'
'IA'
'zkoumá_'
'svěřit_'
'sma'
'Čd'
'průmyslová_'
'mořských_'
'eln'
'ťí_'
'ďd'
'samým_'
'prsten_'
'nitro'
'židovského_'
'vyc'
'smetany_'
'slečny_'
'Ag'
'člunu_'
'zlehka_'
'mužné_'
'lova_'
'Přes'
'IR_'
'zp_'
'vající_'
'jednali_'
'Nik'
'Chtějí_'
'červeným_'
'skladbu_'
'scho'
'pozd'
'Kod'
'Gre'
'vyr'
'chutná_'
'Vé'
'Několikrát_'
'sportovním_'
'Vl'
'wk'
'univerzitu_'
'stěžovat_'
'ruk'
'šímu_'
'Švýcarska_'
'věrný_'
'psychologii_'
'ens'
'ya'
'přijímají_'
'yin'
'přirozeným_'
'ovská_'
'formuláře_'
'bojím_'
'pořizovací_'
'hledisko_'
'Ah'
'nro'
'gs'
'sukně_'
'doc'
'chat'
'Programu_'
'věčnost_'
'prudké_'
'potoka_'
'ast'
'pětadvacet_'
'form'
'Zvýšení_'
'Paula_'
'Ťd'
'uskutečněn'
'továrně_'
'knihkupectví_'
'drž'
'ČA'
'Pacient_'
'záchvat_'
'zbraněmi_'
'vyplývají_'
'om'
'měř_'
'zai'
'specifika_'
'sce_'
'enn'
'žaloby_'
'tet'
'nc_'
'mistrem_'
'dorazila_'
'Mun'
'prodejnách_'
'plastových_'
'dobru_'
'autonomní_'
'Řt'
'poznamenala_'
'nese'
'mam_'
'logický_'
'ag'
'ruskou_'
'procesní_'
'postará_'
'ohlas_'
'kolenou_'
'Lov'
'samci_'
'dopravce_'
'chtě_'
'ä'
'věznice_'
'prodlení_'
'eni'
'bá'
'bio'
'mezin_'
'lez_'
'jezdce_'
'Vědci_'
'stahování_'
'parní_'
'etapa_'
'chvilce_'
'ba'
'absolvovat_'
'čerpadlo_'
'uplynutí_'
'sh'
'rock_'
'nízkými_'
'Umění_'
'záležitostech_'
'znal'
'zae'
'sušiny_'
'Zkušenosti_'
'Str'
'Kal'
'Jon'
'ročníků_'
'Eg'
'Dk'
'Alexandra_'
'zro'
'zaměřil_'
'vášně_'
'děda_'
'KGB_'
'Řekni_'
'čil'
'pěstitele_'
'ive_'
'desetkrát_'
'Wt'
'SAP_'
'éní_'
'verzích_'
'upe'
'iných_'
'General_'
'AB_'
'čst'
'předl_'
'prodejních_'
'léčen'
'Gab'
'CS'
'. "_'
'ujednání_'
'knížek_'
'Poslanci_'
'Neh'
'předejít_'
'soupeři_'
'ens_'
'charakterizovat_'
'Ds'
'stanovil_'
'pasáže_'
'montážní_'
'ječmen_'
'bor'
'Čl_'
'zvládnutí_'
'překvapí_'
'napovídá_'
'dynamiku_'
'Rej'
'tvrdou_'
'přebírá_'
'Zr'
'Štěpán_'
'zůstával_'
'jedni_'
'hin'
'Mel'
'úspěšnosti_'
'východního_'
'strategických_'
'Tm'
'Johnson_'
'Bob'
'úzká_'
'vážnou_'
'svatbě_'
'socha_'
'dom'
'bezp'
'Čtvrt'
'chladn'
'Uk'
'ince_'
'díte_'
'bm'
'May'
'výpovědí_'
'uza'
'ohl_'
'hmotné_'
'FBI_'
'tik_'
'rázu_'
'oddělit_'
'napo'
'Hugo_'
'zm_'
'uvádění_'
'poc'
'Představitelé_'
'prou'
'hranicemi_'
'oblohy_'
' "  _'
'voz_'
'prokázala_'
'nájem_'
'postrádá_'
'novější_'
'Dio'
'rý'
'obdiv_'
'nevíš_'
'doporučují_'
'chu'
'ěa'
'podp'
'nac'
'grafických_'
'cal_'
'Samotný_'
'106_'
'členěn'
'Vyz'
'Prost'
'enství_'
'Mai'
'Wall_'
'San'
'Oi'
'ose'
'imo'
'Zlat'
'PF_'
'Liberci_'
'soudců_'
'silách_'
'přijdu_'
'probudila_'
'pošle_'
'ktor'
'GA_'
'330_'
'povinného_'
'nesporně_'
'mentu_'
'betonových_'
'Bílý_'
'vej'
'sazbu_'
'podpisem_'
'akceptovat_'
'Vik'
'HAN'
'senzory_'
'mai'
'garáže_'
'qd'
'barevně_'
'Novo'
'kam'
'beta_'
'Tele'
'Pě'
'Eb'
'CL'
'úpatí_'
'zakázkách_'
'Major_'
'čcích_'
'poznáte_'
'nevýhody_'
'Re'
'Pojďme_'
'Mladí_'
'Ženevě_'
'Řk'
'Neměli_'
'gl_'
'chlapa_'
'Pána_'
'Nel'
'posunout_'
'Týn'
'íč'
'vydán_'
'obrysy_'
'nehodlá_'
'městská_'
'ing'
'hlásil_'
'provozovatel_'
'projektové_'
'dili_'
'žen'
'ěd_'
'telefonem_'
'souvislostech_'
'prospěšné_'
'ordinace_'
'Bílá_'
'vozidle_'
'Tel_'
'učiní_'
'horký_'
'Hem'
'ívat_'
'vezmu_'
'ticky_'
'trávníku_'
'cítění_'
'TC'
'zě'
'zaměstnavateli_'
'vanou_'
'těleso_'
'ene_'
'elně_'
'225_'
'pka_'
'komunistického_'
'Sedm_'
'soustředil_'
'provozy_'
'posluchači_'
'nevyžaduje_'
'ečně_'
'severním_'
'rozpo'
'přidala_'
'nadnárodní_'
'Sul'
'záh'
'kapitol_'
'ářství_'
'prezidentovi_'
'idi'
'detailně_'
'Labe_'
'katedry_'
'Nep'
'Hai'
'Čá'
'omáčkou_'
'ita'
'dět_'
'Pořadatel_'
'pány_'
'zabývala_'
'víko_'
'stížnost_'
'nedílnou_'
'odpočinout_'
'lep'
'hraně_'
'Pražský_'
'Zní_'
'onv'
'neu'
'přip'
'hloupé_'
'BS'
'slan'
'Vztah_'
'Ív'
'sestře_'
'pekla_'
'citlivý_'
'Míš_'
'známí_'
'vědecký_'
'prodala_'
'ning_'
'mužský_'
'chorobám_'
'Důležitá_'
'Anne_'
'ČD_'
'zavazadla_'
'ym'
'výkonnější_'
'ovlivnění_'
'hází_'
'cloud_'
'Roze'
'sterou_'
'spekulace_'
'lékařům_'
'Red'
'Nech'
'Ker'
'Budeš_'
'úřadě_'
'rázně_'
'doktore_'
'vytrvale_'
'rsk'
'navigaci_'
'Ňv'
'zkontrolovat_'
'tvo_'
'pc'
'nos'
'ónu_'
'onov'
'odvětvích_'
'MM'
'leckdy_'
'ell_'
'cd'
'MBA_'
'vyst'
'tnu_'
'smr'
'poe'
'krajinou_'
'fli'
'We_'
'Gan'
'CC_'
'pas'
'ejma_'
'kun'
'jakost_'
'Ten'
'Nepře'
'proces'
'podl'
'anděl_'
'požádali_'
'dynamický_'
'Tě'
'zhodnotit_'
'uplatňování_'
'těžk'
'oby_'
'nezbytný_'
'experiment_'
'bydleli_'
'američtí_'
'hektarech_'
'aá'
'zakoupit_'
'ust'
'příčku_'
'apl'
'DP'
'Billa_'
'opouští_'
'obraně_'
'mrazu_'
'Ps'
'Cv'
'telat_'
'rag'
'moravské_'
'konfigurace_'
'Raj'
'My'
'vzrušující_'
'nádoru_'
'Danny_'
'proměny_'
'penězích_'
'motivem_'
'vad_'
'nejpo'
'haj'
'finančními_'
' ? ) _'
'vztahují_'
'potěšením_'
'Namísto_'
'Hnutí_'
'Ai'
'ťn'
'ír'
'prohlížeč_'
'povídali_'
'poučen'
'neprob'
'jízdních_'
'bez'
'tabletů_'
'sg'
'rovinu_'
'nitru_'
'nejlíp_'
'bránu_'
'odměňování_'
'Am'
'potřebuju_'
'cla_'
'Turbo_'
'čel'
'stří'
'mla'
'Napsal_'
'Fri'
'útočník_'
'věn'
'sten'
'rekonstrukcí_'
'Voj'
'px_'
'Roman'
'vpl'
'správním_'
'kla'
'jámy_'
'lv'
'Mze_'
'spojením_'
'nákazy_'
'Klára_'
'JA'
'DE_'
'sie_'
'obdobích_'
'eto'
'zela_'
'vze'
'přírůstek_'
'programech_'
'play_'
'miniaturní_'
'bylin_'
'Strategie_'
'uta_'
'obo'
'Kos'
'Be'
'obávají_'
'investování_'
'fle'
'Mam'
'šl_'
'hybridy_'
'dimenze_'
'balíčku_'
'Vyt'
'rozo'
'organizacích_'
'soused'
'praktickou_'
'jednoduchost_'
'roi'
'ray_'
'půdou_'
'elem_'
'47'
'viditelně_'
'8000_'
'řen'
'zóna_'
'nalevo_'
'logistické_'
'dřevěnou_'
'ČSÚ_'
'úrokových_'
'určenou_'
'rve_'
'rud'
'odv'
'nouzi_'
'Pojem_'
'žadatele_'
'letého_'
' “ ) ._'
'třinácti_'
'cal'
'právními_'
'pomohly_'
'obecních_'
'nejdelší_'
'úi'
'vrátíme_'
'spočívající_'
'mši_'
'cs'
'výskytem_'
'nenas'
'VZ'
'ůd'
'áa'
'sak'
'platforma_'
'negativním_'
'dokonalá_'
'ziskem_'
'nejzajímavější_'
'klid'
'budovou_'
'1400_'
'specialista_'
'per'
'milión_'
'elektricky_'
'Fl'
'tic'
'televizor_'
'žíly_'
'pož'
'odcházejí_'
'nepříjemně_'
'máku_'
'san'
'logická_'
'dri'
'Republic_'
'Případ_'
'řík_'
'plátno_'
'hlas'
'celoživotní_'
'Prá'
'sliby_'
'různého_'
'rí_'
'poho'
'oci_'
'los'
'aď_'
'Jí_'
'univerzit_'
'manipulační_'
'Pravce_'
'Nepod'
'Cou'
'prádla_'
'prohlašuje_'
'poruchou_'
'Roz'
'Dochází_'
'osto'
'odvedl_'
'kopci_'
'inzerce_'
'doufá_'
'az'
'Vzala_'
'tenký_'
'potravinami_'
'Del'
'' _'
' @ _'
'starými_'
'platformě_'
'obloha_'
'áb'
'zvyky_'
'unavená_'
'hrudníku_'
'dif'
'Pt'
'Lok'
'čísly_'
'obecnou_'
'kapitalismu_'
'RNDr_'
'uniformě_'
'kra'
'koleno_'
'Třebaže_'
'zahájí_'
'příp'
'návratnost_'
'nepříznivé_'
'ln_'
'Plan'
'zastupitelstvo_'
'yd'
'věl'
'vd'
'robotů_'
'cestovních_'
'Fv'
'Flu'
'ron_'
'provždy_'
'pije_'
'lik_'
'komorou_'
'kamerou_'
'DL'
'úplná_'
'zmiňuje_'
'samostatného_'
'plav'
'nedostali_'
'rozběhl_'
'pakl_'
'atm_'
'ochránit_'
'dechem_'
'Neve'
'veletrhů_'
'prve_'
'mlád'
'voliči_'
'polského_'
'akcionáři_'
'Octavia_'
'řádné_'
'zakladatele_'
'učitelky_'
'nákladné_'
'neumím_'
'256_'
'uskutečnění_'
'rl_'
'poradil_'
'nejz'
'laboratoří_'
'kritice_'
'UB'
'mís'
'mák_'
'lože_'
'káva_'
'řeb'
'tvrdila_'
'ral'
'prom'
'pomůcek_'
'dly_'
'prodloužit_'
'ochrannou_'
'lá'
'záp'
'třídní_'
'tipy_'
'Por_'
'Mau'
'óny_'
'pohoří_'
'koalici_'
'kandidát_'
'Da_'
'společnostem_'
'pracovny_'
'kabelů_'
'iin'
'hřbitově_'
'ech'
'Control_'
'konče_'
'chovala_'
'Hudební_'
'69'
'ozvala_'
'doho'
'disciplíny_'
'FAO_'
'1912_'
'přistoupila_'
'posádka_'
'politickými_'
'kil'
'dívčí_'
'díra_'
'Bře'
'spoj'
'mní_'
'cor'
'Cl_'
'ng'
'Miloslav_'
'LP_'
'íčku_'
'kej_'
'kandidáta_'
'samotn'
'půdních_'
'osudem_'
'drobnými_'
'Škola_'
'Spousta_'
'šedá_'
'kraj'
'Ret'
'RC'
'92'
'výraznému_'
'soucit_'
'ap'
'Sli'
'field_'
'blo'
'Pojďte_'
'češ'
'roze'
'ila'
'MK'
'opilý_'
'ces_'
'Vstal_'
'SM_'
'Ein'
'řízen_'
'testech_'
'rap'
'race_'
'otočit_'
'hon'
'tovat_'
'okupace_'
'domnívat_'
'dokončen_'
'109_'
'červen_'
'váno_'
'telných_'
'radou_'
'ičkou_'
'imunitní_'
'ajících_'
'Kla'
'tot'
'nerozumí_'
'jednotného_'
'cholesterolu_'
'MP_'
'promění_'
'charakteristika_'
'centů_'
'Money_'
'Cap'
'konzultace_'
'komentuje_'
'cové_'
'bá_'
'PAR'
'vyvinul_'
'vyjel_'
'klesne_'
'Dobrou_'
'termínem_'
'práv'
'luje_'
'kongres_'
'izo'
'SNR_'
'GmbH_'
'inženýrství_'
'autoritu_'
'We'
'EP_'
'volebních_'
'oslabení_'
'db'
'VÚ'
'Rá'
'Philips_'
'rozpaky_'
'netr'
'Rus'
'ďi'
'severních_'
'polských_'
'mít'
'globálního_'
'zkrácen'
'okolím_'
'japonských_'
'ňů_'
'kdes_'
'itelný_'
'ovacích_'
'oprávněn_'
'tro'
'toi'
'spi'
'slo_'
'Ldyž_'
' “ , „ _'
'vkusu_'
'vkus_'
'neříká_'
'jasným_'
'drát_'
'Produkce_'
'zón_'
'vte'
'připadne_'
'pásů_'
'oct'
'nepočítá_'
'Týden_'
'Přišla_'
'příjemnou_'
'put'
'nera_'
'hrb'
'bohu_'
'Rozhodující_'
'Dos'
'čestné_'
'učili_'
'ros'
'propasti_'
'fotbalu_'
'Egypta_'
'íž'
'umožnily_'
'zapa'
'psychicky_'
'omezovat_'
'adaptace_'
'Tour_'
'Bron'
'66'
'přesvědčivě_'
'deskou_'
'Pep'
'Ježi_'
'gram'
'zmizelo_'
'Zad'
'Tyhle_'
'věži_'
'našlo_'
'mezích_'
'mas_'
'estetické_'
'Ve'
'zan'
'ima_'
'Auto'
'íh'
'ČI'
'íu_'
'uzavřen_'
'povinně_'
'popel_'
'občanská_'
'nechápu_'
'Il'
'tst'
'tají_'
'dodávka_'
'ačním_'
'Wal'
'štěn'
'odškodnění_'
'oň'
'ocho'
'National_'
'výrazná_'
'spouští_'
'nedostatečná_'
'81'
'prosadil_'
'nejroz'
'fc'
'rand'
'ktu_'
'kouli_'
'jka_'
'havárie_'
'ND'
'špatných_'
'ěne'
'tihle_'
'přízeň_'
'Nizozemsku_'
'Bir'
'yr_'
'soti_'
'nahá_'
'koli'
'celej_'
'Vilém_'
'okresního_'
'iř'
'eck'
'Wol'
'PM'
'koval_'
'Spolupráce_'
'otevřeného_'
'acího_'
'ěi'
'tabuli_'
'osaměl'
'filmech_'
'docílit_'
'Ivan'
'řn'
'vzácný_'
'vchod_'
'existoval_'
'cr'
'Zor'
'Čer'
'vaně_'
'plameny_'
'Neob'
'zaznamenat_'
'měně_'
'hradit_'
'Sam'
'dospět_'
'vystoupila_'
'vojáka_'
'obd'
'upozorňují_'
'tenis_'
'oen'
'koo'
'jednotkami_'
'Pokus_'
'lům_'
'jr'
'104_'
'zaměstnavatelů_'
'sláva_'
'qu'
'Studenti_'
'zahlédla_'
'vstupují_'
'specifickou_'
'součet_'
'mnich_'
'mie_'
'ea'
'NEJ'
'nevrátí_'
'kritérium_'
' > _'
'sympatie_'
'sf'
'lila_'
'ctí_'
'Continental_'
'žních_'
'zaslechla_'
'soutěžích_'
'poskytovaných_'
'Klu'
'Hat'
'vstřikování_'
'snídaně_'
'napravo_'
'listiny_'
'vinic_'
'předsedkyně_'
'proměnit_'
'omáčky_'
'klíčovým_'
'Snažíme_'
'BE'
'už'
'44'
'Fí'
'Ele'
'íková_'
'poražen'
'iniciativu_'
'aktivitách_'
'UniCredit_'
'Cd'
'uce_'
'právy_'
'plátna_'
'parků_'
'leb'
'ejn'
'doh'
'bž'
'žádných_'
'Ö'
'navr'
'šov'
'říjen_'
'zc'
'tvořen_'
'provo'
'genní_'
'Trucks_'
'Koterou_'
'úk'
'zlatá_'
'zapl'
'střetnutí_'
'potřebuji_'
'obchodními_'
'externích_'
'Nemo_'
'tního_'
'primitivní_'
'mouku_'
'krásného_'
'ehl'
'pohání_'
'podílela_'
'Napo'
'Ari'
'51'
'úsilím_'
'álo_'
'radostně_'
'Prokop_'
'fórum_'
'Ble'
'  "_'
'znít_'
'středo'
'objal_'
'mži_'
'agregát_'
'Zak'
'Neš'
'Jr'
'ředí_'
'spojky_'
'koř'
'aplikacích_'
'Hrá'
'řezání_'
'užitek_'
'rychlém_'
'rozhodujícím_'
'následovalo_'
'nejt'
'lop'
'Kverneland_'
'ťov'
'uej_'
'soukromém_'
'seznamy_'
'mč'
'Stejné_'
'64'
'xt'
'vklad_'
'kapacitě_'
'aktuálního_'
'sve'
'premiérem_'
'okruhy_'
'nejmenších_'
'elegantně_'
'cenný_'
'TĚ'
'ěe_'
'záchranné_'
'sel_'
'sb'
'obsadil_'
'filtry_'
'bratří_'
'ůl_'
'sestaven'
'medicína_'
'yna_'
'učinila_'
'smála_'
'mez'
'brněnském_'
'žene_'
'povědět_'
'infrastrukturu_'
'Nutno_'
'ďob'
'kráva_'
'era'
'elf'
'Myslí_'
'šťáva_'
'procházku_'
'pej'
'domků_'
'stud'
'kj'
'historická_'
'ani'
'Fil'
'AF'
'využit_'
'vedlejších_'
'sníženou_'
'měřicí_'
'hotová_'
'Stein'
'áních_'
'automobilový_'
'veličiny_'
'ostech_'
'nevidět_'
'kuse_'
'Vys'
'Abyste_'
'zkoušet_'
'slav_'
'sada_'
'pohonné_'
'kombinuje_'
'ěně_'
'výh'
'postavený_'
'ověřování_'
'chvílemi_'
'chladný_'
'Připadalo_'
'HD'
'rozdělen_'
'mos'
'chodník_'
'Tok_'
'Lom'
'připomínala_'
'plynové_'
'kázání_'
'gy'
'evropskými_'
'společn'
'siláž_'
'kř'
'dle'
'bílkoviny_'
'Ane'
'vyo'
'kostičky_'
'ete'
'PDF_'
'NT_'
'MT'
'Hul'
'zdvořile_'
'riskantní_'
'hormonální_'
'chápal_'
'odolností_'
'oD'
'jádru_'
'hodn'
'Petrem_'
'zel'
'roc'
'pořádání_'
'pek_'
'Video_'
'Mek_'
'7000_'
'ČL'
'jednoduchého_'
'Strany_'
'Sn'
'Lau'
'ép'
'que'
'povrchových_'
'cenám_'
'Mem'
'vypracovat_'
'propo'
'nství_'
'llov'
'kterous_'
'citlivosti_'
'Char'
'Šta'
'Škol'
'travních_'
'takov'
'nepoznal_'
'livé_'
'sedan_'
'ink'
'automatizace_'
'Cer'
'šné_'
'příprav_'
'osk'
'Docela_'
'prak'
'kluky_'
'dohodou_'
'Lubomír_'
'ID'
'Kolo'
'111_'
'umím_'
'lest_'
'dřevo'
'Pravče_'
'Black_'
'tk'
'lesk_'
'hodnotám_'
'Sel'
'Ryb'
'Mon'
'působících_'
'Nel_'
'využity_'
'součástky_'
'prokázáno_'
'pouť_'
'tického_'
'rač'
'ožen'
'orgánům_'
'ohněm_'
'nere'
'nehni_'
'nazýváme_'
'kopírování_'
'jedli_'
'ig'
'globálním_'
'Walter_'
'pravice_'
'prasnic_'
'obvyklých_'
'nejvy'
'Svatý_'
'ště'
'zpomalení_'
'vee'
'smáli_'
'přihodilo_'
'oděv_'
'kontrolních_'
'aí'
'Sá'
'savé_'
'UNI'
'Dian'
'áží_'
'věrnost_'
'spěchu_'
'oto'
'meri'
'hlíz_'
'eM'
'Ck'
'ňy_'
'Čn'
'vrá'
'vosti_'
'univerzitní_'
'are_'
'SKÉ_'
'MU'
'Barceloně_'
'šen'
'potlačení_'
'lun'
'každej_'
'Syn_'
'středí_'
'okamžiků_'
'Válka_'
'Mat'
'Lucy_'
'Hed'
'171'
'vol'
'kře_'
'kyslík_'
'27'
'zmatku_'
'vm_'
'napaden'
'měst'
'židovských_'
'Čtyř'
'zázraky_'
'různí_'
'modelové_'
'ješt_'
'enské_'
'sází_'
'nezá'
'milimetrů_'
'lip'
'OO'
'Funkce_'
'odjeli_'
'mužně_'
'kousků_'
'tc'
'poměrem_'
'kompatibilní_'
'dospěli_'
'zařazen_'
'vědec_'
'vrch_'
'prezentuje_'
'morálky_'
'áá'
'ware_'
'ula'
'sklepě_'
'kompenzace_'
'chladiče_'
'žízeň_'
'vos'
'tne'
'pult_'
'křoví_'
'váni_'
'ras'
'82'
'pomalý_'
'padají_'
'Této_'
'Rz'
'Jakuba_'
'řkou_'
'yová_'
'porážku_'
'paprsek_'
' *_'
'oblastmi_'
'lord_'
'Opatrně_'
'zdají_'
'večírek_'
'ss'
'oza'
'klesat_'
'ij'
'dominuje_'
'ara'
'Kt'
'Budoucnost_'
' ) . '
'ěs_'
'zemědělském_'
'rr'
'plet'
'okolnost_'
'Zy'
'sevřel_'
'přísnější_'
'občerstvení_'
'moudrosti_'
'hrdě_'
'Sar'
'začnu_'
'pur'
'pokynů_'
'spin'
'procházet_'
'nat'
'naa'
'Podívala_'
'Nr'
'uložen_'
'Vs'
'každ'
'Skr'
'ína'
'těma_'
'synové_'
'spěšně_'
'přínosy_'
'cro'
'tabulku_'
'spisů_'
'onak_'
'necítil_'
'kladl_'
'dolních_'
'Př_'
'Kva'
'třiceti'
'pedagogů_'
'odložit_'
'VĚ'
'čínského_'
'vyvíjejí_'
'určit'
'tanků_'
'plavání_'
'ero'
'Města_'
'Col'
'zaměstnancem_'
'vir'
'sné_'
'otáčí_'
'dó_'
'Bl'
'činitelů_'
'rodič_'
'navazující_'
'Kra'
'ásk'
'stanicích_'
'lc'
'krom_'
'fiskální_'
'dokončena_'
'Scho'
'Rudé_'
'Dz'
'výživa_'
'odhodlání_'
'mezci_'
'přísluší_'
'právníků_'
'portfoliu_'
'kolektivu_'
'1300_'
'stou_'
'očekávali_'
'nedorozumění_'
'katalog_'
'hlo_'
'dst'
'cp'
'bádání_'
'Vt'
'Di_'
'vzniklých_'
'možnostem_'
'zařval_'
'vašemu_'
'oun'
'ore_'
'získáme_'
'zil_'
'zdravá_'
'růží_'
'loga_'
'Sus'
'Sebe'
'Bla'
'přist'
'nal'
'hrozba_'
'Vary_'
'TIR_'
'půjdeme_'
'gn'
'SB_'
'Úk'
'představovalo_'
'Dalo_'
'Ós'
'pt_'
'ekonomik_'
'ABS_'
'zkouší_'
'náležitosti_'
'anov'
'Analýza_'
'63'
'raj'
'integrovaný_'
'hrdý_'
'Tra'
'155_'
'častí_'
'náčelník_'
'nemluvil_'
'lor'
'Vc'
'vyšetřen'
'shrnuje_'
'podívejte_'
'mro'
'JIŘÍ_'
'provoz'
'liv_'
'lehnout_'
'legendy_'
'existovaly_'
'eda'
'íne'
'přáním_'
'nel'
'křížem_'
'desáté_'
'Nějaký_'
'pokračovali_'
'Kok'
'zadavatelů_'
'provedeny_'
'podnikatelům_'
'takovýchto_'
'studen'
'parazit'
'oslavy_'
'Uvidíme_'
'šp'
'časopisech_'
'zrcátka_'
'průkazu_'
'antibiotika_'
'Stro'
'valná_'
'uvedenou_'
'dobytek_'
'LN'
'Úspěch_'
'vykročil_'
'rybí_'
'rda_'
'Dánsko_'
'59'
'vlastnil_'
'eném_'
'sobotní_'
'počí'
'podnětů_'
'ěz'
'výst'
'normálního_'
'lb'
'francouzsky_'
'autobusem_'
'atomů_'
'Temelín_'
'PŘÍ'
'vystaveny_'
'populací_'
'ovitých_'
'nehraje_'
'řádů_'
'tisících_'
'přesahující_'
'mamince_'
'deváté_'
'PPF_'
'85'
'začlenění_'
'zajistila_'
'něk_'
'nastavením_'
'otevřeném_'
'nk'
'CN'
'stabilizace_'
'navrhování_'
'hypertenze_'
'důchodců_'
'Pohon_'
'snížené_'
'pouzdra_'
'mů'
'CA'
'uchopil_'
'magazín_'
'konfiguraci_'
'jp'
'fra'
'chrom'
'burza_'
'beru_'
'Lie'
'pracujeme_'
'Předpokládám_'
'IE'
'spolčenosti_'
'proje'
'portu_'
'která'
'dra'
'Bs'
'současní_'
'poskytované_'
'osivo_'
'Slov'
'SC_'
'802_'
'řeklo_'
'papírem_'
'Tru'
'rozpad_'
'palec_'
'kyselina_'
'propast_'
'pohřben'
'pečení_'
'esn'
'Hs'
'ól'
'znám'
'veškerého_'
'ssi'
'Novinky_'
'Karlov'
'proud'
'ěného_'
'nát'
'nevyv'
'federaci_'
'esti'
'Rek'
'potvrdí_'
'hus'
'Idě_'
'úlevou_'
'působen'
'připomněla_'
'polévky_'
'konto_'
'dom_'
'aukci_'
'380_'
'hnal_'
'RÁ'
'snáší_'
'oceán_'
'obs'
'chudých_'
'akvizice_'
'předvídat_'
'Naposledy_'
'záv'
'sedm'
'dož'
'dispozice_'
'íkov'
'záď_'
'světy_'
'nejistota_'
'Cal'
'škrobu_'
'Švédska_'
'váz'
'schovat_'
'ous'
'nelíbilo_'
'iso'
'hrozilo_'
'bou'
'Wil'
'A4_'
' . ;_'
'udeřil_'
'rozd'
'objednávku_'
'niv'
'edu_'
'Poz'
'Majitel_'
'úlevu_'
'nejednou_'
'koordinaci_'
'hnědá_'
'firm'
'báze_'
'ztratily_'
'zajímavého_'
'vyspělé_'
'rozdělí_'
'příloha_'
'nemocniční_'
'alizace_'
'VÁ'
'Sim'
'vejci_'
'sivé_'
'předsednictva_'
'Tt'
'Mobilní_'
'tiky_'
'navštívili_'
'experimentu_'
'Smlouva_'
'Kaš'
'výší_'
'kozy_'
'Horák_'
'Ach'
'pokr'
'Ren'
'Osobní_'
'Jun'
'Cli'
'ŠE'
'ěh'
'předa_'
'písmen_'
'internetový_'
'Cru'
'sedačky_'
'rušit_'
'přen'
'produkují_'
'nutnou_'
'Pak'
'komplikované_'
'tresty_'
'poí'
'nv'
'nejd'
'napadl_'
'major_'
'dob'
'Pen'
'Hory_'
'žený_'
'šum_'
'nešel_'
'maily_'
'síťové_'
'přiměřeně_'
'pokoušeli_'
'oslav_'
'kritický_'
'ČN'
'výtvarného_'
'svetr_'
'Pil'
'zemského_'
'zabrání_'
'tlusté_'
'snášet_'
'diesel_'
'Vě'
'NP'
'MÁ'
'ďy_'
'ýa_'
'ový'
'adí_'
'Listy_'
'Ik'
'žo_'
'výr'
'vr_'
'koš_'
'Metoda_'
' “ '
'řít_'
'vylepšit_'
'televizoru_'
'Az'
'čip_'
'čerstvých_'
'účastníkům_'
'ÉM_'
'uvedeném_'
'udržují_'
'pečiva_'
'mó'
'ISBN_'
'ovat'
'orientované_'
'Bin'
'zabraňuje_'
'Rot'
'seznámili_'
'ros_'
'pta'
'nadstandardní_'
'autority_'
'mbi'
'klášter_'
'ZN'
'šťá'
'setkala_'
'poměrech_'
'osma'
'dozor_'
'av'
'věnované_'
'marné_'
'hý_'
'francouzskou_'
'dop'
'Ts'
'vzteku_'
'izolací_'
'evn'
'cíleně_'
'Ukázal_'
'řad'
'upu_'
'sezonu_'
'pst'
'nejnovějších_'
'tur'
'tod'
'objednal_'
'obava_'
'Vidíte_'
'Mot'
'Ko'
'přitahuje_'
'chybělo_'
'Van'
'Nejnižší_'
'éri'
'takzvaných_'
'bojují_'
'žce_'
'rv'
'lob'
'kají_'
'ičn'
'ctím_'
'arm'
'technologického_'
'směny_'
'herců_'
'Tabulka_'
'Led'
'Kin'
'podsvícení_'
'okolního_'
'Ji_'
'vnuk'
'soudním_'
'podnikateli_'
'Oznámil_'
'uň'
'patr'
'nko_'
'věnován_'
'umělecký_'
'pet'
'dráty_'
'Run'
'ľ'
'statky_'
'sat_'
'přese_'
'pravd'
'Turecko_'
'Rh'
'Bet'
'1917_'
'odjezdu_'
'obvyklou_'
'IC_'
'DY_'
'Bič_'
'tržního_'
'písmem_'
'podr'
'nápisy_'
'mlékárny_'
'literárního_'
'automobilového_'
'LIN'
'spolupracovníky_'
'branku_'
'Obsahuje_'
'slov'
'nastalo_'
'Pos'
'ČKD_'
'známkou_'
'kapes_'
'anti'
'112_'
'Čapek_'
'líbila_'
'ket'
'doložit_'
'ínek_'
'ru'
'odděleně_'
'nejúspěšnější_'
'komunikacích_'
'ese'
'prohlídku_'
'potem_'
'kri'
'doa'
'Pás'
'zřídit_'
'zánik_'
'zamířila_'
'sdělovacích_'
'posláním_'
'ert'
'ella_'
'Ruskem_'
'PK'
'Če'
'vlas'
'kontrastu_'
'Kim_'
'sněhové_'
'nevyt'
'mp_'
'leteckých_'
'zach'
'rozhodly_'
'nějakej_'
'nenechal_'
'pole'
'ovka_'
'kle'
'Fla'
'odhalí_'
'nejb'
'Palm'
'vystřídal_'
'podle'
'dílech_'
'zku_'
'upozornila_'
'aso'
'Sto'
'Institutu_'
'úsporné_'
'neobejde_'
'dostával_'
'Xt'
'žily_'
'úředníky_'
'zvolila_'
'připo'
'šar'
'tS'
'pomo'
'paralelní_'
'něd'
'mož'
'manželovi_'
'liz'
'doá'
'Ken'
'šal'
'og_'
'kly_'
'Yv'
'škodlivé_'
'potop'
'mailu_'
'fir'
'přísun_'
'kč'
'komunisty_'
'kliku_'
'Slavie_'
'éj'
'pšenici_'
'Dopravní_'
'pouď_'
'oú_'
'Sil'
'zprostředkování_'
'zkouškách_'
'okresních_'
'oblíbená_'
'oblíbenou_'
'dávných_'
'doe'
'ben_'
'řm'
'Ďá'
'ÍK_'
'vlas_'
'platná_'
'nezávislá_'
'hlubin_'
'Nesl'
'zadívala_'
'vypl'
'tabulek_'
'stojím_'
'rus_'
'pravo'
'pistolí_'
'new_'
'fikace_'
'doprovází_'
'VŠ'
'Ez'
'výborů_'
'pran'
'pavilonu_'
'konaly_'
'FF_'
'yse_'
'vnitro'
'redakční_'
'přistupuje_'
'nárůstem_'
'mát'
'deno'
'2016_'
'ořechy_'
'látkou_'
'lesního_'
'Odpoledne_'
'statistického_'
'slun'
'překvapen_'
'abs'
'Sývě_'
'případnou_'
'pota'
'fitness_'
'Up'
'Volba_'
'zum'
'Vzpomněl_'
'IB'
'úcty_'
'zmá'
'zho'
'sekcí_'
'Global_'
'Bul'
'řev'
'přek'
'kalendáře_'
'jez_'
[...]
