'<pad>_'
'<EOS>_'
' ._'
' , _'
'_'
'der_'
'die_'
' - _'
'und_'
'in_'
'den_'
' " _'
'n_'
'mit_'
'das_'
'von_'
'zu_'
'im_'
' : _'
'auf_'
'ist_'
'für_'
'sich_'
'es_'
'dem_'
'er_'
'Die_'
's_'
'ein_'
'nicht_'
'des_'
'en_'
'e_'
'eine_'
'auch_'
'an_'
' ( _'
' . _'
'am_'
'als_'
'aus_'
'._'
'r_'
't_'
'-_'
'Der_'
'bei_'
'hat_'
'sie_'
'dass_'
'um_'
'nach_'
'werden_'
'Das_'
'  _'
'einem_'
'war_'
'wie_'
'einen_'
'vor_'
'sind_'
'noch_'
'einer_'
'wird_'
' ) _'
'zum_'
'haben_'
':_'
'über_'
'aber_'
'so_'
'oder_'
'- _'
'nur_'
'In_'
'de_'
'mehr_'
'1_'
'wurde_'
'bis_'
'man_'
'gegen_'
',_'
'a_'
'sei_'
'Sie_'
'zur_'
'm_'
' " , _'
'hatte_'
'sein_'
' " ._'
'Uhr_'
' : " _'
' ?_'
'Euro_'
'd_'
'Es_'
'ich_'
'i_'
'2_'
'habe_'
'durch_'
'wieder_'
'l_'
'schon_'
'unter_'
'te_'
'kann_'
'vom_'
'. _'
'Jahr_'
'zwei_'
'wir_'
'dann_'
' / _'
'Jahren_'
'Und_'
'beim_'
'Ein_'
'ung_'
'ten_'
'Im_'
'o_'
'gibt_'
'soll_'
'Er_'
'seine_'
'können_'
'2017_'
'ihre_'
'Auch_'
'immer_'
'g_'
'3_'
'u_'
'ab_'
'Prozent_'
'wenn_'
'/_'
'0_'
'Mit_'
'waren_'
'Jahre_'
'da_'
'Nach_'
'drei_'
'seit_'
'wurden_'
'seiner_'
'nun_'
'was_'
'ins_'
'000_'
'keine_'
'alle_'
'will_'
'eines_'
'Menschen_'
'rund_'
'20_'
'geht_'
'Am_'
'30_'
'Für_'
'Ich_'
'bereits_'
'diese_'
'z_'
'sehr_'
'muss_'
' ) , _'
'5_'
'ersten_'
'4_'
'Bei_'
'Wir_'
'gut_'
'ihr_'
'h_'
'Polizei_'
'neue_'
'worden_'
'diesem_'
'y_'
'dieser_'
'zwischen_'
'viel_'
'uns_'
'Stadt_'
'f_'
'k_'
'Eine_'
'viele_'
'15_'
'sagte_'
'So_'
'Zeit_'
'damit_'
'Ende_'
'sowie_'
'6_'
'ihn_'
'ch_'
'S_'
'seinen_'
'ihren_'
'etwa_'
'Wie_'
'Doch_'
'jetzt_'
'seinem_'
'selbst_'
'neuen_'
' ) ._'
'Deutschland_'
'Aber_'
'Von_'
'weiter_'
'hatten_'
'dabei_'
'A_'
'hier_'
'Millionen_'
'doch_'
'müssen_'
'ganz_'
'US_'
'ihrer_'
'seien_'
'Mann_'
'anderen_'
' )_'
'Auf_'
'17_'
'allem_'
'weil_'
'7_'
'sagt_'
'ihm_'
'steht_'
'10_'
'st_'
'etwas_'
'nd_'
'Kinder_'
'machen_'
'gab_'
'18_'
'kommen_'
'Als_'
'B_'
'ohne_'
'Berlin_'
'vier_'
'beiden_'
'werde_'
'sondern_'
'8_'
'ne_'
'ungen_'
'gen_'
'erst_'
'dpa_'
'E_'
'kommt_'
'wegen_'
'sollen_'
'14_'
'on_'
'vergangenen_'
'16_'
'9_'
'einmal_'
'2016_'
'dort_'
'Platz_'
'EU_'
'kam_'
'andere_'
'wollen_'
'19_'
'Da_'
'heute_'
'dies_'
'alles_'
'b_'
'SPD_'
'ie_'
' " . _'
'13_'
'konnte_'
'mal_'
'lassen_'
'Wenn_'
'au_'
'könnte_'
'11_'
'Straße_'
'denn_'
'dafür_'
'Trump_'
'ob_'
'kein_'
'v_'
'50_'
'FC_'
'Sonntag_'
'25_'
' ; _'
'ihrem_'
'Frau_'
'dazu_'
'fünf_'
'12_'
' ,_'
'Jährige_'
'le_'
'c_'
'stehen_'
'chen_'
'Was_'
'G_'
'ng_'
'Tag_'
'wo_'
'at_'
'allerdings_'
'Denn_'
'M_'
'erste_'
'ter_'
'Foto_'
'nichts_'
'mich_'
'Welt_'
'Spiel_'
'also_'
'ner_'
'Mal_'
'ge_'
'D_'
'großen_'
'/ _'
'ing_'
'große_'
'w_'
'ja_'
'rn_'
'geben_'
're_'
'Samstag_'
'Land_'
'sehen_'
'würde_'
'Wer_'
'macht_'
'weitere_'
'gehen_'
'mann_'
' !_'
'UN_'
' , " _'
'jedoch_'
'gewesen_'
'laut_'
'wäre_'
'Leben_'
'dieses_'
'zurück_'
'sollte_'
'Vor_'
'Freitag_'
'K_'
', _'
'21_'
'mir_'
'I_'
'zehn_'
'letzten_'
'sogar_'
'DIN_'
'davon_'
'V_'
' ..._'
'fast_'
'Diese_'
'ging_'
'An_'
'U_'
'Team_'
'Frauen_'
'zwar_'
'22_'
'Weg_'
'is_'
'ns_'
'CDU_'
'lange_'
'and_'
'Thema_'
'Trainer_'
'us_'
'T_'
'Fall_'
'USA_'
'P_'
'Den_'
'hätten_'
'sieht_'
'40_'
'wohl_'
'Woche_'
'un_'
'C_'
'Bayern_'
'em_'
'Haus_'
'Dabei_'
'F_'
'ler_'
'se_'
'später_'
'denen_'
'as_'
'diesen_'
'musste_'
'24_'
'lich_'
'würden_'
'nen_'
'L_'
'Dass_'
'R_'
'liegt_'
'gemacht_'
'of_'
'Seit_'
'Unternehmen_'
'Man_'
'vielen_'
'zweiten_'
'rt_'
'et_'
'Präsident_'
'Arbeit_'
'Wochen_'
'München_'
'2015_'
'100_'
'deutschen_'
'ern_'
'allen_'
'gerade_'
' . ( _'
'ig_'
'p_'
'deutlich_'
'sechs_'
'N_'
'el_'
'hätte_'
'W_'
'gar_'
'Geld_'
'ach_'
'darauf_'
'rs_'
'23_'
'Mittwoch_'
'statt_'
'Teil_'
'H_'
'anderem_'
'ei_'
'Sieg_'
'di_'
'Saison_'
'wollte_'
'Zum_'
'fest_'
'the_'
'einfach_'
'2018_'
'eigenen_'
'Zu_'
'Minuten_'
'wenig_'
'während_'
'Donnerstag_'
'al_'
'finden_'
'Frage_'
'einige_'
'Bürgermeister_'
'derzeit_'
'September_'
'ren_'
'heißt_'
'Montag_'
'Mai_'
'sch_'
'zusammen_'
'ebenfalls_'
'ihnen_'
'Dienstag_'
'weniger_'
'nie_'
'sen_'
'könne_'
'St_'
'Meter_'
'bleibt_'
' '_'
'hin_'
'Nacht_'
'Familie_'
'Um_'
'DDR_'
'her_'
'Bad_'
'Regierung_'
'möglich_'
'zeigt_'
'acht_'
'Ort_'
'Oktober_'
'Beispiel_'
'it_'
'lässt_'
'gute_'
'Chef_'
'stand_'
'jährige_'
'Dur_'
'gilt_'
'oft_'
'zunächst_'
'Thomas_'
'Z_'
'Aus_'
'Fußball_'
'Michael_'
'www_'
'gleich_'
'schnell_'
'tun_'
'Ader_'
'Auto_'
'Gemeinde_'
'bin_'
'Europa_'
'fo_'
'keinen_'
'nächsten_'
'Angaben_'
'Ziel_'
'{_'
'nehmen_'
'Mannschaft_'
'Einsatz_'
'weit_'
'Juli_'
'Juni_'
'x_'
'27_'
'O_'
'bleiben_'
'28_'
'Dann_'
'neben_'
'Dia_'
'Seite_'
'Eder_'
'April_'
'ke_'
'bisher_'
'Martin_'
'Bild_'
'nden_'
'Bund_'
'Verein_'
'könnten_'
'kurz_'
'klar_'
'besonders_'
'Peter_'
'Tage_'
'Stunden_'
'Dieb_'
'26_'
'Anfang_'
'Gäste_'
'Richtung_'
'kaum_'
'konnten_'
'Beim_'
'besser_'
'März_'
'findet_'
'SV_'
' _'
'60_'
'nde_'
'November_'
'hinter_'
'deren_'
'Zeitung_'
'Damit_'
'IDE_'
'Dezember_'
'Eltern_'
'halten_'
'knapp_'
'per_'
'hen_'
'lang_'
'bekommen_'
'Mitarbeiter_'
'Zukunft_'
'Grund_'
'Geschichte_'
'bekannt_'
'alten_'
'Schule_'
'Gruppe_'
'schwer_'
'ben_'
'natürlich_'
'deutsche_'
'Hier_'
'verletzt_'
'genau_'
'Sein_'
'efs_'
'ß_'
'eben_'
'Deutschen_'
'­_'
'Besucher_'
'Partei_'
'Spieler_'
'neu_'
'dessen_'
'mehrere_'
'Jahres_'
'insgesamt_'
'Männer_'
'be_'
'Region_'
'jeder_'
'zuletzt_'
'pro_'
'August_'
'Nicht_'
'erklärt_'
'eher_'
'damals_'
'gekommen_'
'cht_'
'TV_'
'Dort_'
'weiß_'
'gehört_'
'sollten_'
'weiteren_'
'gegeben_'
'dir_'
'29_'
'zudem_'
' :_'
'ger_'
'deshalb_'
'Schüler_'
'Nur_'
'Sicht_'
'Musik_'
'kommenden_'
'Politik_'
'junge_'
'sicher_'
'müsse_'
'aller_'
'wer_'
'Blick_'
'öder_'
'Grünen_'
'kleinen_'
'sieben_'
'Programm_'
'stellen_'
'ers_'
'Wahl_'
'darf_'
'bringen_'
'Feuerwehr_'
'ngen_'
'45_'
'Bis_'
'spielen_'
'lt_'
'Dies_'
'AfD_'
'Hund_'
'ejf_'
'Abend_'
'zuvor_'
'J_'
'Zwei_'
'Punkte_'
'Fans_'
'Januar_'
'Erfolg_'
'ar_'
'Nun_'
'sten_'
'Mitglieder_'
'che_'
'Bereich_'
'Stuttgart_'
'Art_'
'eigentlich_'
'Merkel_'
'erklärte_'
'weg_'
'sagen_'
'Ion_'
'Projekt_'
'Tagen_'
'ft_'
'Zahl_'
'Zudem_'
'arbeiten_'
'erhalten_'
'Köln_'
'j_'
'schen_'
'derb_'
'gemeinsam_'
'möchte_'
'stark_'
'00_'
'je_'
'end_'
'führen_'
'Jetzt_'
'hält_'
'31_'
' ) - _'
'ck_'
'Während_'
'len_'
'Christian_'
'WM_'
'CSU_'
'Sommer_'
' { _'
'Berliner_'
'darüber_'
'Höhe_'
'berg_'
'Über_'
'Tor_'
'machte_'
'Au_'
'Bürger_'
'Wien_'
'Österreich_'
'gegenüber_'
'geworden_'
'stellt_'
'Entscheidung_'
'ts_'
'alte_'
'Viele_'
'beide_'
'ließ_'
' -_'
'kleine_'
'wichtig_'
'hoch_'
'or_'
'os_'
'Milliarden_'
'innen_'
'div_'
'liegen_'
'zeigen_'
'Landkreis_'
'Laut_'
' "- _'
'los_'
'Unter_'
'gebracht_'
'kamen_'
'berichtet_'
'Außerdem_'
'all_'
'Mitte_'
'fs_'
'paar_'
'35_'
'Minute_'
'iert_'
'to_'
'Start_'
'2014_'
'Kosten_'
'groß_'
'Mehr_'
'ert_'
'70_'
'Rolle_'
'daran_'
'80_'
'jeden_'
'dorf_'
'straße_'
'  ,_'
'meisten_'
'Wasser_'
'Kreis_'
'Fund_'
'Februar_'
'richtig_'
'seines_'
'Problem_'
'X_'
'De_'
'Fahrer_'
' . ) _'
'Personen_'
'Wochenende_'
'gebe_'
'wissen_'
'Mund_'
'wirklich_'
'Hand_'
'erneut_'
'he_'
'schließlich_'
'90_'
'Amt_'
'Leute_'
'Ob_'
'Dazu_'
'500_'
'Kind_'
'führt_'
'inger_'
'anders_'
'dürfen_'
'neues_'
'leben_'
'Noch_'
'isch_'
'igen_'
'zweite_'
'Namen_'
'bislang_'
'Monaten_'
'tes_'
'Mutter_'
'Ex_'
'fahren_'
'nt_'
'spielt_'
'leicht_'
'Union_'
'Bundesliga_'
'zufolge_'
'jungen_'
'besten_'
'guten_'
'Neben_'
'Donald_'
'Bühne_'
'ischen_'
'ht_'
'200_'
'Beginn_'
'Allerdings_'
'Ihr_'
'Zug_'
'Fragen_'
'ur_'
'll_'
'Dollar_'
'stellte_'
'Deutsche_'
'dagegen_'
'Ergebnis_'
'Kunden_'
'eigene_'
'frei_'
'unsere_'
'ige_'
''_'
'recht_'
'bar_'
'Dr_'
'Schon_'
'Markt_'
'sche_'
'Türkei_'
'IT_'
'trotz_'
'Kilometer_'
'ag_'
'setzt_'
'Alle_'
'voe_'
'eins_'
'nimmt_'
'unterwegs_'
'Andreas_'
'Kritik_'
'ls_'
'Jährigen_'
'dürfte_'
'zeigte_'
'Buch_'
'offenbar_'
'einigen_'
'Probleme_'
'direkt_'
'ums_'
'FDP_'
'New_'
'tz_'
'aufs_'
'Erst_'
'ebenso_'
'uf_'
'Unfall_'
'Müller_'
'Führung_'
'Sport_'
'ste_'
'Hilfe_'
'II_'
'keit_'
'Bahn_'
'neun_'
'Titel_'
'gerne_'
'enden_'
'mussten_'
'na_'
'Täter_'
'Internet_'
'ens_'
'gefunden_'
'Frankfurt_'
'Russland_'
'Film_'
'erwartet_'
'rin_'
'Hans_'
'Schulz_'
'ken_'
'jeweils_'
'Weil_'
'ieren_'
'Chance_'
'ü_'
'jo_'
'gt_'
'voll_'
'Hamburg_'
'nachrichten_'
'Kirche_'
'inzwischen_'
'erstmals_'
'TSV_'
'zeit_'
'ien_'
' " ( _'
'2013_'
'Gebäude_'
'men_'
'gestellt_'
'Rahmen_'
'Kindern_'
'Autos_'
'heim_'
'welche_'
'Informationen_'
'Liga_'
'künftig_'
'Raum_'
'allein_'
'vielleicht_'
'alt_'
'ende_'
'Seine_'
'ln_'
'Vater_'
'Entwicklung_'
'offen_'
'ganze_'
'Kurz_'
'letzte_'
'blieb_'
'haus_'
'Kopf_'
'me_'
'Publikum_'
'Medien_'
',  _'
'lag_'
'läuft_'
'ber_'
'kund_'
'ische_'
'Situation_'
'Monate_'
'wund_'
'ss_'
'weiterhin_'
'Ihre_'
'nn_'
'liche_'
'Opfer_'
'Gericht_'
'ingen_'
'Partie_'
'Dieser_'
'League_'
'mindestens_'
'zumindest_'
'Lage_'
'Firma_'
'zwölf_'
'tag_'
'Folge_'
'Unterstützung_'
'bach_'
'überhaupt_'
'Artikel_'
'The_'
'Verfügung_'
'32_'
'ä_'
'cher_'
'daher_'
'teilte_'
'ihres_'
'Preis_'
'Flüchtlinge_'
'berichtete_'
'sofort_'
'Mädchen_'
'Runde_'
'platz_'
'treffen_'
'solche_'
'Gespräch_'
'Ab_'
'spricht_'
'Angebot_'
'setzen_'
'jährigen_'
'geplant_'
'fen_'
'Einen_'
'beginnt_'
'ann_'
'genommen_'
'dritten_'
'fand_'
'Stefan_'
'Durch_'
'unserer_'
' ,  _'
'bietet_'
'Band_'
'PIN_'
'ziehen_'
'Stück_'
'mittlerweile_'
'Bau_'
'land_'
'meine_'
'verloren_'
'ion_'
'Facebook_'
' & _'
'Sicherheit_'
'ni_'
'Idee_'
'05_'
'wolle_'
'Deshalb_'
'Teilnehmer_'
'oben_'
'bald_'
'zahlen_'
'Hause_'
'danach_'
'Alter_'
'Tür_'
'Gegen_'
'Jan_'
'Licht_'
'Politiker_'
'://_'
'zen_'
'Wolfgang_'
'q_'
'du_'
'Y_'
'bringt_'
'33_'
'Alexander_'
'China_'
'hr_'
'Zur_'
'Drei_'
'jede_'
'Druck_'
'Q_'
'Ö_'
'mi_'
'Gesellschaft_'
'Halle_'
'Gas_'
'schaffen_'
'Zuschauer_'
'Dem_'
'nächste_'
'neuer_'
'Bank_'
'tet_'
'Gegner_'
've_'
'Ball_'
'beispielsweise_'
'ö_'
'ans_'
'scheint_'
'Frank_'
'nahm_'
'bereit_'
'Ei_'
'Kampf_'
'tatsächlich_'
'Dafür_'
'hieß_'
'Tochter_'
'ssen_'
'Oder_'
'sprach_'
'04_'
'wenige_'
'Leipzig_'
';_'
'DNS_'
'Insgesamt_'
'Sprecher_'
'Stelle_'
'nämlich_'
'Tore_'
'nachdem_'
'lichen_'
'Wert_'
'icht_'
'mer_'
'Präsidenten_'
'Besuch_'
'Frankreich_'
' " - _'
'erzählt_'
'Mist_'
'darunter_'
'Vorsitzende_'
'Sohn_'
'Bilder_'
'ker_'
'kt_'
'braucht_'
'DOS_'
'traße_'
'hinaus_'
'Möglichkeit_'
'Ü_'
'laufen_'
'la_'
'London_'
'Stunde_'
'ier_'
'vo_'
'brachte_'
'Bereits_'
'Sebastian_'
'heit_'
'Vergleich_'
'Seiten_'
'wollten_'
'Wohnung_'
'Wirtschaft_'
'helfen_'
'Hälfte_'
'ed_'
'36_'
'nutzen_'
'Form_'
'÷_'
'feld_'
'Teams_'
'politischen_'
'gehören_'
'Rund_'
'bevor_'
'großer_'
'Spiele_'
'größten_'
'Schritt_'
'Veranstaltung_'
'ia_'
'Kollegen_'
'ce_'
'Markus_'
'gesagt_'
'Krankenhaus_'
'300_'
'gesehen_'
'ut_'
'darum_'
'setzte_'
'Familien_'
'Serie_'
'früher_'
'ic_'
'Kraft_'
'genug_'
'Themen_'
'Staat_'
'Co_'
'Landes_'
'erreicht_'
'Staaten_'
'Aktion_'
'34_'
'gewinnen_'
'politische_'
'Schulen_'
'Polizisten_'
'lle_'
'müssten_'
'Ausstellung_'
'bt_'
'ehemaligen_'
'Zahlen_'
'Tod_'
'ka_'
'Rede_'
'Zeiten_'
'aufgrund_'
'Streit_'
'Bein_'
'Rathaus_'
'jedes_'
'aktuellen_'
'links_'
'Rennen_'
'Karl_'
'völlig_'
'Ä_'
'mt_'
'vorn_'
'jedem_'
'Ja_'
'Online_'
'Kunst_'
'Mut_'
'Boden_'
'Stimmen_'
'09_'
'bekommt_'
'Dortmund_'
'verlassen_'
'Paris_'
'hohen_'
'Sache_'
'führte_'
'raße_'
'versucht_'
'Video_'
'Auftritt_'
'ds_'
'sprechen_'
'uch_'
': _'
'fürs_'
'55_'
'sonst_'
'warum_'
' . ) , _'
'Behörden_'
'Ländern_'
'Straßen_'
'tion_'
'Punkt_'
'fällt_'
'Niederlage_'
'Nachdem_'
'hn_'
'Treffen_'
'EM_'
'vorbei_'
'ld_'
'Glück_'
'gehe_'
'Klasse_'
'Spaß_'
'Chancen_'
'com_'
'durchaus_'
'2012_'
'Arbeiten_'
'Lauf_'
'dr_'
'Heute_'
'ẞ_'
'Jürgen_'
'lauf_'
'Tim_'
'solle_'
'Prozess_'
'kosten_'
'Daniel_'
'Josef_'
'mehreren_'
'tt_'
'Nähe_'
'größte_'
'bieten_'
'Beamten_'
'betonte_'
'eren_'
'Kauf_'
'ine_'
'41_'
'elf_'
'08_'
'Experten_'
'Ermittlungen_'
' . ) ._'
'handelt_'
'sorgen_'
'Parteien_'
'Studie_'
'gewonnen_'
'Wort_'
'verschiedenen_'
'Jugend_'
'llen_'
'fordert_'
'Zusammenarbeit_'
'ze_'
'Warum_'
'dennoch_'
'trifft_'
'38_'
'Herbst_'
'erreichen_'
'zieht_'
'Eis_'
'Finale_'
'Quelle_'
'Interesse_'
'hohe_'
'langen_'
'ation_'
'Tat_'
'efo_'
'nahe_'
'eit_'
'außerdem_'
'Länder_'
'Konzert_'
'Augen_'
'heraus_'
'DAX_'
'innerhalb_'
'entschieden_'
'Staatsanwaltschaft_'
'Dieses_'
'Trumps_'
'vn_'
'sucht_'
'ug_'
'Bericht_'
'gruppe_'
'komplett_'
'zog_'
'( _'
'geführt_'
'Pause_'
'van_'
'Ton_'
'Koalition_'
'Ost_'
'sah_'
'Luft_'
'Wein_'
'See_'
'Heimat_'
'such_'
'Geschäftsführer_'
'si_'
'keiner_'
'dein_'
'erin_'
'SC_'
'Aufgabe_'
'längst_'
'37_'
'ra_'
'ma_'
'Tiere_'
'75_'
'Mehrheit_'
'meiner_'
'ßen_'
'hof_'
'" _'
'lesen_'
'07_'
'gern_'
'42_'
'VW_'
'zahlreiche_'
'Klaus_'
'schön_'
'Künstler_'
'Fr_'
'Punkten_'
'aktuell_'
'hingegen_'
'Interview_'
'nder_'
'Wiener_'
'Angst_'
'York_'
'Trotz_'
'Leiter_'
'ehemalige_'
'Gefahr_'
'unser_'
'arbeitet_'
'Fotos_'
'Dach_'
'de'
'dich_'
'Richter_'
'gesperrt_'
'Angela_'
'Sitzung_'
'Nummer_'
'SG_'
'dt_'
'Star_'
'wenigen_'
'Haft_'
'länger_'
'endlich_'
'Grad_'
'Lösung_'
'agen_'
'39_'
'Spielen_'
'Reihe_'
'Maria_'
'trotzdem_'
'Feuer_'
'Robert_'
'400_'
'gezeigt_'
'Abschluss_'
'rten_'
'Fahrzeug_'
'Daten_'
'Beide_'
'Wahlkampf_'
'anderer_'
'Fan_'
'erfolgreich_'
'Neue_'
'Weitere_'
'besteht_'
'ür_'
'meist_'
'gewann_'
'ganzen_'
'Verwaltung_'
'sowohl_'
'Stand_'
'48_'
'ÖVP_'
'beste_'
'rechts_'
'th_'
'Weise_'
'Verkehr_'
'Schaden_'
'obwohl_'
'EUR_'
'Wegen_'
'Münchner_'
' ' _'
'- , _'
'Betrieb_'
'einzige_'
'Dinge_'
'150_'
'ser_'
'51_'
'Kultur_'
'fallen_'
'Ist_'
'tragen_'
'gestern_'
'44_'
'fiel_'
'http_'
'unterstützt_'
'Antrag_'
'gespielt_'
'großes_'
'zufrieden_'
'Zwar_'
'gingen_'
'niemand_'
'jähriger_'
'eich_'
'Hannover_'
'Gruppen_'
'2011_'
'standen_'
'mitteilte_'
'Liebe_'
'mein_'
'Verfahren_'
'burg_'
'Hinweise_'
'spielte_'
'1000_'
'Franz_'
'Jugendliche_'
'SPÖ_'
'ha_'
'entscheiden_'
' ( " _'
'06_'
'öffentlichen_'
'Vorsitzender_'
'Werner_'
'Recht_'
'Plan_'
'halle_'
'Essen_'
'fuhr_'
'Vertrag_'
'Menge_'
'wären_'
'bisschen_'
'Schluss_'
'Matthias_'
'ad_'
'gewählt_'
'lediglich_'
'Gemeinderat_'
'ang_'
'Vertreter_'
'Bremen_'
'Hit_'
'Aas_'
' - " _'
'Italien_'
'Tour_'
'hielt_'
'2000_'
'Linie_'
'Monat_'
'03_'
'Air_'
'46_'
'gesetzt_'
'Baden_'
'schweren_'
'weise_'
'Winter_'
'rte_'
'43_'
'bedeutet_'
'betont_'
'Fahrzeuge_'
'Moment_'
'traf_'
'SAS_'
'Wim_'
'IS_'
'Deutschlands_'
'ße_'
'we_'
'Freude_'
'Bus_'
'suchen_'
'ik_'
'Suche_'
'Nachrichten_'
'hören_'
'Gewalt_'
'Grüne_'
'Wagen_'
'Champions_'
'Konzept_'
'Stimmung_'
'Brand_'
'Top_'
'Maßnahmen_'
'erster_'
'Job_'
'bestätigt_'
'ort_'
'starken_'
'gaben_'
'zentrum_'
'Werk_'
'Leistung_'
'Vergangenheit_'
'aktualisiert_'
'freuen_'
'Musiker_'
'Autofahrer_'
'weltweit_'
'Wald_'
'52_'
'65_'
'Danach_'
'stets_'
'Ausbildung_'
'Patienten_'
'lagen_'
'Hintergrund_'
'dre_'
'Mitglied_'
'hart_'
'wichtige_'
'lage_'
'VfL_'
'Süddeutsche_'
'Schmidt_'
'Folgen_'
'Bevölkerung_'
'ide_'
'Gespräche_'
'aktiv_'
'Parlament_'
'entwickelt_'
'sse_'
'lebt_'
'Fest_'
'brauchen_'
'markt_'
'schaft_'
'2010_'
'Reise_'
'Twitter_'
'tritt_'
'legt_'
'Jähriger_'
'fe_'
'passiert_'
'DFB_'
'Wind_'
'Angriff_'
'Eden_'
'bist_'
'darin_'
'Gast_'
'Freunde_'
'gs_'
'Antwort_'
'anderes_'
'Show_'
'01_'
'teil_'
'berger_'
'Sekunden_'
'Kein_'
'Paul_'
'Natur_'
'Vorstand_'
'Vereine_'
'Urteil_'
'Netz_'
'begonnen_'
'Meister_'
'Coach_'
'Dennoch_'
'Jugendlichen_'
'Gelände_'
'weder_'
'Immer_'
'sorgte_'
'VfB_'
'feiern_'
'ver_'
'Kölner_'
'2019_'
'49_'
'Wetter_'
'Hauptstadt_'
'Besonders_'
'47_'
'Heinz_'
'reich_'
'Max_'
'Engagement_'
'ud_'
'Vom_'
'begann_'
'Strecke_'
'Spitze_'
'gegangen_'
'Metern_'
'öden_'
'Fehler_'
'Vier_'
'kennen_'
'ließen_'
'raum_'
'Szene_'
'Oden_'
'sorgt_'
'jedenfalls_'
'wert_'
'Don_'
'age_'
'dar_'
'hausen_'
'Firmen_'
'Museum_'
'Rot_'
'rer_'
'solchen_'
'machten_'
'Horst_'
'Club_'
'Düsseldorf_'
'Stellen_'
'il_'
'jüngsten_'
'entstehen_'
'Dank_'
'Kontakt_'
'Wohnungen_'
'Post_'
'Le_'
'Borussia_'
'eröffnet_'
'Partner_'
'genutzt_'
'Standort_'
'Geschäft_'
'zt_'
'David_'
'Rang_'
'Bewegung_'
'Hotel_'
'Gesicht_'
'Technik_'
'Dias_'
'dn_'
'warten_'
'Universität_'
'Motto_'
'Vorjahr_'
'54_'
'bo_'
'Gastgeber_'
'denk_'
'sogenannten_'
'Pläne_'
' . - _'
'   _'
'iger_'
'starke_'
'Treffer_'
'jemand_'
'chef_'
'Washington_'
'dehn_'
'ierung_'
'Mensch_'
'entfernt_'
'Koch_'
'kennt_'
'ee_'
'Syrien_'
'Person_'
'ere_'
'Diesel_'
'Schließlich_'
'erinnert_'
'gelang_'
'ändern_'
'Karriere_'
'folgen_'
'stelle_'
'regelmäßig_'
'ot_'
'Pkw_'
'Wo_'
'c'
'plötzlich_'
'halt_'
'Di_'
'gebaut_'
'früh_'
'Innenstadt_'
'Möglichkeiten_'
'verschiedene_'
'eln_'
'startet_'
'ling_'
'legen_'
'Zeugen_'
'sitzt_'
'pe_'
'sozialen_'
'Meinung_'
'56_'
'System_'
'NRW_'
'Kern_'
'nahmen_'
'raus_'
'Veranstaltungen_'
'Natürlich_'
'Bundestagswahl_'
'53_'
'zählt_'
'teilweise_'
'ms_'
'Hoffnung_'
'verhindern_'
'Leitung_'
'stadt_'
'Mail_'
'demnach_'
'europäischen_'
'Brexit_'
'beschäftigt_'
'Bit_'
'02_'
'Georg_'
'jn_'
'edr_'
'Sanierung_'
'Schweiz_'
'Erdogan_'
'Theater_'
'früheren_'
'verkauft_'
'Hof_'
'Macht_'
'werk_'
'dei_'
'Ergebnisse_'
'Alles_'
'möglichst_'
'diesmal_'
'Jungen_'
'Schweizer_'
'Bundesregierung_'
'gefeiert_'
'besondere_'
'reicht_'
'dadurch_'
'Bahnhof_'
'selten_'
'Stiftung_'
' " ) _'
'gemeinsamen_'
'Liste_'
'dank_'
'v'
'Vereins_'
'ster_'
'fehlt_'
'einst_'
'ks_'
'Zentrum_'
'Kurs_'
'ow_'
'Beine_'
'bekam_'
'schreibt_'
'Projekte_'
'Zeitpunkt_'
'urg_'
'ys_'
'bereich_'
'spiel_'
'Pfarrer_'
'wa_'
'Stadion_'
'entgegen_'
'Kontrolle_'
'ebt_'
'Gesetz_'
'wagen_'
'Grenzen_'
'gesamte_'
'Keine_'
'li_'
'getroffen_'
'tung_'
'uer_'
'Bundestag_'
'nnen_'
'erfahren_'
'orf_'
'anschließend_'
'aufgenommen_'
'Gut_'
'las_'
'fährt_'
'Fuß_'
'Diskussion_'
'Kandidaten_'
'mus_'
'beginnen_'
'übernehmen_'
'Nein_'
'eg_'
'Telefon_'
'vorne_'
'ene_'
'meint_'
'Einige_'
'Letzte_'
'ca_'
'steigt_'
'Nachfrage_'
'Lkw_'
'2009_'
'geschlossen_'
'Saudi_'
'gesamten_'
'ichen_'
'Macron_'
'Duell_'
'Nachmittag_'
'angekündigt_'
'Lehrer_'
'Mittel_'
'reichen_'
'Regensburg_'
'Cup_'
'z'
'dm_'
'mag_'
'tal_'
'trägt_'
'stärker_'
'dritte_'
'Konzern_'
'legte_'
'Autor_'
'müsste_'
'Gerade_'
'Ideen_'
'erg_'
'Jeder_'
'tte_'
'online_'
'Karten_'
'Wunsch_'
'57_'
'ta_'
'Christoph_'
'präsentiert_'
'nah_'
'Fahrt_'
'rechnen_'
'häufig_'
'Dom_'
'Debatte_'
'Dieter_'
'weiterer_'
'Training_'
'lernen_'
'Walter_'
'mögliche_'
'unterstützen_'
'aktuelle_'
'Hamburger_'
'betroffen_'
'tn_'
'Sinn_'
'b'
'erhielt_'
'leiter_'
'frühen_'
' " : _'
'Erfahrung_'
'Freund_'
'öffentlich_'
'ierte_'
'Florian_'
'arbeit_'
'ohnehin_'
'erwarten_'
'Verhandlungen_'
'Wähler_'
'lten_'
'sitzen_'
'auer_'
' " , " _'
'58_'
'treten_'
'folgt_'
'GmbH_'
'Zeichen_'
'Main_'
'Fällen_'
'Sachen_'
'Ganz_'
'meinen_'
'feiert_'
'Anteil_'
'forderte_'
'fanden_'
'versuchen_'
'w'
'wies_'
'Presse_'
'gehabt_'
'angeboten_'
'Johannes_'
'getötet_'
'möglichen_'
'freien_'
'Anschlag_'
'übrigens_'
'Wechsel_'
'Plätze_'
'gelten_'
'Bon_'
'Gefühl_'
'bisherigen_'
'meinem_'
'ent_'
'Park_'
'Jim_'
'Krieg_'
'verein_'
'Sachsen_'
'wiederum_'
'lieber_'
'Morgen_'
'Anschluss_'
'Bedeutung_'
'ziemlich_'
'Wege_'
'Position_'
'Joachim_'
'Stimme_'
'Herr_'
'Öffentlichkeit_'
'igkeit_'
'Münster_'
'schwere_'
'Großbritannien_'
'dicht_'
'nötig_'
'Sieger_'
'komme_'
'Gründen_'
'Einer_'
'Bernd_'
'Bonn_'
'BVB_'
'ermittelt_'
'Bewohner_'
'bn_'
'gleichen_'
'schlecht_'
'eingeladen_'
'alter_'
'Philipp_'
'Ober_'
'dienst_'
'2020_'
'Soldaten_'
'no_'
'gefragt_'
'Zusammenhang_'
'Flughafen_'
'hl_'
'Ohne_'
'Al_'
'Selbst_'
'Frühjahr_'
'Nordkorea_'
'beschlossen_'
'holen_'
'-  _'
'Aufgaben_'
'AG_'
'frühere_'
'art_'
'tem_'
'MITI_'
'ki_'
'Schutz_'
'gemeinsame_'
'überzeugt_'
'voller_'
'Drittel_'
'Fast_'
' . , _'
'MBit_'
'die'
'IBM_'
'Fraktion_'
'festgenommen_'
'gutes_'
'droht_'
'Helmut_'
'Tisch_'
'elt_'
'tätig_'
'Wolf_'
'Ausland_'
'entdeckt_'
'Gemeinden_'
'kostet_'
'heutigen_'
'freut_'
'angesichts_'
'onen_'
'itz_'
'insbesondere_'
'Auftakt_'
'k'
'internationalen_'
'gleichzeitig_'
'gezogen_'
'Fischer_'
'Verantwortung_'
'Kommission_'
'Helfer_'
'sogenannte_'
'City_'
'meister_'
'Gabriel_'
'scher_'
'verantwortlich_'
'Verletzungen_'
'Turnier_'
'steigen_'
'lief_'
'zeigten_'
'Aktualisiert_'
'Satz_'
'wirkt_'
'Fälle_'
'Baum_'
'zer_'
'59_'
'Neubau_'
'Teile_'
'Preise_'
'täglich_'
'beteiligt_'
'Linke_'
'erkennen_'
'Ihnen_'
'stehe_'
'Initiative_'
'Also_'
'Geburtstag_'
'jtu_'
'reden_'
'Wettbewerb_'
'fer_'
'ue_'
'leisten_'
'Auftrag_'
'Madrid_'
'Herz_'
'zahlreichen_'
'vermutlich_'
'EG_'
'Kommunen_'
'mache_'
'Ärzte_'
'Arm_'
'gefordert_'
'Worten_'
'offenen_'
'f'
'gefallen_'
'vertreten_'
'600_'
'Regel_'
'unklar_'
'unden_'
'bewusst_'
'Erste_'
'werfen_'
'son_'
'Vielleicht_'
'befindet_'
'Sprache_'
'geplanten_'
'fehlen_'
'Anfrage_'
'denken_'
'kauf_'
'stellten_'
'Spanien_'
'kämpfen_'
'somit_'
'nju_'
'chten_'
'tut_'
'aft_'
'2008_'
'Kür_'
'Festival_'
'meinte_'
'och_'
'rot_'
'unseren_'
'erhält_'
'rd_'
'Grenze_'
'Eintracht_'
'Ast_'
'kritisiert_'
'schrieb_'
'VPN_'
'eim_'
'unbedingt_'
'fertig_'
'é_'
'übernommen_'
'weiteres_'
'bauen_'
'Aug_'
'wann_'
'Energie_'
'starten_'
'Brüssel_'
'Fünf_'
'Damen_'
'km_'
'ko_'
'cke_'
'amt_'
'genannt_'
'Qualität_'
'est_'
'Stadtrat_'
'unternehmen_'
'geöffnet_'
'Garten_'
'manchmal_'
'positiv_'
'lte_'
'Anhänger_'
'Bildung_'
'Dorf_'
'Iran_'
'Jörg_'
'hofft_'
'eingesetzt_'
'vierten_'
'stein_'
'adt_'
'türkischen_'
'ir_'
'Xon_'
'rat_'
'fü_'
'galt_'
'französischen_'
'entstand_'
'nennt_'
'Arena_'
'Nutzer_'
'Kanzlerin_'
'Marke_'
'Barcelona_'
'vorher_'
'FPÖ_'
'Berg_'
'piel_'
'red_'
'informiert_'
'offiziell_'
'samt_'
'atz_'
'Organisation_'
'Rauch_'
'ven_'
'Du_'
'abgeschlossen_'
'sic_'
'un'
'ähnlich_'
'anlage_'
'61_'
'Ruhe_'
'genauso_'
'wichtiger_'
'stieg_'
'Vorwürfe_'
'John_'
'Handel_'
'Lesen_'
'wi_'
'beendet_'
'Salzburg_'
'Schwarz_'
'Verbindung_'
'up_'
'Ausbau_'
'der'
'verlor_'
'Umgang_'
'Nachfolger_'
'Halbzeit_'
'Mercedes_'
'Quadratmeter_'
'Worte_'
'West_'
'Württemberg_'
'rechten_'
'Alf_'
'Gipfel_'
'einiges_'
'verurteilt_'
'800_'
'eien_'
'mixt_'
'Mannschaften_'
'Bach_'
'bzw_'
'erlebt_'
'einzelnen_'
'Schauspieler_'
' . − _'
'85_'
'hervor_'
'mehrfach_'
'Viel_'
'ff_'
'@_'
'kündigte_'
'ehe_'
'funktioniert_'
'richtige_'
'bestätigte_'
'Verkauf_'
'Grundschule_'
'fach_'
'Deutsch_'
'Derzeit_'
'uen_'
'nten_'
'iche_'
'Polen_'
'dürften_'
'gedacht_'
'ga_'
'Körper_'
'jährlich_'
'BMW_'
'vorstellen_'
'Eindruck_'
'Potsdam_'
'geboren_'
'erleben_'
'Krise_'
'gn_'
'entstanden_'
'Dienst_'
'250_'
'sehe_'
'guter_'
'Je_'
'zug_'
'gesprochen_'
'Sänger_'
'leider_'
'Junge_'
'Feld_'
'Inst_'
'Forscher_'
'nis_'
'ionen_'
'Bilanz_'
'l'
'Kader_'
'Anwohner_'
'ehen_'
'außer_'
'kaufen_'
'geraten_'
'Bier_'
'ZK_'
'gehalten_'
'Gold_'
'heuer_'
'haft_'
'Konkurrenz_'
'politik_'
'nger_'
'Ministerpräsident_'
'Trotzdem_'
'Ermittler_'
'Aktualisierung_'
'rung_'
'2007_'
'Meer_'
'Anna_'
'Pokal_'
'  -_'
'Nürnberg_'
'Sturm_'
'Angebote_'
'. ) _'
'jene_'
'fragen_'
'gelegt_'
'zogen_'
'Demo_'
'Journalisten_'
'schule_'
'blieben_'
'Ems_'
'ges_'
'höher_'
'rg_'
'Anlage_'
'Manager_'
'Hermann_'
'Regen_'
'ek_'
'Stich_'
'Gedanken_'
'König_'
'Premiere_'
'Augsburg_'
'nte_'
'Büro_'
'Ehe_'
'Gst_'
'geschafft_'
'Kapitän_'
'hren_'
'Tier_'
'Europas_'
'Norden_'
'geschrieben_'
'ef_'
'tzt_'
'wobei_'
'zugleich_'
'Obwohl_'
'Bauch_'
'bau_'
'120_'
'gesucht_'
'voh_'
'Groß_'
'ommen_'
'List_'
'unten_'
'immerhin_'
'bessere_'
'durfte_'
'keinem_'
'besucht_'
' -  _'
'nannte_'
'di'
'Leistungen_'
'manche_'
'Odem_'
'Nord_'
'Nachwuchs_'
'Party_'
'isst_'
'Rat_'
'russischen_'
'egen_'
'schwierig_'
'for_'
'eng_'
'amerikanischen_'
'park_'
'programm_'
'geplante_'
'Messe_'
'Daher_'
'Schloss_'
'Israel_'
'Erfahrungen_'
'Brücke_'
'chaft_'
'bezeichnet_'
'Sonne_'
'tten_'
'begeistert_'
'  ._'
'Tempo_'
'getan_'
'Damals_'
'96_'
'Gelegenheit_'
'Weiß_'
'wpo_'
'TuS_'
'schreiben_'
'Sir_'
' . )_'
'ind_'
'hilft_'
'Demokratie_'
'Tages_'
'Bäume_'
'Name_'
'Live_'
'enen_'
'Einrichtung_'
'LAN_'
'Real_'
'politisch_'
'Darüber_'
'licher_'
'App_'
'Tobias_'
'Führen_'
'Löwen_'
'EH_'
' - , _'
'berichten_'
'rei_'
'notwendig_'
'Weltmeister_'
' ) : _'
'Gerhard_'
'Ziele_'
'verdient_'
'Rhein_'
'Los_'
'Zuvor_'
'kleiner_'
'EWS_'
'fjo_'
'Außenminister_'
'cken_'
'Gründe_'
'ei'
'zusätzlich_'
'aten_'
'bahn_'
'unserem_'
'Klinik_'
'63_'
'Rock_'
'FFr_'
'Niedersachsen_'
'jahr_'
'wichtigsten_'
'wald_'
'aum_'
'warf_'
'Pein_'
'davor_'
'Herren_'
'soziale_'
'Oliver_'
'holte_'
'Etwa_'
'bvg_'
'Bruder_'
'persönlich_'
'KURIER_'
'vorgestellt_'
'efn_'
'Grün_'
'gýs_'
'64_'
'britische_'
'All_'
'verband_'
'rechnet_'
'inen_'
'Eröffnung_'
'wen_'
'Marcel_'
'May_'
'live_'
'verstehen_'
'tin_'
'verbunden_'
'wichtigen_'
'gelungen_'
'Produkte_'
'Termin_'
'Open_'
'62_'
'Urlaub_'
'Osten_'
'Insel_'
'Kita_'
'Aussage_'
'klare_'
'hoffen_'
'Ludwig_'
'tjdi_'
'verfahren_'
'elle_'
'© _'
'hinzu_'
'Werder_'
'Wagner_'
'Rückkehr_'
'passt_'
'Pass_'
'Alltag_'
'ierten_'
'deutscher_'
'Rest_'
'schauen_'
' # _'
'daraus_'
'britischen_'
'folgte_'
'Be_'
'isten_'
'eten_'
'ro_'
'Klub_'
'region_'
'Minister_'
'erzielte_'
'au'
'Basis_'
'preis_'
'Zwischen_'
'Haut_'
'lasse_'
'Q'
'Welche_'
'wahrscheinlich_'
'Keller_'
'Autobahn_'
'Werke_'
'Karte_'
'ARD_'
'Teilnahme_'
'gearbeitet_'
'Schalke_'
'Modell_'
'gemeldet_'
'gefahren_'
'Simon_'
'ckt_'
'Patrick_'
'Pro_'
'Dir_'
'Botschaft_'
'ale_'
'Mark_'
'aden_'
'erklären_'
'Umfrage_'
'Senioren_'
'Erde_'
'arten_'
'Felix_'
'größere_'
'are_'
'Zweifel_'
'gesorgt_'
'ischer_'
'Test_'
'führ_'
'Saal_'
'Beruf_'
'überall_'
'ü'
'Regeln_'
'Männern_'
'übernimmt_'
'Fahrbahn_'
'fordern_'
'Liter_'
'veröffentlicht_'
'Veranstalter_'
'plan_'
'ete_'
'Andrea_'
'zuständig_'
'tief_'
'aufgestellt_'
'Eigentlich_'
'Eier_'
'Städte_'
'Jamaika_'
'Fläche_'
'begleitet_'
'ität_'
'erte_'
'gestiegen_'
'Förderung_'
'Beil_'
'Jens_'
'nud_'
'ons_'
'spät_'
'essen_'
'besonderen_'
'achten_'
'71_'
'Nachbarn_'
'Uwe_'
'zweimal_'
'Wehr_'
'Große_'
'Sorgen_'
'Details_'
'Industrie_'
'Manfred_'
'Hals_'
'melden_'
'trat_'
'dahin_'
'RB_'
'Friedrich_'
'Zunächst_'
'X'
'Vorhaben_'
'Europäischen_'
'Gästen_'
'verlieren_'
'Darmstadt_'
'chte_'
'Zugang_'
'füg_'
'udn_'
'Weihnachten_'
'ät_'
'Tradition_'
'72_'
' " " _'
'Hersteller_'
'vorerst_'
'Vorsitzenden_'
'Smartphone_'
'türkische_'
' - - _'
'überraschend_'
'Städten_'
'Handy_'
'Frankfurter_'
'gewinnt_'
'vorgesehen_'
'Anlass_'
'langsam_'
'steckt_'
'vorbereitet_'
'tzen_'
'indem_'
'alleine_'
'schneller_'
'Sand_'
'Beitrag_'
'kürzlich_'
'bot_'
'Plus_'
'größer_'
'tor_'
'Seehofer_'
'Personal_'
'Trend_'
'unde_'
'gebeten_'
'Hertha_'
'Paar_'
'Höhepunkt_'
'band_'
'Fenster_'
'entwickeln_'
'tadt_'
'acher_'
'ies_'
'nich_'
'geblieben_'
'verändert_'
'Hass_'
'Investitionen_'
'hab_'
'teilt_'
'iner_'
'ener_'
'öffentliche_'
' '
'relativ_'
'Flucht_'
'schlug_'
'iel_'
'teils_'
'ps_'
'Westfalen_'
'hinten_'
'durchs_'
'Neu_'
'Planung_'
'Angeklagte_'
'Viertel_'
'bare_'
'Schneider_'
'ring_'
'Häuser_'
'66_'
'letztlich_'
'glaube_'
'Freiheit_'
'stolz_'
'Anspruch_'
'Marc_'
'organisiert_'
'see_'
'Allein_'
'off_'
'Gymnasium_'
'falls_'
'richtigen_'
'Studenten_'
'Strom_'
'reis_'
'teuer_'
'Sollte_'
'ise_'
'halben_'
'Umgebung_'
'Haushalt_'
'Auge_'
'daraufhin_'
'freie_'
'Auswahl_'
'Profi_'
'Westen_'
'its_'
'Johann_'
'Roman_'
'iten_'
'Mitarbeitern_'
'finde_'
' , , _'
'Schuss_'
'ton_'
'schützen_'
'res_'
'runde_'
'Rom_'
'Mein_'
'plus_'
'Bayer_'
'Banken_'
'Brandenburg_'
'Fokus_'
'Lebens_'
'stattfinden_'
'llt_'
'Zuge_'
'schlägt_'
'Moskau_'
'Stars_'
'dorfer_'
'eh_'
'Tom_'
'indes_'
'Rückstand_'
'Ecke_'
'Einfluss_'
' ! " _'
'echt_'
'endet_'
'gegründet_'
'La_'
'Stürmer_'
'Risiko_'
'"- _'
'extrem_'
'stich_'
'Bisher_'
'weist_'
'J'
'les_'
'Wild_'
'uss_'
'Opposition_'
'ant_'
'Stein_'
'Tonnen_'
'vergessen_'
'p'
' ... _'
'punkt_'
'verkehr_'
'präsentieren_'
'stammt_'
'fall_'
'PS_'
'plant_'
'Einwohner_'
'Julia_'
'Ralf_'
'Red_'
'rein_'
'Luther_'
'ri_'
'geschlagen_'
'\u_'
'Zimmer_'
'Marco_'
'ä'
'Generation_'
'Google_'
'Zuletzt_'
'ufo_'
'Richard_'
'Geschichten_'
'by_'
'Zustand_'
'trug_'
'Abstimmung_'
'außerhalb_'
'Ausgleich_'
'ufen_'
'Herzen_'
'nge_'
'Rum_'
'latz_'
'historischen_'
'Million_'
'zusätzliche_'
'Versuch_'
'Parkplatz_'
'glaubt_'
'eite_'
'67_'
'Spieltag_'
'glauben_'
'beziehungsweise_'
'Kaffee_'
'ass_'
'Stuttgarter_'
'geschaffen_'
'dringend_'
'hängt_'
'egal_'
'700_'
'Vorsprung_'
'verzichten_'
'möglicherweise_'
'bel_'
'Freiburg_'
'Hauch_'
' .- _'
'ernst_'
'Gebiet_'
'Aufstieg_'
'herum_'
'mA_'
'sn_'
'mmen_'
'nennen_'
'eint_'
'Himmel_'
'linken_'
'. , _'
'V'
'Vorstellung_'
'rechte_'
'Kamera_'
'entlang_'
'Handball_'
'68_'
'Terror_'
'laufenden_'
'81_'
'ständig_'
'Hauses_'
'erhöht_'
'Holz_'
'Vorbereitung_'
'x'
'Bauer_'
'Apple_'
'Jahrzehnten_'
'fort_'
'falsch_'
'Freundin_'
'Hessen_'
'2005_'
'Mittelpunkt_'
'Stephan_'
'Inzwischen_'
'Gott_'
'Statt_'
'tr_'
'sa_'
'tot_'
'Vorfeld_'
'Putin_'
'Uni_'
'Freitagabend_'
'Gewinn_'
'Niveau_'
'Siel_'
'Behörde_'
'Tuch_'
'in'
'warnt_'
'behandelt_'
'nz_'
'Agentur_'
'Verhalten_'
'ein'
'Ü'
'Vorschlag_'
'är_'
'Produktion_'
'Landrat_'
'Fach_'
'Hoch_'
'roten_'
'diskutiert_'
'mittel_'
'Sender_'
'Rainer_'
'Bedingungen_'
'schließen_'
'eicht_'
'Pen_'
'2006_'
'Ernst_'
'lädt_'
'g'
'internationale_'
'kreis_'
'Mitgliedern_'
'bi_'
'starb_'
'morgen_'
'Herausforderung_'
'Ä'
'miteinander_'
'Loch_'
'Sinne_'
'lung_'
'Un_'
'wirft_'
'Verdacht_'
'tät_'
'ell_'
'Wolfsburg_'
'Vorfall_'
'Esc_'
'Heimspiel_'
'siech_'
'kurze_'
'schöne_'
'ment_'
'gte_'
'zeiten_'
'eiten_'
'Ursache_'
'ol_'
'Verhältnis_'
'Räume_'
'95_'
'ly_'
'liege_'
'Gang_'
'wartet_'
'Elf_'
'den'
'ö'
'erden_'
'Mexiko_'
'kurzen_'
'reagiert_'
'Weißen_'
'fühlen_'
'Neues_'
'Werte_'
'Ejf_'
'Anschließend_'
'mitten_'
'Lukas_'
'zählen_'
'bilden_'
'Jahrhundert_'
'Gemeinsam_'
'Demnach_'
'Nichte_'
'Institut_'
'Meyer_'
'Immerhin_'
'reisen_'
'Tatort_'
'Nachricht_'
'zentrale_'
'News_'
'Yemen_'
'1860_'
'feierte_'
'Größe_'
'Wahlen_'
'befinden_'
'Kindergarten_'
'weite_'
'Wirt_'
'erstes_'
'halb_'
'Audi_'
'73_'
'holt_'
'Obama_'
'rief_'
'pen_'
'tat_'
'aufmerksam_'
'Zuschauern_'
' [ _'
'wählen_'
'Weber_'
'wusste_'
'./_'
'ndes_'
'passieren_'
'perfekt_'
'eld_'
'erlaubt_'
'Chor_'
'ringen_'
'hrt_'
'Spur_'
'M'
'James_'
'Partien_'
'trafen_'
'ojdiu_'
'Kino_'
'Angeklagten_'
'arm_'
'ih_'
'Verband_'
'Umwelt_'
'Laufe_'
'vo'
'verliert_'
'Kooperation_'
'und'
'selber_'
'OEM_'
'entsprechende_'
'ward_'
'Nordrhein_'
'Ami_'
'Schülern_'
'Bedarf_'
'Mainz_'
'lichkeit_'
'We_'
'schlagen_'
'näher_'
'investiert_'
'erinnern_'
' "_'
'Div_'
'halbe_'
'Umfeld_'
'sodass_'
'Oberbürgermeister_'
'Landtag_'
'Bernhard_'
'io_'
'beträgt_'
'Hände_'
'Osnabrück_'
'Julian_'
'positive_'
'klingt_'
'Schnitt_'
'Halt_'
'froh_'
'ausgezeichnet_'
'tage_'
'gelassen_'
'gestorben_'
'einig_'
'Küche_'
'Teilen_'
'gruppen_'
'Mitteilung_'
'Fernsehen_'
'Alten_'
'Geschäfte_'
'rbeit_'
'eigener_'
'laden_'
'Temperaturen_'
' ? _'
'Branche_'
'Vertrauen_'
'y'
'Sprecherin_'
'Y'
'Besitzer_'
'Gesundheit_'
'amerikanische_'
'Song_'
'Heinrich_'
'Neuer_'
'Flüchtlingen_'
'Arzt_'
'Süden_'
'Besuchern_'
'Spenden_'
'wächst_'
'eft_'
'id_'
'77_'
'fühlt_'
'vieles_'
'ry_'
'chule_'
'h'
'Kevin_'
'dl_'
'wachsen_'
'besuchen_'
'lose_'
'Traum_'
'Stadtverwaltung_'
'deutsch_'
'damaligen_'
'eingestellt_'
'versuchte_'
'Formel_'
'Linken_'
'Brief_'
'größeren_'
'ti_'
'ödem_'
'festgestellt_'
'Kiel_'
'Ansicht_'
'bekannte_'
'heißen_'
'wirken_'
'co_'
'Großen_'
'Gicht_'
'Schiedsrichter_'
'Manchester_'
'G20_'
'Brei_'
'Bundeswehr_'
'nes_'
'Profis_'
'Spuren_'
'Konflikt_'
'außen_'
'team_'
'vieler_'
'echte_'
'hast_'
'Nutzung_'
'Umsatz_'
'69_'
'Halbfinale_'
'dne_'
'Rücken_'
'herrscht_'
'Forderung_'
'Umsetzung_'
'Bezirk_'
'Wissen_'
'Afrika_'
'Verantwortlichen_'
'wechsel_'
'ng'
'Praxis_'
'kleines_'
'Leverkusen_'
'j'
'Sorge_'
'net_'
'Verteidiger_'
'Reaktion_'
'Phase_'
'Schäden_'
'Aktionen_'
'Aktien_'
'offensichtlich_'
'französische_'
'Aussagen_'
'zahl_'
'abend_'
'aufgebaut_'
'bewegen_'
'Lieder_'
'Amazon_'
'Kim_'
'Integration_'
'dauern_'
'stimmt_'
'Anders_'
'76_'
'Mehrere_'
'urger_'
'Beinen_'
'Gefängnis_'
'cum_'
'höhere_'
'wahr_'
'tisch_'
'gefährlich_'
'fahrt_'
'tern_'
'Jubiläum_'
'ABM_'
' ­_'
'Vorwurf_'
'one_'
'Klein_'
'gebiet_'
'Alm_'
'Alternative_'
'Japan_'
'bestimmt_'
'übe_'
'Andere_'
'om_'
'Beziehungen_'
'privaten_'
'S'
'schafft_'
'aben_'
'nahezu_'
'Ulrich_'
'klein_'
'Sachschaden_'
'Beamte_'
'späten_'
'Papier_'
'be'
'Summe_'
'fünften_'
'Station_'
'sin_'
'Investoren_'
'angeblich_'
'berichteten_'
'ah_'
'lautet_'
'Klassen_'
'voran_'
'Süd_'
'erger_'
'AMD_'
'umgesetzt_'
'hs_'
'Dresden_'
'gesellschaft_'
'bs_'
'mm_'
'welt_'
'Lange_'
'edn_'
'hundert_'
'irgendwann_'
'Erklärung_'
'gestartet_'
'reise_'
'fjof_'
'do_'
'Rad_'
'übernahm_'
'Bord_'
'Untersuchung_'
'lan_'
'dauert_'
'volle_'
'Manuel_'
'prüfen_'
'Franken_'
'Landgericht_'
'ZDF_'
'Regisseur_'
'Eintritt_'
'verteilt_'
'Meine_'
'entsprechend_'
'Gleichzeitig_'
'Opel_'
'überrascht_'
'99_'
'Falle_'
' ( ) _'
'Lauch_'
'system_'
'welcher_'
'St'
'Jungs_'
'Bücher_'
'eigenes_'
'Erinnerung_'
'Norbert_'
'Mio_'
'Wunder_'
'lin_'
'rich_'
'Café_'
'mach_'
'betrieb_'
'retten_'
'Tote_'
'Wals_'
'that_'
'Abstand_'
'Duo_'
'ktion_'
'Otto_'
'ystem_'
'Baustelle_'
'gestalten_'
'ender_'
'liste_'
'russische_'
'Tatsächlich_'
'gung_'
'Strafe_'
'Lager_'
'74_'
'interessiert_'
'keiten_'
'verstärkt_'
'U'
'ände_'
'international_'
'Dirk_'
'ellen_'
'pass_'
'Fahrrad_'
'Sex_'
'zuerst_'
'Ge_'
'grundsätzlich_'
'spiele_'
'ge'
'eise_'
'Waren_'
'Toten_'
'wart_'
'86_'
'frage_'
'Qualifikation_'
'Ohr_'
'informieren_'
'beschädigt_'
'möchten_'
'del_'
'Vorteil_'
'Zentimeter_'
'Samstagabend_'
'Zweiten_'
'Freunden_'
'Sven_'
'Bass_'
'Ausschuss_'
'3000_'
'Zehn_'
'teilen_'
'Feier_'
'Villingen_'
'Abgeordneten_'
'Atmosphäre_'
'ski_'
'dürfe_'
'fr_'
'ak_'
'vs_'
'Ordnung_'
'ct_'
'mz_'
'bekannten_'
'Anti_'
'baren_'
'en'
'unterschiedlichen_'
'yer_'
'gerufen_'
'Becker_'
'voraussichtlich_'
'Eber_'
'Meisterschaft_'
'Mario_'
'ficht_'
'nk_'
'ausschließlich_'
'sdorf_'
'Sky_'
'hmen_'
'Bürgern_'
'geschäft_'
'setzten_'
'pur_'
'erung_'
'rden_'
'Entscheidungen_'
'Barbara_'
'Staffel_'
'Pflege_'
'Ö'
'Anwalt_'
'Pop_'
'reiche_'
'verkaufen_'
'glücklich_'
'öffnen_'
'baut_'
'Album_'
'Sechs_'
'sc_'
'äge_'
'Rechte_'
'sorgten_'
'Manche_'
'Abwehr_'
'ismus_'
'gleiche_'
'Schnee_'
'5000_'
'Ulm_'
'europäische_'
'Beschluss_'
'Kreuz_'
'Lied_'
'Unsere_'
'pt_'
'durchgeführt_'
'Abschied_'
'ses_'
'kel_'
'82_'
'&_'
'tel_'
'Mittlerweile_'
'liches_'
'tu_'
'sport_'
'Infrastruktur_'
'fit_'
'DiePresse_'
'Pr'
'einiger_'
'?_'
'Hafen_'
'Kur_'
'angenommen_'
'bezahlen_'
'kraft_'
'brachten_'
'England_'
'Fass_'
'jeweiligen_'
'hört_'
'Mannes_'
'Songs_'
'Ehefrau_'
'Flächen_'
'cen_'
'beobachtet_'
'lösen_'
'Eibe_'
'ORF_'
'Dauer_'
'Jury_'
'Aufgrund_'
'Wann_'
'saß_'
'verpflichtet_'
'denkt_'
'Alls_'
'kümmern_'
'Waffen_'
') _'
'hängen_'
'grünen_'
'Unser_'
'inklusive_'
'og_'
'Z'
'Radfahrer_'
'offiziellen_'
'78_'
'Innenminister_'
'auc_'
'Gottesdienst_'
'Gute_'
'Behandlung_'
'Posten_'
'bestehen_'
'Maus_'
'ba_'
'denke_'
'geändert_'
'Auswirkungen_'
'gang_'
'Lust_'
'zunehmend_'
'Tennis_'
'verbessern_'
'Unternehmer_'
'Kilometern_'
'Erfolge_'
'San_'
'ober_'
'gelte_'
'Heim_'
'ran_'
'Stadtteil_'
'Begegnung_'
' . © _'
'Zustimmung_'
'bezeichnete_'
'Wird_'
'abe_'
'Linz_'
'erzielt_'
'Derby_'
'Wirkung_'
'entsteht_'
'bezahlt_'
'meier_'
'Prüfung_'
'Pan_'
'Abgeordnete_'
'leer_'
'Tausende_'
'entsprechenden_'
'Messer_'
'Gegenteil_'
'Einschätzung_'
'ey_'
'Neuen_'
'Griechenland_'
'weitgehend_'
'Roland_'
'deswegen_'
'Unternehmens_'
'Fahren_'
'0'
'Ben_'
'ödes_'
'geholt_'
'erten_'
'Text_'
'drauf_'
'cker_'
'ergeben_'
'Beteiligten_'
'Alkohol_'
'fläche_'
'erfüllt_'
'kte_'
'erfolgt_'
'79_'
'verabschiedet_'
'kommende_'
'Zeitraum_'
'Schröder_'
'chs_'
'stimmen_'
'Günther_'
'Alt_'
'hie_'
'gerät_'
'Amerikaner_'
'Senat_'
'führung_'
'wei_'
'Hektar_'
'erreichte_'
'ung'
'Schweden_'
'oh_'
'Sitz_'
'Videos_'
'erzählen_'
'gestaltet_'
'Eigentümer_'
'besetzt_'
'Geräte_'
'Umbau_'
'Jahn_'
'alen_'
'Infos_'
'weißen_'
'Studium_'
'Tanz_'
'gehörte_'
'Filme_'
'oe_'
'wild_'
'Wilhelm_'
'Kommentar_'
'af_'
'Schreiben_'
'Angreifer_'
'det_'
'Sportler_'
'Fahrzeugen_'
'Einrichtungen_'
'Grundstück_'
'Amerika_'
'Einsatzkräfte_'
'Restaurant_'
'wünschen_'
'Aufsteiger_'
'höchsten_'
'Drogen_'
'Jean_'
'Touristen_'
'Beziehung_'
'warm_'
'TSG_'
'Ausgabe_'
'Mittwochabend_'
'olitik_'
'Lob_'
'Ruf_'
'belegt_'
'Hinweis_'
'Veränderungen_'
'Truppe_'
'2002_'
'Aktivitäten_'
'Tel_'
'Respekt_'
'vorm_'
'Arbeitgeber_'
'beraten_'
'Regionen_'
'cs_'
'87_'
'ßt_'
'ATM_'
'Herbert_'
'Redaktion_'
'Dienstagabend_'
' "  _'
'2004_'
'Ware_'
'Digitalisierung_'
'vergangene_'
'im'
'Justiz_'
'Forst_'
'rk_'
'83_'
'Republik_'
'tand_'
'nberg_'
'profitieren_'
'schwarzen_'
'schließt_'
'eigne_'
'Lisa_'
'Afghanistan_'
'hilfe_'
'nu_'
'ahren_'
'Jobs_'
'er'
'ute_'
'wi'
'ard_'
'offene_'
'Anklage_'
'Fritz_'
'einzelne_'
'Widerstand_'
'Instagram_'
'Bundeskanzlerin_'
'rät_'
'persönlichen_'
'Professor_'
'freute_'
'Werbung_'
'kirche_'
'Schauspielerin_'
'gesetz_'
'Grundlage_'
'Lufthansa_'
'harte_'
'schloss_'
'kehr_'
'manchen_'
'dern_'
'Jung_'
'solcher_'
'Einführung_'
'Areal_'
'erhöhen_'
'AZ_'
'Sabine_'
'sc'
'durften_'
'Kritiker_'
'benötigt_'
'Unterschied_'
'ode_'
'nken_'
'Klage_'
'ucht_'
'vergeben_'
'Chefin_'
'HSV_'
'Bislang_'
'Gegensatz_'
'Einnahmen_'
'ette_'
'ings_'
'Interessen_'
'q'
'bisherige_'
'betreut_'
'oren_'
'daten_'
'Roten_'
'ruppe_'
'nacht_'
'HSG_'
'iere_'
'Sieb_'
'schönen_'
'genießen_'
'ausen_'
'gelingt_'
'Leser_'
'ältere_'
'Bündnis_'
'äre_'
'kritisierte_'
'rote_'
'ausreichend_'
'Haltung_'
'grüne_'
'Spielern_'
'Sonnabend_'
'Würde_'
'Kandidat_'
'verboten_'
'bauer_'
'Stil_'
'Leiterin_'
'leitet_'
'möglichkeiten_'
'verhalten_'
'entschied_'
'iges_'
'Unbekannte_'
'Rekord_'
'Tipps_'
'womöglich_'
'88_'
'Baus_'
'Not_'
'führten_'
'verwies_'
'Dadurch_'
'Überraschung_'
'dran_'
'projekt_'
'Ihm_'
'arbeitete_'
'bvt_'
'schwarz_'
'gelernt_'
'persönliche_'
'Abends_'
'ätze_'
'Anzahl_'
'Schwester_'
'Service_'
'Coburg_'
'ose_'
'bestimmten_'
'ller_'
'Genau_'
'äußerst_'
'Versorgung_'
'bild_'
'intensiv_'
'ausgesprochen_'
'Vortrag_'
'Pressekonferenz_'
'antreten_'
'brauche_'
'Türen_'
'o'
'da'
'Anbieter_'
'spielten_'
'verletzte_'
'C'
'ausgeschlossen_'
'Börse_'
'Sendung_'
'Gemeinschaft_'
'einstimmig_'
'werd_'
'sichern_'
'finanzielle_'
'Einzug_'
'si'
'He_'
'APA_'
'bestimmte_'
'Bergedorfer_'
'schwerer_'
'Gesprächen_'
'großem_'
'vermeiden_'
'Armee_'
'geriet_'
'Volk_'
'technischen_'
'eine'
'dung_'
'gel_'
'Bürgermeisterin_'
'ẞ'
'gerechnet_'
'lingen_'
'Bai_'
'verfolgt_'
'haut_'
'halte_'
'Montagabend_'
'Forderungen_'
't'
'Ring_'
'schien_'
'Kräfte_'
'drehen_'
'Österreichs_'
'98_'
'eis_'
'deutschland_'
'Software_'
'geschickt_'
'draußen_'
'ationen_'
'Ungarn_'
'Bereichen_'
'vorgeworfen_'
'betroffenen_'
'eck_'
'Eva_'
'Betreiber_'
'Ärger_'
'84_'
'Lindner_'
'quasi_'
'lobte_'
'Prinz_'
'Di'
'Sanktionen_'
'Version_'
'greifen_'
'verwendet_'
'Wachstum_'
'ursprünglich_'
'Vereinigten_'
'Quartal_'
'Claudia_'
'Betroffenen_'
'geboten_'
'Beteiligung_'
'Klar_'
'gesichert_'
'Boot_'
'trieb_'
'Hochschule_'
'habt_'
'eingerichtet_'
'Harald_'
'einte_'
'österreichischen_'
'Bundes_'
'Anton_'
'heiten_'
'Laden_'
'ule_'
'Reform_'
'United_'
'% _'
'Umzug_'
'Kaiser_'
'Darin_'
'we'
'Verbot_'
'Stattdessen_'
'Jazz_'
'Bremer_'
'Nationen_'
'Großteil_'
'stammen_'
'assen_'
'Hat_'
'Baby_'
'Anzeige_'
'zweiter_'
'ragen_'
'bvdi_'
'Alfs_'
'unterschiedliche_'
'erinnerte_'
'welchen_'
'Gleich_'
'dienen_'
'Frieden_'
'uren_'
'Steuer_'
'Donnerstagabend_'
'► _'
'Landwirtschaft_'
'sel_'
'Wahrheit_'
'Bann_'
'Vorgehen_'
'Fabian_'
'Innsbruck_'
'landete_'
'Weiden_'
'erscheint_'
'Olympia_'
'technik_'
' ? " _'
'bedroht_'
'Flammen_'
'untersucht_'
'private_'
'Davon_'
'Übernahme_'
'kurs_'
'Händen_'
'reagieren_'
'Vize_'
'ngs_'
'Re_'
'ws_'
'weisen_'
'städtischen_'
'weshalb_'
'ermöglichen_'
'Ehren_'
'ß'
'Netzwerk_'
'Altstadt_'
'Benjamin_'
'Computer_'
'Material_'
'tolle_'
'junger_'
'fahrer_'
'handeln_'
'Super_'
'ild_'
'Regionalliga_'
'bewegt_'
'Runden_'
'historische_'
'geklärt_'
'schaffte_'
'ängen_'
'Experte_'
'rger_'
'höchste_'
'SV'
'port_'
'Finanzierung_'
'Torwart_'
'... _'
'Volker_'
'Mord_'
'old_'
'Schmid_'
'2003_'
'Ass_'
'ACLs_'
'ya_'
'einzigen_'
'Abteilung_'
'NS_'
'Günter_'
'Applaus_'
'endgültig_'
'Gerät_'
'ALB_'
'losen_'
'War_'
'Sei_'
'Golf_'
'drin_'
'Zuhörer_'
'Marktplatz_'
'Bamberg_'
'RTL_'
'Begriff_'
'sammeln_'
'eb_'
'mu_'
'T'
'abgelehnt_'
'Verständnis_'
'Ihrer_'
'tjf_'
'hauch_'
'vereins_'
'Bar_'
'wechseln_'
'Kilogramm_'
'Strategie_'
'Gegend_'
'ay_'
'OS_'
'Spielzeit_'
'Maßnahme_'
'Mir_'
'Ebene_'
'zahlt_'
'Verlauf_'
'gehandelt_'
'Tourismus_'
'gerecht_'
'klasse_'
'heimischen_'
'2001_'
'Sängerin_'
'Sprung_'
'Kra'
'verhindert_'
'ffen_'
'Kohl_'
'maximal_'
'ate_'
'Europäische_'
'mn_'
'konzert_'
'Hinzu_'
'maßnahmen_'
'ieg_'
'Petra_'
'hinweg_'
'erhielten_'
'Der'
'frisch_'
'K'
'sst_'
'dankte_'
'OZ_'
'quote_'
'Mittelbayerische_'
'Plattform_'
'Firmen'
'zeitung_'
'hoher_'
'Timo_'
'Eishockey_'
'mi'
'Blei_'
'verspricht_'
'Aals_'
'Blut_'
'aren_'
'LVZ_'
'kräftig_'
'Figur_'
' + _'
'https_'
'Siege_'
'Torhüter_'
'pp_'
'Betreuung_'
'unkt_'
'Nato_'
'behörde_'
'Wand_'
'igt_'
'Gewinner_'
'schwarze_'
'gekauft_'
'präsentierte_'
'bittet_'
'betrifft_'
'Einheit_'
'letzter_'
'Betriebe_'
'91_'
'passen_'
'plätze_'
'Comeback_'
'Später_'
'G'
'hoffe_'
'leichter_'
'Diesen_'
'singen_'
'O'
'Verletzte_'
'Allgemeine_'
'Jäger_'
'fü'
'Holstein_'
'gestohlen_'
'unmittelbar_'
'ausgerechnet_'
'Nationalspieler_'
'form_'
'Protest_'
'Pflanzen_'
'ahl_'
'bundesweit_'
'Sieben_'
'Erwachsene_'
'Berufung_'
'Angesichts_'
'Viertelfinale_'
'Arbeitsplätze_'
'Steuern_'
'is'
'Wichtig_'
'IHK_'
'Aufmerksamkeit_'
'griff_'
'General_'
'startete_'
'Funktion_'
'Marie_'
'künftigen_'
'eindeutig_'
'Toren_'
'Leuten_'
'Kuchen_'
'Acht_'
'öffnet_'
'Variante_'
'po_'
'Dax_'
'fragt_'
'Reihen_'
'Kauf'
'ina_'
'verbot_'
'richten_'
'musikalische_'
'Weiter_'
'künftige_'
'Die'
'Migranten_'
'Bea_'
'klären_'
'Anhalt_'
'Wall_'
'Ehre_'
'LN_'
'werte_'
'D'
'freilich_'
'Schwenningen_'
'Umfragen_'
'ägen_'
'rücken_'
'Front_'
'Konsequenzen_'
'Vereinen_'
'En_'
'höheren_'
'Ensemble_'
'ehr_'
'ank_'
'Farbe_'
'aussehen_'
'Schleswig_'
'Österreicher_'
'Verlängerung_'
'äußerte_'
'stärken_'
'lass_'
'Maschine_'
'Joch_'
'Direktor_'
'ches_'
'besseren_'
'Bezug_'
'rkt_'
'test_'
'Bildern_'
'engagiert_'
'130_'
'lach_'
'ären_'
'Affäre_'
'ha'
'Erz_'
'ordnung_'
'Steffen_'
'Freien_'
'Weihnachtsmarkt_'
'gemeinschaft_'
'Landratsamt_'
'1500_'
'trag_'
'Ukraine_'
'Farben_'
'va_'
'Ma_'
'Hoffenheim_'
'Hunde_'
'Willen_'
'Anleger_'
'Stärke_'
'Rote_'
'ium_'
'Schuld_'
'Realität_'
'kritisch_'
'echten_'
'Elisabeth_'
'Anne_'
'äuser_'
'jener_'
'Antworten_'
'ier'
'bedarf_'
'ogen_'
'hi_'
'Polizist_'
'Gründer_'
'tig_'
'rinnen_'
'Tals_'
'wahl_'
'ty_'
'een_'
'Ebenso_'
'Tickets_'
'tlich_'
'geschehen_'
'Vorgänger_'
'Gremium_'
'gefällt_'
'ZOLLERN_'
'Pflicht_'
'Händler_'
'bacher_'
'Ganze_'
'langer_'
'welches_'
'Dennis_'
'Seim_'
'folgenden_'
'Investor_'
'überzeugen_'
'Me_'
'Herausforderungen_'
'vollen_'
'massiv_'
'Aktuell_'
'verlangt_'
'Kontakte_'
'll'
'Hagen_'
'Deutscher_'
'übers_'
'versuchten_'
'endete_'
'technische_'
'Istanbul_'
'kurzfristig_'
'kämpft_'
'Skandal_'
'180_'
'Einladung_'
'achen_'
'felder_'
'liefern_'
'bmt_'
'Szenen_'
'Erwartungen_'
'Burg_'
'Gründung_'
'Aussicht_'
'Gr'
'Landesregierung_'
'teilnehmen_'
'greift_'
'Center_'
'saniert_'
'tze_'
'losigkeit_'
'Neustadt_'
'Vielfalt_'
'Dorf'
'Spiegel_'
'wirtschaft_'
'Gutachten_'
'Wissenschaftler_'
'Stationen_'
'eier_'
'"_'
'Verlust_'
'tein_'
'schaut_'
'woche_'
'kurzer_'
'erie_'
'eder_'
'Zähler_'
'Bildungs'
'ersetzt_'
'Demonstranten_'
'Beo_'
'anbieten_'
'des'
'Maschinen_'
'Teilnehmern_'
'Rücktritt_'
'richtet_'
'Vorbild_'
'zerstört_'
'B'
'angekommen_'
'entspricht_'
'sicherlich_'
'Grand_'
'investieren_'
'Ebenfalls_'
'Figuren_'
'geprägt_'
'Kampagne_'
'etliche_'
'DJK_'
'NDR_'
'erläuterte_'
'Ve_'
'Ausgaben_'
'erfolgen_'
'bleibe_'
'folgten_'
'Alte_'
'vierte_'
'geschichte_'
'italienischen_'
'Grenz'
'Amtszeit_'
'ften_'
'bereitet_'
'Orten_'
'r'
'pr'
'aal_'
'praktisch_'
'führer_'
'Katharina_'
'Seil_'
'Mieter_'
'Euro'
'Vettel_'
'tik_'
'Premier_'
'Irak_'
'Sarah_'
'hielten_'
'verlegt_'
'Tatsache_'
'Mauer_'
'spätestens_'
'bitte_'
'das'
'Sind_'
'Regie_'
'geprüft_'
'ahlen_'
'rasch_'
'Briten_'
'spüren_'
'Termine_'
'garten_'
'fliegen_'
'Entwurf_'
'gten_'
'versorgt_'
'Schritte_'
'Kann_'
'erschienen_'
'Bezirksliga_'
'leistung_'
'sing_'
'sahen_'
'te'
'osten_'
'bestens_'
'fn_'
'anz_'
'Sonntagabend_'
'Nationalmannschaft_'
'erfüllen_'
'110_'
'Ins_'
'89_'
'Susanne_'
'via_'
'gr_'
'stecken_'
'Anstieg_'
'verfügt_'
'Krankheit_'
'dreht_'
'Laus_'
'häuser_'
'erfasst_'
'Bonner_'
'Christine_'
'Können_'
'älteren_'
'flächen_'
'seitdem_'
'André_'
'verlängert_'
'meldete_'
'leichte_'
'reichte_'
'Monika_'
'ley_'
'Ter'
'Ach_'
'Druckansicht_'
'Junioren_'
'lo_'
'beobachten_'
'Natur'
'Jonas_'
'Bauarbeiten_'
'Hollywood_'
'Juden_'
'ppe_'
'Rechnung_'
'Rande_'
'Per_'
'za_'
'Beschäftigten_'
'getragen_'
'bekamen_'
'Dominik_'
'Reinhard_'
'Se_'
'how_'
'Blau_'
'Ti'
'rechtzeitig_'
'Akteure_'
'legten_'
'Eines_'
'Schäfer_'
'Referendum_'
'igung_'
'Wieder_'
'äußern_'
'Wohn'
'bayerischen_'
'"  _'
'ruhig_'
'EZB_'
'üsse_'
'els_'
'irche_'
'Darauf_'
'än_'
'Ver_'
'spanischen_'
'übergeben_'
'Trio_'
'beschäftigen_'
'I'
'rbeiten_'
'sh_'
'hfo_'
'Zusammen_'
'eil_'
'direkten_'
'Kriegs'
'Po_'
'behalten_'
'nass_'
'buch_'
'Konkurrenten_'
'schnelle_'
'DNA_'
'konzept_'
'Archiv_'
'heiß_'
'gelangen_'
'Ziel'
'zone_'
'entscheidet_'
'Erden_'
'Aufnahme_'
've'
'besonderes_'
'ruft_'
'Mi_'
'Ihren_'
'sinnvoll_'
'Jahrzehnte_'
'rä'
'fehlte_'
'übrig_'
'rt'
'Sozialdemokraten_'
'ball_'
'Auseinandersetzung_'
'erfolgreiche_'
'go_'
'ten'
'Unterricht_'
'ausgelöst_'
'fu_'
'Leidenschaft_'
'gestanden_'
'tionen_'
'geehrt_'
'beteiligen_'
'Problemen_'
'R'
'errichtet_'
'finanziell_'
'freue_'
' * _'
'Beweis_'
'Anlagen_'
'zumal_'
'offizielle_'
'Wohl_'
'Positionen_'
'verpasst_'
'Maximilian_'
'Mannheim_'
'nung_'
'out_'
'finanziert_'
'anlagen_'
'auen_'
'als'
'Feuerwehren_'
'é'
'modernen_'
'Stellungnahme_'
'Schlag_'
'befand_'
'no'
'Auftritte_'
'Kreisliga_'
'Finanzminister_'
' ‟_'
'Diskussionen_'
'linger_'
'etn_'
'aktion_'
'schlechte_'
'Lösungen_'
'vre'
'genannten_'
'heimer_'
'Orchester_'
'Fußballer_'
'Göttingen_'
'IV_'
'uchen_'
'Tirol_'
'Terror'
'Kanada_'
'ald_'
'irgendwie_'
'Museums'
'Medien'
'Jahrhunderts_'
'xa'
' . '
'nutzte_'
'art'
'Willi_'
'netz_'
'chinesischen_'
'Porsche_'
'entweder_'
'erlitt_'
'Wende_'
'kultur_'
'Oper_'
'mmer_'
'Lastwagen_'
'Clubs_'
'brücke_'
'Rollen_'
'Van_'
'Landesliga_'
'ermöglicht_'
'Wen_'
'Attacke_'
'duschen_'
'beck_'
'häufiger_'
'rufen_'
'deutliche_'
'Pariser_'
'erfolgreichen_'
'Luft'
'ätzen_'
'Sc'
'Albert_'
'ör'
'nutzt_'
'telle_'
'SN_'
'lieben_'
'WDR_'
'finanziellen_'
'Cent_'
'Rand_'
'se'
'Ausnahme_'
'ke'
'weiße_'
'richt_'
'minister_'
'ions'
'fördern_'
'selbstverständlich_'
'Bauern_'
'Arbeiter_'
'änge_'
'jüngste_'
'Schwarzwälder_'
'Kanzler_'
'Auflage_'
'Konzerte_'
'Leit'
'Hamilton_'
'st'
'Basketball_'
'nieder_'
'Stücke_'
'Länge_'
'wer'
'George_'
'rand_'
'Thüringen_'
'klaren_'
'allzu_'
'ser'
'Tabelle_'
'Sto'
'icher_'
'meldet_'
'Kommune_'
'Öl_'
'neuem_'
'club_'
'ien'
'Austria_'
'Australien_'
'Oster'
'Orte_'
'Bayerischen_'
'Siegen_'
'moderne_'
'ade_'
'Austausch_'
'nachts_'
'Früh'
'nu'
'morgens_'
'Analyse_'
'Keeper_'
'Aufbau_'
'gescheitert_'
'Leipziger_'
'mäßig_'
'vertrag_'
'Arabien_'
'gkeit_'
'Zelt_'
'Landtagswahl_'
'Einigung_'
'Franzosen_'
'Dialog_'
' . " _'
'teurer_'
'Licht'
'abgeben_'
'direktor_'
'beteiligten_'
'Bank'
'traditionellen_'
'leiden_'
'ner'
'Allee_'
'Konto_'
'Alters'
'yn_'
'Nase_'
'Super'
'digitalen_'
'Vo'
'Erst'
'su_'
'Knapp_'
'bei'
'Niederlagen_'
'Angeles_'
'wichtigste_'
'willkommen_'
'sage_'
'hlen_'
'fielen_'
'Mittelfeld_'
'Planungen_'
'mo_'
'selben_'
'Wiese_'
'Hinter_'
'schutz_'
'Hotels_'
'Reisen_'
'DRK_'
'Verletzung_'
'OB_'
'Hinspiel_'
'aufnehmen_'
'gelaufen_'
'gefolgt_'
'Modelle_'
'Kasse_'
'Telekom_'
'Des_'
'Ancelotti_'
'enz_'
'Foto'
'm'
'Sparkasse_'
'Offensive_'
'Rostock_'
'betreibt_'
'Bull_'
'Amberg_'
'nr_'
'nochmals_'
'vorhanden_'
'liebe_'
'Schützen_'
'900_'
'mutmaßlichen_'
'Distanz_'
'ch'
'versteht_'
'esen_'
'Einsätze_'
'uz_'
'gesammelt_'
'Moritz_'
'kostenlos_'
'uten_'
'92_'
'Kurt_'
'Gold'
'erzählte_'
'Spitzenreiter_'
'Züge_'
'konkrete_'
'tellen_'
'Mischung_'
'Glas_'
'per'
'asse_'
'Regelung_'
'=_'
'Ki'
'wohnen_'
'ndorf_'
'Hunderte_'
'warnte_'
'schicken_'
'zei_'
'Vorschläge_'
'angen_'
'ähnliche_'
'warb_'
'ieben_'
'mmt_'
'fähig_'
'kleinere_'
'Anerkennung_'
'verfolgen_'
'etzt_'
'ICE_'
'Hut_'
'Steinmeier_'
'iv_'
'dient_'
'damalige_'
'Neuwahlen_'
'hnen_'
'Ford_'
'Best'
'vielmehr_'
'brach_'
'doppelt_'
'Aufwand_'
'wesentlich_'
'Tageblatt_'
'Erstmals_'
'digitale_'
'Magazin_'
'tl_'
'sieh_'
'wesen_'
'teile_'
'stieß_'
'We'
'Inhalt_'
'ichte_'
'zurzeit_'
'momentan_'
'Griff_'
'Auszeichnung_'
'iter_'
'Versammlung_'
'hes_'
'Spannung_'
'Jänner_'
'wehr_'
'Sch_'
'Theater'
'Ge'
'Mode_'
'rie_'
'Her_'
'Verbraucher_'
'erläutert_'
'klassischen_'
'DE'
'Oscar_'
'Las_'
'Weltcup_'
'Kleidung_'
'Berater_'
'leitung_'
'abends_'
'Sch'
'Mini_'
'ck'
'Rente_'
'KN_'
'sterben_'
'Hamm_'
'sches_'
'Zweck_'
'International_'
'pa'
'Allianz_'
'räumen_'
'Manchmal_'
'nac_'
'Kampf'
'Ausdruck_'
'untergebracht_'
'Theresa_'
'Selbst'
'entlassen_'
'Kilo_'
'140_'
'Bevor_'
'ibu_'
'hauses_'
'Vorstellungen_'
'hre_'
'Geburt_'
'350_'
'Aachen_'
'stellvertretende_'
'Rind_'
'Macht'
'genügend_'
'Fortuna_'
'P'
'Dutzend_'
'93_'
'L'
'zentralen_'
'Kreuzung_'
'Holger_'
'ührer_'
'Karin_'
'träger_'
'wohnt_'
'Klubs_'
'zeichnet_'
'trainiert_'
'druck_'
'Erlebnis_'
'Seitdem_'
'uer'
'Schulden_'
'Körperverletzung_'
'ergänzt_'
'Rolf_'
'verbessert_'
'gefördert_'
'verdienen_'
'absolut_'
'drohen_'
'Plätzen_'
'Hütte_'
'hinein_'
'linke_'
'ochen_'
'Aktie_'
'Chaos_'
'Freie_'
'xfsefo_'
'planen_'
'fte_'
'komplette_'
'punkte_'
'Zumindest_'
'an'
'Strecken_'
'Kategorie_'
'Karlsruhe_'
'Forschung_'
'Ersten_'
' ) ; _'
'übertragen_'
'Lebensmittel_'
'erforderlich_'
'Daimler_'
'Ehemann_'
'wünscht_'
'Lars_'
'Balingen_'
'STANDARD_'
'gewisse_'
'Müll_'
'beenden_'
'ast_'
'begrüßt_'
'On_'
'Klima_'
'1999_'
'ordentlich_'
'bester_'
'In'
'Stern_'
'Klinikum_'
'cfj_'
'Taten_'
'informierte_'
'unabhängig_'
'Beste_'
'vn'
'sicherte_'
'räume_'
'ahr_'
'hakt_'
'Kirchen_'
'eignen_'
'ul'
'Nichts_'
'Gm'
'H'
'Tr'
'rl_'
'Erweiterung_'
'hen'
'abgegeben_'
'lein_'
'harten_'
'Identität_'
'musik_'
'punkten_'
'gefasst_'
'Potenzial_'
'Jn_'
'Emmanuel_'
'Parteitag_'
'kamp_'
'falsche_'
'Geschwindigkeit_'
'ehr'
'Erinnerungen_'
'Landschaft_'
'tur_'
'lm'
'Untersuchungen_'
'Schau_'
'kontrolliert_'
'tischen_'
'ugen_'
'Signal_'
'scheinen_'
'Nachrichtenagentur_'
'Öder_'
'positiven_'
'Fakten_'
'angewiesen_'
'ure_'
'ko'
'überwiegend_'
'öfter_'
'gewohnt_'
'Rudolf_'
'Inhalte_'
'wirtschaftliche_'
'Abkommen_'
'Vre'
'enn_'
'ücken_'
'gi_'
'fh'
'dr'
'Sowohl_'
'W'
'feiner_'
'Sehr_'
'it'
'bad_'
'1990_'
'beschreibt_'
'derweil_'
'Zoo_'
'zi'
'nk'
'Amtsgericht_'
'Zwist_'
'landen_'
'rennen_'
'aut_'
'Schüler'
'iehen_'
'bestehenden_'
'Bote_'
'Fr'
'ergab_'
'eht_'
'Ch_'
'Nr_'
'Är'
'siehe_'
'Zugleich_'
'ändert_'
'spannend_'
'bildet_'
'Ski_'
'Busse_'
'Hauptbahnhof_'
'Motor_'
'hrer_'
'Mönchengladbach_'
'äume_'
'linie_'
'Indien_'
'94_'
'jüngst_'
'ble_'
'produziert_'
'Papst_'
'reagierte_'
'ing'
'katholischen_'
'Statistik_'
'Braun_'
'langjährige_'
'Fu'
'Bild'
'wo'
'feierten_'
'deiner_'
'raten_'
'Chef'
'eisen_'
'ih'
'Mode'
'Bundesstraße_'
'Viren_'
'Homepage_'
'ya'
'hm'
'Jerusalem_'
'Laura_'
'Oft_'
'tungen_'
'euch_'
'ausgesetzt_'
'Studien_'
'hob_'
'Kreuz'
'ats'
'Noah_'
'nationalen_'
'Nu'
'Klassenerhalt_'
'Renn'
'Bahn'
'nug_'
'Rottweil_'
'Einsatz'
'frau_'
'schätzt_'
'11'
'angesprochen_'
'Verkehrsunfall_'
'Lena_'
'FSV_'
'Gelb_'
'organisation_'
'Auskunft_'
'E'
'not_'
'ister_'
'breit_'
'Wi'
'gebraucht_'
'Voraussetzungen_'
'wiederholt_'
'interessant_'
'Ei'
'isches_'
'Ministerium_'
'Durchgang_'
'ahn_'
'tz'
'lager_'
'Jochen_'
'gering_'
'Herrmann_'
'rückt_'
'hoff_'
'Organisatoren_'
'III_'
'stürzte_'
'scheiterte_'
'ach'
'Änderung_'
'Kleinen_'
'he'
'Fleisch_'
'wechselte_'
'enge_'
'orm_'
'Prinzip_'
'Harry_'
'schlechter_'
'nter_'
'extra_'
'demnächst_'
'Farb'
'Humor_'
'evangelischen_'
'neu'
'ads_'
'Fazit_'
'Konrad_'
'ücke_'
'Massen'
'Ja'
'Fußgänger_'
'wechselt_'
'dem'
'Kommunikation_'
'Anliegen_'
'Vin'
'BA'
'ett_'
'Chefs_'
'Klassiker_'
'verändern_'
'zimmer_'
'Schwarzwald_'
'Vr'
'Au'
'wirf_'
'Kollege_'
'jdi_'
'our_'
'1992_'
'aison_'
'Pr_'
'ld'
'kündigt_'
'Bn_'
'1'
'Börsen_'
'Rheinland_'
'Eure_'
'Angehörigen_'
'mit'
'u'
'handelte_'
'Neben'
'Ak'
'Bestehen_'
'Bel'
'dt'
'Ursula_'
'Gerd_'
'Chris_'
'suche_'
'Tätigkeit_'
'Innen_'
'burger_'
'solch_'
'Option_'
'160_'
'Post'
'Begründung_'
'Flug_'
'Freizeit_'
'Deswegen_'
'musikalischen_'
'dahinter_'
'usen_'
'vollständig_'
'Planungs'
'Dar'
'ht'
'Jede_'
'geschätzt_'
'Gymnasiums_'
'Axel_'
'tn'
'Gebäudes_'
'iPhone_'
'Augen'
'betrieben_'
'Ia'
'enthalten_'
'ele_'
'Haare_'
'glich_'
'. : _'
'liefert_'
'Kaum_'
'stoppen_'
'soweit_'
'holz_'
'gerettet_'
'Reiter_'
'Bewerber_'
'rad_'
'Wohnen_'
'Abschnitt_'
'geworfen_'
'einsetzen_'
'weiten_'
'Verlag_'
'Erfurt_'
'  "_'
'artikel_'
'Doppel_'
'2'
'isierung_'
'ere'
'enorm_'
'Zoll_'
'absolviert_'
'versuche_'
'gl_'
'Derb_'
'1997_'
'erst'
'halb'
'hte_'
'diskutieren_'
'ive_'
'geäußert_'
'bau'
'zu'
'Überblick_'
'Vorgaben_'
'Stadtwerke_'
'Berufs'
'durchge'
'chts'
'besitzt_'
'Kai_'
'jung_'
'wonach_'
'aufgerufen_'
'Design_'
'Chor'
'Marine_'
'En'
'Klima'
'Buch'
'à_'
'schlechten_'
'Einkommen_'
'engen_'
'Ähnlich_'
'Änderungen_'
'scht_'
'ost'
'Texte_'
'Info_'
'Würzburg_'
'örtlichen_'
'Schicksal_'
'ock_'
'ou_'
'ang'
'Landkreises_'
'Times_'
'Bett_'
'umso_'
'ausgestattet_'
'ührung_'
'wand_'
'Bereiche_'
'16'
'Berichte_'
'verursacht_'
'Regierungs'
'Typ_'
'Trennung_'
'Siemens_'
'Außen'
'Lang'
'liga_'
'National_'
'Hammer_'
'Volkswagen_'
'Niederlanden_'
'am'
'Organisationen_'
'wirtschaftlichen_'
'Armin_'
'begrüßte_'
'ite_'
'Or'
'ka'
'Beratung_'
'Cham_'
'Handels'
'verweist_'
'auses_'
'Bedenken_'
'Land'
'Nr'
'ler'
'chen'
'desto_'
'licht_'
'Erster_'
'phase_'
'wahren_'
'Flüchtlings'
'Einmal_'
'Ehepaar_'
'schnellen_'
'ofen_'
'Straftaten_'
'Jung'
'Mehr'
'zuständige_'
'viertel_'
'Meier_'
'reifen_'
'Dame_'
'Radio_'
'Geschäfts'
'ero'
'erheblich_'
'Konstanz_'
'Knie_'
'with_'
'tr'
'nach'
'cha'
'cht'
'industrie_'
'super_'
'umfasst_'
'tor'
'tjoe_'
'World_'
'Kirchengemeinde_'
'od_'
'Mac'
'fe'
'Kla'
'Autoren_'
'pa_'
'diesjährigen_'
'Internet'
'Graf_'
'gebürtige_'
'Trainings'
'Bill_'
'pi'
'Vordergrund_'
'Schatten_'
'Hahn_'
'Zweite_'
'Schäuble_'
'dachte_'
'bruch_'
'ni'
'politischer_'
'automatisch_'
'Informations'
'Migration_'
'Begeisterung_'
'verzichtet_'
'ziel_'
'Jakob_'
'Lehr'
'bend_'
'Jedes_'
'stattdessen_'
'Sandra_'
'Haben_'
'Hor'
'Kleine_'
'vr'
'Tageszeitung_'
'Wünsche_'
'überlegen_'
'nt'
'solches_'
'ebtt_'
'/ ‟_'
'rm_'
'jh_'
'ber'
'bank_'
'weiter'
'kten_'
'Aufklärung_'
'staatlichen_'
'Löw_'
'NP_'
'Ticket_'
'Keller'
'Risiken_'
'sichtbar_'
'hörde_'
'Cottbus_'
'gericht_'
'Ker'
'übrigen_'
'Schiff_'
'deinem_'
'Ar_'
'sp'
'Talent_'
'Schwerpunkt_'
'Islam_'
'Graz_'
'zuständigen_'
'beinahe_'
'Sigmar_'
'me'
'blickt_'
'Stellvertreter_'
'Kassel_'
'Weltkrieg_'
'Sie'
'Gruppen'
'ück_'
'entscheidenden_'
'bedeuten_'
'Forum_'
'Af'
'mögen_'
'aufgefordert_'
'Michel_'
'tische_'
'bat_'
'bestand_'
'ob'
'Eins_'
'not'
'fragte_'
'Mrd_'
'lacht_'
'Südkorea_'
'Oa'
'firma_'
'entwickelte_'
'Up'
'Passagiere_'
'Maier_'
'Deal_'
'Urlaubs'
'fou'
'Angriffe_'
'zn_'
'mehr'
'Telefonnummer_'
'Si_'
'wn_'
'stimmte_'
'Früher_'
'Mai'
'betrachtet_'
'Moderator_'
'Führungs'
'Kurs'
'Gebühren_'
'niemals_'
'Riesen'
'1998_'
'ert'
'nti'
'kampf_'
'ark_'
'Manz_'
'Stöger_'
'Model_'
'vorgenommen_'
'Sc_'
'Martina_'
'Vormittag_'
'Pressemitteilung_'
'enttäuscht_'
'Lieblings'
'Traditions'
'hn'
'hat'
'Lind'
'normal_'
'fließen_'
'weg'
'ppen_'
'Brasilien_'
'ile_'
'xen_'
'Vol'
'Betrag_'
'nehme_'
'arkt_'
'falschen_'
'Unabhängigkeit_'
'Bundespolizei_'
'bl'
'ae_'
'Schock_'
'von'
'Situationen_'
'Nut_'
'Euros_'
'versorgung_'
'isen_'
'änder_'
'Solche_'
'Kombination_'
'Gro'
'Blumen_'
'kirchen_'
'Gestaltung_'
'Gramm_'
'eiter_'
'fünfte_'
'Belgien_'
'Alfred_'
'Gre'
'nd'
'Behr_'
'kenne_'
'ky_'
'aer_'
'ot'
'pel_'
'spie_'
'Umwelt'
'Kontroll'
'ting_'
'auftreten_'
'Hr'
'rede_'
'Ingolstadt_'
'sit_'
'Proteste_'
'präsident_'
'liest_'
'df'
'Brand'
'gr'
'Efs_'
'rde_'
'Teil'
'4000_'
'Wahlkreis_'
'Ankara_'
'scharf_'
'rl'
'Protest'
'Us'
'Tasche_'
'hm_'
'Doppel'
'xbs_'
'Preis'
'anti'
'nahme_'
'Mc'
'ön_'
'Krebs'
'Gitarre_'
'Dach'
'feier_'
'sowieso_'
'min_'
'kl'
'Pleite_'
'Blut'
'Bra'
'letztes_'
'Ju'
'que_'
'blauen_'
'zeige_'
'sagten_'
'berg'
'Street_'
'sch'
'Pra'
'gehörten_'
'üge_'
'Pro'
'Fs'
'Carlo_'
'mt'
'Information_'
'löst_'
'Seele_'
'Wander'
'ti'
'Pilz_'
'zo'
'Senioren'
'tter_'
'Partei'
'erweitert_'
'fi'
'ter'
'Grün'
'Big_'
'kehrt_'
'gewannen_'
'Event_'
'Zahlreiche_'
'Tu'
'Brigitte_'
'Reaktionen_'
'ce'
'Schließung_'
'Festnahme_'
'speziell_'
'Stock_'
'vermitteln_'
'zei'
'Ci'
'Wald'
'Abstieg_'
'Bn'
'formen_'
'österreichische_'
'zt'
'Vertretern_'
'Peking_'
'total_'
'schwierigen_'
're'
'Vogel'
'zusätzlichen_'
'direkte_'
'Test'
'kümmert_'
'Hand'
'vermutet_'
'sen'
'Bargeld_'
'Katalonien_'
'erhöhte_'
'unver'
'Tal_'
'Verkaufs'
'turm_'
'ßr'
'Erhalt_'
'üblich_'
'Regierungschef_'
'Baum'
'Vorteile_'
'eam_'
'hten_'
'ngt_'
'Je'
'Absage_'
'staatliche_'
'arte_'
'Petry_'
'Video'
'jenen_'
'SPIEGEL_'
'Leiche_'
'Diesmal_'
'Gewicht_'
'pn'
'40'
'MA_'
'pf_'
'Weihnachts'
'osen_'
'Republikaner_'
' " . ( _'
'Geist_'
'BSC_'
'orfer_'
'Oberliga_'
'Asylbewerber_'
'Agenda_'
'kämen_'
'ebene_'
'Ortsteil_'
'Generalsekretär_'
'sechsten_'
'wider_'
'ds'
'+ + + _'
'gm'
'angebot_'
'Maß_'
'Lager'
'Galerie_'
'Carl_'
'Glauben_'
'gelegen_'
'Fraktionschef_'
'Eingang_'
'Roh'
'Birgit_'
'fern_'
'nnt_'
'Ruhestand_'
'Ya'
'Terroristen_'
'Anmeldung_'
'konferenz_'
'aktive_'
'Wissenschaft_'
'Reich_'
'sti'
'N'
'tp_'
'gemäß_'
'wasser_'
'uz'
'hersteller_'
'SpVgg_'
'ereignete_'
'genen_'
'feinem_'
'Wall'
'Probe'
'Media_'
'li'
'bus_'
'Arbeitnehmer_'
'ez_'
'Steine_'
'eer_'
'smus_'
'eister_'
'Drogen'
'Obst_'
'lub_'
'fach'
'Vogel_'
'imt_'
'Geschehen_'
'Visier_'
'Sub'
'sheim_'
'verletzten_'
'unterschiedlich_'
'os'
'hierzulande_'
'Nico_'
'gefährdet_'
'Russlands_'
'mjdi_'
'wenden_'
'gie_'
'Kurse_'
'Trikot_'
'piel'
'Kontrollen_'
'Zinsen_'
'schoss_'
'Amts'
'entdecken_'
'Ferrari_'
'festen_'
'Sehen_'
'Friedhof_'
'Ent'
'rücke_'
'Schwierigkeiten_'
'rechtlichen_'
'pre'
'Erkenntnisse_'
'al'
'Chinas_'
'angegriffen_'
'eingeführt_'
'heits'
'est'
'Gesang_'
'kurzem_'
'etten_'
'aktiven_'
'Nicole_'
'Stellung_'
'Salzburger_'
'mehrmals_'
'Verfassung_'
'Ersatz_'
'2021_'
'Wi_'
'bi'
'Williams_'
'Berlins_'
'Ir'
'Innen'
'Xa'
'Bundesrepublik_'
'konkret_'
'Orts'
'DA'
'unbekannte_'
'Ce'
'Waffen'
'Tri'
'kannte_'
'Lutz_'
'Flugzeug_'
'zurückzu'
'Hochzeit_'
'koch_'
'Unfälle_'
'Tabellenführer_'
' :  _'
'ausgebaut_'
'Dr'
'sichtlich_'
'hs'
'bunten_'
'Veranstaltungs'
'FBI_'
'Bau'
'einander_'
'El_'
'Ersatz'
'has_'
'Ausbildungs'
' ) '
'wa'
'verstanden_'
'feste_'
'53'
'Management_'
'ens'
'Za'
'grün_'
'üb'
'Christ'
'na'
'mitteilt_'
'eter_'
'getrennt_'
'runter_'
'nz'
'Strand_'
'erk_'
'Titel'
'Tieren_'
'Roth_'
'Austritt_'
'Uns_'
'Rasen_'
'Kongress_'
'sparen_'
'mel_'
'zweites_'
'ichten_'
'Mi'
'Prä'
'Förderverein_'
'macher_'
'gründen_'
'Tier'
'Ferien'
'welchem_'
'Muslime_'
'sämtliche_'
'cks_'
'Gas'
'tagen_'
'Silber_'
'zweier_'
'geleistet_'
'Gewerkschaft_'
'Kunden'
'Spiels_'
'ub_'
'Arbeitsmarkt_'
'beantragt_'
'messen_'
'mittels_'
'Sä'
'Passanten_'
'Hoffmann_'
'Heiko_'
'Parteichef_'
'CD_'
'zweit_'
'funktionieren_'
'Villa_'
'Bus'
'bert_'
'ands_'
'Leider_'
'dreimal_'
'treiben_'
'Verletzten_'
'Einbrecher_'
'oten_'
'beider_'
'Gen_'
'erscheinen_'
'reinem_'
'kammer_'
'Ulrike_'
'Etwas_'
'Technologie_'
'uu'
'eimer_'
'qi'
'messe_'
'traditionell_'
'Effekt_'
'seite_'
'Werben_'
'amen_'
'Spende_'
'ßa'
'thal_'
'heftig_'
'folgende_'
'Jr'
'Ser'
'Vis_'
'Sta'
'Amri_'
'gezielt_'
'rweise_'
'mh'
'ml'
'itt_'
'Regional'
'leiterin_'
'Zeuge_'
'Projekts_'
'Beute_'
'ahmen_'
'Generationen_'
'vorgelegt_'
'angelegt_'
'Tagesordnung_'
'Goettinger_'
'pieler_'
'Gerechtigkeit_'
'precher_'
'längere_'
'Tiroler_'
'maschine_'
'iel'
'Produktions'
'reduziert_'
'Beiträge_'
'30'
'Unterhaltung_'
'Träger_'
'museum_'
'Zweit'
'Unfall'
'Ua'
'ben'
'Ski'
'ielen_'
'Wurzeln_'
'Mike_'
'eingeleitet_'
'namens_'
'its'
'behauptet_'
'Lotte_'
'bestellt_'
'Fuchs_'
'De'
'eo'
'Zweiter_'
'ander_'
'voraus_'
'ote_'
'wirkte_'
'Cha'
'Quadratmetern_'
'geeignet_'
'Süd'
'rechtliche_'
'Zr'
'Niklas_'
'Kr'
'Herden_'
'stehenden_'
'sser_'
'AFP_'
'unseres_'
'Sich_'
'Lade'
'Gesetze_'
'umgehen_'
'Fisch'
'Wenden_'
'toll_'
'Ebt_'
'Cf'
'oll_'
'mitgeteilt_'
'Mitteln_'
'wie'
'Sol'
'Studio_'
'ze'
'begleiten_'
'Äa'
'veröffentlichte_'
'schätzen_'
'schießen_'
'Belastung_'
'reichlich_'
'Will_'
'sprachen_'
'waltung_'
'Internationalen_'
'xjse_'
'erkannt_'
'Huber_'
'verbringen_'
'keinerlei_'
'FC'
'Lokales_'
'Schwimm'
'js'
'Parkplätze_'
'Na_'
'ßer_'
'jetzigen_'
'Zo'
'nic_'
'ats_'
'ou'
'nig_'
'verbreitet_'
'spieler_'
'Mu'
'einstellen_'
'Körper'
'genaue_'
'einfache_'
'kette_'
'Asyl_'
'Kriminal'
'technisch_'
'sb'
'Provinz_'
'Glas'
'film_'
'zi_'
'Degen_'
'La'
'Schnee'
'Mayer_'
'ker'
'F'
'horn_'
'Zug'
'Denk'
'erneuert_'
'Konzert'
'englischen_'
'ul_'
'pflege_'
'Einbruch_'
'privat_'
'Zuhause_'
'WZ_'
'uche_'
'ye_'
'Tanz'
'zene_'
'Perspektive_'
'Finger_'
'Präsentation_'
'verbindet_'
'ese_'
'Fahrrad'
'Dachau_'
'angemeldet_'
'nicht'
'prüfung_'
'fing_'
'Lern'
'sportlichen_'
'ft'
'50'
'Projekt'
'normalen_'
'eu_'
'äumen_'
'ick_'
'Vorlage_'
'ufe_'
'br_'
'Wandel_'
'Hobby_'
'hf_'
'bericht_'
'Erz'
'Bundespräsident_'
'Treffpunkt_'
'Presse'
'Br'
'zn'
'entscheidende_'
'bemüht_'
'Gibt_'
'ün_'
'entscheidend_'
'Foren_'
'Durchschnitt_'
'ut'
'geld_'
'rum_'
'Besitz_'
'langfristig_'
'br'
'spanische_'
'Produkt_'
'rau_'
'Smartphones_'
'Kraft'
'ßn_'
'ache_'
'Geschenk_'
'Beck_'
'bestätigen_'
'breite_'
'oss_'
'ahr'
'Kap'
'Interessenten_'
'Strich_'
'gasse_'
'Mr_'
'gn'
'locker_'
'Mitgliedschaft_'
'erhältlich_'
'wuchs_'
'aufgehoben_'
'Kurz'
'Hannes_'
'kn_'
'eröffnete_'
'jn'
'derart_'
'Londoner_'
'Latte_'
'veranstaltet_'
'Ger'
'Supermarkt_'
'nic'
'verlässt_'
'schlicht_'
'Realschule_'
'syrischen_'
'Sitz'
'Englisch_'
'Detail_'
'Bei'
'Back'
'beliebt_'
'Be'
'West'
'Tro'
'umstrittenen_'
'dar'
'Ve'
'Te'
'besuchte_'
'Autorin_'
'witz_'
'Frankreichs_'
'Sonnen'
'chinesische_'
'gl'
'ausdrücklich_'
'Stimm'
'Standorte_'
'mutmaßliche_'
'Männer'
'Zar_'
'Waffe_'
'ungefähr_'
'Sp'
'warn_'
'verteidigen_'
'Var'
'Op'
'Co'
'Rettung_'
'Asien_'
'ẞa'
'Stolz_'
'Bands_'
'Braunschweig_'
'AS_'
'ui'
'vermittelt_'
'oh'
'gemeinde_'
'and'
'zuf'
'Leon_'
'Bundesstaat_'
'Fraktionen_'
'Elfmeter_'
'Darunter_'
'eit'
'Führerschein_'
'Team'
'Katar_'
'sho'
'Wladimir_'
'Literatur'
'Vn_'
'zeitweise_'
'od'
'fn'
'Hart'
'Eimer_'
'len'
'Adresse_'
'ja'
'eis'
'lr'
'bung_'
'Ohren_'
'oen_'
'Mission_'
'Debüt_'
'Unterschiede_'
'Institutionen_'
'Neumarkt_'
'aen_'
'schlag_'
'kleineren_'
'rogramm_'
'qs'
'Raum'
'Il'
'stirbt_'
'Sammlung_'
'Promille_'
'gg'
'Abend'
'ös_'
'süd'
'älter_'
'dauerte_'
'Diebe_'
'Anzeiger_'
'keineswegs_'
'NSU_'
'Zahn'
'Verträge_'
'sic'
'Cr'
'SOS_'
'vic_'
'Piloten_'
'schwer'
'ugn_'
'Personal'
'HAZ_'
'binnen_'
'Gr_'
'stattfindet_'
'hem_'
'äte_'
'gelöst_'
'Militär_'
'ober'
'Udo_'
'Sog_'
'bund_'
'begründet_'
':  _'
'Run_'
'Aufsichtsrat_'
'ian_'
'Sturz_'
'eG'
'Botschafter_'
'insel_'
'Trauer'
'Brüder_'
'hne_'
'Revolution_'
'Kro'
'genauer_'
'ie'
'34'
'quer_'
'hoch'
'hinterher_'
'äter_'
'Räumen_'
'Üa'
'ations'
'Vorstands'
'Stra'
'Anforderungen_'
'Verbindungen_'
'Aufnahmen_'
'bayerische_'
'krank_'
'Rückgang_'
'Monaco_'
'Lohn'
'Wart_'
'ießen_'
'Fahr_'
'Ausstellungs'
'wege_'
'lter_'
'tru'
'Öa'
'konkreten_'
'Erfolgs'
'bh'
'Charakter_'
'weiler_'
'ied_'
'CO2_'
'empfiehlt_'
'treibt_'
'freunde_'
'Ansonsten_'
'Laune_'
'Freistoß_'
'em'
'gäbe_'
'Meister'
'Jones_'
'Darum_'
'sei'
'abgesagt_'
'trainieren_'
'Bayerns_'
'verschwunden_'
'Kunde_'
'leitete_'
'Lahr_'
'gu_'
'Match_'
'Erich_'
'Drama_'
' : '
'leidet_'
'4'
'mr'
'Carsten_'
'handel_'
'Offenbar_'
'uhr_'
'Tschechien_'
'IG_'
'Eignen_'
'ausschuss_'
'Nah'
'Abel_'
'cho'
'Björn_'
'Pir'
'ku'
'Seh'
'Status_'
'Äußerungen_'
'Play_'
'zel_'
'of'
'Empfang_'
'Du'
'Arsenal_'
'rechts'
'. ( _'
'voll'
'et'
'DB_'
'vs'
'Standard_'
'erstellt_'
'Wa'
'Tayyip_'
'Roll'
'sbe'
'Türken_'
'Rettungs'
'iw'
'Fern'
'Favorit_'
'höhe_'
'Erhöhung_'
'all'
'Lebensmittel'
'sto'
'geschossen_'
'Andy_'
'betreiben_'
'if'
'Kameras_'
'Linien_'
'Hä'
'verteidigt_'
'tmn_'
'Klavier_'
'AS'
'3'
'gewachsen_'
'Entwicklungen_'
'lebte_'
'mti_'
'Schlagzeilen_'
'Rentner_'
'teil'
'Grund'
'liebsten_'
'Horn_'
'wski_'
'Netz'
'Burg'
'Ereignisse_'
'Cor'
'sportliche_'
'Herren'
'lp'
'ühren_'
'Sprach'
'tzung_'
'sierung_'
'opdi_'
'lern_'
'Gehen_'
'Steuer'
'einher_'
'Durch'
'Gesundheits'
'Jubiläums'
'Falls_'
'Zaum_'
'Quote_'
'Jo_'
'Te_'
'Mä'
'ers'
'Wobei_'
'lan'
'uft_'
'aufeinander_'
'Bayreuth_'
'zugunsten_'
'om'
'Strukturen_'
'Musical_'
'verrät_'
'baum_'
'mannschaft_'
'Wehr'
'Daraufhin_'
'Verwaltungs'
'Sogar_'
'Ablauf_'
'diverse_'
'tollen_'
'Fahrzeug'
'wünsche_'
'Menschen'
'10'
'ust_'
'bedankte_'
'Yu'
'lf_'
'jt'
'Reh'
'nde'
'Ten_'
'Betroffene_'
'Aufregung_'
'gelände_'
'Kur'
'Et_'
'anlässlich_'
'Künstler'
'Kirchen'
'Gen'
'ters_'
'Motiv_'
'lic_'
'ina'
'Zukunfts'
'konzern_'
'fa'
'Lang_'
'liefen_'
'klassische_'
'beweisen_'
'Hotel'
'späteren_'
'ma'
'Müll'
'Last_'
'Anja_'
'verhandelt_'
'Yr'
'Künstlerin_'
'mitge'
'kü'
'blicken_'
'Ehren'
'wein_'
'Tübingen_'
'etzen_'
'ehn_'
'Angehörige_'
'nisse_'
'fonds_'
'Katrin_'
'oe'
'Mindest'
'abteilung_'
'Ihn_'
'Platz'
'stimmten_'
'ding_'
'erwischt_'
'ER_'
'Flügel_'
'äa'
'35'
'gehöre_'
'ms'
'Gf'
'Sophie_'
'Defensive_'
'empfangen_'
'Luxemburg_'
'geholfen_'
'eigens_'
'Halb'
'lar'
'Wild'
'ersetzen_'
'erschien_'
'Unge'
'prozess_'
'pielen_'
'lohnt_'
'AP_'
'use_'
'Jahresende_'
'lla_'
'Sterne_'
'Qr'
'ugs'
'Herkunft_'
'Gu'
'1989_'
'singt_'
'Libyen_'
'Fahrgäste_'
'Literatur_'
'chor_'
'Haushalts'
'ẞr'
'Da'
' ( '
'Abschluss'
'ufs_'
'Trainer'
'Serien_'
'erfolgte_'
'hofer_'
'bar'
'Wochen'
'aner_'
'wr'
'run'
'Cs'
'Abitur_'
' " '
'zeichen_'
'Förder'
'nkt_'
'gestoppt_'
'Hofmann_'
'Explosion_'
'zuge'
'Regen'
'wettbewerb_'
'oc'
'Stahl'
'übe'
'cher'
'tsch_'
'besonderer_'
'Segen_'
'Hannoversche_'
'Regel'
'Einstellung_'
'schaften_'
'obdi_'
'WELT_'
'Strafraum_'
'Energie'
'üa'
'qa'
'ph'
'gebäude_'
'eichen_'
'Lr'
'jüngeren_'
'Verbrechen_'
'italienische_'
'verraten_'
'Regensburger_'
'Absch'
'bedingt_'
'alt'
'Fuß'
'Xr'
'Herbst'
'hl'
'ac'
'sam_'
'nutzten_'
'az'
'SA'
'öa'
'eineinhalb_'
'%_'
'urs_'
'Tre'
'Potsdamer_'
'Mur'
'iegen_'
'gei'
'Zone_'
'Polizeisprecher_'
'anfangs_'
'Beispiele_'
'frei'
'eröffnen_'
'Schülerinnen_'
'Interessierte_'
'tne_'
'festgelegt_'
'Beschwerden_'
'Feuerwehrleute_'
'Zeit'
'Alex_'
'rf_'
'Solo_'
'Gemüse_'
'Main'
'souverän_'
'schob_'
'sie'
'ic'
'Unternehmens'
'Ke'
'nem_'
'ehemaliger_'
'Handwerk_'
'inden_'
'fra'
'14'
'heutige_'
'Zürich_'
'Werkstatt_'
'One_'
'Vertrags'
'Es'
'tier'
'sl'
'bildung_'
'Unfallstelle_'
'Pfalz_'
'Düsseldorfer_'
'Bielefeld_'
'tun'
'nte'
'Sekunde_'
'tour_'
'meinschaft_'
'Boris_'
'Tf'
'Mannschafts'
'Bronze_'
'Leistungs'
'Dritte_'
'Achtelfinale_'
'mittel'
'tel'
'pflicht_'
'mancher_'
'Mühe_'
'kr'
'Mindestens_'
'Zi'
'Mehl_'
'dis'
'46'
'hc_'
'Zivil'
'Ek'
'Scholz_'
'Lumen_'
'lu_'
'Stadt'
'Favoriten_'
'mitunter_'
'hofen_'
'Darstellung_'
'Strache_'
'piele_'
'ff'
'wr_'
'Instituts_'
'Schloss'
'nds_'
'Dan'
'Bitte_'
'Note_'
'durchsetzen_'
'mel'
'Wol'
'Tau'
'zweit'
'kan_'
'Grab'
'Adam_'
'Mobilität_'
'Klimaschutz_'
'Geheim'
'Erwachsenen_'
'acht'
'verlust_'
'training_'
'GB_'
'schöner_'
'hohem_'
'werdend_'
'sr'
'musikalisch_'
'wenigstens_'
'studiert_'
'at'
'13'
'chaften_'
'erteilt_'
'bestehende_'
'Momente_'
'riesigen_'
'erlitten_'
'branche_'
'Vielmehr_'
'Mecklenburg_'
'Reutlingen_'
'Krebs_'
'hergestellt_'
'Os'
'Untersuchungshaft_'
'125_'
'gt'
'Sozial'
'Kopf'
'Ba_'
'Ronaldo_'
'Start'
'Mal'
'Boden'
'Bade'
'ank'
'gegen'
'Top'
'Studien'
'barkeit_'
'Dänemark_'
'Word_'
'Mini'
'ibcfo_'
'Dritter_'
'bewiesen_'
'san'
'Hauptstraße_'
'Barack_'
'öt'
'kalt_'
'ai_'
'Erding_'
'ýcfs_'
'mar_'
'erhoben_'
'Vorbereitungen_'
'Mittag_'
'97_'
'verantworten_'
'Ausstattung_'
'DI'
'wiesen_'
'herrschte_'
'biete_'
'xjf_'
'tl'
'befreit_'
'Immobilien'
'Dienste_'
'ners_'
'Orgel_'
'FV_'
'Biss_'
'lehnt_'
'Sound_'
'Eu'
'Börsen'
'iz'
'bestehe_'
'Star'
'It_'
'bek'
'Eb'
'ist'
'xr'
'Stand'
'Metall_'
'For'
'Europa'
'Arten_'
'mo'
'Heynckes_'
'erinnen_'
'Gs'
'va'
'manns_'
'sha'
'Rekord'
'Medizin_'
'Hochschul'
'Wohnungs'
'verwaltung_'
'karten_'
'zeit'
'Ele'
'kommend_'
'Ankündigung_'
'tt'
'oberoesterreich_'
'Ür'
'breiten_'
'ähnlichen_'
'löste_'
'Stadthalle_'
'Olaf_'
'Verbesserung_'
'Kletter'
'Filiale_'
'kar'
'hol'
'belegen_'
'IS'
'Gau'
'orte_'
'leichten_'
'erhebliche_'
'Beifall_'
'reiben_'
'ning_'
'fürchten_'
'Jazz'
'Bundestrainer_'
'ädter_'
'nch_'
'veranstaltung_'
'tete_'
'suchte_'
'sichergestellt_'
'Kommunikations'
'Fe'
'erzielen_'
'Sa_'
'Lösch'
'Fahr'
'Konzern'
'Ao'
'schönsten_'
'Zufall_'
'tar_'
'gesamt_'
'Plänen_'
'beantworten_'
'Ermittlungs'
'änden_'
'ors_'
'fjofo_'
'eu'
'jähriges_'
'Cre'
'tanzen_'
'ons'
'Vereins'
'Dortmunder_'
'Film'
'Eck'
'2030_'
'go'
'ig'
'Mütter_'
'Prozente_'
'Gewinn'
'Gast'
'Verteidigung_'
'Tunnel_'
'tä'
'Stress_'
'Ft_'
'Haushalte_'
'Frauen'
'Formen_'
'54'
'tner_'
'ags_'
'oden_'
'generell_'
'dortigen_'
'Wohnraum_'
'Internationale_'
'stößt_'
'kra'
'Kliniken_'
'hi'
'Zusätzlich_'
'1995_'
'Fürth_'
'Gewerbegebiet_'
'ln'
'starben_'
'Vorpommern_'
'Veränderung_'
'egt_'
'geringer_'
'Lauf'
'Brust_'
'dy_'
'If'
'HA'
'nächstes_'
'ks'
'Salz'
'pla'
'traditionelle_'
'landet_'
'Gar'
'1991_'
'mitglieder_'
'wirtschaftlich_'
'siegte_'
'schä'
'Tränen_'
'Zentrale_'
'Tr_'
'Ne'
'uss'
'Höhen'
'1994_'
'Rettungsdienst_'
'Liefer'
'Scher'
'Fahrerin_'
'je'
'eT'
'Sponsoren_'
'ungs_'
'Fer'
'ci'
'Bewegungs'
'Blumen'
'Begleitung_'
'uh'
'Index_'
'abhängig_'
'Zucker'
'ISO_'
'Tiefe_'
'Gerichts'
'Getränke_'
'zte_'
'planung_'
'Freundschaft_'
'Alarm_'
'Ode_'
'noc_'
'Hinsicht_'
'Den'
'stärksten_'
'Son'
'schwieriger_'
'Einzel'
'Alternativen_'
'wps_'
'Klassen'
'Wor'
'Reuters_'
'kt'
'Christina_'
'inn_'
'eigen_'
'xf'
'Hilfs'
'Ur_'
'Daten'
'nter'
'ür'
'Haar_'
'Albstadt_'
'ägt_'
'Beratungs'
'organisieren_'
'heiße_'
'Zusatz'
'Mel'
'Herz'
'lder_'
'Image_'
'Festivals_'
'Blatt_'
'modell_'
'Ui'
'Spitzen'
'Sascha_'
'Ära_'
'# _'
'n'
'vermisst_'
'traten_'
'denkbar_'
'\\_'
'Turn'
'Recep_'
'Traum'
'vt'
'Kämpfer_'
'Bühnen'
'Un'
'hlt_'
'Rapid_'
'vl'
'Freising_'
'rungen_'
'ansonsten_'
'Qs'
'Kloster_'
'Toni_'
'Alb_'
'Ernährung_'
'Berg'
'Armut_'
'Akademie_'
'dauerhaft_'
'Ringen_'
'Gefahren_'
'BS'
'Sao_'
'Lewandowski_'
'450_'
'wich_'
'nationale_'
'Adler_'
'Hof'
'Spieler'
'Medienberichten_'
'ad'
'Anträge_'
'circa_'
'Dagegen_'
'nA'
'ana_'
'Minus_'
'gau_'
'Glücks'
'up'
'ow'
'Johanna_'
'kes_'
'erledigt_'
'meyer_'
'ins'
'Voraussetzung_'
'halbes_'
'ausgegeben_'
'Fonds_'
'ju_'
'eie_'
'Ampel_'
'gefüllt_'
'eni_'
'Rechts'
'hr'
'DJ_'
'TC_'
'Ze'
'Insolvenz_'
'ruch_'
'ak'
'Unglück_'
'Hubert_'
'Freistaat_'
'ovn_'
'aus'
'Queen_'
'Karnevals'
'Paare_'
'bs'
'Spezial'
'riss_'
'ac_'
'Zauber'
'Reserve_'
'Port'
'ger'
'Einzel_'
'wischen_'
'Arme_'
'heran_'
'bind_'
'Reporter_'
'Klimawandel_'
'oo'
'dsa_'
'stes_'
'runden_'
'qu'
'SSV_'
'Eigner_'
'pn_'
'Endspiel_'
'Milliarde_'
'Demokraten_'
'viel'
'Wut_'
'keits'
'aufen_'
'Ul'
'70'
'1996_'
'Üben_'
'Bundes'
'Fehl'
'zen'
'tigen_'
'gewarnt_'
'gelesen_'
'Rr'
'gemeint_'
'Weniger_'
'konzentrieren_'
'Betreuungs'
'reine_'
'dan_'
'Mohr_'
'ecken_'
'Faschings'
'Sr'
'inner'
'qualität_'
'eB'
'Nachfolge_'
'Befragten_'
'hung_'
'LS'
'du'
'Engel_'
'Übel_'
'langem_'
'Fake_'
'29'
'nha'
'Pferde_'
'post'
'orn_'
'mm'
'befürchtet_'
'Renten'
'belegte_'
'verkündet_'
'sport'
'musst_'
'38'
'werben_'
'stra'
'pläne_'
' " ) , _'
'uch'
'konzentriert_'
'anhand_'
'tions'
'tge'
'War'
'Mensa_'
'tausend_'
'Straßen'
'AL'
'Prof_'
'Po'
'boten_'
'Unterlagen_'
'Rio_'
'bloß_'
'Ne_'
'Käufer_'
'Betriebs'
'Fleisch'
'karte_'
'Nikolaus_'
'welle_'
'ju'
'gezwungen_'
'sellschaft_'
'pt'
'nommen_'
'einfacher_'
'ßn'
'rd'
'bereiten_'
'Unentschieden_'
'Gutes_'
'Erkenntnissen_'
'seitens_'
'lm_'
'Yo'
'üche_'
'optimistisch_'
'Fernseh'
'geleitet_'
'verschoben_'
'Sonder'
'Begegnungen_'
'testen_'
'che'
'Wiesbaden_'
'achte_'
'  :_'
'Grill'
'Würden_'
'Schwandorf_'
'Portugal_'
'drehte_'
'rein'
'zr'
'angeht_'
'Singen_'
'üblichen_'
'ken'
'einzu'
'arbeits'
'umgehend_'
'merkt_'
'Erb'
'Kindes_'
'As'
'5'
'Fe_'
'erschossen_'
'sten'
'Sicherheits'
'Alt'
'Ägypten_'
'Turm_'
'agt_'
'Therapie_'
'Ner'
'Kel'
'kf'
'Weiße_'
'Proben_'
'Fusion_'
'ören_'
'rp'
'chutz_'
'Bur'
'Rö'
'Nazi_'
'Milch_'
'theater_'
'Info'
'Tisch'
'Gladbach_'
'vh'
'Gemeinschafts'
'entwicklung_'
'Rettungskräfte_'
'rischen_'
'rr'
'ius_'
'op_'
'nich'
'hinterlassen_'
'Verbands'
'Remis_'
'starker_'
'endes_'
'Ch'
'satz_'
'Miet'
'gese'
'ufs'
'regeln_'
'Wr'
'Kindergärten_'
'fu'
'dre'
'Kron'
'Wahlkampf'
'inister_'
'fern'
'Schlag'
'SE'
'ollen_'
'Vaters_'
'Brot_'
'Bio'
'eil'
'anden_'
'ES'
'Tegel_'
'Mari'
'nis'
'nahen_'
'gen'
'Reformation_'
'PAZ_'
'Rock'
'if_'
'Sperrung_'
'Niemand_'
'meistens_'
'gesunken_'
'Ausflug_'
'nbe'
'Tru'
'öl'
'ls'
'Pierre_'
'Seinen_'
'Vize'
'Immobilien_'
'Far'
'och'
'Bundesländern_'
'aufgefallen_'
'Wit'
'Grunde_'
'reduzieren_'
'fassen_'
'Ee'
'Landwirte_'
'Kre'
'Sti'
'SS'
'Olympischen_'
'Not'
'fortgesetzt_'
'vno_'
'Lebens'
'absolute_'
'Konzerne_'
'gelingen_'
'Paket_'
'fahr'
'evr'
'Thiem_'
'olen_'
'lang'
'xt_'
'seither_'
'Xn_'
'Verkehrs'
'Marketing_'
'Druck'
'ört_'
'uern_'
'sle'
'Aufstellung_'
'IN_'
'versuch_'
'diejenigen_'
'nne_'
'enten_'
'Ferien_'
'fm'
'chel'
'fällig_'
'stiegen_'
'rs'
'pe'
'grenze_'
'Partnerschaft_'
'Entwicklungs'
'Lärm_'
'Prognose_'
'Abi_'
'gutem_'
'Jar'
'Geschmack_'
'uj'
'oe24_'
'gewünscht_'
'Uf'
'Ree'
'turnier_'
'fühle_'
'Willy_'
'Schle'
'Stau_'
'Radweg_'
'LA'
'entspannt_'
'Van'
'orten_'
'tdi'
'ebi'
'Eiben_'
'Con'
'spezielle_'
'jahrelang_'
'Mittelmeer_'
'tur'
'Zusammenstoß_'
'Norwegen_'
'Kurden_'
'Instrument_'
'Legende_'
'Einem_'
'pr_'
'lind_'
'Schwe'
'MZ_'
'Attentäter_'
'Baumann_'
'Ur'
'Athleten_'
'Abfahrt_'
'Schuljahr_'
'Lokal_'
'Kicker_'
'Ha_'
'Hin'
'Übung_'
'SG'
'Mit'
'Freiwilligen_'
'zitiert_'
'vie_'
'fuhren_'
'bewertet_'
'Prozents_'
'sportlich_'
'Jena_'
'belastet_'
'Hoffnungen_'
'EN'
'änger_'
'qr'
'niveau_'
'Kanal_'
'prallte_'
'Neun_'
'wegge'
'Besetzung_'
'line_'
'Staats_'
'An'
'rben_'
'Feuerwehr'
'plan'
'lie_'
'engagieren_'
'af'
'Spielplatz_'
'Krei'
'Budget_'
'verliehen_'
'preise_'
'Party'
'beschrieben_'
'auf'
'inem_'
'Wettkampf_'
'Schluss'
'bitten_'
'Marx_'
'Torsten_'
'versichert_'
'Trau'
'Anti'
'mitzu'
'einend_'
'Werbe'
'ird_'
'Kl'
'Yn_'
'Ol'
'nlage_'
'Sche'
'Mama_'
'ausfallen_'
'Umständen_'
'umsetzen_'
'Bald_'
'Büro'
'Ara'
'erarbeitet_'
'wieder'
'berücksichtigt_'
'eilen_'
'Kie'
'Mf'
'gramm_'
'fälle_'
'Rü'
'Lewis_'
'Aktivisten_'
'Zwischen'
'lt'
'ile'
'Somit_'
'haus'
'drei'
'Que'
'Krimi_'
'wussten_'
'Bob_'
'riesige_'
'41'
'unmöglich_'
' © _'
'Ruhr_'
'trinken_'
'schwierige_'
'irgendwo_'
'Tafel_'
'Spie_'
'Öffnungszeiten_'
'sla'
'gse'
'reist_'
'iele_'
'Dn_'
'Lese'
'sel'
'schluss_'
'sä'
'konservativen_'
'Demonstration_'
'Gesamt'
'Neuzugang_'
'grund_'
'cjt_'
'Rou'
'Nina_'
'TWA_'
'Marathon_'
'ritt_'
'regionalen_'
'Konferenz_'
'Gb'
'Schlaf'
'pra'
'Joseph_'
'Sportdirektor_'
'Berger_'
'1967_'
'unterricht_'
'Sb'
'Im'
'Än_'
'jr'
'rechtlich_'
'leiten_'
'Ministerpräsidenten_'
'Jo'
'Ane'
'Wach'
'erz'
'verletzung_'
'cer'
'Fn'
'FA'
'rate_'
'Mitarbeiterin_'
'erer_'
'Luxus'
'Heimat'
'Gol'
'Versprechen_'
'Schuhe_'
'Übungs'
'ug'
'bezogen_'
'ec'
'pause_'
'Rückzug_'
'äts'
'befürchten_'
'Restaurants_'
'Rhein'
'yr'
'Nat'
'tum_'
'bes_'
'Stadtgebiet_'
'jederzeit_'
'Versicherungs'
'nbach_'
'Marcus_'
'geborene_'
'Koalitions'
'zuversichtlich_'
'cs'
'No'
'setze_'
'länder_'
'.  _'
'Thüringer_'
'National'
'Beton'
'Dietmar_'
'brand_'
'Oe'
'Lachen_'
'zeug_'
'beitragen_'
'Schlüssel_'
'Küste_'
'gedreht_'
'Solidarität_'
'No_'
'Abenteuer_'
'Ni'
'Besonderes_'
'stu'
'elt'
'biss_'
'ONLINE_'
'57'
'überprüft_'
'sitzung_'
'Az'
'zehnten_'
'Spa'
'Magdeburg_'
'Fle'
'Ras'
'Rad'
'Hi'
'Fall'
'vorab_'
'ini_'
'größter_'
'kritische_'
'Tat'
'Bereitschaft_'
'stünden_'
'Wörter_'
'üssen_'
'beginn_'
'SI'
'han_'
'Kapelle_'
'Heimsieg_'
'Brandt_'
'lem_'
'Man'
'Forst'
'lungen_'
'Schi'
'Katastrophe_'
'vorge'
'vergleichsweise_'
'kauft_'
'örderung_'
'siebten_'
'Bt'
'parallel_'
'from_'
'uo'
'Verdächtigen_'
'Telefon'
'eW'
'stabil_'
'liebt_'
'ij'
'Hausherren_'
'Architekten_'
'gemessen_'
'ätte_'
'rien_'
'unbekannten_'
'berühmten_'
'Flüchtling_'
'ällen_'
'Themas_'
'Bauern'
'steigern_'
'isch'
'Gesichter_'
'Aufstiegs'
'Kru'
'Ball'
'ilen_'
'bunte_'
'ua'
'la'
'Fähigkeiten_'
'Ün_'
'jüdischen_'
'Si'
'Kinder'
'oberen_'
'nta'
'fügte_'
'Kn_'
'stag_'
'Jemen_'
'leistungen_'
'55'
'Neckar_'
'Lehrerin_'
'- '
'Welt'
'Schwer'
'Kal'
'Dienst'
'sexuelle_'
'eventuell_'
'Motorrad_'
'nE'
'ierungs'
'Box'
'tiefer_'
'Bre'
'räumt_'
'frü_'
'Nacht'
'Misch'
'Genehmigung_'
'Ön_'
'geh_'
'Italiener_'
'arbeite_'
'Set_'
'html_'
'Sankt_'
'gesund_'
'Mart'
'biet_'
'Thorsten_'
'ati'
'Al'
'Ör'
'räumte_'
'oi'
'schaden_'
'ausgetragen_'
'Geo'
'Fort'
'durchschnittlich_'
'xe_'
'eigenem_'
'Daran_'
'erworben_'
'bie_'
'RA'
'Por'
'End'
'Ad'
'Wechsel'
'wieg_'
'Bitcoin_'
'Ip'
'scho'
'Tn_'
'Finanz'
'Donau'
'Fremd'
'Religion_'
'Einblick_'
'Deren_'
'vu'
'Links'
'Wirklichkeit_'
'Motorradfahrer_'
'Acer_'
'höchst_'
'Reifen_'
'Had'
'Liverpool_'
'Ehr'
'Vermögen_'
'Ib'
'nunmehr_'
'lk'
'eile_'
'Präsidentin_'
'Branchen'
'Aufge'
'drohte_'
'seid_'
'Wunsch'
'Kieler_'
'Kara'
'westlichen_'
'gabe_'
'Journalist_'
'ahl'
'afu_'
'Spind_'
'Ca'
'rti'
'wor'
'ez'
'xo'
'Mn_'
'sü'
'hrung_'
'Narren'
'Leu'
'bst_'
'Faust_'
'Egal_'
'Hs'
'ER'
'Bundesamt_'
'Kle'
'Erlös_'
'Umso_'
'Sanierungs'
'wisse_'
'Men_'
'sj'
'Normal'
'Büros_'
'43'
'älteste_'
'ba'
'Ansatz_'
'190'
'minus_'
'Renate_'
'aber'
'Bestand_'
'mg'
'Kreises_'
'Agrar'
'uaf_'
'freiwillig_'
'Daniela_'
'ẞn_'
'haltung_'
'fer'
'bu_'
'LE'
'6000_'
'ort'
'Übergangs'
'markt'
'Arbeits'
'imer_'
'Privat'
'Konflikte_'
'präsentierten_'
'Klang'
'Lokal'
'selbst'
'ef'
'sichere_'
'hase_'
'dl'
'ahrt_'
'Linzer_'
'Qn_'
'Robin_'
'begeistern_'
'Ub'
'Mitternacht_'
'urm_'
'ndem_'
'Hm'
'Operation_'
'Nn_'
'hauptsächlich_'
'Schriftsteller_'
'esse_'
'enger_'
'Gasthaus_'
'herausge'
'Mühl'
'Werken_'
'Va'
'Tl'
'begrüßen_'
'Opfern_'
'170_'
'ossen_'
'ar'
'Stoff_'
'Kredit'
'Unbe'
'Ausstieg_'
'Val'
'Pilot_'
'Zumal_'
'Grundsätzlich_'
'betrug_'
'Gegenüber_'
'rath_'
'registriert_'
'fts'
'Kult'
'xn_'
'itzung_'
'massiven_'
'Netzwerken_'
'Flucht'
'Pferde'
'Freudenstadt_'
'Bm'
'ex'
'dif_'
'Scho'
'Jahrgang_'
'wasser'
'geladen_'
'Siegfried_'
'Christopher_'
'ituation_'
'geo'
'Verhältnisse_'
'Moschee_'
'42'
'Kreis'
'ren'
'bricht_'
'Gefühle_'
'Feld'
'Abwehr'
'Welle_'
'fl'
'Wn'
'führe_'
'Stru'
'Sn_'
'mächtig_'
'folge_'
'cer_'
'icherheit_'
'ergibt_'
'daheim_'
'Spät'
'Rh'
'Wo'
'Vögel_'
'äl'
'aer'
'teure_'
'gegenseitig_'
'Angelegenheit_'
'ame_'
'Solar'
'rch'
'car'
'Aldi_'
'langjährigen_'
'FF_'
'cm'
'Haie_'
'Haftbefehl_'
'Ostern_'
'Helden_'
'Geduld_'
'Auslands'
'eds_'
'daneben_'
'Stefanie_'
'Pl'
'MAD_'
'Gegenwart_'
'Do_'
'ügen_'
'war'
'mer'
'Bundeskanzler_'
'ator_'
'wichtiges_'
'zugelassen_'
'bu'
'blatt_'
'Rose_'
'Eich'
'eh'
'bse'
'Mess'
'Fn_'
'rolle_'
'unge_'
'sach'
'ki'
'gu'
'NBA_'
'Wn_'
'Min_'
'Dessen_'
'47'
'Bi'
'Abriss_'
'brechen_'
'studierte_'
'Dauer'
'verheiratet_'
'fehlten_'
'th'
'Treffern_'
'Scha'
'seht_'
'Schwerin_'
'Erwin_'
'handele_'
'Cer'
'Königin_'
'Ding_'
'ße'
'regionale_'
'dies'
'werke_'
'Vielzahl_'
'Häusern_'
'pro'
'Dau'
'ise'
'Ren_'
'Quer'
'1200_'
'zentrums_'
'verschiedener_'
'Pferd_'
'ibt_'
'dankbar_'
'Verhandlung_'
'Frühling_'
'tter'
'Block_'
'Red'
'unterm_'
'Kennzeichen_'
'Gleich'
'jemanden_'
'Website_'
'eingegangen_'
'Unterstützer_'
'Gru'
'Schmitt_'
'Premierministerin_'
'PC_'
'Fs_'
'massive_'
'freundlich_'
'ausge'
'unt'
'ermitteln_'
'Container_'
'Auflagen_'
'Warn'
' .  _'
'dienst'
'Jen'
'Gift_'
'Bis'
'Bio_'
'Ay'
'vm'
'tbhu_'
'Beate_'
'Gn_'
'Christen_'
'ee'
'Tü'
'Hall_'
'kinder_'
'Kanzlerkandidat_'
'Groß'
'Cat'
'Superstar_'
'verlangen_'
'Nachbarschaft_'
'Geheimnis_'
'He'
'ücher_'
'Oldenburg_'
'Markt'
'ack_'
'Pi'
'Hel'
'kräfte_'
'Zn_'
'vr_'
'din'
'End_'
'eingereicht_'
'Sig'
'nord'
'Herrn_'
'Feuer'
'2500_'
'äten_'
'Insbesondere_'
'12'
'kunst_'
'Schwa'
'Elb'
'nau_'
'Pn_'
'Kir_'
'rE'
'nds'
'finanzieren_'
'beit_'
'Me'
'Ku'
'nn'
'Ze_'
'nc'
'mat'
'gel'
'Rn_'
'verlief_'
'Ton'
'Stu'
'Polizeiinspektion_'
'Of'
'Maizière_'
'Heike_'
'Polizei'
'Bruno_'
'üben_'
'Bahnen_'
'gangen_'
'veröffentlichten_'
'1945_'
'ed'
'Schu'
'Neu'
'Aa'
'vie'
'leit'
'kern_'
'familie_'
'Schweine'
'wu'
'Lücke_'
'Ihrem_'
'siert_'
'ib'
'angebracht_'
'Weltmeisterschaft_'
'So'
'Lehre_'
'Pfosten_'
'Hn_'
'zl'
'Stor'
'Ale'
'urf_'
'Pe'
'Lehrer'
'zustande_'
'warnen_'
'schickt_'
'gewissen_'
'dan'
'Wunde_'
'ga'
'Freizeit'
'ruppen_'
'partei_'
'Einsen_'
'aussieht_'
'Öe'
'stück_'
'ik'
'General'
'vg'
'ich'
'Vo_'
'Hem'
'52'
'itte_'
'Vereinbarung_'
'Rest'
'Jn'
'ebs'
'Eigen'
'Angeboten_'
'nötige_'
'heran'
'Ins'
'rückte_'
'Wand'
'Rede'
'tha'
'infrage_'
'ci_'
'Miss'
'King_'
'Kindheit_'
'Bedrohung_'
'fel_'
'ue'
'chutz'
'Fo'
'geschützt_'
'benachbarten_'
'yr_'
'Schulleiter_'
'fjofn_'
'wei'
'gh'
'fju_'
'Cla'
'eF'
'Ln_'
'Blau'
'ok_'
'Wolken_'
'Sha'
'Krone_'
'rollen_'
'erfreut_'
'Rosen'
'Ereignis_'
'Zimmermann_'
'Torjäger_'
'Saison'
'tige_'
'befragt_'
'Sun_'
'Einkaufs'
'geliefert_'
'gespannt_'
'Pu'
'Monats_'
'Gebäude'
'partner_'
'decken_'
'nl'
'angesagt_'
'Puigdemont_'
'Hallen_'
'Schnell_'
'Plan'
'scheinbar_'
'ohl_'
'nü'
'auseinander_'
'Kr_'
'Charles_'
'erei_'
' ? '
'pl'
'Sperr'
'Sommerferien_'
'ehrenamtlich_'
'Schuh'
'Jugend'
'cn_'
'fasst_'
'Texas_'
'Ber'
'lands_'
'Architekt_'
'ilfe_'
'bemerkt_'
'HE'
'Mund'
'Gegen'
'Ds_'
'eigen'
'Solo'
'rei'
'qn_'
'Bad'
'Lp'
'deine_'
' ) -_'
'vi_'
'Söder_'
'Blues_'
'Rettungswagen_'
'Milch'
'Freibad_'
'isiert_'
'hinnehmen_'
'difo_'
'rg'
'Reichs'
'Winter'
'Ute_'
'1993_'
'inter'
'Vu'
'Gewalt'
'zten_'
'rm'
'kontrollieren_'
'geradezu_'
'ars_'
'Strafen_'
'Bach'
'sprecher_'
'Mord'
'Weg'
'Ufer_'
'Jahr'
'Rom'
'verbandes_'
'37'
'Talente_'
'yu'
'ct'
'begangen_'
'ast'
'Schmuck_'
'nge'
'Kenntnis_'
'rü'
'rre'
'dorthin_'
'Pn'
'Bog'
'Akt_'
'owski_'
'Wohnhaus_'
'Ing'
'Schiffs'
'uk'
'laufende_'
'Mun'
'Läufer_'
'Transport'
'umstrittene_'
'drücken_'
'Highlight_'
'Ess'
'sih_'
'aller'
'dro'
'Federer_'
'spot_'
'jo'
'ewi'
'offen'
'nder'
'Reformen_'
'Simone_'
'Gastronomie_'
'Bä'
'verließ_'
'bekomme_'
'Nie_'
'Frühlings'
'Lands'
'ae'
'Jagd'
'ndet_'
'Programme_'
'läche_'
'ßu'
'ps'
'hörden_'
'Ros'
'Roger_'
'Zentral'
'Lady_'
'vorübergehend_'
'getreten_'
'Auto'
'io'
'ges'
'Black_'
'eo_'
'Hoeneß_'
'enn'
'bracht_'
'Ein'
'Seiten'
'usf'
'ss'
'Dich_'
'unteren_'
'Schützen'
'Zweig_'
'Mr'
'Einstieg_'
'Dingen_'
'räte_'
'Cro'
'management_'
'Rechts_'
'Duisburg_'
'Dobrindt_'
'aa'
'Küchen'
'Rie'
'nein_'
'Bla'
'öl_'
'eder'
'Wenig_'
'Filialen_'
'versprechen_'
'hardt_'
'Lü'
'locken_'
'gan_'
'Rats'
'Hö'
'Donau_'
'Projekten_'
'Original_'
'Kol'
'zählte_'
'Lie'
'use'
'klappt_'
'Hallen'
'profitiert_'
'Kulisse_'
'uc'
'ene'
'Sor'
'Gegenzug_'
'klein'
'ehrenamtlichen_'
'mut'
'Regime_'
'konsequent_'
'foto_'
'Hin_'
'schen'
'wfs'
'Terrorismus_'
'Forschungs'
'Assad_'
'have_'
'Alkohol'
'fliegt_'
'Anbau_'
'wirbt_'
'nan'
'gelb_'
'Mak'
'Hitze_'
'duell_'
'Ler'
'Erd'
'Dia'
'spi'
'angefangen_'
'unterhalten_'
'Wetter'
'Für'
'Kameraden_'
'Bochum_'
'Krisen'
'Bürger'
'Ba'
'Dreier_'
'Dam'
'erg'
'Automobil'
'ovi'
'lf'
'beauftragt_'
'Lis'
'Fisch_'
'abgesehen_'
'Gaben_'
'ereich_'
'Helfern_'
'Äu'
'rfen_'
'mühle_'
'iches_'
'rst_'
'abgestimmt_'
'Innenministerium_'
'sn'
'Liga'
'alarmiert_'
'Standards_'
'Fan'
'ungewöhnlich_'
'abg'
'Außer_'
'verbinden_'
'ino_'
'Bh'
'Andererseits_'
'chau_'
'aufzu'
'Staatschef_'
'ländlichen_'
'dme_'
'Campus_'
'issen_'
'Nau'
'Benedikt_'
'emann_'
'ele'
'geflogen_'
'Finanzen_'
'Yen_'
'William_'
'Wahr_'
'Gaststätte_'
'Ali_'
'ums'
'trennen_'
'Held_'
'Hai'
'ane_'
'sinn'
'feststellen_'
'Rund'
'Kloster'
'Nl'
'Cn_'
'Bezirks'
'BILD_'
'Tipp_'
'tags_'
'mä'
'imago_'
'ift_'
'Tölz_'
'Fortsetzung_'
'immt_'
'Tourismus'
'stedt_'
'tp'
'posten_'
'deutlichen_'
'xi'
'ders_'
'Schutz'
'Kurzem_'
'genehmigt_'
'Schau'
'endorf_'
'Lohn_'
'Gerichte_'
'sexuellen_'
'Haas_'
'Heiz'
'Calw_'
'Ala'
'uppe_'
'speziellen_'
'dunklen_'
'Filmen_'
'56'
'rb'
'gro'
'Rai'
'TV'
'Gala_'
'the'
'ganzes_'
'Weiß'
'LED_'
'GE'
'einten_'
'Verpflichtung_'
'nern_'
'lud_'
'nötigen_'
'bl_'
'Schieß'
'Gewerbe'
'Lediglich_'
'Schwung_'
'lauter_'
'Nf'
'Johnson_'
'Vereinten_'
'Gabe_'
'Warten_'
'groß'
'Uli_'
'Geben_'
'Ausländer_'
'Liebes'
'diversen_'
'Reinhold_'
'errichten_'
'Bil'
'zung_'
'Fassade_'
'tation_'
'pu'
'pm'
'hier'
'ege_'
'Roboter_'
'Wenige_'
'Rt'
'lge'
'händler_'
'avi'
'verfügen_'
'Pass'
'Boss_'
'notwendigen_'
'mals_'
'Stä'
'80'
'dit'
'Burger_'
'Fra'
' , '
'verstorbenen_'
'orts_'
'Null_'
'überlegt_'
'sog_'
'Stö'
'Damen'
'Meppen_'
'AN'
'unf'
'rum'
'fügt_'
'bestimmen_'
'Ap'
'Schlüssel'
'Rassismus_'
'Truppen_'
'Billionen_'
'09'
'Bot'
'Haupt_'
'Dei_'
'Neuen'
'Marken'
'vorzeitig_'
'Web'
'definitiv_'
'richter_'
'einerseits_'
'spannende_'
'Niederlande_'
'Dreh'
'Achim_'
'ausgehen_'
'tf_'
'qualifiziert_'
'fst'
'forschung_'
'Spiel'
'Programms_'
'Bogen_'
'jl'
'Nutzen_'
'nachzu'
'Schmerzen_'
'Laden'
'BE'
'Anmeldungen_'
'Ob'
'Metall'
'6'
'han'
'Kf'
'red'
'elo'
'voht'
'raus'
'absolvierte_'
'zweieinhalb_'
'eingesch'
'Halbjahr_'
'Bs'
'zur'
'begeisterte_'
'prüft_'
' - ._'
'rr_'
'Riesen_'
'tj'
'chefs_'
'Schna'
'Marken_'
'To_'
'Künstlern_'
'Gebäuden_'
'39'
'rische_'
'Kompromiss_'
'nin_'
'Ra'
'Yücel_'
'cfo_'
'behaupten_'
'Politikern_'
'sicheren_'
'genossen_'
'üfr_'
'orn'
'les'
'nochmal_'
'erklärten_'
'erkennt_'
'Wein'
'Male_'
'zurückkehren_'
'cf'
'Parlaments_'
'Beri'
'lsch'
'bö'
'Yorker_'
'osi'
'llung_'
'bis'
'SK'
'IT'
'Hits_'
'Haut'
'Gegenstände_'
'urde_'
'Maler_'
'Geburts'
'fabrik_'
'politisches_'
'uf'
'nominiert_'
'ne'
'frankenpost_'
'Wohl'
'Museums_'
'Jh'
'Diebstahl_'
'best'
'Hunde'
'A'
'saal_'
'los'
'Nachbar'
'älle_'
'versprach_'
'vereinbart_'
'dn'
'Merkels_'
'krise_'
'els'
'Sieben'
'ST'
'Rn'
'60'
'Qi'
'Mor'
' " : " _'
'zusammenge'
'rmann_'
'Link_'
'Frank'
'keines_'
'Kern'
'klagen_'
'hal_'
'Franziska_'
'beschloss_'
'Miete_'
'wiese_'
'Beobachter_'
'eins'
'Dra'
'solange_'
' - '
'Wil'
'Bundestags'
'Aktions'
'material_'
'ho_'
'dünn_'
'Ordnungs'
'Geht_'
'sihc_'
'fi_'
'Aufführung_'
'Ls'
'Andre_'
'zwei'
'usschuss_'
'auszu'
'Uh'
'titel_'
'lieferte_'
'Zs'
'Alltags'
'genannte_'
'Stre'
'Spanier_'
'xt'
'yen_'
'uv'
'decke_'
'mr_'
'Serien'
'lau_'
'Namens'
'Kammer'
'tungs'
'belohnt_'
'anstehenden_'
'abe'
'PE'
' ) : " _'
'teilten_'
'rA'
'Mengen_'
'senken_'
'Gt'
'Bestandteil_'
'Louis_'
'Kriminalpolizei_'
'stoßen_'
'Real'
'Gemeinde'
'inder_'
'zig_'
'chi'
'Dl'
'termin_'
'gf'
'Nerven_'
'Ko_'
'Bou'
'Arnold_'
'ühne_'
'einfachen_'
'Nieder'
'lz_'
'ieder_'
'Macher_'
'zug'
'scih_'
'lai'
'Schü'
'Sau'
'zusammen'
'ore_'
'beziehen_'
'Cu'
'Bett'
'unft_'
'Vereinigung_'
'; _'
'Mein'
'Bürgermeisters_'
'Vorwürfen_'
'Kö'
'stet_'
'party_'
'Sporthalle_'
'Ef'
'eK'
'still_'
'Schnell'
'Rod'
'Marion_'
'lls_'
'Tesla_'
'Bundesver'
'heraus'
'derer_'
'beeindruckt_'
'Tn'
'Kaiser'
'Jer'
'Jah_'
'Bö'
'Drei'
'Karls'
'Bu'
'zwischenzeitlich_'
'zweigen_'
'Nation_'
'Apps_'
'Feiern_'
'Clemens_'
'rf'
'lände_'
'Jahres'
'Erkenntnis_'
'Kino'
'Zoll'
'Ausgang_'
'gefährliche_'
'Töne_'
'abgerissen_'
'Sonntags'
'Cannabis_'
'58'
'nch'
'holten_'
'gebrochen_'
'gre'
'Wieder'
'Wal_'
'Elke_'
'Zl'
'Turnier'
'Zins'
'csh'
'Passau_'
'Arbeitsplatz_'
'Jesus_'
'FI'
'Medaille_'
'präsent_'
'Naturschutz_'
'Kassen_'
'Beschäftigte_'
'Wachstums'
'Freiwillige_'
'Autobauer_'
'gefährlichen_'
'Tür'
'Tischtennis_'
'Sh'
'Fen'
'Chicago_'
'Fluss_'
'verpasste_'
'einziger_'
'Trans'
'BI'
'werten_'
'mithilfe_'
'üt'
'Fa'
'lösung_'
'hand'
'Stahl_'
'hafte_'
'bunt_'
'Ou'
'käme_'
'kopf_'
'formuliert_'
'Symbol_'
'Vn'
'Klein'
'Internetseite_'
'wählt_'
'wurdet_'
'Unterkunft_'
'tf'
'sang_'
'Meisterschaften_'
'Handeln_'
'akzeptieren_'
'Airbus_'
'oer_'
'Umfang_'
'Qa'
'ör_'
'oj'
'Papier'
'Frist_'
'Arbeitslosigkeit_'
'Märkte_'
'trugen_'
'inne_'
'1987_'
'notwendige_'
'Wille_'
'Irland_'
'Hase_'
'Gedenk'
'Br_'
'Jugendarbeit_'
'Irr'
'stärkste_'
'kg_'
'anz'
'Rl'
'Reg'
'versetzt_'
'fjofs_'
'etz_'
'Quellen_'
'Nac'
'Go_'
'Triumph_'
'Kir'
'xe'
'versammlung_'
'betragen_'
'befreien_'
'rga'
'eS'
'erreichbar_'
'Besten_'
'stor'
'Plastik'
'xl'
'Jubel_'
'Se'
'Ried_'
'DE_'
'gelebt_'
'Florida_'
'überprüfen_'
'Wittenberg_'
'Verdi_'
'rn'
'fähigkeit_'
'eVr'
'Starnberg_'
'zun'
'brauchte_'
'Mer'
'Ankunft_'
'All'
'versprochen_'
'Sonst_'
'order_'
'Struktur_'
'neuesten_'
'installiert_'
'eler_'
'Gewinne_'
'Hus'
'utz'
'let_'
'esti'
'Bee'
'Verfassungs'
'Frühstück_'
'nst_'
'Muss_'
'Musik'
'Kabine_'
'gewusst_'
'geteilt_'
'Kreise_'
'Brunnen_'
'Milliarden'
'unglaublich_'
'Entlastung_'
'Dur'
'Tor'
'Miteinander_'
'Titelverteidiger_'
'44'
'wetter_'
'fa_'
'chancen_'
'Standorten_'
'nummer_'
'Sy'
'Ritter_'
'ßh'
'Stein'
'gemeinsames_'
'Fat'
'Anfragen_'
'une'
'Konzerns_'
'Friedens'
'Feuerwerk_'
'sr_'
'NE'
'Meinungs'
'Lf'
'Kultur'
'Trier_'
'del'
'Stehen_'
'verwenden_'
'schul'
'altung_'
'är'
'treu_'
'gb'
'akt_'
'Schlusslicht_'
'erfuhr_'
'drückt_'
'sv'
'schw'
'Kennen_'
'ösen_'
'eL'
'sab'
'Hubschrauber_'
'zuhause_'
'tri'
'reis'
'lb'
'Konzentration_'
'mehrerer_'
'iet_'
'atz'
'Motor'
'Einsätzen_'
'Dokumente_'
'Clinton_'
'ye'
'haften_'
'angezeigt_'
'Workshops_'
'Hürde_'
'Hauptversammlung_'
'Kriterien_'
'sammlung_'
'interessante_'
'gä'
'gra'
'Musikverein_'
'städtische_'
'WE'
'Lehmann_'
'gene_'
'forderten_'
'Varianten_'
'lü'
'kassiert_'
'Streit'
'Eisenbahn'
'jenem_'
'vorsichtig_'
'komm_'
'Zverev_'
'su'
'gesellschaftlichen_'
'dra'
'Inszenierung_'
'Hofer_'
'benutzt_'
'201_'
'zer'
'verdanken_'
'stellvertretender_'
'lobt_'
'sol'
'pp'
'Pe_'
'Unter'
'Sten'
'freiem_'
'ver'
'prä'
'ausgegangen_'
'Wasch'
'Jagd_'
'lungs'
'jenseits_'
'geber_'
'Nazis_'
'Lt'
'Beu'
'pfen_'
'kan'
'187'
'reunde_'
'eer'
'Mot'
'lei_'
'dm'
'Guido_'
'Doris_'
'mu'
'griffen_'
'edi'
'Gi'
'kritischen_'
'Eis'
'Augsburger_'
'Terrormiliz_'
'Pascal_'
'Kos'
'edm_'
'Technologie'
'Staates_'
'Fortschritte_'
'besorgt_'
'Qu'
'versteckt_'
'ller'
'jahren_'
'Tit'
'Zuerst_'
'Schulze_'
'Denken_'
'verkauf_'
'rch_'
'lers_'
'Tuchel_'
'Michaela_'
'Haien_'
'Ea'
'Pauli_'
'Flüge_'
'Gründungs'
'Gor'
'ano_'
'Rekordmeister_'
'Box_'
'61'
'cb'
'Pokal'
'Ok'
'qua'
'Tee_'
'Lö'
'Ac'
'oftmals_'
'Edel'
'Veröffentlichung_'
'zel'
'Tt'
'Islamischer_'
'Ebersberg_'
'zufällig_'
'dor'
'Moll_'
'egn_'
'zuzu'
'vt_'
'Verdächtige_'
'Medikamente_'
'enberg_'
'Vs'
'überreichte_'
'zr_'
'rst'
'Hay'
'tc'
'Heil'
'kul'
'bedient_'
'Über'
'kö'
'Yi'
'Todes'
'Gabriele_'
'188'
'Cp'
'cn'
'entschlossen_'
'Hose_'
'afp_'
'Hürden_'
'Resonanz_'
'uns'
'ktionen_'
'Athen_'
'Handwerker_'
'medizinische_'
'eller_'
'Verf'
'Pflanzen'
'Kor'
'. '
'shc'
'nen'
'Sätze_'
'mc'
'ziert_'
'Scheibe_'
'Reden_'
'Dro'
'üf'
'fen'
'Stream_'
'Dom'
'TS'
'Tests_'
'ielt_'
'Spie'
'Folge'
'00'
'multi'
'Uber_'
'Theo_'
'kleinezeitung_'
'Or_'
'32'
'Breit'
'jahre_'
'attackiert_'
'Interviews_'
'Bosch_'
'2022_'
'Rec'
'öe'
'risch_'
'din_'
'Israels_'
'Do'
'weitergehen_'
'station_'
'Pri'
'ves_'
'Vier'
'Tennis'
'Papa_'
' " ) ._'
'taten_'
'einziges_'
'aS'
'Inhaber_'
'on'
'Ll'
'tanz_'
'dert_'
'Jan'
'Tillerson_'
'Bemühungen_'
'Stell'
'Computer'
'hnt_'
'erk'
'ieb_'
'750_'
'echter_'
'aB'
'Flach'
'einstigen_'
'ai'
'Zimmer'
'Volksbank_'
'Kassen'
'Einheiten_'
'po'
'heu'
'Höchst'
'mor'
'Gö'
'zellen_'
'gebildet_'
'Mangel_'
'Konkret_'
'Voll'
'Fin'
'ware_'
'schnitt_'
'beliebten_'
'Bombe_'
'eigentliche_'
'chu'
'Neujahrs'
'erkennbar_'
'ags'
'Xp'
'Staatsanwalt_'
'Nt'
'Grundstücke_'
'Cl'
'Asyl'
'Zeitplan_'
'+_'
'unverletzt_'
'Schild_'
'bol'
'son'
'Fl'
'uchs_'
'ii'
'gebunden_'
'räger_'
'leute_'
'erreichten_'
'za'
'Stau'
'Fitness_'
'net'
'Schulter_'
'trainer_'
'probleme_'
'Schoß_'
'RS'
'Opfer'
'Cm'
'tiefe_'
'einsch'
'Update_'
'Rathaus'
'ät'
'Industrie'
'Hobby'
'Heide'
'Hau'
'Ha'
'sm'
'bal'
'Ven'
'unbekannter_'
'ofs_'
'scha'
'stadt'
'normale_'
'lernt_'
'Wert'
'Produkten_'
'Saint_'
'Mark'
'28'
'sz'
'Straf'
'Bewertung_'
'sol_'
'lb_'
'Kindergarten'
'Tot'
'Nordkoreas_'
'Äl'
'wt'
'ale'
'Li'
'Anne'
'chtet_'
'Zuschuss_'
'Wahl'
'Text'
'verschwinden_'
'saßen_'
'wohl'
'vi'
'iner'
'Format_'
'51'
'Standort'
'Millionen'
'Gepäck_'
'freier_'
'db'
'Jü'
'zukommen_'
'gezählt_'
'Eg'
'nre'
'situation_'
'wahrgenommen_'
'restlichen_'
'Vl'
'Radler_'
'Phänomen_'
'Mutter'
'Lucas_'
'Airline_'
'ret'
'fehler_'
'cy_'
'Such'
'aM'
'Pfarr'
'landschaft_'
'habend_'
'Transfer_'
'Nils_'
'Gottes_'
'ine'
'fo'
'Shi'
'kr_'
'Sicher_'
'EN_'
'tchen_'
'Profil_'
'Lesung_'
'rage_'
'perfekte_'
'Abschaffung_'
'1977_'
'lustig_'
'illegale_'
'benötigen_'
'Scheitern_'
'Bäumen_'
'Eisbären_'
'besuchten_'
'Reform'
'wps'
'fm_'
'Politik'
'ME'
'Frei_'
'ASV_'
'Öz'
'ovic_'
'entdeckte_'
'Gn'
'let'
'schuldig_'
'hle_'
'bilder_'
'Ken_'
'Gl'
'Kasten_'
'As_'
'aK'
'Haus'
'Gra'
'richtete_'
'mf_'
'Sf'
',-_'
'mani'
'lh'
'gründete_'
'gestimmt_'
'mb'
'chter_'
'ani_'
'schutz'
'mitglied_'
'alber_'
'Fjo'
'dia'
'angesetzt_'
'NPD_'
'gee'
'ehrenamtliche_'
'men'
'gib_'
'Höcke_'
'Technik'
'tra'
'Ingo_'
'Basel_'
'aße_'
'Confed_'
'á'
'lmann_'
'versehen_'
'unter'
'Spe'
'Kitas_'
'Heidi_'
'möglicher_'
'meter_'
'blaue_'
'Pot'
'hochge'
'Sand'
'Mailand_'
'erlebte_'
'SC'
'ovs_'
'Hitler_'
'Hil'
'Hier'
'Poli'
'ager_'
'Gerüchte_'
'Caritas_'
'rz_'
'Tankstelle_'
'GA'
'schu'
'eif'
'Trauer_'
'Netflix_'
'lebenden_'
'gs'
'Oberösterreich_'
'spontan_'
'gestrichen_'
'fft_'
'Wolfs'
'überlassen_'
'sozial_'
'Reutlinger_'
'Erm'
'knappen_'
'ringer_'
'pefs_'
'Erkrankung_'
'skeptisch_'
'Schumacher_'
'Brücken_'
'Hauptver'
'Eo'
'Io'
'Bern_'
'kommission_'
'ahn'
'Qualitäts'
'ede_'
'aD'
'mach'
'dse_'
'Hartmann_'
'erleichtert_'
'dauer_'
'Niki_'
'Hab_'
'uck_'
'dunkle_'
'Ss'
'Fahrten_'
'alle'
'rta'
'Azur_'
'Tabellen'
'Abschieds'
'aler_'
'Hang_'
'Schwaben_'
'San'
'Behinderung_'
'zelt_'
'user_'
'getestet_'
'Problem'
'Bischof_'
'wurd_'
'iker_'
'gesta'
'andererseits_'
'RT'
'Ange'
'Sel'
'Dis'
'euer_'
'Menschenrechte_'
'tv_'
'ater_'
'aF'
'Geschenke_'
'hc'
'derzeitigen_'
'KE'
'Hacker_'
'verlaufen_'
'Zeitungen_'
'Vermieter_'
'Ue'
'sieben'
'Bein'
'gewechselt_'
'Milli'
'az_'
'Uh_'
'Ru'
'Don'
'teilgenommen_'
'ji'
'Kü'
'Ges'
'äe_'
'mte_'
'Yn'
'Fie'
'Akten_'
'Geldstrafe_'
'zw'
'verle'
'heil'
'erwähnt_'
'einschließlich_'
'beigetragen_'
'absolvieren_'
'baute_'
'Lichten'
'Bewusstsein_'
'Bewerbung_'
'jüngere_'
'eD'
'bohf'
'Kau'
'hammer_'
'gna'
'AR'
'sg'
'begrenzt_'
'aW'
'Wa_'
'Rechten_'
'Kerstin_'
'It'
'schau_'
'stellung_'
'Sonja_'
'NATO_'
'ther_'
'pie'
'Kulmbach_'
'meh_'
'Bin'
'aufbauen_'
'Mil'
'Attacken_'
'Umsatz'
'Rumänien_'
'Vorsicht_'
'schlimm_'
'Club'
'Besucher'
'Genuss_'
'bewältigen_'
'Wettbewerbs'
'schlugen_'
'ore'
'gne_'
'Laufen_'
'Übungen_'
'empfängt_'
'besetzten_'
'unterdessen_'
'Lande'
'Holl'
'Europäer_'
'Dü'
'8000_'
'nachhaltig_'
'har'
'fühlte_'
' : ( _'
'Power_'
'Ortszeit_'
'Ie'
'ate'
'Werks'
'Unver'
'Kom'
'Island_'
'Aubameyang_'
'nik_'
'Promi_'
'ure'
'Vorsitz_'
'oßen_'
'konservative_'
'gp'
'gefahr_'
'Ausschreibung_'
'äe'
'run_'
'rter_'
'ell'
'Tun_'
'nö'
'bst'
'Franziskus_'
'90er_'
'see'
'Preisen_'
'qe'
'Jong_'
'First_'
'Behörden'
'Aue_'
'verkehrs'
'ntin_'
'iden_'
'Zwangs'
'Polizeiangaben_'
'AT'
'heftigen_'
'demokratischen_'
'Kranken'
'Ers'
'Museen_'
'eR'
'Vision_'
'Ingrid_'
'usch'
'rück'
'Del'
'Überlegungen_'
'Wunder'
'begannen_'
'ehrlich_'
'iter'
'ani'
'Vi'
'Np'
'Mö'
'Krefeld_'
'Km'
'Denkmal_'
'einzig_'
'Nach'
'fehlende_'
'Weit_'
'Trag'
'thema_'
'eb'
'Pt'
'Debatten_'
'Band'
'zustimmen_'
'wn'
'grünes_'
'RE'
'Klub'
'By'
'Bundesland_'
'Beg'
'katholische_'
'Decke_'
'Angelika_'
'wort_'
'rock_'
'Entsprechend_'
'Eichen'
'pä'
'enthält_'
'miss'
'erfolg_'
'Krankenhäuser_'
'Har'
'Gla'
'Films_'
'heim'
'Mix_'
'Mar'
'Cur'
'Motivation_'
'beiten_'
'aufgewachsen_'
'Wel'
'zh'
'niedrigen_'
'hing_'
'bereite_'
'Partner'
'Eck_'
'wem_'
'Sitze_'
'Renault_'
'konfrontiert_'
'Präsenz_'
'finale_'
'Gäste'
'unge'
'Tages'
'Stan'
'bemerkte_'
'Staats'
'312'
'neg'
'Zahlungs'
'Le'
'Das'
'Keim_'
'Dietrich_'
'189'
'iums_'
'Söhne_'
'SZ_'
'LI'
'ra'
'way_'
'agieren_'
'Spitzenkandidat_'
'oofo_'
'France_'
'Enkel_'
'Energien_'
'ufer_'
'Werk'
'Jt'
'Flo'
'klang_'
'illegal_'
'günstig_'
'AB'
'wahl'
'Lothar_'
'Venezuela_'
'ups_'
'streng_'
'mes_'
'nac'
'lig_'
'Ans'
'usa'
'Papiere_'
'Brandenburger_'
'Albrecht_'
'Vorverkauf_'
'Paderborn_'
'Chelsea_'
'Abbau_'
'tfo_'
'nr'
'Versicherung_'
'äden_'
'min'
'Wie'
'Ort'
'mehrheitlich_'
'Festzelt_'
'lebens'
'gera'
'öen_'
'Ot'
'Gh'
'Gehalt_'
'Ps'
'Langzeit'
'Bl'
'bü'
'Nicht'
'anten_'
'Winterpause_'
'Musikschule_'
'Kus'
'Kohl'
'Abgas'
'beantwortet_'
'DS'
'chul'
'Fürsten'
'erstmal_'
'Jahrs_'
'33'
'verhaftet_'
'altes_'
'tal'
'sver'
'suchten_'
'Yl'
'gk'
'Ober'
'Leyen_'
'Eric_'
'ampf_'
'Bed'
'Anlauf_'
'horst_'
'Dutzende_'
'ünden_'
'jw'
'Ster'
'Fraktions'
'ham_'
'bewerben_'
'Grab_'
'tieren_'
'erneute_'
'bene_'
'tan_'
'U1'
'öglichkeiten_'
'gg_'
'chlag_'
'Bek'
'ny_'
'Rüdiger_'
'schießt_'
'schafts'
'jen_'
'91'
'üh'
'Pflege'
'für'
'Eltern'
'übt_'
'ua_'
'saison_'
'gew'
'gesetzlichen_'
'äußert_'
'Partnern_'
'Dun'
'üe'
'err'
'echen_'
')_'
'par'
'kritisieren_'
'hfc'
'Dessau_'
'Stark_'
'steigenden_'
'füllen_'
'bro'
'sberg_'
'fli'
'Votum_'
'Sur'
'Erneuerung_'
'8'
'vermuten_'
'bauten_'
'beauftragte_'
'Rebellen_'
'Aufsehen_'
'einbringen_'
'ah'
'Öl'
'lautete_'
'jt_'
'Jr_'
'Aut'
'Raketen_'
'sinken_'
'Gel'
'tödlich_'
'negativ_'
'Bundesligisten_'
'le'
'Mir'
'Ministerin_'
'linge_'
'Tb'
'führenden_'
'Hauben_'
'iene_'
'Mus'
'Lorenz_'
'DO'
'züge_'
'ru_'
'jg'
'Stern'
'Stabilität_'
'ex_'
'interessierte_'
'nsch'
'cks'
'Order_'
'Pech_'
'zier'
'jm'
'Tjf_'
'wunde_'
'weiterge'
'rot'
'gsch'
'gezahlt_'
'U21_'
'Geld'
'Frust_'
'vier'
'bn'
'bge'
'Stadion'
'yo'
'steuer_'
'Richt'
'verteilen_'
'sechs'
'trecke_'
'Sicht'
'geringe_'
'gea'
'bt'
'Sparkassen_'
'Ft'
'Ko'
'äh'
'AT_'
'olle_'
'Los'
'stehende_'
'gle'
'erzielten_'
'äg'
'kp'
'Wies'
'Pers'
'Lau'
'üer'
'schickte_'
'Spätestens_'
'lehrer_'
'gestoßen_'
'besuch_'
'Wolfratshausen_'
'Parlaments'
'Lat'
'isi'
'gebr'
'bezieht_'
'Ludwigsburg_'
'verwandelt_'
'raft_'
'evangelische_'
'eger_'
'Tele'
'Kollegin_'
'Hör'
'Sou'
'begründete_'
'Mut'
'Bundesligist_'
'vin'
'Wei'
'Portal_'
'Textil'
'itzer_'
'rts'
'rme'
'ausländische_'
'Risiko'
'HC_'
'Anschläge_'
'vertraut_'
'Oer'
'one'
'chung_'
'Bebauungsplan_'
'Überzeugung_'
'fest'
'Xi_'
'EB'
'Özdemir_'
'pri'
'off'
'flu'
'umme_'
'atte_'
'Bevölkerungs'
'Atem'
'qb'
'baden_'
'Sollten_'
'Gerichtshof_'
'integriert_'
'ungs'
'bekanntlich_'
'Verteidigungs'
'Alexandra_'
'trocken_'
'Rückrunde_'
'Ring'
'Justizminister_'
'Allen_'
'heater_'
'See'
'- ) _'
'uw'
'stunde_'
'ieten_'
'angepasst_'
'1980_'
'nU'
'fjo'
'natur'
'bestreiten_'
'Mich_'
'Katja_'
'Kapitel_'
'zurückge'
'Robben_'
'Neumann_'
' ! _'
'esten_'
'Ül'
'hler_'
'Silvester_'
'Bro'
'örder'
'hinzu'
'Pel'
'jf'
'Vorstoß_'
'Mes'
'Kugel_'
'dargestellt_'
'Logo_'
'Day_'
'sid_'
'erhofft_'
'Rückspiel_'
'Nor'
'Instrumente_'
'Get'
'übler_'
'engagierte_'
'Oberpfalz_'
'Elektro_'
'Sla'
'Plu'
'Weit'
'Bergen_'
'umstritten_'
'ph_'
'nver'
'Hinblick_'
'71'
'chefin_'
'Wan'
'Fri'
'nachge'
'Prüf'
'Rudi_'
'Kathrin_'
'unbe'
'Stro'
'Para'
'Ga'
'Ast'
'rer'
'Schnitt'
'Workshop_'
'Regierungschefs_'
'Leder_'
'Elektro'
'ire'
'gerichtet_'
'Pli'
'sung_'
'Versuche_'
'Ht'
'Hol'
'klarer_'
'anfangen_'
'Pre'
'Camp_'
'hk'
'Uner'
'URL_'
'gelandet_'
'bla'
'namen_'
'än'
'-\u_'
'Ref'
'Emotionen_'
'45'
'schl'
'listen_'
'kreuz_'
'kli'
'Mo_'
'Fluggesellschaft_'
'untersuchen_'
'fg'
'anschließenden_'
'Multi'
'Bf'
'Ae'
'Unbekannter_'
'Spektakel_'
'Lad'
'gelöscht_'
'Pfund_'
'Els'
'CA'
'Muskel'
'äen_'
'sur'
'lockt_'
'iDe_'
'büro_'
'anteil_'
'teams_'
'reihe_'
'ils_'
'ginn_'
'barer_'
'Pressesprecher_'
'Klagen_'
'Mitter'
'kulturelle_'
'beruflichen_'
'Ber_'
'unte_'
'Rs'
'vertreter_'
'Bez'
'wahre_'
'fortsetzen_'
'Spekulationen_'
'kei_'
'Wiesen_'
'Ex'
'à'
'tuf'
'ssi'
'Migrations'
'Klu'
'Ang'
'Amsterdam_'
'vera'
'jekt_'
'es'
'Weil'
'Inseln_'
'Architektur_'
'Tus'
'Ten'
'Social_'
'van'
'ieht_'
'benannt_'
'befanden_'
'My'
'Hu'
'Car'
'vohfo_'
'User_'
'Reiter'
'Korruption_'
'Wärme'
'Group_'
'hin'
'Fußball'
'spenden_'
'hörte_'
'beendete_'
'Gesichts'
'res'
'bur'
'besitzen_'
'cSh'
'Vizepräsident_'
'Richterin_'
'NA'
'inn'
'Bruch_'
'gger_'
'polnischen_'
'ÖFB_'
'herzlich_'
'befasst_'
'angek'
'utz_'
'Mali_'
'üer_'
'Ali'
'Tarif'
'Messe'
'Mails_'
'Sinn'
'Mb'
'Aktiven_'
'sicherer_'
'bcfs_'
'Russen_'
'Qui'
'Antonio_'
'Angestellten_'
'passende_'
'ea_'
'sche'
'allesamt_'
'sk'
'sec'
'Leon'
'Kandidatin_'
'Stör'
'Sen_'
'dp'
'Nin'
'gestürzt_'
'chluss_'
'förderung_'
'frist_'
'Märchen_'
'Jähren_'
'Enttäuschung_'
'Einschränkungen_'
'Dn'
'schi'
'flüchtete_'
'ereignet_'
'null_'
'böse_'
'Ausstellungen_'
'Hochzeits'
'Philip_'
'Insassen_'
'bor'
'hebt_'
'enz'
'vorläufig_'
'Masse_'
'flog_'
'Ql'
'Gott'
'spiel'
'ommt_'
'begegnen_'
'zugänglich_'
'Soest_'
'IA'
'Billion_'
'ys'
'vorgeschlagen_'
'Wt'
'Stärkung_'
'ückt_'
'iss_'
'Langen'
'fc'
'Ralph_'
'Ban'
'geschieht_'
'gefühlt_'
'Witz_'
'Bos'
'"._'
'half_'
'Mol'
'Inter'
'Berichten_'
'Argument_'
'Android_'
'Wirtschafts'
'Ursachen_'
'loch_'
'ane'
'Schönheit_'
'Satz'
'Kp'
'Alpen_'
'nä'
'kas_'
'Wärme_'
'Slam_'
'Bor'
'Katzen_'
'sh'
'Gil'
'munter_'
'Um'
'ungsp'
'Protesten_'
'Blu'
'ige'
'Bücher'
'jährlichen_'
'chan'
'Kate_'
'tö'
'Kop'
'Investitions'
'Durchschnitts'
'ska'
'Töchter_'
'Auftrags'
'cen'
'Direkt'
'Objekte_'
'pol_'
'ey'
'Aufruf_'
'05'
'ichtung_'
'Seel'
'Muster'
'Tabellenplatz_'
'Juncker_'
'lehr'
'MB'
'Letztlich_'
'Gin'
'BBC_'
'Bodensee_'
'ov_'
'Sah'
'Uni'
'ano'
'Wände_'
'Gewerkschaften_'
'lä'
'Zh'
'Strand'
'enbe'
'Wagen'
'syrische_'
'ew_'
'ces_'
'Mittelfeldspieler_'
'ESC_'
'pen'
'erwarte_'
'bewegung_'
'bestreitet_'
'Personen'
'Linden'
'maßgeblich_'
'Werden_'
'unst'
'steigende_'
'heimische_'
'gebühren_'
'chsen_'
'wert'
'stetig_'
'Sieg'
'Go'
'ük'
'over_'
'Nord'
'Fm'
'abseits_'
'ecke_'
'Wahren_'
'unterlagen_'
'sank_'
'AD'
'garantiert_'
'far'
'Meeres'
'schwachen_'
'rse'
'nächster_'
'Statement_'
'Sommer'
'Hy'
'Fahrtrichtung_'
'festgehalten_'
'Strecken'
'Oma_'
'Fä'
'ßo'
'produzieren_'
'lehnte_'
'ven'
'ret_'
'mar'
'ix_'
'ern'
'Tuf'
'Schätzungen_'
'Leichtathletik_'
'Funk_'
'Dt'
'Brenn'
'wirk'
'tü'
'rgen_'
'Wuppertal_'
'Modell'
'Augenhöhe_'
'wünschte_'
'tein'
'afts'
'Zaun_'
'Reiner_'
'48'
'überschritten_'
'reh'
'ätten_'
'kurz'
'hagen_'
'bte_'
'Lob'
'Theorie_'
'Gauland_'
'Can'
'gefühl_'
'Sucht'
'Flüchtlingspolitik_'
'rge'
'fge'
'euer'
'tb'
'CE'
'Abstiegs'
'starkes_'
'ologie_'
'Kühl'
'Gemälde_'
'menschlichen_'
'Kronach_'
'Kalt'
'vertritt_'
'genießt_'
'Keil_'
'Horb_'
'gele'
'eitung_'
'Räder_'
'Zwölf_'
'Rum'
'RI'
'hinein'
'arid_'
'Lingen_'
'sozial'
'ruf_'
'Berge_'
'Dance_'
'72'
'68'
'Läden_'
'fr'
'Transparenz_'
'FIFA_'
'unfall_'
'asch'
'Dies'
'höchst'
'Stat'
'Länder'
'vorliegen_'
'entrum_'
'Melanie_'
'gla'
'enf'
'ase_'
'Geplant_'
'gewi'
'fängt_'
'attraktiv_'
'Vergabe_'
'sal'
'möge_'
'globalen_'
'Politikerin_'
'Gesangs'
'Donaueschingen_'
'Ye'
'tu'
'Kul'
'Bundesländer_'
'Jun'
'Emma_'
'Baustellen_'
'Bag'
'do'
'iz_'
'ip'
'gut'
'Gei'
'Erk'
'il'
'hh'
'Zer'
'Dm'
'reform_'
'nehm'
'gar'
'Vergleichs'
'bv'
'Methode_'
'Ehe'
'int'
'eta'
'adi'
'Saarland_'
'American_'
'ant'
'Anfangs'
'lachen_'
'genauen_'
'Prinzessin_'
'nischen_'
'medizinischen_'
'Gelder_'
'ia'
'lbe'
'Kälte_'
'Erlangen_'
'verhandeln_'
'Orgel'
'Marius_'
'Bühnen_'
'nga'
'Str'
'Nb'
'Lächeln_'
'Kinos_'
'FS'
'René_'
'Regierungen_'
'KS'
'KA'
'tsa'
'sS'
'Transport_'
'meines_'
'DIE_'
'Bob'
'kehrs'
'Garten'
'fk'
'meinde_'
'jan'
'eilt_'
'Zimmern_'
'nK'
'internen_'
'Qe'
'Halte_'
'Fett'
'ri'
'igem_'
'auswärts_'
'angesch'
'Stamm'
'Geschäftsführerin_'
'Doping_'
'BD'
'Ablehnung_'
'Streifen_'
'umzusetzen_'
'ron'
'begeben_'
'Streu'
'Motive_'
'Brö'
'Sü'
'Kot'
'vel'
'vorigen_'
'gelben_'
'Wasser'
'USS_'
'Nei'
'Banken'
'Am'
'yn'
'itu'
'Ursprünglich_'
'ẞi'
'üler_'
'Ys'
'ürger'
'llen'
'ea'
'bc'
'Vermutlich_'
'Tra'
'Mikro'
'ergänzte_'
'PR_'
'-"_'
'ncht_'
'Stufe_'
'Kart'
'Abf'
'vollkommen_'
'Zentralbank_'
'Taxi_'
'Fis'
'Bahnhofstraße_'
'lle'
'Urlauber_'
'Luca_'
'Kulissen_'
'ub'
'sag_'
'fördert_'
'Verluste_'
'Hohen'
'Blas'
'Ausmaß_'
'äusern_'
'traurig_'
'schildert_'
'Maro'
'tive_'
'äne_'
'igte_'
'ellt_'
'deutlicher_'
'Digital'
'ausgewählt_'
'Stei'
'Ar'
'efs'
'urch_'
'111_'
'ausf'
'Islam'
'Heiligen_'
'BER_'
'Andre'
'ẞl'
'hervorragend_'
'Ph'
'Radio'
'Dal'
'Osnabrücker_'
'Landeshauptstadt_'
'oS'
'manch_'
'ho'
'Palm'
'Äe'
'unterlag_'
'lebende_'
'aufgegeben_'
'Wen'
'WC_'
'Existenz_'
'Innenverteidiger_'
'wort'
'mpf'
'Wfs'
'Ii'
'rP'
'Boe'
'ältesten_'
'gekostet_'
'ante_'
'Xu'
'Obern'
'Lj'
'ßer'
'gas_'
'uth_'
'ngebot_'
'eur_'
'Men'
'Kehr'
'Bastian_'
'Anhängern_'
'Besondere_'
'94'
'Schö'
'62'
'ild'
'Xs'
'SP_'
'sweise_'
'Wählern_'
'Wu'
'por'
'etz'
'ath_'
'Stärken_'
'Volks'
'Haltestelle_'
'bern_'
'ausgetauscht_'
'Lä'
'Fel'
'abstimmen_'
'Wiesen'
'Claus_'
'lokalen_'
'36'
'ẞe'
'Xl'
'Flächen'
'Alten'
'ön'
'spürbar_'
'kla'
'mmen'
'ßs'
'niemanden_'
'get'
'Over'
'Kraus_'
'äer_'
'flo'
'fließt_'
'ultur_'
'Roll_'
'Qb'
'Heide_'
'Buche_'
'Bru'
'seinerzeit_'
'kin_'
'Route_'
'Punkt'
'Innerhalb_'
'verkündete_'
'University_'
'Sätzen_'
'Schüsse_'
'Hort_'
'Bef'
'zugute_'
'hner_'
'üren_'
'werkstatt_'
'qt'
'edr'
'Medi'
'Herzog_'
'Erbe_'
'Dru'
'vorhandenen_'
'oo_'
'geeinigt_'
'nas'
'Daneben_'
'südlich_'
'hohes_'
'absch'
'Märchen'
'Benz_'
'Abbruch_'
'Prognosen_'
'Gesetzes'
'sich'
'motiviert_'
'lug'
'Journalistin_'
'Witt'
'Vorder'
'Verfolgung_'
'Grundstücks'
'Füßen_'
'Angel'
'sion_'
'inge_'
'UNO_'
'Steigerung_'
'lätze_'
'gne'
'Sonnenschein_'
'Kh'
'Fertig'
'Brief'
'ind'
'Bc'
'wohin_'
'intensive_'
'Eli'
'schade_'
'mber_'
'On'
'zeugen_'
'exakt_'
'tro'
'sl_'
'ry'
'Sus'
'Sach'
'Noten_'
'welt'
'Ke_'
'Hasel'
'cr'
'Kollision_'
'Kabel'
'Glanz_'
'Ems'
' " ?_'
'öse_'
'land'
'Unmut_'
'Service'
'ihr'
'erheblichen_'
'Turin_'
'Än'
'steuern_'
'schwa'
'ots_'
'mf'
'innere_'
'Alois_'
'Überfall_'
'weitergeht_'
'eden_'
'Grafen'
'rechen_'
'(  _'
'zp'
'Füße_'
'setz_'
'Unterhaltungs'
'Schein'
'Breite_'
'geringen_'
'Zen_'
'Lübeck_'
'Leih'
'Blick'
'97'
'weichen_'
'Xb'
'Len'
'Bettina_'
'Absicht_'
'unterhalb_'
'tan'
'SCH'
'löschen_'
'ogramm_'
'Glo'
'Etappe_'
'Einwohnern_'
'ütte_'
'unkte_'
'Was'
'Schlussphase_'
'Xe'
'kir'
'geh'
'Schön'
'Export'
'Dp'
'Armen_'
'hinge'
'Erdgeschoss_'
'geräumt_'
'bot'
'SW'
'Rhythmus_'
'Kurve_'
'Überprüfung_'
'Franco_'
'kosten'
'iti'
'Deniz_'
'mü'
'Treue_'
'Lan'
'Lahm_'
'Fuhr_'
'organisierte_'
'lu'
'att_'
'Lernen_'
'erwiesen_'
'Maut_'
'Luthers_'
'ICI_'
'hu_'
'ewa'
'bundes'
'bringe_'
'springen_'
'mittleren_'
'Startelf_'
'Samsung_'
'iS'
'dler_'
'Speise'
'Mad'
'sobald_'
'kreisen_'
'angetreten_'
'Startschuss_'
'Sas'
'günstiger_'
'Gur'
'Syrer_'
'Monats'
'High_'
'geregelt_'
'dh'
'Mei'
'Fet'
'uh_'
'Gon'
'83'
'selb'
'Wanderer_'
'VfR_'
'Tom'
'änder'
'sieg_'
'iste_'
'Verbandsliga_'
'Bewährung_'
'nce_'
'kollegen_'
'blau_'
'Ks'
'Huren_'
'Emsland_'
'sinkt_'
'fei'
'atten_'
'Inn'
'Fakt_'
'uses_'
'Lb'
'Hab'
'Bran'
'Initiativen_'
'BM'
'wir'
'Mängel_'
'Auflösung_'
'rren_'
'offener_'
'ny'
'Opa_'
'yan'
'lebten_'
'ahnen_'
'Widerspruch_'
'Wal'
'Absturz_'
'Überwachung_'
'ions_'
'ichkeit_'
'Kun'
'Alarm'
'tück_'
'rsch'
'ried_'
'quelle_'
'fle'
'Integrations'
'verschärft_'
'WS'
'Begleiter_'
'ql'
'ehren_'
'Haupta'
'ever'
'beliebte_'
'org_'
'mitgebracht_'
'gesellschaftliche_'
'Wer'
'Versch'
'Sal'
'Klang_'
'Gie'
'unverändert_'
'Krankenhaus'
'Kli'
'Verk'
'Klinik'
'fraglich_'
'Tee'
'Rückblick_'
'Luxus_'
'Fed_'
'Bock'
'Wiesn_'
'Ortsvorsteher_'
'zum'
'MA'
'Kammer_'
'Götz_'
'stätte_'
'hatt_'
'Xf'
'Kleid_'
'nstraße_'
'can'
'andern_'
'Auftritten_'
'our'
'Rivalen_'
'Mallorca_'
'Gregor_'
'teuren_'
'Versorgungs'
'Luther'
'aro'
'Schulden'
'Lei'
'Gutachter_'
'Garage_'
'Betreuer_'
'Argumente_'
'yt'
'dicke_'
'Weite_'
'Programm'
'Katze_'
'Hurrikan_'
'hab'
'Tokio_'
'uen'
'schau'
'blut'
'MI'
'Jas'
'holz'
'Konter_'
'Einblicke_'
'ity_'
'Teu'
'Na'
'Bundesrat_'
' . : _'
'Strom'
'Flu'
'Chile_'
'rag'
'Ln'
'zonen_'
'verdienten_'
'port'
'uas_'
'iesen_'
'kor'
'ew'
'Performance_'
'Mitglieds'
'Leo_'
'03'
'tre_'
'gj'
'wehren_'
'gha'
'betreten_'
'Maas_'
'Flaschen_'
'ona'
'hfo'
'Gewerbe_'
'Eur'
'Cv'
'kl_'
'US'
'urs'
'Feder'
'empfehlen_'
'einz'
'Ka_'
'ill_'
'durchgesetzt_'
'Stock'
'Abstiegskampf_'
'uk_'
'probe_'
'ieger_'
'fahrzeug_'
'Zusammen'
'House_'
'ets_'
'Qo'
'ẞs'
'xjs_'
'betrachten_'
'abge'
'Obergrenze_'
'Löwen'
'Autobahn'
'usp'
'Uo'
'Schä'
'schuss_'
'deutet_'
'Angestellte_'
'las'
'alo'
'Thor'
'rund'
'Durchbruch_'
'nzen_'
'Vil'
'1972_'
'teilung_'
'ted_'
'nah'
'Mär'
'individuelle_'
'She'
'Jahrein_'
'Inneren_'
'Comey_'
'Arabia_'
'sbach_'
'oer'
'Deutsch'
'sub'
'dor_'
'Faktor_'
'27'
'hingewiesen_'
'Original'
'Konsequenz_'
'Gründ'
'Entlassung_'
'dau'
'bea'
'Deutschland'
'Davis_'
'bf'
'Schwere_'
'Fluss'
'Aktien'
'ungsf'
'beo'
'Vf'
'Fro'
'ó'
'Sex'
'Diet'
'tfo'
'Tem'
'Größen_'
'tzte_'
'tma'
'Schlaf_'
'verwi'
'erf'
'ahme_'
'The'
'Lh'
'Alters_'
'Cn'
'SUV_'
'Kalifornien_'
'Auffassung_'
'äger_'
'Zwi'
'Verlierer_'
'zf'
'ies'
'bezeichnen_'
'Brems'
'7'
'ntwicklung_'
'Hall'
'Funk'
'Champion_'
'Sl'
'ADAC_'
'eina'
'Nan'
'Abu_'
'7000_'
'i'
'auto'
'Null'
'Musikern_'
'erbe'
'darstellen_'
'Ticker_'
'irk'
'bezüglich_'
'Jahreszeit_'
'Faktoren_'
'Euch_'
'Kno'
'vergeblich_'
'ickt_'
'Bri'
'/'
'aufgeben_'
'Kabinett_'
'sre'
'eute_'
'bewerten_'
'Investition_'
'Balkon_'
'*_'
'zell_'
'beklagt_'
'Urkunde_'
'Komödie_'
'dings_'
'Ret'
'zugestimmt_'
'mS'
'iss'
'gegner_'
'eP'
'Kunst'
'BB'
'kre'
'Tanja_'
'Köpfe_'
'Gestern_'
'unterbrochen_'
'lla'
'itz'
'drängt_'
'Spielerinnen_'
'zumeist_'
'frischen_'
'Flanke_'
'schlimmer_'
'Wps'
'tür_'
'Rem'
'Mau'
'Erlebnis'
'org'
'lieb_'
'unterscheiden_'
'gebt_'
'Reis'
'Endstand_'
'serie_'
'Grü'
'07'
'Öi'
'ndung_'
'heftige_'
'frühzeitig_'
'ausländischen_'
'Sonntagnachmittag_'
'Kohle_'
'zugesagt_'
'Leinen_'
'Bauhof_'
'gelt_'
'ausgabe_'
'Schlu'
'80er_'
'tiert_'
'menschliche_'
'dienste_'
'Rathauses_'
'Sing'
'Obst'
'Kä'
'Katzen'
'Anger'
' = _'
'Qp'
'Microsoft_'
'Abgang_'
'Krank'
'Grau'
'tus'
'mitmachen_'
'Fa_'
'Art'
'jemals_'
'Münster'
'Ih'
'uner'
'gers_'
'Turnhalle_'
'Systeme_'
'Kirch'
'rk'
'regierung_'
'fä'
'enie_'
'end'
'Mos'
'Fertigstellung_'
'untere_'
'Uhu_'
'Iu'
'überzeugte_'
'Nürnberger_'
'Ho'
'Vie'
'Rasen'
'Mieten_'
'siegt_'
'pflegen_'
'Sar'
'qo'
'gner_'
'Korn'
'Fö'
'Wat'
'Äi'
'ian'
'Rüstungs'
'Js'
'Handys_'
'Cho'
'umzu'
'tbe'
'Zu'
'Disziplin_'
'rungs'
'istischen_'
'gelegenen_'
'Wucht_'
'qf'
'ingt_'
'ela'
'bekämpfen_'
'Vel'
'Stimmungs'
'Beschäftigung_'
'Befragung_'
'ebe'
'Kalender_'
'diese'
'Heu'
'übersehen_'
'gier_'
'Wohnzimmer_'
'ov'
'Hi_'
'lernte_'
'israelischen_'
'ands'
'Szenario_'
'Stü'
'Pes'
'Mü'
'Eur_'
'Ere'
'ßt'
'strecke_'
'liegenden_'
'Fru'
'rz'
'erlassen_'
'ellung_'
'Fein'
'Aalen_'
'70er_'
'lic'
'ej'
'Fernseher_'
'mn'
'Gebieten_'
'ausverkauft_'
'andes_'
'Testspiel_'
'Schre'
'Rat'
'Chemie_'
'lch_'
'ged'
'Sonntagmorgen_'
'kassierte_'
'ste'
'passenden_'
'kennengelernt_'
'erneuten_'
'Institute_'
'Fußgänger'
'versorgen_'
'wen'
'sso'
'optimal_'
'kle'
'Aff'
'Bon'
'ial_'
'ana'
'Basis'
'ßen'
'gend_'
'Möbel'
'kind_'
'einziehen_'
'Youtube_'
'Schuld'
'Ehrung_'
'usik_'
'mauer_'
'WLAN_'
'Pfa'
'sky_'
'TA'
'Part_'
'tiefen_'
'ree'
'nihct_'
'Sieger'
'Hh'
'öo'
'berufen_'
'Plötzlich_'
'rem_'
'bio'
'Ruh'
'Probe_'
'Eh'
'Diesel'
'Leine_'
'Hen'
'tS'
'pflanzen_'
'eifen_'
'ap_'
'Busch_'
'unwahrscheinlich_'
'Ost'
'73'
'Pol'
'Leicht'
'anerkannt_'
'Mans'
'Bayern'
'Kette_'
'Haft'
'Anthony_'
'Adolf_'
'ausgestellt_'
'Well'
'Methoden_'
'Messen_'
'Dag'
'Üi'
'blick_'
'aufkommen_'
'Landesver'
'gerissen_'
'Soli_'
'kostete_'
'dig_'
'Mathias_'
'zusch'
'kulturellen_'
'Pet'
'Intelligenz_'
'qm'
'Nutz'
'Mediziner_'
'uter_'
'Gall'
'freiheit_'
'Tub'
'Nutzungs'
'ruck_'
'pot'
'lar_'
'MOZ_'
'Frie'
'2025_'
'Ün'
'proben_'
'ond_'
'bes'
'Jugendf'
'Gör'
'lr_'
'Leg'
'gesungen_'
'klingen_'
'Engl'
'urg'
'Landwirt_'
'WhatsApp_'
'Sul'
'Seither_'
'fah'
'arm'
'Quartett_'
'Brauerei_'
'tse'
'ru'
'verurteilte_'
'ule'
'has'
'Winfried_'
'Tin'
'Spruch_'
'handlung_'
'allgemein_'
'Weder_'
'zügig_'
'Hb'
'1899_'
'sexuell_'
'nsa'
'marke_'
'widmet_'
'urn'
'schafften_'
'ol'
'ali'
'Vors'
'Oh'
'zis'
'höchstens_'
'fahr_'
'angebote_'
'Boots'
'gepr'
'ford_'
'elte_'
'Geschäften_'
'Bü'
'iM'
'bedeute_'
'ain_'
'Unbekannten_'
'top'
'reu'
'angegeben_'
'Online'
'Fels'
'cc'
'Warnung_'
'Nn'
'längeren_'
'kel'
'cm_'
'Sturm'
'monatlich_'
'links'
'kow_'
'sprang_'
'sein'
'eingebaut_'
'drängen_'
'a'
'ält_'
'wenigsten_'
'kehrte_'
'hrs'
'treter_'
'bere'
'Ged'
'Diana_'
'esch'
'xb'
'tg'
'fehle_'
'Vor'
'Termin'
'Muster_'
'Mandat_'
'wre'
'Missbrauch_'
'gege_'
'Ausdrucken_'
'Bits_'
'schönes_'
'passierte_'
'geha'
'tm'
'agentur_'
'1982_'
'taucht_'
'stru'
'Möglicherweise_'
'Maschinen'
'Bekannten_'
'Seins_'
'Ji'
'Fahrt'
'Zn'
'Lai'
'Hartz_'
'chem_'
'bereist_'
'Passauer_'
'PS'
'Mo'
'El'
'versicherte_'
'nbo'
'Rahmenbedingungen_'
'NHL_'
'Harvey_'
'gü'
'fällen_'
'Ta'
'Heidelberg_'
'Fre'
'verabschieden_'
'el'
'wl'
'israelische_'
'Winkel_'
'Seg'
'Polit'
'Leinwand_'
'verfügbar_'
'Abd'
'orchester_'
'eingebracht_'
'therapie_'
'Elbe_'
'mö'
'dj'
'bin'
'Sil'
'Nachspielzeit_'
'Koller_'
'Gebiete_'
'Aufenthalts'
'träge_'
'außer'
'Dirigent_'
'nitz_'
'Deli'
'Arm'
'Ad_'
'rank'
'niht_'
'nD'
'Hein'
'Maß'
'Hundert_'
'Dritten_'
'lö'
'jf_'
'Schar'
'Materialien_'
'ämter_'
'vere'
'Pas'
'über'
'ude'
'produktion_'
'Brü'
'Bias_'
'Bal'
'49'
'ost_'
'eiben_'
'arabischen_'
'abzu'
'Trink'
'Th'
'Kn'
'Bat'
'ranche_'
'gegründete_'
'Reichweite_'
'Kar'
'tödlichen_'
'muslimischen_'
'hy'
'for'
'Qt'
'Ov'
'frühe_'
'Fahndung_'
'nict_'
'ernsthaft_'
'aufzubauen_'
'Oh_'
'eH'
'Unterschriften_'
'Spiegel'
'Frei'
'sitz_'
'are'
'Parks_'
'Li_'
'Fachleute_'
'82'
'yer'
'reg'
'eru'
'dis_'
'Tie'
'THW_'
'Samstagnachmittag_'
'Marvin_'
'Foul_'
'Flugzeuge_'
'31'
'schein'
'friedlich_'
'Preußen_'
'Og'
'swe'
'einsatz_'
'Justin_'
'Anwälte_'
'ersch'
'deutsches_'
'cat'
'Xo'
'orden_'
'jüdische_'
'fs'
'Sag'
'rin'
'ndi'
'hne'
'hme_'
'd'
'aß'
'ao'
'Richtungen_'
'Abo_'
'vermeintlich_'
'stattgefunden_'
'int_'
'erfährt_'
'Tö'
'Eil'
'so'
'annehmen_'
'üb_'
'parat_'
'nie'
'Tan'
'Moderne_'
'gehör'
'Diagnose_'
'Buben_'
'redet_'
'nF'
'Zt'
'kalten_'
'handle_'
'Wäre_'
'Kil'
'Fund'
'urnier_'
'Business_'
'qg'
'fla'
'ates_'
'BF'
'Juventus_'
'ABC_'
'ean'
'aufzunehmen_'
'Sobald_'
'IWF_'
'kur'
'falle_'
'Zurück_'
'Soll_'
'Ringe_'
'beides_'
'Sam_'
'gestaltete_'
'demonstrieren_'
'Pjöngjang_'
'Lem'
'tta_'
'rati'
'ram'
'Flasche_'
'rT'
'Waren'
'Notwendigkeit_'
'nfis_'
'ban'
'Airlines_'
'ord_'
'nicth_'
'ev'
'Shirt_'
'Dre'
'punkt'
'hp'
'geb_'
'enm'
'bewahren_'
'Lenker_'
'nat'
'fahrten_'
'Morgen'
'Et'
'problem_'
'Kräuter'
'ndern_'
'Offensiv'
'Gle'
'volumen_'
'Win'
'Vt'
'Rakete_'
'Pa'
'FE'
'wachsenden_'
'entz'
'Zuschüsse_'
'Ry'
'Ma'
'Haar'
'hierfür_'
'Silvester'
'ẞu'
'umgebaut_'
'ag'
'Martins'
'bein'
'Gä'
'cre'
'Kreisstraße_'
'nal'
'Uu'
'Trainingslager_'
'Ct'
'Begrüßung_'
'Festival'
'tho'
'sfo_'
'Wahrscheinlichkeit_'
'PA'
'nke_'
'gewinn_'
'og'
'ause_'
'Führungen_'
'Dir'
'Auslöser_'
'ts'
'nciht_'
'iven_'
'Verdachts_'
'Umst'
'Science_'
'Profi'
'Mond'
'Cal'
'öm'
'rand'
'Getränke'
'üen_'
'Fitness'
'AC_'
'95'
'geschah_'
'Terroranschlag_'
'Öo'
'sauber_'
'nts_'
'Mag'
'Bienen_'
'tar'
'nahe'
'erw'
'Studentin_'
'Reit'
'Mühlen'
'DPA_'
'Ana'
'lon'
'ebe_'
'Hirn'
'polizei_'
'era'
'Tp'
'Straßenverkehr_'
'tli'
'ill'
' . "_'
'ühle_'
'reiten_'
'flug_'
'bunter_'
'rom'
'heben_'
'Weiter'
'verbracht_'
'TO'
'Putz'
'Fußballs_'
'schlafen_'
'lta'
'lis'
'aussch'
'Sports_'
'uA'
'Wähler'
'Won'
'Jeden_'
'gru'
'cu'
'Wissens'
'Komponisten_'
'Is_'
'Beton_'
'pf'
'niedrig_'
'Rätsel_'
'Ruf'
'Klarheit_'
'Diele_'
'Betten_'
'Abwasser'
'zeitig_'
'eigentlichen_'
'Kriminalität_'
'racht_'
'63'
'gal'
'Reu'
'hü'
'Aspekt_'
'schwach_'
'rfa'
'mangel_'
'lc'
'ildung_'
'ias_'
'Manuela_'
'weh_'
'usch_'
'mischen_'
'gli'
'Vermögens'
'tat'
'sf'
'Weile_'
'Tur'
'Che'
'Action_'
'partei'
'gestärkt_'
'Park'
'Kulturen_'
'Bauch'
'81'
'geborgen_'
'staats'
'kapelle_'
'istische_'
'entfernen_'
'mitnehmen_'
'amm'
'Vorstandschef_'
'Kids_'
'Jes'
'Hans'
'1988_'
'weit'
'ok'
'jhfo_'
'ützen_'
'incht_'
'Zählern_'
'Mitt'
'stoff_'
'logie_'
'griechischen_'
'Nagold_'
'Acht'
'Zucker_'
'Zen'
'Ep'
'ult_'
'sozusagen_'
'Cli'
'1986_'
' ? " , _'
'ül'
'verhängt_'
'ume'
'Liedern_'
'ini'
'PO'
'Frauke_'
'ührt_'
'kn'
'bou'
'müller_'
'durch'
'Jet_'
'96'
'Üo'
'Erdogans_'
'verf'
'Auswertung_'
'nund_'
'Geigen_'
'Flugzeug'
'Wr_'
'usb'
'etr_'
'aj'
'Kartell'
'zurecht_'
'Pres'
'Üs'
'üro_'
'mme_'
'größe_'
'angeschlossen_'
'sau'
'Salz_'
'Ron'
'Ple'
'Fotografen_'
'Geschwister_'
'yh'
'been_'
'abgebaut_'
'Künftig_'
'realisiert_'
'oche_'
'Volleyball_'
'Raub'
'Orden_'
'Mais'
'ndie_'
'ẞo'
'tzer_'
'beachten_'
'Unsicherheit_'
'Schla'
'Gri'
'Üe'
'niedriger_'
'ied'
'Kräften_'
'Christiane_'
'Annette_'
'Abis_'
'ami'
'Themen'
'Heim'
'alls_'
'Nar'
'Kurde_'
'Jah'
'Erkrankungen_'
' ) . - _'
'uert_'
'rit'
'dk'
'sA'
'gespräch_'
'Anzeigen_'
'tg_'
'hu'
'urt_'
'Vorbereitungs'
'Lor'
'lor'
'interessieren_'
'Olympia'
'Nj'
'Mör'
'tti'
'sma'
'regiert_'
'onzert_'
'mbe'
'Marihuana_'
'kriegen_'
'ev_'
'ader_'
'Kandidatur_'
'normalerweise_'
'Re'
'öhe_'
'til'
'Motorrad'
'Dhabi_'
'bm_'
'bäude_'
'Schwei'
'Pater_'
'Busch'
'zentren_'
'irre'
'Wahr'
'Sperre_'
'Konto'
'unst_'
'Meldungen_'
'kasse_'
'eri'
'Ohre_'
'lg'
'hema_'
'rri'
'üo'
'kd'
'Spring'
'Pa_'
'Kaffee'
'Hänge'
'Herstellung_'
'Fla'
'dc'
'Kündigung_'
'Rand'
'Auftakt'
'wal'
'vermögen_'
'verschaffen_'
'itäten_'
'Schiffe_'
'Serbien_'
'Rücken'
'Kult_'
'Karneval_'
'Gy'
'Fahrer'
'gewährt_'
'anmelden_'
'Xt'
'Notruf_'
'Frühjahrs'
'gur'
'gert_'
'Prozesse_'
'Mt'
'Krankheiten_'
'Cb'
'90'
'Irgendwann_'
'cha_'
'breiter_'
'aufstellen_'
'Unterrichts'
'Gd'
'Auseinandersetzungen_'
'rche_'
'gleich'
'eir'
'Nadal_'
'bre'
'Sp_'
'Smart_'
'inie_'
'fri'
'Kopfball_'
'Ersch'
'Liberalen_'
'eel'
'Notfall'
'Meldung_'
'Jl'
'ẞn'
'ausbauen_'
'alb'
'Kne'
'Fillon_'
'unterrichtet_'
'aun'
'MS'
'Kommt_'
'ofo_'
'angesehen_'
'Zei'
'Üu'
'get_'
'diu_'
'tellt_'
'insuedthueringen_'
'behandeln_'
'Wohn_'
'Erdbeben_'
'ilder_'
'Ts'
'Schmitz_'
'fre'
'eingehalten_'
'angaben_'
'Objekt_'
'Gehalts'
'iB'
'Show'
'Joshua_'
'Islamisten_'
'Umstände_'
'Pur'
'Netzwerke_'
'88'
'fv'
'Parti'
'Ed'
'trä'
'Ver'
'ess_'
'cih_'
'Wü'
'Steve_'
'weltweiten_'
'mehre_'
'enver'
'Ws'
'chs'
'Rück'
'illegalen_'
'ca'
'Verein'
'Mainzer_'
'Kahn_'
'Esslingen_'
'ýcfs'
'borkenerzeitung_'
'Staffel'
'Kreuzberg_'
'GS'
'Berichterstattung_'
'eih'
'ages_'
'VP_'
'Port_'
'Kroatien_'
'ref'
'dramatisch_'
'Ryanair_'
'Regelungen_'
'ir'
'antrag_'
'Mand'
'Kochen_'
'67'
'ta'
'Gegenstand_'
'IN'
'steuert_'
'rojekt_'
'Regi'
'Plakate_'
'Loh'
'set_'
'plätzen_'
'Mittagessen_'
'Defensiv'
'maier_'
'lauf'
'Umstellung_'
'südlichen_'
'nchen_'
'Holocaust_'
'wochenende_'
'wel'
'verkaufte_'
'rken_'
'enorme_'
'Pfarrkirche_'
'Höhen_'
'Beh'
'lo'
'fehlenden_'
'dach_'
'beeinflussen_'
'veri'
'tliche_'
'gäste_'
'Dei'
'legendären_'
'hinsichtlich_'
'Darsteller_'
'unk'
'freigegeben_'
'bel'
'Rös'
'Rin'
'Ernährungs'
'erweise_'
'Oo'
'Bälle_'
'Alice_'
'xn'
'trauen_'
'spätere_'
'hegen_'
'aH'
'insatz_'
'ange'
'trag'
'lse'
'Stille_'
'Schwarz'
'öe_'
'nm'
'manager_'
'hessischen_'
'Xn'
'Klo'
'Fei'
'Eröffnungs'
'schichte_'
'prop'
'ness_'
'Vortag_'
'BIOS_'
'Ät'
'passte_'
'Kin'
'oa'
'nördlich_'
'erl_'
'Charme_'
'Boh'
'Han'
'Gärten_'
'Ank'
'erhöhten_'
'Zusammenhalt_'
'Ev'
'Bande_'
'vorzu'
'täglichen_'
'Unwetter_'
'Sat'
'Räumlichkeiten_'
'wertung_'
'einge'
'abgest'
'Yt'
'Spannungen_'
'Schiedsrichter'
'Kürze_'
'stein'
'leeren_'
'Kosten'
'Bürgerhaus_'
'mobile_'
'ande_'
'VHS_'
'System'
'Heer_'
'Echo_'
'überreicht_'
'eingeschränkt_'
'as'
'Gier_'
'99'
'ata'
'Stall_'
'Fortschritt_'
'womit_'
'verdiente_'
'ange_'
'Tag'
'natürliche_'
'ege'
'bühne_'
'Kreistag_'
'Gehirn_'
'Foyer_'
'zelle_'
'kenn'
'bestellen_'
'eingestuft_'
'Leib_'
'rig_'
'frische_'
'beschluss_'
'Em'
'kommunalen_'
'Grundschulen_'
'69'
'yri'
'bh_'
'Spiele'
'Bvt'
'+ _'
' , - _'
'auc'
'Südafrika_'
'dingen_'
'Wanderung_'
'Sportplatz_'
'Schwarze_'
'üi'
'uro_'
'uri'
'fair_'
'demokratische_'
'Wochenenden_'
'Schmid'
'Gemein'
'Betrieben_'
'zulegen_'
'fleißig_'
'stell'
'auch'
'186'
'örtliche_'
'rh'
'Vegas_'
'Prozentpunkte_'
'Hohe_'
'Henning_'
'BO'
'kompletten_'
'iu_'
'Kelheim_'
'Hl'
'Dritt'
'vermehrt_'
'lden_'
'Uhren_'
'Roman'
'Hexen'
'ton'
'ngs'
'Ausrichtung_'
'Wahlbeteiligung_'
'Eri'
'Anlieger_'
'rc'
'Schach'
'uni'
'produkte_'
'oz'
'litz_'
'dü'
'bet'
'Himmels'
'sin'
'meister'
'brau'
'Vergewaltigung_'
'Teenager_'
'Qn'
'rle'
'ermordet_'
'bildete_'
'Spu'
'bese'
'beschreiben_'
'Krippen'
'Hochschulen_'
'rS'
'nste'
'niederländischen_'
'bie'
'Omen_'
'Notarzt_'
'Jen_'
'Anteile_'
'Meise_'
'Flughäfen_'
'Anruf_'
'Allgemeinen_'
'ab'
'Marsch'
'angeordnet_'
'Zugriff_'
'Ern'
'sson_'
'iv'
'furt_'
'fort'
'Ausblick_'
'nächst_'
'Silber'
'Int'
'Ön'
'aufgeführt_'
'Stoß'
'OP_'
'Montagmorgen_'
'müde_'
'ckte_'
'Teppich_'
'zan'
'unt_'
'orfen_'
'nI'
'ICQ_'
'Grö'
' (  _'
'gefährlicher_'
'Oktoberfest_'
'Hn'
'Brat'
'by'
'Saisonende_'
'Überraschungs'
'zeichnete_'
'laufe_'
'Gli'
'erwerben_'
'Hit'
'Bahnhofs'
'stürzt_'
'gon'
'Dorn_'
'Schön_'
'Kies'
'Demonstrationen_'
'lokale_'
'elder_'
'Set'
'Ran'
'you_'
'umwelt'
'ess'
'eld'
'Ludwigs'
'ausgebildet_'
'abgebrochen_'
'Leb'
'Ky'
'Ehrenamt_'
'wählte_'
'eingebunden_'
'Ut'
'Sun'
'Ergebnissen_'
'vorliegt_'
'Saisonstart_'
'paket_'
'nitt_'
'dom_'
'Schramberg_'
'Landstraße_'
'Franz'
'more_'
'eE'
'tier_'
'ebr'
'clubs_'
'beha'
'tta'
'aub'
'Wölfe_'
'kreis'
'Planer_'
'verwandelte_'
'qp'
'nin'
'nb'
'Verhandlungs'
'TI'
'220_'
'ura'
'ili'
'brennt_'
'Len_'
'Franzose_'
'Elemente_'
'Best_'
'wil_'
'mten_'
' ! " , _'
'sofern_'
'kontrolle_'
'eti'
'Schwestern_'
'Schwarzen_'
'Gesa'
'tk'
'eM'
'Patienten'
'Ert'
'anu'
'Moderatorin_'
'Kubikmeter_'
'Sei'
'Priorität_'
'Erinnerungs'
'vollem_'
'reffen_'
'oin'
'mmer'
'Bürgerinitiative_'
'ned_'
'enh'
'englische_'
'Erzähl'
'gelangt_'
'Nh'
'MP'
'EL'
'1985_'
'verzeichnet_'
'Sophia_'
'Öu'
'wartete_'
'beh'
'Spitzen_'
'Mittags'
'Linkspartei_'
'Kha'
'Briefe_'
'wehr'
'luss_'
'ica_'
'Zuwachs_'
'Tweet_'
'Hft'
'Empfehlung_'
'Anwesen_'
'Südwesten_'
'äufe_'
'Under'
'nungs'
'lauten_'
'kehren_'
'Sa'
'Entfernung_'
'Ds'
'pers'
'mobil_'
'Vorf'
'Sö'
'Imker_'
'Ents'
'gend'
'hj'
'historisch_'
'Pis'
'Eisen'
'1990er_'
'sta_'
'sga'
'ite'
'fegen_'
'Hummels_'
'Helene_'
'übersah_'
'ici'
'iT'
'Ruhe'
'Jahresbeginn_'
'Heimatstadt_'
'leistet_'
'begeisterten_'
'fol'
'ohn_'
'körperlich_'
'Sondierungen_'
'Koffer_'
'Funktionen_'
'my_'
'kW_'
'eingest'
'Stichwort_'
'MTV_'
'Kickers_'
'iu'
'experte_'
'etzung_'
'erlauben_'
'Stadien_'
'Kreisen_'
' , . _'
'inneren_'
'Tel'
'Schul'
'Publikums'
'Sieh_'
'Sicherheitskräfte_'
'Mitglieder'
'Friedrichshafen_'
'zwanzig_'
'Ej'
'negative_'
'licht'
'WA'
'Üt'
'Öt'
'Paket'
'Konter'
'Betroffen_'
'experten_'
'Tourist_'
'Kreativität_'
'lichkeiten_'
'abse'
'Schuster_'
'Per'
'Ly'
'Heiligabend_'
'Advent_'
'rne'
'ngel'
'Mach_'
'Life_'
'radi'
'chts_'
'boden_'
'Liveticker_'
'räu'
'sdi'
'Gere'
'unbekannt_'
'irt_'
'ichter_'
'pert_'
'oß_'
'Eintreffen_'
'onntag_'
'antwortete_'
'Toleranz_'
'Bewerbungs'
'Rau'
's'
'tiere_'
'taler_'
'rke_'
'  .'
'wür'
'tti_'
'Brille_'
'regen_'
'TTC_'
'Flug'
'king_'
'gie'
'enk'
'Touren_'
'Speicher'
'last_'
'Unt'
'eli'
'HT'
'gedroht_'
'Vorjahres'
'Altersklasse_'
'" '
'Übergang_'
'individuell_'
'Selbstvertrauen_'
'Aus'
'Wimbledon_'
'Gera'
'ong_'
'Zelt'
'Landkreise_'
'tzten_'
'chau'
'Hon'
'rto'
'qn'
'lA'
'ion'
'Les'
'Konzepte_'
'ssa'
'lug_'
'Werte'
'Daraus_'
'Xh'
'knappe_'
'ief_'
'Besser_'
'ẞt'
'uach_'
'meiste_'
'fes_'
'wider'
'jünger_'
'Spezialisten_'
'Hafen'
'rts_'
'bestanden_'
'Marien'
'Kapital_'
'Geräten_'
'selbstständig_'
'fb'
'efr'
'Wl'
'Verteidigungsminister_'
'Leder'
'Charlotte_'
'Span'
'internationaler_'
'angrenzenden_'
'Kt'
'Konjunktur'
'Kerber_'
'led_'
'fp'
'chtung_'
'becken_'
'Staatssekretär_'
'enste'
'eingehen_'
'stoff'
'eingeb'
'Schul_'
'Koch'
'Kategorien_'
'rste'
'Atom'
'Kram'
'Jana_'
'Gatte_'
'Oen_'
'Medaillen_'
'önnen_'
'asu'
'Roth'
'A1_'
'Massen_'
'Obe'
'Jessica_'
'lv'
'ffe_'
'Sprech'
'Boateng_'
'starteten_'
'sollt_'
'rop'
'diu'
'Gipfels_'
'vater_'
'ur'
'opf_'
'erha'
'berühmte_'
'Nah_'
'Aspekte_'
'Ärzten_'
'übung_'
'Weinstein_'
'Viktoria_'
'Rah'
'Oskar_'
'Grafik_'
'Abwe'
'runn_'
'dig'
'Single_'
'Mordes_'
'yi'
'nme'
'jh'
'Verwendung_'
'äi'
'verriet_'
'kannten_'
'gesch'
'Urs'
'Kör'
'Bo_'
'überaus_'
'hö'
'Nie'
'Leid_'
'zy'
'wunderbar_'
'mitteln_'
'Mitstreiter_'
'Ernte'
'Hunger_'
'Chi'
'360_'
'tent'
'intern_'
'gewe'
'Sep'
'Lin'
'B1'
'Ai'
'sp_'
'bee'
'WHO_'
'kni'
'iEn'
'ausland_'
'Wache_'
'Fli'
'spannenden_'
'pon'
'mund_'
'lichem_'
'Hintergründe_'
'Auszeit_'
'überwinden_'
'ame'
'Billig'
'Wilfried_'
'shen_'
'dge'
'Steuers'
'Lupe_'
' (_'
'wegs_'
'Zuf'
'Schöne_'
'Hert'
'Endlich_'
'terin_'
'con'
'Tatverdächtigen_'
'Inte'
'Vorrunde_'
'OG'
'Insekten_'
'Finger'
'Bit'
'ula'
'tre'
'bedingungen_'
'Schwimmen_'
'Pit'
'bestraft_'
'aht_'
'Akten'
'telefonisch_'
'systeme_'
'hei'
'Inflation_'
'bahn'
'DK'
'win_'
'rM'
'ginge_'
'Woll'
'Prix_'
'sar'
'nh'
'YouTube_'
'Tha'
'Nä'
'Kfz_'
'Kamp'
'Haftstrafe_'
'Darmstädter_'
'scher'
'nutzung_'
'Xi'
'Ig'
'CNN_'
'Bienen'
'gleichermaßen_'
'Sho'
'Kaufmann_'
'unb'
'or'
'könnt_'
'klärt_'
'Kath'
'Abschiebung_'
'è'
'erstaunlich_'
'Mobilfunk'
'mjf'
'Lehrern_'
'Gut'
'Falsch'
'auh_'
'Peters_'
'Ora'
'getrieben_'
'Aula_'
' . /_'
'mehrt_'
'Geh'
'dokumentiert_'
'Datum_'
'Bildschirm_'
'1984_'
'wrden_'
'vorsitzende_'
'mal'
'gewalt'
'Messi_'
'Claude_'
'werks_'
'stä'
'sier'
'scheitern_'
'iese_'
'annt_'
'Uk'
'urlaub_'
'bedenken_'
'Wester'
'At_'
'ẞen_'
'zukünftig_'
'ham'
'besch'
'Spo'
'Italiens_'
'zes_'
'tue_'
'asten_'
'Sprint_'
'Pla'
'bteilung_'
'Mis'
'wurf_'
'ris_'
'intensiven_'
'Mas'
'Lea_'
'Halten_'
'öf'
'rig'
'day_'
'Vö'
'Ta_'
'Pei'
'yl_'
'WI'
'ns'
'gänger_'
'chter'
'Labor'
'ifs'
'Mäh'
'Jugendk'
'Helga_'
'Einz'
'voufs_'
'pul'
'nlagen_'
'beantragen_'
'andel_'
'Young_'
'Ken'
'fache_'
'dv'
'Ufer'
'Od'
'Holz'
'stimm'
'band'
'SP'
'Eni'
'äf'
'west'
'kne'
'Takt_'
'Kredite_'
'IC'
'Glaubens'
'det'
'abgesch'
'oto_'
'Ml'
'Berge'
'nische_'
'ieder'
'Planeten_'
'Is'
'Flensburg_'
'gefangen_'
'empfohlen_'
'elf'
'blo'
'beruflich_'
'Air'
'aT'
'sy'
'Staus_'
'gi'
'betonen_'
'Nü'
'ud'
'Nen_'
'Überhaupt_'
'Webseite_'
'OR'
'Cam'
'japanischen_'
'anstatt_'
'shi'
'Betrug_'
'verteidigte_'
'studieren_'
'Stamm_'
'Satzung_'
'Oi'
'überge'
'sda'
'rD'
'lte'
'ative_'
'Ye_'
'Sprung'
'Absteiger_'
'sB'
'rauen_'
'oder'
'Sprachen_'
'LG_'
'Ausweich'
'verläuft_'
'sö'
'nheit_'
'Tätern_'
'Pos'
'Notfall_'
'Aber'
'sien_'
'nau'
'Schubert_'
'Net'
'CS'
'äu'
'reich'
'eckt_'
'Mitgliederversammlung_'
'Göttinger_'
'04'
'wofür_'
'teten_'
'iet'
'Erneut_'
'Cheftrainer_'
'Bäckerei_'
'vorsch'
'vb'
'kranke_'
'einstige_'
'TH'
'Publikums_'
'Perspektiven_'
'Mars_'
'Kür'
'Hee'
'seine'
'eist_'
'umgerechnet_'
'tsch'
'Besuche_'
'Parallel_'
'Bi_'
'wirt'
'utet_'
'dri'
'chf'
'Rundgang_'
'Links_'
'Zeug_'
'Vit'
'unterschrieben_'
'ssung_'
'just_'
'Rotenburg_'
'Finnland_'
'ZE'
'Großbritanniens_'
'üe_'
'ente_'
'café_'
'Cen_'
'Branchen_'
'wä'
'gelbe_'
'Taschen'
'Patient_'
'Genf_'
'Flüchtlingskrise_'
'Ant'
'rG'
'indi'
'arbeiteten_'
'Jurist_'
'Display_'
'rar'
'kon'
'gesc'
'Hat'
'schlossen_'
'aupt'
'Pfarrei_'
'Gal'
'stört_'
'spa'
'fur'
'Sai'
'NO'
'Fachkräfte_'
'spre'
'enbach_'
'Material'
'Kiew_'
'Aufenthalt_'
'Abge'
'wet'
'rne_'
'rieren_'
'einzusetzen_'
'öu'
'tei'
'irma_'
'Lee_'
'ues_'
'Verkehrsteilnehmer_'
'Nachbar_'
'Ausnahmen_'
'man'
'entsprechen_'
'Lm'
'Bewegungen_'
'sw'
'enem_'
'Sexual'
'Fvsp_'
'ýs'
'enes_'
'Weh'
'Uhl'
'Räuber_'
'rige_'
'Wunden_'
'Verleihung_'
'Karten'
'ord'
'attraktiver_'
'Min'
'Freitagnachmittag_'
'Büchern_'
'reicher_'
'nsi'
'ila'
'gbe'
'Pflicht'
'Events_'
'ßler_'
'Reisende_'
'rang_'
'mus'
'kap'
'fsi'
'eits'
'nal_'
'Unters'
'Roß'
'Ns'
'Kabel_'
'Shc'
'Notenbank_'
'NS'
'Kommunal'
'Hos'
'öffnung_'
'Unfällen_'
'Topf_'
'Pü'
'Erg'
'verz'
'ble'
'Universitäts'
'Nebel_'
'Lieb'
'weibliche_'
'Zet'
'Sim'
'Ero'
'wohn'
'oll'
'Zie'
'Laub'
'Een_'
'Chemnitz_'
'Arminia_'
'Väter_'
'Maduro_'
'Tendenz_'
'zig'
'schont_'
'Wissenschafts'
'Ausfall_'
'zs'
'Kreativ'
'Fen_'
'89'
'tfjo_'
'rra'
'Trends_'
'Sportfreunde_'
'Lärm'
'Glyphosat_'
'Ble'
'üu'
'mge'
'Sonntage_'
'Bayerische_'
'Öen_'
'chnik_'
'alität_'
'Repertoire_'
'vorlegen_'
'akzeptiert_'
'Gesprächs'
'BL'
'huren_'
'Rahmen'
'fein_'
'anst'
'umfangreiche_'
'ittel_'
'Elektroautos_'
'klares_'
'Geräte'
'Aussteller_'
'richt'
'Qg'
'Kommandant_'
'Ernte_'
' ! '
'erfe'
'Leiden_'
'Krüger_'
'Food_'
'zuk'
'vergangen_'
'herauszu'
'To'
'stü'
'sa'
'Grei'
'Gewitter_'
'Fischer'
'Finanzierungs'
'Dokumentation_'
'nP'
'Pole_'
'KG_'
' /_'
'bös_'
'Fach'
'Db'
'um'
'mk'
'Wis'
'Indi'
'Führer_'
'gebiete_'
'bedacht_'
'abi'
'Verfassungsschutz_'
'My_'
'mitarbeiter_'
'vent'
'klo'
'ec_'
'aL'
'Außen_'
'Anmelde'
'AG'
'Edeka_'
'Designer_'
'nM'
'geigen_'
'Vh'
'Transfer'
'Let'
'Dö'
'Attentat_'
'ließe_'
'festival_'
'Woh'
'Niederländer_'
'efe'
'Des'
'projekte_'
'ple'
'ense'
'bergen_'
'Leichen_'
'Coup_'
'befassen_'
'Insofern_'
'Insel'
'Golden_'
'partie_'
'Preisträger_'
'Hosen_'
'Germain_'
'krieg_'
'kom'
'his_'
'gesetzliche_'
'bg'
'benutzen_'
'You_'
'Vorschriften_'
'Relegation_'
'Mus_'
'szene_'
'gekämpft_'
'Auswärtsspiel_'
'Bia'
'Ansprache_'
'orientiert_'
'bares_'
'aggressiv_'
'Trainers_'
'Meh'
'ändler_'
'ney_'
'leb'
'ienen_'
'demo'
'TÜV_'
'Fee'
'lubs_'
'erlebten_'
'Jack_'
'Fü'
'tafel_'
'zl_'
'iffen_'
'Platte_'
'Neuauflage_'
'Bekannte_'
'Behinderungen_'
' ... '
'einer'
'Xen_'
'Kinn_'
'Einge'
'umgekehrt_'
'nka'
'ndo'
'aufs'
'Konjunktur_'
'zurückgekehrt_'
'verwiesen_'
'ira_'
'Zufahrt_'
'Schauspiel_'
'98'
'rit_'
'figur_'
'brannte_'
'Neun'
'Üb'
'eni'
'Treppe_'
'Kün'
'gor'
'Verr'
'üd'
'ulen_'
'olz_'
'nL'
'maß'
'Sin'
'Laschet_'
'IOC_'
'Bundestags_'
'kers_'
'Wesen_'
'Wellen_'
'Tief'
'atur_'
'Panik_'
'Mega_'
'Hen_'
'Fasten'
'kti'
'Äen_'
'recke_'
'ip_'
'inc'
'Bike_'
'Anschlägen_'
'allgemeinen_'
'Nachwuchs'
'Koll'
'Hf'
'Grill_'
'Frö'
' ; '
'ernannt_'
'app'
'mutter_'
'diente_'
'dien'
'dei'
'Night_'
' / '
'pk'
'ap'
'oß'
'Lar'
'Familien'
'Eben_'
'wig_'
'seil_'
'papier_'
'bten_'
'ausgefallen_'
'angehen_'
'Wet'
'Sonntags_'
'cp'
'zweck'
'zahlungen_'
'verweigert_'
'tens_'
'warmen_'
'jr_'
'Pk'
'nel'
'geg'
'enha'
'Wö'
'Kni'
'Erf'
'Bellen_'
'Öffnung_'
'useum_'
'Brücken'
'streifen_'
'schwache_'
'Schne'
'Konsum_'
'Game_'
'ski'
'dun'
'Oldtimer_'
'pünktlich_'
'emp'
'Kommentare_'
'gereicht_'
'nB'
'Schülerin_'
'Jennifer_'
'Bew'
'nhe'
'mei'
'tunden_'
'ric'
'Rob'
'sse'
'efo'
'Kund'
'Ag'
'SB'
'Cap'
'Bem'
'Able'
'verein'
'ehre_'
'Chinesen_'
'orgen_'
'iko'
'ausgerichtet_'
'tausende_'
'Dienstleistungen_'
'xs'
'Aufnahme'
'240_'
'Gam'
'öffentlicher_'
'landes'
'Kon'
'Gefahren'
'vorstand_'
'militärische_'
'ial'
'dS'
'Weichen_'
'Halbinsel_'
'Brun'
'schwimmen_'
'sammelt_'
'nam'
'Argentinien_'
'wodurch_'
'eure_'
'Qm'
'NB'
'Hauptt'
'Gedicht_'
'Einzelhandel_'
'wende_'
'pol'
'angeklagt_'
'Korb'
'  (_'
'nts'
'beläuft_'
'Jubel'
' ( + _'
'rö'
'raum'
'sene_'
'blockiert_'
'Pop'
'sprich_'
'lanung_'
'Wolf'
'Fahnen_'
'Er'
'DEL_'
'és_'
'SS_'
'Oberfranken_'
'Epi'
'verbände_'
'läne_'
'eim'
'Freitagmorgen_'
'artner_'
'chst_'
'Ven_'
'Ansprechpartner_'
'64'
'linien_'
'lebe_'
'keinesfalls_'
'dne'
'Dre_'
'Bvg'
'Höhepunkte_'
'Has'
'Fi'
'this_'
'iL'
'Landtags'
'Eggen_'
'angetan_'
'angefahren_'
'Pö'
'Cyber'
'ausg'
'acuh_'
'Shop_'
'Melde'
'Künstlers_'
'Fal'
'ire_'
'Reis_'
'wertvolle_'
'gefl'
'dazwischen_'
'Ug'
'Mon'
'Cra'
'Abe_'
'Haube_'
'bw'
'toten_'
'nf_'
'att'
'abger'
'geräte_'
'Vet'
'Schließ'
'Jonathan_'
'Bie'
'Brot'
'ministerium_'
'llte_'
'Narren_'
'Erik_'
'Analysten_'
'schor_'
'Systems_'
'Petersburg_'
'Kontrahenten_'
'vf'
'td_'
'rbe'
'bli'
'Einfach_'
'Christi_'
'Ausschluss_'
'rad'
'pel'
'interne_'
'Wort'
'Mannheimer_'
'Lied'
'lust_'
'etabliert_'
'abgestellt_'
'Optionen_'
'650_'
'entdeckten_'
'brauch_'
'Saale_'
'Marsch_'
'Fried'
'Daumen_'
'Adrian_'
'ün'
'vielfach_'
'usk'
'tert_'
'männlichen_'
'gesteckt_'
'Leer'
'AC'
'liberalen_'
'Prüfungen_'
'Klassik_'
'GT'
'Apotheke_'
'portal_'
'flug'
'bitter_'
'Pforzheim_'
'Autofahrerin_'
'Blog_'
'schone_'
'jer'
'firmen_'
'Story_'
'Religions'
'Dh'
'trage_'
'info_'
'geführten_'
'ausgeben_'
'isse_'
'Seitenwechsel_'
'Haustür_'
'job_'
'Bundesliga'
'Amtsantritt_'
'sf_'
'initiative_'
'Xe_'
'Minderheit_'
'Kundgebung_'
'Advents'
'erstellen_'
'bedienen_'
'ass'
'apo'
'Mont'
'Feu'
'mitt'
'gastiert_'
'durchzu'
'Großeltern_'
'tori'
'Zoo'
'Kri'
'Hang'
'ras_'
'fans_'
'105_'
'Front'
'transportiert_'
'berufliche_'
'Vorfälle_'
'ihre'
'gesp'
'ppt_'
'nig'
'Soziales_'
'Inf'
'Auswärts'
'Angriffs'
'oba'
'nS'
'chuss_'
'Reiß'
'Rauch'
'Pausen'
'Hirsch'
'zne'
'ltung_'
'Tdi'
'Ien_'
'tis'
'start_'
'grauen_'
'aktionen_'
'Qen_'
'Geri'
'Obmann_'
'At'
'neunten_'
'fet'
'Transporter_'
'üchen_'
'Überraschungen_'
'tas'
'sbo'
'lig'
'cken'
'Speisen_'
'Euphorie_'
'Bürgermeister'
'senk'
'Zirkus'
'Nennen_'
'Ferdinand_'
'Ärzte'
'wett'
'gler_'
'Etat_'
'Eintr'
'Bekenntnis_'
'Alpen'
'Ah'
'hun'
'eingeliefert_'
'Bescheid_'
'umfassende_'
'Gebrauch_'
'Babys_'
'unges'
'qen_'
'hierbei_'
'Zurück'
'kri'
'erklärung_'
'Zahn_'
'Aufsch'
'gestrigen_'
'Mohammed_'
'Kanal'
'Flugs'
'ugt_'
'oli'
'haft'
'65'
'heutzutage_'
'Uhr'
'Ohr'
'Netto'
'Kripo_'
'Infrastruktur'
'ienst_'
'gebieten_'
'ance_'
'Stichwahl_'
'Sterbe'
'Paul'
'Look_'
'stunden_'
'Konkurrent_'
'Final_'
'Delegation_'
'qe_'
'meldeten_'
'lägen_'
'Verbände_'
'Kanu_'
'1970er_'
'fie_'
'Gef'
'gin_'
'erte'
'anderthalb_'
'IE'
'Beleuchtung_'
'ille_'
'Zwe'
'Taschen_'
'Jahreshauptversammlung_'
'ube_'
'platzes_'
'Vis'
'Tch'
'Möbel_'
'Heck_'
'Fau'
'vc'
'träumen_'
'mess'
'Karriere'
'verg'
'jagd_'
'ffer_'
'eig'
'Uen_'
'Premierminister_'
'Moos'
'Mili'
'Jä'
'Fische_'
'Metropole_'
'Kongress'
'Hoe'
'Ce_'
': " _'
'umf'
'Toilette_'
'Nick_'
'Bern'
'Schienen'
'Ore'
'Bär'
'AU'
'yg'
'Spar'
'Sicherheitsbehörden_'
'SA_'
'Krankheits'
'Energiewende_'
'unden'
'erweitern_'
'cool_'
'Standard'
'Gele'
'Carlos_'
'schein_'
'Vieles_'
'Schrift'
'Antisemitismus_'
'Als'
'weiblichen_'
'graben_'
'Costa_'
') , _'
'Äe_'
'Roe'
'Baugebiet_'
'190_'
'ziele_'
'wachsende_'
'veranstaltungen_'
'hend_'
'een'
'SD'
'Home'
'eda'
'warte_'
'vergangener_'
'männliche_'
'mj'
'lag'
'jährliche_'
'este_'
'Verzicht_'
'Laa'
'Clo'
'igten_'
'Zell'
'Ronald_'
'Lassen_'
'betreiber_'
'ams_'
'Hop_'
'Hilfen_'
'hus'
'bA'
'amo'
'Jeff_'
'yf'
'rna'
'platte_'
'eich'
'derartige_'
'Praxis'
'Heiligen'
'Gehweg_'
'äd'
'nT'
'luft'
'erwarteten_'
'Lions_'
'Großes_'
'Form'
'Entw'
'Denkmal'
' : ..._'
'xu'
'olt_'
'fertig'
'Schon'
'Sauer'
'Klavier'
'Bak'
'AF'
'verlängern_'
'rft_'
'Absolventen_'
'dato_'
'gst_'
'funktion_'
'GR'
'Bunde'
'scheitert_'
'can_'
'Mh'
'Kämpfe_'
'Cos'
'Nicolas_'
'widmen_'
'gis'
'ericht_'
'erde_'
'arn'
'Ri'
'Lande_'
'Fur'
'rhe'
'ensch'
'Gruber_'
'verhältnisse_'
'ora'
'Krause_'
'Kohle'
'verp'
'unterzeichnet_'
'uff'
'lj'
'OS'
'Mühle_'
'Bundestagsabgeordnete_'
'Arbeitskreis_'
'tart_'
'sta'
'lös'
'Rus'
'Frost_'
'usstellung_'
'iben_'
'hjcu_'
'Wes'
'Möglich_'
'Gedenken_'
'äm'
'nebenbei_'
'aften_'
'Tai'
'Music_'
'Horn'
'empf'
'ald'
'Reim_'
'weht_'
'körper'
'hcen_'
'Kamm_'
'FAZ_'
'Crew_'
'AM'
'wurme_'
'rF'
'missbraucht_'
'enzen_'
'Wahls'
'Irma_'
'scho_'
'rdnung_'
'ente'
'anschauen_'
'Mindestlohn_'
'töten_'
'lied_'
'hell'
'hard_'
'Qe_'
'Oc'
'zue'
'streiten_'
'opa'
'mp_'
'Öe_'
'wunden_'
'umge'
'anwesend_'
'Sommerpause_'
'Green_'
'loh_'
'hör'
'häusern_'
'sichert_'
'senden_'
'jugend'
'chr'
'Venedig_'
'Appell_'
'gewa'
'elen_'
'USB_'
'Meer'
'ẞe_'
'türkischer_'
'oti'
'aR'
'Tar'
'!_'
'ran'
'kal'
'eid'
'ander'
'Schlacht'
'Europameister_'
'74'
'beu'
'Imam_'
'rekord_'
'regulären_'
'Deck'
'änderung_'
'Zö'
'Wollen_'
'Rosa_'
'Ried'
'operiert_'
'ehmen_'
'eba'
'char'
'Zivilisten_'
'Sparte_'
'Michelle_'
'1979_'
'zieren_'
'nma'
'bestritten_'
'Student_'
'Letzt_'
'Heuer_'
'Fest'
'Anfangs_'
'wendet_'
'reit_'
'Last'
'Hal'
'Col'
'66'
'Übrigen_'
'herum'
'Üh'
'unterstützte_'
'ungsge'
'gas'
'sauer_'
'leich_'
'Bush_'
'wald'
'chens_'
'Nutzern_'
'Grie'
'Annahme_'
'vit'
'lerin_'
'ib_'
'erarbeiten_'
'Impulse_'
'ibuuf_'
'gestört_'
'bremsen_'
'Schie'
'Par'
'Mid'
'Eine'
'dritter_'
'chafts'
'Jupp_'
'äfte_'
'hli'
'herge'
'ech_'
'Motoren_'
' ? - _'
'Üen_'
'istin_'
'fz'
'betreuung_'
'aufk'
'Marktes_'
'Bela'
'Ausnahme'
'Ausge'
'erwartete_'
'Schilder_'
'Pul'
'Großer_'
'Francisco_'
'ekr'
'Hie'
'gem_'
'Om'
'Entwarnung_'
'Kreisverkehr_'
'Germany_'
'Bläser'
'dim'
'Hütten'
'Formation_'
'festes_'
'durchsucht_'
'abgek'
'Rechtsanwalt_'
' ) . _'
' ) " _'
'verst'
'früherer_'
'Verb'
'Anwesenden_'
'trans'
'eso'
'Ehrungen_'
'Viert'
'Joe_'
'stammende_'
'Wellen'
'Christa_'
'vorbereiten_'
'kte'
'enormen_'
'Pfl'
'Heims'
'mil'
'kha'
'erledigen_'
'dritt'
'Ey'
'Zulassung_'
'Außenseiter_'
'buch'
'Hierbei_'
'1978_'
'lock_'
'kommentiert_'
'ese'
'ehl'
'aar'
'Richtig_'
'Rewe_'
'Matt_'
'Insider_'
'Horror_'
'öst_'
'ments_'
'ilt_'
'Aen_'
'rB'
'loser_'
'center_'
'Strauß_'
'Cop'
'Ostsee_'
'worauf_'
'pielt_'
'leise_'
'folg_'
'feln_'
'eN'
'ausgeglichen_'
'Wä'
'Nbs'
'Flughafens_'
'emotional_'
'betroffene_'
'Wende'
'God'
'Entscheidungs'
'Mch'
'Mach'
'Ari'
'Abt_'
'merk'
'Revier'
'Mom'
'Ansch'
'iff_'
'co'
'Vera'
'Errichtung_'
'Charakter'
'92'
'59'
'mark_'
'Stände_'
'Lab'
'lich'
'ausgebrochen_'
'Nationalpark_'
'Happy_'
'Gras'
'schulen_'
'irchen_'
'Verhaltens'
'Mie'
'überfallen_'
'zet'
'reinen_'
'allee_'
'Handy'
'pli'
'hinauf_'
'erfahrene_'
'Schlager_'
'Pun'
'Mittel'
'gegeneinander_'
'bz'
'ahrer_'
'Krim_'
'Kommissar_'
'Jutta_'
'cz'
'Mitten_'
'merken_'
'fleisch_'
'Universitäten_'
'KSV_'
'Bohr'
'verbands_'
'sun'
'kaputt_'
'enti'
'besitzer_'
'ammer_'
'Verden_'
'Verbraucher'
'durc_'
'affen_'
'Spenden'
'ählen_'
'zehn'
'ly'
'Jeans_'
'Ee_'
'ET'
'ty'
'schmu'
'rstraße_'
'hmer_'
'ager'
'Ue_'
'Jedoch_'
'Fußgängerzone_'
'Fai'
'Experten'
'üm'
'Üe_'
'weiterzu'
'rver'
'dA'
'Minister'
'klub_'
'Vorfreude_'
'Ris'
'Auff'
'orts'
'Umstand_'
'Rein'
'überw'
'wach_'
'rkt'
'jan_'
'dbe'
'aum'
'Zirkus_'
'Sobotka_'
'Fahrräder_'
'Ash'
'mati'
'Übrigens_'
'dsch'
'beige'
'Naturschutz'
'AGB_'
'quer'
'intensiver_'
'Char'
'vol'
'tie_'
'sko'
'sor'
'Stadträte_'
'Hinrunde_'
'Dür'
'Delmenhorst_'
'Arbeit'
'folg'
'fj'
'Xin'
'Krisen_'
'tom'
'asi'
'Viel'
'Innovations'
'Aussichten_'
'Oe_'
'Heck'
'CIA_'
'= _'
'rrt_'
'UT'
'Tol'
'Rummenigge_'
'Arn'
'aufr'
'Dem'
'Bud'
'gep'
'elten_'
'ekl'
'Kost'
'iD'
'arti'
'Turniers_'
'Schw'
'Einlass_'
'AK_'
'hma'
'otr'
'Love_'
'verlegen_'
'sozialer_'
'Verordnung_'
'Baar_'
'AKP_'
'tte'
'pse'
'ausgef'
'alliance_'
'Ie_'
'Gesellschafts'
'Europ'
'Anders'
'uckt_'
'leu'
'BA_'
'ée_'
'vei'
'Obera'
'Ansprüche_'
'pitze_'
'offensive_'
'ennen_'
'angemessen_'
'SMS_'
'Offenbach_'
'Berlin'
'Bagger_'
'wart'
'rb_'
'nbr'
'Garmisch_'
'zip'
'num'
'Maul'
'Feier'
'ungsver'
'stücke_'
'sent'
'ierungen_'
'chel_'
'Ram'
'Bock_'
'were_'
'springt_'
'finanz'
'Lebensgefahr_'
'Kanne_'
'ssel'
'jen'
'Faden_'
'24'
'kopf'
'gesunde_'
'dec'
'75'
'öffnete_'
'turn'
'nns_'
'forscher_'
'baum'
'ales_'
'Kontakt'
'America_'
'ghe'
'Mehrheits'
'Henry_'
'Beschäftigungs'
'unte'
'ong'
'Dominic_'
'identifiziert_'
'edu'
'deln_'
'Gipfel'
'Bekämpfung_'
'Ausr'
'liberale_'
'Währung_'
'Gebühren'
'Fantasie_'
'typischen_'
'kum_'
'efer'
'Marianne_'
'Großk'
'Fahrbahn'
'uber_'
'chance_'
'Behandlungs'
'wiederholen_'
'VR_'
'Schulter'
'Ferne_'
'Einmündung_'
'EM'
'negativen_'
'Nam'
'Gemeinderats_'
'Dör'
'ents_'
'beklagen_'
'Unterst'
'Gun'
'gespräche_'
'dio'
'Rezept_'
'auhc_'
'Meinungen_'
'äo'
'Ves'
'Stephen_'
'Becken_'
'nachmittag_'
'gesetzlich_'
'wun'
'Neuer'
'Kelly_'
'Fes'
'aufgelöst_'
'Ud'
'Chemie'
'tas_'
'seit'
'schem_'
'esl'
'Kna'
'Football_'
'Black'
'nenn_'
'bra'
'Historiker_'
'Deu'
'zurück'
'iin'
'iger'
'Cast'
'wk'
'neben'
'Flau'
'115_'
'begr'
'Uch'
'These_'
'Raphael_'
'Py'
'Lea'
'Atem_'
'hütte_'
'Zut'
'Obergeschoss_'
'hfm'
'besprochen_'
'Tod'
'Fördermittel_'
'Erika_'
'versu'
'tad'
'sde'
'reien_'
'hie'
'gespr'
'feuer_'
'bereitschaft_'
'Schalt'
'Det'
'ittel'
'Kön'
'Hamburgs_'
'Gift'
'könig_'
'Yh'
'Skulptur_'
'ND'
'1968_'
'rma'
'manches_'
'Rohr'
'Jacke_'
'Gent'
'beschränkt_'
'aur'
'Saleh_'
'Retter_'
'ẞh'
'gerückt_'
'Zit'
'Virus_'
'Sn'
'Bewohnern_'
'str'
'Nackt'
'Id'
'räfte_'
'Zahlungen_'
'Verkehrs_'
'Golf'
'Dog'
'Aur'
'zwe_'
'urf'
'Früchte_'
'Archiv'
'ßi'
'verdoppelt_'
'noch'
'angs_'
'sgeb'
'festhalten_'
'erta'
'Rüsselsheim_'
'Mn'
'Bier'
'zre'
'nun'
'nbu'
'Reue_'
'ussch'
'unterschiedlicher_'
'ses'
'omi'
'arme'
'Siedlung_'
'RWE_'
'Köhler_'
'KZ_'
'Blutspende'
'ück'
'tlichen_'
'lern'
'Sitzungs'
'Seu'
'Sea'
'Gerald_'
'Bul'
'sge'
'uZ'
'etre'
'Nadine_'
'kund'
'beratung_'
'Tabellen_'
'äche_'
'xperten_'
'erzeugt_'
'Militär'
'Lagen_'
'Gedanke_'
'sca'
'Weis'
'SO'
'gnen_'
'dicken_'
'Wra'
'Walt'
'Konzerten_'
'berater_'
'Tina_'
'Boy'
'" , _'
'wan'
'stan'
'fee'
'Rosen_'
'Flagge_'
'vor'
'inszeniert_'
'beschrieb_'
'Zutaten_'
'Hass'
'beschäftigte_'
'Spre'
'Gis'
'Bg'
'wz'
'abf'
'Teufel_'
'Stark'
'News'
'Mt_'
'Dan_'
'trau'
'Grundsatz'
'Budapest_'
'Hebe'
'ents'
'aw'
'Ross'
'MV'
'Koblenz_'
'Ir_'
'untersagt_'
'umfangreichen_'
'geschi'
'enge'
'Zahlung_'
'Mittelschule_'
'igungen_'
'Zus'
'1970_'
'rutschte_'
'problemlos_'
'burg'
'begleitete_'
'Tunnel'
'Polizeibeamte_'
'Las'
'EC_'
'Doh'
'Boom_'
'Benzin'
'her'
'Tempo'
'Qh'
'Aufträge_'
'87'
'uß'
'steuer'
'Stollen_'
'Empörung_'
'gleicher_'
'gewidmet_'
'Zehntausende_'
'Toto_'
'Geburtstags'
'zusammenarbeiten_'
'zischen_'
'iP'
'einh'
'Geste_'
'Ani'
' ? : _'
'amtierende_'
'amp_'
'Zieh'
'Zeitl'
'Ro'
'vorgehen_'
'mA'
'enp'
'Konten_'
'Inklusion_'
'Fir'
'nden'
'nachgewiesen_'
'Geschäftsführung_'
'BW_'
'verbieten_'
'entr'
'Ziels'
'Öh'
'demonstriert_'
'arf_'
'anzubieten_'
'Playoff_'
'Lch'
'Gese'
'Brie'
'Tä'
'Jin'
'stung_'
'stemmen_'
'interessierten_'
'fis'
'Steh'
'Pensions'
'MT'
'ätz'
'Übergriffe_'
'eib'
'amm_'
'Pizza_'
'1974_'
'xvsef_'
'cor'
'Dynamo_'
'gens_'
'vereine_'
'rech'
'pS'
'Ausschreitungen_'
'ursprünglichen_'
'sme'
'sjf'
'kostenlose_'
'feld'
'Schweinfurt_'
'Prag_'
'joh'
'Persönlichkeit_'
'orr'
'Steinen_'
'nfa'
'iga'
'Sz'
'Oel'
'230_'
'tätigkeit_'
'hel'
'Jus'
'zurückgezogen_'
'veran'
'otu'
'km'
'klagt_'
'weitaus_'
'rainer_'
'näh'
'jenes_'
'chnet_'
'Cin'
', '
'Übergabe_'
'ete'
'Untersuchungs'
'Fahne_'
'Bär_'
'nnte_'
'gesti'
'cch'
'Sta_'
'Fil'
'kämpfte_'
'allgemeine_'
'erp'
'ase'
'Tode_'
'Schlange_'
'Bart'
'marsch_'
'itze_'
'Gj'
'23'
'immer'
'gestalteten_'
'ako'
'Reinigungs'
'Peters'
'EHC_'
'zwingend_'
'sil'
'geba'
'ansehen_'
'Gülen_'
'Bibliothek_'
'wb'
'schlimmsten_'
'europäischer_'
'bo'
'Vorst'
'Volumen_'
'Spin'
'Gänse'
'Face'
'EC'
'ischem_'
'Verbesserungen_'
'SR_'
'Karo'
'Wid'
'Vorgang_'
'Konservativen_'
'BR'
'Graben_'
'Fenster'
'eng'
'bevorstehenden_'
'besetzen_'
'asu_'
'UN'
'Toten'
'Sorten_'
'1983_'
'verga'
'pl_'
'Hannelore_'
'Bomben'
'Ki_'
'mitgenommen_'
'gela'
'cü'
'Schor'
'Mond_'
'Fore'
'rha'
'erste'
'Impf'
'entwendet_'
'Imp'
'Fang'
'merkte_'
'Verfolger_'
'LB'
'ott_'
'haupt'
'bilanz_'
'Stil'
'Mary_'
'Abfall'
'ml_'
'jhf_'
'Ahlen_'
'itten_'
'agn'
'Werten_'
'Spektrum_'
'rückten_'
'rissen_'
'lins'
'Xjs_'
'Ecken_'
'stören_'
'rsa'
'angesiedelt_'
'Willi'
'arken_'
'Job'
'Friedhofs'
'örper_'
'fenster_'
'Victoria_'
'Rä'
'Pat'
'Fähr'
'Ada'
'Abst'
'mol'
'geschenkt_'
'chern_'
'ans'
'Meis'
'köpfige_'
'Oz'
'Ed_'
'nv'
'Sab'
'uan'
'gewährleisten_'
'Zeitungs'
'Bebauung_'
'Anschluss'
'lre'
'freuten_'
'Tap'
'Elite_'
'sexueller_'
'ait'
'Handlungs'
'Beitrags'
'Wisch_'
'Kolleg'
'François_'
'mung_'
'militärischen_'
'Logistik'
'Foulelfmeter_'
'vertr'
'bereit'
'Thi'
'Schwan'
'Nahen_'
'Heid'
'Angriffen_'
'1980er_'
'stil'
'schilderte_'
'eZ'
'Haupt'
'Ebenen_'
'xj'
'age'
'Trost_'
'SL'
'usge'
'lde_'
'Wänden_'
'vermeintlichen_'
'sne'
'reb'
'ent'
'enst'
'Vieh_'
'Nic'
'Kran'
'Ausrüstung_'
'gekr'
'gabt_'
'Wolff_'
'Tribüne_'
'Kreml_'
'Danke_'
'verstehe_'
'inde'
'bri'
'Immobilie_'
'Horror'
'analysiert_'
'Verbleib_'
'Playoffs_'
'Pfingst'
'ira'
'Darm'
'Dampf'
'Bert_'
'schieben_'
'rv'
'dominiert_'
'Mann'
'zub'
'verständigt_'
'amtes_'
'Klär'
'sberger_'
'rtet_'
'reißen_'
'fuer_'
'fel'
'Verteilung_'
'Holzb'
'läufer_'
'Vere'
'Gemeinderäte_'
'Berechnungen_'
'vereint_'
'gns'
'geklappt_'
'film'
'erkannte_'
'Sende'
'äk'
'verstärken_'
'regen'
'laute_'
'Stockholm_'
'Kunststoff'
'Hoo'
'xperte_'
'nissen_'
'ght_'
'gefa'
'Keiner_'
'auftritt_'
'Mate'
'verdächtige_'
'klassen_'
'Opfers_'
'Abz'
'Ochsen'
'Hun'
'sd'
'rio'
'itung_'
'Warte'
'Recherchen_'
'idi'
'ausstellung_'
'Mara'
'Kreisverband_'
'ßl'
'werd'
'rien'
'Lüb'
'Gras_'
'Anwohnern_'
'äer'
'potenzielle_'
'ek'
'Rückschlag_'
'Nahles_'
'Led'
'Gerau_'
'FL'
'Dein_'
'ẞch'
'seltener_'
'drauf'
'Promis_'
'Cle'
'bwe'
'Jur'
'Hän'
'Anis_'
'out'
'hfhfo_'
'diesjährige_'
'Vd'
'Parallel'
'Leitungs'
'Kamera'
'hafen_'
'dst'
'Resultat_'
'Flü'
'zeitgleich_'
'lieferten_'
'grenz'
'Bene'
'zz'
'tin'
'hä'
'Free'
'Bde'
'Öch'
'zg'
'xin'
'Than'
'wahlen_'
'adn'
'Podium_'
' " . '
'iF'
'erwies_'
'Stücken_'
'Signale_'
'asser_'
'Vos'
'Schaffung_'
'Friedrichs'
'tq'
'positives_'
'mein'
'Anwendung_'
'tellung_'
'chnitt_'
'agiert_'
'Fah'
'ungen'
'schr'
'gentur_'
'aga'
'Zuschlag_'
'Bleibt_'
' > _'
'typische_'
'tler_'
'freitags_'
'Up_'
' , ._'
'überm'
'Zielen_'
'Lauter'
'Fünf'
'FCA_'
'Botschaften_'
'satz'
'ris'
'preis'
'lege_'
'era_'
'Zweit_'
'Niederösterreich_'
'Butter_'
'Autobahnen_'
'Auss'
'their_'
'quellen_'
'menschen'
'lge_'
'führende_'
'erstem_'
'Gesch'
'FF'
'Dor'
'zw_'
'verne'
'letztendlich_'
'Poly'
'Knochen_'
'AK'
'̈_'
'zurückliegenden_'
'zau'
'ske'
'medi'
'icht'
'ena_'
'echtes_'
'back_'
'ark'
'Ressourcen_'
'Kimmich_'
'Ae_'
'ech'
'Toiletten_'
'Mithilfe_'
'Karlsruher_'
'Güter'
'Dib'
'Bu_'
'kürz'
'bm'
'ankommt_'
'Su'
'Ben'
'viert'
'vergangenes_'
'pst'
'passend_'
'ison_'
'aste'
'Thesen_'
'Ryan_'
'Kabinetts'
'Hie_'
'Behinderten'
'position_'
'besucher_'
'abgenommen_'
'Springer_'
'Schwächen_'
'Propaganda_'
'Hartmut_'
'Erziehungs'
'rae'
'fingen_'
'e'
'Gestalt_'
'Masch'
'Befürworter_'
'-'
'verzeichnen_'
'rou'
'ausweichen_'
'Teilnehmer'
'Nahrung_'
'‟_'
'öer_'
'verständlich_'
'sem'
'freiwilligen_'
'beziffert_'
'bef'
'asti'
'rob'
'prü'
'platzierten_'
'gekündigt_'
'Til'
'Highlights_'
'Gee'
'abl'
'Redaktions'
'Anhörung_'
'wissenschaftliche_'
'beworben_'
'Trachten'
'Säge'
'qh'
'fass'
'brutal_'
'bat'
'Enge_'
'Docht_'
'Anm_'
'tuj'
'nachvollziehen_'
'hemen_'
'christlichen_'
'Jugendlicher_'
'Bald'
'para'
'id'
'eingezogen_'
'Zuwanderung_'
'Rot'
'184'
'star_'
'Wege'
'Sm'
'Rapper_'
'Punkte'
'Df'
'Chr'
'xer'
'dese'
'Petro'
'sim'
'ors'
'hb'
'Texten_'
'Mobilitäts'
'Hur'
'mau'
'dea'
'bene'
'beeinflusst_'
'Unglücks'
'Flieger_'
'Arbeite_'
'zge'
'unabhängige_'
'eiter'
'echnik_'
'versammelt_'
'nachvollziehbar_'
'arbeiter_'
'Handlung_'
'zinger_'
'stabile_'
'moderner_'
'Nordk'
'Leim_'
'Justiz'
'val_'
'existiert_'
'ausgelegt_'
'9'
'reiner_'
'gent'
'fremden_'
'Qualifikations'
'Näh'
'Gange_'
'Fh'
'Eingriff_'
'1976_'
'voneinander_'
'pun'
'ausr'
'Wahlbe'
'Krankenkassen_'
'übers'
'sdorfer_'
'kranken_'
'hch'
'eff'
'Hom'
'Fox_'
'Firm'
'üller_'
'überholt_'
'armen_'
'Spender_'
'Modus_'
'Bezahl'
'wu_'
'verabschiedete_'
'schli'
'sM'
'aut'
'Kund_'
'rba'
'ausführlich_'
'Streich'
'Opern'
'Är_'
'unser'
'städter_'
'onk'
'einl'
'aufhalten_'
'soll'
'habe'
'Belästigung_'
'Äo'
'katalanischen_'
'Stall'
'Rau_'
'Luis_'
'Gottes'
'Feste_'
'rge_'
'hinteren_'
'anns'
'BU'
'zwang_'
'religiösen_'
'qsp'
'innen'
'gö'
'gespendet_'
'deinen_'
'Water'
'Aufgaben'
'umst'
'pit'
'gefehlt_'
'Kramer_'
'polnische_'
'aufgesch'
'arl'
'Vanessa_'
'Lk'
'Kretschmann_'
'sis_'
'pc'
'fl_'
'Zir'
'KB'
'Joh'
'Üer'
'Wohnungsbau_'
'Tas'
'ngen'
'nei'
'gottesdienst_'
'bert'
'asl_'
'Generell_'
'ttel_'
'prompt_'
'ideal_'
'ftet_'
'evi'
'TG_'
'Smo'
'Maz'
'ligen_'
'Tänzer_'
'Tos'
'Tiefgarage_'
'Sport'
'top_'
'spitze_'
'gebucht_'
'Eng'
'Öf'
'werken_'
'Quartier_'
'Anpfiff_'
'Aer'
'.'
'entw'
'bus'
'Verwaltungsgericht_'
'Ka'
'Bilder'
'3D_'
'ästen_'
'Tauf'
'Rafael_'
'Kaiserslautern_'
'Gesta'
'Aw'
'maschinen_'
'dienstes_'
'TE'
'Lud'
'Kleider'
'Backnang_'
'Baby'
'unzu'
'dunkel_'
'Iz'
'Ganztags'
'Express_'
'Öko'
'sser'
'rom_'
'Zusage_'
'Zah'
'irtschaft_'
'Starke_'
'Nagel_'
'Kindergartens_'
'Gesamtschule_'
'fin'
'eut'
'Wahnsinn_'
'Gesc'
'öi'
'xh'
'rigen_'
'Stunden'
'Pan'
'Maus'
'Hch'
'ori'
'förder'
'enter_'
'check_'
'Hagen'
'sri'
'show_'
'sfe'
'alp'
'Zentrums_'
'Wien'
'Skulpturen_'
'Olympiasieger_'
'Niet'
'Ambiente_'
'sicht'
'orientieren_'
'Element_'
'äder_'
'schle'
'jü'
'Wahlprogramm_'
'Cas'
'Aer_'
'1981_'
'hf'
'Kuh'
'Ingenieur'
'Gp'
'ßr_'
'serviert_'
'icherung_'
'Str_'
'Kant_'
'gehe'
'aufgef'
'anschl'
'Schur'
'Intensiv'
'Images_'
'Eit'
'Bürgerkrieg_'
'regieren_'
'eind'
'chne'
'Brite_'
'Beben_'
'systems_'
'reißt_'
'orl'
'mie_'
'kasten_'
'Ständen_'
'Eskalation_'
'Dank'
'AA'
'60er_'
'Fotograf_'
'sts_'
'medizin_'
'kno'
'Adi'
'fse'
'eme'
'Präsidenten'
'ährige_'
'ktions'
'Göring_'
'Dy'
'BSV_'
'ttet_'
'olin'
'kontinuierlich_'
'entspr'
'Samstagmorgen_'
'Dunkelheit_'
'Anregungen_'
'79'
'schla'
'Produzenten_'
'Köpfen_'
'Genossen_'
'Fifa_'
'Amateur'
'ungewöhnliche_'
'tele'
'rchi'
'abzus'
'untereinander_'
'Home_'
'unwi'
'fin_'
'benötigte_'
'annschaft_'
'Verzögerungen_'
'Mahn'
'Kam'
'Gelbe_'
'seh'
'kh'
'bild'
'MS_'
'Jack'
'ordnete_'
'Zw'
'Zerstörung_'
'Mega'
'ram_'
'Shows_'
'Lon'
'Hunden_'
'typisch_'
'einrichtungen_'
'Liechtenstein_'
'Dynamik_'
'uchten_'
'Studierenden_'
'Gremien_'
'zeitlich_'
'geä'
'Zettel_'
'MO'
'steh_'
'Hochwasser_'
'verfassungs'
'erleichtern_'
'Ld'
'Jedenfalls_'
'Dri'
'hge'
'abzusch'
'rzu'
'lit'
'kate'
'fso_'
'Trick'
'Proze'
'spreche_'
'sit'
'hauser_'
'dg'
'Wars_'
'Setzen_'
'Handballer_'
'Feder_'
'Bischofs'
'Aufklärungs'
'spr'
'islamistischen_'
'Qual'
'Marketing'
'zerr'
'saus'
'sangen_'
'fürchtet_'
'Wind'
'Tal'
'Jahre'
'His'
'ola_'
'lehnen_'
'ersonal_'
'bez'
'aß_'
'abgeh'
'Acker'
'tw'
'organisierten_'
'Rade'
'Police_'
'gewährleistet_'
'erheben_'
'Will'
'Füchse_'
'volles_'
'tes'
'bj'
'Teheran_'
'Norm_'
'Ger_'
'Bauzeit_'
'lick_'
'erzeugen_'
'Account_'
'ara_'
'anwesenden_'
'absoluten_'
'Com'
'Brutto'
'Block'
'Unruhe_'
'Stoff'
'Rico_'
'Problems_'
'Beratungen_'
'Uer'
'Pendler_'
'Direkt_'
'zm_'
'ust'
'sinn_'
'oD'
'ings'
'ferenz_'
'Mitarbeit_'
'Hir'
'meistern_'
'lel'
'begegnet_'
'Renner_'
'Meist_'
'Hul'
'Hed'
'Evangelischen_'
'Cr_'
'uas'
'stau'
'scharfe_'
'nse'
'leid_'
'TR'
'Alf'
'Unterbringung_'
'SED_'
'Protagonisten_'
'aba'
'Temperatur_'
'Prüfungs'
'Kulturs'
'Born'
'Arbeitsmarkt'
'fef'
'etn'
'Steven_'
'Sky'
'Lig'
'tsp'
'packen_'
'ink_'
'berührt_'
'Nutzer'
'Klage'
'Hütten_'
'äufer_'
'zd'
'daf'
'Verbandes_'
'Kb'
'HD_'
'pg'
'fangen_'
'ener'
'eing'
'Vr_'
'Feiertag_'
'rest'
'kannst_'
'alte'
'Monte'
'Käse_'
'Franken'
'sfj'
'rfe'
'nation_'
'gwe'
'Res'
'Med'
'Bibel_'
'76'
'zahlreicher_'
'undes'
'sonntags_'
'abwarten_'
'abr'
'Wacker_'
'Ren'
'Gesetz'
'Daum_'
'schuld_'
'lboo_'
'isieren_'
'Wirtschafts_'
'Beisitzer_'
'lik'
'liebevoll_'
'kurse_'
'inhalb_'
'fahre_'
'Kunstwerke_'
'pet'
'Malerei_'
'Holt'
'Global_'
'Exemplare_'
'Verei'
'Organisations'
'zusammengestellt_'
'td'
'Oppositions'
'Neymar_'
'Haag_'
'verbreiten_'
'fof'
'erla'
'Vorträge_'
'Spor'
'Saf'
'NSA_'
'Mörder_'
'Harz_'
'rend_'
'leistungs'
'gedauert_'
'angeblichen_'
'achsen_'
'Shar'
'Erlebnisse_'
'wri'
'Sagen_'
'Baa'
'Astrid_'
'hna'
'erfunden_'
'Muse_'
'Zuspruch_'
'Gesellschaften_'
'ep'
'bildeten_'
'Ych'
'Polizeia'
'Könnens_'
'Glasfaser'
'sco'
'schäft_'
'drückte_'
'Julius_'
'üre_'
'nisch_'
'mas_'
'Tes'
'eiden_'
'ych'
'stie'
'neb'
'jfsu_'
'anne'
'Obersch'
'Gse'
'umliegenden_'
'note_'
'ille'
'azi'
'Tiger_'
'Mod'
'Kalk'
'Hau_'
'FT'
'cl'
'ösch'
'rger'
'pflege'
'ont'
'gleichnamigen_'
'Plakat_'
'Lamb'
'ẞr_'
'iga_'
'Äh'
'wat'
'dien_'
'Karsten_'
'Blicke_'
'ment'
'Tour'
'ister'
'Henne'
'Fd'
'vergab_'
'lea'
'digen_'
'Wettbewerbs_'
'Bauausschuss_'
'15'
'wö'
'versicherung_'
'vers_'
'inen'
'erfahrenen_'
'afrikanischen_'
'Slalom_'
'weltweite_'
'reichten_'
'Helm_'
'Brau'
'fon'
'dif'
'cd'
'Kim'
'Kan'
'Hp'
'Heiner_'
'sens'
'nachhaltige_'
'Zähl'
'Schwäbisch_'
'Maße_'
'DR'
'Ama'
'zustand_'
'opfer_'
'hra'
'verl'
'nar'
'VD'
'Spaziergang_'
'Saa'
'Grau_'
' )  _'
'Wirtschaftsminister_'
'Steuerzahler_'
'Porträt_'
'CH'
'rbeiter_'
'organisationen_'
'iens_'
'ergebnis_'
'Wertung_'
'Sli'
'Silke_'
'Fran'
'unl'
'tags'
'oen'
'Xch'
'Hechingen_'
'Früh_'
'Dos'
'Blech'
'Beach_'
'pft_'
'gewaltig_'
'Vertr'
'Rich'
'Nachhaltigkeit_'
'Miss_'
'Gefährder_'
'luft_'
'angereist_'
'Schmiede'
'Jahreswechsel_'
'Einbruchs'
'tochter_'
'letzt'
'lam'
'fal'
'1975_'
' - . _'
'Lieder'
'Goldene_'
'Emil_'
'Anzeichen_'
'ola'
'nat_'
'geln_'
'Schli'
'Kes'
'Dob'
'winkel_'
'männer_'
'hg'
'Pros'
'Diplom_'
'Brunner_'
'Blue_'
'seif_'
'quartier_'
'Tei'
'oM'
'fix_'
'ensi'
'anierung_'
'Wahrnehmung_'
'ID_'
'geführte_'
'Tm'
'Tenor_'
'Mathematik_'
'twe'
'ond'
'nit'
'Sole_'
'unen_'
'engagierten_'
'Ziegel'
'Steck'
'Furtwangen_'
'Enkel'
'fam'
'Solange_'
'Beweise_'
'trie'
'geschlossenen_'
'Tet'
'SM'
'Innere_'
'Einbr'
'Bestätigung_'
'üll_'
'unzählige_'
'sbu'
'news_'
'Ata'
'ome'
'klassi'
'eA'
'dd'
'bvt'
'Absatz_'
'Ängste_'
'schönste_'
'Fahrverbote_'
'schied_'
'här'
'gefährden_'
'eingeweiht_'
'eal'
'Struktur'
'nner'
'langes_'
'kse'
'gast'
'Tische_'
'Geschichts'
'Eingangs'
'rausge'
'gemütlich_'
'Turm'
'Image'
'Abk'
' .._'
'jetzige_'
'hle'
'Spaß'
'Kat'
'1969_'
'üt_'
'ungsbe'
'Zar'
'Ranking_'
'Mädchen'
'78'
'wm'
'sat'
'lien_'
'herr'
'Pm'
'KI'
'ster'
'picture_'
'logen_'
'damm_'
'Stimmen'
'Kilo'
'Jau'
'verarbeitet_'
'val'
'kem'
'entwi'
'bergs_'
'warfen_'
'plädiert_'
'Mittwochmorgen_'
'Gab'
'oun'
'argumentiert_'
'Mitarbeiter'
'Flughafen'
'Bere'
'walt_'
'geworben_'
'alias_'
'Keu'
'Deutlich_'
'ç'
'zy_'
'nq'
'Zr_'
'Währungs'
'Technischen_'
'Sem'
'Schulleiterin_'
'Gründer'
'Grundlagen_'
'BRK_'
'now_'
'missen_'
'endgültige_'
'Mün'
'Dä'
'sthe'
'pha'
'nieder'
'gh_'
'eiz'
'eingeplant_'
'asp'
'aen'
'nH'
'gesunden_'
'Pilz'
'Mieter'
'Linien'
'Dürrheim_'
'BND_'
'änderte_'
'oberhalb_'
'nW'
'lings'
'Wett'
'Ide'
'Coburger_'
'77'
'stechen_'
'sli'
'pte'
'mobilen_'
'globale_'
'chi_'
'Tho'
'Schaf'
'ungewöhnlichen_'
'mak'
'iH'
'Militärs_'
'Lah'
'xfj_'
'gungs'
'bewies_'
'TU_'
'Stri'
'Magn'
'Hoffen_'
'zch'
'weile_'
'uck'
'born_'
'Zd'
'Rea'
'nebenan_'
'müss'
'gift'
'Eigentum_'
'August'
'Aich'
'ühlen_'
'jer_'
'erb'
'atu'
'Haa'
'Gsch'
'hei_'
'eun'
'einheit_'
'Veh'
'Tanzen_'
'fat'
'entwickelten_'
'German'
'mann'
'gelungene_'
'Heimatverein_'
'würdigte_'
'gemerkt_'
'cfs'
'Könner_'
'kol'
'Schock'
'Rag'
'Leib'
'Dot'
' , ( _'
'hervorragende_'
'VS'
'Ra_'
'Pool_'
'Fug'
'olizei_'
'Welten_'
'Baustellen'
'leere_'
'gereist_'
'Labor_'
'Geheimdienst'
'Fabrik_'
'freige'
'Staatspräsident_'
'Seminar'
'Bücherei_'
'rat'
'erreich'
'Viktor_'
'Mum'
':'
'wee'
'verpassen_'
'time_'
'inal'
'ysi'
'ual'
'fd'
'ay'
'Tausend_'
'Sitzungen_'
'Herausforderer_'
'Trai'
'" ._'
'wehrt_'
'Landtags_'
'Kruse_'
'grob_'
'eingebrochen_'
'artei'
'Rollstuhl_'
'Mala'
'Dallas_'
'Cem_'
'zo_'
'tver'
'ngeb'
'lin'
'lebendig_'
'entlasten_'
'Beweg'
'vergewaltigt_'
'poli'
'platten_'
'Verkehrsbe'
'Orchester'
'Kut'
'Hendrik_'
'-/_'
'real_'
'aG'
'Toyota_'
'she'
'Xr_'
'Schwieger'
'Schwerpunkte_'
'Feh'
'wh'
'rka'
'odo'
'nra'
'maßen_'
'jed'
'elektronischen_'
'auffällig_'
'abh'
'Zuk'
'Therapie'
'Ste'
'Schokolade_'
'Nadel'
'staat_'
'nzu'
'gänzlich_'
'aff'
'Fett_'
'Ausgleichs'
'93'
'wch'
'nla'
'deutschem_'
'Säckingen_'
'Regina_'
'Klopp_'
'jubiläum_'
'git'
'Philosophie_'
'Orientierung_'
'Melodien_'
'Experiment_'
'ßnahmen_'
'sni'
'rbeits'
'må'
'Studenten'
'Sofa_'
'Rinder'
'Diskussions'
'Anschaffung_'
'rman'
'risiko_'
'nördlichen_'
'imm'
'angef'
'Wochenend'
'Strahl'
'Kerzen_'
'Hum'
'Abteilungsleiter_'
'ous_'
'ezi'
'chon_'
'Juan_'
'Funke_'
'eingeräumt_'
'Aller'
'het'
'Teamkollegen_'
'Soldat_'
'Ket'
'Schalker_'
'Mani'
'Kompetenz_'
'Gül'
'künstler_'
'Glaube_'
'Dim'
'Knö'
'Bun'
'vertrauen_'
'pd'
'log'
'gänge_'
'abel_'
'Aufführungen_'
'meist'
'Zweitliga_'
'Sey'
'Polizeibeamten_'
'NI'
'Getr'
'Übertragung_'
'nnten_'
'ding'
'box_'
'Lebensjahr_'
'hfg'
'gebot_'
'Schwarzwald'
'Frey'
'zeichnen_'
'uel'
'oul'
'ines_'
'gle_'
'einrichtung_'
'Yoga_'
'Unfalls_'
'Pölten_'
'Palast_'
'vielfältig_'
'cli'
'Medizin'
'mini'
'Wy'
'Oberbayern_'
'Metz'
'tzk'
'tsi'
'hil'
'fasste_'
'berechtigt_'
'Staub_'
'IF'
'umt'
'psychisch_'
'hfx'
'dy'
'hoffentlich_'
'ausgeschrieben_'
'Treppen'
'Regent'
'Nest_'
'Mora'
'Gegnern_'
'überf'
'regelmäßigen_'
'potenziellen_'
'kes'
'Sen'
'Löhne_'
'Finanzkrise_'
'Extra_'
'Beobachtung_'
'park'
'nst'
'abbr'
'Theodor_'
'Schulte_'
'Lr_'
'Ate'
'streichen_'
'kurzerhand_'
'japanische_'
'hse'
'drein_'
'Verbündeten_'
'erl'
'eige'
'TT_'
'Sulzbach_'
'Reise'
'Lan_'
'Damm_'
'1957_'
'willen_'
'wander'
'Insolvenz'
'Bachelor_'
'wegung_'
'iener_'
'hni'
'ara'
'Jch'
'Beschwerde_'
'vergleichen_'
'unterb'
'spä'
'festge'
'Wf'
'Palästinenser_'
'FO'
'rie'
'künstlerische_'
'gau'
'Geschlechts'
'Bosz_'
'Tab'
'Spitzenkandidaten_'
'Pant'
'Gehör_'
'späte_'
'ink'
'chatte_'
'Taylor_'
'FR'
'Eer'
'uge_'
'Theaters_'
'Ruder'
'Raketen'
'Plau'
'Ire_'
'Gemüse'
'reif_'
'pi_'
'fung_'
'esta'
'abschließend_'
'Fiat_'
'lha'
'gde'
'Zers'
'Möller_'
'Montagnachmittag_'
'IM'
'Dienstagmorgen_'
'verletzungen_'
'inhaltlich_'
'Bay'
'ws'
'stock_'
'rettete_'
'hinaus'
'Zigaretten_'
'iat'
'iK'
'gegründeten_'
'Yan'
'VG_'
'Frucht'
'reiste_'
'hme'
'best_'
'Yr_'
'Strafverfahren_'
'Rge'
'cker'
'Manch_'
'Hätte_'
'wissenschaftlichen_'
'unglücklich_'
'kas'
'ica'
'Premium'
'Pier'
'Kitzingen_'
'84'
'unterge'
'lze'
'figuren_'
'dnen_'
'darstellt_'
'ala'
'Stopp_'
'Schni'
'Plastik_'
'Kindertagesstätte_'
'Ho_'
'Hag'
'Butter'
'å'
'tech'
'leistete_'
'betreuen_'
'ansch'
'Such_'
'Rita_'
'Bezahlung_'
'Arbeiter'
'bvg'
'auer'
'Slowakei_'
'LL'
'ås'
'ider_'
'auss'
'Siegerehrung_'
'Nac_'
'Kreisel_'
'Anke_'
'wc'
'ndu'
'ilde'
'Rettungshubschrauber_'
'Bös'
'belaufen_'
'Sof'
'Laufbahn_'
' : - _'
'schief_'
'morgigen_'
'kalte_'
'größtenteils_'
'aufgefunden_'
'anf'
'Lenz_'
'Her'
'HL'
'Fris'
'Benzin_'
'Bauk'
'rollt_'
'korrekt_'
'brunn_'
'Mae'
'Gans_'
'Aufschwung_'
'täter_'
'Wohngebiet_'
'Wah'
'Erdoğan_'
'Eisen_'
'Ain'
'Ör_'
'umfassenden_'
'hein'
'gewartet_'
'Schulbe'
'Kabul_'
'orste'
'enta'
'auszul'
'Winkler_'
'Stol'
'Lech'
'Zusammenschluss_'
'Terrasse_'
'Os_'
'Koh'
'Klimaschutz'
'zugenommen_'
'vors'
'pti'
'Sicherheitsrat_'
'Qr_'
'Punk_'
'Brut'
'ysteme_'
'praktische_'
'onzern_'
'mw'
'gepflegt_'
'entgehen_'
'Zwecke_'
'Rex_'
'Nachteil_'
'Moser_'
'Kuba_'
'Bedürfnisse_'
'spielerisch_'
'nwe'
'lagern_'
'derselben_'
'Verdienste_'
'Tricks_'
'Korb_'
'Erleichterung_'
'pack'
'lia_'
'lane'
'gewiss_'
'fester_'
'Schl'
'Modernisierung_'
'Landschafts'
'Asa'
'tvo'
'ehe'
'SH'
'Rohingya_'
'Fch'
'DLRG_'
'Aufbau'
'uba'
'stärkere_'
'sou'
'Bauen_'
'Üch'
'verstecken_'
'bekannter_'
'Plattformen_'
'Förster_'
'Binder_'
'veröffentlichen_'
'mste'
'ersh'
'einzusch'
'eingep'
'anns_'
'Landkreis'
'Gesp'
'nG'
'Tatverdächtige_'
'PD_'
'Kompetenzen_'
'unp'
'fjdi'
'Birken'
'Ausgerechnet_'
'realistisch_'
'bearbeitet_'
'abs'
'Sondern_'
'Sandro_'
'Mer_'
'Höh'
'abgesetzt_'
'fot'
'Schriftführer_'
'Dw'
'ide'
'fes'
'Neos_'
'Gehr'
'Deb'
'DG'
'Barn'
'vers'
'abgeholt_'
'Qch'
'Mossul_'
'Linde_'
'Kredit_'
'Comedy_'
'Ausb'
'Ach'
'Verurteilung_'
'Versa'
'Papenburg_'
'Leser'
'Labour_'
'Ideen'
'Ür_'
'ets'
'ersta'
'Nagelsmann_'
'iri'
'Mittelst'
'Haber'
'Grippe_'
'Gisela_'
'zitierte_'
'warteten_'
'timmung_'
'aal'
'Sammel'
'Drohnen_'
'hce_'
'bestritt_'
'auszur'
'isa'
'gehalt_'
'Jugends'
'tions_'
'lba'
'ersp'
'besiegt_'
'Zellen_'
'Verlegung_'
'Untergrund_'
'Steinfurt_'
'Saft_'
'Priester_'
'Hoff'
'Bremerhaven_'
'gege'
'deckt_'
'Wahlp'
'Bestands'
'Bart_'
'Anordnung_'
'Abzug_'
'früh'
'bru'
'Zg'
'Krieges_'
'Gerichts_'
'Bent'
'Cornelia_'
'xch'
'Stief'
'Staatsstraße_'
'BVG_'
'Übersicht_'
'ungeschlagen_'
'spektakulären_'
'rea'
'Rajoy_'
'LO'
'LD'
'helfer_'
'erfolgreichsten_'
'öer'
'ngst'
'buf'
'Sänger'
'Sens'
'Hannah_'
'vorwiegend_'
'inu'
'inde_'
'gekürt_'
'able'
'Windows_'
'Weiterlesen_'
'Projektes_'
'85'
'xm'
'twi'
'platziert_'
'Zugabe_'
'Doc'
'islamischen_'
'Mti'
'qualifizierte_'
'ordnen_'
'auern_'
'Zweitligisten_'
'Weilheim_'
'Atelier_'
'yk'
'nes'
'mba'
'Netanjahu_'
'Delegierten_'
'Ausfahrt_'
'hüter_'
'ROM_'
'Einzelfall_'
'Ebert_'
'Bare'
'fst_'
'durchf'
'Sj'
'ude_'
'nberger_'
'angebliche_'
'Zch'
'Wh'
'Lebensmitteln_'
'wind_'
'tze'
'traut_'
'spe'
'rni'
'lität_'
'erle'
'ees_'
'beschert_'
'Sehnsucht_'
'Kai'
'Greven_'
'smann_'
'olo'
'lad'
'jk'
'gleicht_'
'erinner'
'Streifen'
'Steil'
'Komplett'
'Dienstagnachmittag_'
'schwedischen_'
'kari'
'imme_'
'iW'
'durchges'
'Stadtp'
'Mg'
'Gün'
'Def'
'Bron'
'hotel_'
'Rucksack_'
'Mittelalter_'
'Borg'
'lep'
'div'
'Stufen_'
'Installation_'
'Heraus'
'Check_'
'Brach'
'BV'
'Aub'
'01'
'schin'
'regelung_'
'mod'
'ikt'
'fliehen_'
'dev'
'berühmt_'
'Qf'
'Mte'
'Königreich_'
'Dar_'
'mne'
'lbach_'
'Kid'
'übergab_'
'ärgert_'
'mpi'
'ebo'
'bekräftigte_'
'Funktions'
'sst'
'rke'
'rho'
'ox_'
'zwischen'
'uma'
'beschließen_'
'berät_'
'Verfahrens_'
'Riet'
'Diplomaten_'
'ünder_'
'lfen_'
'Mita'
'platz'
'glo'
'fif'
'Psycho'
'Hut'
'Hera'
'jäger_'
'dick_'
'Dip'
'riefen_'
'bk'
'aufw'
'abgelaufenen_'
'Störung_'
'Sitzen_'
'Pakistan_'
'Kapazitäten_'
'Darm_'
'1973_'
'regelrecht_'
'inse'
'eß'
'Zwei'
'Helm'
'Hap'
'Bundesanwaltschaft_'
'tra_'
'möglichkeit_'
'gte'
'gefä'
'Era'
'zb'
'glatt_'
'Torschütze_'
'Rub'
'Panorama_'
'Nation'
'Irren_'
'realisieren_'
'mitbringen_'
'air_'
'aP'
'Wri'
'Sergej_'
'Ms'
'raßen_'
'opi'
'nbo_'
'fahrenden_'
'bemühen_'
'Keime_'
'zurückgewiesen_'
'pfer_'
'meh'
'klin'
'Zuge'
'Stück'
'Amtes_'
'zal'
'dha'
'Vieh'
'Schatz_'
'Prozess'
'Kch'
'Handball'
'tauchen_'
'nj'
'Ter_'
'Technologien_'
'Freiheits'
'.+_'
'Äg'
'gelungenen_'
'Lücken_'
'Est'
'zurückgegangen_'
'wic'
'nas_'
'mahnte_'
'ehn'
'Reifen'
'Gestaltungs'
'lab'
'Laptop_'
'DL'
'vst'
'einf'
'Stad'
'Pha'
'Lidl_'
'Boston_'
'handlungen_'
'Mittwochnachmittag_'
'Mall'
'Cristiano_'
'richtung_'
'esi'
'Weiterhin_'
'MV_'
'Lau_'
'Famili'
'Carmen_'
'was'
'kei'
'erd'
'aufhören_'
'Wem_'
'Tscha'
'Schrecken_'
'Ingenieur_'
'Gib'
'Entschädigung_'
'Ens'
'Andr'
'tm_'
'feine_'
'Reb'
'ös'
'wacht_'
'regel'
'anken_'
'Tank_'
'Seit'
'Schall'
'Oberk'
'Ku_'
'Bete'
'mite'
'chin'
'Twe'
'Schade_'
'Nahverkehr_'
'Bar'
'omo'
'belastung_'
'Wurst_'
'Moor'
'Ell'
'Aufarbeitung_'
'cr_'
'cke'
'Wels_'
'Tren'
'Stab'
'Sommerfest_'
'Hero'
'Fähigkeit_'
'ý'
'verglichen_'
'tit'
'hum'
'hiesigen_'
'fie'
'don_'
'betra'
'Vorstandsmitglied_'
'OT'
'Fachk'
'nkt'
'igi'
'ankommen_'
'Schim'
'pfl'
'kurzzeitig_'
'UM'
'Mauern_'
'Kis'
'Ergebnis'
'EG'
'sicher'
'gsk'
'eno'
'alternative_'
'Bli'
'22'
'vte'
'reiter_'
'nähe_'
'met'
'Mp'
'plu'
'geste'
'allerlei_'
'Tech_'
'Futter'
'hand_'
'fels_'
'eboo_'
'Proe'
'Drehen_'
'Anschlussstelle_'
'set'
'dae'
'cf_'
'Lit'
'Kris'
'Gü'
'Blo'
'Armuts'
'überlebt_'
'swa'
'streit_'
'stellvertretenden_'
'eha'
'ado'
'Kolping'
'BT'
'Arti'
'Organisator_'
'Genauso_'
'Bären_'
'And_'
'häufigsten_'
'ativ_'
'Tae'
'Kerl_'
'stehlen_'
'lti'
'Wüste_'
'WK'
'Rücksicht_'
'Reste_'
'Gebiets'
'Dimension_'
'kru'
'freiwillige_'
'dur'
'ürk'
'hee'
'hd'
'Wre'
'Wirtschaftss'
'Villen_'
'ständige_'
'rki'
'einigung_'
'debatte_'
'ahres'
'Jugendfeuerwehr_'
'CO'
'Anstoß_'
'stei'
'skandal'
'erfolglos_'
'Hot'
'Gela'
'Freiheitsstrafe_'
'Finanz_'
'Ausschuss'
'warme_'
'jfm'
'htet_'
'erstattet_'
'erschüttert_'
'rW'
'ilch_'
'Viertel'
'Rm'
'Rg'
'Kem'
'Demenz_'
'Austritts'
'Legislaturperiode_'
'Fördervereins_'
'Brandschutz'
'280_'
'Vils'
'Tief_'
'Moral_'
'BKA_'
'überr'
'mni'
'hund_'
'fw'
'eiche_'
'Voufs'
'Gan'
'Diskriminierung_'
'Ami'
'zugezogen_'
'Nee'
'läg'
'hilfreich_'
'Ofen_'
'Mant'
'Ine'
'BG_'
'Überall_'
'sers'
'hattet_'
'esb'
'blickte_'
'Springen_'
'Institution_'
'people_'
'kaufte_'
'gest'
'Summen_'
'Stick'
'Rundfunk_'
'Bastel'
'winde'
'ufnahme_'
'Wolle_'
'Märkten_'
'steckte_'
'ios_'
'Unrecht_'
'Moto'
'Ensembles_'
'tiv_'
'Play'
'Pd'
'Ote'
'dal'
'theit_'
'said_'
'rüh'
'rder_'
'rchen_'
'hri'
'eg'
'VI'
'Trocken'
'Festnahmen_'
'Ermittlungsverfahren_'
'ungl'
'rai'
'obs'
'Zeitschrift_'
'RO'
'Kanon_'
'zurückf'
'muf'
'gemä'
'Miami_'
'überfordert_'
'ona_'
'gon_'
'gge'
'Spr'
'Schell'
'ystems_'
'reihen_'
'mot'
'lz'
'abzule'
'Verkäufer_'
'Vas'
'Saisonsieg_'
'Ehrenamtlichen_'
'Denn'
'ole'
'jahr'
'Produkt'
'Marc'
'Von'
'Pistole_'
'Pal'
'Herr'
'Gewässer_'
'wege'
'vat'
'oni_'
'Treiben_'
'Hack'
'EL_'
'175_'
'ähnliches_'
'landeten_'
'kompliziert_'
'itt'
'Holland_'
'EV'
'tei_'
'kultur'
'hla'
'aufsch'
'Poll'
'Neustart_'
'Mandel'
'Hansa_'
'Dat'
'ett'
'demi'
'WB'
'Sad'
'Drohungen_'
'Bub_'
'stt'
'pos'
'einmalig_'
'Swi'
'Staa'
'Nachr'
'Bert'
'verleihen_'
'aris'
'Sg'
'östlichen_'
'spie'
'ket_'
'etr'
'Volksfest_'
'Stuhl_'
'Frisch'
'Aar'
'pin'
'lpo'
'kanal_'
'gsf'
'Sak'
'Rak'
'Mik'
'Gem'
'Bod'
'scheid_'
'fasziniert_'
'entwickel'
'Wund_'
'Techniker_'
'Panzer'
'grund'
'Sicherung_'
'Scheiben_'
'Jackson_'
'übernahmen_'
'lim'
'Witz'
'Segel'
'Modeste_'
'Drohung_'
'Böblingen_'
'stützt_'
'niederländische_'
'nervös_'
'kung_'
'ign_'
'Pharma'
'Eberhard_'
'Braunschweiger_'
'Blasmusik_'
'Aren'
'übersetzt_'
'omb'
'kit'
'hit'
'fss'
'asen_'
'Getty_'
'Geschäftsstelle_'
'sP'
'hal'
'abgeschoben_'
'Senior_'
'Jahrestag_'
'Festhalle_'
'zunehmen_'
'zin'
'stn'
'fremde_'
'coach_'
'ake'
'Singapur_'
'Schein_'
'Oberfläche_'
'Handwerks'
'tages_'
'oK'
'ernten_'
'Verwandten_'
'Arbeitss'
'kna'
'inmitten_'
'dä'
'Geflügel'
'ym'
'stärke_'
'neun'
'mangels_'
'hce'
'geschleudert_'
'Chu'
'srt'
'räder_'
'low_'
'kot'
'FM'
'ünd'
'vorha'
'tol'
'enr_'
'Nv'
'DU'
'wendig_'
'tea'
'rte'
'einm'
'egen'
'definiert_'
'Spi'
'Rausch_'
'verbesserte_'
'nhausen_'
'klinik_'
'inski_'
'echsel_'
'Signal'
'OP'
'Hip_'
'Geschäftsjahr_'
'sK'
'nten'
'nba'
'herunterge'
'acker_'
'Wahlsieg_'
'Senator_'
'Leucht'
'Geschlecht_'
'Disney_'
'wohnung_'
'polit'
'ela_'
'Zü'
'Mah'
'Dün'
'äsident_'
'schriftlich_'
'fert_'
'Una'
'Teamchef_'
'Menschenrechts'
'Hunger'
'Bulgarien_'
'ohf'
'ierend_'
'fortan_'
'Traktor_'
'spürt_'
'grä'
'abu'
'Schulf'
'Kl_'
'Einzelhandels'
'qr_'
'kb'
'hft'
'comm'
'Zy'
'Spaniens_'
'GA_'
'Fussball_'
'undi'
'nette_'
'nad'
'mes'
'Sozialp'
'Glanz'
'Dahinter_'
'ähr'
'hftdi'
'VA'
'DP'
'individuellen_'
'Futter_'
'Fun'
'liegende_'
'dür'
'Tz'
'Straftat_'
'Nik'
'Grn'
'ßf'
'zk'
'zit'
'streit'
'ozial'
'füllt_'
'dist'
'chä'
'Jel'
'DT'
'Ande'
'ro'
'ria_'
'orin_'
'kunde_'
'korb_'
'konstant_'
'ierenden_'
'Unterdessen_'
'Sr_'
'Mende'
'Maurer_'
'Übersch'
'jeher_'
'gewo'
'durchführen_'
'bereisen_'
'Verpflichtungen_'
'Aussendung_'
'derzeitige_'
'beitr'
'anh'
'Vee'
'Gag_'
'Außenministerium_'
'nia_'
'kennenlernen_'
'ausgesucht_'
'abgelegt_'
'Weiden'
'Stephanie_'
'Fries'
'äb'
'tdi_'
'kie'
'antwortet_'
'Eurozone_'
'Betrugs'
'verwe'
'ika_'
'fro'
'alk'
'Yer'
'Spital_'
'Iris_'
'Einst'
'nner_'
'hta_'
'Hals'
'Chefredakteur_'
'xer_'
'rettet_'
'körperliche_'
'ihe_'
'goldenen_'
'fertiggestellt_'
'angehören_'
'Wagenknecht_'
'Schweigen_'
'Pent'
'Mars'
'Comp'
' , ..._'
'unternommen_'
'Kreiss'
'umsonst_'
'rode_'
'herz'
'anbietet_'
'Zor'
'Peri'
'qfs'
'omp'
'Träume_'
'Neuver'
'Morgenpost_'
'Ministerpräsidentin_'
'hierzu_'
'gegl'
'aufe'
'Sonntag'
'Kinderb'
'Flügel'
'lles_'
'leg'
'ick'
'etrieb_'
'erse'
'Sohnes_'
'Pte'
'Berga'
'Ausst'
'Alm'
'í'
'verka'
'chwa'
'Mineral'
'Lib'
'Georgen_'
'Bet'
'Ös'
'unmittelbarer_'
'kademie_'
'Wetterdienst_'
'Verena_'
'Hr_'
'ova_'
'onta'
'hop_'
'Neub'
'nho'
'nachs'
'etlichen_'
'betreffen_'
'ausgewertet_'
'Trinkwasser_'
'Ng'
'oro'
'lme'
'hit_'
'Zel'
'Volkspartei_'
'Smith_'
'Sabrina_'
'Ot_'
'Jdi_'
'nai'
'Xfj'
'Verwi'
'zurückzuführen_'
'taz_'
'cel'
'Nationalteam_'
'Meta'
'Trick_'
'Ansichten_'
'Ab'
'packt_'
'menge_'
'gran'
'Rang'
'Obdi'
'Landesf'
'Kommen_'
'Glei'
'Fort_'
'Beleg_'
'86'
'550_'
'260_'
'montags_'
'kuchen_'
'Weide_'
'Trasse_'
'Aktionäre_'
'3500_'
'zulassen_'
'verm'
'tub'
'lste'
'kowski_'
'befunden_'
'Würzburger_'
'Us_'
'Tte'
'Piet'
'Handels_'
'wein'
'ngl'
'delt_'
'Räum'
'1960er_'
'üc'
'äßig_'
'hrten_'
'hig'
'bundesweiten_'
'belt_'
'UV_'
'Roboter'
'ida'
'Gener'
'Abl'
'que'
'nutz'
'herunter_'
'Stadtk'
'Spitzenspiel_'
'Gang'
'ES_'
'DGB_'
'tme'
'Vro'
'Brei'
'reten_'
'ohn'
'klappen_'
'este'
'Umsch'
'Umland_'
'Trainings_'
'Ansa'
'ork'
'integrieren_'
'gast_'
'Rott'
'LK'
'Kiosk_'
'Kbisfo_'
'Fests'
'viermal_'
'rist_'
'inander_'
'Gmünd_'
'Begleit'
'Augenblick_'
'Ahnung_'
'Leitungen_'
'Aufh'
'Abe'
'wandern_'
'uchs'
'sler_'
'rsdorf_'
'Lg'
'Ausweitung_'
'Aba'
'gelegentlich_'
'Rer'
'Moore_'
'Ludwigshafen_'
'HS'
'112_'
'jähr'
'evakuiert_'
'Schultern_'
'Jul'
'Emissionen_'
'tote_'
'irr'
'dur_'
'SF'
'Rhe'
'Kreisstadt_'
'Glä'
'Davos_'
'åv'
'ichtet_'
'Rr_'
' - : _'
'geflohen_'
'ausgesch'
'Touristen'
'Tablet_'
'Peugeot_'
'Mitspieler_'
'wetter'
'weren_'
'vtu'
'vir'
'erä'
'Micha'
'Menschheit_'
'vin_'
'real'
'camp_'
'Onkel_'
'Macrons_'
'Hemm'
'Großvater_'
'Ase'
'kochen_'
'ierende_'
'dB'
'Ifs'
'Geständnis_'
'grenzen_'
'enbr'
'dinger_'
'Stellen'
'Lag'
'CB'
'Ausflugs'
'Arbeitsgruppe_'
'zent_'
'verpflichten_'
'tde'
'Mv'
'Gleichwohl_'
'xr_'
'spekuliert_'
'itzen_'
'hre'
'edo'
'ausprobieren_'
'Tun'
'Taliban_'
'vch'
'tst'
'jahres_'
'Verbreitung_'
'Sportchef_'
'Cyber_'
'Bundespräsidenten_'
'riesig_'
'radikal_'
'ofer_'
'nab'
'führ'
'besi'
'Nomen_'
'Erfolgen_'
'Chic'
'Anblick_'
'erkl'
'energie'
'aufgebrochen_'
'Vog'
'Spielraum_'
'Schal'
'jin_'
'elb'
'Risse_'
'ungsl'
'tten'
'perfekten_'
'gsp'
'beiträge_'
'Weiss_'
'Schel'
'Regie'
'Konsum'
'Dörfer_'
'verliebt_'
'stattfand_'
'kommentierte_'
'keln_'
'hea'
'egl'
'Bezeichnung_'
'itel_'
'hervor'
'bc_'
'Reit_'
'Rechtspopulisten_'
'Free_'
'Ausfälle_'
'Alpin'
'uter'
'schmeckt_'
'kämpfe_'
'geredet_'
'Skepsis_'
'Schlecker_'
'Petition_'
'Pack'
'Kanzler'
'Gemeindehaus_'
'Diesem_'
'md'
'ieh'
'dige_'
'Soft'
'Regierungsbildung_'
'neiden_'
'hinzuge'
'gsa'
'forder'
'dee_'
'él'
'bon'
'aufwendig_'
'anderswo_'
'Kapital'
'Bäcker_'
'öb'
'musik'
'ergaben_'
'Wertschätzung_'
'Shirts_'
'HD'
'Games_'
'tche'
'klar'
'don'
'amb'
'Momentan_'
'Mens'
'Dae'
'sleiter_'
'rsten_'
'Zeugin_'
'Maler'
'Bauma'
'zwingen_'
'mithalten_'
'ceh'
'alz'
'Vorjahres_'
'Stellplätze_'
'Shu'
'Geschwindigkeits'
'Wör'
'Dreier'
'Dolch_'
'Autok'
'ATP_'
'ßlich_'
'kom_'
'hate_'
'gfo_'
'fahrzeuge_'
'aku'
'Taktik_'
'Neuseeland_'
'Konflikt'
'Geheimdienst_'
'Frey_'
'Ech'
'zö'
'tig'
'radikalen_'
'nR'
'iV'
'fut'
'Yas'
'Wahlergebnis_'
'Tragen_'
'Schafe_'
'Radl'
'Angst'
'Akku_'
'shausen_'
'np'
'nkte_'
'jubeln_'
'itäts'
'bach'
'RB'
'Kindes'
'Ju_'
'Cou'
'Abschiebungen_'
'Überschuss_'
'sF'
'itik_'
'einen'
'chk'
'Kokain_'
'Etage_'
'191'
'gegebenenfalls_'
'Tournee_'
'Prok'
'Houthi_'
'Geber'
'themen_'
'tagsüber_'
'dz'
'TT'
'Schadstoff'
'Phasen_'
'Kunstwerk_'
'Binde'
'Beschuldigte_'
'öpf'
'oni'
'jüngster_'
'brachen_'
'aufgetaucht_'
'Mar_'
'Bell'
'Anlage'
'ntw'
'isti'
'Vm'
'Gastro'
'Fou'
'Boote_'
'ose'
'gebl'
'erfolgreicher_'
'enken_'
'dss_'
'Barg'
'Alp'
'qch'
'kum'
'bestätigten_'
'Wettkampf'
'Teils_'
'Sold_'
'wanderung_'
'faktor_'
'arteien_'
'Dd'
'Apfel'
'Amp'
'zettel_'
'vorbei'
'tem'
'jch'
'getrunken_'
'Ny'
'Automaten_'
'sechste_'
'kge'
'Plo'
'Maut'
'Gui'
'Donnerstagnachmittag_'
'cheibe_'
'Verstärkung_'
'Gronau_'
'Gleise_'
'Fas'
'Besch'
'Alaba_'
'zirka_'
'kreative_'
'block'
'Fußb'
'lif'
'agr'
'Schwer_'
'Jae'
'Cbv'
'ühl'
'Vorjahren_'
'Pastor_'
'Kleinst'
'unterstrich_'
'offensiv_'
'manns'
'eindrucksvoll_'
'Vch'
'Royal_'
'MM'
'Lach'
'Kostüme_'
'Goethe_'
'Gart'
'Franke_'
'ählt_'
'gesetz'
'Südost'
'PP'
'Meistertitel_'
'Beis'
'Übe'
'zunehmende_'
'einzelner_'
'Sotschi_'
'Range'
'Ade'
'fsh'
'Qualitäten_'
'Lia'
'Lara_'
'Diktatur_'
'übungen_'
'toren_'
'eingelegt_'
'PI'
'Neuanfang_'
'warne_'
'lut'
'entl'
'ekt'
'büros_'
'aru'
'Schwä'
'verfolgten_'
'ino'
'goldene_'
'Poi'
'Duelle_'
'Bes'
'wag'
'krä'
'Völker'
'VO'
'Stillstand_'
'Polizeibericht_'
'Autoindustrie_'
'öt_'
'wiede_'
'mv'
'lop'
'front_'
'Zähne_'
'AH'
'lter'
'fall'
'Zuschauer'
'Hillary_'
'Aufforderung_'
'igsten_'
'ftu'
'Thie'
'verschr'
'katalanische_'
'dichte_'
'Sk'
'Rams'
'Diener_'
'älte'
'nerin_'
'eß_'
'bemerkbar_'
'Resolution_'
'Finn'
'zie'
'verfasst_'
'senen_'
'hins'
'eln'
'Vizemeister_'
'Slo'
'Samstags_'
'ofs'
'hofs_'
'Bele'
'Bauf'
'tis_'
'gültig_'
'entstandene_'
'Kd'
'versi'
'gratulierte_'
'getr'
'Festakt_'
'Bauabschnitt_'
'Arg'
'oko'
'ewe'
'chießen_'
'anischen_'
'Paula_'
'Käse'
'Heil_'
'technischer_'
'tA'
'ssch'
'frag'
'eid_'
'Rahm'
'Honig_'
'Gewi'
'Dub'
'snd_'
'nbi'
'elektronische_'
'artig_'
'SU'
'Mitgliedstaaten_'
'Leid'
'[ _'
'Zuversicht_'
'Verstöße_'
'Sd'
'Bill'
'ärten_'
'gesa'
'fussball_'
'ahm_'
'Pilger'
'Gewä'
'zurecht'
'Wd'
'Dil'
'Blumberg_'
'schäden_'
'sT'
'neo'
'Streitkräfte_'
'Ez'
'dru'
'dle'
'Und'
'Sportp'
'Rim'
'Achtung_'
'rats'
'Loe'
'Interims'
'gefreut_'
'fang_'
'afen_'
'Zitat_'
'Wich_'
'geru'
'eint'
'eams_'
'Hugo_'
'Faust'
'hintereinander_'
'cra'
'Weimar_'
'Verz'
'Call'
'versp'
'ungesch'
'satt_'
'wü'
'but_'
'Mädels_'
'BIP_'
'zte'
'eide'
'Vorr'
'Urban_'
'Einkauf_'
'iso'
'Treffens_'
'Kämmerer_'
'weis'
'erdi'
'edt_'
'ders'
'cri'
'wra'
'verba'
'rsch_'
'komplex_'
'gelernte_'
'befinde_'
'Veri'
'Nis'
'Landes'
'Königs_'
'Knu'
'Intr'
'zar'
'oberste_'
'läge_'
'bers_'
'Disco_'
'Brink'
'Adenauer_'
'schiebt_'
'kilometer'
'kal_'
'bedeutete_'
'Nationalrat_'
'Kof'
'Zweikampf_'
'Lizenz_'
'Antrieb_'
'liert_'
'heb'
'dee'
'abermals_'
'Mammut'
'stimmung_'
'jnnfs_'
'geschä'
'fit'
'üz'
'ziel'
'schrieben_'
'ras'
'dad'
'Gewissen_'
'Ditt'
'üll'
'basiert_'
'Kunstf'
'Japaner_'
'vk'
'Neuwahl_'
'Mem'
'tou'
'oy'
'kst'
'food_'
'Roma_'
'Prop'
'Anleitung_'
'rau'
'belasten_'
'ande'
'Sher'
'Selbstbewusstsein_'
'Guten_'
'jä'
'cft'
'ausgeht_'
'Beau'
'ves'
'verkauften_'
'professionell_'
'odi'
'denk'
'Schreib'
'Mj'
'MH'
'Geni'
'usammen'
'erne'
'buntes_'
'Eindrücke_'
'EF'
'religiöse_'
'ermin_'
'Vork'
'Freilassung_'
'Drachen'
'Din'
'Bussen_'
'unsicher_'
'schneiden_'
'lsa'
'iE'
'FCB_'
'Eier'
'Donnerstagmorgen_'
'zusa'
'yt_'
'wall'
'iy'
'egn'
'eft'
'dom'
'Rep'
'Chöre_'
'überleben_'
'Öst'
'unerwartet_'
'line'
'höre_'
'belästigt_'
'Vertriebs'
'Kob'
'Journal_'
'Count'
'Break'
'kch'
'gewä'
'erh'
'beleidigt_'
'Wassert'
'Vorh'
'Trö'
'Schlü'
'under_'
'roß'
'kontrollen_'
'izi'
'igkeiten_'
'hfs'
'dramatischen_'
'aktueller_'
'Kohlen'
'Dreh_'
'vorbeige'
'tder_'
'qt_'
'nna'
'nburg_'
'klage_'
'ilm_'
'geschm'
'Vogt_'
'Studierende_'
'Kreistags'
'Bris'
'Beifahrer_'
'19'
'tädter_'
'sg_'
'my'
'Junior'
'Geschenk'
'Dresdner_'
'web_'
'schwarzer_'
'Weidel_'
'Sommers'
'Pch'
'Konf'
'KO'
'Hühner'
'Hard'
'Fell_'
'Fahre_'
'Can_'
'Bea'
'günstigen_'
'gag'
'ebi_'
'Lam'
'Bären'
'uB'
'sicht_'
'Sportf'
'Mieder_'
'Jahrzehnt_'
'Aschen'
'zentral_'
'wecken_'
'vielfältigen_'
'optisch_'
'ieden_'
'basis_'
'Vermittlung_'
'üter_'
'gin'
'gerieten_'
'gebühr_'
'eini'
'Schütze_'
'Königsklasse_'
'Christus_'
'schn'
'rekt'
'biete'
'KL'
'udi'
'ländern_'
'Yemeni_'
'Täter'
'Spielzeug_'
'Ernstfall_'
'verlo'
'timmen_'
'magazin_'
'bedeckt_'
'Protokoll_'
'Nm'
'Mehl'
'Mais_'
'Gomez_'
'Elektromobilität_'
'tand'
'rdie_'
'hof'
'enre'
'Schuls'
'Quar'
'Esch'
'irt'
'ausbildung_'
'Rechner_'
'Ode'
'Ige'
'solide_'
'näher'
'aten'
'Kei'
'Einh'
'Amerikas_'
'wählten_'
'reagierten_'
'iege_'
'Pä'
'Präventions'
'Kovac_'
'Gleis'
'Gina_'
'Antik'
'tran'
'ssen'
'ped'
'Paradies_'
'KG'
'Halle'
'Beschuldigten_'
'Abseits_'
'sätze_'
'ntz'
'mutig_'
'gez'
'beseitigt_'
'OE'
'Ij'
'Bauamt_'
'Aufr'
'ẞt_'
'ewig_'
'Nte'
'Gom'
'frontal_'
'einverstanden_'
'beweist_'
'Punk'
'Logistik_'
'Grundschüler_'
'Einreise_'
'Abendkasse_'
'vorgeführt_'
'sbr'
'Verg'
'Lot'
'rog'
'ock'
'lossen_'
'grad_'
'amp'
'Schulk'
'Parkhaus_'
'Kuss_'
'Dee'
'hou'
'Tim'
'Kand'
'Kaisers'
'Hofe'
'Hes'
'Betrüger_'
'anscheinend_'
'Slowenien_'
'Schn'
'Anklage'
'vorkommen_'
'schiff_'
'renze_'
'fotos_'
'dab'
'Wei_'
'Unterk'
'Parade_'
'Gesetzentwurf_'
'strebt_'
'eres_'
'Tou'
'Freib'
'Final'
'Dol'
'Buss'
'AM_'
'vorw'
'verrückt_'
'hinter'
'gesenkt_'
'ativen_'
'Zustände_'
'Trend'
'Schmerz_'
'Dad'
'treue_'
'rwa'
'olz'
'Xer'
'Vers'
'Magen_'
'Entspannung_'
'Einsatzkräften_'
'Brust'
'Alba_'
'Überzahl_'
'wes'
'vorhandene_'
'verla'
'signalisiert_'
'schrift_'
'identifizieren_'
'Neuk'
'Montage_'
'Films'
'Bug'
'Bahnhofs_'
'zivil'
'nachdenken_'
'Vei'
'UEFA_'
'School_'
'Malta_'
'wom'
'wicht_'
'vehement_'
'etablieren_'
'Tierheim_'
'Sut'
'Sprengstoff'
'Geschäfts_'
'Geldpolitik_'
'Buck'
'verlauf_'
'renn'
'problemen_'
'antritt_'
'Wirbel_'
'Takt'
'Hasenhüttl_'
'Bd'
'kämpften_'
'keller_'
'ems'
'eas'
'Mitarbeiterinnen_'
'Mahl_'
'Interessen'
'Gebühr_'
'Deut_'
'Deich'
'2024_'
'istisch_'
'aßnahmen_'
'av'
'Soll'
'Cch'
'Belange_'
'zert_'
'wilden_'
'uK'
'bevorzugt_'
'auftragte_'
'203'
'verk'
'umzug_'
'tmen_'
'kon_'
'arme_'
'Verweis_'
'Untier_'
'Soziale_'
'Geister'
'Freitags_'
'Ausgangs'
'yl'
'sät'
'kelt_'
'ette'
'dam_'
'Wür'
'Report_'
'mB'
'herstellen_'
'edien'
'Zuhörern_'
'Merc'
'Globalisierung_'
'Beweis'
'uM'
'tir'
'gch'
'ihe'
'entgegen'
'Wahla'
'Siedlungs'
'Sic'
'RM'
'Königst'
'Widder_'
'würdigen_'
'wle'
'gps'
'gewähren_'
'Zsch'
'Nicol'
'Handb'
'Einerseits_'
'AI'
'schad'
'Zahlen'
'Narr'
'Einhaltung_'
'Dier'
'upt'
'nges'
'eur'
'Steg'
'Platten'
'Germania_'
'Gastspiel_'
'Flynn_'
'Europe_'
'sicherten_'
'rauch'
'ammlung_'
'Wüsten'
'Cy'
'Birk'
'Baubeginn_'
'uli'
'stl'
'rj'
'bungen_'
'Mensch'
'Betreiber'
'uden_'
'olg'
'nso'
'mp'
'mah'
'bieder_'
'WT'
'Sell'
'Neuss_'
'ID'
'Hauptrolle_'
'Eer_'
'Ausbau'
'Asphalt'
'kont'
'enu'
'einnahmen_'
'ausverkauften_'
'Manda'
'Kinderbetreuung_'
'Digital_'
'CH_'
'Beziehungs'
'verhinderte_'
'nix_'
'hart'
'eingeschlagen_'
'dortige_'
'Umgestaltung_'
'Pod'
'Kenn'
'zus'
'evsdi_'
'ack'
'Terrora'
'Steinb'
'Oberst'
'Nationalrats'
'Hochburg_'
'Dekret_'
'erungen_'
'Zier'
'Unabhängigkeits'
'Thal'
'Sre'
'Faul'
'Allein'
'zust'
'ttu'
'stör'
'stimme_'
'Wahrscheinlich_'
'Offenheit_'
'Mafia_'
'Küsten'
'Gron'
'isierte_'
'angehoben_'
'Scheu'
'Award_'
'ösung_'
'spu'
'rzt_'
'lat'
'Vidal_'
'Pausen_'
'Handlungsbedarf_'
'Gat'
'Fraktionsvorsitzende_'
'Entstehung_'
'überwacht_'
'qualifizieren_'
'Osteuropa_'
'Aufgebot_'
'liner_'
'lei'
'glück_'
'ax'
'Gch'
'Fi_'
'zwölften_'
'stisch_'
'esr'
'Untern'
'Rufnummer_'
'Masters_'
'Kärnten_'
'Enz'
'Einweihung_'
'' _'
'versa'
'nsk'
'iefer'
'Dardai_'
'tus_'
'such'
'ition_'
'iro'
'ahre_'
'Pflanz'
'Hav'
'AOK_'
'stre'
'messer_'
'inz'
'dou'
'Zm'
'Ursprung_'
'Tower_'
'Passagier'
'Höl'
'Heb'
'Hallenbad_'
'öde_'
'waltungs'
'ukt'
'ufo'
'steiner_'
'mangelnde_'
'gewandt_'
'fachen_'
'Sav'
'Fahrzeugs_'
'Anbau'
'under'
'theoretisch_'
'geri'
'forum_'
'enth'
'einbe'
'Street'
'Silvia_'
'Redakteur_'
'Och'
'Landshut_'
'Landesk'
'Karibik_'
'Kab'
'Datei_'
'tufe_'
'körper_'
'Umleitung_'
'Straßenbahn_'
'Schuh_'
'Reality_'
'LKA_'
'Heizung_'
'För'
'Derweil_'
'A3_'
'zehnte_'
'tiger_'
'mis'
'halter_'
'Optimismus_'
'Freundeskreis_'
'Fetzen_'
'EV_'
'rze'
'Rek'
'RV_'
'Boxen_'
'prim'
'bit'
'beitrag_'
'Steffi_'
'Überwachungs'
'freundliche_'
'Vertrauens'
'Vert'
'Steink'
'Schrö'
'Outfit_'
'Kine'
'Besonderheit_'
'treu'
'roh'
'reffer_'
'berücksichtigen_'
'Papp'
'Leist'
'Landesa'
'Cross'
'verge'
'Tam'
'Münchens_'
'Mozart_'
'Gärtner_'
'Carolin_'
'Äm'
'tolles_'
'tests_'
'flogen_'
'erfuhren_'
'ear'
'Störungen_'
'geflüchtet_'
'erna'
'beherrscht_'
'Web_'
'Mobile_'
'Krie'
'Comm'
'jährig_'
'besseres_'
'behe'
'angehört_'
'Wend'
'Till'
'Rid'
'Parcours_'
'vu_'
'vereinigung_'
'nzer'
'kro'
'abwe'
'Tv'
'Ries'
'Reparatur_'
'BW'
'rup_'
'natürlichen_'
'langweilig_'
'Handelsk'
'Getränken_'
'tag'
'prom'
'netz'
'lieg'
'aln'
'Them'
'Lecker'
'Head'
'Geb'
'salz'
'ora_'
'Treff_'
'Hop'
'uge'
'ku_'
'Winters'
'Trainern_'
'Räte_'
'Rol'
'Lebensqualität_'
'Ham'
'verei'
'Koalitionspartner_'
'Kanzleramt_'
'Intendant_'
'Comic_'
'Balance_'
'Öte'
'Versuchs'
'Senden_'
'Neuro'
'Nag'
'Münz'
'Beschlüsse_'
'sba'
'lächen_'
'ihen_'
'Schlagzeug_'
'Richter'
'Mathe'
'Ic'
'Eink'
'Blüten_'
'270_'
'äle_'
'veränder'
'ultra'
'stießen_'
'jte'
'entlastet_'
'call'
'Landesamt_'
'Herd_'
'Burn'
'äng'
'sammelte_'
'dungen_'
'Sieder_'
'Sid'
'Schier'
'Dit'
'Detail'
'niedersächsischen_'
'nee_'
'kau'
'eran'
'anzu'
'Ill'
'äs'
'unterscheidet_'
'offenes_'
'inhalt'
'ifo_'
'Maul_'
'Kaserne_'
'Fell'
'Barock'
'zählten_'
'vermeintliche_'
'unab'
'peri'
'nachweisen_'
'erklär'
'Qer'
'Entwickler_'
'ufr'
'sierte_'
'krachte_'
'befr'
'Wilders_'
'Jm'
'Hain'
'zweifel'
'setz'
'dep'
'Präsidentschaft_'
'Produ'
'Jobcenter_'
'GB'
'Absprache_'
'vermieden_'
'omm'
'kov'
'Wad'
'Veran'
'Ene'
'Eina'
'Bezirks_'
'Bausch'
' + + + _'
'regierungs'
'hüte'
'fehl'
'bine'
'Weiterentwicklung_'
'precherin_'
'non'
'chw'
'begin'
'Trab'
'Schmerz'
'König'
'Götze_'
'Fix'
'Bum'
'BC_'
'Ausbruch_'
'Wurf_'
'Terr'
'Erfüllung_'
'Drehbuch_'
'Dock_'
'vorderen_'
'rasant_'
'Ty'
'Jahn'
'Helfer'
'Expertin_'
'Belohnung_'
'Aqua'
'vorr'
'vem'
'stadion_'
'rbi'
'inger'
'gste'
'griechische_'
'gere'
'ars'
'Kinders'
'HIV_'
'tez'
'sicherung_'
'napp'
'mut_'
'bekanntesten_'
'Zan'
'Heer'
'Glühwein_'
'wandte_'
'urse_'
'jahres'
'digital_'
'Renne'
'Lut'
'Demo'
'DH'
'1971_'
'tzu'
'oin_'
'künstlerischen_'
'kommunale_'
'geu'
'ansprechen_'
'allmählich_'
'Win_'
'UB'
'Libanon_'
'szu'
'mischt_'
'kc'
'entfernten_'
'eigne'
'aren'
'Voe_'
'Patriot'
'Oer_'
'Gel_'
'Bergmann_'
'@ _'
'yp'
'symbol'
'praxis_'
'parken_'
'ministerin_'
'abschluss_'
'Siegel_'
'Schub'
'Ismaik_'
'Defizit_'
'verbundenen_'
'regelmäßige_'
'gener_'
'erobert_'
'Leonberg_'
'Jubiläums_'
' . ._'
'änger'
'wehrte_'
'wegzu'
'ming_'
'kau_'
'fühl'
'eben'
'aN'
'Zeitalter_'
'Scholl_'
'Schoko'
'Breitband'
'verlangte_'
'ega'
'durchzusetzen_'
'Sternen'
'Oliv'
'Christ_'
'toff_'
'roter_'
'hte'
'hst_'
'geö'
'gescheiterten_'
'frauen_'
'final'
'brenn'
'art834'
'Unfallort_'
'Tuch'
'Spielm'
'Jag'
'ök'
'zeugt_'
'ous'
'kreativ_'
'kannt_'
'beg'
'Fremde_'
'Davor_'
'Arbeitszeit_'
'nne'
'börse_'
'ausgewiesen_'
'Spitzenkandidatin_'
'Mitmach'
'Heimatland_'
'oke'
'Nep'
'Baumaßnahmen_'
'tens'
'sächsischen_'
'swei'
'stürzen_'
'pper_'
'nf'
'asser'
'Substanz_'
'Sicher'
'Schützlinge_'
'Nordwest'
'Mm'
'Ier'
'üs'
'vrs'
'unc'
'modelle_'
'mitbe'
'gehoben_'
'gedrängt_'
'Out'
'Mauer'
'Konsens_'
'Engel'
'Detlef_'
'willig_'
'nehmer_'
'indischen_'
'cal_'
'Xt_'
'Komm'
'Geiger_'
'xei'
'tdif'
'nea'
'abges'
'Stoffe_'
'Starter_'
'ährt_'
'zuz'
'stand'
'schlechtes_'
'schlaf'
'pus'
'eig_'
'billiger_'
'attraktive_'
'aat_'
'PSA_'
'üssel'
'offe_'
'mfs'
'mfo_'
'eie'
'utsche_'
'unters'
'riesen_'
'kleidung_'
'danken_'
'Instanz_'
'Bah'
'problematisch_'
'eke'
'Stellenwert_'
'Sed'
'Rap'
'Osta'
'Nas'
'ê'
'ros_'
'mle'
'linik_'
'fru'
'Neuerungen_'
'Bens'
'usses_'
'sex'
'ari'
'Zur'
'Perle'
'Leng'
'Öt_'
'vorläufigen_'
'ova'
'lasen_'
'kündigen_'
'dera'
'ampf'
'Walds'
'Staatsa'
'Send'
'Inge_'
'Auftreten_'
' . ) '
'sieren_'
'geübt_'
'beurteilen_'
'Yin'
'Hasen'
'Alfons_'
'104_'
'üllen_'
'macher'
'kma'
'ikan'
'eber'
'Untersch'
'Tanzs'
'Droh'
'gesteigert_'
'[_'
'Stuttgarts_'
'Prei'
'Fue'
'zut'
'urch'
'rän'
'weißer_'
'vio'
'lieb'
'kräftigen_'
'kostenlosen_'
'ideale_'
'fähr'
'Kuhn_'
'ux'
'unweit_'
'fju'
'bedrohte_'
'aul'
'Hundert'
'Bergedorf_'
'bequem_'
'behörden_'
'Ws_'
'Werne_'
'Parkett_'
'Niederla'
'Fra_'
'nni'
'lst'
'einbezogen_'
'betriebe_'
'berl'
'auto_'
'Teh'
'Sulz_'
'Ausnahmezustand_'
'Aufsichtsrats'
'versch'
'eä'
'ausschließen_'
'Verkehrsminister_'
'Ordnungsamt_'
'Lichter_'
'Hei'
'Eigenschaften_'
'Boys_'
'Berater'
'uti'
'ersatz'
'Verspätung_'
'Historie_'
'EuGH_'
'ẞer'
'ssion_'
'dT'
'Jd'
'Hospiz'
'Gegners_'
'Eta'
'trennt_'
'Spur'
'Rechnungs'
'rla'
'js_'
'heiraten_'
'dte'
'Salman_'
'Grass'
'FB'
'Belastungen_'
'Base'
'Übera'
'verbrachte_'
'pat'
'klu'
'Typen_'
'Sozi'
'IO'
'Felder_'
'Alb'
'Aktuelle_'
'verweisen_'
'ugs_'
'ppa'
'erwei'
'ON_'
'Neukölln_'
'Ker_'
'Colo'
'wirr_'
'teh'
'protestieren_'
'personelle_'
'mier'
'cfs_'
'bede'
'Vorgänger'
'Sportm'
'Kleider_'
'Kbis_'
'Haufen_'
'Gea'
'Bül'
'ßin'
'mär'
'hts'
'flicht_'
'eßen_'
'chl'
'You'
'Wte'
'Verlags'
'Schma'
'Bußgeld_'
' ) ( _'
'zah'
'rieben_'
'erfordert_'
'ellschaft_'
'Steiermark_'
'Rose'
'Qin'
'LT'
'Kämpfen_'
'Auftr'
'Anreise_'
'ärzte_'
'verträge_'
'nem'
'gan'
'abschließen_'
'Spitz'
'Mont_'
'Enden_'
'Eben'
'reinge'
'rde'
'ommer_'
'art1'
'Neubau'
'Charlie_'
'vielem_'
'Schönheits'
'Oberf'
'Denkmalschutz_'
'Anzug_'
'! '
'stad'
'dle_'
'dieselbe_'
'Schwäche_'
'Mul'
'öste'
'geen_'
'etter_'
'dere_'
'bände_'
'anne_'
'Zin'
'Röhr'
'Islamischen_'
'Dte'
'würdig_'
'tdipo_'
'inrichtungen_'
'env'
'egi'
'brunnen_'
'Mittwoch'
'Gesellschafter_'
'Eckardt_'
'xv'
'star'
'ermann_'
'ede'
'Song'
'Kit'
'ruhiger_'
'chtig_'
'befördert_'
'auslösen_'
'Rama'
'Guardiola_'
'Cfs'
'tau_'
'roll_'
'mts'
'led'
'Vs_'
'Tut'
'Straßenverkehrs'
'Rd'
'Lotto_'
'Hamas_'
'vielfältige_'
'binden_'
'Dunst_'
'Ät_'
'rK'
'blei'
'Tigers_'
'Fass'
'Alonso_'
'ungsst'
'reiheit_'
'gewordene_'
'dner_'
'beseitigen_'
'Volkshochschule_'
'Jordan_'
'Coa'
'Brown_'
'Bakterien_'
'äp'
'Überb'
'kunden_'
'fäll'
'Parteien'
'Fürs_'
'Erla'
'Äer'
'unzufrieden_'
'ufjm'
'farben_'
'extreme_'
'eingreifen_'
'Weih'
'Schreiber_'
'Normalerweise_'
'Lissabon_'
'Fink_'
'Ämter_'
'yc'
'stolze_'
'stin_'
'gfs'
'fühl_'
'Sicherheitsp'
'Hölle_'
'teln_'
'ständ'
'lum'
'bier'
'ao_'
'Steuerreform_'
'Shopping_'
'Schad'
'Paar'
'Grundgesetz_'
'Gläubigen_'
'Gelds'
'Einkaufszentrum_'
'uä'
'ula_'
'ros'
'rent'
'nh_'
'entfallen_'
'egion_'
'Tonne_'
'Kas'
'Gustav_'
'Cockpit_'
'Berufe_'
'vh_'
'verankert_'
'stuf'
'sk_'
'seh_'
'Unwetter'
'Jak'
'Dienstleistungs'
'DM_'
'Brandstiftung_'
'sverfahren_'
'mpf_'
'modern_'
'gewöhnt_'
'Wohlstand_'
'Haaren_'
'Disziplinen_'
'Abpfiff_'
'vorzubereiten_'
'nor'
'enb'
'ZA'
'Lippen_'
'Konz'
'Hege'
'which_'
'junges_'
'ierter_'
'angriff_'
'Warendorf_'
'Nächte_'
'Gitarren'
'AUT_'
'ýo'
'wache_'
'trend_'
'rten'
'großartig_'
'gedrückt_'
'empört_'
'Umweltschutz_'
'Schlägerei_'
'Berlinale_'
'überb'
'äuf'
'verschwindet_'
'tauchte_'
'rH'
'oph'
'ehrt_'
'dw'
'Uj'
'Roller_'
'Himmel'
'Grunds'
'Gemeinderats'
'aei'
'Modellen_'
'ML'
'KR'
'Großstadt_'
'Dagmar_'
'spät'
'sir'
'professionelle_'
'ovo_'
'lnw_'
'gebli'
'Verspätungen_'
'Tabak'
'Samt_'
'Privats'
'Landtagsabgeordnete_'
'Äf'
'widerspr'
'stern_'
'sorg'
'rim'
'höf'
'Vogels'
'Tunesien_'
'Krö'
'Denis_'
'tste'
'klei'
'iR'
'herange'
'Imker'
'IB'
'Freist'
'Einigkeit_'
'Bol'
'unabhängigen_'
'ols'
'nens'
'fests'
'davon'
'Wiss'
'Fehler'
'seu'
'ato'
'Landgerichts_'
'Kall'
'platt'
'nki'
'aufgetreten_'
'Qsp'
'Gedächtnis_'
'Dari'
'Böhm_'
'Auslosung_'
'lhe'
'jpo_'
'bun'
'Knau'
'Jud'
'Hirscher_'
'Ax'
'Aktive_'
'/ '
'uJ'
'sgr'
'lef'
'feinen_'
'Wirken_'
'Vernetzung_'
'Rundfunk'
'Komponist_'
'Kenia_'
'Gmünder_'
'Bessere'
'tna'
'sste'
'maß_'
'iht_'
'drastisch_'
'Routine_'
'IL'
'DF'
'zst'
'Starter'
'Schwen'
'LG'
'Harmonie_'
'Blind'
'ilo'
'hon_'
'gucken_'
'geschuldet_'
'Zügen_'
'Ung'
'Konzerts_'
'Erziehung_'
'Entweder_'
'Elt'
'Abwechslung_'
'zugesch'
'dass'
'container_'
'chli'
'abgehalten_'
'Ruth_'
'Existenz'
'äll'
'ssl'
'spro'
'ndel_'
'betr'
'Weltk'
'Streik_'
'Pen'
'Nbo'
'Königs'
'tret'
'räum'
'hunderte_'
'gss'
'bemüh'
'beliebtesten_'
'Rf'
'Lott'
'Dschungel'
'Bend'
'vorletzten_'
'rab'
'großartige_'
'fjt'
'Ribéry_'
'Listen_'
'Landwirtschafts'
'Dz'
'Blätter_'
'Äs'
'yb'
'xjfefs_'
'tine'
'sE'
'ndr'
'beten_'
'bereitete_'
'Tölzer_'
'Gag'
'Einheits'
'Cj'
'äste_'
'rus'
'gni'
'bsch'
'beauftragten_'
'Seen_'
'Security_'
'ständigen_'
'selbstbewusst_'
'olf'
'ita'
'ep_'
'einfl'
'Yt_'
'ervice_'
'Zunahme_'
'Südamerika_'
'Schriftführerin_'
'Hessen'
'Gv'
'Celle_'
'woher_'
'verschafft_'
'rem'
'auftr'
'Rch'
'Honorar'
'Goldenen_'
'Abenteuer'
'mbi'
'jeweilige_'
'ipp'
'egs'
'dunkel'
'def'
'Sylvia_'
'SE_'
'Nahrungs'
'Hilf'
'Hari'
'Feind_'
'1800_'
'mst'
'ldi'
'dam'
'boersen_'
'aha'
'Rud'
'Elli'
'Binnen'
'wed'
'lokal_'
'aft'
'Thr'
'Pog'
'Of_'
'ura_'
'sL'
'richter'
'prache_'
'lige_'
'gesundheitlichen_'
'Vereinsa'
'Lage'
'Einf'
'heimlich_'
'eleg'
'ausger'
'absehbar_'
'Todesopfer_'
'Time_'
'Konsumenten_'
'Einwohner'
'CF'
'ibcf_'
'festlegen_'
'emi'
'Wings_'
'Piraten_'
'Landesstraße_'
'Airport_'
'02'
'usi'
'rans'
'fö'
'esn_'
'Sanitär'
'Pai'
'Krippe_'
'zurückgreifen_'
'schicht_'
'pokal_'
'jde'
'blu'
'asa'
'Steinbach_'
'ühr'
'spekt'
'nungen_'
'cle'
'angeschlagen_'
'Weiteres_'
'Liege'
'Arthur_'
'Münsterland_'
'Dep'
'Biker_'
'Öer'
'mun'
'Schadens'
'Ortes_'
'Lou'
'KU'
'Fehlern_'
'qq'
'ower_'
'npo'
'kin'
'fsl'
'frie'
'wellen_'
'niedrige_'
'national'
'ehemals_'
'Vora'
'Schwangerschaft_'
'Schme'
'oht'
'meter'
'gerei'
'boot_'
'WG_'
'Finale'
'Einzig_'
') ._'
'wur'
'tufo_'
'rnd_'
'past'
'ima'
'Schwab'
'Konze'
'Jos'
'Fid'
'zwe'
'llo'
'Weiterbildung_'
'Rath'
'Fam'
'oW'
'ej_'
'belgischen_'
'aue_'
'Mde'
'Alba'
'well_'
'pflegt_'
'köpfigen_'
'ket'
'dI'
'aufg'
'Pereira_'
'Nun'
'Dokument_'
'robleme_'
'iN'
'cie'
'acken_'
'White_'
'Verstoß_'
'Magnet'
'Herzens'
'Beute'
'Anleihen_'
'ignoriert_'
'beinhaltet_'
'Senats'
'Selb'
'SR'
'Kuh_'
'Kinderl'
'Hitze'
'Gesetzgeber_'
'Erstes_'
'Akzente_'
'zü'
'beschl'
'apelle_'
'Tu_'
'Proben'
'Exe'
'mög'
'geschr'
'flüchten_'
'fj_'
'dingungen_'
'bbel'
'Volkst'
'Pau'
'Live'
'KT'
'wag_'
'ters'
'nus_'
'behauptete_'
'Mobil_'
'Jugendp'
'Denk_'
'neig'
'Sporta'
'Koalitionsverhandlungen_'
'Grundschul'
'Üt_'
'trieben_'
'lie'
'Hesse_'
'Aga'
'pie_'
'ice_'
'Vorrunden'
'Rads'
'Puls_'
'Bauhof'
'Ars'
'nw'
'abgeschafft_'
'Kill'
'vereinen_'
'veh'
'Vir'
'Sachsen'
'Oss'
'Hoc'
'verbreitete_'
'teilnehmenden_'
'einigermaßen_'
'amerikanischer_'
'Tätigkeiten_'
'Nabu_'
'Landeshauptmann_'
'Hv'
'Bundeska'
'Bronze'
'warn'
'spezialisiert_'
'VS_'
'Sensation_'
'Gog'
'wpn_'
'unk_'
'pö'
'lal'
'angetr'
'Tierschutz'
'Fotografie_'
'nahm'
'ics_'
'aar_'
'Monta'
'Langen_'
'Kurze'
'HEIM_'
'wesentliche_'
'unde'
'ugend'
'pelt_'
'nstein_'
'fühlten_'
'eink'
'Sonn'
'Sit'
'Leader_'
'Kontinent_'
'Honda_'
'Diabetes_'
'Asch'
'erbr'
'Mia_'
'Jesu_'
'Hype_'
'Houston_'
'Gehör'
'Flur_'
'ungewiss_'
'index_'
'bezog_'
'Th_'
'Spielfeld_'
'Gruppenphase_'
'Ec'
'wöchentlich_'
'verstoßen_'
'nN'
'historischer_'
'Sportverein_'
'Sound'
'Mug'
'Morden_'
'Juristen_'
'Finder_'
'öd'
'twitterte_'
'tehen_'
'größerer_'
'gede'
'erein_'
'dah'
'bec'
'Mee'
'Krankenhauses_'
'IP'
'Fahndungs'
'Bast'
'Anfa'
'åu_'
'Äch'
'vogel_'
'schenken_'
'schaffe_'
'entge'
'doppel'
'disc'
'boe'
'anste'
'Eber'
'verbrauch_'
'rgr'
'leuchten_'
'brief_'
'ausgeschieden_'
'amkeit_'
'Vort'
'Siel'
'Setz'
'Ass'
'nächst'
'lma'
'grö'
'gesell'
'find'
'cehn_'
'Zusammenspiel_'
'Spielertrainer_'
'Gene'
'Chap'
'Ahl'
'unse'
'sses_'
'sischen_'
'bew'
'auszuschließen_'
'Geä'
'Geschmacks'
'Erfahrungs'
'á_'
'ror'
'beso'
'after_'
'Mori'
'Kater_'
'Judith_'
'Gene_'
'( '
'überraschenden_'
'wf'
'they_'
'strä'
'mse'
'hallen_'
'ckel_'
'Reiz_'
'Lte'
'Lehm'
'Fol'
'Ente_'
'Endrunde_'
'Bauernhof_'
'Ame'
'sD'
'ritten_'
'isk'
'inf'
'glei'
'gek'
'dse'
'Warschau_'
'Staub'
'Staatsbürger_'
'Schaum'
'Neb'
'gesteuert_'
'erfa'
'Sara'
'zwischendurch_'
'tage'
'durchschnittliche_'
'Unterstützt_'
'Tauch'
'Selfie_'
'Roi'
'Patt'
'Melle_'
'Flair_'
'-+_'
'uso'
'setzung_'
'entschuldigt_'
'bd'
'aushalt_'
'Skoda_'
'Ori'
'Heit'
'Bergstraße_'
'uber'
'sann_'
'reif'
'ohl'
'gewürdigt_'
'fehler'
'brand'
'big_'
'alts'
'aA'
'Stirn_'
'Partenkirchen_'
'Ortsb'
'Kontext_'
'Immen'
'Belegschaft_'
'uts'
'union_'
'unent'
'uhe_'
'rsche'
'mutmaßlich_'
'Streife_'
'Schür'
'Qt_'
'GW'
'Auszubildende_'
'post_'
'mate'
'lautstark_'
'ifen_'
'Sachs'
'Lichtenfels_'
'Heidenheim_'
'1966_'
'wur_'
'pap'
'geltenden_'
'elde'
'Milan_'
'Ede'
'seln_'
'ohr'
'ned'
'lebensgefährlich_'
'fisch_'
'erforderlichen_'
'Rektor_'
'lat_'
'iers'
'Rent'
'zurückhaltend_'
'wilde_'
'lchen_'
'kinder'
'Tötung_'
'Hara'
'Bam'
'ume_'
'rsi'
'lnd_'
'gebu'
'appellierte_'
'Oberndorf_'
'MDR_'
'Lüt'
'Erschließung_'
'Empfänger_'
'tla'
'tet'
'nackt_'
'meisterin_'
'infolge_'
'flüchteten_'
'MD'
'Entscheidend_'
'Dubai_'
'Abgeordneter_'
'ämpfen_'
'zm'
'trop'
'ragt_'
'personell_'
'entscheidung_'
'Unklar_'
'Rahmenprogramm_'
'OL'
'Norm'
'Mite'
'Gew'
'Cab'
'Apropos_'
'info'
'hua'
'enl'
'dent_'
'anch_'
'Sparkassen'
'Schulp'
'Miller_'
'Langstrecken'
'Grat'
'Erholung_'
'sand'
'dib'
'Tein'
'Schult'
'Sat_'
'Arbeitst'
'kto'
'günstige_'
'cup_'
'bet_'
'Zeita'
'Worts'
'Länd'
'Fy'
'Event'
'Bas'
'lekt'
'erkunden_'
'Spiels'
'Ermittlern_'
'Ausführungen_'
'verstorben_'
'bisweilen_'
'abgeb'
'Weser_'
'Quartals'
'Maik_'
'Hansestadt_'
'Brenner_'
'unterstützten_'
'nien_'
'kein'
'gangenen_'
'appe'
'altem_'
'Vorzeige'
'Polizeipräsidium_'
'Parken_'
'Kuchen'
'Interpretation_'
'Fassung_'
'ält'
'ping_'
'had_'
'berechnet_'
'ausgemacht_'
'anstaltung_'
'Teller_'
'Spree_'
'imt'
'Wirt'
'Vierter_'
'Trainerin_'
'Seniorin_'
'Landesbe'
'Katalanen_'
'Innovation_'
'Flohmarkt_'
'auten_'
'Gouverneur_'
'Europameisterschaft_'
'. - _'
'verwandeln_'
'verbi'
'meldung_'
'meisterschaft_'
'Letztere_'
'Kulturf'
'Führ'
'Freiburger_'
'Akzeptanz_'
'smo'
'omen_'
'erhebt_'
'eDr_'
'Stadtteil'
'Rendite_'
'Präsidentschaftswahl_'
'Jani'
'Inn_'
'Einzige_'
'Anschl'
'1947_'
'zingen_'
'xp'
'wohne_'
'tiker_'
'kg'
'hänge_'
'Viertelstunde_'
'Unis_'
'Heppenheim_'
'Dialog'
'AW'
'äne'
'versammelten_'
'ration_'
'mz'
'harter_'
'eskaliert_'
'ella_'
'Nazi'
'Bürgermeistern_'
'Blitz'
'BGH_'
'Abschl'
'una'
'rek'
'bogen_'
'arkt'
'Veröffentlicht_'
'Seime_'
'Schwerpunkt'
'Melbourne_'
'Löcher_'
'Abteilungen_'
'wte'
'vergleichbar_'
'schließ'
'riert_'
'extremen_'
'einsteigen_'
'einfallen_'
'chst'
'Wette_'
'Vg'
'Flä'
'Arbe'
'unre'
'chö'
'Steuerp'
'Münchener_'
'Let_'
'Assistenz'
'üng'
'viert_'
'unn_'
'qer'
'oy_'
'ordnungs'
'Wut'
'TU'
'Strä'
'Nominierung_'
'Angeblich_'
'ono'
'njo'
'Vulkan'
'Ut_'
'Tank'
'Nen'
'Kabarett_'
'öh'
'zwie'
'yse'
'Zurzeit_'
'State_'
'Pfr'
'enwe'
'cal'
'Weich'
'Peit'
'Myanmar_'
'Leipzigs_'
'Fer_'
'Aufschrift_'
'ßg'
'ungswe'
'Watzke_'
'Schnupper'
'teilnehmer_'
'tadt'
'rechtsextremen_'
'ngebote_'
'lernten_'
'iar'
'behinderte_'
'Zt_'
'Putschversuch_'
'Marokko_'
'Extrem'
'EA'
'Diakonie_'
'Altstadt'
'samstags_'
'lock'
'Nad'
'Lieber_'
'Krä'
'zerstören_'
'tedt_'
'sW'
'oH'
'ckten_'
'bedauert_'
'Umkleide'
'Bergst'
'Bauvorhaben_'
'Antrags'
'1962_'
'sicherheits'
'benötigten_'
'Wai'
'Sack_'
'Rallye_'
'Platzes_'
'Großmutter_'
'Anstrengungen_'
'zins'
'rpr'
'pm_'
'Nd'
'Fürst_'
'Dum'
'Chem'
'zil'
'mfs_'
'kern'
'igkeits'
'eJ'
'anager_'
'Vig'
'Summer_'
'Platt'
'Ortsgruppe_'
'Bildungsa'
'Angabe_'
'  ,'
'wirtschafts'
'vot'
'rüst'
'orf'
'leh'
'eat'
'ari_'
'Unternehm'
'Seeb'
'Nom'
'Netzwerk'
'Holzh'
'Hart_'
'Cons'
'opo'
'metern_'
'hinweg'
'chb'
'betriebs'
'U19_'
'Staatsbürgerschaft_'
'Imm'
'Entdeckung_'
'Befreiung_'
'xen'
'uS'
'sll'
'komm'
'bewegte_'
'bch'
'Verfahrens'
'Gig'
'Egger'
'Beb'
'Sucht_'
'Hollande_'
'Aufgerufen_'
'ausgeführt_'
'Radi'
'Ete'
'Are'
'AI_'
'Überleben_'
'schwan'
'Nachrichten'
'Nachbarland_'
'Andres_'
'oge_'
'langjähriger_'
'bindung_'
'Marina_'
'Hochst'
'Aviv_'
'sonder'
'RT_'
'Jte'
'Forster_'
'nell_'
'Tusk_'
'Dere'
': '
'sperren_'
'Stiftungs'
'Ht_'
'Hintergrund'
'Emp'
'Country_'
'CT'
'termin'
'rmo'
'hrer'
'Wichtigste_'
'Voi'
'Spei'
'Polizeieinsatz_'
'Anbindung_'
'strahlt_'
'indirekt_'
'inder'
'bekanntgegeben_'
'Vorabend_'
'Trailer_'
'Rein_'
'Obers'
'Nab'
'DV'
'Agr'
'wfst'
'gipfel_'
'Kolumbien_'
'Friseur'
'Dichter_'
'tak'
'oefo_'
'klagte_'
'jegliche_'
'inste'
'bul'
'bhf'
'angekündigten_'
'anen_'
'anbieter_'
'Steu'
'Nenn'
'Gs_'
'überraschte_'
'entfernte_'
'Shan'
'Offen_'
'Nes'
'Beobachtungen_'
'Ausw'
'schwedische_'
'mid'
'hineinge'
'fertigen_'
'entschl'
'deg'
'bens'
'Zweimal_'
'Xen'
'Trip'
'Genre_'
'Flüchtlings_'
'Extremisten_'
'Bch'
'ville_'
'geschoben_'
'ergänzen_'
'Nette'
'Kum'
'Kata'
'Filial'
'offenbart_'
'kandidat_'
'foh'
'Zei_'
'Weib_'
'Sozial_'
'Schrift_'
'Pferdes'
'straf'
'Verlo'
'Trupp_'
'Stadtb'
'Einsch'
'1963_'
'gold'
'cin'
'Stetten_'
'Lien'
'Jt_'
'Hochhaus_'
'ved'
'umzugehen_'
'sm_'
'schnelles_'
'ritt'
'Prie'
'Grundstein_'
'Aufsicht_'
'überla'
'tba'
'stehend_'
'raf'
'mfj'
'jei'
'Haid'
'Fair_'
'Brit'
'ump'
'stle'
'renz'
'gestaltung_'
'drehten_'
'auge'
'Kars'
'Bt_'
'pfer'
'oT'
'breit'
'Sortiment_'
'Reli'
'Kleinstadt_'
'Jon'
'nee'
'hC'
'exe'
'Witte'
'Rit'
'Off'
'1917_'
'ugn'
'längerem_'
'latt_'
'körperlichen_'
'etzten_'
'bein_'
'Richtlinien_'
'Rekords'
'Kt_'
'Handl'
'Feucht'
'vro'
'sogenannter_'
'Vorlese'
'Schulb'
'Rte'
'Köl'
'Kartoffeln_'
'Hoch'
'Beliebtheit_'
'ral_'
'cfm'
'brennen_'
'Nch'
'Matthäus_'
'Kataloniens_'
'Hunderttausende_'
'Gehe'
'Ces'
'Austausch'
'vorf'
'ppel'
'fried'
'ensta'
'Wünschen_'
'Persönlichkeiten_'
'Blitze'
'Bewerbungen_'
'Asphalt_'
'ögen_'
'tik'
'odell_'
'iebe_'
'Xavier_'
'Minderheitsregierung_'
'wiederge'
'stem'
'pal'
'onne_'
'icher'
'gerade'
'dM'
'Zeigen_'
'Haust'
'Gte'
'Gewahrsam_'
'Akt'
'320_'
'Überh'
'Waiblingen_'
'TG'
'TA_'
'Siege'
'Georgi'
'Dienstleister_'
'wj'
'version_'
'orm'
'181'
'Äte'
'zusammenf'
'zial'
'wesentlichen_'
'europa'
'erne_'
'Urkunden_'
'Nordsee_'
'Dani'
'sparte_'
'same_'
'nur'
'künd'
'itr'
'Peru_'
'Nordirland_'
'Kühe_'
'Junior_'
'Forchheim_'
'Fahrern_'
'welch_'
'verschlu'
'tera'
'rauf_'
'alarm_'
'Wb'
'Quali_'
'Lenk'
'zersch'
'vorstell'
'schützt_'
'nale_'
'behindert_'
'aufrecht_'
'RAF_'
'Pon'
'Neugestaltung_'
'Mig'
'Jei'
'Geisel_'
'Eies_'
'Akteuren_'
'wärt'
'vö'
'teilzunehmen_'
'ruf'
'nett_'
'Toiletten'
'Sternen_'
'Offiziell_'
'Großeinsatz_'
'üse'
'wütend_'
'vornehmen_'
'ltern_'
'erstens_'
'Wolken'
'Silvesternacht_'
'Obamacare_'
'NG'
'Jugendb'
'Gesamtk'
'Bundess'
'überg'
'wechsel'
'tunnel_'
'hos'
'auft_'
'Revue_'
'Policen_'
'Letzteres_'
'Haltestellen_'
'sem_'
'lver'
'beschädigte_'
'Schuss'
'Kupfer'
'soi'
'pur'
'jd'
'dritte'
'ching_'
'Spreng'
'Partys_'
'Haken_'
'Fon'
'Betrachter_'
'Arb'
'Ann_'
'verse'
'uuf'
'sanierung_'
'kta'
'ita_'
'hervorgeht_'
'dter_'
'Zugangs'
'Musikf'
'Meine'
'Holding_'
'Grande_'
'Aigner_'
'obi'
'letztere'
'geeignete_'
'etl'
'Technische_'
'Person'
'Celsius_'
'siene'
'gion_'
'Ruder_'
'Mou'
'weden_'
'ime'
'Redner_'
'FUSSBALL_'
'Eich_'
'Aufholjagd_'
'185'
'zahl'
'prech'
'ish'
'Abendessen_'
'ón_'
'iMt'
'hur'
'furter_'
'fil'
'eiß'
'dreh_'
'Strobl_'
'Sean_'
'Polier_'
'Pg'
'Panne_'
'öch'
'yte'
'tle_'
'fan_'
'Lack'
'Ist'
'Eigen_'
'Bohne_'
'Abi'
'verhandlungen_'
'ungeb'
'ring'
'pion'
'münd'
'bete'
'Sande'
'Reha_'
'Loo'
'Hassel'
'Geschlechter'
'Elster_'
'Bundesf'
'wurst_'
'nJ'
'größeres_'
'dsas_'
'Schatz'
'Luise_'
'Klü'
'ziehe_'
'rats_'
'mente_'
'ldung_'
'juf'
'ares_'
'Vergnügen_'
'Talk_'
'Sterns'
'Siegtreffer_'
'Ofv'
'Effekte_'
'DR_'
'Bundesa'
'Arbeitsa'
'schaute_'
'Verbindungs'
'Profil'
'Infra'
'Benziner_'
'Ausstoß_'
'1400_'
'heime'
'egr'
'chtlich_'
'Essens'
'werde'
'rauch_'
'nage'
'beruhigen_'
'Xte'
'DA_'
'1300_'
' : , _'
'äsche'
'privater_'
'postete_'
'fne'
'aner'
'Wilhelms'
'Raff'
'Fia'
'öße_'
'zugelegt_'
'trot'
'steuerte_'
'sener_'
'fröhlich_'
'ergie'
'enwa'
'dynamische'
'Prävention_'
'Krü'
'Kad'
'Bandbreite_'
'AP'
'. ) , _'
'ünn'
'pch'
'dil'
'Laus'
'Krimi'
'Gens'
'Bomben_'
'Kitz'
'Gemeindever'
'Erhebung_'
'Cover_'
'wg'
'path'
'fte'
'anha'
'UE'
'Blei'
'rollte_'
'gewaltigen_'
'Dac'
'Boo'
'parks_'
'leuchte'
'Zau'
'Weltrangliste_'
'Uv'
'Schwester'
'Michal'
'Gt_'
'Fahrplan_'
'Bai'
'Aachener_'
'rder'
'beeindruckend_'
'auk'
'Term_'
'Recht'
'Lieben_'
'GPS_'
'Extra'
'Boch'
'herzustellen_'
'entle'
'Vte'
'Landr'
'wp'
'ux_'
'tät'
'lli'
'einb'
'Verun'
'Plat'
'Pep_'
'Landrats'
'zeug'
'sum'
'rmin'
'Interessierten_'
'Heilig'
'Erlaubnis_'
'zusetzen_'
'zmann_'
'mits'
'melde'
'geeigneten_'
'Wess'
'Lup'
'Come'
'Bz'
'pte_'
'leich'
'gesundheits'
'fotografiert_'
'ecker_'
'act'
'Wurst'
'Verm'
'Total'
'Schiller_'
'Ley'
'Koma_'
'Erstens_'
'EE'
'Brandschutz_'
'Berei'
'210'
'1960_'
'stützen_'
'sels'
'rut'
'erobern_'
'eren'
'assen'
'Solisten_'
'Hammer'
'Fjo_'
'Crash_'
'Bac'
' " ( " _'
'tv'
'rsta'
'flie'
'betrunken_'
'Weltraum'
'Weid'
'Tags_'
'Ser_'
'Ehen_'
'Dus'
'zahlung_'
'steh'
'rag_'
'kus_'
'Zucht'
'Straßburg_'
'Obamas_'
'Bay_'
'Asu'
'06'
'onst'
'Fac'
'Bergung_'
'tut'
'schme'
'iq'
'gesche'
'empfinden_'
'Wirk'
'Schöne'
'Preiss'
'Nt_'
'Jaguar_'
'Erben_'
'Basketball'
'rter'
'lale'
'kunst'
'anschließen_'
'Ro_'
'Machthaber_'
'Kien'
'dma'
'bewe'
'Landsmann_'
'Kalender'
'Av'
'ketten_'
'hilfen_'
'abzugeben_'
'Tragödie_'
'Sonnt'
'SH_'
'Bulle'
'gescha'
'erneuern_'
'erba'
'aufzus'
'Ums'
'Regisseurin_'
'Nigeria_'
'Kompromiss'
'Franc'
'Empfehlungen_'
'äften_'
'vog'
'selbstge'
'prach'
'nan_'
'markiert_'
'langfristige_'
'kühlen_'
'hts_'
'eten'
'Xj'
'Wt_'
'Stadtr'
'Personals'
'Arl'
'russischer_'
'pan'
'nimmer_'
'nda'
'landesweit_'
'hw'
'Ps_'
'Eve'
'unw'
'unternehmer_'
'pass'
'handge'
'eet'
'chni'
'alarmierte_'
'Weltweit_'
'VB'
'Dachs'
'wind'
'uat'
'sichtig'
'pfiff_'
'mg_'
'kart'
'igne'
'ider'
'aust'
'asche_'
'Mats_'
'Bilanz'
'Ballon'
'schweigen_'
'qd'
'hoe'
'gd_'
'Trumpf_'
'Tria'
'Schwarzw'
'Nachteile_'
'Koe'
'Bring'
'Adv'
'zv'
'weitem_'
'tschen_'
'straßen_'
'nisses_'
'meile_'
'keh'
'jar'
'Zeichnungen_'
'Stress'
'Münch'
'Munition_'
'Kumpel_'
'Iren_'
'streik'
'explizit_'
'Mim'
'Einzelnen_'
'verringern_'
'sanieren_'
'ordern_'
'olitiker_'
'Schläge_'
'Pus'
'Partnerin_'
'Maximal'
'Hinter'
'GI'
'Ehrgeiz_'
'zurückgeh'
'schwei'
'geltend_'
'Vorbei'
'Umbruch_'
'Sauer_'
'Luk'
'Kors'
')  _'
'zukunfts'
'sschuss_'
'elr'
'STA'
'Ross_'
'Kurt'
'Kroos_'
'älterer_'
'verhe'
'ormen_'
'malt_'
'entla'
'Kunz_'
'Ges_'
'Fuchs'
'Ct_'
'ernst'
'ckung_'
'Yun'
'Otten'
'Halte'
'EI'
'135_'
'verkünden_'
'tsche'
'tale'
'riff_'
'küche_'
'einm_'
'Kari'
'Hongkong_'
'widerspricht_'
'unterstütze_'
'nle'
'eka'
'bak'
'UK'
'Schicht_'
'Referenz'
'Parlamentswahl_'
'Gruß_'
'Greif'
'Freitag'
'Bs_'
'Aug'
'sef'
'hause'
'gewählten_'
'betonten_'
'Rollen'
'Orts_'
'Ligen_'
'Koo'
'074'
'Ältere_'
'legal_'
'latt'
'Hers'
'Gege'
'GL'
'zulässig_'
'vorsitzender_'
'ierte'
'entsorgt_'
'Zeug'
'Vorher_'
'Eisk'
'Baust'
'Bahren_'
'pfa'
'kolo'
'hinunter_'
'grie'
'glieder_'
'erfreulich_'
'Sängerinnen_'
'Commerzbank_'
'Beleidigung_'
'öffne'
'änner_'
'zugehen_'
'wood_'
'infa'
'iell_'
'gw'
'fassung_'
'elden_'
'beteilig'
'ape'
'ammen'
'Verzögerung_'
'Schwenk'
'Ole'
'Flur'
'Bottas_'
'Beides_'
'ẞte'
'änk'
'nfe'
'nack'
'finanzier'
'Symptome_'
'Sob'
'RW_'
'Miriam_'
'Differenzen_'
'weilt_'
'kandidaten_'
'benen_'
'Verst'
'Portion_'
'Nur'
'Mangel'
'Grube_'
'schossen_'
'gegenwärtig_'
'esche'
'eingeklemmt_'
'bereiche_'
'Kurze_'
'BR_'
'Assistenten_'
'ui_'
'uar'
'oB'
'bera'
'able_'
'Tony_'
'Prügel'
'Pic'
'Ortsmitte_'
'Klänge_'
'Fuhr'
'Aussehen_'
'pil'
'nche'
'kauf'
'fuß_'
'etc_'
'chwer'
'Valentin_'
'Sowjetunion_'
'Label_'
'Gries'
'Angel_'
' ;_'
'sern_'
'lätzen_'
'ido'
'Abr'
'iegt_'
'Schlacht_'
'Pott'
'Mile'
'Korn_'
'Ökonomen_'
'ergr'
'Zuh'
'Wch'
'Tt_'
'Spot'
'Pächter_'
'Enter'
'Alexandr'
'AE'
'umgeleitet_'
'rast_'
'heiligen_'
'gedeckt_'
'esa'
'Siegerin_'
'Sattel'
'Fahrverbot_'
'Baskets_'
'muslimische_'
'cla'
'anhaltenden_'
'Yte'
'Wart'
'Gne'
'Eint_'
'änd'
'wochen_'
'bele'
'ausp'
'Turner_'
'JA'
'Ikone_'
'Busfahrer_'
'Beni'
'Ausflüge_'
'Üer_'
'video_'
'nsu'
'neh'
'mtes_'
'Lengerich_'
'Kast'
'IR'
'Fashion_'
'Deckung_'
'DS_'
'Bester_'
'155_'
'westlich_'
'schmi'
'phil'
'Rems'
'Mich'
'Laster_'
'Japans_'
'Entschuldigung_'
'Bin_'
'Ausländer'
'äs_'
'recken_'
'iren_'
'aü'
'Tottenham_'
'Ticket'
'Swe'
'Rosenheim_'
'Mons'
'Lös'
'Humboldt_'
'Gw'
'Dai'
'Bauw'
'äun'
'wog_'
'verließen_'
'schwi'
'richte_'
'Une'
'Nier'
'European_'
'Daily_'
'Ambitionen_'
'wirkung_'
'sH'
'dol'
'dK'
'Lock'
'Hüft'
' ; ‟_'
'übersch'
'kurier_'
'graf'
'gekocht_'
'gegnerischen_'
'emo'
'eC'
'dai'
'beweg'
'Witwe_'
'Exil_'
'Dreharbeiten_'
'Andrang_'
'zeuge_'
'ubu'
'knu'
'Maa'
'Alternativ'
'A1'
'weitermachen_'
'tek'
'besprechen_'
'Oei'
'Mira'
'Dienstag'
'Baut'
'sperre_'
'längerer_'
'lockte_'
'dasselbe_'
'bekomm'
'allt'
'Seiler_'
'Scott_'
'Üte'
'thaler_'
'gültigen_'
'gge_'
'Versicherungen_'
'Tir'
'Sorte_'
'Schwäbische_'
'Rinder_'
'Laf'
'Kran_'
' ( . _'
'zie_'
'zes'
'wfsm'
'mächtigen_'
'lae'
'cv'
'bil'
'adel'
[...]
