'<pad>'
'<EOS>'
', _'
'the_'
'._'
'of_'
'и_'
'and_'
'_'
'в_'
'to_'
'in_'
'-_'
'. _'
'/_'
' (_'
'a_'
'на_'
'for_'
':_'
'on_'
') _'
'по_'
'с_'
's_'
'The_'
'that_'
'is_'
'е_'
'а_'
': _'
'1_'
'о_'
'by_'
'with_'
'для_'
'2_'
'as_'
'be_'
'что_'
'й_'
'м_'
'к_'
'не_'
'3_'
'В_'
')_'
'or_'
' - _'
'года_'
'at_'
'are_'
'was_'
'4_'
'х_'
'from_'
'its_'
',_'
';_'
'ы_'
'; _'
'я_'
'у_'
'5_'
'not_'
'an_'
'или_'
' "_'
'it_'
'e_'
'также_'
'(_'
'A_'
'this_'
'ing_'
')._'
'United_'
'от_'
''_'
'10_'
'which_'
'6_'
'их_'
'have_'
'd_'
'will_'
'has_'
'In_'
'го_'
'за_'
'7_'
'из_'
'their_'
'all_'
'Committee_'
'), _'
'Объединенных_'
'8_'
'как_'
'12_'
'Наций_'
'Nations_'
'ed_'
'Организации_'
'его_'
'I_'
'been_'
'9_'
'General_'
'C_'
'11_'
'ми_'
'00_'
'other_'
'international_'
'had_'
'ом_'
'also_'
'которые_'
'were_'
'ая_'
'ой_'
'States_'
'ю_'
'y_'
'13_'
'20_'
'ть_'
'0_'
'15_'
'It_'
'ую_'
'14_'
'" _'
'области_'
'report_'
'16_'
'ь_'
'you_'
'чтобы_'
'would_'
'should_'
'ов_'
'30_'
'18_'
'development_'
't_'
'при_'
'том_'
'rights_'
'т_'
'человека_'
'2008_'
'b_'
'://_'
'развития_'
'including_'
'countries_'
'Council_'
'http_'
'es_'
'time_'
'ого_'
'can_'
'2010_'
'17_'
'ые_'
'будет_'
'2009_'
'more_'
'ся_'
'work_'
'до_'
'22_'
'one_'
'under_'
'support_'
'such_'
'21_'
'25_'
'19_'
'International_'
'ее_'
'?_'
'то_'
'into_'
'того_'
'вопросам_'
'n_'
'деятельности_'
'S_'
'resolution_'
'session_'
'ых_'
'ей_'
'более_'
'information_'
'national_'
'Assembly_'
'бы_'
'но_'
'they_'
'his_'
'2011_'
'это_'
'отношении_'
'прав_'
'human_'
'23_'
'2007_'
'все_'
'году_'
'women_'
'c_'
'State_'
'out_'
'этой_'
'2012_'
'стран_'
'было_'
'Convention_'
'"_'
'со_'
'всех_'
'2016_'
'время_'
'meeting_'
'соответствии_'
'29_'
'01_'
'связи_'
'we_'
'new_'
'against_'
'рамках_'
'ем_'
'through_'
'made_'
'#_'
' , _'
'может_'
'С_'
'24_'
'- _'
'r_'
'28_'
'2005_'
'Secretary_'
'об_'
'any_'
'i_'
'activities_'
'н_'
'между_'
'ли_'
'l_'
'’_'
'between_'
'03_'
'он_'
'27_'
'является_'
'тем_'
'26_'
'во_'
'well_'
'up_'
'shall_'
'AM_'
'женщин_'
'm_'
'This_'
'были_'
'°_'
'our_'
'31_'
'than_'
'system_'
'he_'
'же_'
'now_'
'implementation_'
'02_'
'был_'
'there_'
'country_'
'but_'
'Комитет_'
'these_'
'only_'
'ly_'
'cooperation_'
'2006_'
'who_'
'them_'
'May_'
'"._'
'работы_'
'ое_'
'му_'
'no_'
'Republic_'
'Commission_'
'других_'
'безопасности_'
'use_'
'measures_'
' #_'
'быть_'
'may_'
'помощи_'
'ие_'
'first_'
'during_'
'который_'
'качестве_'
'services_'
'per_'
'law_'
'if_'
'им_'
'two_'
'people_'
'Conference_'
'целях_'
'г_'
'number_'
'2002_'
'они_'
'ами_'
'Генеральной_'
'А_'
'need_'
'07_'
'05_'
'Group_'
'2013_'
'04_'
'000_'
'ым_'
'дня_'
'paragraph_'
'права_'
'информации_'
'включая_'
'level_'
'children_'
'2004_'
'ый_'
'системы_'
'your_'
'so_'
'o_'
'ng_'
'regional_'
'E_'
'сессии_'
'государства_'
'economic_'
'assistance_'
'L_'
'09_'
' +_'
'security_'
'draft_'
'действий_'
'И_'
'50_'
'2014_'
' **** _'
'можно_'
'organizations_'
'We_'
'PM_'
'08_'
' ._'
'мы_'
'государств_'
'Совета_'
'year_'
'take_'
'right_'
'Government_'
'B_'
'2000_'
'этого_'
'должны_'
'non_'
'Mr_'
'=_'
' – _'
'этом_'
'held_'
'Security_'
'Development_'
'December_'
'так_'
'резолюции_'
'ет_'
'год_'
'США_'
'within_'
'some_'
'order_'
'social_'
'most_'
'06_'
' <<_'
'мира_'
'которых_'
'ах_'
'Генерального_'
'those_'
'resources_'
'основе_'
'образом_'
'2001_'
'программы_'
'ных_'
'Ð_'
'2015_'
'2003_'
'% _'
'staff_'
'public_'
'process_'
'members_'
'many_'
'do_'
'секретаря_'
'осуществления_'
'меры_'
'« _'
'further_'
'al_'
' »_'
'страны_'
'обеспечения_'
'www_'
'when_'
'provided_'
'following_'
'data_'
'мер_'
'ки_'
'детей_'
'programme_'
'management_'
'health_'
'could_'
'At_'
'этих_'
'provide_'
'part_'
'g_'
'decision_'
'June_'
'л_'
'если_'
'доклад_'
'вы_'
'er_'
'com_'
'based_'
'", _'
' $_'
'период_'
'ия_'
'years_'
'после_'
'лиц_'
'over_'
'about_'
'October_'
'European_'
' «_'
'частности_'
'ка_'
'будут_'
'world_'
'related_'
'financial_'
'Office_'
'40_'
'ыми_'
'средств_'
'ий_'
'внимание_'
'На_'
'Конвенции_'
'party_'
'h_'
'article_'
'Special_'
'могут_'
'regard_'
'persons_'
'efforts_'
'cent_'
'World_'
'us_'
'35_'
'being_'
'ation_'
'Programme_'
'D_'
'46_'
'32_'
'1999_'
' -- _'
'только_'
'под_'
'долл_'
'k_'
'education_'
'Rights_'
'President_'
'No_'
'view_'
'political_'
'particular_'
'p_'
'issues_'
'currently_'
'adopted_'
'September_'
'1998_'
'своих_'
'ные_'
'ла_'
'relevant_'
'March_'
'II_'
'As_'
'группы_'
'must_'
'legal_'
'action_'
'Reply_'
'Posted_'
' “_'
'управления_'
'своей_'
'организации_'
'когда_'
'ion_'
'November_'
'For_'
'ться_'
'которая_'
'ам_'
'agenda_'
' _'
'ют_'
'уровне_'
'таких_'
'решения_'
'where_'
'training_'
'technical_'
'present_'
'before_'
'Organization_'
'Г_'
'situation_'
'see_'
'ensure_'
'числе_'
'следует_'
'Это_'
'since_'
'review_'
'protection_'
'capacity_'
'available_'
']_'
'сотрудничества_'
'По_'
'Безопасности_'
'without_'
'very_'
'reports_'
'policy_'
'period_'
'developing_'
'образования_'
'информацию_'
'th_'
'special_'
'make_'
'important_'
'continue_'
'July_'
'Africa_'
'52_'
'1997_'
'' _'
'являются_'
'ходе_'
'ресурсов_'
'same_'
'programmes_'
'peace_'
'case_'
'appropriate_'
'Parties_'
'48_'
'целью_'
'данных_'
'Он_'
'Мы_'
'said_'
'effective_'
'both_'
'New_'
'Human_'
'1995_'
'членов_'
'она_'
'taken_'
'region_'
'global_'
'To_'
'55_'
'34_'
'1996_'
'1994_'
') (_'
'пункт_'
'против_'
'национальных_'
'защиты_'
'без_'
'Я_'
'while_'
'set_'
'role_'
'requested_'
'policies_'
'like_'
'community_'
'basis_'
'accordance_'
'Phone_'
'населения_'
'areas_'
'among_'
'Working_'
'On_'
'38_'
'37_'
');_'
' [_'
'сти_'
'положения_'
'была_'
'Комиссии_'
'provisions_'
'access_'
'Union_'
'Economic_'
'April_'
'1993_'
'решение_'
'работе_'
'ется_'
'другие_'
'Ассамблеи_'
'project_'
'parties_'
'meetings_'
'de_'
'If_'
'Board_'
'44_'
'проекта_'
'программ_'
'повестки_'
'ной_'
'международного_'
'декабря_'
'где_'
'Кроме_'
'К_'
'various_'
'recommendations_'
'possible_'
'how_'
'account_'
'Add_'
'100_'
'тся_'
'правам_'
'июля_'
'place_'
'\u_'
'53_'
'тех_'
'случае_'
'свои_'
'nuclear_'
'building_'
'Member_'
'43_'
'ются_'
'стороны_'
'статьи_'
'свою_'
'проведения_'
'либо_'
'еще_'
'service_'
'my_'
'established_'
'cases_'
'Social_'
'January_'
'57_'
'45_'
'41_'
'/ _'
'эти_'
'части_'
'ного_'
'использования_'
'ии_'
'Республики_'
'Для_'
'received_'
'needs_'
'general_'
'framework_'
'area_'
'am_'
'addition_'
'able_'
'He_'
'необходимо_'
'лет_'
'вопросы_'
'x_'
'used_'
'specific_'
'projects_'
'progress_'
'item_'
'high_'
'after_'
'Russian_'
'36_'
'этот_'
'организаций_'
'них_'
'Телефон_'
'ment_'
'given_'
'ers_'
'South_'
'33_'
'+_'
'те_'
'средства_'
'органов_'
'обеспечить_'
'ить_'
'деятельность_'
'всего_'
'Если_'
'working_'
'submitted_'
'private_'
'million_'
'institutions_'
'full_'
'en_'
'control_'
':: _'
'учетом_'
'результате_'
'поддержки_'
'особенно_'
'июня_'
'должен_'
'вопросу_'
'Комитета_'
'tion_'
'results_'
'organization_'
'necessary_'
'le_'
'found_'
'end_'
'V_'
'56_'
'2017_'
'чем_'
'уже_'
'оружия_'
'которое_'
've_'
'upon_'
'second_'
'increase_'
'free_'
'f_'
'developed_'
'day_'
'consideration_'
'August_'
'54_'
'51_'
' / _'
'ями_'
'сть_'
'соответствующих_'
'различных_'
'помощь_'
'ный_'
'касается_'
'докладе_'
'violence_'
'taking_'
'representatives_'
'military_'
'local_'
'life_'
'include_'
'him_'
'considered_'
'There_'
'All_'
'!_'
'течение_'
'развитию_'
'млн_'
'международных_'
'вопросов_'
'way_'
'requirements_'
'major_'
'issue_'
'force_'
'each_'
'context_'
'best_'
'authorities_'
'above_'
'URL_'
'They_'
'Ministry_'
'M_'
'>> _'
'58_'
'усилия_'
'решений_'
'работу_'
'принятия_'
'новых_'
'ния_'
'например_'
'комитета_'
'годы_'
'вопрос_'
'future_'
'fact_'
'another_'
'You_'
'R_'
'February_'
'Court_'
'49_'
'” _'
'ч_'
'связанных_'
'развивающихся_'
'окружающей_'
'настоящее_'
'д_'
'группа_'
'возможность_'
'three_'
'respect_'
'long_'
'land_'
'groups_'
'group_'
'conditions_'
'because_'
'additional_'
'] _'
'National_'
'целей_'
'потенциала_'
'октября_'
'ими_'
'должна_'
'доклада_'
'what_'
'water_'
'state_'
'sector_'
'ru_'
'production_'
'participation_'
'ies_'
'document_'
'bodies_'
'Mission_'
'China_'
'African_'
'через_'
'сь_'
'см_'
'расходов_'
'имеет_'
'v_'
'trade_'
'org_'
'monitoring_'
'levels_'
'legislation_'
'joint_'
'different_'
'did_'
'Russia_'
'P_'
'80_'
'участников_'
'уровня_'
'создания_'
'поскольку_'
'политики_'
'оценки_'
'мая_'
'марта_'
'ло_'
'Как_'
'systems_'
'rs_'
'response_'
'required_'
'plan_'
'increased_'
'does_'
'continued_'
'concern_'
'budget_'
'application_'
'address_'
'Kazakhstan_'
'59_'
'сентября_'
'пункта_'
'ноября_'
'ная_'
'комитет_'
'дискриминации_'
'Что_'
'Ñ_'
'society_'
'small_'
'site_'
'proposed_'
'help_'
'every_'
'establishment_'
'costs_'
'ce_'
'age_'
'[_'
'Service_'
'Article_'
'Act_'
'60_'
'47_'
'42_'
'39_'
'учреждений_'
'сотрудничество_'
'путем_'
'подготовки_'
'ения_'
'годов_'
'Совет_'
'ted_'
'result_'
'point_'
'noted_'
'men_'
'me_'
'html_'
'discrimination_'
'Rapporteur_'
'62_'
'); _'
' — _'
'цели_'
'силу_'
'принять_'
'персонала_'
'международной_'
'жизни_'
'говорит_'
'возможности_'
'then_'
'terms_'
'status_'
'standards_'
'promote_'
'police_'
'particularly_'
'official_'
'her_'
'gender_'
'entitled_'
'concerned_'
'THE_'
'OF_'
'III_'
'Executive_'
'., _'
'этим_'
'ской_'
'себя_'
'своего_'
'проект_'
'поддержку_'
'операций_'
'statement_'
'resolutions_'
'question_'
'post_'
'means_'
'line_'
'implement_'
'comprehensive_'
'attention_'
'F_'
'..._'
' . _'
'участие_'
'сотрудников_'
'рекомендации_'
'помощью_'
'народов_'
'кто_'
'которой_'
'заседании_'
'бюджета_'
'борьбе_'
'Пункт_'
'weapons_'
'ting_'
'sustainable_'
'ry_'
'reported_'
'low_'
'field_'
'conflict_'
'civil_'
'agreed_'
'actions_'
'T_'
'Action_'
'" (_'
'участия_'
'счет_'
'странах_'
'среды_'
'своем_'
'роль_'
'рассмотрение_'
'процентов_'
'очень_'
'одного_'
'мере_'
'лись_'
'technology_'
'principles_'
'next_'
'improve_'
'importance_'
'form_'
'documents_'
'date_'
'company_'
'child_'
'already_'
'Women_'
'Party_'
'However_'
'."_'
'целом_'
'призывает_'
'организациями_'
'ние_'
'ни_'
'ись_'
'ение_'
'два_'
'Е_'
'Ассамблея_'
'te_'
'still_'
'provision_'
'market_'
'good_'
'change_'
'Protocol_'
'High_'
'64_'
'экспертов_'
'территории_'
'сфере_'
'собой_'
'рассмотрения_'
'ому_'
'ным_'
'место_'
'лишь_'
'интересах_'
'другими_'
'должно_'
'всем_'
'вновь_'
'С'
'О_'
'Группа_'
'ts_'
'transport_'
'times_'
'term_'
'subject_'
'st_'
'quality_'
'posts_'
'key_'
'included_'
'four_'
'especially_'
'delegation_'
'current_'
'challenges_'
'called_'
'approach_'
'agencies_'
'W_'
'Secretariat_'
'Other_'
'Governments_'
'During_'
'Bank_'
'Arab_'
'America_'
'услуг_'
'стратегии_'
'случаях_'
'р_'
'применения_'
'право_'
'наиболее_'
'ему_'
'государствам_'
'времени_'
'ООН_'
'Конференции_'
'risk_'
'request_'
'relating_'
'pm_'
'list_'
'just_'
'ions_'
'here_'
'growth_'
'great_'
'governmental_'
'game_'
'food_'
'example_'
'even_'
'cost_'
'coordination_'
'concerning_'
'city_'
'approved_'
'active_'
'Law_'
'Fund_'
'число_'
'финансирования_'
'февраля_'
'уровнях_'
'такие_'
'странам_'
'разработки_'
'процесса_'
'однако_'
'новые_'
'которого_'
'дел_'
'Председатель_'
'» _'
'third_'
'statements_'
'several_'
'representative_'
'reporting_'
'prepared_'
'ons_'
'might_'
'mandate_'
'making_'
'main_'
'least_'
'equipment_'
'ent_'
'energy_'
'domestic_'
'carried_'
'body_'
'ble_'
'Palestinian_'
'Meeting_'
'And_'
' № _'
'ях_'
'экономического_'
'числа_'
'странами_'
'содействия_'
'свой_'
'реализации_'
'разработке_'
'развитие_'
'процесс_'
'проектов_'
'ось_'
'оказания_'
'некоторых_'
'него_'
'котором_'
'контроля_'
'ию_'
'использовать_'
'информация_'
'Р_'
'Однако_'
'Вы_'
'wipe_'
'views_'
'total_'
'table_'
'purpose_'
'population_'
'php_'
'person_'
'performance_'
'nt_'
'member_'
'laws_'
'impact_'
'family_'
'cultural_'
'amount_'
'WP_'
'T'
'One_'
'N_'
'Europe_'
'Department_'
'90_'
'1990_'
'равенства_'
'процедуры_'
'правительство_'
'порядке_'
'повышения_'
'основных_'
'общего_'
'людей_'
'возможностей_'
'борьбы_'
'апреля_'
'августа_'
'towards_'
'strong_'
'space_'
'section_'
'rules_'
'responsibility_'
'research_'
'requests_'
'recent_'
're_'
'rate_'
'page_'
'own_'
'net_'
'man_'
'light_'
'fully_'
'due_'
'days_'
'contained_'
'consider_'
'US_'
'East_'
'ECE_'
',"_'
'): _'
'":_'
'":"_'
' : _'
'января_'
'ью_'
'среди_'
'поддержанию_'
'мероприятий_'
'контексте_'
'есть_'
'Она_'
'value_'
'together_'
'text_'
'providing_'
'provides_'
'procedure_'
'previous_'
'poverty_'
'personnel_'
'note_'
'know_'
'indigenous_'
'humanitarian_'
'government_'
'funding_'
'discussions_'
'crime_'
'clear_'
'business_'
'agreement_'
'Israel_'
'Declaration_'
'D'
'Central_'
'But_'
'An_'
'63_'
'члены_'
'укрепления_'
'торговли_'
'технологий_'
'та_'
'правительством_'
'правах_'
'политических_'
'плана_'
'относительно_'
'ответственность_'
'осуществлению_'
'осуществление_'
'ную_'
'нам_'
'многих_'
'координации_'
'ке_'
'имеют_'
'имени_'
'значение_'
'деле_'
'данные_'
'У'
'whether_'
'treatment_'
'trafficking_'
'therefore_'
'responsible_'
'regarding_'
'preparation_'
'para_'
'lt_'
'give_'
'forum_'
'foreign_'
'assessment_'
'annual_'
'acts_'
'activity_'
'These_'
'G'
'France_'
'Commissioner_'
'70_'
' '
'этому_'
'три_'
'точки_'
'такой_'
'ряд_'
'рекомендует_'
'производства_'
'проблем_'
'представителей_'
'потребностей_'
'положений_'
'один_'
'ны_'
'ное_'
'необходимость_'
'лась_'
'ку_'
'ко_'
'иностранных_'
'изменения_'
'защите_'
'выполнения_'
'вам_'
'Эти_'
'Республика_'
'После_'
'Америки_'
'whose_'
'war_'
'violations_'
'protect_'
'procedures_'
'problem_'
'practices_'
'practice_'
'notes_'
'large_'
'investment_'
'goals_'
'follow_'
'expected_'
'exchange_'
'environmental_'
'decided_'
'care_'
'behalf_'
'authority_'
'aimed_'
'When_'
'Permanent_'
'IV_'
'>>._'
'="_'
'500_'
' /_'
'согласно_'
'совещания_'
'ская_'
'сделать_'
'преступности_'
'предложение_'
'отмечает_'
'областях_'
'над_'
'можете_'
'менее_'
'ликвидации_'
'которым_'
'коренных_'
'иметь_'
'ать_'
'Программы_'
'М_'
'Генеральная_'
'Верховного_'
'Ассамблее_'
'ty_'
'today_'
'situations_'
'se_'
'put_'
'organized_'
'much_'
'ive_'
'inter_'
'find_'
'decisions_'
'course_'
'below_'
'become_'
'air_'
'addressed_'
'X_'
'With_'
'O'
'G_'
'Director_'
'Affairs_'
': "_'
'75_'
'69_'
'68_'
'&_'
'финансовых_'
'таким_'
'результатов_'
'процессе_'
'проблемы_'
'представить_'
'правительства_'
'ок_'
'одной_'
'несколько_'
'использование_'
'законодательства_'
'достижения_'
'больше_'
'беженцев_'
'Председателя_'
'Комиссия_'
'Доклад_'
'vote_'
'serious_'
'power_'
'often_'
'nature_'
'matters_'
'lead_'
'km_'
'ic_'
'far_'
'evidence_'
'environment_'
'ding_'
'dialogue_'
'collection_'
'While_'
'Management_'
'M'
'I'
'Chairman_'
'Advisory_'
'? _'
'77_'
'1992_'
'1991_'
' *** _'
'эффективности_'
'экономических_'
'ься_'
'часть_'
'участник_'
'устойчивого_'
'услуги_'
'условиях_'
'условия_'
'содействие_'
'системе_'
'пункте_'
'приложение_'
'предупреждения_'
'представитель_'
'правовой_'
'получить_'
'поводу_'
'плане_'
'обслуживания_'
'необходимости_'
'насилия_'
'местах_'
'касающихся_'
'доступа_'
'документа_'
'делам_'
'групп_'
'видов_'
'Конференция_'
'Декларации_'
'В'
'А'
'using_'
'type_'
'terrorism_'
'strengthening_'
'strengthen_'
'server_'
'prevent_'
'planning_'
'ous_'
'mass_'
'language_'
'ity_'
'items_'
'however_'
'goods_'
'funds_'
'functions_'
'five_'
'facilities_'
'expressed_'
'ethnic_'
'design_'
'aspects_'
'according_'
'U_'
'UN_'
'Tribunal_'
'Report_'
'K'
'Iraq_'
'By_'
': +_'
'65_'
', "_'
'* _'
'ям_'
'учреждения_'
'сторон_'
'степени_'
'сотрудничестве_'
'создать_'
'службы_'
'следующие_'
'положение_'
'перед_'
'общества_'
'обзора_'
'некоторые_'
'национальной_'
'механизмов_'
'категории_'
'информационно_'
'ием_'
'женщины_'
'делегация_'
'да_'
'государство_'
'государствами_'
'власти_'
'виде_'
'Эта_'
'Поэтому_'
'Ассамблеей_'
'visit_'
'victims_'
'vehicle_'
'undertaken_'
'u_'
'transfer_'
'side_'
'sexual_'
'secretariat_'
'regular_'
'regions_'
'proposal_'
'processes_'
'problems_'
'prevention_'
'position_'
'open_'
'ne_'
'last_'
'knowledge_'
'href_'
'higher_'
'f'
'experience_'
'establish_'
'employment_'
'done_'
'detention_'
'basic_'
'ad_'
'VI_'
'University_'
'UNDP_'
'People_'
'P'
'Ms_'
'L'
'K_'
'Institute_'
'H_'
'H'
'Germany_'
'; (_'
'61_'
'200_'
'. (_'
'—_'
'энергии_'
'характер_'
'стране_'
'секретарь_'
'ресурсы_'
'рекомендаций_'
'региональных_'
'рассмотреть_'
'раз_'
'предоставления_'
'посредством_'
'ость_'
'обязательств_'
'ниже_'
'конференции_'
'ен_'
'день_'
'выше_'
'ась_'
'Международного_'
'Генеральный_'
'yet_'
'w_'
'vehicles_'
'team_'
'standard_'
'reduce_'
'priority_'
'others_'
'operations_'
'operation_'
'obligations_'
'mechanisms_'
'matter_'
'k'
'justice_'
'internal_'
'instruments_'
'hours_'
'girls_'
'death_'
'criminal_'
'court_'
'communities_'
'communication_'
'capital_'
'c'
'administrative_'
'achieve_'
'W'
'Minister_'
'Justice_'
'Joined_'
'India_'
'Geneva_'
'Federation_'
'Centre_'
'Canada_'
'67_'
'эту_'
'хотя_'
'хотел_'
'условий_'
'усилий_'
'уровень_'
'ты_'
'труда_'
'торговле_'
'считает_'
'случаев_'
'ский_'
'сектора_'
'провести_'
'принципы_'
'правил_'
'переговоров_'
'охраны_'
'отметить_'
'ответственности_'
'общих_'
'общей_'
'ными_'
'новый_'
'ней_'
'национальном_'
'национального_'
'настоятельно_'
'лся_'
'которыми_'
'комиссара_'
'источников_'
'здравоохранения_'
'воздуха_'
'Республике_'
'П'
'Н'
'К'
'И'
'themselves_'
'study_'
'strategic_'
'speed_'
'professional_'
'products_'
'potential_'
'peoples_'
'needed_'
'natural_'
'issued_'
'index_'
'in'
'hold_'
'ge_'
'forms_'
'file_'
'existing_'
'equal_'
'early_'
'ds_'
'contributions_'
'consultations_'
'communications_'
'close_'
'claims_'
'better_'
'arrangements_'
'around_'
'annex_'
'analysis_'
'again_'
'Under_'
'N'
'Ireland_'
'Information_'
'Health_'
'Forum_'
'English_'
'Criminal_'
'Covenant_'
'B'
'Armenia_'
'According_'
'AC_'
'):_'
'членами_'
'ции_'
'характера_'
'социальной_'
'соответствующие_'
'сил_'
'сведению_'
'расходы_'
'районах_'
'принципов_'
'получения_'
'осуществлении_'
'ости_'
'новой_'
'ним_'
'находится_'
'мужчин_'
'момент_'
'механизма_'
'лица_'
'климата_'
'касающиеся_'
'зрения_'
'действия_'
'возможно_'
'Т'
'Рабочей_'
'ПРООН_'
'Группы_'
'Г'
'workers_'
'true_'
'took_'
'too_'
'ties_'
'submit_'
'strategy_'
'states_'
'stated_'
'six_'
'ship_'
'sh_'
'school_'
'recommended_'
'property_'
'peacekeeping_'
'past_'
'opportunities_'
'ns_'
'ness_'
'materials_'
'less_'
'lack_'
'l'
'iv_'
'involved_'
'income_'
'implementing_'
'i'
'having_'
'experts_'
'effects_'
'crimes_'
'common_'
'come_'
'climate_'
'ck_'
'certain_'
'benefits_'
'arms_'
'armed_'
'ar_'
'allow_'
'agreements_'
'York_'
'Y_'
'Unknown_'
'That_'
'Israeli_'
'HIV_'
'El_'
'Cooperation_'
'Asia_'
'Agency_'
'66_'
'фонда_'
'социального_'
'система_'
'регионе_'
'размере_'
'пункту_'
'проведении_'
'проведение_'
'преступления_'
'подготовку_'
'пере'
'основании_'
'оказание_'
'обеспечению_'
'мире_'
'материалов_'
'лось_'
'лицам_'
'инвестиций_'
'имя_'
'ил_'
'ев_'
'га_'
'У_'
'Сторон_'
'П_'
'З'
'Его_'
'z_'
'words_'
'until_'
'terrorist_'
'territory_'
'strategies_'
'self_'
'promoting_'
'poor_'
'partners_'
'p'
'officials_'
'name_'
'missions_'
'meet_'
'led_'
'interest_'
'hotel_'
'greater_'
'go_'
'expert_'
'events_'
'et_'
'encounter_'
'effect_'
'develop_'
'd'
'crisis_'
'contract_'
'committed_'
'centre_'
'cannot_'
'border_'
'assist_'
'art_'
'actual_'
'Z'
'S'
'Ra'
'R'
'O_'
'Kingdom_'
'Hotel_'
'Education_'
'E'
'Constitution_'
'Code_'
'Charter_'
'Annex_'
'After_'
'2'
'...+_'
'","_'
'эффективного_'
'эксплуатации_'
'учета_'
'утверждения_'
'тому_'
'температуры_'
'такого_'
'создание_'
'систем_'
'семьи_'
'региона_'
'ребенка_'
'распространения_'
'предупреждению_'
'представители_'
'правосудия_'
'последствия_'
'показателей_'
'пока_'
'подготовке_'
'ответ_'
'оно_'
'одним_'
'обязательства_'
'нас_'
'министр_'
'мероприятия_'
'ма_'
'ли'
'которую_'
'конкретных_'
'компании_'
'декларации_'
'граждан_'
'выражает_'
'аспекты_'
'Специального_'
'Организация_'
'Они_'
'Д'
'Во_'
'Б'
'wide_'
'understanding_'
'topic_'
'sea_'
'rule_'
'relationships_'
'reform_'
'reference_'
'recommendation_'
'purposes_'
'provisional_'
'promotion_'
'presented_'
'points_'
'plans_'
'physical_'
'pay_'
'opportunity_'
'obligation_'
'nce_'
'na_'
'ments_'
'medical_'
'material_'
'living_'
'industrial_'
'ii_'
'identified_'
'get_'
'forces_'
'equality_'
'e'
'created_'
'create_'
'core_'
'call_'
'author_'
'ations_'
'ary_'
'approval_'
'applied_'
'ally_'
'adoption_'
'Representative_'
'Japan_'
'Foreign_'
'Division_'
'Australia_'
'1'
'ядерного_'
'элементов_'
'экономической_'
'членам_'
'человек_'
'уголовного_'
'социальных_'
'ского_'
'ситуации_'
'силы_'
'свое_'
'региональном_'
'расширения_'
'районе_'
'ра_'
'просит_'
'причине_'
'принимать_'
'предложения_'
'подхода_'
'поддержке_'
'план_'
'периода_'
'первой_'
'оценке_'
'отметил_'
'оказанию_'
'об'
'неправительственных_'
'настоящего_'
'международному_'
'людьми_'
'культуры_'
'конфликтов_'
'исследований_'
'именно_'
'заседаний_'
'закона_'
'задач_'
'документов_'
'доклады_'
'выборов_'
'встречи_'
'военных_'
'взносов_'
'весьма_'
'ведения_'
'Т_'
'Статья_'
'Нью_'
'Но_'
'М'
'Ли'
'Европейского_'
'Африки_'
'«_'
'whole_'
'um_'
'test_'
'temperature_'
'supported_'
'substantive_'
'sectors_'
'schools_'
'scale_'
'safety_'
'regulations_'
'referred_'
'recommends_'
'receive_'
'read_'
'questions_'
'proceedings_'
'practical_'
'offices_'
'off_'
'minimum_'
'message_'
'media_'
'ma_'
'limited_'
'later_'
'king_'
'judicial_'
'introduced_'
'initiatives_'
'initiative_'
'indicated_'
'ian_'
'home_'
'former_'
'final_'
'files_'
'few_'
'event_'
'etc_'
'enable_'
'el_'
'either_'
'economy_'
'distribution_'
'discussion_'
'directly_'
'difficult_'
'comments_'
'co_'
'awareness_'
'adequate_'
'act_'
'[ _'
'Y'
'V'
'U'
'Treaty_'
'Trade_'
'Summit_'
'Such_'
'Poland_'
'Page_'
'Mobile_'
'Li'
'Islamic_'
'Bo'
'72_'
'120_'
'*_'
' & _'
'ция_'
'фонд_'
'тысячелетия_'
'той_'
'текста_'
'ства_'
'срок_'
'соответствующим_'
'сообщества_'
'совет_'
'соблюдения_'
'ско'
'сказал_'
'секторе_'
'секретариата_'
'свободы_'
'ри'
'резолюция_'
'различные_'
'работа_'
'процента_'
'промышленности_'
'приняла_'
'при'
'представления_'
'поэтому_'
'потому_'
'обсуждения_'
'оборудования_'
'обеспечивать_'
'ними_'
'нет_'
'нарушения_'
'многие_'
'меньшинств_'
'международными_'
'кой_'
'исследования_'
'доступ_'
'двух_'
'высокого_'
'всегда_'
'вать_'
'вас_'
'анализа_'
'Ю'
'Ц'
'Хотя_'
'Специальный_'
'Соединенных_'
'Отдел_'
'Все_'
'Африке_'
'y'
'x'
'woman_'
'throughout_'
'temporary_'
'size_'
'significant_'
'share_'
'room_'
'positive_'
'participate_'
'origin_'
'n'
'months_'
'mm_'
'lower_'
'll_'
'known_'
'interests_'
'ine_'
'industry_'
'id_'
'ia_'
'governance_'
'fund_'
'freedom_'
'fourth_'
'evaluation_'
'enhance_'
'elections_'
'down_'
'delivery_'
'delegations_'
'construction_'
'connection_'
'complete_'
'commitment_'
'citizens_'
'came_'
'biennium_'
'achieving_'
'What_'
'Ukraine_'
'TRANS_'
'Sudan_'
'Since_'
'Services_'
'Ne'
'La_'
'Joint_'
'Global_'
'Discrimination_'
'CN_'
'C'
'American_'
'Agenda_'
'97_'
'85_'
' ..._'
'ят_'
'я'
'ющих_'
'файл_'
'трех_'
'третьей_'
'точка_'
'стало_'
'стали_'
'специальных_'
'союза_'
'состоянию_'
'рассматривать_'
'пыток_'
'пунктах_'
'процедур_'
'продолжать_'
'предусматривает_'
'представлен_'
'практике_'
'полиции_'
'поддерживает_'
'опыт_'
'объема_'
'объем_'
'ном_'
'ни'
'направлении_'
'министра_'
'месяцев_'
'масштабов_'
'ление_'
'количество_'
'использоваться_'
'имущества_'
'изменений_'
'игры_'
'здесь_'
'жа_'
'ед'
'дополнительные_'
'документ_'
'диалога_'
'делу_'
'гражданского_'
'государственного_'
'вы'
'всей_'
'вопросах_'
'вопросами_'
'вопроса_'
'веществ_'
'вер'
'Юг_'
'ЮНЕП_'
'Этот_'
'Э'
'Р'
'Проект_'
'Комитетом_'
'Всемирной_'
'»._'
'», _'
'young_'
'wish_'
'want_'
'violation_'
'v'
'unit_'
'un_'
'treaty_'
'transition_'
'thus_'
'supply_'
'she_'
'ring_'
'return_'
'registration_'
'range_'
'raised_'
'produce_'
'price_'
'play_'
'parts_'
'overall_'
'operating_'
'officers_'
'objectives_'
'manner_'
'majority_'
'ls_'
'listed_'
'ings_'
'infrastructure_'
'individuals_'
'implemented_'
'h'
'forty_'
'follows_'
'financing_'
'exercise_'
'designed_'
'definition_'
'dated_'
'cover_'
'contribution_'
'compliance_'
'changes_'
'calls_'
'bility_'
'beginning_'
'assessments_'
'apply_'
'Some_'
'She_'
'Public_'
'Pacific_'
'Our_'
'Moscow_'
'Mar'
'Iran_'
'Inter'
'Implementation_'
'How_'
'God_'
'Go_'
'GMT_'
'Car'
'Ambassador_'
'Also_'
'Administrative_'
'79_'
'73_'
'600_'
'400_'
'“_'
'ясь_'
'эта_'
'частного_'
'центр_'
'функции_'
'форм_'
'финансовые_'
'суда_'
'статье_'
'состоянии_'
'сокращения_'
'создании_'
'совещании_'
'следующим_'
'скоростью_'
'сети_'
'сек_'
'руководящих_'
'руководства_'
'роста_'
'результаты_'
'программам_'
'программа_'
'принял_'
'преступлений_'
'предоставить_'
'практики_'
'правила_'
'потребности_'
'полностью_'
'полной_'
'политической_'
'по'
'отношения_'
'отношений_'
'осуществляется_'
'органы_'
'организация_'
'обязанности_'
'обучения_'
'обеспечение_'
'нему_'
'небо_'
'много_'
'миссии_'
'места_'
'массовой_'
'линии_'
'ит_'
'здоровья_'
'защиту_'
'ении_'
'ена_'
'ел_'
'другой_'
'должностных_'
'должностей_'
'детьми_'
'дать_'
'даже_'
'государственных_'
'гн_'
'вклад_'
'виды_'
'веб_'
'безопасность_'
'активно_'
'Я'
'Ч'
'Х'
'Франция_'
'Секретариата_'
'Про'
'Мобильный_'
'Мо'
'Международной_'
'Казахстан_'
'За'
'Вместе_'
'z'
'written_'
'supporting_'
'sub_'
'stage_'
'ss_'
'sources_'
'son_'
'responsibilities_'
'remained_'
'relations_'
'reduction_'
'recognized_'
'periodic_'
'participants_'
'paragraphs_'
'paid_'
'original_'
'opinion_'
'negotiations_'
'mission_'
'maintenance_'
'live_'
'leading_'
'ka_'
'invited_'
'institutional_'
'iii_'
'house_'
'highly_'
'hand_'
'going_'
'elected_'
'drug_'
'discussed_'
'developments_'
'cross_'
'critical_'
'continuing_'
'conflicts_'
'conferences_'
'central_'
'category_'
'b'
'away_'
'ant_'
'along_'
'aim_'
'] [_'
'Windows_'
'Support_'
'Sep_'
'Second_'
'Rev_'
'Netherlands_'
'Ma'
'Lo'
'Internet_'
'From_'
'City_'
'Association_'
'Armenian_'
'Agreement_'
'Afghanistan_'
'</_'
'80'
'7'
'300_'
'11'
'. "_'
'. '
'–_'
'ы'
'щих_'
'центре_'
'файла_'
'участием_'
'укреплению_'
'то'
'технического_'
'та'
'стью_'
'стратегий_'
'статья_'
'стандартов_'
'сроки_'
'сравнению_'
'способствовать_'
'составе_'
'состав_'
'соотношение_'
'соответствующей_'
'соглашения_'
'соглашений_'
'совместно_'
'службе_'
'сегодня_'
'росы_'
'решении_'
'резолюцией_'
'раздел_'
'пятьдесят_'
'пути_'
'пункты_'
'примерно_'
'предложений_'
'предлагается_'
'почти_'
'последние_'
'пор_'
'поощрения_'
'партнеров_'
'очередь_'
'оценку_'
'от'
'органами_'
'около_'
'общин_'
'образование_'
'нии_'
'нее_'
'нашей_'
'наказания_'
'момента_'
'мне_'
'ль'
'лучше_'
'которому_'
'какой_'
'к'
'использованием_'
'знаний_'
'заявления_'
'жи'
'ены_'
'енных_'
'дующий_'
'достижению_'
'де'
'главным_'
'высшем_'
'воздействия_'
'вместе_'
'ветeр_'
'будущем_'
'Штаты_'
'Стороны_'
'Соединенные_'
'Организацией_'
'Министерство_'
'Л'
'За_'
'ЕЭК_'
'Е'
'Армении_'
'í'
'welcomed_'
'website_'
'waste_'
'vulnerable_'
'updated_'
'undertake_'
'twenty_'
'travel_'
'tra'
'top_'
'ter_'
'target_'
'success_'
'steps_'
'specified_'
'source_'
'solutions_'
'sites_'
'single_'
'show_'
'scientific_'
'road_'
'remains_'
'recruitment_'
'recently_'
'reach_'
're'
'published_'
'permit_'
'payment_'
'outside_'
'outcome_'
'online_'
'old_'
'oil_'
'objective_'
'month_'
'money_'
'minorities_'
'la'
'kind_'
'jurisdiction_'
'jpg_'
'ization_'
'itself_'
'intended_'
'informal_'
'individual_'
'increasing_'
'gs_'
'gas_'
'fundamental_'
'function_'
'forward_'
'floor_'
'fifth_'
'elements_'
'demand_'
'defined_'
'da'
'culture_'
'creation_'
'courts_'
'conduct_'
'completed_'
'competition_'
'civilian_'
'ci'
'billion_'
'avoid_'
'ate_'
'articles_'
'alone_'
'alia_'
'aid_'
'agency_'
'advice_'
'across_'
'\\_'
'Unit_'
'UNICEF_'
'Turkey_'
'Today_'
'Technical_'
'Regulation_'
'Regional_'
'Protection_'
'Panel_'
'Mo'
'Lu'
'La'
'Furthermore_'
'First_'
'Federal_'
'Experts_'
'Elimination_'
'Democratic_'
'Day_'
'Civil_'
'Belarus_'
'@_'
'>>, _'
'99_'
'83_'
'74_'
'700_'
'56'
'10H_'
') '
'%._'
'! _'
' − _'
'— _'
'ющие_'
'экономики_'
'ье_'
'ь'
'ци'
'хо'
'функций_'
'формы_'
'участники_'
'устойчивому_'
'требованиям_'
'ти'
'технической_'
'текст_'
'статус_'
'специалистов_'
'состава_'
'сообщения_'
'со'
'слова_'
'ские_'
'себе_'
'связанные_'
'сбора_'
'ру'
'рост_'
'резолюций_'
'расширение_'
'разоружения_'
'разоружению_'
'работ_'
'продолжение_'
'применение_'
'прежнему_'
'представляет_'
'представлены_'
'представителя_'
'последствий_'
'полномочий_'
'политику_'
'подход_'
'организациям_'
'операции_'
'обслуживание_'
'ность_'
'нной_'
'непосредственно_'
'нем_'
'нашу_'
'начала_'
'национальные_'
'находятся_'
'научных_'
'мо'
'министров_'
'методов_'
'меня_'
'ма'
'любых_'
'любые_'
'контроль_'
'консультаций_'
'консультации_'
'конвенции_'
'кая_'
'ис'
'инвалидов_'
'за'
'женщинами_'
'ер_'
'ды_'
'другим_'
'дополнительных_'
'должности_'
'делегации_'
'данной_'
'далее_'
'гуманитарной_'
'группу_'
'гражданской_'
'гражданских_'
'ги'
'второй_'
'войны_'
'влажности_'
'вая_'
'важность_'
'ва'
'бо'
'благодаря_'
'ал_'
'актов_'
'ается_'
'административных_'
'Штатов_'
'Фонд_'
'Ф_'
'Управление_'
'Согласно_'
'Рабочая_'
'Па'
'Н_'
'Миссии_'
'Европы_'
'Д_'
'î'
'»_'
'weapon_'
'ver_'
'universal_'
'tt'
'think_'
'th'
'technologies_'
'sound_'
'senior_'
'selected_'
'seek_'
'search_'
'say_'
'respective_'
'requires_'
'regime_'
'rates_'
'racial_'
'pursuant_'
'proliferation_'
'prisoners_'
'principle_'
'pre'
'plenary_'
'permanent_'
'ors_'
'offers_'
'no'
'ni'
'news_'
'network_'
'near_'
'mentioned_'
'markets_'
'location_'
'located_'
'lo'
'leave_'
'investigation_'
'independent_'
'improving_'
'img_'
'il_'
'identify_'
'hi'
'guidance_'
'fuel_'
'focus_'
'fields_'
'facilitate_'
'fa'
'expertise_'
'enforcement_'
'encouraged_'
'en'
'device_'
'determined_'
'destruction_'
'daily_'
'covered_'
'conference_'
'conducted_'
'categories_'
'carry_'
'bring_'
'balance_'
'ar'
'applications_'
'applicable_'
'always_'
'allocated_'
'added_'
'abuse_'
'a'
'Wed_'
'Views_'
'USA_'
'UNECE_'
'UN'
'Tuesday_'
'Sea_'
'SI'
'Palestine_'
'Norway_'
'Me'
'Mar_'
'Lebanon_'
'Latin_'
'Ju'
'Ha'
'Force_'
'F'
'Environment_'
'Di'
'CRC_'
'Azerbaijan_'
'Ar'
'96_'
'78_'
'46'
'1984_'
'150_'
') [_'
') - _'
' ... _'
' + _'
' )_'
' ($_'
'−_'
'’ _'
'ё'
'языке_'
'ческих_'
'часто_'
'центров_'
'ца_'
'хозяйства_'
'ход_'
'файлов_'
'ущерба_'
'участнику_'
'требования_'
'товаров_'
'ти_'
'технологии_'
'теперь_'
'такое_'
'судей_'
'ство_'
'статьей_'
'специальной_'
'ских_'
'ска'
'систему_'
'сессия_'
'само'
'роли_'
'резолюцию_'
'регистрации_'
'рассмотрении_'
'ранее_'
'районов_'
'рабочих_'
'рабочей_'
'пунктов_'
'происхождения_'
'продолжает_'
'принимает_'
'предоставлении_'
'пределами_'
'постоянно_'
'пола_'
'относятся_'
'отметила_'
'осуществлять_'
'осуществлением_'
'органа_'
'означает_'
'обращения_'
'обеспечении_'
'норм_'
'нищеты_'
'никаких_'
'науки_'
'местных_'
'месте_'
'международном_'
'м'
'ля'
'ль_'
'лу'
'ло'
'конце_'
'каждый_'
'каждого_'
'й'
'инфраструктуры_'
'избежать_'
'идет_'
'заседание_'
'замечания_'
'закон_'
'заинтересованных_'
'задолженности_'
'жизнь_'
'женщинам_'
'еся_'
'ен'
'докладу_'
'докладов_'
'дела_'
'действие_'
'девочек_'
'де_'
'двухгодичный_'
'гражданства_'
'вооружений_'
'внутренних_'
'включения_'
'б'
'анализ_'
'ад'
'Федерации_'
'Ф'
'Устава_'
'Секретариат_'
'Российской_'
'России_'
'Ре'
'РК_'
'ОБЪЕДИНЕННЫХ_'
'Не'
'На'
'НАЦИЙ_'
'Международный_'
'Ле'
'Й_'
'Азии_'
'za'
'works_'
'week_'
'ways_'
'un'
'u'
'subregional_'
'submission_'
'sub'
'sta'
'sk_'
'sixth_'
'sing_'
'signed_'
'shell_'
'seventh_'
'settlement_'
'sessions_'
'serve_'
'sed_'
'rural_'
'rooms_'
'reflected_'
'reduced_'
'red_'
'real_'
'raising_'
'ra_'
'proposals_'
'program_'
'product_'
'pro'
'press_'
'prepare_'
'po'
'operational_'
'ongoing_'
'once_'
'office_'
'ne'
'nd_'
'method_'
'legislative_'
'le'
'job_'
'j_'
'introduction_'
'indicators_'
'hope_'
'highest_'
'half_'
'guidelines_'
'ground_'
'formed_'
'formal_'
'fifty_'
'export_'
'estimated_'
'est_'
'entered_'
'enjoy_'
'enhancing_'
'engine_'
'emergency_'
'eighth_'
'efficiency_'
'economies_'
'disarmament_'
'details_'
'deep_'
'debate_'
'deal_'
'credit_'
'condition_'
'companies_'
'ch'
'ces_'
'center_'
'card_'
'broad_'
'bo'
'banks_'
'bank_'
'audit_'
'approaches_'
'accepted_'
'absence_'
'West_'
'UNCTAD_'
'Te'
'Sun_'
'Spain_'
'Re_'
'Prevention_'
'Political_'
'Po'
'Plan_'
'Pa'
'Optional_'
'North_'
'Na'
'Middle_'
'IC'
'His_'
'Here_'
'French_'
'Crime_'
'Chief_'
'Caribbean_'
'Ba'
'Are_'
'AIDS_'
'>_'
'>>_'
'> _'
'98_'
'95_'
'93_'
'89_'
'86_'
'84_'
'64'
'3'
'1989_'
'.'
'," _'
' ( _'
'ши'
'функционирования_'
'фи'
'учреждениями_'
'участника_'
'удовлетворением_'
'требований_'
'технических_'
'техники_'
'температура_'
'судебных_'
'структуры_'
'стратегического_'
'сторонами_'
'стал_'
'среде_'
'составляет_'
'совета_'
'скачать_'
'системой_'
'сельского_'
'секретариат_'
'сведения_'
'самом_'
'самого_'
'руководством_'
'руководителей_'
'процессов_'
'программу_'
'принципа_'
'признания_'
'привести_'
'предлагает_'
'правительств_'
'полного_'
'показатель_'
'позволяет_'
'подходов_'
'под'
'погоды_'
'перевозки_'
'особое_'
'основу_'
'организацией_'
'определения_'
'опасности_'
'онной_'
'оказывать_'
'обороны_'
'обзор_'
'нужно_'
'нормы_'
'нового_'
'нео'
'научно_'
'нар'
'направленные_'
'назад_'
'молодежи_'
'мнения_'
'мнению_'
'международные_'
'меж'
'ле'
'ку'
'конкретные_'
'кон'
'компенсации_'
'комиссии_'
'капитала_'
'каких_'
'истории_'
'ин_'
'иков_'
'зи'
'заявление_'
'защита_'
'заседания_'
'заниматься_'
'заключение_'
'ек_'
'достичь_'
'должностях_'
'документе_'
'делает_'
'двадцать_'
'данного_'
'д'
'государству_'
'государственной_'
'выбросов_'
'вших_'
'вооруженных_'
'вин'
'базы_'
'ан_'
'административным_'
'ЮНИСЕФ_'
'Чили_'
'Фонда_'
'Управления_'
'Та'
'При'
'Правительство_'
'Постоянного_'
'Под'
'О'
'Национального_'
'НПО_'
'Конституции_'
'Ко'
'Ин'
'Договора_'
'Департамента_'
'Да'
'ДО'
'Было_'
'è'
'zing_'
'ze'
'ying_'
'why_'
'web_'
'w'
'volume_'
'ves_'
'variety_'
'users_'
'useful_'
'ure_'
'traffic_'
'tive_'
'tes_'
'tasks_'
'task_'
't'
'storage_'
'stop_'
'statistics_'
'software_'
'so'
'si'
'ses_'
'series_'
'separate_'
'risks_'
'rich_'
'remain_'
'release_'
'registered_'
'refugees_'
'recorded_'
'record_'
'q'
'processing_'
'priorities_'
'prior_'
'primary_'
'prices_'
'photos_'
'phase_'
'partnership_'
'pa'
'on'
'nts_'
'never_'
'na'
'multilateral_'
'monitor_'
'mode_'
'methods_'
'mental_'
'm'
'lyrics_'
'longer_'
'lines_'
'letter_'
'length_'
'leadership_'
'la_'
'involving_'
'insurance_'
'informed_'
'improved_'
'implications_'
'il'
'highlighted_'
'head_'
'he'
'games_'
'ga'
'flow_'
'feel_'
'facing_'
'express_'
'executive_'
'examination_'
'et'
'establishing_'
'essential_'
'ensuring_'
'effort_'
'detailed_'
'described_'
'cy_'
'cs_'
'concluded_'
'concept_'
'component_'
'complaints_'
'committees_'
'combating_'
'code_'
'ck'
'charge_'
'ch_'
'car_'
'built_'
'brought_'
'base_'
'back_'
'availability_'
'amendments_'
'almost_'
'allowed_'
'aircraft_'
'ah_'
'achieved_'
'accused_'
']]> _'
'X'
'Wednesday_'
'UNHCR_'
'Total_'
'Switzerland_'
'Sha'
'San_'
'Sa'
'SR_'
'Rule_'
'Review_'
'Post_'
'Please_'
'Peace_'
'Part_'
'My_'
'Moreover_'
'Medical_'
'Liberia_'
'Legal_'
'J_'
'Herzegovina_'
'Headquarters_'
'Great_'
'Finance_'
'Field_'
'En'
'Distr_'
'Cuba_'
'Control_'
'Bosnia_'
'Authority_'
'Am'
'Adoption_'
': (_'
': '
'94_'
'81_'
'800_'
'61'
'42'
'1987_'
'15'
'105_'
', - _'
', '
'*'
' -_'
'яр'
'ю'
'эффективность_'
'шаги_'
'ш_'
'чи'
'четырех_'
'ческая_'
'чего_'
'хода_'
'х'
'учитывать_'
'устройства_'
'укрепление_'
'требуется_'
'суммы_'
'сумма_'
'стать_'
'ссылки_'
'специальные_'
'сотрудничеству_'
'состоит_'
'соответствует_'
'созданы_'
'содержится_'
'содержания_'
'соглашение_'
'совещание_'
'скорее_'
'ситуациях_'
'сельских_'
'связанным_'
'света_'
'сайте_'
'ры_'
'руководящие_'
'рт'
'региональные_'
'рассматривается_'
'распространение_'
'работников_'
'протяжении_'
'программе_'
'прогноз_'
'принятых_'
'приняты_'
'принят_'
'приложении_'
'предприятий_'
'правовых_'
'последнее_'
'положениями_'
'показатели_'
'планирования_'
'передачи_'
'первый_'
'первого_'
'партии_'
'отходов_'
'открыть_'
'открытого_'
'отдельных_'
'основные_'
'основной_'
'ос_'
'органам_'
'опыта_'
'определение_'
'ом'
'океана_'
'ожидается_'
'овать_'
'общие_'
'ня'
'но'
'необходимые_'
'настоящему_'
'настоящей_'
'народа_'
'наименее_'
'название_'
'на'
'миру_'
'механизмы_'
'мерах_'
'материалы_'
'мандата_'
'лин'
'крайней_'
'конфликта_'
'компания_'
'км_'
'класса_'
'касающимся_'
'ка'
'йте_'
'ировать_'
'интеграции_'
'ика_'
'ик_'
'из'
'и'
'значительно_'
'занятости_'
'ете_'
'емые_'
'дом_'
'ди'
'деятельностью_'
'демократии_'
'данном_'
'да'
'городе_'
'голосования_'
'годах_'
'говорится_'
'гендерного_'
'га'
'выступили_'
'выполнять_'
'воздействие_'
'военнослужащих_'
'водных_'
'внимания_'
'включить_'
'важную_'
'в'
'бесплатно_'
'ации_'
'аться_'
'аспектов_'
'арабских_'
'аб'
'ЮНКТАД_'
'Ы_'
'УВКБ_'
'Тем_'
'Таким_'
'Ста'
'Сомали_'
'Совете_'
'Со'
'Северной_'
'Ро'
'При_'
'Некоторые_'
'НИ'
'Му'
'Ма'
'Л_'
'Консультативный_'
'Ка'
'Ирландии_'
'ЗА'
'Генеральным_'
'Ви'
'Вам_'
'ВИЧ_'
'Армения_'
'zone_'
'ya_'
'xi'
'workshop_'
'wi'
'weather_'
'vi'
'version_'
'units_'
'tremulous_'
'tool_'
'tions_'
'timely_'
'tic_'
'ti'
'targets_'
'takes_'
'ta'
'sure_'
'sufficient_'
'studies_'
'sts_'
'structures_'
'stressed_'
'strength_'
'stock_'
'statistical_'
'stakeholders_'
'src_'
'sports_'
'specifically_'
'solution_'
'sixty_'
'shows_'
'shared_'
'seven_'
'served_'
'sent_'
'select_'
'safe_'
's'
'river_'
'rest_'
'respond_'
'relation_'
'reasons_'
'ratified_'
'racism_'
'port_'
'popular_'
'peaceful_'
'package_'
'ory_'
'or'
'occupied_'
'numbers_'
'norms_'
'ninth_'
'night_'
'nationality_'
'namely_'
'move_'
'mortality_'
'minutes_'
'micro'
'measure_'
'mar'
'map_'
'lu'
'link_'
'ling_'
'lessons_'
'les_'
'largest_'
'ke_'
'judges_'
'je'
'j'
'integrated_'
'initial_'
'independence_'
'includes_'
'ie_'
'ho'
'guaranteed_'
'go'
'functioning_'
'ful_'
'ft_'
'forth_'
'forest_'
'findings_'
'fall_'
'extend_'
'except_'
'ess_'
'entry_'
'engaged_'
'ence_'
'emissions_'
'election_'
'ef'
'dll_'
'displaced_'
'direction_'
'direct_'
'dan'
'contribute_'
'consultation_'
'consistent_'
'conclusions_'
'concluding_'
'concerns_'
'commission_'
'commercial_'
'coming_'
'combat_'
'collective_'
'collaboration_'
'choice_'
'challenge_'
'cause_'
'capabilities_'
'calendar_'
'bro'
'beyond_'
'believe_'
'bed_'
'beach_'
'be'
'background_'
'attack_'
'ati'
'ated_'
'association_'
'amendment_'
'allegations_'
'ago_'
'affairs_'
'adopt_'
'actually_'
'accounting_'
'ability_'
'Vienna_'
'Tue_'
'Ta'
'Su'
'Saturday_'
'SC_'
'Rwanda_'
'Road_'
'Regulations_'
'Program_'
'Parliament_'
'OECD_'
'NE'
'Monday_'
'Moldova_'
'Mexico_'
'Location_'
'Kosovo_'
'JSC_'
'J'
'Item_'
'GE_'
'De'
'Czech_'
'Cyprus_'
'Cultural_'
'Congo_'
'Co_'
'Chamber_'
'Bu'
'British_'
'Brazil_'
'Be'
'Air_'
'A'
'88'
'70'
'6'
'5'
'4'
'30'
'23'
'22'
'05'
'.”_'
')'
' ]_'
' >>>_'
'і'
'ятся_'
'ядерных_'
'частей_'
'часов_'
'центра_'
'хся_'
'факторов_'
'фактор_'
'фа'
'уют_'
'утверждение_'
'ут'
'установления_'
'установить_'
'управление_'
'улучшения_'
'увеличить_'
'ту_'
'трудности_'
'тро'
'транспорта_'
'тот_'
'типа_'
'теле'
'существующих_'
'существует_'
'судов_'
'суд_'
'су'
'страна_'
'сти'
'статуса_'
'ст'
'ссылаясь_'
'срока_'
'средство_'
'сообщили_'
'сообщил_'
'содержит_'
'собственности_'
'служить_'
'следующей_'
'се'
'своими_'
'своим_'
'с'
'рынке_'
'ро'
'регулирования_'
'регионах_'
'региональными_'
'региональной_'
'раст'
'ран'
'развитых_'
'работать_'
'пунктам_'
'публикации_'
'просьбе_'
'проекты_'
'продуктов_'
'прогресса_'
'прогресс_'
'проведению_'
'прис'
'применяется_'
'прежде_'
'представляется_'
'предприятия_'
'предоставление_'
'предложил_'
'пределах_'
'практика_'
'праву_'
'правительству_'
'пост'
'последующей_'
'порядка_'
'полу'
'положении_'
'политика_'
'подчеркивает_'
'подтверждает_'
'пи'
'перевод_'
'первую_'
'осуществляет_'
'ор'
'онные_'
'озабоченность_'
'обо'
'о'
'ности_'
'нных_'
'несмотря_'
'независимости_'
'настоящем_'
'мых_'
'мся_'
'мониторинга_'
'могли_'
'много'
'млрд_'
'мин_'
'мигрантов_'
'ми'
'мен'
'малых_'
'лад'
'культурных_'
'консенсуса_'
'кодекса_'
'ки'
'ками_'
'иться_'
'используются_'
'информацией_'
'институтов_'
'затем_'
'заседаниях_'
'занимает_'
'заместителя_'
'законом_'
'заключается_'
'задачи_'
'загрязнения_'
'ж_'
'ер'
'ению_'
'ений_'
'емых_'
'ек'
'евро_'
'доноров_'
'должность_'
'документы_'
'докладчик_'
'делегаций_'
'делать_'
'двумя_'
'две_'
'данным_'
'группой_'
'группе_'
'гра'
'города_'
'глобальных_'
'гжа_'
'выхода_'
'второго_'
'встрече_'
'воз'
'взносы_'
'взаимодействия_'
'важным_'
'важное_'
'ва_'
'большинство_'
'би'
'аспектам_'
'ар'
'ана_'
'али_'
'ал'
'Целевой_'
'Ха'
'Х_'
'Ти'
'ТИ'
'Совету_'
'Следует_'
'Сегодня_'
'СО'
'РЕ'
'Приложение_'
'Право_'
'Пакта_'
'ПО_'
'Осуществление_'
'Молдова_'
'Ме'
'МО'
'Конвенцию_'
'Интернет_'
'Израилем_'
'Ва'
'ВЕ'
'é_'
'zation_'
'word_'
'welcome_'
'voluntary_'
'values_'
'valuable_'
'ur_'
'ul'
'uc'
'types_'
'turn_'
'trans'
'traditional_'
'torture_'
'to'
'things_'
'territorial_'
'ter'
'stri'
'station_'
'start_'
'something_'
'soldiers_'
'sky_'
'sion_'
'sha'
'serving_'
'science_'
'scheduled_'
'ri'
'reviews_'
'require_'
'religious_'
'regulation_'
'really_'
'radio_'
'quite_'
'pointed_'
'please_'
'planned_'
'places_'
'pe'
'pdf_'
'partnerships_'
'participated_'
'ordinary_'
'options_'
'opening_'
'offer_'
'offences_'
'negative_'
'mp'
'met_'
'medium_'
'mechanism_'
'man'
'ma'
'lives_'
'let_'
'labour_'
'ks_'
'ka'
'ji'
'ip'
'integrity_'
'integration_'
'illicit_'
'ill_'
'ie'
'huso_'
'horario_'
'hora_'
'honour_'
'hoc_'
'hands_'
'guarantee_'
'giving_'
'ght_'
'farmers_'
'families_'
'external_'
'expenditure_'
'eri'
'entities_'
'enterprises_'
'ended_'
'encourages_'
'efficient_'
'educational_'
'dollars_'
'doing_'
'documentation_'
'disabilities_'
'dis'
'determination_'
'defence_'
'ded_'
'debt_'
'conventions_'
'contracts_'
'contains_'
'consensus_'
'concrete_'
'conclusion_'
'committee_'
'co'
'click_'
'claim_'
'civilians_'
'cities_'
'centres_'
'caused_'
'capacities_'
'big_'
'average_'
'associated_'
'assets_'
'as'
'arrest_'
'appear_'
'anti'
'ana'
'alternative_'
'ai'
'affected_'
'ac'
'Your_'
'Web_'
'US'
'UNESCO_'
'UNEP_'
'Training_'
'Ti'
'Third_'
'Technology_'
'Syrian_'
'Strategic_'
'Soviet_'
'So_'
'Small_'
'Si'
'Saint_'
'SQL_'
'Room_'
'Requests_'
'RE'
'Official_'
'Of_'
'Note_'
'Northern_'
'Non_'
'Ministers_'
'Lord_'
'Log_'
'Ku'
'Karabakh_'
'Jun_'
'Jul_'
'Jan_'
'Indonesia_'
'Goals_'
'German_'
'Further_'
'Fri_'
'Forms_'
'Financing_'
'EUR_'
'Do'
'DE'
'Ci'
'Church_'
'Chinese_'
'Chair_'
'California_'
'CO'
'Business_'
'Aug_'
'Art'
'Another_'
'An'
'Al_'
'Al'
'Administration_'
'AL_'
'>> (_'
'<<_'
'<<< _'
'85'
'76_'
'65'
'52'
'39'
'36'
'35'
'32'
'2nd_'
'28'
'24'
'1985_'
'0'
',” _'
') "_'
'%_'
'":{"_'
' °_'
' = _'
'• _'
'яя_'
'ять_'
'языка_'
'юстиции_'
'юрисдикции_'
'эффективных_'
'этапа_'
'эгидой_'
'ьных_'
'широкого_'
'шин'
'частью_'
'частных_'
'ча'
'цы_'
'форме_'
'финансовой_'
'учитывая_'
'участником_'
'ут_'
'увеличение_'
'транспортного_'
'тор'
'тов_'
'тесно_'
'территориях_'
'те'
'тан'
'там_'
'т'
'считать_'
'стоимости_'
'степень_'
'статистических_'
'статистики_'
'способность_'
'социальные_'
'сотрудник_'
'соответствующими_'
'соответствующего_'
'соответствие_'
'созданию_'
'созда'
'содействию_'
'содействии_'
'согласованных_'
'см'
'следующий_'
'сказать_'
'силами_'
'сер'
'семье_'
'сектор_'
'секретариатом_'
'своему_'
'свидетельствует_'
'санкций_'
'самой_'
'са_'
'рядом_'
'ряда_'
'ровать_'
'результатах_'
'режим_'
'рамки_'
'разработку_'
'разработка_'
'разработать_'
'проекту_'
'продукции_'
'продолжительность_'
'продвижения_'
'проводить_'
'провел_'
'проблема_'
'принятой_'
'принятие_'
'применении_'
'призывом_'
'признательность_'
'предусмотрены_'
'предусмотрено_'
'предварительной_'
'правоохранительных_'
'правительствам_'
'правило_'
'потребления_'
'поступления_'
'порядок_'
'поощрение_'
'получили_'
'позиции_'
'пожалуйста_'
'подчеркнул_'
'подробно_'
'питания_'
'песни_'
'перечень_'
'переговоры_'
'партнерами_'
'пар'
'п_'
'официально_'
'отчетности_'
'отвечает_'
'особо_'
'орган_'
'определенных_'
'оказывает_'
'оказании_'
'оз'
'од'
'овые_'
'овой_'
'обычных_'
'обсуждение_'
'обработки_'
'обеспокоенность_'
'ну'
'необходимых_'
'необходимую_'
'недо'
'начале_'
'национальными_'
'наркотиков_'
'напоминает_'
'нами_'
'морских_'
'мин'
'методы_'
'местном_'
'мест_'
'ме'
'лен'
'ла'
'культурного_'
'крупных_'
'коррупции_'
'кор'
'команд'
'кол'
'ко'
'ких_'
'квоты_'
'какие_'
'исключительно_'
'исключением_'
'института_'
'имеющихся_'
'или'
'ила_'
'ик'
'заявлениями_'
'заявил_'
'зации_'
'законов_'
'з_'
'жени'
'жа'
'еб'
'е'
'дохода_'
'дома_'
'добиться_'
'государством_'
'главы_'
'выступил_'
'выразил_'
'выводов_'
'входят_'
'вступления_'
'вой_'
'вит'
'вайп_'
'большей_'
'бли'
'бер'
'бассейна_'
'базе_'
'ация_'
'ания_'
'ает_'
'адрес_'
'Ю_'
'Центральной_'
'Фе'
'ФАО_'
'То'
'Такие_'
'Си'
'Резолюция_'
'Ра'
'Программа_'
'Поскольку_'
'Помимо_'
'ОЭСР_'
'Необходимо_'
'НО'
'Мас'
'Мар'
'МА'
'Латинской_'
'Ла'
'ЛЕ'
'Кубы_'
'Комитету_'
'Комиссией_'
'КП'
'Йорке_'
'ЕР'
'Германии_'
'Га'
'Великобритании_'
'ВА'
'Беларусь_'
'Бар'
'Ба'
'Ад'
'ó'
'ä'
'à'
'ze_'
'ys_'
'ws_'
'wishes_'
'went_'
'video_'
'victim_'
've'
'ut'
'uses_'
'url_'
'update_'
'up'
'una'
'try_'
'treaties_'
'transparency_'
'ton_'
'threat_'
'ta_'
'suitable_'
'successfully_'
'step_'
'started_'
'stability_'
'spread_'
'soon_'
'sm_'
'similar_'
'signal_'
'settlements_'
'seem_'
'scheme_'
'sa'
'round_'
'ro'
'rn_'
'reviewed_'
'resulted_'
'responses_'
'resource_'
'residence_'
'rese'
'reforms_'
'refer_'
'reducing_'
'recovery_'
'recognize_'
'receiving_'
'reached_'
'rather_'
'ra'
'ption_'
'proper_'
'previously_'
'pre_'
'possibility_'
'positions_'
'pe_'
'parents_'
'paper_'
'pages_'
'oz'
'owned_'
'outer_'
'ost'
'os_'
'opened_'
'ones_'
'om'
'od'
'ny'
'nor_'
'm²_'
'ms_'
'modern_'
'mis'
'mind_'
'measured_'
'maximum_'
'maintaining_'
'maintain_'
'limit_'
'likely_'
'left_'
'killed_'
'ki'
'ke'
'is'
'intergovernmental_'
'initiated_'
'indicator_'
'ina'
'ility_'
'ier_'
'ical_'
'ial_'
'housing_'
'ge'
'gap_'
'forced_'
'followed_'
'fight_'
'female_'
'failed_'
'face_'
'excellent_'
'ever_'
'enough_'
'electronic_'
'eb'
'driver_'
'diseases_'
'disc'
'der_'
'den'
'delay_'
'corruption_'
'corporate_'
'cooperate_'
'contributing_'
'continues_'
'content_'
'contain_'
'consumption_'
'considering_'
'confidence_'
'complex_'
'compared_'
'commitments_'
'closed_'
'client_'
'class_'
'chi'
'che'
'ca'
'begin_'
'began_'
'attended_'
'assess_'
'asked_'
'appointed_'
'announced_'
'although_'
'advanced_'
'adults_'
'addressing_'
'acquisition_'
'accounts_'
'accessible_'
'[/_'
'Work_'
'WG_'
'Vladimir_'
'VII_'
'Turkmenistan_'
'Transport_'
'Torture_'
'To'
'Those_'
'Therefore_'
'Tajikistan_'
'Sustainable_'
'Sunday_'
'Statistics_'
'Shi'
'Sal'
'SA'
'Romania_'
'Recalling_'
'Re'
'Racial_'
'RA'
'Population_'
'Policy_'
'Police_'
'Or'
'ON_'
'Ni'
'Next_'
'Nagorno_'
'NO'
'NC'
'Morocco_'
'More_'
'Millennium_'
'Members_'
'MA'
'Lithuania_'
'List_'
'Linux_'
'Latvia_'
'Labour_'
'LA'
'Korea_'
'Ko'
'Ja'
'Its_'
'Italy_'
'Initiative_'
'In'
'Ho'
'Head_'
'He'
'HRC_'
'Greece_'
'For'
'Food_'
'Financial_'
'Fifth_'
'FT'
'Egypt_'
'Du'
'Disarmament_'
'Developing_'
'Deputy_'
'Decade_'
'Dec_'
'DI'
'Corr_'
'Coordination_'
'Con'
'Child_'
'Chairperson_'
'CH'
'Bi'
'Belgium_'
'Area_'
'AR'
'AND_'
'AD'
':'
'900_'
'77'
'74'
'71'
'66'
'57'
'1988_'
'195'
'191'
'17'
'16'
'123_'
'12'
'114_'
'109_'
'%, _'
'язык_'
'являющихся_'
'экономи'
'экологической_'
'экологически_'
'э'
'щие_'
'щение_'
'щая_'
'шесть_'
'шести_'
'шен'
'ше'
'чу'
'чных_'
'числу_'
'четыре_'
'цель_'
'ха'
'форум_'
'финансового_'
'финансировании_'
'финансирование_'
'фар'
'ущерб_'
'участниками_'
'ус'
'уменьшения_'
'ует_'
'удовлетворения_'
'угрозы_'
'уг'
'уведомления_'
'тя'
'тур'
'ту'
'требует_'
'транспортных_'
'техническим_'
'терроризмом_'
'тему_'
'тельно_'
'такую_'
'такая_'
'ся'
'считаем_'
'судебной_'
'страну_'
'стоит_'
'сто'
'станет_'
'специалистами_'
'сотрудничать_'
'соответственно_'
'сообщение_'
'содержащий_'
'содействовать_'
'совещаний_'
'события_'
'сложности_'
'следующих_'
'сих_'
'ситуация_'
'сексуальной_'
'секретарем_'
'сейчас_'
'связь_'
'связаны_'
'связанной_'
'свободу_'
'свидетельства_'
'самых_'
'руководство_'
'рода_'
'ров_'
'решению_'
'реформы_'
'ресурсам_'
'рекомендовал_'
'реб'
'реагирования_'
'расширению_'
'распределения_'
'располагает_'
'рас'
'района_'
'ра'
'путь_'
'пу'
'профессиональной_'
'просьбой_'
'прос'
'промышленных_'
'производство_'
'производственных_'
'проживания_'
'проводится_'
'принято_'
'принятии_'
'принципам_'
'принимая_'
'принимается_'
'применению_'
'приводится_'
'приверженность_'
'пресс_'
'премьер_'
'представленных_'
'представление_'
'пред'
'право'
'постановляет_'
'поправки_'
'поощрению_'
'понимания_'
'помочь_'
'подчеркнули_'
'повышение_'
'повестке_'
'планов_'
'план'
'па_'
'п'
'оценка_'
'охране_'
'охвата_'
'отсутствие_'
'ото'
'отношениях_'
'отношение_'
'остается_'
'ост'
'особенности_'
'основы_'
'основном_'
'осадков_'
'оружием_'
'он'
'омо'
'оль'
'оли'
'оказать_'
'озаглавленный_'
'одна_'
'овых_'
'ования_'
'общины_'
'общественности_'
'ну_'
'ночью_'
'нию_'
'нес'
'нг'
'насколько_'
'нарушение_'
'наличие_'
'найти_'
'назначения_'
'мужчинами_'
'му'
'многосторонних_'
'мнение_'
'ляет_'
'любой_'
'любого_'
'лицами_'
'лечения_'
'лет'
'лес'
'критериев_'
'комфортно_'
'комплексной_'
'кла'
'кий_'
'качества_'
'каким_'
'кадров_'
'йся_'
'итогам_'
'испытания_'
'исполнения_'
'исключения_'
'инициативы_'
'ина_'
'имеющих_'
'ились_'
'играет_'
'иг'
'зон'
'земель_'
'заместитель_'
'зале_'
'зависит_'
'зависимости_'
'заб'
'жертвам_'
'ес'
'енная_'
'еж'
'ев'
'дума'
'ду'
'достоинство_'
'дно'
'дней_'
'диалог_'
'десятилетия_'
'дело_'
'данный_'
'данному_'
'гуманитарного_'
'государственном_'
'гор'
'гео'
'ген'
'ге'
'г'
'вых_'
'выработки_'
'выполнению_'
'выполнение_'
'выбор_'
'вшие_'
'входит_'
'всю_'
'волн'
'возможных_'
'водо'
'во'
'внутри_'
'внести_'
'включают_'
'включает_'
'видео_'
'вес'
'ве'
'ваш_'
'важно_'
'бюджетных_'
'бюджет_'
'будущее_'
'бу'
'бра'
'большого_'
'большинства_'
'бедствий_'
'ассоциации_'
'ав'
'Южной_'
'ЮНИДО_'
'Цель_'
'Ц_'
'Управлением_'
'Украины_'
'Украина_'
'ТО'
'Советом_'
'РА'
'Пред'
'Пре'
'Подкомиссии_'
'По'
'Письмо_'
'От'
'Основные_'
'Общая_'
'Об'
'Новая_'
'Никарагуа_'
'Наша_'
'НА'
'Ми'
'Ку'
'Конго_'
'Когда_'
'Карибского_'
'Италии_'
'Исполнительного_'
'Израиля_'
'Израиль_'
'ИС'
'Закон_'
'З_'
'До_'
'До'
'Джа'
'Германия_'
'Вер'
'Бюро_'
'Более_'
'АО_'
'ñ'
'å'
'youth_'
'wine_'
'wind_'
'win'
'welcomes_'
'war'
'wa'
'vision_'
'ving_'
'vessels_'
'ver'
'ved_'
'va_'
'va'
'uns'
'um'
'ual_'
'ua_'
'tro'
'tried_'
'trial_'
'trends_'
'ters_'
'te'
'tax_'
'tary_'
'sur'
'summary_'
'suggested_'
'successful_'
'subsidiary_'
'su'
'structure_'
'strengthened_'
'spoke_'
'specialized_'
'speaking_'
'sort_'
'short_'
'setting_'
'seconds_'
'scope_'
'rt_'
'ro_'
'rm'
'respectively_'
'resolve_'
'res_'
'renewed_'
'religion_'
'recommend_'
'ready_'
'rating_'
'race_'
'r'
'que_'
'prohibited_'
'procurement_'
'pressure_'
'preparing_'
'preparatory_'
'pool_'
'personal_'
'penalty_'
'passed_'
'pass'
'participating_'
'owing_'
'overcome_'
'outstanding_'
'otherwise_'
'ori'
'ol'
'observations_'
'o'
'north_'
'ning_'
'newly_'
'networks_'
'nd'
'mutual_'
'multi_'
'moment_'
'min'
'meters_'
'meaning_'
'marriage_'
'maintained_'
'look_'
'logical_'
'lly_'
'little_'
'links_'
'ld_'
'it'
'ist_'
'island_'
'involvement_'
'invitation_'
'intervention_'
'instrument_'
'inform_'
'inf'
'inclusion_'
'improvement_'
'ile'
'ig'
'identification_'
'hon'
'holding_'
'history_'
'heritage_'
'ha'
'growing_'
'ging_'
'generated_'
'generally_'
'game3a_'
'freedoms_'
'forums_'
'format_'
'focused_'
'fees_'
'fair_'
'extent_'
'exploitation_'
'exe'
'er'
'enterprise_'
'endorsed_'
'emphasized_'
'eli'
'electoral_'
'ed'
'drive_'
'download_'
'double_'
'donors_'
'division_'
'disa'
'di'
'determine_'
'der'
'depending_'
'demo'
'dedicated_'
'criteria_'
'coverage_'
'containing_'
'contact_'
'considerable_'
'consequences_'
'computer_'
'compensation_'
'check_'
'characteristics_'
'century_'
'causes_'
'cation_'
'campaign_'
'ca_'
'bri'
'box_'
'book_'
'board_'
'became_'
'bathroom_'
'ative_'
'asylum_'
'arising_'
'appointment_'
'anniversary_'
'amp_'
'amended_'
'ali'
'aims_'
'agricultural_'
'advisory_'
'actors_'
'achievement_'
'accountability_'
'ab'
'][_'
'][/_'
'Zealand_'
'Youth_'
'Year_'
'Ya'
'Western_'
'Weapons_'
'Vo'
'Vice_'
'Venezuela_'
'VIII_'
'UNFPA_'
'Turkish_'
'Tu'
'Time_'
'Then_'
'The'
'Thailand_'
'Terrorism_'
'Table_'
'TR'
'TO_'
'Syria_'
'Strategy_'
'St_'
'Send_'
'Science_'
'Safety_'
'ST_'
'Resources_'
'Resolution_'
'Red_'
'Principles_'
'Press_'
'Pre'
'Paris_'
'Pages_'
'Original_'
'Officer_'
'OHCHR_'
'Now_'
'Notes_'
'Mongolia_'
'Minsk_'
'Mil'
'Media_'
'Mauritius_'
'ME'
'Liechtenstein_'
'Ki'
'Ken'
'Keeper_'
'Kar'
'Ka'
'KASE_'
'Je'
'Integrated_'
'IP'
'INF_'
'IMG_'
'ILO_'
'Hu'
'HO'
'GDP_'
'Following_'
'FOR_'
'FAO_'
'Ethiopia_'
'Energy_'
'EU_'
'ES_'
'ER'
'Denmark_'
'Decides_'
'Darfur_'
'Colombia_'
'Children_'
'Center_'
'Can'
'COMMITTEE_'
'CE'
'Bra'
'Ber'
'Bangladesh_'
'Although_'
'Ak'
'Ab'
'AP'
'> <_'
'<_'
': [_'
'92_'
'91_'
'91'
'90'
'9'
'88_'
'87'
'8'
'76'
'72'
'68'
'58'
'50'
'38'
'34'
'29'
'27'
'25H_'
'250_'
'1967_'
'14'
'113_'
'102_'
'10'
'06'
'04'
'/'
'-'
'+'
'))._'
'( _'
'# _'
'" '
' <_'
' ('
' #._'
'”, _'
'”'
'ят'
'ясно_'
'ян'
'ющим_'
'эффективной_'
'этапе_'
'ья_'
'ща'
'шо'
'чистое_'
'численности_'
'четвертой_'
'честь_'
'ческий_'
'чен'
'че'
'цен'
'химических_'
'фер'
'факторы_'
'учащихся_'
'участвовать_'
'уч'
'утверждает_'
'услугам_'
'ур'
'управляющих_'
'ум'
'улучшению_'
'указать_'
'удалось_'
'тыс_'
'три'
'транспортные_'
'точно_'
'торгов'
'тогда_'
'тно'
'температур'
'теми_'
'считается_'
'судом_'
'стандарты_'
'стала_'
'стабильности_'
'средствами_'
'спорт'
'союз_'
'содержащихся_'
'современных_'
'снижения_'
'служба_'
'словами_'
'слов'
'сло'
'следующего_'
'сле'
'сеть_'
'сентябре_'
'свете_'
'са'
'ря'
'ры'
'рот'
'рос'
'ресурсами_'
'религии_'
'рек'
'рез'
'регионального_'
'рг'
'рассмотрению_'
'рассматриваются_'
'рассматривает_'
'распространению_'
'распоряжении_'
'район'
'разр'
'различным_'
'разделе_'
'развивающимися_'
'раза_'
'равно'
'р'
'пунктом_'
'прямо_'
'протокола_'
'проверки_'
'применяются_'
'приложения_'
'президента_'
'предусмотренных_'
'представляют_'
'представлена_'
'представили_'
'предотвращению_'
'превышает_'
'пре'
'практику_'
'практикой_'
'праве_'
'потенциал_'
'последних_'
'помещений_'
'пользователей_'
'полученных_'
'политического_'
'политическим_'
'политические_'
'позднее_'
'позволяют_'
'подс'
'подразделения_'
'подо'
'поддержка_'
'подготовка_'
'площад'
'персонал_'
'периоды_'
'перевозок_'
'первое_'
'пер'
'оценок_'
'официальных_'
'отношению_'
'открывается_'
'оставаться_'
'осведомленности_'
'ос'
'ори'
'органом_'
'опустится_'
'онных_'
'они'
'оло'
'октябре_'
'оккупированных_'
'ой'
'одновременно_'
'ов'
'обычного_'
'обычно_'
'общее_'
'обсуждений_'
'обре'
'обмена_'
'нта'
'нс'
'ники_'
'нетерпимости_'
'несут_'
'несо'
'нескольких_'
'непри'
'неправительственными_'
'нельзя_'
'незаконного_'
'независимо_'
'неделю_'
'не'
'наших_'
'народы_'
'наркотиками_'
'названием_'
'н'
'морской_'
'мой_'
'мог_'
'мм_'
'миссий_'
'мирных_'
'миграции_'
'международное_'
'мар'
'мае_'
'любое_'
'лон'
'лом'
'лат'
'л'
'круга_'
'кризиса_'
'коренные_'
'контролю_'
'конкретным_'
'комп'
'комитетом_'
'комиссией_'
'ком_'
'количества_'
'кое_'
'кодекс_'
'ков_'
'ков'
'класс'
'кие_'
'кампании_'
'каждой_'
'июне_'
'ится_'
'исследование_'
'испытаний_'
'ируется_'
'инфраструктур'
'инструментов_'
'иной_'
'ини'
'ина'
'имеются_'
'им'
'ил'
'ией_'
'ивать_'
'зо'
'значения_'
'зна'
'заявляет_'
'заявили_'
'занимающихся_'
'зам'
'законодательство_'
'заинтересованными_'
'завершения_'
'жилья_'
'жертв_'
'ж'
'ет'
'ент'
'енного_'
'ением_'
'ем'
'ель_'
'ежегодно_'
'едино'
'европейских_'
'другое_'
'друг_'
'достаточно_'
'доля_'
'дол'
'документации_'
'докладчика_'
'доказательства_'
'договора_'
'договор'
'дн'
'дис'
'детям_'
'денег_'
'действиях_'
'движения_'
'дальнейшего_'
'дает_'
'гражданство_'
'гражданским_'
'государственный_'
'глобальной_'
'главных_'
'выявления_'
'выплаты_'
'вызывает_'
'всеми_'
'все'
'вс'
'впредь_'
'возраста_'
'возраст'
'воздух_'
'военной_'
'воды_'
'вод_'
'вод'
'вого_'
'внедрения_'
'вне'
'включены_'
'вид_'
'ви'
'взаимодействие_'
'взаимо'
'вз'
'вести_'
'вариантов_'
'вариант'
'большой_'
'большинством_'
'благо'
'бизнеса_'
'бар'
'банка_'
'б_'
'аются_'
'ают_'
'ати'
'ассоциаций_'
'ассигнования_'
'ари'
'ап'
'аны_'
'ание_'
'ани'
'ана'
'адаптации_'
'ага'
'Эн'
'Ше'
'Ша'
'Ш'
'Хо'
'Финансирование_'
'Фа'
'Утверждение_'
'Те'
'Се'
'СНГ_'
'Прочие_'
'Представитель_'
'Постоянный_'
'Пакистана_'
'ПРО'
'Отель_'
'От_'
'Новой_'
'Не_'
'НТ'
'Многие_'
'Министр_'
'Меж'
'Ман'
'МЕ'
'Лу'
'Корея_'
'Кон'
'Китая_'
'Ки'
'Канад'
'КА'
'Йорк_'
'Испания_'
'Ирака_'
'Информация_'
'Индии_'
'Закона_'
'Женеве_'
'Жа'
'Европе_'
'Другие_'
'Де'
'Дата_'
'ГИ'
'Ве'
'ВТО_'
'Бор'
'Бер'
'Ар'
'Александр_'
'ö'
'á'
'Òåìà_'
'¸_'
'´_'
'° _'
'® _'
'zi'
'zed_'
'worldwide_'
'workshops_'
'ware_'
'visited_'
'viewtopic_'
'vely_'
'vegetables_'
'uri'
'urgent_'
'urged_'
'urban_'
'unless_'
'unlawful_'
'understand_'
'under'
'trust_'
'tru'
'troop_'
'tri'
'transnational_'
'translation_'
'town_'
'tools_'
'tics_'
'thought_'
'thirty_'
'thereby_'
'thematic_'
'the'
'territories_'
'ten'
'teams_'
'tan'
'supplies_'
'substances_'
'subsequent_'
'subprogramme_'
'sto'
'sti'
'starting_'
'standing_'
'st'
'spo'
'speech_'
'spa'
'sovereignty_'
'smaller_'
'simply_'
'simple_'
'signing_'
'shi'
'shares_'
'sex_'
'sentence_'
'sense_'
'send_'
'sen'
'selection_'
'secure_'
'satellite_'
'sanctions_'
'ries_'
'ric'
'revision_'
'resulting_'
'reserved_'
'reserve_'
'reservation_'
'reproductive_'
'represent_'
'remote_'
'relief_'
'refugee_'
'reflect_'
'reconciliation_'
'ratification_'
'pur'
'punishment_'
'protecting_'
'protected_'
'productivity_'
'prison_'
'print_'
'primarily_'
'presentation_'
'presence_'
'pregnancy_'
'pp'
'placed_'
'pi'
'photo_'
'permission_'
'per'
'parking_'
'ov_'
'ot'
'oral_'
'oo'
'og'
'offered_'
'obtain_'
'nu'
'noting_'
'normal_'
'nine_'
'nes_'
'nces_'
'nc'
'nar'
'mu'
'morning_'
'mobility_'
'mo'
'mini'
'mean_'
'mb'
'mat'
'mas'
'mark_'
'maps_'
'managers_'
'mal'
'makes_'
'mainly_'
'mail_'
'li'
'len'
'legitimate_'
'ky_'
'justified_'
'jo'
'ists_'
'ist'
'investments_'
'interested_'
'intensify_'
'instance_'
'indeed_'
'inde'
'impe'
'id'
'ice_'
'ians_'
'hour_'
'hotels_'
'hin'
'himself_'
'her'
'heard_'
'harm_'
'hard_'
'har'
'happen_'
'han'
'guests_'
'granted_'
'grant_'
'governments_'
'geo'
'fore'
'focal_'
'fo'
'flo'
'flash_'
'extra'
'extension_'
'extended_'
'explain_'
'experiences_'
'expe'
'expansion_'
'exist_'
'examine_'
'eo'
'encouraging_'
'emission_'
'emerging_'
'em'
'effectively_'
'easily_'
'eas'
'ea'
'dy_'
'dra'
'don_'
'do'
'dit'
'discuss_'
'disability_'
'diplomatic_'
'difference_'
'designated_'
'des_'
'des'
'declared_'
'de'
'dates_'
'database_'
'cut_'
'creating_'
'courses_'
'counter_'
'coordinating_'
'convening_'
'controlled_'
'contributed_'
'considerations_'
'consent_'
'confirmed_'
'components_'
'comply_'
'competitive_'
'competent_'
'closely_'
'classes_'
'citizen_'
'ce'
'car'
'candidates_'
'calling_'
'cal_'
'bur'
'bu'
'bilateral_'
'belief_'
'bad_'
'attacks_'
'ath'
'approximately_'
'appears_'
'ang'
'an'
'ale'
'aggression_'
'ages_'
'advocacy_'
'advance_'
'actively_'
'Za'
'XXI_'
'Water_'
'Wa'
'Va'
'VE'
'Use_'
'USD_'
'UNITED_'
'UNIDO_'
'Tur'
'Transmitted_'
'Thursday_'
'Thu_'
'TA'
'Ste'
'Standard_'
'Staff_'
'Southern_'
'Somalia_'
'Society_'
'So'
'Slovakia_'
'Sierra_'
'Sho'
'Section_'
'Se'
'Rules_'
'Research_'
'Representatives_'
'Reco'
'RT'
'Quality_'
'Pu'
'Prosecutor_'
'Preparatory_'
'Power_'
'Planning_'
'Petersburg_'
'Pat'
'Paragraph_'
'Operations_'
'Open_'
'OS_'
'OIOS_'
'Nuclear_'
'Nicaragua_'
'NATIONS_'
'Museum_'
'Mu'
'Most_'
'Model_'
'Many_'
'Machine_'
'MP_'
'Lyrics_'
'Letter_'
'Let_'
'Leone_'
'Le'
'Last_'
'LI'
'Jordan_'
'Islands_'
'Inter_'
'Ins'
'Informal_'
'IN_'
'IN'
'IF'
'IC_'
'Hungary_'
'Having_'
'HA'
'Gu'
'Georgia_'
'Gaza_'
'GRE_'
'Fu'
'Fourth_'
'Fil'
'Earth_'
'Download_'
'Don'
'Customs_'
'Cu'
'Company_'
'Community_'
'Chi'
'Check_'
'Cha'
'Ce'
'Cambodia_'
'CEDAW_'
'CD_'
'Bureau_'
'Bur'
'Booking_'
'Bel'
'Beijing_'
'Assistant_'
'Army_'
'Argentina_'
'Apr_'
'Among_'
'Alexander_'
'Ad'
'Academy_'
'AT'
'='_'
'94'
'93'
'87_'
'82_'
'82'
'78'
'69'
'67'
'62'
'51'
'45'
'25'
'214_'
'212_'
'21'
'1980_'
'1979_'
'1969_'
'1968_'
'193'
'175_'
'141_'
'132_'
'13'
'125_'
'112_'
'110_'
'103_'
'02'
'/>_'
','
'),_'
'$ _'
'" /></_'
' €_'
' ***** _'
' % _'
'”_'
'“'
'– _'
'яют_'
'юю_'
'ющей_'
'эн'
'эль_'
'элементы_'
'электро'
'школу_'
'школах_'
'широкой_'
'широкий_'
'шестьдесят_'
'шестой_'
'ша'
'ш'
'ческой_'
'ческие_'
'чемпион_'
'человеческого_'
'цию_'
'ций_'
'цией_'
'цен_'
'це'
'цар'
'ху'
'хт'
'хранения_'
'хотела_'
'хан'
'фра'
'форума_'
'фактов_'
'факт_'
'учреждениям_'
'учебные_'
'участникам_'
'участии_'
'успешно_'
'урегулирования_'
'уп'
'унижающих_'
'улучшить_'
'укреплении_'
'удовлетворение_'
'уделять_'
'угрозу_'
'уголовному_'
'уб'
'тт'
'труд_'
'тру'
'транзита_'
'тра'
'топлива_'
'тип_'
'тен'
'тель_'
'тво'
'тва_'
'тал'
'сферы_'
'существенно_'
'сумму_'
'стратегических_'
'столь_'
'стер'
'статью_'
'стандарт'
'стан'
'сталкиваются_'
'ставке_'
'справедливо'
'справ'
'спорта_'
'специального_'
'социально_'
'сохранения_'
'составления_'
'сорок_'
'соответствующий_'
'сообщить_'
'сообщество_'
'сокращению_'
'сокращение_'
'соединения_'
'совместных_'
'совместной_'
'совместного_'
'совершенствования_'
'соблюдение_'
'соблюдать_'
'сно'
'случая_'
'слоев_'
'слово_'
'следующем_'
'сервис'
'свидетельствуют_'
'сбор'
'сан'
'сами_'
'рынка_'
'родителей_'
'род'
'ров'
'риска_'
'рис'
'ри_'
'решать_'
'речь_'
'реформе_'
'рекомендуется_'
'рекомендацию_'
'режиме_'
'региональным_'
'расширить_'
'расчета_'
'расследования_'
'расовой_'
'рам'
'разрешения_'
'рабочую_'
'работает_'
'работа'
'пяти_'
'пят'
'путей_'
'публикаций_'
'просьбы_'
'просьба_'
'пространство_'
'просто_'
'происходит_'
'продовольственной_'
'прогреется_'
'проводит_'
'проблему_'
'проблемой_'
'проблемам_'
'проб'
'про'
'причин_'
'причем_'
'природных_'
'принципами_'
'применением_'
'приме'
'призыв_'
'признаку_'
'приветствует_'
'привело_'
'предыдущие_'
'представлять_'
'предотвращения_'
'практических_'
'практически_'
'правосудию_'
'правом_'
'правозащитных_'
'правительственных_'
'правительствами_'
'постановила_'
'пособия_'
'последующие_'
'попрежнему_'
'помимо_'
'получа'
'полно'
'позволит_'
'позволило_'
'подразделений_'
'подготовить_'
'повысить_'
'пис'
'перес'
'первом_'
'пе'
'пат'
'параллельно_'
'палат'
'пакта_'
'ох'
'официального_'
'отчеты_'
'отс'
'отражает_'
'отра'
'отмечая_'
'отбора_'
'остью_'
'островов_'
'острова_'
'основыва'
'основания_'
'орд'
'оратор'
'ора'
'определить_'
'оп'
'онлайн_'
'ол'
'оказывают_'
'ознакомиться_'
'одобрен'
'одно'
'ограничения_'
'ован'
'объектов_'
'общую_'
'обществом_'
'общественных_'
'общественного_'
'обще'
'обращаться_'
'образ'
'оборота_'
'обоих_'
'облаками_'
'обладает_'
'обеспокоен_'
'нынешней_'
'новую_'
'нным_'
'нные_'
'ничего_'
'ников_'
'ник_'
'нием_'
'нет'
'несет_'
'неравенства_'
'непосредственно'
'немного_'
'нашего_'
'национальным_'
'населенным_'
'населению_'
'направленных_'
'наконец_'
'надлежащим_'
'молодых_'
'могла_'
'мировой_'
'мир_'
'министерства_'
'механизм_'
'мер'
'меньшей_'
'материально_'
'мат'
'маршрут'
'марте_'
'максимально_'
'лёгкий_'
'льно'
'лед'
'курс_'
'кур'
'кругов_'
'корректировки_'
'конфликт'
'конвенций_'
'компаний_'
'комиссия_'
'категорий_'
'касаются_'
'кар'
'какого_'
'йк'
'их'
'исходя_'
'ирование_'
'интересов_'
'ино'
'инициатив_'
'инженер'
'ине'
'имел_'
'ики_'
'измерения_'
'изменить_'
'известно_'
'изации_'
'идеи_'
'иде'
'ид'
'ибо_'
'здоровье_'
'заявлений_'
'заявила_'
'затянуто_'
'заработной_'
'западно'
'замен'
'законодательные_'
'законно'
'заболевания_'
'жестоких_'
'жела'
'жд'
'жал'
'ею_'
'ено_'
'енный_'
'енные_'
'емого_'
'ез'
'дра'
'достижение_'
'дополнительную_'
'дополнительной_'
'дополнение_'
'должным_'
'документах_'
'договоров_'
'договорных_'
'добавить_'
'директор_'
'ди_'
'дальнейшей_'
'гуманитарных_'
'град'
'готов'
'государственные_'
'городов_'
'гендерной_'
'гарантировать_'
'газов_'
'высоко_'
'высоко'
'выра'
'выполнении_'
'выводы_'
'выбора_'
'выбор'
'вшиеся_'
'вст'
'вследствие_'
'временно'
'восстановления_'
'вор'
'вопросом_'
'возвращение_'
'вов'
'внешних_'
'внесения_'
'внесении_'
'влияние_'
'виду_'
'взять_'
'вен'
'века_'
'вар'
'вал'
'бюджете_'
'будь_'
'будущего_'
'бремени_'
'бре'
'большую_'
'большим_'
'боеприпасов_'
'ближнего_'
'без'
'банк'
'бал'
'ба_'
'ба'
'ах'
'атор'
'ара_'
'анти'
'ан'
'аль_'
'аль'
'али'
'активного_'
'ак'
'аз'
'авторов_'
'автора_'
'автор_'
'Японии_'
'ЮНЕСКО_'
'Эле'
'Чтобы_'
'Ча'
'Уже_'
'УП'
'Ту'
'Тихого_'
'Также_'
'Так_'
'ТА'
'Суда_'
'Су'
'Сте'
'Сп'
'Социального_'
'Солнца_'
'Система_'
'Сер'
'Сентябрь_'
'Сан'
'Сам'
'СС'
'СПИДа_'
'СП'
'СИ'
'СЕ'
'Россия_'
'Ри'
'Рас'
'Работа_'
'Пу'
'Просьба_'
'Председателем_'
'Пост'
'Положения_'
'Положение_'
'Оценка_'
'Описание_'
'Оно_'
'Ок'
'ОТ'
'ОР'
'ОД'
'Ново'
'Ни'
'Несмотря_'
'Нед'
'Национальной_'
'НС'
'Меры_'
'Международная_'
'Мак'
'МООН'
'МИ'
'МАГАТЭ_'
'ЛА'
'Коста_'
'Косово_'
'Конвенция_'
'Конвенцией_'
'Кас'
'Канада_'
'Кам'
'Каждый_'
'Й'
'Ис'
'Ио'
'Институт_'
'Из'
'ИКТ_'
'ИЕ_'
'Зеландия_'
'Заседание_'
'Записка_'
'Женева_'
'Еще_'
'Европейской_'
'ЕС_'
'Добавлено_'
'Джи'
'Департамент_'
'Демократической_'
'Гу'
'Государство_'
'Глава_'
'ГЭ'
'Всемирного_'
'Вопрос_'
'Воз'
'Верховный_'
'Вал'
'Бразилия_'
'Бра'
'Бо'
'Би'
'Бел'
'Б_'
'Африка_'
'Аргентина_'
'Аль'
'ë'
'é'
'ç'
'zz'
'yan_'
'witness_'
'widely_'
'west_'
'wealth_'
'walk_'
'wages_'
'wa_'
'vulnerability_'
'vital_'
'visual_'
'visits_'
'visitors_'
'ut_'
'ures_'
'unique_'
'ul_'
'ue_'
'troops_'
'tourist_'
'tor_'
'til'
'though_'
'ten_'
'tch_'
'substance_'
'subs'
'subjects_'
'strongly_'
'sting_'
'stay_'
'stations_'
'specialists_'
'speak_'
'sought_'
'solidarity_'
'significantly_'
'sides_'
'shown_'
'sharing_'
'seminar_'
'seeking_'
'sea'
'scr'
'sch'
'sc'
'says_'
'san'
'running_'
'rta'
'ric_'
'revised_'
'ret'
'res'
'representing_'
'represented_'
'reportedly_'
'ren'
'regardless_'
'records_'
'recognition_'
'rec'
'reason_'
'rc'
'ratio_'
'rapid_'
'raise_'
'purchase_'
'ps'
'principal_'
'pri'
'premises_'
'port'
'populations_'
'pol'
'playing_'
'players_'
'ping_'
'perspective_'
'performed_'
'percentage_'
'payments_'
'pan_'
'over'
'output_'
'outcomes_'
'ou'
'ot_'
'organs_'
'organizational_'
'offering_'
'offence_'
'odi'
'occupation_'
'observers_'
'ob'
'ny_'
'nuts_'
'nta'
'nt'
'notice_'
'neither_'
'ned_'
'my'
'multi'
'movements_'
'mon'
'model_'
'ministries_'
'min_'
'migration_'
'methodology_'
'manufacturing_'
'mandatory_'
'mandates_'
'machine_'
'love_'
'loss_'
'lists_'
'lining_'
'lin'
'lie_'
'lic'
'library_'
'let'
'les'
'leaders_'
'launched_'
'languages_'
'land'
'ku'
'kt'
'ko_'
'kha'
'keep_'
'judge_'
'ium_'
'ir_'
'ir'
'io_'
'involve_'
'investigate_'
'intolerance_'
'interpretation_'
'inter'
'intention_'
'inte'
'instructions_'
'inside_'
'ing'
'indicate_'
'inc'
'immigration_'
'illegal_'
'ideal_'
'ide_'
'ica'
'humanity_'
'htm_'
'host_'
'hor'
'helps_'
'height_'
'hei'
'heart_'
'gu'
'grave_'
'goal_'
'get'
'genuine_'
'gave_'
'gat'
'gar'
'front_'
'fre'
'focusing_'
'fla'
'fi'
'fer'
'factors_'
'facilitating_'
'eyes_'
'extensive_'
'ext'
'expression_'
'exposed_'
'explore_'
'explanation_'
'execution_'
'executed_'
'ex_'
'everything_'
'everyone_'
'eve'
'estimates_'
'ess'
'es'
'ery_'
'err'
'era'
'equity_'
'ep'
'entrusted_'
'ensures_'
'enjoyment_'
'enhanced_'
'end'
'emphasis_'
'elimination_'
'eight_'
'effectiveness_'
'ee'
'eastern_'
'duration_'
'du'
'drafted_'
'dissemination_'
'disputes_'
'disease_'
'disaster_'
'directed_'
'dimensions_'
'digital_'
'difficulties_'
'dia'
'devices_'
'destination_'
'despite_'
'democratic_'
'defe'
'decrease_'
'declaration_'
'decides_'
'decades_'
'decade_'
'dec'
'dealing_'
'cutting_'
'currentAverageRating_'
'crucial_'
'covers_'
'cos'
'correct_'
'coordinated_'
'constitutional_'
'conjunction_'
'confrontation_'
'completion_'
'competence_'
'colour_'
'clients_'
'cla'
'choose_'
'cho'
'ches_'
'charged_'
'cat'
'cap'
'candidate_'
'buildings_'
'build_'
'bre'
'bound_'
'born_'
'birth_'
'ber'
'benefit_'
'ben'
'beds_'
'bar'
'banking_'
'ban_'
'ba'
'au_'
'au'
'attend_'
'attempts_'
'atmosphere_'
'ates_'
'assessed_'
'army_'
'ard_'
'appreciation_'
'appreciated_'
'appeal_'
'apartment_'
'ans_'
'ani'
'ance_'
'amounted_'
'amend_'
'als_'
'alleged_'
'airport_'
'agriculture_'
'advancement_'
'ado'
'add_'
'achievements_'
'Yerevan_'
'XP_'
'War_'
'WHO_'
'Uni'
'Two_'
'Trust_'
'Tru'
'Their_'
'Tanzania_'
'TI'
'TE'
'System_'
'Sweden_'
'Supreme_'
'Sub_'
'Statement_'
'Sports_'
'Slovenia_'
'Sim'
'Ser'
'Scientific_'
'Saudi_'
'SC'
'Roma_'
'Ro'
'Ri'
'Rep'
'Region_'
'Refugees_'
'Q'
'Private_'
'Price_'
'Platform_'
'Philippines_'
'Persons_'
'Par'
'Pan'
'Pakistan_'
'PRO'
'PP_'
'Over_'
'Order_'
'Op'
'On'
'Olympic_'
'Oct_'
'Nov_'
'Not_'
'Nepal_'
'NGOs_'
'Montenegro_'
'Microsoft_'
'Mari'
'Mag'
'MP'
'Ltd_'
'Local_'
'Lea'
'LO'
'Kenya_'
'Jerusalem_'
'Italian_'
'Is'
'Ir'
'Introduction_'
'Internal_'
'Indigenous_'
'Independent_'
'ISO_'
'ION_'
'IE'
'ID_'
'IB'
'House_'
'Hi'
'Ham'
'HR'
'Guinea_'
'Go'
'Gender_'
'Gar'
'Friday_'
'Flash_'
'Fire'
'Finland_'
'Fi'
'Fa'
'ET'
'ENT'
'EC'
'Date_'
'Dar'
'Dan'
'Da'
'Cross_'
'Croatia_'
'Countries_'
'Costa_'
'Cor'
'Contracting_'
'Constitutional_'
'Concerning_'
'Comp'
'Com'
'Chile_'
'Chapter_'
'Ca'
'CR'
'CO_'
'COP_'
'CERD_'
'CA'
'Bulgaria_'
'Budgetary_'
'Bri'
'Bre'
'Besides_'
'Before_'
'BA'
'Austria_'
'At'
'Appro'
'Ap'
'Algeria_'
'Agriculture_'
'Additional_'
'Acting_'
'AS'
'AI'
'?'
'99'
'95'
'86'
'81'
'71_'
'63'
'60'
'59'
'54'
'43'
'41'
'37'
'20'
'1981_'
'190'
'188'
'18'
'159_'
'140'
'133_'
'119_'
'118_'
'117_'
'111_'
'108'
'01'
'... _'
'...'
'.)._'
'. • _'
'. - _'
', “_'
')/_'
'), (_'
'' '
'###_'
'", "_'
' ] _'
' > _'
' ****** _'
'…_'
'яются_'
'ятия_'
'яется_'
'яет_'
'яд'
'ющихся_'
'юридически'
'юго_'
'юг'
'эффективное_'
'эффект'
'этнических_'
'этап_'
'электронных_'
'эл'
'экспорта_'
'экспорт'
'экономический_'
'экономические_'
'экологических_'
'э_'
'ья'
'ьте_'
'ьс'
'ьно'
'ьер'
'ыт'
'ыс'
'ывает_'
'щин'
'щий_'
'ще'
'шь_'
'штаб_'
'школы_'
'школ_'
'шир'
'чь_'
'чрезвычайной_'
'чист'
'четко_'
'четверт'
'ческом_'
'ческое_'
'частным_'
'част'
'центры_'
'ценности_'
'целостности_'
'цев_'
'цвет'
'ц'
'хотели_'
'хорошо_'
'химического_'
'характеристики_'
'фт'
'форум'
'финансовый_'
'ф_'
'ующ'
'уются_'
'учесть_'
'учебных_'
'устройство_'
'устойчивое_'
'установление_'
'успехов_'
'условии_'
'усл'
'усилиях_'
'ус_'
'уровнем_'
'урн'
'уничтожения_'
'укрепить_'
'указывается_'
'указанием_'
'ук'
'уется_'
'удовлетворен'
'уделяется_'
'уд'
'увеличения_'
'убийства_'
'убежища_'
'убеждений_'
'у'
'тс'
'трудностей_'
'третьего_'
'требование_'
'традиционно_'
'торговых_'
'тор_'
'терроризма_'
'территорию_'
'тер'
'тенденций_'
'тенге_'
'тема_'
'тел'
'текущих_'
'тар'
'такими_'
'сценари'
'сферу_'
'существуют_'
'существова'
'существенное_'
'сухо_'
'судьи_'
'судебного_'
'структур_'
'стро'
'стрелкового_'
'стратегию_'
'страновых_'
'стра'
'стоя'
'стоимость_'
'ст_'
'сс'
'средних_'
'среднем_'
'средне'
'сразу_'
'сражение_'
'способности_'
'спо'
'список_'
'специальный_'
'специализированные_'
'социальным_'
'сотрудникам_'
'соответствующее_'
'соображениям_'
'содержащиеся_'
'содержат'
'согласования_'
'согласован'
'согласия_'
'совершение_'
'соверша'
'сна'
'смогли_'
'случаи_'
'службу_'
'служб_'
'служ'
'следовательно_'
'ском_'
'ским_'
'ск'
'ситуацию_'
'син'
'сил'
'си'
'серии_'
'сен'
'сел'
'секретарю_'
'свобод_'
'сбор_'
'сбалансированно'
'самостоятельно'
'руб'
'рс'
'рон'
'рит'
'рисков_'
'рет'
'рес'
'рем'
'режимов_'
'режима_'
'ред'
'ревизии_'
'ре'
'рд'
'рассмотрел_'
'расположены_'
'расп'
'расовых_'
'рамок_'
'рал'
'разработкой_'
'разработан_'
'разно'
'размер_'
'различными_'
'раздел'
'разд'
'развитием_'
'развивающимся_'
'развед'
'разбирательства_'
'радио'
'равенство_'
'рав'
'работой_'
'работающих_'
'работают_'
'прямого_'
'противоречи'
'противо'
'просто'
'пропаганд'
'пром'
'производстве_'
'проектам_'
'продолжают_'
'продолжал'
'проводиться_'
'проведены_'
'проблематики_'
'проб_'
'принимают_'
'прин'
'прида'
'претензии_'
'прес'
'преимуществ'
'предусмотренные_'
'предусмотренной_'
'представленным_'
'представленный_'
'представленные_'
'представителями_'
'представила_'
'предложить_'
'предложено_'
'предварительного_'
'почему_'
'потери_'
'поступлений_'
'постоянных_'
'постановляющей_'
'постановил_'
'поставить_'
'последствиях_'
'посещения_'
'порт'
'пор'
'понять_'
'пон'
'получил_'
'получают_'
'получать_'
'полное_'
'показывает_'
'позицию_'
'подпрограммы_'
'подобные_'
'повестку_'
'поблагодарить_'
'пленарном_'
'платеж'
'планирует_'
'письмо_'
'письма_'
'печати_'
'пересмотреть_'
'перепис'
'перемещенных_'
'передаче_'
'переведен'
'пенсии_'
'партнерства_'
'партнерам_'
'парламент'
'пакет'
'официальный_'
'отчетов_'
'отчет_'
'отслежива'
'отре'
'относится_'
'отмечено_'
'оте'
'отделений_'
'осуществлен'
'остаются_'
'особую_'
'особого_'
'основным_'
'основная_'
'оружие_'
'организовать_'
'органах_'
'определенной_'
'определению_'
'опол'
'оперативно_'
'опасных_'
'опасность_'
'озабочен_'
'оже'
'одном_'
'одно_'
'оде'
'ода'
'оговорки_'
'ог'
'ово'
'ованно'
'овал_'
'обязанностей_'
'объект'
'общественной_'
'общественн'
'общая_'
'обучение_'
'обсужда'
'обсудить_'
'обстоятельствах_'
'обстоятельств_'
'обращен'
'обратил'
'образованию_'
'область_'
'обеспечивает_'
'обеспечен'
'нти'
'ночь_'
'ност'
'ному_'
'номер_'
'новым_'
'новое_'
'нов_'
'никакие_'
'ника_'
'низким_'
'неу'
'неофициальные_'
'некоторым_'
'небольшой_'
'начать_'
'насилие_'
'наращивания_'
'напомина'
'нападени'
'нап'
'нан'
'налогов_'
'наличия_'
'наказание_'
'наз'
'надлежащих_'
'надлежащего_'
'наблюдателя_'
'мя'
'мым_'
'мые_'
'мост'
'моря_'
'морю_'
'мор'
'мобилизации_'
'мнений_'
'мит'
'министерств_'
'минимальны'
'миллионов_'
'микро'
'механизмом_'
'месяц_'
'местного_'
'международным_'
'международный_'
'медицинского_'
'мандат_'
'мал'
'людям_'
'люб'
'лю_'
'льных_'
'льные_'
'логи'
'личного_'
'лицо_'
'лид'
'летний_'
'лесов_'
'ления_'
'лей_'
'легких_'
'лег'
'ле_'
'ксенофобии_'
'крупные_'
'кроме_'
'кре'
'координатор'
'контр'
'конвенция_'
'кому_'
'компанией_'
'коммерческ'
'ком'
'коллектив'
'код_'
'клиентов_'
'кис'
'кам_'
'кам'
'какую_'
'каждом_'
'йны'
'йно'
'йл'
'ици'
'иц'
'ительно'
'ите_'
'ита'
'истори'
'ист'
'используемо'
'использовании_'
'исполнение_'
'исл'
'исключить_'
'ип'
'информированности_'
'информационных_'
'иностранцев_'
'инициативу_'
'имели_'
'имеется_'
'изучения_'
'изв'
'избран'
'изб'
'ива'
'ив_'
'зу'
'зон_'
'зне'
'зм_'
'зер'
'здания_'
'зачастую_'
'запрос_'
'запрещении_'
'законодательных_'
'законных_'
'заключительные_'
'заключению_'
'зад'
'з'
'журнал'
'жил'
'жда'
'жалоб_'
'ещё_'
'ето'
'ески'
'еры_'
'ера'
'еп'
'енной_'
'емая_'
'ели_'
'еле'
'единиц_'
'ег'
'ево'
'дублирования_'
'доходов_'
'доход'
'досто'
'дон'
'долю_'
'долларов_'
'доли_'
'дове'
'дов_'
'дить_'
'дин'
'диа'
'дж'
'дет'
'десятилетие_'
'дерев'
'департамента_'
'ден'
'дели'
'деколонизации_'
'действует_'
'действительно_'
'девятой_'
'двух'
'группами_'
'графи'
'готовы_'
'готовность_'
'готовности_'
'гося_'
'государственным_'
'голосов_'
'голоса_'
'голов'
'год'
'говоря_'
'гна_'
'глав_'
'гер_'
'ган'
'газа_'
'выступления_'
'выступая_'
'выразить_'
'выплат'
'вые_'
'вывод_'
'выбросы_'
'вшихся_'
'вход'
'ву'
'втором_'
'вспомогательного_'
'вперед_'
'вошли_'
'восьмой_'
'вос'
'вопросе_'
'вознаграждения_'
'возможные_'
'возможно'
'возвращения_'
'военного_'
'внутреннего_'
'внесен'
'власть_'
'включен'
'включать_'
'вет'
'ведется_'
'вашем_'
'вашего_'
'ват'
'важных_'
'важности_'
'вается_'
'бюджетным_'
'будущих_'
'будучи_'
'будете_'
'бро'
'бри'
'боро'
'большое_'
'большинстве_'
'большие_'
'блок'
'благополучия_'
'благодар'
'бир'
'биологического_'
'бесчеловечных_'
'бес'
'беременности_'
'банк_'
'бан'
'ающих_'
'ач'
'аци'
'атомной_'
'ас'
'армия_'
'арм'
'аренд'
'анд'
'ально'
'ала_'
'активов_'
'активное_'
'ай'
'администрации_'
'Ян'
'Южная_'
'ЮНФПА_'
'Экономического_'
'Эд'
'Э_'
'Ь_'
'ЫХ_'
'Ы'
'Швеции_'
'Число_'
'Чи'
'Чешская_'
'Центра_'
'Центр_'
'Цена_'
'Франции_'
'Финляндия_'
'Фи'
'Укрепление_'
'Уганд'
'Среди_'
'Список_'
'Соответственно_'
'Соединенного_'
'Соглашения_'
'Секретариатом_'
'Сал'
'СА'
'Решение_'
'Республикой_'
'Рекомендации_'
'Прод'
'Предложение_'
'Правило_'
'Пол'
'Пл'
'Пе'
'Палат'
'Пакистан_'
'ПА'
'Отдела_'
'Ожидается_'
'Одно'
'Один_'
'Обеспечение_'
'Об_'
'ОН_'
'ОН'
'ОБСЕ_'
'Норвегии_'
'Никола'
'Нет_'
'Неизвестное_'
'Например_'
'НЕПАД_'
'Мин'
'Мала'
'Мал'
'Май'
'МТ'
'МСП_'
'МП'
'Лиги_'
'Ливане_'
'Кре'
'Королевства_'
'Консультативного_'
'Китай_'
'Ке'
'Каб'
'КС_'
'КО'
'Италия_'
'Исполнительный_'
'Ирак_'
'Ил'
'Из_'
'Зеландии_'
'Зе'
'Ж'
'Египта_'
'ЕМ'
'Делегация_'
'Декабрь_'
'Данные_'
'Гер'
'Гаити_'
'Вы'
'Второй_'
'Всемирный_'
'Все'
'Вопросы_'
'ВП'
'ВОЗ_'
'ВО'
'Были_'
'Бу'
'Бри'
'Бразилии_'
'Бен'
'Беларуси_'
'Афганистан_'
'Арабской_'
'Ам'
'АТ'
'АС_'
'АН'
'ü'
'»'
'³'
'±_'
'zh'
'xenophobia_'
'worked_'
'wood_'
'welfare_'
'weeks_'
'warrant_'
'ward_'
'wanted_'
'wall_'
'wai'
'vo'
'vity_'
'virtually_'
'violated_'
'vin'
'vic'
'verification_'
'ven'
'vel'
'vas'
'uta'
'ur'
'ung'
'uk'
'ui'
'ug'
'ty'
'tur'
'tu'
'ts'
'trea'
'transparent_'
'transit_'
'trading_'
'track_'
'tory_'
'topics_'
'tis'
'ti_'
'threats_'
'thousand_'
'ther_'
'theme_'
'tests_'
'testimony_'
'tenth_'
'techniques_'
'targeted_'
'talk_'
'sus'
'supports_'
'super'
'suffering_'
'subjected_'
'structural_'
'string_'
'stresses_'
'stra'
'stocks_'
'stee'
'ssion_'
'sse'
'sponsors_'
'spirit_'
'speakers_'
'spare_'
'sor'
'skills_'
'ski'
'sin'
'sim'
'sh'
'seriously_'
'separation_'
'sensitive_'
'sel'
'seen_'
'sectoral_'
'sections_'
'secondary_'
'schedule_'
'sar'
'sale_'
'rv'
'run_'
'rt'
'rs'
'rp'
'ron'
'riti'
'rise_'
'rio'
'rib'
'restrictions_'
'restoration_'
'responding_'
'residential_'
'representation_'
'replaced_'
'reme'
'remaining_'
'relatively_'
'reiterates_'
'reintegration_'
'regularly_'
'register_'
'red'
'rect'
'reco'
'reality_'
'ratify_'
'quickly_'
'qui'
'quarter_'
'pul'
'publications_'
'publication_'
'pu'
'ps_'
'prosecute_'
'properly_'
'professionals_'
'president_'
'pr'
'pping_'
'powerful_'
'posted_'
'pollution_'
'poli'
'played_'
'plant_'
'placement_'
'pic'
'ph'
'pers'
'perform_'
'pension_'
'passengers_'
'para'
'ownership_'
'owners_'
'outlined_'
'out'
'oriented_'
'organize_'
'ora'
'ong_'
'ology_'
'occasion_'
'oc'
'obtained_'
'objects_'
'object_'
'nti'
'ns'
'nia'
'ng'
'nationals_'
'music_'
'municipal_'
'modules_'
'mobilization_'
'mobile_'
'mil'
'metres_'
'methodologies_'
'mer'
'membership_'
'measuring_'
'measurement_'
'marks_'
'mandated_'
'm2_'
'lot_'
'lost_'
'loan_'
'linkages_'
'liabilities_'
'lia'
'learned_'
'lea'
'ld'
'late_'
'las'
'larger_'
'lan'
'ko'
'kitchen_'
'ker'
'keeping_'
'juvenile_'
'ju'
'jointly_'
'joined_'
'ja'
'itu'
'ite_'
'issuance_'
'iso'
'ious_'
'investigations_'
'interventions_'
'internally_'
'instead_'
'inspection_'
'ino'
'info_'
'influence_'
'increasingly_'
'increases_'
'incident_'
'immediately_'
'image_'
'im'
'ici'
'ia'
'hun'
'hot_'
'homes_'
'hm'
'hip_'
'hem'
'helping_'
'headquarters_'
'hat'
'happy_'
'gy'
'grounds_'
'grew_'
'greatly_'
'gra'
'gi'
'gge'
'geographical_'
'gene'
'gen_'
'gal'
'ga_'
'g'
'funded_'
'functional_'
'fulfil_'
'friendly_'
'frameworks_'
'formulation_'
'formation_'
'fle'
'flat_'
'fitness_'
'fishing_'
'fish_'
'fire_'
'finish_'
'finding_'
'filled_'
'federal_'
'features_'
'fe'
'farm_'
'facts_'
'factor_'
'faced_'
'ez'
'extreme_'
'explosive_'
'expenditures_'
'exists_'
'exhibition_'
'exceed_'
'exactly_'
'ew'
'ev_'
'eu'
'ert'
'ered_'
'era_'
'equipped_'
'entr'
'enter_'
'enshrined_'
'engines_'
'engagement_'
'eng'
'ende'
'ency_'
'encountered_'
'empowerment_'
'employees_'
'emi'
'em_'
'eliminate_'
'electric_'
'el'
'ei'
'ec'
'eat_'
'eat'
'driving_'
'draw_'
'drafting_'
'door_'
'donor_'
'divisions_'
'dition_'
'die_'
'didn_'
'dew_'
'description_'
'describe_'
'deprived_'
'deployment_'
'dependent_'
'demonstrated_'
'dangerous_'
'damage_'
'dam'
'da_'
'cycle_'
'customs_'
'customers_'
'cu'
'cti'
'crawled_'
'count'
'cor'
'constituted_'
'considers_'
'conformity_'
'concentration_'
'comp'
'commissions_'
'comm'
'comfortable_'
'combined_'
'coa'
'closure_'
'clearly_'
'clean_'
'cke'
'circumstances_'
'church_'
'chemical_'
'charges_'
'cha'
'cereals_'
'cas'
'carriage_'
'cards_'
'buy_'
'budgetary_'
'bt'
'broader_'
'brief_'
'breeze_'
'br_'
'borne_'
'books_'
'blowing_'
'ble'
'bin'
'behind_'
'beautiful_'
'beam_'
'bat_'
'ball_'
'backlog_'
'b7'
'ava'
'authors_'
'authorized_'
'attributable_'
'attempt_'
'ating_'
'ast'
'assisting_'
'assigned_'
'assembly_'
'ass'
'arm'
'anticipated_'
'anti_'
'ano'
'ann'
'amounts_'
'allows_'
'allowing_'
'allocation_'
'ality_'
'ala'
'al'
'ak'
'aged_'
'ag'
'affect_'
'ae'
'administration_'
'ad'
'acting_'
'acted_'
'acknowledged_'
'ack'
'abuses_'
']._'
'['
'Zh'
'Yu'
'Within_'
'Wi'
'Wayback_'
'War'
'WW_'
'Viet_'
'Ve'
'VI'
'Universal_'
'Un'
'Ukrainian_'
'UR'
'UNU_'
'UNODC_'
'UNIFIL_'
'UNIFEM_'
'UNAMID_'
'UAH_'
'Type_'
'Transitional_'
'Trans'
'Top_'
'Thus_'
'Team_'
'TO'
'TD_'
'Super'
'Sunset_'
'Statute_'
'Statistical_'
'Spanish_'
'Sol'
'Sin'
'Similarly_'
'Signed_'
'Several_'
'Server_'
'Serbia_'
'Sel'
'Sco'
'Sche'
'SE'
'SBSTA_'
'Ru'
'Rica_'
'Records_'
'Rec'
'RI'
'RES_'
'Questions_'
'Qu'
'Promotion_'
'Process_'
'Pro'
'Plenary_'
'Pi'
'Pe'
'Participation_'
'Para'
'PS_'
'PER'
'PC'
'Out'
'Only_'
'Ol'
'Observer_'
'Ob'
'ORIGINAL_'
'OL'
'OAU_'
'Noting_'
'No'
'Nigeria_'
'Nam_'
'NT'
'Mor'
'Monitoring_'
'Mon'
'Min'
'Met'
'May'
'Maritime_'
'Main_'
'Mac'
'MO'
'London_'
'Life_'
'Lebanese_'
'Land_'
'LE'
'Jewish_'
'Jesus_'
'Japanese_'
'Ivoire_'
'Island_'
'Is_'
'Investment_'
'Interior_'
'Industry_'
'IT'
'IS'
'IR'
'Har'
'Haiti_'
'Google_'
'Good_'
'Gi'
'Gabon_'
'GS'
'GA'
'Free_'
'Framework_'
'Fo'
'Fl'
'Fe'
'Far'
'FA'
'Extra'
'Expert_'
'Euro_'
'Ei'
'Educational_'
'Eastern_'
'ES'
'EN'
'EE'
'EC_'
'ECA_'
'Disaster_'
'Des'
'Data_'
'DO'
'DLL_'
'DA_'
'Côte_'
'Coordinator_'
'Continue_'
'Comprehensive_'
'Communications_'
'Colon'
'Clo'
'Click_'
'Cla'
'Cham'
'CS'
'CONF_'
'CDATA_'
'CAT_'
'Burundi_'
'Budget_'
'Britain_'
'Both_'
'Bio'
'Bhutan_'
'Best_'
'Ben'
'Bar'
'As'
'Arabia_'
'Anti_'
'Ant'
'Acce'
'Ac'
'AC'
'79'
'49'
'47'
'255_'
'201'
'200'
'199'
'1982_'
'1974_'
'1973_'
'1963_'
'180_'
'172'
'170_'
'164_'
'160_'
'155_'
'154_'
'148_'
'140_'
'134_'
'130_'
'128_'
'121_'
'116_'
'101_'
'1000_'
'0s_'
'08'
'07'
'0000_'
'00'
'/?_'
'/-_'
'.) _'
', – _'
'). _'
')(_'
'('
'%), _'
'%'
'$_'
'"'
'!"_'
' `_'
' <![_'
'”._'
'яще'
'яс'
'ян_'
'языков_'
'ядерным_'
'яв'
'юще'
'ют'
'юга_'
'эффективные_'
'эф'
'энергетики_'
'эм'
'элемента'
'эксплуатацию_'
'экосистем'
'экономикой_'
'эк'
'ьной_'
'ьм'
'ьк'
'ыша'
'ыр'
'ыл'
'ыва'
'ъ'
'щит'
'щими_'
'шу'
'шт'
'ших_'
'широких_'
'широким_'
'шагов_'
'чные_'
'чного_'
'чно_'
'чин'
'чи_'
'чет'
'ческую_'
'ческого_'
'чение_'
'чат'
'час_'
'час'
'чар'
'ча_'
'цу'
'цов_'
'цо'
'цип'
'цикл'
'целям_'
'целевые_'
'цвета_'
'ц_'
'хотим_'
'хороше'
'ходатайств'
'хи'
'хе'
'функционировании_'
'формированию_'
'формате_'
'форма_'
'фондов_'
'фон'
'фичу_'
'фици'
'финансовыми_'
'финансовую_'
'феврале_'
'фе'
'учрежденный_'
'учреждениях_'
'учредить_'
'учитыва'
'учени'
'участию_'
'участвуют_'
'уход'
'утром_'
'ути'
'утвержденных_'
'утверждени'
'утвержден'
'установлены_'
'установленные_'
'установки_'
'успешно'
'условием_'
'ург'
'упомянут'
'упоминал'
'университет_'
'уни'
'ун'
'ум_'
'ул'
'указывает_'
'указанные_'
'указал_'
'ука'
'удел'
'угроз_'
'уголовной_'
'уведомление_'
'убежден'
'турнир'
'туризма_'
'тридцать_'
'трех'
'третьем_'
'транспорт'
'транс'
'торгово'
'торговля_'
'торговлей_'
'тон'
'тол'
'токо'
'тных_'
'тихий_'
'тир'
'тин'
'техническую_'
'техническое_'
'тесь_'
'тесном_'
'территорий_'
'территориальной_'
'термин'
'тепл'
'темпы_'
'теме_'
'телефон'
'таблице_'
'считают_'
'счита'
'счета_'
'сход'
'сформулированных_'
'сформирован'
'сферах_'
'существующие_'
'сути_'
'суде_'
'судами_'
'суд'
'субъектов_'
'структура_'
'строительство_'
'строительства_'
'стратегически'
'страницы_'
'стражей_'
'сторонам_'
'стов_'
'сте'
'ством_'
'стви'
'стве_'
'статут'
'статистической_'
'статей_'
'стар'
'становится_'
'стандартны'
'стабильно'
'ссылк'
'сроков_'
'срок'
'средствах_'
'ср'
'способствует_'
'способов_'
'способ'
'споров_'
'специализированных_'
'сотрудники_'
'сотрудниками_'
'сотрудника_'
'состояния_'
'состояние_'
'состоял'
'состоится_'
'составляют_'
'составит_'
'сопровожда'
'сообщений_'
'современного_'
'совест'
'соверши'
'совершенствование_'
'совершенные_'
'совершен'
'собственных_'
'соблюдени'
'служит_'
'слишком_'
'следовало_'
'слав'
'ситуаций_'
'сирийских_'
'сетей_'
'сет'
'серьезно_'
'сертификации_'
'сери'
'середине_'
'сердце_'
'сервер'
'семинаров_'
'семинара_'
'семинар_'
'семей_'
'сельскохозяйственной_'
'секторов_'
'сей_'
'северо_'
'сделал_'
'сдела'
'свят'
'своевременно_'
'сво'
'сб'
'самым_'
'сам_'
'сайт'
'рыб'
'русско'
'руко'
'рско'
'роте'
'рование_'
'ровал'
'рик'
'риа'
'решительно_'
'решил_'
'решением_'
'реформ_'
'ремонта_'
'рекомендациям_'
'результатом_'
'результативности_'
'результат_'
'резко_'
'резерв'
'регулярных_'
'регулярно_'
'регулирующих_'
'регионов_'
'рева'
'реализация_'
'ре_'
'рат'
'рассматривают_'
'распространить_'
'расположен'
'расизма_'
'разрушения_'
'разработанны'
'разработ'
'разо'
'разных_'
'разнообразия_'
'размещение_'
'развитым_'
'развитии_'
'развивающиеся_'
'раз'
'рабочие_'
'рабочая_'
'рабо'
'психического_'
'прямой_'
'прошлом_'
'прошлого_'
'прочие_'
'процессы_'
'процессу_'
'профил'
'протокол'
'проте'
'просьбу_'
'просил_'
'пропагандистск'
'промышленно'
'прок'
'производственной_'
'производит'
'прои'
'проживающих_'
'продолжить_'
'продовольствия_'
'провод'
'провела_'
'проведенного_'
'приходится_'
'приход'
'присутствия_'
'присоединя'
'приоритеты_'
'приоритетов_'
'приоритетных_'
'приоритетно'
'приняли_'
'принципом_'
'принципах_'
'пример'
'применять_'
'призыва'
'признал'
'признает_'
'признавая_'
'приводит_'
'привлечения_'
'приведен'
'прив'
'претензий_'
'преступн'
'преследования_'
'преп'
'прекращени'
'предыдущих_'
'представля'
'представительства_'
'представител'
'представил_'
'предпринял'
'предотвратить_'
'предоставлять_'
'предоставляется_'
'предоставлен'
'предоставил'
'предназначен'
'предметом_'
'предлагаемых_'
'предлага'
'прев'
'пребывания_'
'правовым_'
'потребует_'
'потребность_'
'потреб'
'потоков_'
'пострадавших_'
'постоянной_'
'пособий_'
'пособие_'
'последовательно'
'посетител'
'поро'
'поправок_'
'поможет_'
'помещения_'
'поме'
'пользовател'
'положению_'
'положением_'
'полный_'
'полномочия_'
'полицейских_'
'полицейские_'
'политическ'
'политике_'
'полевой_'
'пол'
'поколения_'
'поко'
'показателя_'
'показания_'
'поиска_'
'позволяющие_'
'позволить_'
'пожелает_'
'поездки_'
'подтвержден'
'подп'
'поддержания_'
'подготовленный_'
'подвергаются_'
'повы'
'повторно'
'поверхности_'
'плат'
'планы_'
'планированию_'
'письменн'
'печ'
'песне_'
'перспективы_'
'перспективе_'
'персонал'
'переход_'
'перек'
'передать_'
'перевозк'
'перевода_'
'перево'
'пенсионного_'
'пен'
'пас'
'палестинц'
'палестинских_'
'па'
'оценивает_'
'оф'
'отсутствии_'
'отрасли_'
'отражен'
'отража'
'отправ'
'отмечен'
'отмечается_'
'отметили_'
'открытия_'
'отк'
'отдыха_'
'отдельные_'
'отдал'
'отвечать_'
'ответных_'
'отв'
'отбор'
'осуществляемой_'
'острове_'
'основное_'
'освобождения_'
'оса_'
'оров_'
'оро'
'организованной_'
'организациях_'
'организационные_'
'организационн'
'ора_'
'ор_'
'опро'
'определя'
'оплачиваем'
'оперативной_'
'окончательного_'
'оказывал'
'оказан'
'ок'
'одо'
'одному_'
'огромное_'
'огра'
'овск'
'овая_'
'ованию_'
'ование_'
'овали_'
'обязаны_'
'объеме_'
'общим_'
'общество_'
'обследования_'
'обс'
'обратился_'
'оборудование_'
'обновить_'
'обле'
'обладают_'
'облада'
'оби'
'нынешнего_'
'нц'
'нуть_'
'нты_'
'нт'
'нст'
'ноябре_'
'нос'
'номера_'
'нного_'
'нищетой_'
'никакого_'
'ний_'
'несовершеннолетних_'
'непо'
'необходимым_'
'необходимы_'
'нем'
'некоторо'
'неко'
'неи'
'незаконным_'
'недель_'
'недавно_'
'невозможно_'
'нево'
'нев'
'небольших_'
'нда'
'нг_'
'начиная_'
'начально'
'началось_'
'национальный_'
'наци'
'нахождения_'
'научные_'
'настоящим_'
'насос'
'население_'
'народам_'
'наличии_'
'надцат'
'надо_'
'надлежащей_'
'надлежащее_'
'надзора_'
'надеется_'
'наблюдения_'
'наблюдени'
'наблюдателей_'
'наблюда'
'мый_'
'мульти'
'музей_'
'муж'
'мотоцикл'
'мониторинг_'
'момент'
'модели_'
'мод'
'мни'
'мн'
'мк'
'миростроительства_'
'минут_'
'минусовку_'
'миллиона_'
'методологии_'
'мет'
'месяца_'
'местные_'
'местно'
'местами_'
'мероприятиям_'
'меньше_'
'межправительственных_'
'межправительственными_'
'меди'
'машины_'
'материально'
'материал'
'массового_'
'март_'
'ман'
'мало_'
'мало'
'любом_'
'лю'
'льств'
'лы_'
'лучше'
'лож'
'лли'
'лк'
'лицом_'
'лицензи'
'лесам_'
'лен_'
'лежит_'
'легко'
'лан'
'кци'
'курсов_'
'курса_'
'куп'
'культур_'
'кругом_'
'крас'
'кра'
'кот'
'корпус'
'копи'
'координация_'
'координацию_'
'конфи'
'конференция_'
'контингенты_'
'консультативных_'
'консультативного_'
'консультантов_'
'конечном_'
'конгресс'
'комплексного_'
'коммуникационных_'
'коммерческого_'
'комитетов_'
'количестве_'
'книг'
'ключевых_'
'кли'
'кир'
'кер'
'ке'
'квалифицированны'
'кации_'
'ках_'
'караоке_'
'кан'
'кал'
'како'
'йского_'
'йр'
'иях_'
'ичн'
'ити'
'ительных_'
'источника_'
'используется_'
'исполнителя_'
'исп'
'иск'
'ирования_'
'ир_'
'ир'
'информирован_'
'интересы_'
'интерес'
'интер'
'инструмента_'
'институт_'
'инс'
'инк'
'индекс'
'имп'
'имен'
'има'
'иль'
'израильски'
'изменениях_'
'изменению_'
'изма_'
'извлечения_'
'известны_'
'избирательной_'
'избирательн'
'играть_'
'ивные_'
'иа'
'зн'
'зл'
'зк'
'зит'
'земли_'
'зе'
'зд'
'зв'
'заставить_'
'занятия_'
'занимается_'
'зан'
'заменить_'
'законы_'
'законодательстве_'
'завершил'
'зав'
'забот'
'жной_'
'жне'
'живут_'
'жи_'
'жет_'
'желательной_'
'еч'
'еть_'
'ест'
'ере'
'ера_'
'емой_'
'ели'
'ел'
'ейся_'
'ежегодны'
'еди'
'ега'
'дух'
'ду_'
'другую_'
'другого_'
'друга_'
'др'
'доход_'
'доставки_'
'достав'
'дорожного_'
'допуска'
'дополнительного_'
'должное_'
'долгосрочных_'
'документу_'
'дов'
'добровольных_'
'добавил_'
'длительного_'
'дискриминацией_'
'директора_'
'дз'
'дети_'
'дес'
'держа'
'дер'
'деньги_'
'дение_'
'дел'
'действующие_'
'действовать_'
'девят'
'деб'
'даты_'
'дам'
'дал_'
'гу'
'границы_'
'гр'
'готовит'
'городских_'
'городах_'
'город'
'гораздо_'
'гол'
'говорят_'
'го'
'глобального_'
'гла'
'гене'
'гендерным_'
'гарантиях_'
'гаранти'
'выступает_'
'высокой_'
'выразили_'
'выражение_'
'выпуск_'
'выполняет_'
'выполня'
'вып'
'вын'
'вызывающи'
'выделить_'
'вступивш'
'встречу_'
'встреч'
'всестороннего_'
'всеобъемлющи'
'всему_'
'временных_'
'временной_'
'вра'
'впервые_'
'вп'
'вот_'
'восточно'
'востока_'
'вокруг_'
'войск_'
'возраста'
'возобновляемых_'
'возникновения_'
'возникн'
'воздушны'
'воздушное_'
'возд'
'вносить_'
'вно'
'внешне'
'внес_'
'влияют_'
'властями_'
'властей_'
'вклад'
'вилл'
'виз'
'взят'
'взрыв'
'верховенства_'
'вероятность_'
'вед'
'вдоль_'
'введение_'
'вариант_'
'валют'
'вало'
'важнейших_'
'будущей_'
'браке_'
'брак_'
'бота'
'борьбу_'
'бор'
'бит'
'био'
'бель'
'бел'
'бедных_'
'бедности_'
'бассейн_'
'аяся_'
'аэропорт'
'аш'
'африканских_'
'ат'
'аст'
'аспект'
'ара'
'апреле_'
'анны'
'ании_'
'анализ'
'ам'
'альных_'
'активные_'
'активизировать_'
'акти'
'аем'
'адресу_'
'адо'
'адекватно'
'агентства_'
'авиа'
'августе_'
'а'
'Япония_'
'ЮНОДК_'
'Ь'
'Ши'
'Швеция_'
'Ш_'
'Че'
'Ч_'
'Форум_'
'Фор'
'Учитывая_'
'Участники_'
'Уст'
'Уголовного_'
'Увеличение_'
'УВКПЧ_'
'Тур'
'Тип_'
'ТР'
'ТЕ'
'Суд'
'Совещание_'
'Сов'
'Сме'
'Скачать_'
'Север'
'Сар'
'СР_'
'СМИ_'
'САЙТ'
'Ру'
'Российская_'
'Расс'
'Размер_'
'Раз'
'РО'
'РИ'
'РА_'
'Пят'
'Программой_'
'Провод'
'Принятие_'
'Приз'
'Президента_'
'Правил_'
'Права_'
'Пра'
'Польша_'
'Поль'
'Показать_'
'Подробнее_'
'Подпись_'
'План'
'Песня_'
'Первый_'
'Пенсильвания_'
'Парламента_'
'Пар'
'Пап'
'ПРИ'
'ПРАВ'
'ПОЛ'
'ПО'
'Ответ_'
'Основ'
'Организацию_'
'Ор'
'Оп'
'Ол'
'Одним_'
'ОС_'
'ОП'
'ОИ'
'ОА'
'Норвегия_'
'Нидерланды_'
'Настоящий_'
'Нак'
'НРС_'
'НН'
'НЕ'
'НАЯ_'
'НА_'
'Москва_'
'Можно_'
'Мексики_'
'Международны'
'Мари'
'МОТ_'
'МДП_'
'МВ'
'Луи'
'Ливана_'
'ЛИ'
'Кур'
'Кувейта_'
'Королевство_'
'Коро'
'Ком'
'Колумбии_'
'Количество_'
'Кол'
'Кипр'
'Кат'
'Кар'
'Канцелярия_'
'Казахстана_'
'КТ'
'КБ'
'Итого_'
'Использование_'
'Иран_'
'Интернете_'
'Им'
'ИР'
'ИН'
'Зо'
'Законом_'
'Женщины_'
'Европейский_'
'Европейская_'
'ЕН'
'ЕМЕП_'
'ЕК'
'ЕВ'
'Ду'
'Дон'
'Директора_'
'Дет'
'Дар'
'ДР'
'ДК'
'ДЕ'
'ДА'
'Группой_'
'Группе_'
'Гол'
'Главы_'
'Ге'
'Газ'
'Вып'
'Всеобщей_'
'Всемирная_'
'Восточном_'
'Вос'
'Вол'
'Во'
'Владимир_'
'Венской_'
'Вене_'
'Вашей_'
'ВС'
'Была_'
'Бр'
'Бос'
'Большинство_'
'Больш'
'Благодаря_'
'Бельгия_'
'Бал'
'БЛ'
'Афганистана_'
'Ар_'
'Ап'
'Ангол'
'Америке_'
'Аллах'
'Азиатско_'
'Азербайджана_'
'Азербайджан_'
'Административно'
'Агентства_'
'Австралия_'
'Аб'
'ì'
'ã'
'â'
'à_'
'Ð¾Ð_'
'ÐµÐ'
'º'
'za_'
'ys'
'ym'
'yl'
'ye'
'yard_'
'xu'
'xt'
'worth_'
'wor'
'won_'
'willingness_'
'widespread_'
'whom_'
'whereby_'
'weekly_'
'wee'
'weak'
'we'
'wave_'
'watch_'
'wal'
'vou'
'vor'
'vis_'
'villages_'
'viable_'
'via_'
'vessel_'
'vag'
'utilization_'
'uss'
'user_'
'urs_'
'urges_'
'unp'
'unit'
'union_'
'unde'
'und'
'unb'
'ular_'
'ud_'
'ub'
'ua'
'turn'
'treated_'
'tre'
'transmitted_'
'transmit_'
'transaction_'
'tor'
'tly_'
'tion'
'till_'
'thro'
'thre'
'thing_'
'ther'
'textbooks_'
'tested_'
'temp'
'television_'
'tal_'
'tal'
'tain'
'tab'
'symbol_'
'sy'
'sweet_'
'sw'
'sustainability_'
'survey_'
'surface_'
'supplement'
'sun'
'suit'
'suggestions_'
'suggest_'
'subsequently_'
'style_'
'students_'
'stu'
'street_'
'stati'
'staffing_'
'ssi'
'ss'
'spices_'
'spi'
'sphere_'
'south_'
'sou'
'sol'
'sk'
'ships_'
'she'
'settings_'
'sets_'
'seminars_'
'seems_'
'sect_'
'seats_'
'se'
'schemes_'
'scal'
'sca'
'savings_'
'save_'
'sampling_'
'sample_'
'sa_'
'ruling_'
'ru'
'rte'
'row_'
'row'
'roles_'
'rol'
'rig'
'rie'
'rid'
'ria'
'rg'
'revitaliz'
'retained_'
'resid'
'requirement_'
'requesting_'
'represents_'
'removal_'
'rema'
'reliable_'
'relevance_'
'relax_'
'relate_'
'reinforce_'
'rehabilitation_'
'regimes_'
'ree'
'recognizes_'
'recalled_'
'reading_'
'rd_'
'rd'
'rated_'
'rapidly_'
'ran'
'ral_'
'radi'
'rac'
'questionnaire_'
'qualified_'
'qua'
'protects_'
'prostitution_'
'prosecution_'
'properties_'
'prop'
'promotes_'
'promise_'
'programs_'
'profit_'
'produced_'
'processed_'
'procedural_'
'prisons_'
'presidential_'
'presidency_'
'pres'
'precipitation_'
'prec'
'pra'
'powers_'
'plug_'
'ple'
'pla'
'pil'
'phone_'
'pharmac'
'perpetrators_'
'permitted_'
'periods_'
'pending_'
'ped_'
'pattern_'
'pate'
'park_'
'param'
'papers_'
'panel_'
'packed_'
'oun'
'ote'
'os'
'ore_'
'option_'
'operators_'
'operate_'
'op'
'oni'
'ona'
'occurs_'
'occur_'
'observation_'
'observance_'
'obliged_'
'nutrient_'
'ntly_'
'nov'
'normally_'
'nn'
'nl'
'ngs_'
'nger_'
'nge_'
'nf'
'net'
'nel_'
'necessity_'
'national'
'names_'
'multiple_'
'moving_'
'moti'
'monthly_'
'models_'
'missing_'
'minor_'
'minimize_'
'mini_'
'ming_'
'minerals_'
'milk_'
'mi_'
'meter_'
'metal_'
'met'
'meri'
'merely_'
'meat_'
'mea'
'me'
'mbi'
'mber'
'max_'
'marketing_'
'marine_'
'ly'
'luxury_'
'logy_'
'log'
'ln'
'llo'
'lla'
'lity_'
'limits_'
'like'
'lie'
'libr'
'liable_'
'lev'
'letters_'
'lem'
'legumes_'
'leaving_'
'learning_'
'learn_'
'laid_'
'kit'
'kh'
'kg_'
'ker_'
'ked_'
'judiciary_'
'jan'
'izing_'
'ize_'
'ively_'
'ities_'
'iti'
'ite'
'ish_'
'ise'
'iri'
'ional_'
'inva'
'introducing_'
'introduce_'
'interpreted_'
'internationally_'
'integral_'
'int'
'ins'
'inputs_'
'input_'
'innocent_'
'inh'
'ine'
'indicating_'
'indi'
'inclusive_'
'incidents_'
'impl'
'immediate_'
'imm'
'images_'
'iling_'
'ik_'
'ied_'
'idea_'
'ida'
'ics_'
'ica_'
'ic'
'ib'
'iat'
'hy'
'hunger_'
'hu'
'https_'
'houses_'
'households_'
'holiday_'
'hl'
'hing_'
'hel'
'heavy_'
'heads_'
'harassment_'
'handling_'
'hand'
'ham'
'hall_'
'hal'
'gs'
'grown_'
'gre'
'grateful_'
'graphic_'
'grants_'
'grade_'
'gr'
'governing_'
'got_'
'gor'
'gives_'
'gif_'
'ght'
'gh'
'gg'
'ger_'
'gen'
'gaps_'
'gallery_'
'fur'
'fun'
'fulfilling_'
'fruits_'
'fr_'
'fort'
'forecast_'
'flows_'
'flights_'
'firm_'
'fine_'
'finance_'
'finaliz'
'fication_'
'fen'
'felt_'
'fell_'
'favour_'
'fats_'
'fan'
'facility_'
'extradition_'
'extrabudgetary_'
'extra_'
'exploration_'
'expectations_'
'exhaust'
'exercising_'
'exclusive_'
'excess_'
'exceptional_'
'examples_'
'everyday_'
'eva'
'est'
'esc'
'ero'
'equitable_'
'entrepreneurs_'
'ensured_'
'ens'
'enlarge'
'engineering_'
'engaging_'
'ene'
'endeavour_'
'enabled_'
'ement_'
'eman'
'element_'
'ek_'
'ected_'
'ect'
'ech'
'easier_'
'earlier_'
'ear'
'duty_'
'duties_'
'drugs_'
'drew_'
'dou'
'don'
'divided_'
'diversity_'
'district_'
'disposal_'
'display_'
'discriminatory_'
'disciplinary_'
'disasters_'
'directi'
'die'
'develop'
'deterioration_'
'desertification_'
'describing_'
'departure_'
'demonstrate_'
'demands_'
'deli'
'delegates_'
'degree_'
'dealt_'
'dating_'
'dar'
'cy'
'currency_'
'cur'
'cul'
'ction_'
'cru'
'cra'
'covering_'
'counsel_'
'cou'
'corrections_'
'cop'
'convention_'
'convened_'
'contingent_'
'consulting_'
'consult'
'constraints_'
'constant_'
'consolidated_'
'connected_'
'cond'
'concepts_'
'conce'
'con'
'compulsory_'
'compromise_'
'complement_'
'complaint_'
'comment_'
'command'
'colonial_'
'collected_'
'cold_'
'coherence_'
'coastal_'
'club_'
'cl'
'cia'
'chemicals_'
'chapter_'
'channel_'
'certification_'
'cer'
'cent'
'cc'
'cb_'
'cash_'
'carrying_'
'can'
'camps_'
'camp_'
'cal'
'button_'
'budgets_'
'briefing_'
'branch_'
'bra'
'bour'
'bottom_'
'boo'
'bond'
'bla'
'bis_'
'believes_'
'behaviour_'
'bat'
'basket_'
'baselines_'
'barriers_'
'aye'
'ay_'
'ax'
'aware_'
'authorization_'
'attendance_'
'attain'
'assurances_'
'assurance_'
'assumed_'
'assessing_'
'assault_'
'arts_'
'arrival_'
'array_'
'arguments_'
'arb'
'ara'
'applies_'
'anyone_'
'analyses_'
'ami'
'ahead_'
'agree_'
'af'
'adv'
'acqui'
'accompanied_'
'accession_'
'acceptance_'
'acceptable_'
'accept_'
'acc'
'abs'
'a5a0cdfe_'
'Z_'
'Yes_'
'Ye'
'XI'
'Win'
'Why_'
'Where_'
'WA'
'Vis'
'Violence_'
'Vi'
'Var'
'Uruguay_'
'Up'
'UNITAR_'
'UNI'
'UNC'
'Tunisia_'
'Transfer_'
'Tra'
'Tor'
'Tom'
'Tele'
'Tar'
'TT'
'TION_'
'TER_'
'T0'
'Summer_'
'Suite_'
'Strip_'
'Strengthening_'
'Stock'
'Status_'
'Sta'
'Sri_'
'Sport_'
'Situation_'
'Singapore_'
'Sher'
'Senegal_'
'See_'
'Search_'
'School_'
'Sat_'
'Sat'
'Salvador_'
'SS'
'SP'
'SM'
'SH'
'SEC'
'SA_'
'Rome_'
'Rio_'
'Ren'
'Relief_'
'Regarding_'
'Ref'
'Reduction_'
'Recommendation_'
'Recognizing_'
'RIGHTS_'
'Quote_'
'Qa'
'Punishment_'
'Provide_'
'Property_'
'Proliferation_'
'Project_'
'Portugal_'
'Ple'
'Pha'
'Ph'
'Penal_'
'Pen'
'Panama_'
'PC_'
'PAR'
'Ot'
'Ombudsman_'
'Ok'
'OSCE_'
'OR'
'ON'
'Number_'
'Namibia_'
'NS'
'NA'
'Music_'
'Mozambique_'
'Movement_'
'Montreal_'
'Mis'
'Mi'
'Measures_'
'Mat'
'Man'
'Major_'
'Mahmoud_'
'Mad'
'MT'
'MS_'
'MB_'
'Lin'
'Library_'
'Level_'
'Lastly_'
'Lanka_'
'LU'
'Kr'
'King_'
'Kiev_'
'Ke'
'Kan'
'KA'
'John_'
'Jo'
'Intergovernmental_'
'Inspection_'
'Increased_'
'Inc_'
'IO'
'IAEA_'
'Hy'
'Humanitarian_'
'Home_'
'Holy_'
'Hol'
'Her'
'Heads_'
'Hea'
'Hall_'
'HUMAN_'
'HTML_'
'Greater_'
'Gen'
'Ge'
'Ga'
'GO'
'GI'
'GENERAL_'
'GA_'
'Fr'
'Form'
'Fifty_'
'Fax_'
'FS'
'FR'
'FI'
'FCCC_'
'Even_'
'Estonia_'
'Er'
'End'
'Emp'
'Emergency_'
'Ele'
'Egyptian_'
'Ed'
'Ecuador_'
'ENGLISH_'
'ED_'
'Draft_'
'Dr'
'Down_'
'Documentation_'
'Do_'
'District_'
'Directorate_'
'Dia'
'Despite_'
'Design_'
'Delegations_'
'Del'
'Decision_'
'DS'
'DR'
'DP_'
'DC_'
'Country_'
'Cou'
'Conventions_'
'Contents_'
'Cont'
'Consultative_'
'Consideration_'
'Comme'
'Co'
'Catholic_'
'Cameroon_'
'CT'
'CST_'
'COM_'
'CM'
'Bud'
'Bos'
'Because_'
'Basic_'
'Basel_'
'Barcelona_'
'Bak'
'BR'
'Astana_'
'Asian_'
'Arms_'
'Armenians_'
'Alt'
'All'
'Albania_'
'Ad_'
'Access_'
'AU'
'AP_'
'AN'
'AM'
'ADR_'
'?" _'
'><_'
': -_'
'963_'
'96'
'89'
'84'
'75'
'73'
'55'
'4tg'
'44'
'3ft'
'33'
'31'
'215_'
'210_'
'202_'
'202'
'1st_'
'1990s_'
'1986_'
'1978_'
'1977_'
'197'
'196'
'1949_'
'190_'
'186_'
'181'
'180'
'163_'
'156_'
'1540_'
'153_'
'152_'
'1373_'
'137'
'124_'
'108_'
'107_'
'106_'
'104_'
'09'
'/"><_'
'.)_'
'**'
').'
')), _'
')"'
'"},"_'
'"><_'
'") _'
'" - _'
' ‘_'
' ... +_'
'№ _'
'ящих_'
'ящие_'
'яться_'
'ятн'
'яти'
'ясн'
'янск'
'як'
'ядо'
'ядерной_'
'ющую_'
'юсь_'
'юри'
'юд'
'эффективному_'
'эффективн'
'этнической_'
'этими_'
'энерго'
'энерги'
'эми'
'элемент_'
'электронной_'
'электронного_'
'эксперты_'
'эксперта'
'экономии_'
'экологические_'
'ьт'
'ьный_'
'ыш'
'ысл'
'ын'
'ывал'
'ывается_'
'щим_'
'щики_'
'щик'
'щи'
'штатов_'
'штата_'
'шта'
'шно'
'шко'
'широкие_'
'шеств'
'шест'
'шагом_'
'чу_'
'чт'
'чрезвычайных_'
'чный_'
'чности_'
'чит'
'чисто_'
'числом_'
'чип'
'чик'
'ческим_'
'чески_'
'чени'
'чему_'
'человечески'
'чек'
'частный_'
'частично_'
'ч'
'цеп'
'ценностей_'
'целы'
'целенаправленны'
'це_'
'хр'
'хозяйств'
'химической_'
'хими'
'хе_'
'характеру_'
'функциями_'
'функционирование_'
'фу'
'французски'
'фр'
'фотографии_'
'фото'
'форму_'
'форматы_'
'форма'
'фо'
'фли'
'финансово_'
'финансируем'
'финансированием_'
'финанс'
'фили'
'фикации_'
'физическое_'
'физического_'
'федерально'
'фактическ'
'файл'
'ующих_'
'ующие_'
'уш'
'учреждении_'
'учреждение_'
'учрежден'
'учет_'
'учебно'
'ух'
'утс'
'уточн'
'усыновителя_'
'устран'
'устойчивости_'
'усти'
'установлено_'
'установлена_'
'установлен'
'установил_'
'уст'
'успешны'
'успеха_'
'услугами_'
'условно_'
'условиями_'
'уск'
'уры_'
'урок'
'уровню_'
'уровни_'
'ура'
'упу'
'управленчески'
'упра'
'упомянутых_'
'уполномоченных_'
'университета_'
'университет'
'уменьшению_'
'ума_'
'ульт'
'уло'
'улиц'
'ули'
'укреплять_'
'указыва'
'указано_'
'указа'
'уй'
'уи'
'узна'
'уж'
'удовлетворя'
'удобн'
'удалени'
'увеличился_'
'уве'
'ув'
'убийств'
'уа'
'трудящихся_'
'троп'
'требуются_'
'транспортное_'
'транзитных_'
'традиционных_'
'традиции_'
'точными_'
'точно'
'тонн'
'тон_'
'ток'
'товар'
'тник'
'тн'
'тит'
'типов_'
'технологиям_'
'тест'
'террористических_'
'терпимости_'
'тер_'
'темы_'
'тельных_'
'тельного_'
'тели_'
'телекоммуникаци'
'телей_'
'тел_'
'текущи'
'текуще'
'тебе_'
'тв'
'таци'
'тат'
'тари'
'таблиц_'
'сы_'
'считаю_'
'счете_'
'сх'
'сформулированные_'
'существу_'
'существенный_'
'сум'
'судья_'
'суды_'
'судопроизводства_'
'судо'
'суверенитета_'
'субрегиональном_'
'структуру_'
'структуре_'
'строй'
'стрем'
'стре'
'стратеги'
'страновой_'
'странице_'
'страница_'
'стр_'
'столиц'
'стол'
'стен'
'ству_'
'ственно'
'ств'
'статусе_'
'стат'
'стараемся_'
'стал'
'ссылке_'
'среду_'
'среднесрочной_'
'спутника_'
'спустя_'
'спроса_'
'способ_'
'спор'
'спада_'
'союз'
'социальном_'
'сохраняется_'
'сохранить_'
'сосуд'
'состоялось_'
'состоялась_'
'состоявш'
'составной_'
'составлен'
'соп'
'соответствующую_'
'сообщила_'
'сообщ'
'сон_'
'сом'
'сократить_'
'сократился_'
'созданны'
'создана_'
'сожалению_'
'сожаление_'
'содержание_'
'согласованию_'
'согласна_'
'согласи'
'советы_'
'совершил_'
'событий_'
'собственно'
'сняти'
'снова_'
'снизить_'
'снижение_'
'сни'
'сн'
'смысл'
'смогут_'
'сметы_'
'смертной_'
'сложных_'
'сложной_'
'сложно'
'словам_'
'следующее_'
'слабый_'
'сла'
'скую_'
'скоро'
'ское_'
'склад'
'скважин_'
'систематически'
'сир'
'синхронизации_'
'сильно_'
'сигнал'
'си_'
'сессию_'
'сессий_'
'серьезных_'
'серьезные_'
'серьезной_'
'серб'
'семинаре_'
'семе'
'сельскохозяйственных_'
'секторах_'
'сектор'
'сексуальное_'
'секретариат'
'седьмой_'
'север'
'се_'
'сделано_'
'сделанных_'
'сделанно'
'сделана_'
'сда'
'связей_'
'связанными_'
'связана_'
'свыше_'
'сводн'
'свод'
'свободных_'
'свободной_'
'свободное_'
'свободно_'
'свобода'
'свин'
'свет'
'сведений_'
'све'
'сборн'
'сах'
'самоо'
'самолета_'
'самое_'
'саммита_'
'сам'
'сайта_'
'сайт_'
'рынок_'
'рынк'
'рх'
'рул'
'рукци'
'руководству'
'руководитель_'
'руководители_'
'руки_'
'рубл'
'рубеж'
'росл'
'роп'
'рома_'
'рок_'
'роз'
'рож'
'родител'
'рная_'
'рн'
'рия_'
'рис_'
'рии_'
'ржа'
'решить_'
'решительн'
'решил'
'реце'
'рест'
'рен'
'рекомендовано_'
'рекомендациях_'
'реко'
'реки_'
'рейсы_'
'рейс'
'результатам_'
'реж'
'редактирования_'
'регламент'
'регион'
'ревизоров_'
'ревизий_'
'реального_'
'реакци'
'реабилитации_'
'реа'
'рацион'
'ратификации_'
'расширении_'
'рассматриваемы'
'расследований_'
'распространением_'
'расположенных_'
'раннего_'
'ранен'
'разъяснить_'
'разработал'
'разрабатывает_'
'разные_'
'разногласия_'
'размера_'
'разделени'
'раздела_'
'развива'
'развертывания_'
'раж'
'радост'
'радикальн'
'равны'
'равноправия_'
'равно_'
'равн'
'рабочем_'
'рабочего_'
'работо'
'пять_'
'пучка_'
'пут'
'пул'
'публик'
'прям'
'прошли_'
'прочего_'
'проч'
'процентах_'
'процедур'
'проходил'
'профессиональны'
'протоколу_'
'противопехотных_'
'просьб_'
'просить_'
'просили_'
'просила_'
'просвещени'
'просветительск'
'пройти_'
'пройдёт_'
'произошло_'
'производителей_'
'проектом_'
'продолжа'
'продовольственн'
'продемонстрировал'
'продажи_'
'программой_'
'программного_'
'программах_'
'программами_'
'проводимой_'
'проверок_'
'проведенных_'
'проведена_'
'проведен_'
'проанализировать_'
'про_'
'причинен'
'причинам_'
'причин'
'приходит_'
'приобретение_'
'принятые_'
'принята_'
'принципе_'
'принцип_'
'принудительно'
'принадлежности_'
'принадлежащие_'
'применяться_'
'применя'
'применительно_'
'признателен_'
'признание_'
'признается_'
'призна'
'призванны'
'призвали_'
'призвала_'
'приемлемо'
'прием'
'прид'
'приводят_'
'приветствовать_'
'приветствовала_'
'привели_'
'прибрежных_'
'препроводить_'
'преодоления_'
'преми'
'президент'
'предыдуще'
'предусмотрена_'
'предусматривать_'
'предусматривается_'
'представленно'
'представлении_'
'представлени'
'предсказуемо'
'председательств'
'предпринима'
'предполага'
'предоставляю'
'предоставля'
'предост'
'предметов_'
'предложила_'
'предложении_'
'предлагаемый_'
'предлагаемого_'
'предлагаем_'
'пределы_'
'предварительн'
'превышать_'
'практикум'
'правильно_'
'правильно'
'правилом_'
'правилами_'
'правил'
'права'
'прав'
'пра'
'пп'
'почта_'
'поче'
'похищен'
'потребителей_'
'потр'
'потеря'
'построен'
'постоянный_'
'постоянного_'
'поставщик'
'поставок_'
'последний_'
'посе'
'посвящен'
'пос'
'попытк'
'популярны'
'поправка_'
'поощр'
'понимании_'
'понима'
'пони'
'помогает_'
'пользуются_'
'пользоваться_'
'получило_'
'получении_'
'получен'
'полос'
'половым_'
'поло'
'полном_'
'полиция_'
'поли'
'полет'
'полевых_'
'покупател'
'поколени'
'покину'
'показан'
'показа'
'позитивные_'
'поздн'
'позволяюще'
'позвол'
'поза'
'подчеркивая_'
'подход'
'подтверждая_'
'подтвержда'
'подряд_'
'подписал_'
'подотчетности_'
'подлежит_'
'поддержкой_'
'поддерживают_'
'поддерживать_'
'поддержать_'
'подготовлен'
'подготовкой_'
'подготовил'
'подвергаться_'
'подачи_'
'подав'
'пог'
'повышению_'
'повтор'
'повреждения_'
'повестка_'
'повер'
'пов_'
'победы_'
'пле'
'платы_'
'плате_'
'планируется_'
'пл'
'письменном_'
'письменного_'
'печат'
'переходной_'
'переход'
'пересмотре_'
'пересмотр'
'перенос'
'перемен'
'передавать_'
'первым_'
'первоначально_'
'первоначально'
'партнерстве_'
'партнерств_'
'партнер'
'парти'
'парниковых_'
'парламента_'
'парка_'
'параметры_'
'пал'
'оя'
'очн'
'очередн'
'очер'
'очевидно_'
'оча'
'оци'
'оценкам_'
'оценить_'
'охватывающе'
'охватывают_'
'охват'
'отчетны'
'отсутствием_'
'отставк'
'отста'
'отпуска_'
'отправляйте_'
'отмеча'
'отменить_'
'отличие_'
'открыты'
'открыл'
'открывает_'
'откл'
'отказаться_'
'отец_'
'отеля_'
'отдельными_'
'отдельный_'
'отдельно_'
'отвечающи'
'отвечают_'
'ответы_'
'ответственно'
'ося'
'осуществляющи'
'осуществляются_'
'островных_'
'остр'
'остаться_'
'останов'
'остальные_'
'оста'
'особых_'
'особы'
'основополагающи'
'основой_'
'основ'
'осм'
'ослав'
'оси'
'оры_'
'ором_'
'ориентированных_'
'оре'
'органу_'
'организацию_'
'определять_'
'определенные_'
'определенного_'
'опо'
'оплату_'
'опираясь_'
'опер'
'оно'
'онно'
'онн'
'оне_'
'ома'
'олн'
'ола_'
'окончательный_'
'окончательн'
'океан'
'оказывали_'
'оказаться_'
'оказался_'
'ои'
'ожида'
'одежд'
'ограничива'
'ограничение_'
'ограничен'
'оговор'
'огня_'
'овн'
'овки_'
'ови'
'ованных_'
'ова_'
'обязательство_'
'обязательствами_'
'обязательны'
'обязательного_'
'объемы_'
'объединени'
'общинах_'
'общий_'
'обучению_'
'обстановк'
'обслужива'
'обратить_'
'обрати'
'образца'
'образован'
'оборотом_'
'обновления_'
'обнаружи'
'обнаружен'
'обмен_'
'облегчения_'
'облегчению_'
'областей_'
'обладающих_'
'обл'
'обеих_'
'нят'
'ню'
'нью_'
'нь'
'нуждается_'
'нско'
'носят_'
'нормативных_'
'нормами_'
'новост'
'ново'
'новая_'
'нов'
'нный_'
'нности_'
'нич'
'нис'
'никакой_'
'ника'
'нефти_'
'нере'
'нера'
'непред'
'необходимая_'
'нени'
'нена'
'некон'
'независимы'
'неза'
'недост'
'недопущени'
'небольш'
'нди'
'нашим_'
'наши_'
'начисленны'
'начина'
'начал_'
'начал'
'национальная_'
'наций_'
'находи'
'науч'
'науке_'
'нат'
'настоящих_'
'настаива'
'наследия_'
'населенных_'
'наряду_'
'нарушений_'
'нарушением_'
'народу_'
'народонаселения_'
'наркотик'
'направил'
'направ'
'намеченны'
'налогообложения_'
'наличием_'
'накоплен'
'нака'
'нак'
'наж'
'надлежит_'
'надел'
'надежду_'
'навыков_'
'навигации_'
'набор'
'мысл'
'мужчины_'
'мощност'
'морскому_'
'молодежь_'
'мол'
'можем_'
'моего_'
'моде'
'миротворческих_'
'миростроительству_'
'миро'
'министр'
'министерство_'
'мини'
'механизмах_'
'метан'
'месяц'
'место'
'мероприятиях_'
'мент'
'меморандум'
'мел'
'медицинских_'
'ме_'
'мбу'
'материала_'
'матери_'
'масштабы_'
'мастер'
'массов'
'максимальной_'
'май'
'магазин'
'ляем'
'ля_'
'людских_'
'любая_'
'лла'
'лишен'
'личных_'
'лично'
'лист'
'лидеров_'
'лечение_'
'ленн'
'лени'
'лем'
'ланд'
'кус'
'курсы_'
'кузова_'
'ктивн'
'ксе'
'кс'
'круг_'
'круг'
'кров'
'критически'
'кредитов_'
'кредит'
'кр'
'кос'
'коррупци'
'корм'
'коренно'
'концу_'
'концерт'
'концепция_'
'концепции_'
'конфиденциальности_'
'конференций_'
'контрактам_'
'контракт_'
'контекст'
'контакты_'
'контакт'
'конкретными_'
'конечны'
'конец_'
'компонент'
'комплект'
'комплексно'
'компенсацию_'
'комнат'
'колони'
'коллекци'
'коллективной_'
'кок'
'кож'
'кодекс'
'кого_'
'кн'
'ключевыми_'
'ключевым_'
'клуб'
'клин'
'клиент'
'классификаци'
'кк'
'кин'
'квартире_'
'квалификаци'
'ква'
'кв_'
'категорию_'
'ката'
'касающейся_'
'касающегося_'
'карты_'
'кара'
'кандидатуры_'
'как'
'казнь_'
'казни_'
'йш'
'йти_'
'йт'
'йский_'
'йск'
'йного_'
'йн'
'июле_'
'ичный_'
'ичеств'
'ическ'
'иту'
'итогов_'
'итоги_'
'итог'
'итк'
'исчерпывающ'
'источником_'
'истин'
'испытани'
'использует_'
'исполнительной_'
'исполнителей_'
'исполнении_'
'ирующи'
'ирующ'
'ируют_'
'ируемо'
'ировк'
'ированные_'
'ири'
'иракско'
'иные_'
'ины_'
'информировать_'
'информационной_'
'инфекци'
'интерес_'
'инструментом_'
'инструмент_'
'инструкци'
'институты_'
'инстанции_'
'иностранно'
'иногда_'
'инициатив'
'индикатор'
'инд'
'инг'
'иная_'
'имы'
'имуществом_'
'имо'
'иммунитет'
'иммигрантов_'
'имеющими_'
'имеющие_'
'имеющейся_'
'имело_'
'ийся_'
'ийско'
'изображения_'
'изменении_'
'изм_'
'изложенные_'
'изл'
'изделий_'
'издан'
'изда'
'известно'
'иеся_'
'игро'
'играют_'
'ивш'
'иви'
'ивания_'
'ив'
'зу_'
'зр'
'зонт_'
'зован'
'зов'
'значительным_'
'значительные_'
'значительную_'
'знания_'
'знал_'
'зем'
'здн'
'заяв'
'защитой_'
'зация_'
'захватить_'
'зарегистрирован'
'запрос'
'запр'
'запас'
'запада_'
'запа'
'занято'
'занимающ'
'занима'
'замуж'
'замечаний_'
'заметны'
'закупок_'
'закупках_'
'закрытия_'
'законопроект_'
'законодательством_'
'законодательной_'
'законности_'
'закон'
'заказ'
'зака'
'заинтересованные_'
'заи'
'задолженность_'
'задержки_'
'задачу_'
'завтра_'
'завершены_'
'заболеваний_'
'жу'
'жно'
'жк'
'жительство_'
'житель'
'жителей_'
'жизненно_'
'жизне'
'жестко'
'жертвы_'
'жертвами_'
'женщина_'
'женщин'
'женски'
'жение_'
'жен_'
'жен'
'желез'
'же'
'ждения_'
'жалоб'
'её_'
'ец_'
'ец'
'ех'
'етр'
'есь_'
'еств'
'ес_'
'ерг'
'енность_'
'енно_'
'ена'
'емый_'
'емся_'
'емо'
'ельной_'
'ело'
'елл'
'елен'
'ей'
'ежегодно'
'единства_'
'евы'
'дши'
'духе_'
'доч'
'доступны_'
'доступн'
'достигнуты'
'достигнуто_'
'достигнуто'
'достиг_'
'достаточного_'
'дост'
'дополнительная_'
'доп'
'донор'
'домов_'
'дом'
'должностным_'
'доле_'
'долгосрочной_'
'долгосрочного_'
'долга_'
'документом_'
'докладом_'
'докладах_'
'док'
'дождь_'
'дож'
'добровольцев_'
'добраться_'
'добр'
'добиваться_'
'добавления_'
'добавлени'
'дни_'
'дискуссии_'
'дискусси'
'директивных_'
'дио'
'динами'
'дил'
'дизайн'
'джи_'
'дже'
'джа'
'деяния_'
'детского_'
'детски'
'держав'
'департамент'
'дела'
'декабрь_'
'дек'
'действи'
'дев'
'двусторонни'
'двенадцат'
'дател'
'даст_'
'дар'
'дан'
'дальнейшие_'
'дальнейшем_'
'далеко_'
'давно_'
'давление_'
'дава'
'губ'
'гу_'
'грузов_'
'гри'
'графически'
'границ_'
'гран'
'годовых_'
'годов'
'года'
'говорить_'
'говорили_'
'говори'
'глобальные_'
'главе_'
'гл'
'гидро'
'гид'
'географическо'
'гендерны'
'гар'
'гал'
'газ'
'вь'
'выявлению_'
'выше'
'выч'
'вытекающи'
'высш'
'высокий_'
'высокие_'
'выпуск'
'вынужден'
'вызыва'
'вызов'
'выда'
'выгоду_'
'выгодн'
'выводу_'
'выборы_'
'выбира'
'вшего_'
'вше'
'вш'
'входящих_'
'вся_'
'вступление_'
'встреч_'
'вспомогательных_'
'всеобщего_'
'вред'
'восстановление_'
'воспользоваться_'
'воп'
'вом_'
'волю_'
'воли_'
'вол'
'вок'
'вои'
'возрасте_'
'возникающие_'
'возника'
'возн'
'возможным_'
'возможностью_'
'воздействию_'
'возглавля'
'военные_'
'водител'
'внутренней_'
'вни'
'внешние_'
'власт'
'включал'
'вклада_'
'вис'
'вил'
'визит'
'видом_'
'ви_'
'взгляд'
'взаимосвязь_'
'взаимопонимани'
'взаимодейству'
'взаимодействии_'
'вечером_'
'вечера_'
'вертолет'
'венн'
'величин'
'велико'
'вей'
'ведущ'
'ведомостей_'
'вд'
'ввести_'
'введен'
'ваши_'
'вашей_'
'вание_'
'вами_'
'важные_'
'вает_'
'бюро_'
'бюллетен'
'бюджетов_'
'бюджетной_'
'быстр'
'бывш'
'бщ'
'бумаг_'
'бук'
'бс'
'брат'
'бр'
'большего_'
'большая_'
'боев'
'богат'
'ближайшем_'
'благосостояния_'
'бин'
'билетов_'
'би_'
'бере'
'безопасное_'
'бед'
'бат'
'балл'
'баланс'
'базового_'
'база_'
'баз_'
'ающ'
'ачива'
'африканского_'
'аф'
'атыва'
'атов_'
'атак'
'ат_'
'асти'
'асс'
'ас_'
'аро'
'ареста_'
'арест'
'аппарат'
'ань'
'ант'
'ано_'
'английском_'
'английски_'
'анализировать_'
'аме'
'альтернативных_'
'ало'
'акты_'
'активизировал'
'аки'
'ак_'
'ай_'
'ажа_'
'адресован'
'адреса_'
'адок_'
'административные_'
'адвоката_'
'автором_'
'авторитет'
'автор'
'автомобиль_'
'автомобилей_'
'автоматического_'
'авто'
'абл'
'Яс'
'Юг'
'Эр'
'Экономическ'
'Штатах_'
'Шри_'
'Ширина_'
'Швейцарии_'
'Центральных_'
'Це'
'ЦА'
'Хорватии_'
'Хар'
'ХО'
'ХА'
'Фран'
'Фр'
'Финансовы'
'Филиппин'
'Фил'
'Федерация_'
'Учебн'
'Ут'
'Устав'
'Украин'
'Уд'
'УК'
'УГ'
'Ты_'
'Трет'
'Тре'
'Торговц'
'Тогда_'
'Тан'
'Там_'
'Таиланд_'
'Таджикистана_'
'ТВ'
'Сумма_'
'Судане_'
'Судан_'
'Страница_'
'Стр_'
'Стр'
'Сторонами_'
'Сторон'
'Специальным_'
'Специальн'
'Союза_'
'Социальный_'
'Сол'
'Создание_'
'Соединенное_'
'Содружества_'
'Совместное_'
'Сове'
'См_'
'Ситуация_'
'Сил'
'Сербия_'
'Свет'
'Сан_'
'Само'
'Са'
'СУ_'
'СК'
'Рус'
'Руководство_'
'Руанды_'
'Роди'
'Рим_'
'Рика_'
'Рам'
'Разр'
'Рад'
'РУ'
'Пятого_'
'Пункты_'
'Протоколу_'
'Протокола_'
'Проведение_'
'Прин'
'Примечание_'
'Премьер_'
'Прежде_'
'Превосходительство_'
'Посол_'
'Португалия_'
'Пон'
'Получ'
'Полн'
'Поддержка_'
'Подготов'
'Повышение_'
'Пло'
'Плана_'
'Пит'
'Пи'
'Перу_'
'Пере'
'Перво'
'Парк'
'ПРЕ'
'ПП'
'ПК_'
'ПЕ'
'Ох'
'Ост'
'Орд'
'Он'
'Объединенной_'
'Общие_'
'Обо'
'Область_'
'Обзор_'
'ОСТ'
'ОМ'
'ОАО_'
'Нур'
'Ну'
'Ноябрь_'
'Но'
'Нигерии_'
'Нео'
'Наш'
'Национальный_'
'Национальная_'
'Народно_'
'Нар'
'Над'
'НЫЕ_'
'НК'
'Мэ'
'Мьянмы_'
'Много'
'Минск'
'Мил'
'Миг'
'Международным_'
'Международное_'
'Медиамакс_'
'Марокко_'
'МУ'
'МООНС'
'МК'
'МГ'
'МВФ_'
'Лондон'
'Ло'
'Лешти_'
'ЛЬ'
'Куба_'
'Консультативн'
'Компания_'
'Комментари'
'Комитете_'
'Кла'
'Кер'
'Карт'
'Кари'
'Кал'
'Казахстан'
'Каждая_'
'КР_'
'КР'
'КОН'
'КН'
'КМ'
'Июня_'
'Исландия_'
'Исламской_'
'Ирак'
'Инициативы_'
'Индонезии_'
'Индия_'
'Именно_'
'Иисуса_'
'Иде'
'ИЯ_'
'ИНФОРМАЦИЯ_'
'ИМО_'
'ИЗ'
'ИД'
'Заме'
'Жи'
'Же'
'Ереван_'
'Епископ'
'Египет_'
'Европейск'
'Евро'
'Дум'
'Дополнительн'
'Доля_'
'Диа'
'Джу'
'Джон'
'Дж'
'Деятельность_'
'Детский_'
'Десятилетия_'
'Дания_'
'Далее_'
'ДУ'
'ДИ'
'ДЖ'
'Группу_'
'Грузии_'
'Гре'
'Гражданский_'
'Государству_'
'Государственно'
'Государства_'
'Господь_'
'Господ'
'Гор'
'Год'
'Гн_'
'Глобальной_'
'Гео'
'Генеральному_'
'Габ'
'ГУ'
'Выводы_'
'Выб'
'Вторая_'
'Впоследствии_'
'Восточной_'
'Вир'
'Венесуэла_'
'Вен'
'Велико'
'Введение_'
'Ваше_'
'Вас_'
'Важно_'
'ВВ'
'Британск'
'Ботсван'
'Боснии_'
'Бог_'
'Бело'
'Бей'
'Бангладеш_'
'БС'
'БО'
'Африканского_'
'Африканско'
'Афганистане_'
'Астане_'
'Андре'
'Англии_'
'Ан'
'Але'
'Ал'
'Ай'
'Административные_'
'Аг'
'Автор_'
'Ави'
'Ав'
'АС'
'АР'
'АМИСОМ_'
'АЛ'
'ā'
'ò'
'ð'
'Ð'
'» (_'
'» '
'¸ _'
'· _'
'§ _'
'} '
'{"_'
'zo'
'zan'
'yt'
'you'
'yo'
'yes_'
'ych'
'yah_'
'ya'
'xy'
'xa'
'writing_'
'write_'
'wn_'
'witnesses_'
'withdrawal_'
'withdraw'
'win_'
'willing_'
'white_'
'wer_'
'weight_'
'wash'
'warm'
'wants_'
'vu'
'vs_'
'votes_'
'vocational_'
'visible_'
'vis'
'village_'
'vii_'
'vie'
'via'
'vet'
'versions_'
'verse_'
'vers'
'veri'
'valid_'
'v2_'
'usually_'
'us'
'upt'
'uni'
'ung_'
'unemployment_'
'unable_'
'ums_'
'ument'
'uda'
'uction_'
'tyre_'
'typical_'
'turned_'
'trend_'
'travelling_'
'transmitting_'
'translate_'
'translat'
'trained_'
'train_'
'trailer_'
'tourism_'
'tou'
'totally_'
'total'
'tortured_'
'tom'
'told_'
'tle_'
'timetable_'
'time'
'tight_'
'tie'
'threatened_'
'thou_'
'theory_'
'thank_'
'term'
'tent'
'tenge_'
'tell_'
'tel'
'tea'
'tche'
'tative_'
'targeting_'
'tank_'
'tan_'
'tailored_'
'tables_'
'symp'
'swo'
'swimming_'
'sustain'
'suppress_'
'supplied_'
'supervision_'
'summer_'
'summarized_'
'summ'
'sum_'
'sue_'
'subsistence_'
'submitting_'
'submissions_'
'struggle_'
'strict_'
'stressing_'
'stored_'
'stor'
'stic'
'sten'
'sr'
'sq'
'spr'
'sport_'
'spent_'
'spect'
'specify_'
'specialist_'
'span_'
'sp'
'soul_'
'songs_'
'socio'
'social'
'soc'
'slow'
'skin_'
'ski_'
'ske'
'sins_'
'sil'
'shop'
'shed_'
'shareholders_'
'settle'
'servants_'
'seri'
'separately_'
'sem'
'see'
'securities_'
'sec'
'scientists_'
'scen'
'scar'
'sc_'
'saying_'
'satisfaction_'
'satisf'
'sanitation_'
'sand'
'salary_'
'sak'
'rus_'
'rse'
'ritu'
'rise'
'ris'
'rif'
'ria_'
'ri_'
'retr'
'retire'
'restrict'
'restaurant_'
'resort_'
'residents_'
'resi'
'reserves_'
'reply_'
'replace_'
'repeated_'
'repe'
'rental_'
'rent_'
'renewable_'
'remis'
'reliability_'
'relatives_'
'regulated_'
'regretted_'
'regards_'
'rega'
'refine'
'referring_'
'recording_'
'reasonable_'
'rear_'
'realize_'
'reaffirm'
'reader_'
'react'
'rea'
'rch'
'rb'
'ration_'
'rapporteurs_'
'rain'
'rad'
'rack'
'question'
'quar'
'quantities_'
'pti'
'pte'
'pta'
'protocol_'
'prote'
'pros'
'proportion_'
'projected_'
'programming_'
'producing_'
'producers_'
'proc'
'pro_'
'pric'
'preventive_'
'preventing_'
'presents_'
'preliminary_'
'pregnant_'
'pot'
'posters_'
'portal_'
'pools_'
'poll'
'pledged_'
'pleasure_'
'plays_'
'plane_'
'pin'
'pieces_'
'pictures_'
'picture_'
'phe'
'petition_'
'permanently_'
'ped'
'peacebuilding_'
'pea'
'pay'
'patterns_'
'participatory_'
'parental_'
'paras_'
'parallel_'
'par'
'pan'
'pain_'
'pa_'
'oy'
'ow'
'overview_'
'overse'
'ova'
'ously_'
'osi'
'ort'
'oro'
'organizing_'
'orders_'
'orc'
'opposed_'
'opi'
'open'
'ook_'
'olo'
'oli'
'ok'
'oj'
'od_'
'ocean_'
'occurred_'
'occupying_'
'occup'
'obstacle_'
'observed_'
'obe'
'nsi'
'notion_'
'nos'
'normative_'
'nni'
'nk_'
'nit'
'nis'
'nice_'
'nic'
'ngl'
'nge'
'nga'
'nevertheless_'
'nets_'
'nes'
'neighbouring_'
'negotiation_'
'nee'
'nearly_'
'nation_'
'nat'
'mut'
'municipalities_'
'ms'
'moved_'
'motor'
'mothers_'
'mother_'
'monuments_'
'moi'
'modified_'
'mo_'
'mm'
'minors_'
'minority_'
'mid'
'meta'
'mes_'
'mes'
'merc'
'menu_'
'men'
'meant_'
'mc'
'match'
'master_'
'massive_'
'marked_'
'mari'
'margin'
'manufacture_'
'manual_'
'managed_'
'manage_'
'magnificent_'
'lunch_'
'luc'
'lov'
'losses_'
'lose_'
'los'
'looking_'
'loo'
'long'
'logue_'
'logistical_'
'lock_'
'locations_'
'lm'
'lli'
'lle'
'liti'
'litera'
'liquidity_'
'linked_'
'line'
'lin_'
'lights_'
'lif'
'liability_'
'li_'
'lete'
'lest_'
'lera'
'lean'
'law'
'launch_'
'lau'
'latest_'
'lamps_'
'lamp_'
'labelling_'
'kz_'
'ks'
'ja_'
'ized_'
'iz'
'iv'
'istic'
'iss'
'ism_'
'ire_'
'ion'
'io'
'invites_'
'investors_'
'invent'
'intra'
'intervene_'
'internet_'
'interim_'
'interactive_'
'intensive_'
'intensified_'
'instruction_'
'install_'
'insta'
'inquiry_'
'innovative_'
'inland_'
'injur'
'inheritance_'
'inhabitants_'
'infected_'
'industries_'
'indu'
'ina_'
'impossible_'
'imposed_'
'imports_'
'imply_'
'imperative_'
'impacts_'
'immunity_'
'ima'
'ik'
'ign'
'ight_'
'ig_'
'iding_'
'identity_'
'identifying_'
'ideas_'
'ice'
'ibi'
'iPod_'
'hydrocarbon_'
'human'
'ht'
'hopes_'
'hoped_'
'hood_'
'hom'
'historic_'
'hire'
'het'
'hearings_'
'hazardous_'
'gun'
'guide_'
'guarantees_'
'green_'
'grati'
'graphy_'
'grad'
'gne'
'gna'
'gn'
'glo'
'gha'
'getting_'
'geographic_'
'genetic_'
'generation_'
'generating_'
'gence_'
'ged_'
'gation_'
'gains_'
'fy_'
'fulfilment_'
'fulfilled_'
'fu'
'fs_'
'front'
'fro'
'friends_'
'fri'
'fr'
'foster_'
'formulated_'
'formula_'
'form'
'foreseen_'
'flight_'
'fixed_'
'fissile_'
'fin'
'filter_'
'filling_'
'figures_'
'ffe'
'ff_'
'fel'
'feeling_'
'fax_'
'fast_'
'fas'
'farms_'
'fantas'
'fal'
'fair'
'facilitation_'
'ey'
'extremely_'
'extradite_'
'exploit'
'explicitly_'
'explained_'
'experiment'
'experienced_'
'expenses_'
'expects_'
'expand_'
'existence_'
'exceeded_'
'examining_'
'exacerbated_'
'ett'
'ete'
'estate_'
'establishments_'
'ers'
'ern'
'ere_'
'ere'
'eradication_'
'equivalent_'
'equally_'
'eous_'
'environmentally_'
'entire_'
'ent'
'ensi'
'enormous_'
'ening_'
'engineers_'
'engage_'
'endi'
'encourage_'
'enabling_'
'ena'
'empowering_'
'employer_'
'emphasizes_'
'emo'
'ely_'
'elli'
'elf'
'electricity_'
'ele'
'elaboration_'
'ek'
'ei_'
'eh'
'ees_'
'een_'
'edge_'
'earth_'
'ead_'
'dy'
'dual_'
'du_'
'ds'
'dru'
'drops_'
'dro'
'dre'
'drawing_'
'dos'
'dol'
'div'
'dismissed_'
'disabled_'
'diploma'
'differences_'
'diet_'
'dict'
'dic'
'dial'
'detect'
'detainees_'
'det'
'destr'
'desire_'
'desi'
'desconocido_'
'depth_'
'deposit'
'depend_'
'departments_'
'departmental_'
'department_'
'dent_'
'deleted_'
'del'
'def'
'deemed_'
'declined_'
'deb'
'deadl'
'dd'
'dal'
'custody_'
'ct'
'cross'
'credible_'
'credentials_'
'cre'
'courage'
'counter'
'corresponding_'
'correspond'
'copy_'
'coordinates_'
'conventional_'
'conv'
'continuous_'
'contacts_'
'consumer_'
'constructive_'
'constitute_'
'confirmation_'
'conf'
'condemned_'
'concludes_'
'complemented_'
'compiled_'
'compar'
'committing_'
'commit_'
'commerce_'
'comme'
'comes_'
'combination_'
'comb'
'com'
'collect_'
'coll'
'cola'
'col'
'classification_'
'civic_'
'circulated_'
'circu'
'ci_'
'cht'
'chosen_'
'ched_'
'cheap_'
'char'
'chap_'
'changed_'
'chan'
'champion_'
'chaired_'
'cell_'
'ced_'
'causing_'
'cast'
'captured_'
'capable_'
'cally_'
'calculations_'
'c6'
'but'
'bull'
'bru'
'bottle'
'borders_'
'bor'
'bol'
'blo'
'bir'
'bio'
'binding_'
'bia'
'bi_'
'belong'
'begun_'
'becoming_'
'becomes_'
'beat'
'bearing_'
'bear'
'bb'
'bas_'
'bas'
'bar_'
'band_'
'balanced_'
'back'
'azi'
'award'
'awa'
'avo'
'automatically_'
'auto'
'audits_'
'atu'
'attached_'
'ats'
'ata'
'at'
'ast_'
'associations_'
'assists_'
'assisted_'
'ase'
'arrived_'
'arrange_'
'arr'
'aro'
'ari'
'ards_'
'archi'
'appreciate_'
'appraisal_'
'appeals_'
'app'
'apartments_'
'ants_'
'ant'
'annexes_'
'and'
'ancient_'
'ances_'
'analysed_'
'amounting_'
'alt_'
'allegedly_'
'ak_'
'ain'
'afford_'
'affecting_'
'advise'
'advancing_'
'adopting_'
'administering_'
'adjustment_'
'ade'
'acknowledge_'
'accu'
'accounted_'
'accessibility_'
'academic_'
'abroad_'
'abo'
'ably_'
'abi'
']]>_'
'], _'
'\'
'Zone_'
'Yo'
'Yemen_'
'XIII_'
'Wo'
'Without_'
'Wil'
'Were_'
'Welcomes_'
'We'
'Wal'
'WTO_'
'WE'
'WC_'
'Vol_'
'Vol'
'Virginia_'
'Ver'
'Uzbekistan_'
'User_'
'Us'
'Unl'
'Ul'
'Uganda_'
'UNS'
'UNMIK_'
'UNM'
'UM'
'UE'
'Trojan_'
'Tri'
'Treatment_'
'Tr'
'Tourism_'
'Togo_'
'Titan_'
'Three_'
'Terr'
'Ten'
'Tel_'
'Tax_'
'Tat'
'Take'
'TIONS_'
'TH'
'TGC_'
'TA_'
'T1'
'Syn'
'Sunrise_'
'Subcommittee_'
'Sub'
'Stress'
'Stra'
'Statements_'
'Standing_'
'Standards_'
'Spirit_'
'Sou'
'Soci'
'Sky'
'Session_'
'Sea'
'Sc'
'Sam'
'Saharan_'
'SS_'
'SO'
'SN'
'SF'
'SE_'
'Round_'
'Right_'
'Rico_'
'Ric'
'Reports_'
'Recognizes_'
'Rea'
'Rating_'
'RU'
'RS'
'RP'
'RO'
'RF'
'RC_'
'RA_'
'Qatar_'
'Q_'
'Puerto_'
'Provision_'
'Promoting_'
'Product'
'Prince_'
'Prime_'
'Prim'
'Presidents_'
'Presidential_'
'Pra'
'Port_'
'Pool_'
'Poli'
'Pin'
'Pet'
'Peru_'
'Per'
'Peoples_'
'Pension_'
'Payments_'
'Part'
'Park_'
'Palestinians_'
'Pala'
'Pal'
'PS'
'PRE'
'PR'
'POS'
'PE'
'PD'
'PA'
'Overview_'
'Overall_'
'Om'
'Object'
'OT'
'OM_'
'Nurs'
'News_'
'Network_'
'Net'
'Naz'
'Nat'
'Nas'
'NM'
'NG_'
'NAM'
'Mur'
'Multi'
'Mont'
'Monaco_'
'Mon_'
'Modul'
'Mining_'
'Mid'
'Micro'
'Mel'
'Mega'
'Master'
'Mas'
'Market'
'Map_'
'Manual_'
'Malta_'
'Malaysia_'
'Mak'
'Macedonia_'
'MI'
'ME_'
'MC'
'M1'
'Lukashenko_'
'Love_'
'Leg'
'League_'
'Latest_'
'Lab'
'LL'
'LC'
'Kuwait_'
'Kong_'
'Kn'
'Kl'
'Key_'
'Kazakh_'
'Kara'
'Judge_'
'Joseph_'
'Ji'
'Jamaica_'
'Issues_'
'Interim_'
'Inspector'
'Inhuman_'
'Independence_'
'Illicit_'
'INTERNATIONAL_'
'ING_'
'INC'
'IG'
'ICC'
'IA'
'Hotels_'
'Hospital_'
'Hor'
'Home'
'Hoc_'
'Hit'
'Himself_'
'Hand'
'Hal'
'Habitat_'
'HI'
'H3'
'Guyana_'
'Guide_'
'Gro'
'Gra'
'Gr'
'Gl'
'Geo'
'Gas'
'Gal'
'GRPE_'
'Fun'
'Fre'
'Fra'
'Foundation_'
'Forests_'
'Footwear_'
'Follow_'
'Florida_'
'Flo'
'Fish'
'Finnish_'
'Finally_'
'Feb_'
'Family_'
'FROM_'
'FIF'
'FA_'
'Exp'
'Exchange_'
'Evidence_'
'Ev'
'Equi'
'Enterprise_'
'Encuentro_'
'Employment_'
'Emphasizing_'
'El'
'Eco'
'Ec'
'Each_'
'ER_'
'EIA_'
'EF'
'ECT'
'Duma_'
'Dri'
'Down'
'Dominatrix_'
'Directive_'
'Digital_'
'Description_'
'Demo'
'Def'
'David_'
'DEC'
'Cy'
'Count_'
'Counsel_'
'Copyright_'
'Copenhagen_'
'Contact_'
'Cons'
'Congress_'
'Conduct_'
'Conce'
'Commonwealth_'
'Commerce_'
'Comm'
'Climate_'
'Che'
'Char'
'Chan'
'Chairs_'
'Cat'
'Cas'
'Capital_'
'Can_'
'Cal'
'CRP_'
'CP'
'CONTENTS_'
'CN'
'CES_'
'CD'
'CC'
'Breakfast_'
'Bou'
'Bon'
'Black_'
'Bl'
'Biological_'
'Between_'
'Based_'
'Barb'
'Ban'
'Bala'
'BI'
'BE'
'BBCode_'
'Auditors_'
'Armed_'
'Anti'
'Ann'
'Ameri'
'Amazon_'
'Alliance_'
'Ala'
'Air'
'Agricultural_'
'Ag'
'Af'
'Acts_'
'Accounts_'
'AV'
'ATION_'
'AN_'
'AG_'
'AF'
'AD_'
'AB_'
'AB'
'A4'
'@@@@'
'@#'
'@'
'= _'
': - _'
'986'
'92'
'861'
'83'
'750_'
'480_'
'455_'
'419'
'350_'
'338_'
'323_'
'320'
'269_'
'268_'
'260'
'244_'
'233_'
'226_'
'211'
'209_'
'206_'
'1983_'
'1975_'
'1970_'
'1960_'
'194'
'192_'
'192'
'19'
'187'
'186'
'178'
'176_'
'173'
'172_'
'165_'
'165'
'161_'
'155'
'148'
'146_'
'144_'
'142_'
'138_'
'1389'
'131_'
'115_'
'105'
'100'
'03'
'/._'
'/.'
'.:'
'.), _'
'- '
', — _'
'**_'
'))'
'''
'%. _'
'%)_'
'##'
'"]=> _'
'"; _'
'"(_'
' © _'
' :: _'
' :'
' /..._'
' ...'
' .'
' ****'
' * _'
' *'
' (<<_'
' '_'
'리'
'西'
'莫'
'斯_'
'● _'
'№_'
'” (_'
'і_'
'ёт_'
'ённы'
'ён_'
'ём'
'ё_'
'яющих_'
'яно'
'яни'
'ял'
'яко'
'яй'
'языках_'
'яза'
'яз'
'яемы'
'яе'
'ядерн'
'ягч'
'являться_'
'яви'
'ющими_'
'ющий_'
'ющи'
'юрисдикци'
'юношей_'
'юн'
'юми'
'юл'
'южной_'
'эффективным_'
'эффективно_'
'этнического_'
'этнически'
'эс'
'эпидеми'
'энергос'
'энергети'
'элементами_'
'электроэнергии_'
'электронная_'
'электрон'
'экспортны'
'экспертн'
'экспертиз'
'эксперимент'
'эксп'
'экономическую_'
'экономическое_'
'экономическим_'
'экономике_'
'эконом'
'ьственны'
'ьски'
'ьси'
'ьни'
'ьн'
'ьма'
'ьз'
'ье'
'ытия'
'ыни'
'ыла'
'ыка'
'ывания_'
'ыв_'
'ъявл'
'ъе'
'щую'
'щн'
'щихся_'
'щенно'
'щен'
'щее_'
'щего_'
'щать_'
'штраф'
'штате_'
'шне'
'шли'
'шл'
'школьн'
'шкал'
'шив'
'шения_'
'шей'
'ше_'
'шв'
'шан'
'шаг'
'чь'
'чуж'
'чувство'
'чрезвычайные_'
'чрезвычайн'
'чо'
'чной_'
'чно'
'членом_'
'член_'
'чительн'
'читать_'
'чисты'
'чис'
'чив'
'четырьмя_'
'четк'
'четверг_'
'чес'
'черт'
'ченн'
'человечества_'
'человеческой_'
'человеко'
'челове'
'чаще_'
'частях_'
'частот'
'частном_'
'частиц_'
'чайши'
'цк'
'циями_'
'цифр'
'цирова'
'ционной_'
'церемони'
'центральным_'
'центральную_'
'центрально'
'центра'
'ценных_'
'ценны'
'ценно'
'цена_'
'целями_'
'целостн'
'цело'
'целенаправленно'
'целевой_'
'цев'
'цвет_'
'цах_'
'ца'
'хроническ'
'хотите_'
'хот'
'хороши'
'хор'
'холод'
'хозяйство_'
'хозяйств_'
'хоз'
'ходом_'
'ходатайствова'
'ходатайство_'
'хлор'
'химически'
'хи_'
'хвата'
'хват'
'харти'
'характер'
'ха_'
'футбол'
'функциональны'
'функци'
'фрукт'
'формулировку_'
'формул'
'формирования_'
'формирование_'
'формато'
'формам'
'форм'
'фол'
'флаг'
'фл'
'фирм'
'финансово'
'фин'
'фильм'
'фил'
'фиксировать_'
'фикаци'
'физической_'
'фей'
'федерации_'
'факульт'
'факт'
'файлом_'
'уязвимости_'
'уязвим'
'уя_'
'ующим'
'ующее_'
'уюся_'
'уще'
'ущ'
'уши'
'учреждены_'
'учреждению_'
'учрежден_'
'учредило_'
'участок_'
'участни'
'участков_'
'участк'
'участвующих_'
'ухода_'
'уть_'
'утрат'
'утр'
'утвержденной_'
'утверждать_'
'утверди'
'ута'
'устройств_'
'устройств'
'устранить_'
'устойчиво'
'установленного_'
'установлении_'
'установи'
'устанавливаться_'
'устанавливается_'
'успех'
'усовершенствова'
'усм'
'уско'
'усилить_'
'усилива'
'усили'
'усиления_'
'усилени'
'уровней_'
'уров'
'уро'
'урегулированию_'
'урегулирование_'
'ура_'
'ур_'
'упрощени'
'упро'
'управляющей_'
'управляющ'
'управленческой_'
'управлении_'
'упор'
'упом'
'упо'
'уплени'
'упаковки_'
'упа'
'уничтож'
'уникальны'
'универсального_'
'унд'
'уна_'
'уменьша'
'уме'
'улучшении_'
'улучшение_'
'укт'
'украинск'
'уко'
'указывают_'
'указывалось_'
'указанных_'
'указанного_'
'указанн'
'указания_'
'узо'
'узнать_'
'уз'
'ужи'
'удовольстви'
'удовлетворить_'
'удо'
'удит'
'удивлен'
'уди'
'уделял_'
'удастся_'
'ударственн'
'удаление'
'удается_'
'уда'
'угрозе_'
'угрожает_'
'угро'
'уголовном_'
'углубленн'
'угле'
'угл'
'увольнени'
'увол'
'увидел'
'уверенность_'
'увеличились_'
'увеличивал'
'увеличивается_'
'увеличению_'
'уважением_'
'уважени'
'убо'
'убеди'
'уар'
'уальн'
'тяжки'
'тяжелы'
'тяже'
'тюр'
'ть'
'ты'
'тщательно'
'тур_'
'ттер'
'трудоустройств'
'трудно_'
'трубопроводов_'
'тринадцатой_'
'трибуналов_'
'трибунал'
'трехстороннего_'
'третий_'
'трен'
'требу'
'требованиями_'
'требова'
'тре'
'транспарентность_'
'транспарентности_'
'транснациональной_'
'трансграничных_'
'трансграничны'
'трансгранично'
'транз'
'трагическо'
'тр_'
'точнее_'
'точек_'
'торговой_'
'топливо_'
'топлив'
'том'
'толковании_'
'толк'
'товарами_'
'товал'
'тные_'
'тне'
'тко'
'тка'
'тк'
'тически'
'тици'
'тите'
'типы_'
'типовы'
'тиморских_'
'тим'
'тике_'
'тийско'
'тиз'
'тивн'
'тив'
'теч'
'технологическо'
'техническому_'
'технический_'
'технические_'
'технике_'
'тесто'
'тесн'
'террористической_'
'территори'
'термина_'
'тепло'
'тенденции_'
'тематических_'
'тельный_'
'тельн'
'тело'
'телефона'
'текущей_'
'текстов_'
'тек'
'творческ'
'твор'
'твердо_'
'твер'
'танц'
'танк'
'там'
'такси_'
'таком_'
'таковы'
'так'
'таблиц'
'таб'
'сю'
'сь'
'сыно'
'счетам_'
'счет'
'сч'
'сформулированн'
'существование_'
'существенных_'
'существенного_'
'существенн'
'суш'
'сур'
'супруг'
'судьями_'
'судьб'
'судебные_'
'судебны'
'судебном_'
'суда'
'субрегиональных_'
'суб'
'сты_'
'студент'
'сту'
'структурных_'
'строительств'
'строго_'
'стремится_'
'страхования_'
'страх'
'стратегия'
'стратегическим_'
'страновы'
'страновом_'
'страни'
'страж'
'стоящи'
'сторонние_'
'сторона_'
'стор'
'стоп'
'столкнул'
'столб'
'стн'
'стическо'
'стическ'
'стихийных_'
'стимулир'
'стереотипов_'
'стенографически'
'стек'
'ственны'
'ственная_'
'статистического_'
'статистике_'
'старшего_'
'старш'
'стара'
'стану'
'становиться_'
'станов'
'стандартам'
'стандарта_'
'стадии_'
'ставши'
'ставок_'
'ставит'
'став'
'стабильны'
'ста_'
'ссе'
'сса'
'средствам_'
'средни'
'средней_'
'среда_'
'сред'
'сравни'
'спутниково'
'спутников_'
'спрашивает_'
'спр'
'способствовало_'
'способны_'
'способа'
'списка_'
'спис'
'спи'
'специальным_'
'специальн'
'специализированными_'
'специали'
'спец'
'спе'
'спас'
'союзом_'
'сочли_'
'социальн'
'сохраняющи'
'сохранение_'
'сотрудничает_'
'сотруднича'
'сотрудни'
'сот'
'состоящи'
'состоявшегося_'
'составляла_'
'составлял'
'составля'
'составит'
'составила_'
'составил_'
'сосредоточи'
'сосредоточен'
'соседних_'
'сопоставлени'
'соотношени'
'соответствова'
'соот'
'сооружений_'
'сообщило_'
'сообществу_'
'сообщени'
'сообще'
'сообщается_'
'сомнения_'
'солидарност'
'сокращен'
'сократи'
'сокр'
'созыв'
'созна'
'создают_'
'создан_'
'создает_'
'соединя'
'содержащую'
'содержащийся_'
'содержащие_'
'содержащей'
'содержащ'
'содержани'
'содействовал'
'соглашениями_'
'согласованности_'
'согласова'
'согласился_'
'согласились_'
'согласен_'
'современные_'
'современн'
'совокупности_'
'сово'
'совместные_'
'совместим'
'совещаниях_'
'совет'
'совершенствовать_'
'совершении_'
'событие'
'собственной_'
'собственн'
'собрания_'
'собраний_'
'собра'
'собор'
'соб'
'снос'
'снимков_'
'снизил'
'снижени'
'смотрит'
'смотр'
'сможет_'
'смет'
'смерть_'
'смертности_'
'смерти_'
'смен'
'случаю_'
'случа'
'служащих_'
'слоя_'
'сложи'
'следствие_'
'следств'
'сл'
'скри'
'скр'
'скота_'
'скорость_'
'скими_'
'скаутов_'
'сказа'
'сия_'
'сич'
'сит'
'системн'
'системати'
'симп'
'символ'
'сим'
'сильно'
'силов'
'сессией_'
'серьезным_'
'серьезного_'
'сертификат'
'середин'
'сердечно_'
'семьям_'
'семья_'
'сельскохозяйственн'
'сельски'
'секци'
'секторами_'
'сексуальных_'
'седа'
'северной_'
'севера_'
'сделаны_'
'сде'
'сдвиг'
'связыва'
'связанно'
'связа'
'свяжитесь_'
'своевременно'
'свободно'
'свидетельство'
'свидетельств'
'свидетел'
'санкционированны'
'санкционирован'
'самолет'
'сама_'
'сал'
'сайтов_'
'ряде_'
'рю'
'рь'
'рынков_'
'рынках_'
'рше'
'рциум'
'рующи'
'руководителями_'
'руководи'
'руется_'
'руемы'
'рп'
'росту_'
'ростом_'
'рони'
'ром_'
'рок'
'рой'
'рождения_'
'родны'
'рованны'
'рования_'
'рован'
'рный_'
'рного_'
'рми'
'рм'
'рия'
'рисунк'
'риски_'
'риз'
'рие'
'рива'
'решен'
'рец'
'реформу_'
'реформировани'
'реформа_'
'ресурсах_'
'реструктуризации_'
'ресторан'
'рер'
'ренци'
'ренно'
'рения_'
'ремонту_'
'ремонт_'
'ремонт'
'ременн'
'религи'
'реконструкции_'
'рекомендуем_'
'рекоменду'
'рекомендацией_'
'рей'
'реинтеграции_'
'реинтегр'
'результатами_'
'резонанс'
'резолюциями_'
'резко'
'резервны'
'регулярного_'
'регулированию_'
'регистраци'
'регистр'
'региональн'
'регион_'
'рег'
'ребёнка_'
'ребенок_'
'реальных_'
'реальном_'
'реально'
'реальн'
'реализ'
'реагировать_'
'рва'
'рачи'
'рафи'
'рать_'
'ратифицирова'
'рати'
'расширяет'
'расширенн'
'расшир'
'расчист'
'растущи'
'растени'
'рассчитанн'
'рассмотрен_'
'рассмотрен'
'рассматриваться_'
'рассм'
'расс'
'распространен'
'распределени'
'расположенные_'
'распознать_'
'расписание_'
'раннем_'
'ранн'
'рамочных_'
'рамочно'
'рали_'
'ракет_'
'районы_'
'районами_'
'разъ'
'разумн'
'разрешено_'
'разрешать_'
'разрабатывать_'
'разоружение_'
'разоружени'
'разницу_'
'размещени'
'размещен'
'размеща'
'различий_'
'разл'
'разго'
'разг'
'развит'
'развертыва'
'развернут'
'разв'
'разбивк'
'разб'
'радиации_'
'рада'
'рад'
'пятой_'
'пятниц'
'пятнадцат'
'пятидесятой_'
'пытал'
'пыл'
'пы'
'путе'
'пус'
'публично'
'публикуе'
'психолог'
'психо'
'психи'
'прямых_'
'прямые_'
'проявления'
'проявить_'
'проя'
'прош'
'процессуальн'
'процессом_'
'процесса'
'процентно'
'процент_'
'процедуре_'
'процедурами_'
'процедура_'
'проходи'
'профилактики_'
'профессиональных_'
'професс'
'протоколов_'
'протокол_'
'противоречат_'
'противн'
'прот'
'пространств'
'просроченн'
'просмотра_'
'прор'
'проп'
'промышленной_'
'пролета'
'прол'
'прокурор'
'прокуратуры_'
'прокл'
'производству_'
'производством_'
'производственны'
'производительност'
'произведен'
'произв'
'прозрачно'
'прожива'
'проекте_'
'проектами_'
'продукты_'
'продукт'
'продолжил_'
'продолжения_'
'продолжал_'
'продо'
'продлени'
'продви'
'продаж_'
'продаж'
'продав'
'прогрессе_'
'прогресс'
'проголосова'
'провоз'
'проводятся_'
'проводимых_'
'проводим'
'проводила'
'прово'
'проверке_'
'проверка_'
'проверк'
'провели_'
'проведенно'
'проблемных_'
'проблеме_'
'проблематике_'
'проблематик'
'проблемами_'
'проблема'
'прияти'
'приш'
'причитающ'
'причины_'
'причинах_'
'присутствова'
'присутствие_'
'природы_'
'природоохранных_'
'природо'
'природ'
'приобрета'
'принятию_'
'принятием_'
'прину'
'принимающи'
'принимали_'
'принимал'
'принадлежит_'
'принадлежащ'
'примирения_'
'примирени'
'примеров_'
'примера_'
'применяемых_'
'применим'
'приложением_'
'прилагаемы'
'прилага'
'прикладны'
'признать_'
'признанны'
'признак'
'признава'
'призвал_'
'призва'
'придержива'
'приговор'
'приглаш'
'приво'
'привлеч'
'привлекат'
'приветствуем_'
'приветствовал'
'приветств'
'приверженности_'
'привержен'
'приведет_'
'прибыли_'
'прибыв'
'приблизительно'
'прибегать_'
'прибег'
'префе'
'преступны'
'преступлени'
'преподаватель'
'прений_'
'прекращении_'
'прекрасны'
'преимущества_'
'президент_'
'през'
'прежнего_'
'предыдущи'
'предъявлен'
'предусмотреть_'
'предусмотренным_'
'предусмотренн'
'предусматривающ'
'предупреждении_'
'представляющим_'
'представлял'
'представленной_'
'представлению_'
'представит_'
'представи'
'предприятие_'
'предпринятые_'
'предпринимать_'
'предпринимателей_'
'предпринимаемы'
'предпри'
'предполож'
'предполагает_'
'предполагаем'
'предпис'
'предоставляющим'
'предоставлял'
'предоставляемых_'
'предоставляемы'
'предоставлению_'
'предмет'
'предложенн'
'предложению_'
'предложени'
'предлагаемо'
'пределен'
'предварительном_'
'преамбул'
'практическо'
'практические_'
'правопримен'
'правоохранительн'
'правозащитник'
'правовы'
'правовом'
'правления_'
'правами_'
'пр'
'появления_'
'появи'
'почв'
'поч'
'пох'
'потребуется_'
'потребовать_'
'потребностя'
'потребительских_'
'потребител'
'потомк'
'поток'
'потер'
'потенциальных_'
'потенциальные_'
'поступивш'
'поступаю'
'построени'
'пострадавшим_'
'постоянным'
'постоянные_'
'посто'
'постановлени'
'поставщиков_'
'поставленных_'
'поставки_'
'пост_'
'посредник'
'пособ'
'послужи'
'последующих_'
'последующим_'
'последовательны'
'посла_'
'посла'
'посеща'
'поселений_'
'посвященны'
'посвященно'
'поручи'
'поручен'
'поправкам'
'попр'
'попе'
'попа'
'поощрять_'
'поощряется_'
'поо'
'понят'
'понимание_'
'помощника_'
'помощник'
'пользу_'
'пользователями_'
'пользователя_'
'пользовани'
'получи'
'полученные_'
'получение_'
'положительные_'
'положительно'
'положит'
'половин'
'полов_'
'полным_'
'полицией_'
'полагает_'
'покрытия_'
'покр'
'покида'
'показател'
'показаний_'
'показали_'
'пок'
'позиция'
'позиций_'
'позитивным_'
'поздравля'
'поздрав'
'позволяя_'
'позволял'
'позволили_'
'позволил'
'пожилых_'
'пожи'
'пожар'
'поезд'
'подчеркнуть_'
'подходящи'
'подходы_'
'подходе_'
'подтверждение_'
'подтвердить_'
'подтвердили_'
'подрыва'
'подрыв'
'подростков_'
'подробных_'
'подробн'
'подраздел'
'подпункте_'
'подпункт'
'подписани'
'подписа'
'подпис'
'подотчетность_'
'подобных_'
'подня'
'подлинн'
'подлежат_'
'подк'
'поддерживаю'
'поддержал'
'подготовленные_'
'подготовлен_'
'подготовительно'
'подверга'
'подв'
'подбор'
'подал'
'погру'
'погода_'
'повышении_'
'повыша'
'повторя'
'поврежден'
'повлия'
'поведения_'
'побед'
'побе'
'плот'
'плоскост'
'пло'
'плиты_'
'пли'
'пленарны'
'платформу_'
'платежей_'
'пласт'
'планом'
'планируемы'
'планирование_'
'плав'
'письме_'
'пик'
'перспективных_'
'периодическом_'
'периодического_'
'периодич'
'период'
'пери'
'переш'
'перечня_'
'перечисленны'
'перечислен'
'перехода_'
'перестройк'
'пересмотренные_'
'пересмотренн'
'пересмотра_'
'пересматрива'
'переселения_'
'перераспределени'
'перемещенным'
'передн'
'передача_'
'передан'
'передает'
'передаваемых_'
'переводо'
'первых_'
'первоначальной_'
'первоначальн'
'первичн'
'первая_'
'пени'
'педагог'
'пати'
'пассажиров_'
'партнеры_'
'партнерство_'
'партиях_'
'партий_'
'парламент_'
'парковк'
'параллел'
'пара_'
'пани'
'пане'
'пан'
'паль'
'палестинск'
'ощу'
'очных_'
'очным_'
'очные_'
'очк'
'очи'
'оценкой_'
'оценивать_'
'оцен'
'охранн'
'охран'
'охватывает_'
'официальны'
'официальн'
'офицеро'
'офис'
'отчетного_'
'отсутств'
'отрица'
'отраслев'
'отразить_'
'отражают_'
'отр'
'отпуск'
'отправления_'
'отобра'
'относящихся_'
'относящи'
'относительно'
'относи'
'отмечали_'
'отметив_'
'отмене'
'отмен'
'отл'
'открыто'
'открыт'
'отклонени'
'отклон'
'отказыва'
'отказе_'
'отказа_'
'отказа'
'отель_'
'отдельным_'
'отделов_'
'отделение_'
'отдел'
'отводи'
'ответственных_'
'ответ'
'ота_'
'осуществляем'
'осужд'
'остров_'
'остаточн'
'остаток_'
'остал'
'остав'
'особенностей_'
'особ'
'осо'
'основную_'
'основного_'
'основанных_'
'основанные_'
'оснований_'
'основа_'
'основа'
'освобо'
'оружи'
'ору'
'орм'
'органическ'
'организовыва'
'организована_'
'организован'
'орган'
'опубликованн'
'оптимизации_'
'оптимально'
'опроса_'
'определенным'
'определенно'
'определении_'
'оправдани'
'оплате_'
'опл'
'описание_'
'описани'
'описа'
'опира'
'опи'
'операция'
'оперативны'
'оперативного_'
'опе'
'опасно'
'опас'
'оо'
'онным_'
'онер'
'онально'
'она'
'омбудсмен'
'ольн'
'оле'
'окружающую_'
'окружающ'
'окн'
'окл'
'оккупации_'
'оккупаци'
'оказались_'
'ока'
'озаглавленном'
'озаглавленного_'
'озабочен'
'ожидания_'
'ожидает_'
'ожидаемы'
'ожи'
'оженн'
'ож'
'оев'
'одства_'
'одобрени'
'одежды_'
'огромн'
'ограничены_'
'ограниченны'
'ограниченного_'
'ограничений_'
'ого'
'оги'
'овым_'
'овый_'
'овы'
'овощ'
'овое_'
'ового_'
'ович_'
'ове'
'овало_'
'овал'
'обязыва'
'обязательным_'
'обязан_'
'обязан'
'обычной_'
'обы'
'объясн'
'объявлени'
'объяв'
'объем'
'объекты_'
'объективно'
'объектах_'
'объединя'
'объединения_'
'общин'
'обществу_'
'общественные_'
'обществе_'
'обществ_'
'общес'
'общем_'
'обусловленных_'
'обусловленн'
'обусловлен'
'обсуждении_'
'обсуждали'
'обстановки_'
'обслуживанию_'
'обращению_'
'обращение'
'обращается_'
'обращает_'
'обратиться_'
'обрат'
'обработ'
'обоснованно'
'обосновани'
'оборон'
'обог'
'обновл'
'облегчить_'
'областям_'
'обзор'
'обеспечивая_'
'обеспечивающи'
'обеспечивающе'
'обеспечиваться_'
'обеспечивается_'
'обеспечи'
'обеспечением_'
'обес'
'обеим'
'обе_'
'обвин'
'нынешних_'
'нужн'
'нуждаются_'
'нужд'
'нство'
'нси'
'ноябрь_'
'нота'
'нося'
'носить_'
'носит'
'нормативно_'
'нормативн'
'норм'
'нор'
'номе'
'новы'
'новом_'
'новаторских_'
'нность_'
'нном_'
'нно_'
'нни'
'нная_'
'нку'
'нка'
'ниям_'
'ниц'
'ните_'
'нир'
'нин'
'никто_'
'низк'
'низ'
'нижни'
'нижней_'
'неэффективн'
'нехватк'
'нефт'
'неф'
'неуд'
'несчастны'
'нестров'
'нестабильн'
'несообщаем'
'несомненно_'
'несколькими_'
'несамоуправляющихся_'
'нередко_'
'нераспространения_'
'нер'
'непро'
'неприятно_'
'неприсоединившихся_'
'непрерывно'
'непре'
'неправительственные_'
'неп'
'неофициальн'
'неотложн'
'неос'
'неопределенност'
'неоднократн'
'необходимого_'
'необходим'
'необ'
'нено_'
'нен'
'немецк'
'нел'
'некоторыми_'
'нейш'
'нейтрал'
'ней'
'неизменно'
'неизбежн'
'незаконных_'
'незаконной_'
'незаконно'
'независимых_'
'независимость_'
'независим'
'недискриминаци'
'недели'
'недвижимость'
'недвижимости_'
'негативных_'
'негативное_'
'небольшие_'
'нде'
'нд'
'нашем_'
'наша_'
'начинает'
'начальник'
'нач'
'национальную_'
'находящимся_'
'находящимися_'
'настоятельны'
'наст'
'насилием_'
'насил'
'насел'
'нас'
'нарушил'
'народно'
'народ_'
'наркотикам_'
'напря'
'направлять_'
'направлены_'
'направленно'
'направленн'
'направления_'
'направлений_'
'направление_'
'направлена_'
'напомни'
'наполн'
'написа'
'наоборот_'
'нанесен_'
'намерены_'
'наме'
'налога_'
'налог'
'нала'
'нал'
'наказаний_'
'найма_'
'найден'
'наибольше'
'наи'
'называ'
'назначи'
'назначении_'
'назначен_'
'назнача'
'наземно'
'назван'
'надлежащие_'
'надлежащ'
'надз'
'надеяться_'
'надежности_'
'надеж'
'надеемся_'
'награжден'
'нагр'
'наблюдатель_'
'наблюдатели_'
'наб'
'мыш'
'мысли_'
'мыми_'
'мы'
'мущ'
'мухафаз'
'мус'
'мул'
'мужа_'
'мощностью_'
'мотр'
'морск'
'море'
'мора'
'моно'
'мониторингу_'
'мона'
'моменты_'
'моментом_'
'молодой_'
'мои'
'моей_'
'модул'
'модернизацию_'
'модернизации_'
'модель_'
'моделей_'
'могущ'
'мог'
'мов_'
'мобильны'
'мобилизацию_'
'многосторонние_'
'многосторонне'
'многое_'
'многим_'
'мно'
'мл'
'мися_'
'миссиями_'
'миссия'
'мирового_'
'мирного_'
'минута'
'министром_'
'минимального_'
'минимально'
'миллиард'
'мили'
'мигра'
'мечет'
'механизм'
'мех'
'метр'
'методологически'
'методологи'
'методам_'
'местными_'
'местным_'
'местности_'
'мероприятие'
'мерами_'
'меня'
'меню_'
'меньши'
'мента'
'мени'
'менедж'
'мелки'
'межсессионн'
'межправительственного_'
'медицины_'
'медицинские_'
'меди_'
'медал'
'мбе'
'мба'
'машин'
'материальны'
'матер'
'математи'
'масштабны'
'массовых_'
'массива_'
'масс'
'масл'
'марке'
'мандата'
'манд'
'мана'
'маль'
'малым_'
'малы'
'максимальны'
'ляюще'
'ляци'
'лять_'
'люкс'
'люди_'
'любимы'
'льтур'
'льство_'
'льск'
'льного_'
'льн'
'лучши'
'лот'
'лок'
'логического_'
'лог'
'лови'
'лов'
'лномочен'
'лл'
'личности_'
'личи'
'лице'
'лите'
'линия_'
'лина_'
'лим'
'ливы'
'ливанск'
'лив'
'летны'
'лети'
'лесных_'
'леса_'
'лено_'
'ленно'
'лек'
'легки'
'лг'
'лас'
'лараци'
'лани'
'лам'
'лагерей_'
'лагер'
'лабораторн'
'культурной_'
'культурн'
'культур'
'ктур'
'кти'
'кта'
'кси'
'кс_'
'крупно'
'крупнейших_'
'крови_'
'кризисо'
'кри'
'крестьян'
'креп'
'кредитор'
'кратко'
'крайне_'
'кост'
'косвенн'
'корпуса_'
'корол'
'коренным_'
'коп'
'координационны'
'кооперативны'
'концепцию_'
'концеп'
'конца_'
'конфликты_'
'конфликтных_'
'конфесси'
'конференциям_'
'контролировать'
'контролем_'
'контрактов_'
'контра'
'консультирования_'
'консультативно'
'конституци'
'консолидации_'
'консенсус'
'конкурс'
'конкурентоспособны'
'конкурент'
'конкур'
'конкретн'
'конкре'
'конвенциям'
'конвенци'
'комфорта'
'компьютере_'
'компонента'
'комплексные_'
'комплексн'
'комплекс_'
'компетенцию_'
'компетенции_'
'компенсаци'
'компаниями_'
'комнату_'
'коммерческих_'
'комментари'
'комитету_'
'комитетами_'
'комисси'
'коль'
'коллекции_'
'коллективн'
'коллегию_'
'колле'
'количеством_'
'колебани'
'кодексе_'
'кнуть'
'ключевые_'
'ключ'
'кло'
'кле'
'классов_'
'кива'
'кет'
'квартиры_'
'квартир'
'квалификации_'
'качество_'
'качественн'
'качеств'
'като'
'катализатор'
'касс'
'касающаяся_'
'касал'
'карте_'
'капитал'
'кап'
'кандидатов_'
'канал_'
'канал'
'камн'
'камера'
'каль'
'казахстан'
'каза'
'каз_'
'каз'
'каждому_'
'каждое_'
'кажд'
'кад'
'кабинета_'
'кВ'
'йц'
'йства_'
'йств'
'йс'
'йн_'
'йв'
'иям_'
'июнь_'
'июль_'
'ичи'
'ического_'
'ических_'
'ице'
'иу'
'итуци'
'итор'
'итого'
'ито'
'ительные_'
'ител'
'исчезновени'
'исче'
'источника'
'источник_'
'исторические_'
'истем'
'истека'
'исте'
'исследовательской_'
'исследовательски'
'исследовательск'
'испытыва'
'испытательны'
'испрашивае'
'исправления_'
'исправлени'
'используя_'
'используемая_'
'использу'
'использованы_'
'использованию_'
'использовали_'
'использовал'
'исполнительны'
'исполнители_'
'искусственн'
'искоренени'
'иско'
'исключение_'
'исключени'
'иска'
'ис_'
'ируемы'
'иру'
'ирово'
'ированы_'
'ированных_'
'ированно'
'ировал'
'иров'
'иракски'
'ира_'
'ира'
'ионн'
'ион'
'ио'
'иных_'
'информационны'
'информационного_'
'информационн'
'ину'
'интерфе'
'интересуется_'
'интересам_'
'интервью_'
'интерактивн'
'интеллектуальной_'
'интеграци'
'инт'
'институциональные_'
'инст'
'инспекции_'
'инспектор'
'инско'
'иного_'
'инноваци'
'инициативе_'
'инициатива_'
'индивидуальной_'
'инг_'
'инвестиционных_'
'инве'
'инвалидностью_'
'инвалидности_'
'ин'
'импорт'
'императ'
'иммиграции_'
'имеющим_'
'имеющиеся_'
'име'
'илось_'
'ило_'
'иллю'
'ила'
'ику_'
'ика'
'ийски'
'ий'
'изучение_'
'изучать'
'изучае'
'изуча'
'израильские_'
'израильск'
'изра'
'изова'
'изображение_'
'изо'
'изнасиловани'
'изн'
'измери'
'измерен'
'изменя'
'измени'
'изменением_'
'изложить_'
'изложены_'
'изложенны'
'изложенного_'
'изложен'
'излагаются_'
'издание_'
'извлеч'
'известных_'
'известн'
'избранны'
'избира'
'изация_'
'иж'
'иен'
'идти_'
'идентификационн'
'идентифи'
'идей_'
'ида'
'ид_'
'ивны'
'ивного_'
'ивал'
'иат'
'иальн'
'зы_'
'зы'
'зско'
'зрел'
'зоны_'
'золото'
'зол'
'значительных_'
'значительное_'
'значительн'
'значимы'
'значимость_'
'значению_'
'знач'
'знать_'
'знания'
'знаете_'
'змом_'
'зме'
'злоупотребления_'
'зить'
'зирова'
'зир'
'зии_'
'зи_'
'землю_'
'земле_'
'земле'
'земельны'
'зелен'
'здравоохранени'
'зданий_'
'звезд'
'заявл'
'заявки_'
'защищенн'
'зачи'
'зац'
'захо'
'зах_'
'зах'
'затронуты'
'затратами_'
'затрат_'
'затрат'
'затрагивающи'
'засу'
'заслуживаю'
'заседа'
'зас'
'зара'
'запус'
'запугивания_'
'запрещено_'
'запрещени'
'запрещающ'
'запреща'
'запрет'
'записа'
'запис'
'запасов_'
'запасами_'
'зап'
'занять'
'занимаются_'
'замечани'
'заместителей_'
'замер'
'заложен'
'зало'
'закупкам_'
'закуп'
'закрыты'
'закрепленны'
'закреплен'
'закончившийся_'
'законо'
'законе_'
'заключить_'
'заключал'
'займ'
'задне'
'задержания_'
'задержание_'
'задержани'
'задержан'
'задерж'
'заданны'
'задан'
'загрязнен'
'зага'
'заг'
'завод'
'зависят_'
'завершение_'
'завершен'
'забронирова'
'жност'
'жм'
'жители_'
'жилищно'
'живы'
'живо'
'жены_'
'жения_'
'жена'
'железнодорожн'
'желани'
'желает_'
'ждеств'
'ждени'
'жаю'
'жалоба'
'ещен'
'ечно'
'ечат'
'ехать_'
'ети'
'ете'
'ета_'
'ести_'
'ести'
'ерт'
'ерр'
'ерп'
'ерно'
'ерж'
'ерв'
'епи'
'енци'
'енца'
'ента'
'ент_'
'енств'
'ено'
'енную_'
'енностью_'
'ему'
'емле'
'еми'
'еме'
'ельств'
'ельные_'
'ельност'
'ельное_'
'ельного_'
'ельн'
'ела'
'ейш'
'ейс'
'еи'
'езн'
'ежедневн'
'ежегодной_'
'еже'
'едо'
'единого_'
'един'
'едел'
'еда'
'европейской_'
'европейски'
'еврейско'
'дь'
'ды'
'душ'
'друзьями_'
'другому_'
'другом_'
'дру'
'дров'
'дочери_'
'доступные_'
'доступност'
'доступен_'
'доступе_'
'достопримечательн'
'достоинства_'
'достоверно'
'достижений_'
'достижении_'
'достигнут'
'достига'
'достаточными_'
'достаточные_'
'достаточное_'
'дорожны'
'дорога'
'дорог_'
'доров'
'дополнительным'
'дополнени'
'домо'
'домини'
'домашних_'
'домашни'
'должностны'
'долго_'
'долго'
'документаци'
'документальн'
'доктрин'
'докладчиком_'
'доказательств_'
'дой'
'доз'
'договорны'
'договоренности_'
'договоренност'
'договор_'
'дог'
'добровольно'
'добились_'
'добил'
'добавление_'
'добавлен'
'днём_'
'дны'
'длина_'
'дл'
'дк'
'дистан'
'дисло'
'дискриминацию_'
'дискриминационно'
'диск'
'директивными_'
'дипломат'
'динамику_'
'диалог'
'деятел'
'дефицита_'
'детств'
'детали_'
'десятой_'
'десятилетий_'
'десяти'
'деревня'
'денциальн'
'демократич'
'демо'
'дем'
'деловых_'
'делегирован'
'делегацию_'
'делегатов_'
'делах_'
'делал'
'действующих_'
'действуют_'
'дей'
'девуш'
'двухгодично'
'двум_'
'дву'
'двойного_'
'дво'
'движени'
'двига'
'двери_'
'двенадцатой_'
'дважды_'
'дату_'
'дате_'
'дата_'
'дат'
'данными_'
'данное_'
'дальнейших_'
'даль'
'давн'
'давления_'
'давлени'
'гур'
'гуманитарны'
'гум'
'группировк'
'группам_'
'грузовых_'
'грузо'
'грузами_'
'гру'
'гроз'
'грех'
'график_'
'границу_'
'гражданс'
'гражданин_'
'гражданами_'
'готов_'
'государственными_'
'государстве_'
'государствах_'
'гости'
'гостей_'
'гос'
'горяч'
'городского_'
'горно'
'гори'
'гон'
'голос_'
'голод'
'глубокую_'
'глубоко_'
'глуб'
'глобально'
'глаш'
'гласно'
'глаз'
'главны'
'главн'
'гк'
'гир'
'гинальн'
'гер'
'геноцида_'
'генеральны'
'генерального_'
'генерал_'
'гендерных_'
'гат'
'гармони'
'гарантирующ'
'гарантирова'
'гарантий_'
'ганск'
'гаитянск'
'газе'
'выявля'
'вышеупомянут'
'вышеуказанн'
'выходц'
'выходить_'
'высыла'
'высшего_'
'выступлений_'
'выступа'
'выстр'
'выставка_'
'выставк'
'высот'
'высокую_'
'высоким_'
'высказанн'
'высказал'
'высказ'
'выселени'
'выразил'
'выражения_'
'выража'
'выработать_'
'выр'
'выпуска'
'выполнял'
'выполнить_'
'выполни'
'выполнением_'
'выигр'
'вызывают_'
'вызванные_'
'вызва'
'выдерж'
'выделения_'
'выделение_'
'выделени'
'выдаются_'
'выдачу_'
'выдачи_'
'выдаче_'
'выгод'
'вывод'
'выбран'
'выборк'
'выб'
'вший_'
'вшей_'
'входит'
'вуа'
'ву_'
'втори'
'встречах_'
'встретил'
'встав'
'вспомогательные_'
'вскоре_'
'всеобъемлющем'
'всеобъемлющего_'
'всеобъемлюще'
'всеобщи'
'всеобще'
'всео'
'вро'
'вредны'
'враждебн'
'вр'
'впоследствии_'
'вполне_'
'восьми'
'восстановлении_'
'восстановит'
'воспроизведен'
'воспринимается_'
'воскресен'
'вопреки_'
'воплощен'
'вооруженными_'
'вооруженно'
'вооружениями_'
'вооруж'
'воо'
'воль'
'войска_'
'войну_'
'война'
'воинские_'
'возрождени'
'возрастной_'
'возобновл'
'возникли_'
'возможны_'
'возможностями_'
'возможное_'
'возможн'
'возмещения_'
'возлож'
'воздержавшихся_'
'воздействи'
'возвращени'
'возвраща'
'возбужден'
'военным'
'военнослужащи'
'военно_'
'вое'
'водя'
'водны'
'вовани'
'внутренние_'
'внутренни'
'вну'
'внешней_'
'внедрение'
'вне_'
'влияющи'
'влетвор'
'вле'
'владени'
'владельц'
'включено_'
'включенные_'
'включ'
'вк'
'вич_'
'вир'
'виновных_'
'виновн'
'вик'
'виж'
'видя'
'видимо'
'вида'
'взяты'
'взыска'
'взаимосвязан'
'взаимод'
'вещи_'
'вещества_'
'вечер'
'ветств'
'ветер_'
'весь_'
'весо'
'верхний_'
'верси'
'вероятн'
'вернул'
'верну'
'вери'
'верб'
'велосипед'
'велики'
'вели'
'веке_'
'век'
'ведутся_'
'ведомства'
'ведет_'
'ведению_'
'вдо'
'ввод'
'вве'
'вающи'
'ваются_'
'вашему_'
'вания_'
'вани'
'ван'
'вакантных_'
'вай_'
'важный_'
'важны_'
'бюджета'
'бывших_'
'бывшей_'
'быва'
'бур'
'бумаг'
'буду'
'буд'
'братьев_'
'ботанн'
'борьба_'
'больших_'
'большее_'
'больш'
'больниц'
'боле'
'бол'
'бой_'
'боевых_'
'бо_'
'бн'
'блока'
'близки'
'близ'
'благоприятно'
'бла'
'бл'
'бия_'
'бис_'
'били'
'библиотеки_'
'беспрецедентн'
'беспрепятственн'
'беспорядк'
'бесплатны'
'бесп'
'бен_'
'бен'
'бело'
'безотлагательн'
'безо'
'беженцам_'
'бедствия_'
'бе'
'бах'
'бассейнов_'
'банковско'
'бани'
'баланс_'
'ающая_'
'аэропорта_'
'ача'
'ацию_'
'ац'
'африканск'
'аудит'
'аудио'
'ау'
'аттестации_'
'атрива'
'ато'
'ативно'
'ате'
'ата_'
'ата'
'ассамбле'
'аспектах_'
'аси'
'аса_'
'аров_'
'арно'
'арабск'
'апелляции_'
'анс'
'анов'
'анну'
'анно'
'анк'
'анг_'
'анг'
'аналогичных_'
'аналогично'
'аналог'
'аналитической_'
'анализом_'
'амор'
'аммония_'
'ами'
'альный_'
'ального_'
'альная_'
'альн'
'ало_'
'алл'
'алист'
'але'
'акционер'
'акци'
'акушерск'
'активному_'
'активизации_'
'активизаци'
'акта'
'аккредитованных_'
'академическ'
'азота_'
'аев'
'административной_'
'административного_'
'административно'
'административн'
'адвокат'
'адаптаци'
'ада_'
'агрегато'
'аги'
'агентств'
'автомобил'
'автоматиз'
'автома'
'авно'
'август_'
'аварий_'
'авари'
'аванс'
'аван'
'аба'
'ЯТ'
'ЯР'
'Южны'
'Южно'
'Югославии_'
'ЮНОПС_'
'ЮНИФЕМ_'
'ЮНИТАР_'
'ЮНИ'
'ЮН'
'Эффективно'
'Эфиопии_'
'Эфиопи'
'Эт'
'Эстонии_'
'Энерг'
'Эль_'
'Экономическом'
'Экономический_'
'Экономи'
'Экваториальн'
'Эквадор'
'ЭС_'
'ЭС'
'ЭКО'
'Щ'
'Шесто'
'Швейцария_'
'Шве'
'ШИ'
'Четверг_'
'Чер'
'Чем'
'Часть_'
'Чад'
'ЧИ'
'Цзи_'
'Центральноафриканской_'
'Центральн'
'Центр'
'Цвет'
'Ху'
'Хи'
'Хе'
'Харти'
'Хабитат_'
'Функци'
'Фото'
'Финляндии_'
'Фин'
'Фер'
'Федерального_'
'Фал'
'Факультативного_'
'Факультативн'
'Фак'
'Уч'
'Услуги_'
'Условия_'
'Ус'
'Управлению_'
'Упо'
'Университет'
'Украине_'
'Ук'
'Узбекистана_'
'Узбекистан_'
'Удо'
'Уголовный_'
'Уве'
'УЧ'
'УТ'
'УР'
'УД'
'Турция_'
'Турции_'
'Туркменистан_'
'Три'
'Тра'
'Точ'
'Ток'
'Тихоокеанского_'
'Тимор'
'Техн'
'Тер'
'Теперь_'
'Температура_'
'Текущ'
'Тек'
'Там'
'Талибан'
'Тал'
'Такой_'
'Такая_'
'Таиланде_'
'Таи'
'ТС_'
'ТН'
'ТА_'
'Сьерра_'
'Сы'
'Существуют_'
'Сум'
'Суд_'
'Строительство_'
'Стратеги'
'Стра'
'Стороне_'
'Сторона_'
'Стол'
'Статисти'
'Ст'
'Средн'
'Сразу_'
'Спе'
'Спа'
'Союз'
'Социальном'
'Социальн'
'Сохран'
'Сотрудничество_'
'Сообщения_'
'Сообще'
'Солнце_'
'Сок'
'Созда'
'Соединенным_'
'Содействие_'
'Сод'
'Соглашение_'
'Совместной_'
'Собрания_'
'Соб'
'Сн'
'Смет'
'См'
'Служба_'
'Слов'
'Сл'
'Ско'
'Ска'
'Сирию_'
'Сирийская_'
'Син'
'Сим'
'Сенегал_'
'Семинар_'
'Сем'
'Секци'
'Секретар'
'Свят'
'Свидетел'
'Св_'
'Св'
'Сау'
'Самый_'
'Сак'
'СТ'
'СР'
'СООННР_'
'СОДЕРЖАНИ'
'СОВ'
'Ряд_'
'Румынии_'
'Руководящ'
'Руанде_'
'Роль_'
'Роберт'
'Рим'
'Республик'
'Рекоменд'
'Результаты_'
'Регионально'
'Расширение_'
'Расходы_'
'Рассмотрение_'
'Ран'
'Различ'
'Раздел'
'Развитие_'
'РФ_'
'РГ'
'Протокол_'
'Прокур'
'Производств'
'Продовольственной_'
'Программе_'
'Провер'
'Проблемы_'
'Приток_'
'Принят'
'Принимая_'
'Пример'
'Примен'
'Признавая_'
'Приб'
'Президент_'
'Представители_'
'Предполагается_'
'Предоставление_'
'Предложения_'
'Право'
'Правления_'
'Правление'
'Правительства_'
'Правила_'
'Появ'
'Пот'
'Постановлени'
'Последствия_'
'Последни'
'Порт'
'Поощрение_'
'Понедельник_'
'Политика_'
'Поз'
'Пожа'
'Поддерж'
'Подготовительн'
'Повестк'
'Платформ'
'Планирование_'
'Пет'
'Перед'
'Пекинск'
'Парламент'
'Париже_'
'Париж'
'Парагва'
'Палестин'
'ПУ'
'ПРЕДСЕДАТЕЛЯ_'
'ПОВ'
'ПМ'
'ПИ'
'ПД'
'ПГ'
'Официальны'
'Отчет_'
'Откр'
'Отдел'
'Островов_'
'Острова_'
'Особ'
'Основной_'
'Основно'
'Оратор_'
'Опера'
'Олимпи'
'Одна_'
'Ог'
'Обяза'
'Образование_'
'ОУ'
'ОПР_'
'ОООН'
'ООН'
'ОМ_'
'ОГО_'
'ОГ'
'ОВ'
'ОБЩ'
'Нынешн'
'Новый_'
'Нов'
'Начинаются_'
'Национальным_'
'Национальн'
'Нау'
'Напо'
'Нам_'
'Наз'
'Наб'
'НТС_'
'НЕ_'
'НАТО_'
'Мут'
'Москве_'
'Монреальск'
'Мон'
'Молодежь_'
'Мои'
'Мозамбик_'
'Может_'
'Могу_'
'Мне_'
'Мис'
'Мир'
'Мино'
'Министра_'
'Министерством_'
'Министерства_'
'Минист'
'Межучрежденческо'
'Межправительственн'
'Международному_'
'Массачусетс_'
'Март'
'Марк'
'Мали_'
'Мадагаскар'
'Маври'
'МС'
'МПП_'
'Люксембург_'
'Люб'
'Лукашенко_'
'Лит'
'Лей'
'Латвия_'
'Латвии_'
'Ла_'
'ЛЛ'
'Кыргызстан'
'Кы'
'Кунь_'
'Круг_'
'Кро'
'Кра'
'Кр'
'Кот_'
'Кос'
'Корпора'
'Кор'
'Коп'
'Координатор'
'Контрольн'
'Конт'
'Конституционн'
'Конгресс'
'Комментарии_'
'Комиссию_'
'Колумбия_'
'Кодекса_'
'Ков'
'Кл'
'Кита'
'Кир'
'Кипр_'
'Кения_'
'Кв'
'Катара_'
'Ката'
'Карл'
'Канады_'
'Калифорния_'
'Каков'
'Кай'
'КЦ'
'КСР_'
'КОМ'
'КНТ_'
'КА_'
'ЙС'
'Исто'
'Исполнительным_'
'Испол'
'Испанск'
'Ислам'
'Ирландия_'
'Ир'
'Ины'
'Информационн'
'Инст'
'Инноваци'
'Инди'
'Имя_'
'Иисус_'
'Иерусалиме_'
'Иерусалим'
'Иван'
'ИТЕ'
'ИТ'
'ИСПОЛЬЗОВАНИ'
'ИС_'
'ИМ'
'ИЛИ_'
'ИКО'
'Зна'
'Зим'
'Земле'
'Здесь_'
'Здани'
'Заявление_'
'Защита_'
'Заход_'
'Зам'
'Зал_'
'Законопроект_'
'Зак'
'ЗП'
'ЖЕ'
'Ее_'
'Египт'
'Евангели'
'Ев'
'ЕСТ'
'ЕД'
'ЕГО_'
'Дурбанской_'
'Другим'
'Дополнительная_'
'Доп'
'Дом'
'Доклады_'
'Док'
'Договором_'
'Догов'
'Добровольн'
'Добавить_'
'Директор_'
'Ди'
'Джер'
'Десят'
'Дел'
'Декабря_'
'Действие_'
'Действи'
'Дарфур'
'Данн'
'ДРК_'
'ДОПОГ_'
'ДОПМ_'
'ДНЯ'
'ДАН'
'Гру'
'Греция_'
'Гран'
'Гра'
'Государственны'
'Господа_'
'Гос'
'Говоря'
'Глобального_'
'Глобальн'
'Главным'
'Главны'
'Главная_'
'Гиб'
'Герцеговина_'
'Гвинея_'
'Гал'
'Гаитянской_'
'ГС'
'ГР'
'ГО'
'ГА'
'Высок'
'Выд'
'Выборы_'
'Встречи_'
'Всеоб'
'Время_'
'Восход_'
'Восточно'
'Восток'
'Возможност'
'Военн'
'Верх'
'Вена_'
'Вед'
'Ваше'
'Вар'
'Важн'
'ВТ'
'ВОП'
'ВОК'
'ВН'
'ВЛЕН'
'ВАН'
'Бы'
'Бурунди_'
'Будут_'
'Буду_'
'Буд'
'Бру'
'Босния_'
'Большого_'
'Боливии_'
'Бол'
'Бож'
'Бого'
'Бог'
'Благо'
'Бл'
'Белград'
'Бела'
'Без'
'Барбуд'
'Банка_'
'Банг'
'Бан'
'Бала'
'Баз'
'БР'
'БА'
'Аш'
'Африкански'
'Аф'
'Ат'
'Астана_'
'Арт'
'Арм'
'Ари'
'Ара'
'Антони'
'Антигуа_'
'Ант'
'Аналогичным_'
'Ана'
'Американск'
'Аль_'
'Алматы_'
'Алексей_'
'Ала'
'Ак'
'Азербайджан'
'Аз'
'Агентство_'
'Австрия_'
'Австрии_'
'АЯ_'
'АФ'
'АП'
'АНИ'
'АКТ'
'θ'
'ú'
'õ'
'òî'
'ï'
'ìà'
'és'
'ér'
'â_'
'á_'
'ß'
'Ü'
'Ð½Ð_'
'Ð½'
'ÐµÑ_'
'Èþí_'
'¿_'
'¾Ð'
'», – _'
'», - _'
'« : _'
'}_'
'}'
'{'
'zil'
'zhn'
'zer'
'zen'
'zations_'
'yu'
'yse'
'yri'
'yre'
'yp'
'youtube_'
'yourself_'
'yot'
'yn'
'yl_'
'yer_'
'yed_'
'ye_'
'ycle'
'yad'
'xetine'
'xe'
'wrote_'
'wrongful_'
'wre'
'wra'
'wr'
'wors'
'worry'
'workplan_'
'work'
'wo'
'wl'
'withdrew_'
'wished_'
'wise_'
'wire_'
'winter_'
'windows_'
'window_'
'wife_'
'width_'
'wider_'
'wide'
'whatever_'
'wh'
'wer'
'well'
'weld'
'wedding_'
'wea'
'wav'
'water'
'ward'
'wan'
'wall'
'wait_'
'wage'
'voting_'
'voter'
'vol'
'voi'
'viv'
'visiting_'
'virus_'
'viol'
'vil'
'vice_'
'viagra'
'vi_'
'vert'
'verify_'
'verifie'
'verbal'
'venile'
'varde'
'valve'
'valued_'
'val_'
'val'
'vacanc'
'v4_'
'v1_'
'ux'
'uv'
'uts'
'ution'
'utilized_'
'uti'
'usia'
'ush'
'use'
'usa'
'ury_'
'urgency_'
'urge_'
'urg_'
'urg'
'ured_'
'urd'
'uran'
'ura'
'uploads_'
'upload'
'upgraded_'
'unsu'
'uno'
'universities_'
'uniti'
'unen'
'une_'
'undoubtedly_'
'undert'
'understood_'
'und_'
'uncon'
'unc'
'una_'
'ultan'
'ule'
'ulation'
'uin'
'ue'
'uds'
'ud'
'ually_'
'u043e_'
'u043'
'u04'
'tw'
'tut'
'tus_'
'ture_'
'tun'
'tub'
'tse'
'tructi'
'trouble'
'trop'
'trip'
'trigger'
'tribunal_'
'trials_'
'treat_'
'travelled_'
'transfers_'
'transfer'
'transboundary_'
'trade'
'track'
'trac'
'tra_'
'towns_'
'tov'
'tours_'
'tour_'
'totalVoteCount_'
'tos_'
'too'
'ton'
'toma'
'toilet'
'tn'
'tiva'
'title_'
'tire'
'tin_'
'tifi'
'tial_'
'thu'
'threaten'
'thoughts_'
'thoroughly_'
'thes'
'there'
'therap'
'thee_'
'thanks_'
'testing_'
'terror'
'terrace_'
'teri'
'tenti'
'tensions_'
'tens_'
'temporarily_'
'telephone_'
'telecommunications_'
'technological_'
'tech'
'teachers_'
'teach_'
'tc'
'taxes_'
'tati'
'tast'
'tariffs_'
'tariff_'
'tank'
'tak'
'tag'
'sz'
'systemic_'
'systematic_'
'synerg'
'svibovich_'
'sustained_'
'suspension_'
'survival_'
'surround'
'surprise'
'surp'
'surge'
'suppose'
'suppl'
'summarizes_'
'suffered_'
'substantially_'
'subregion_'
'subprogrammes_'
'studio_'
'stronger_'
'stro'
'strive_'
'strik'
'stream'
'stran'
'stories_'
'store'
'stopped_'
'stone_'
'stimul'
'stic_'
'stereotyp'
'ster'
'sted_'
'ste'
'static5_'
'stand_'
'stand'
'stable_'
'stab'
'sses_'
'sque'
'square_'
'spot'
'spon'
'spit'
'spin'
'species_'
'spec'
'spacious_'
'sov'
'sons_'
'song_'
'somewh'
'sometimes_'
'soli'
'sole_'
'soil_'
'socio_'
'societies_'
'sno'
'smoke'
'smo'
'sma'
'slow_'
'sleep_'
'sla'
'skinColorTypeHeadline_'
'size'
'sixtieth_'
'sition'
'sit_'
'sit'
'sions_'
'silen'
'signatories_'
'shower_'
'shortly_'
'shortage'
'shock'
'sho'
'shment_'
'shing_'
'shine_'
'sheet'
'sheep_'
'shap'
'sew'
'severely_'
'severe_'
'set'
'servicing_'
'ser_'
'ser'
'sell'
'seized_'
'segment_'
'seeks_'
'secu'
'secret_'
'sec_'
'seat_'
'seas'
'screen_'
'scenarios_'
'sb'
'saw_'
'sauna_'
'sat'
'salaries_'
'sal'
'safeguards_'
'safeguard_'
'ry'
'rve_'
'russianeconomicfreedom_'
'rus'
'runs_'
'rum'
'rubb'
'rts_'
'rtion'
'rth'
'rov'
'round'
'rotat'
'rost'
'root_'
'rolling_'
'robust_'
'roads_'
'rn'
'rl'
'rk'
'rivers_'
'rising_'
'riots_'
'rin'
'riding_'
'riches_'
'rica'
'rian_'
'rial_'
'rh'
'revisi'
'reviewing_'
'revi'
'reve'
'returns_'
'return'
'resumption_'
'resumed_'
'restructur'
'resti'
'resolved_'
'resist'
'reservations_'
'repu'
'reproduced_'
'replies_'
'replica'
'replacement_'
'repeat'
'repatriation_'
'repatriate'
'repair_'
'reno'
'remuneration_'
'removed_'
'remedies_'
'remarks_'
'relocate'
'reli'
'released_'
'rele'
'relative_'
'relationship_'
'reimbursement'
'regulatory_'
'regula'
'regional'
'refused_'
'refo'
'ref'
'redi'
'redeployment'
'recurr'
'recover'
'reconcil'
'recon'
'recipient'
'reci'
'reception_'
'receives_'
'recall'
'rebel_'
'realistic_'
'real'
'reaffirm_'
'read'
'reaching_'
'rcial'
'raw_'
'ratings_'
'rati'
'rare'
'rapporteur_'
'rap'
'ranks_'
'ranc'
'ram'
'rai'
'rag'
'radioactive_'
'radio'
'quota'
'quick_'
'quenc'
'que'
'quantity_'
'quanti'
'qualit'
'qualifications_'
'qu'
'qi'
'put'
'pursuit_'
'pursuing_'
'pursue_'
'pupils_'
'punishable_'
'pun'
'publish'
'publi'
'pt'
'provider_'
'proved_'
'proto'
'prosecutor'
'propose_'
'proportions_'
'promulgat'
'prompt'
'prolonged_'
'projections_'
'prohibit_'
'prof'
'productnumber_'
'produces_'
'proceeds_'
'proceeded_'
'probably_'
'privatization_'
'prim'
'priat'
'presumed_'
'prese'
'preparations_'
'prefer'
'pred'
'pped_'
'potentia'
'possibilities_'
'possess_'
'possess'
'ports_'
'porno'
'pon'
'policymaking_'
'poe'
'plu'
'plen'
'pleasant_'
'platform_'
'plate'
'planet_'
'plan'
'pion'
'phy'
'phrase_'
'phone'
'phil'
'petrol_'
'pertinen'
'pertaining_'
'personali'
'peri'
'perform'
'pere'
'perce'
'pent'
'peni'
'penal'
'pect'
'peacemak'
'payable_'
'patrol_'
'path'
'patchForRatingViewHelperViews_'
'pat'
'password_'
'passing_'
'partner_'
'partially_'
'parliamentarians_'
'parliament'
'parameters_'
'p4'
'oxid'
'own'
'owed_'
'ovi'
'overt'
'oversight_'
'outreach_'
'outputs_'
'outlines_'
'outline_'
'outdoor_'
'our'
'ount_'
'oto'
'oti'
'oso'
'osit'
'ose'
'orn_'
'orma'
'oring_'
'orientation_'
'orian_'
'organize'
'organisation_'
'organis'
'organic_'
'optional_'
'optimum_'
'optimize'
'optimi'
'opposition_'
'opposite_'
'opinions_'
'one'
'onal_'
'omm'
'olut'
'olin'
'oil'
'oid_'
'oi'
'oh'
'oga'
'offspring_'
'officer_'
'of'
'ocia'
'oceans_'
'ocat'
'obtaining_'
'obstacles_'
'observe_'
'observ'
'oblig'
'oba'
'oa'
'nutrition_'
'nutrients_'
'nut'
'nue_'
'nto'
'ntle'
'ntat'
'nsu'
'nst'
'now'
'notifications_'
'nothing_'
'not'
'northe'
'normali'
'none_'
'noise_'
'nko_'
'nis_'
'nik'
'nic_'
'nial'
'ni_'
'ngth'
'ngent'
'new'
'neutral'
'neur'
'ners_'
'ner_'
'nen'
'neighbor'
'negotiat'
'necessarily_'
'nearby_'
'ndu'
'nds_'
'nder'
'ncing_'
'nai'
'nac'
'mutilation_'
'muscle'
'munitions_'
'municipality_'
'munication'
'mun'
'mpl'
'mpa'
'mp_'
'movie_'
'movement_'
'mountain'
'mount'
'morat'
'moo'
'mobilized_'
'mn'
'mln_'
'mitigation_'
'mit'
'mistake'
'missiles_'
'missile_'
'misconduct_'
'miscellaneous_'
'mir'
'mine_'
'mind'
'mina'
'migrants_'
'migrant_'
'mig'
'mie'
'mic_'
'metals_'
'menta'
'mel'
'meets_'
'medicines_'
'medic'
'mediat'
'medal'
'matic_'
'maternal_'
'match_'
'mas_'
'manufacturers_'
'mans'
'mal_'
'makers_'
'maj'
'maintain'
'mainstreaming_'
'mail'
'magnitude_'
'machinery_'
'lying_'
'lution'
'lor_'
'looked_'
'lon_'
'logistic_'
'localizedTexts_'
'load_'
'ller'
'll'
'live'
'litr'
'literature_'
'lit'
'listen'
'liquidation_'
'ling'
'limiting_'
'life'
'lien'
'liberty_'
'liation_'
'lia_'
'lg'
'lf'
'ley'
'lesse'
'ler_'
'lens'
'lend'
'legitimacy_'
'legally_'
'legality_'
'lect'
'lease_'
'lear'
'leader_'
'lde'
'layer'
'lay_'
'lay'
'lawyer_'
'laundering_'
'lated_'
'lasting_'
'lar_'
'lar'
'lap'
'landlocked_'
'lah'
'ladyhealth_'
'lady_'
'laboratory_'
'kul'
'ku_'
'kra'
'kr'
'kot'
'kon'
'know'
'knew_'
'kle'
'kl'
'kinds_'
'kin_'
'killings_'
'killing_'
'kid'
'ki_'
'ket'
'kes'
'kept_'
'ken'
'kase_'
'kar'
'kan'
'kW_'
'justification_'
'jun'
'judo_'
'json'
'journalis'
'join_'
'jobs_'
'jection_'
'ject'
'ize'
'ivi'
'ives_'
'ition_'
'isla'
'ish'
'ipl'
'ior_'
'ior'
'involves_'
'invok'
'invo'
'investigative_'
'invested_'
'invest_'
'inventories_'
'inu'
'interview'
'interpretati'
'intern'
'interior_'
'interference_'
'interesting_'
'interaction_'
'intellectual_'
'integrate_'
'insufficient_'
'instruct'
'institution_'
'instituted_'
'insti'
'instantly_'
'instances_'
'install'
'instability_'
'inspire'
'inspector'
'inspect'
'insolvency_'
'insight_'
'inserted_'
'inser'
'ins_'
'innovations_'
'innovation_'
'ining_'
'informational_'
'influ'
'infectio'
'inequalit'
'indication_'
'inconsisten'
'incitement_'
'incidence_'
'ince'
'inar'
'improvements_'
'imprison'
'impress'
'imposi'
'importe'
'implicit'
'immigrants_'
'ime'
'im_'
'ili'
'ile_'
'iki_'
'ige'
'ify'
'ification_'
'ifi'
'iet'
'ider'
'identi'
'ication_'
'ially_'
'ial'
'iai'
'iPhone_'
'husband_'
'hundred_'
'humi'
'hub'
'hua'
'hro'
'hostilit'
'hosted_'
'host'
'hospital_'
'home'
'hob'
'hn'
'historical_'
'hiri'
'hip'
'hes'
'herself_'
'herein_'
'hen'
'helm'
'hedral_'
'heating_'
'heat_'
'hearts_'
'hearing_'
'hear_'
'heading_'
'heade'
'head'
'hazard_'
'haz'
'hatred_'
'has'
'harmony_'
'harmoniz'
'harm'
'hard'
'happen'
'hairColorTypeHeadline_'
'had'
'hab'
'ha_'
'gula'
'guided_'
'guid'
'gui'
'guest_'
'gua'
'gstadt_'
'gross_'
'gro'
'gri'
'gree'
'greatest_'
'graduate'
'governed_'
'gol'
'gni'
'globalization_'
'gle_'
'glass_'
'gis'
'gib'
'ghpraha_'
'gh_'
'ges_'
'ger'
'genocide_'
'genital_'
'generat'
'gend'
'gem'
'gel'
'gathered_'
'garden_'
'gan'
'gained_'
'fun_'
'ful'
'fresh_'
'frequency_'
'fou'
'foster'
'formulat'
'forming_'
'formats_'
'ford_'
'forcing_'
'foot'
'foods'
'flood'
'fli'
'flexibility_'
'fleet'
'fled_'
'flag'
'fit'
'firmly_'
'firearms_'
'fire'
'financed_'
'finalized_'
'fight'
'fied_'
'fic'
'fi_'
'ffs_'
'ff'
'festival'
'feedback_'
'feed_'
'fee'
'fea'
'fe_'
'father_'
'father'
'fat_'
'faster_'
'famous_'
'false_'
'failure_'
'fail_'
'fa_'
'eye_'
'eyeColorTypeHeadline_'
'ey_'
'expressi'
'exposure_'
'exports_'
'expo'
'expl'
'expir'
'expensive_'
'exit_'
'exhibitions_'
'exhibit'
'excu'
'excluding_'
'excluded_'
'exchanges_'
'excessive_'
'exception'
'exce'
'ex'
'evil_'
'eviction'
'every'
'eventually_'
'evening_'
'evaluating_'
'eutic'
'euro'
'eur'
'eties_'
'ese'
'erv'
'ernative'
'erio'
'erg'
'equi'
'ept'
'epi'
'envisaged_'
'entrepreneur'
'entity_'
'ention'
'ential'
'enti'
'enth'
'entertainment_'
'enta'
'enr'
'enni'
'enjoy'
'enforce'
'enemy_'
'ene_'
'endo'
'encompasses_'
'encies_'
'ench'
'employ'
'emp'
'emn_'
'emitters_'
'emergencies_'
'emerged_'
'embrace_'
'email_'
'else_'
'els'
'elimi'
'electro'
'elect_'
'elaborated_'
'elaborate_'
'ela'
'ein'
'egg'
'eenth_'
'edi'
'ective'
'economic'
'easy_'
'ean'
'eag'
'e4'
'dynamic_'
'dyn'
'duplication_'
'dup'
'dun'
'dul'
'duc'
'driven_'
'drink'
'dri'
'drain'
'download'
'doubt_'
'dollar_'
'documented_'
'doc'
'dn'
'djan'
'diversi'
'ditionally_'
'distance_'
'dissolution_'
'dissi'
'disseminated_'
'dispens'
'disp'
'disk_'
'dish'
'discriminate_'
'discount'
'discharge_'
'dimension_'
'differe'
'di_'
'dge_'
'devi'
'developer_'
'dev'
'determin'
'detection_'
'detai'
'destroyed_'
'desert'
'descen'
'deputies_'
'depressi'
'depr'
'depo'
'deployed_'
'depart'
'denti'
'den_'
'demi'
'deliver'
'deliberations_'
'deliberate'
'del_'
'dei'
'degrad'
'definitions_'
'define_'
'defend_'
'deep'
'ded'
'decreased_'
'decolonization_'
'declar'
'decide_'
'dear_'
'dead_'
'dde'
'dc'
'dark_'
'danger_'
'cz_'
'cut'
'custom_'
'cture'
'ctions_'
'cta'
'ct_'
'crit'
'criminali'
'cri'
'credit'
'creat'
'cream_'
'craft_'
'county_'
'corrected_'
'corp'
'copie'
'convey'
'contrast_'
'contracting_'
'contrac'
'continu'
'contemporary_'
'cont'
'consumers_'
'consultan'
'constr'
'constitution'
'constitutes_'
'constantly_'
'consolidation_'
'consolidate_'
'consistently_'
'considerably_'
'conservation_'
'conse'
'consci'
'cons'
'connectiv'
'connecti'
'congre'
'confronting_'
'conform'
'confirm_'
'confidentiality_'
'confidential_'
'confi'
'confess'
'conducting_'
'condemning_'
'concentrations_'
'concentrate_'
'comprises_'
'composition_'
'composed_'
'comple'
'complain'
'competenc'
'compet'
'compara'
'commonly_'
'common'
'commensurate_'
'commencement_'
'command_'
'column_'
'colo'
'colleg'
'collecting_'
'colleagues_'
'collaborate_'
'coherent_'
'coffee_'
'coercion_'
'coal_'
'cm_'
'clus'
'clo'
'clin'
'clicking_'
'cle'
'classified_'
'citizenship_'
'circle'
'cin'
'cies_'
'ching_'
'chin'
'childbirth_'
'chest'
'cher'
'checkpoint'
'checked_'
'che_'
'channels_'
'changing_'
'chairs_'
'chairman'
'chair_'
'chai'
'cessation_'
'certainly_'
'cepti'
'cence'
'cells_'
'cell'
'celebration_'
'cef'
'cd_'
'casualties_'
'cari'
'careful'
'carbon_'
'carb'
'captur'
'canRateProduct_'
'canPostComment_'
'came'
'calculated_'
'cable_'
'cabin'
'by'
'bus_'
'burg_'
'bul'
'brothers_'
'brother_'
'broken_'
'broaden'
'broadcast'
'bringing_'
'breaking_'
'breakfast_'
'break_'
'brand_'
'bran'
'brake'
'boy_'
'boot'
'bon'
'boli'
'bn_'
'bly_'
'blood_'
'block_'
'blind_'
'bless'
'blank_'
'black_'
'bit_'
'bit'
'birth'
'bird_'
'biot'
'biological_'
'biodiversity_'
'bill_'
'bili'
'biggest_'
'bid'
'bic_'
'bib'
'bi'
'beta_'
'bet_'
'bes'
'bers_'
'belonging_'
'believe'
'bel'
'bee'
'bedroom_'
'bd'
'bay'
'base'
'bands_'
'ban'
'ballot'
'balances_'
'bal'
'bag'
'b9'
'b3'
'az_'
'az'
'ay'
'aw'
'av'
'authori'
'aut_'
'aut'
'attractions_'
'attitude_'
'attempted_'
'atroci'
'atri'
'ator_'
'ato'
'ational_'
'atic'
'ater'
'asur'
'assure'
'assumptions_'
'assum'
'associate'
'assignee_'
'assi'
'assert'
'aspirations_'
'ash'
'artist'
'arti'
'arrests_'
'arrested_'
'aries_'
'ari_'
'argues_'
'archive_'
'architectur'
'arch'
'arbitrary_'
'aqua'
'appro'
'appointments_'
'appo'
'applicant_'
'appearance_'
'appea'
'apparatus_'
'apart_'
'ap'
'anyw'
'anything_'
'any'
'ante'
'answer'
'annul'
'ank_'
'angle_'
'ane'
'andr'
'analytical_'
'analys'
'ana_'
'amo'
'ammunition_'
'ammoni'
'ament'
'amen'
'ambitio'
'ambient_'
'amb'
'ama'
'am'
'aly'
'alpha_'
'alle'
'all'
'align'
'alien_'
'ald'
'ako'
'aini'
'ain_'
'ai_'
'ah'
'aggr'
'age'
'affects_'
'affair'
'adverse_'
'advantage_'
'adult_'
'admi'
'adjustments_'
'adjusted_'
'adjust'
'adj'
'adi'
'adhere'
'adequately_'
'adds_'
'addresses_'
'addition'
'adapted_'
'adapt'
'ada'
'activists_'
'acquired_'
'ache'
'ach_'
'ace'
'accuse'
'accorded_'
'accommodation_'
'accidents_'
'accessi'
'acceded_'
'absorption_'
'absolute_'
'abolition_'
'abduct'
'a5'
'`_'
'\u\u\u\u\u\u\u\u\u\u\u\u\u\u\u\u\u_'
'\u\u\u\u'
'\u'
'Zve'
'Zimbabwe_'
'Zi'
'Yugoslavia_'
'Yugoslav_'
'Yahweh_'
'Xi'
'XV_'
'XVII'
'XII_'
'Works'
'Word'
'Wood'
'Who'
'Whi'
'Whe'
'Wat'
'Was'
'WWW'
'WM'
'WFP_'
'WF'
'WA_'
'Vin'
'Vil'
'Victor'
'Vesnuchka_'
'Veri'
'Vehicles_'
'VER'
'VC'
'VAT_'
'Ut'
'Us_'
'Urge'
'Unions_'
'Underlin'
'Under'
'Um'
'UT'
'UR_'
'UNMISS_'
'UNMIL_'
'UNE'
'UNDOF_'
'UND'
'UNA'
'UK_'
'Tro'
'Travel_'
'Traffic_'
'Track'
'Top'
'Tool'
'Timor_'
'Thok_'
'Tho'
'Thanks_'
'Tha'
'Th'
'Texas_'
'Test_'
'Tenth_'
'Technologies_'
'Tech'
'Task_'
'Tan'
'Tal'
'TY_'
'TV_'
'TS_'
'TRADE_'
'TRA'
'TM'
'TE_'
'TERRITOR'
'TC_'
'Systems_'
'Sym'
'Swi'
'Swe'
'Survey_'
'Supply_'
'Success'
'Subregion'
'Studies_'
'Stre'
'Stor'
'Steering_'
'Stat'
'Start'
'Star_'
'St'
'Spo'
'Soro'
'Son'
'Solomon_'
'Sm'
'Slo'
'Sixty_'
'Sixth_'
'Shen_'
'She'
'Sex'
'Settlements_'
'Set'
'Series_'
'Serb_'
'Sen'
'Sem'
'Sei'
'Sebastian_'
'Save'
'Sau'
'Sara'
'Sar'
'San'
'Samoa_'
'Sah'
'Sad'
'STAT'
'ST'
'SPECIAL_'
'SO_'
'SL'
'SK'
'SG'
'SER'
'SD'
'SBI_'
'S1'
'Russ'
'Rs_'
'Rot'
'Ros'
'Roman_'
'Role_'
'Roc'
'Rob'
'Risk_'
'Revol'
'Revision_'
'Return'
'Reso'
'Request'
'Rem'
'Relations_'
'Rei'
'Regular_'
'Registration_'
'Regist'
'Reg'
'Refu'
'Reform_'
'Real_'
'Read'
'Rate'
'Raci'
'RM'
'RB'
'Putin_'
'Pun'
'Publishe'
'Publication_'
'Ps'
'Provision'
'Province_'
'Protocols_'
'Prosecution_'
'Proposed_'
'Prop'
'Profess'
'Products_'
'Production_'
'Procedure_'
'Proce'
'Prison'
'Prior'
'Pri'
'Previous1_'
'Prev'
'Presidency_'
'Pres'
'Practice_'
'Posts_'
'Post'
'Portuguese_'
'Port'
'Pol'
'Play'
'Plant_'
'Pil'
'Physic'
'Photos_'
'Phi_'
'Personal_'
'Person'
'Peacekeeping_'
'Peacebuilding_'
'Pass'
'Participants_'
'Parad'
'Paper'
'Panda'
'PSI_'
'PRST_'
'PRS'
'POPs_'
'PO'
'PL'
'PI'
'Over'
'Outcome_'
'Os'
'Organizations_'
'Organizational_'
'Ord'
'Ora'
'Or_'
'Options_'
'Operation_'
'Online_'
'Oman_'
'Old_'
'Oh_'
'Officers_'
'Offe'
'Ocean_'
'Oc'
'OP'
'OFF'
'OC'
'Nu'
'Nov'
'Nor'
'Nonetheless_'
'Nicaraguan_'
'New'
'Neg'
'Nature_'
'Nairobi_'
'NPT_'
'NI_'
'NI'
'NGO_'
'Muslim_'
'Mrs_'
'Mir'
'Mini'
'Mine_'
'Military_'
'Migration_'
'Mess'
'Men_'
'Men'
'Measur'
'Massachusetts_'
'Mary_'
'Manager_'
'Man_'
'Mali_'
'Male'
'Mala'
'Mal'
'MS'
'MON'
'MK'
'MIN'
'MDGs_'
'MDG_'
'MAT'
'Ly'
'Luxembourg_'
'Log'
'Live'
'Lis'
'Link_'
'Line_'
'Len'
'Lei_'
'Lei'
'Learning_'
'Le_'
'Latvian_'
'Lao_'
'Lang'
'LadaSh_'
'LP'
'LLA'
'LDCs_'
'LAN'
'Kyoto_'
'Kov'
'Korean_'
'Kinshasa_'
'Kin'
'Kil'
'Khan'
'Kaz'
'Kat'
'Kam'
'Kal'
'KP'
'Just_'
'Juda'
'Jos'
'Jer'
'James_'
'Jac'
'JI'
'Items_'
'Iraqi_'
'Invites_'
'Ini'
'Ing'
'Inf'
'Industrial_'
'Individual'
'Ind'
'Include'
'Improve'
'Implement'
'Impact_'
'Immigration_'
'Imm'
'Illinois_'
'Il'
'Ide'
'Ib'
'IST'
'IPSAS_'
'INTER'
'INS'
'IM'
'ID'
'ICT_'
'ICS_'
'ICRC_'
'ICPD_'
'ICA'
'Hostel_'
'Hong_'
'Higher_'
'High'
'Her_'
'Helsinki_'
'Hell'
'Haitian_'
'Hague_'
'HTTP_'
'HR_'
'HM'
'HE'
'Gui'
'Guest_'
'Guatemala_'
'Grou'
'Gre'
'Gran'
'Governing_'
'Goods_'
'Globalization_'
'Give'
'Genocide_'
'Games_'
'Gala'
'GU'
'GR'
'GNU_'
'GN'
'GE'
'GC_'
'Funding_'
'Fue'
'Front'
'Frie'
'Forest_'
'Forces_'
'Flow_'
'Fit'
'Find_'
'Fin'
'File_'
'Festival_'
'Feng_'
'Faso_'
'Fallimento_'
'Facility_'
'Facilitati'
'Facilit'
'Facebook_'
'FUND'
'FOR'
'FM'
'FH'
'FE'
'FD'
'FC_'
'External_'
'Express_'
'Explosive'
'Expenditure'
'Exercise_'
'Excellency_'
'Exce'
'Eurostat_'
'Eu'
'Estonian'
'Establishment_'
'Establish'
'Esp'
'Environmental_'
'Eng'
'Embrace_'
'Embassy_'
'Em'
'Electric'
'Election'
'Effects_'
'Edit'
'EST'
'ENRC_'
'EL'
'EG'
'EB_'
'EA'
'Dubai_'
'Dub'
'Drug_'
'Dra'
'Djibouti_'
'Dj'
'Dise'
'Discipline_'
'Disciplinary_'
'Directors_'
'Developed_'
'Details_'
'Den'
'Delegation_'
'Degrading_'
'Defence_'
'Deep'
'Decree_'
'Debian_'
'Dea'
'Dani'
'Dai'
'DA'
'Custom'
'Current_'
'Cup_'
'Cruel_'
'Cred'
'Cre'
'Cr'
'Counter_'
'Coordinating_'
'Conver'
'Controller_'
'Contract'
'Consider'
'Consequently_'
'Conflict_'
'Confi'
'Conclusions_'
'Component'
'Compar'
'Comments_'
'Comment'
'Combat'
'Color'
'Colli'
'Col'
'Coa'
'Clinton_'
'Class_'
'Civili'
'Citizens'
'Cho'
'Cer'
'Cent'
'Category_'
'Card_'
'Cap'
'Calls_'
'Call'
'Cairo_'
'Cabinet_'
'CU'
'CTED_'
'CTBT_'
'CP_'
'COUNCIL_'
'COM'
'CO2_'
'CL'
'CIS_'
'CI'
'CHA'
'CE_'
'CB_'
'CAR'
'C2'
'Bus'
'Burkina_'
'Bun'
'Buenos_'
'Brig'
'Brand_'
'Branch_'
'Br'
'Box_'
'Book'
'Bolivia_'
'Body_'
'Blue_'
'Bethlehem_'
'Beni'
'Beng'
'Bell'
'Bed_'
'Bearing_'
'Bash'
'Bangkok_'
'Ban_'
'Baltic_'
'Ball'
'BP'
'BO'
'BL'
'Avo'
'Ave'
'Availab'
'Av'
'Author'
'Austr'
'Audio'
'Au'
'Att'
'Assessment_'
'Ass'
'Asi'
'Ari'
'Appointment_'
'Appeals_'
'Anyone_'
'Any_'
'Answer'
'Angola_'
'Andre'
'Andorra'
'Anatol'
'Ana'
'Amend_'
'Alpha_'
'Almaty_'
'Alla'
'Aliyev'
'Ali'
'Alex'
'Ale'
'Aires_'
'Ai'
'Ah'
'Age_'
'Against_'
'Advance'
'Adv'
'Address_'
'Addis_'
'Ada'
'Activities_'
'Acti'
'Academi'
'About_'
'Abi'
'Abdul'
'Ababa_'
'AT_'
'ATE'
'AS_'
'ANT_'
'ALL_'
'AK'
'AGR'
'AG'
'?? ????????'
'?)'
'>>)'
'><\\/_'
'>","_'
'> '
'==='
'="'
';'
': “_'
': «_'
'97'
'950_'
'919'
'911_'
'909_'
'905'
'903'
'880_'
'853'
'751'
'748_'
'736'
'707'
'673'
'636_'
'605'
'530'
'48'
'456'
'430_'
'410'
'40'
'3D_'
'389_'
'375_'
'372_'
'360_'
'342_'
'337'
'336'
'317_'
'314'
'313_'
'310'
'305_'
'2N_'
'287_'
'281'
'275'
'265_'
'261_'
'26'
'259'
'257_'
'254_'
'240_'
'239_'
'235_'
'231'
'220'
'210'
'204'
'203_'
'203'
'1971_'
'1966_'
'1961_'
'1948_'
'1947_'
'185_'
'184_'
'182_'
'179_'
'177_'
'169_'
'167'
'162_'
'162'
'160'
'158_'
'157_'
'151'
'150'
'147_'
'145'
'144'
'139_'
'135_'
'134'
'129_'
'126_'
'1267_'
'121'
'119'
'114'
'112'
'111T111_'
'10H'
'0th_'
'030'
'002'
'001'
'000'
'//_'
'/ - _'
'.: _'
'......._'
'..'
'. – _'
',– _'
', -- _'
', (_'
')<\\/_'
')*_'
')) _'
') = _'
'()'
'%)._'
'#@'
'">'
'";_'
'":[],"_'
'"...'
'", - _'
'",'
'")._'
'")'
'" ("_'
'!!!'
'!'
' € '
' „_'
' –'
' » _'
' [...]'
' ['
' @@'
' = '
' :_'
' />_'
' /'
' - - _'
' - '
' +'
' (****) _'
' ("_'
'�_'
'英'
'克'
'€_'
'€ '
'…]'
'… _'
'•_'
'”)'
'“.'
'’'
'ўна'
'іц'
'ёте'
'ёры_'
'ён'
'яющий_'
'ящим_'
'ячес'
'ячейк'
'яци'
'ях'
'ято'
'ятель'
'ята'
'яснен'
'яну'
'яния_'
'яние_'
'январ'
'яна_'
'яльн'
'яйц'
'яйте'
'язычного_'
'языком_'
'языковым'
'языков'
'языки_'
'язык'
'язы'
'яжени'
'яже'
'яж'
'яем'
'ядр'
'ядерному_'
'яда_'
'являющим'
'являющиеся_'
'являющегося_'
'являющ'
'являл'
'являе'
'явлением_'
'явлени'
'явл'
'ющиеся_'
'ющее_'
'ючени'
'юст'
'юс'
'юрисдикцией_'
'юридической_'
'юридическим_'
'юр'
'юм'
'юко'
'южны'
'юдже'
'юбилейн'
'этике_'
'эти'
'этапом_'
'этапа'
'этап'
'этаж_'
'эта'
'эскалации_'
'эрто'
'эро'
'эр_'
'эр'
'энергично'
'энергетического_'
'энергетически'
'энд_'
'элит'
'элементом_'
'электросвязи_'
'электронные_'
'электромагнит'
'электрическо'
'электрически'
'экстреми'
'экстре'
'экспо'
'эксплуатация_'
'эксплуатаци'
'экспериментально'
'экспер'
'экскурсии_'
'экс'
'экономическом'
'экономическими_'
'экономически_'
'экономит'
'экономика_'
'экологического_'
'экологическим'
'экологический_'
'экологическ'
'экземпляр'
'экзаменов_'
'эквивалентн'
'эй_'
'ьют'
'ьше_'
'ьш'
'ьц'
'ьство'
'ьского_'
'ьские_'
'ьным_'
'ьные_'
'ьную_'
'ьном'
'ьная_'
'ьмо'
'ьи_'
'ьев'
'ьд'
'ьги'
'ьбур'
'ьба'
'ышленны'
'ытый_'
'ыто'
'ыта'
'ып'
'ыне'
'ывающе'
'ываются_'
'ываю'
'ывать_'
'ывани'
'ываемо'
'ываем'
'ыб'
'ъезд_'
'щенн'
'щенков_'
'щения_'
'щем'
'щел'
'щейся_'
'щей_'
'ще_'
'щал'
'щает'
'щад'
'шую'
'штр'
'штатны'
'штатно'
'штат_'
'штаба_'
'шний_'
'шн'
'шмералевц'
'школа'
'шки'
'шка'
'шк'
'шит'
'широкомасштабны'
'широкое_'
'широко_'
'широко'
'широкими_'
'шире_'
'шим_'
'шие_'
'шестом'
'шенны'
'шение'
'шем'
'швейцарск'
'шать_'
'шательств'
'шар'
'шал'
'шаг_'
'шаблон'
'чьи'
'чш'
'чудо_'
'чувствова'
'чтен'
'чрезмерно'
'чре'
'чную_'
'чное_'
'чник'
'чная_'
'чн'
'членск'
'члена_'
'чко'
'чки_'
'чка_'
'чк'
'чите'
'читал'
'чистых_'
'чистый_'
'чистой_'
'численность'
'численн'
'чины_'
'чиновник'
'чиков_'
'чик_'
'чивост'
'чивани'
'четырех'
'четкого_'
'четких_'
'четвертый_'
'четвертого_'
'честн'
'чество'
'честве'
'ческо'
'ческ'
'черно'
'черн'
'чер'
'чен_'
'чемпионат'
'человечес'
'чей_'
'че_'
'чая_'
'чаты'
'чата'
'частны'
'частно'
'часовой_'
'чано'
'чани'
'чайн'
'цыган'
'ция'
'цифры_'
'цифрово'
'цистерн'
'цир'
'ционных_'
'ционные_'
'ционного_'
'ционн'
'циони'
'циона'
'цинско'
'цин'
'цикл_'
'циент'
'цидо'
'циал'
'цессо'
'церкви_'
'церк'
'цены_'
'цену_'
'центром_'
'центрам_'
'центральных_'
'центральном_'
'центральной_'
'централиз'
'ценностям_'
'ценить_'
'ценим'
'цене_'
'ценам_'
'целесообразным'
'целесообразности_'
'целесообразно_'
'целевых_'
'целевая_'
'целев'
'цел'
'цей'
'цветов'
'цари'
'цами_'
'хэ'
'худож'
'хуа'
'христиан'
'хранител'
'хранит'
'хранилищ'
'хран'
'хра'
'хочет_'
'хотелось_'
'хорошие_'
'холодильн'
'хой_'
'хозяйственны'
'хож'
'ходьбы_'
'ходы_'
'ходов'
'ходно'
'ходим'
'ходи'
'ход'
'хно'
'хм'
'хлоп'
'хия_'
'хин'
'хг'
'характерн'
'характеризу'
'хам'
'фюмер'
'фы_'
'ффективн'
'ффе'
'фф'
'футбольн'
'функциях_'
'функциям_'
'функционируют_'
'функционир'
'функционально'
'французско'
'фразы_'
'фраз'
'фотографи'
'форумом_'
'фортн'
'формулировка'
'формулировании_'
'формулир'
'формировании_'
'формирова'
'формах_'
'фор'
'фонды_'
'фонду_'
'фондом_'
'фондов'
'фонда'
'фон_'
'фирма'
'финансовым_'
'финансов_'
'финансируют'
'финансирова'
'финал'
'фило'
'фиксированн'
'фикс'
'физических_'
'физические_'
'физическ'
'фестиваль_'
'феро'
'ферме'
'фел'
'федераци'
'федеральны'
'федеральном'
'фарисе'
'фам'
'фал'
'факту'
'фактора_'
'фактор'
'фактической_'
'фактически_'
'факта'
'фак'
'фабрик'
'уясь_'
'уязвимость_'
'уют'
'уэл'
'ущая_'
'ушитель'
'ушен'
'учрежденным_'
'учреди'
'учитывающи'
'учитывается_'
'учител'
'учил'
'учены'
'учений_'
'учен'
'учебны'
'учебного_'
'учебник'
'участвующ'
'участвовали_'
'участв'
'уча'
'уху'
'уха'
'утся_'
'уточнения_'
'утн'
'утечки_'
'утвержденным_'
'утвержденные_'
'утвержденно'
'утвержден_'
'утверждается_'
'утвержд'
'утвердила_'
'утвердил_'
'усыновленны'
'усыновитель_'
'усугуби'
'усу'
'устранения_'
'устранени'
'устр'
'устойчивый_'
'устойчив'
'устным_'
'устный_'
'устны'
'установленных_'
'установленным'
'установленном'
'установленной_'
'установлению_'
'установит'
'устанавливаю'
'устан'
'устав'
'успе'
'усо'
'условиям_'
'услови'
'ускорить_'
'ускоренно'
'ускорени'
'усилиями_'
'усилиям_'
'уса_'
'уса'
'ури_'
'урегулировании_'
'урегулирова'
'уран_'
'уравн'
'упроч'
'упразднени'
'управляем'
'управля'
'управлению_'
'управлением_'
'упорн'
'упор_'
'упомянутые_'
'упоминания_'
'упоминае'
'уполномочи'
'уполномоченн'
'упн'
'упка'
'упит'
'упаковке_'
'унт'
'уно'
'унк'
'уничтожили_'
'уничтожение'
'уникальн'
'универсальны'
'универсально'
'ун_'
'умн'
'уми'
'умес'
'уменьши'
'уменьшен'
'умент'
'умеет'
'умал'
'ума'
'уля'
'ульти'
'ультат'
'ульс'
'улы'
'улучшен'
'улу'
'ула_'
'ула'
'ул_'
'уктивн'
'укреплен'
'укреп'
'украшен'
'укр'
'уки'
'указывать'
'указател'
'указаны_'
'указанным_'
'указанны'
'указанной_'
'указаний_'
'указали_'
'узл'
'узки'
'узел_'
'узе'
'ужн'
'ужда'
'ужа'
'уемые_'
'уем'
'уду'
'удостовер'
'удовлетворяе'
'удоб'
'удно'
'удерж'
'уделяя_'
'уделяет_'
'уделено_'
'удары_'
'удара'
'удал'
'угроза'
'угольн'
'уголовных_'
'уголовны'
'уголовное_'
'уголовно_'
'угол'
'угод'
'угля_'
'углубления_'
'углублению_'
'углуб'
'углерода_'
'увязк'
'увяз'
'увств'
'увле'
'увидеть'
'увид'
'уверен_'
'уверен'
'увеличилось_'
'увеличило_'
'увеличил'
'увеличивать'
'увеличении_'
'увеличен'
'уведоми'
'уведом'
'уважению_'
'уважении_'
'уважать_'
'убыт'
'убор'
'убиты'
'убит'
'убеждена_'
'убедить'
'убедительны'
'уально_'
'тюрьме_'
'тюрьмах_'
'тюремным_'
'тюремно'
'тысяч_'
'тысяч'
'тыл'
'тый_'
'тъемлемо'
'тче'
'тч'
'туш'
'тут'
'туру_'
'туристов_'
'тури'
'турецко'
'турецки'
'туп'
'тум'
'туда_'
'туал'
'тск'
'трупп'
'трудом_'
'трудовых_'
'трудовой_'
'трудово'
'трудов'
'трудны'
'трудностя'
'трое'
'тридцат'
'трибуналы_'
'трибунала_'
'третьих_'
'третьим'
'третье'
'треть'
'трети_'
'трениров'
'трем'
'трево'
'требующие_'
'требующ'
'требуемы'
'требованием_'
'треблени'
'трати'
'трат'
'транш'
'трансф'
'транспортном'
'транспортно'
'транспортн'
'транспорт_'
'транспарентной_'
'транзит'
'тран'
'традициям'
'традиционные_'
'традиционному_'
'традиционной_'
'традиционного_'
'традиционн'
'траг'
'тр'
'точные_'
'точны'
'точ'
'торо'
'тормозо'
'тормо'
'торговым_'
'торг'
'тора_'
'топографи'
'толкование'
'токе_'
'ток_'
'тог'
'тово'
'товарн'
'товара_'
'тны'
'тно_'
'тниц'
'тл'
'тков_'
'тия_'
'тичн'
'тические_'
'тихоокеанск'
'типографски'
'типо'
'тила_'
'тики_'
'тик'
'тизаци'
'тивного_'
'технология'
'технологич'
'технологи'
'техническая_'
'технико_'
'техника_'
'техни'
'тесны'
'террористов_'
'террористические_'
'террористически'
'террористическая_'
'террорист'
'территория'
'терр'
'термо'
'терап'
'тера'
'тепе'
'теоретическ'
'тео'
'тенц'
'тентов'
'тенн'
'тение_'
'тени'
'темно'
'тематически'
'темам'
'тема'
'тем'
'тельство'
'тельств'
'тельным_'
'тельные_'
'тельност'
'тельно'
'тельна_'
'телесны'
'телес'
'телевидения_'
'телевидение_'
'тела'
'тексты_'
'текстом_'
'текстов'
'текстил'
'текста'
'текст'
'тей'
'тег'
'тебя_'
'театра_'
'тво_'
'твенно'
'тве_'
'тве'
'твам'
'тва'
'тател'
'тания_'
'тани'
'таможенны'
'тальн'
'такт'
'таково'
'тайн'
'таж'
'сырья_'
'сырьевы'
'сыновьями_'
'сыл'
'сыгра'
'сы'
'съе'
'сше'
'считаться_'
'счету_'
'счасть'
'сцен'
'сходн'
'схемы_'
'схем_'
'сформулированным'
'сформ'
'сфо'
'сфера'
'сф'
'существующей_'
'существующее_'
'существующего_'
'существующ'
'существования_'
'существованию_'
'существенным_'
'сущ'
'суточны'
'сут'
'супружеск'
'суп'
'сумм_'
'судье_'
'судоход'
'суди'
'судебное_'
'судебн'
'суверенного_'
'суверенитет'
'субъектами_'
'субъектам_'
'субъект'
'субсидирова'
'субсиди'
'субрегионе_'
'субрегиональн'
'субрегиона_'
'субрегион'
'субботу_'
'суа'
'су_'
'стски'
'структурой_'
'структур'
'строя_'
'строке_'
'строительству_'
'строит'
'строгого_'
'строго'
'стремлении_'
'стремиться_'
'стремил'
'стрелково'
'стрелк'
'страховы'
'страхованию_'
'страхов'
'стратегия_'
'стратегической_'
'страной_'
'странн'
'страниц_'
'стран'
'страдаю'
'страдания'
'страда'
'стр'
'стоящие_'
'стоян'
'стороной_'
'сторонник'
'сторонний_'
'стороннее_'
'стороне_'
'сторон'
'сторо'
'стон'
'столкновения'
'столкновени'
'стол_'
'стойк'
'стов'
'стического_'
'стихи'
'стить_'
'стит'
'стира'
'стипендий_'
'стимулирования_'
'стимул'
'стил'
'стерс'
'стер_'
'степ'
'стекло'
'стей_'
'ствую'
'ствова'
'ствие_'
'ства'
'статья'
'статистически'
'статистика_'
'старших_'
'старшим'
'старта'
'старости_'
'старо'
'старения_'
'старейши'
'станций_'
'становя'
'стандартизации_'
'стаж'
'стадиях_'
'ставят'
'ставки_'
'ставка'
'ставится_'
'стабилиз'
'ссылок_'
'ссылается_'
'ссыла'
'ссуды_'
'сст'
'ссии_'
'сси'
'ссел'
'срочных_'
'срочном_'
'срочно'
'средой_'
'среднесрочн'
'сравнительно'
'сраб'
'спу'
'спросил'
'спро'
'справочны'
'справочно'
'справедливости_'
'справедливого_'
'способствующих_'
'способствующе'
'способствовал'
'способный_'
'способны'
'способностей_'
'способна_'
'спортивны'
'спора_'
'спл'
'списки_'
'спин'
'специфик'
'специальную_'
'специальному_'
'специальное_'
'специалиста'
'специализированны'
'специализаци'
'спектра_'
'спект'
'спасения_'
'спальни_'
'спал'
'сочте'
'сочета'
'соч'
'социологи'
'социальными_'
'социальное_'
'социали'
'сохраняющегося_'
'сохраняю'
'сохранять'
'сохраня'
'сохранении_'
'сохран'
'соф'
'сотрудничал'
'сотни_'
'состоящ'
'состоять'
'состоявшихся_'
'состоявшейся_'
'состоя'
'составляющий_'
'составляюще'
'составлял_'
'составление_'
'состави'
'состав'
'сост'
'сосредоточить_'
'сосредоточил'
'сослал'
'соседни'
'соседи_'
'сорт'
'соревновани'
'соразмерн'
'сора_'
'сопряжен'
'сопровождаться_'
'сопро'
'сопоставимыми_'
'сопоставим'
'соответствующем'
'соответствую'
'сооружения_'
'сообществом_'
'сообществам'
'сообщениями_'
'сообщениям_'
'сообщением_'
'сообщает_'
'соображения_'
'сообра'
'сон'
'сомнение_'
'сомалийски'
'солн'
'соли'
'солдат_'
'солдат'
'сол'
'сокращении_'
'сокращать'
'сокраща'
'сократилось_'
'сократили'
'сок'
'созыва_'
'создающ'
'создано_'
'созданных_'
'созданной_'
'создала_'
'создал_'
'создавшего_'
'создавать_'
'создавал'
'создаваем'
'сожале'
'соединит'
'соединений_'
'соединени'
'соедин'
'содержащих_'
'содержащимся_'
'содержащем'
'содержащего'
'содержать_'
'содержавши'
'содерж'
'содействуют_'
'соглашениях_'
'соглашении_'
'соглашени'
'согласу'
'согласованны'
'согласовани'
'соглас'
'современном'
'современной_'
'совпадают_'
'совпа'
'совместное_'
'совместн'
'совещанию_'
'совещанием_'
'совеща'
'совету_'
'советских_'
'советник'
'совершенствованию_'
'совершенствовани'
'совершенных_'
'совершенно_'
'совершени'
'сова'
'собственными_'
'собственный_'
'собственные_'
'собран'
'собрали'
'соболезнования_'
'соблюдают'
'соблюдаться_'
'соблюда'
'собирают'
'собирае'
'собе'
'сны'
'снижаю'
'сниж'
'снаря'
'снабжени'
'снабжен'
'смягчению_'
'смягчени'
'смысле_'
'смысл_'
'смотрен'
'сможете_'
'смогла_'
'смог_'
'сми'
'смещен'
'смеша'
'смес'
'смертную_'
'смертн'
'смерте'
'смену_'
'смежны'
'слушани'
'слуша'
'случаям_'
'случайны'
'случай_'
'служебны'
'службами_'
'служба'
'служат_'
'сложные_'
'сложны'
'сложивше'
'словом_'
'слет'
'слен'
'следующую_'
'следующему_'
'следую'
'следствия_'
'следственны'
'следоват'
'следов'
'следи'
'слаженн'
'слабые_'
'скрыт'
'скорректирова'
'скоростны'
'скорейше'
'скоординированно'
'сколько_'
'складе_'
'ски_'
'ске'
'скважинах_'
'скважин'
'скаци'
'скат'
'сказывается_'
'сказала_'
'сказал'
'скажу_'
'ск_'
'сиф'
'ситуацией_'
'системам_'
'сис'
'синергически'
'символи'
'сильн'
'сило'
'сила_'
'сиденья_'
'сид'
'сигнал_'
'сив'
'сжигания_'
'сжат'
'сетев'
'сессиями_'
'сесси'
'серьезны'
'серьезную_'
'серьезн'
'серебро'
'сентябрь_'
'сено'
'семя'
'семьями_'
'семью_'
'семь_'
'семь'
'семи_'
'семи'
'семейных_'
'семейно'
'сем'
'сельскохозяйственные_'
'сельскохозяйственного_'
'сельской_'
'сельское_'
'секунд_'
'сектором_'
'секторальн'
'сексуальные_'
'сексуального_'
'сексуальн'
'секрет'
'сей'
'сезон'
'седо'
'сед'
'сегодняшний_'
'сегмент'
'северно'
'севере_'
'сдерживать_'
'сдержанность_'
'сделки_'
'сделанные_'
'сделали_'
'сделае'
'связям_'
'связя'
'связаться_'
'связано_'
'связанный_'
'связанн'
'свя'
'свойств_'
'свободе_'
'свидетеля_'
'свидетельски'
'светов'
'светл'
'сверху'
'сверх_'
'свер'
'сва'
'сбыта_'
'сброса'
'сбро'
'сборов_'
'сближ'
'сар'
'санкциям_'
'санкции_'
'санитарных_'
'санитарного_'
'санитарн'
'самыми_'
'самые_'
'самоуправлени'
'самостоятельно_'
'самооценк'
'самоопределение_'
'самолет_'
'саммите_'
'сами'
'сальдо_'
'сала'
'сайта'
'сад_'
'рям'
'ряду_'
'рытый_'
'рыночно'
'рыв_'
'рыв'
'рыболовств'
'рыболовн'
'рыбному_'
'рыбн'
'рче'
'рц'
'рую'
'ручно'
'рут'
'русс'
'руководящим_'
'руководяще'
'руководстве_'
'руководств'
'руководителя_'
'руководите'
'руководит_'
'рук_'
'рук'
'ружи'
'руж'
'руемой_'
'рубрик'
'ртути_'
'рск'
'рочных_'
'рочны'
'рочн'
'роч'
'рото'
'ротаци'
'рост'
'российского_'
'российско'
'российских_'
'ропр'
'рол'
'розы_'
'рожденными_'
'рожден'
'роен'
'родственник'
'родов'
'родителям'
'родин'
'роди'
'родам_'
'рог'
'роват'
'рованн'
'рных_'
'рным_'
'рны'
'рной_'
'рное_'
'рно'
'рка'
'риска'
'рирован'
'рим'
'рж'
'решимост'
'решения'
'решающе'
'решающ'
'решае'
'реш'
'речных_'
'речн'
'референдум_'
'реф'
'ретро'
'ресурсо'
'ресурса_'
'респондент'
'рес_'
'репресси'
'репр'
'репатриаци'
'реп'
'ренны'
'рени'
'ремес'
'религиозных_'
'религиозным'
'религиозной_'
'религиозн'
'рели'
'рел'
'рекомендовать_'
'рекомендованны'
'рекомендовали_'
'рекомендовала_'
'рекомендация_'
'рекоменда'
'реклам'
'рейтинг'
'резюме_'
'результата_'
'резолюция'
'резидентов_'
'резидент'
'резервы_'
'резервного_'
'редк'
'редит'
'редакци'
'регулярным'
'регулярный_'
'регулярн'
'регулирующие_'
'регулирующе'
'регулирующ'
'регулирует'
'регулировать'
'регулированн'
'регул'
'регламентирующи'
'регистрируются_'
'регистрация_'
'регионам_'
'революци'
'ревизор'
'ребенку_'
'реальностью_'
'реально_'
'реализует'
'реализова'
'реализацией_'
'реализаци'
'реали'
'реале'
'рдин'
'рдан'
'рб'
'ращение_'
'рачны'
'рациональны'
'рационально'
'рационализ'
'раци'
'рах'
'рату'
'ратификаци'
'рате'
'расщепляющ'
'расширять'
'расшири'
'расширениями_'
'расчетов_'
'расчет'
'расхождени'
'расходах_'
'расходам'
'расхода_'
'расторг'
'расти'
'растет_'
'рассчитывает_'
'рассчитывае'
'рассчит'
'рассу'
'расстро'
'расстояния_'
'рассмотрит_'
'рассмотрела_'
'рассматривая_'
'рассматривал'
'рассматриваемым_'
'расследование_'
'расследовани'
'рассл'
'рассказал'
'рассказа'
'рассе'
'распространяются_'
'распространяется_'
'распространяе'
'распространя'
'распространи'
'распространенным_'
'распространенн'
'распространен_'
'распределение'
'распредел'
'распоряжения_'
'распоряжение_'
'распоряж'
'расположенны'
'располагают_'
'распол'
'расписания_'
'расов'
'раскры'
'раси'
'рано_'
'рамм'
'ракетн'
'ракет'
'рака_'
'рак'
'рай'
'разъяснительной_'
'разъяснения'
'разъяснени'
'разумные_'
'разум'
'разрыва_'
'разрушен'
'разруша'
'разруб'
'разрешить_'
'разреши'
'разрешений_'
'разрешение_'
'разрешает'
'разреш'
'разработаны_'
'разработанно'
'разработана_'
'разработала_'
'разрабатыва'
'разными_'
'разнообразны'
'разнообразии_'
'разн'
'размнож'
'разминированием_'
'разминировани'
'размещенны'
'размеры_'
'размеров_'
'размер'
'различно'
'различия_'
'различие_'
'различ'
'разделу_'
'развиваю'
'развивать_'
'развертывание'
'разведывательно'
'разбирательстве_'
'разби'
'радиоактивн'
'ради'
'равные_'
'равност'
'равноправ'
'рабства_'
'рабочими_'
'рабочий_'
'рабоче'
'работника'
'работающим_'
'работал_'
'пятый_'
'пяти'
'пытки_'
'пыткам_'
'пытка'
'пыта'
'путя'
'пусть_'
'пун'
'публичны'
'пто'
'пти'
'психологическое_'
'психологическ'
'прямую_'
'проявляет_'
'проявл'
'проще'
'прошлы'
'прошло'
'прошедши'
'прочного_'
'прочно'
'прочит'
'процентный_'
'процентны'
'процентной_'
'процент'
'процвета'
'прохождени'
'проходят_'
'проходит_'
'прох'
'профсоюза'
'профсоюз'
'профессионального_'
'профессиональн'
'профессионал'
'проф'
'противоречащи'
'противоп'
'противодействия_'
'противодействию_'
'просты'
'пространстве_'
'проста'
'прост'
'просл'
'просител'
'просвещение_'
'прораб'
'пропуск'
'пропо'
'проникн'
'промышленные_'
'промышленному_'
'промысла_'
'промысл'
'промежуточн'
'прокурора_'
'прокомментировал'
'происшедш'
'происхождени'
'происходя'
'происходи'
'проинформировал'
'проинформирова'
'проиллюстрировать_'
'произоше'
'произвольны'
'произвольно'
'производящ'
'производственного_'
'производителям'
'производились_'
'произвести_'
'произведено_'
'произведенны'
'проживающ'
'проживал'
'проектной_'
'проектно'
'проектиров'
'проектах_'
'проек'
'прое'
'продукцию_'
'продукта_'
'продукта'
'проду'
'продольной_'
'продолжительности_'
'продолжит_'
'продолжит'
'продолжил'
'продолжен'
'продолжающим'
'продолжающе'
'продолжается_'
'продлит'
'продлева'
'продемонстрировать_'
'проде'
'продают_'
'прода'
'прод'
'программных_'
'программны'
'программно'
'прогнозирова'
'прогноза'
'прогноз'
'провозглашенны'
'провозглашени'
'проводящи'
'проводн'
'проводимого_'
'проводили'
'проводил'
'проводивш'
'провинции_'
'проведет_'
'проведено_'
'проведенн'
'провед'
'прове'
'проанализирова'
'приятно_'
'приятн'
'пришло'
'пришла_'
'пришел'
'причиной_'
'причиненн'
'притя'
'притока_'
'приток_'
'присущи'
'присутству'
'присутствии_'
'присужд'
'приступить_'
'приступило_'
'приступи'
'приспособления'
'приспособ'
'присоединит'
'присоединились_'
'присоединил'
'присоединения_'
'присоединении_'
'присвоения_'
'природным'
'природные_'
'природно'
'приостанов'
'приоритетност'
'приоритет'
'приобретения_'
'приобретени'
'приобретает_'
'приобрести_'
'приобрел'
'принятыми_'
'принятое_'
'принятого_'
'принятая_'
'принят'
'приняв_'
'приня'
'принудительным_'
'принудительные_'
'принося'
'приноси'
'принимающим_'
'принимающе'
'приниматься_'
'принимаемых_'
'принимаемые_'
'принадлежность_'
'принадлежащих_'
'принадлежат_'
'принадлежа'
'примеча'
'примеры_'
'применяю'
'применяла'
'применяет_'
'применимых_'
'прим'
'приложениях_'
'приложени'
'прилож'
'приле'
'прилагать_'
'прилагает'
'прико'
'прикладная_'
'приказо'
'приказ'
'призыв'
'признают'
'признательностью_'
'признано_'
'признани'
'признаваемые_'
'призваны_'
'призванно'
'призванн'
'призвана_'
'призван'
'приз'
'приемлемого_'
'прием_'
'приезжаю'
'придет'
'придают_'
'придает'
'приготовлен'
'пригодн'
'пригоден_'
'приговорен_'
'приговор_'
'приглашения_'
'приглашение_'
'пригласить_'
'пригл'
'приг'
'привы'
'приводятся_'
'приводи'
'привлечение_'
'привлечени'
'привлека'
'привилеги'
'приветствуя_'
'приветствовал_'
'приведенных_'
'привед'
'приватизаци'
'прибытия_'
'прибыл'
'приближ'
'прецедент'
'претензиям'
'прет'
'преступлениями_'
'преступление_'
'пресноводных_'
'пресно'
'преследу'
'преследовани'
'пресечению_'
'прер'
'препятствующи'
'препятствует_'
'препятствия_'
'препятствием_'
'препятстви'
'препровожден'
'препровождающ'
'препрово'
'преодолени'
'преодоле'
'преобразовани'
'преобразов'
'прения_'
'пренебре'
'премии_'
'прекурсор'
'прекращен'
'прекращает'
'прекратить_'
'прекрасно'
'прекра'
'преимущественно_'
'президенты_'
'президентских_'
'презентации_'
'прежни'
'преемств'
'преды'
'предъяви'
'предшественник'
'предшеств'
'предусматривающий_'
'предусматривающие_'
'предусматриваются_'
'предусматривают_'
'предусматривало'
'предусматривали'
'предусматрива'
'предупреждение_'
'предупре'
'преду'
'предстояще'
'предстоящ'
'предстоит_'
'представляющих_'
'представляющие_'
'представляющи'
'представляю'
'представляемых_'
'представленности_'
'представителям_'
'представительств'
'представительниц'
'представило_'
'представ'
'председателя_'
'председатель_'
'предс'
'предприятиях_'
'предпринять_'
'предприняты'
'предпринимательс'
'предпочтительнее_'
'предпоч'
'предполагающ'
'предполагаемых_'
'предписанн'
'предотвращени'
'предотвраща'
'предоставляет_'
'предоставлено_'
'предоставленны'
'предоставленную_'
'предоставлен_'
'предоставит_'
'предо'
'предназначенных_'
'предназначен_'
'предназнача'
'предмет_'
'предложил'
'предложи'
'предложенный_'
'предложенного_'
'предложенно'
'предло'
'предлагать_'
'предлагаемые_'
'предельны'
'предельн'
'предел_'
'предел'
'предварительных_'
'предварительные_'
'предварительную_'
'предв'
'преда'
'превышающ'
'превращ'
'превратит'
'превосходи'
'превентивной_'
'пребывание_'
'практически'
'практи'
'праздник_'
'правосудии'
'правосу'
'правопоряд'
'правонарушителям'
'правонарушения'
'правонарушений_'
'правозащитным'
'правозащитно'
'правового_'
'правительственные_'
'правительственно'
'правительстве_'
'прави'
'правда'
'правд'
'поясни'
'поясн'
'пояс'
'появляются_'
'появивши'
'поэ'
'почтовы'
'почте_'
'почт'
'почве'
'похож'
'потребностями_'
'потребля'
'потребление_'
'потоло'
'потоки_'
'пото'
'потеря_'
'потерпевшим_'
'потерпевш'
'потенциальны'
'потенциального_'
'потенциально'
'потенциалом_'
'поте'
'посыл'
'поступил'
'поступа'
'постро'
'пострадавше'
'постоянном_'
'постоянное_'
'постепенно_'
'постепенно'
'постановление_'
'поставлен'
'поставило_'
'постав'
'поста'
'посредство_'
'посредническ'
'посред'
'посольства'
'посо'
'посмотре'
'последующего_'
'последствиями_'
'последствиям_'
'последовательност'
'последовательного_'
'последова'
'последним'
'последнем_'
'последней_'
'послед'
'после'
'посл'
'посещающих_'
'посещаю'
'посетить_'
'посетил'
'поселения'
'посел'
'посвященного_'
'поручени'
'портф'
'португальск'
'портал_'
'порта_'
'порт_'
'порочно'
'породи'
'попытка_'
'попыта'
'популяр'
'попрос'
'поправк'
'пополн'
'попада'
'поощряю'
'понятия'
'понимать_'
'пониманием_'
'понимает_'
'понесенн'
'понес'
'понедельник_'
'помогло_'
'помогл'
'помогают_'
'помо'
'помни'
'помеща'
'поля'
'полюс'
'пользует'
'пользовательски'
'польз'
'поль'
'полушари'
'получите_'
'получила_'
'полученн'
'получению_'
'получателя'
'получателей_'
'получает'
'получаем'
'полуза'
'положительно_'
'положи'
'положения'
'половине_'
'половина_'
'полов'
'полную_'
'полномочиями_'
'полицейско'
'полицейский_'
'политическую_'
'политическом'
'политически_'
'полити'
'полиме'
'полета'
'полезных_'
'полезны'
'полезно'
'полезн'
'полево'
'поле_'
'поле'
'полага'
'покупк'
'покрытий_'
'покрыт'
'покрыва'
'показывают_'
'показаться_'
'показателями_'
'показателя'
'показательный_'
'показало'
'показ'
'пойти_'
'пойма'
'поисков'
'поиска'
'поиск_'
'поиск'
'позна'
'позитивны'
'позитивно'
'пози'
'позвоночн'
'позволяющим'
'позволяющи'
'поз'
'пожелают_'
'пожелал'
'поже'
'пожаров_'
'поездо'
'поездка'
'подъе'
'подчин'
'подчеркнута_'
'подчеркивают'
'подчеркивается_'
'подчерк'
'подходит_'
'подушка'
'подтверждены_'
'подтверждения_'
'подтверждением_'
'подтверждающи'
'подтвердила_'
'подт'
'подсветк'
'подрядчиков_'
'подрядчикам'
'подрядчик'
'подробную_'
'подробно'
'подразумевает'
'подразделениям'
'подр'
'подпункт_'
'подписание'
'подписали_'
'подписавших_'
'подпадают_'
'подойти_'
'подозреваемых_'
'подобра'
'подобно'
'подножья_'
'поднима'
'подлежащие_'
'подлежащ'
'подкрепляю'
'подкоми'
'подкл'
'подкатегории_'
'поддерживал'
'поддерживае'
'поддержи'
'поддержанн'
'поддержание'
'подде'
'подготовленны'
'подготовленн'
'подготовительны'
'подготавливаться_'
'подготавлива'
'подго'
'подвижн'
'подви'
'подвес'
'подвержен'
'подвергнут'
'подвергаю'
'подач'
'подан'
'пограничных_'
'пограничн'
'поговори'
'погибл'
'погиб'
'погаш'
'повышать_'
'повсеместно'
'повседневн'
'повс'
'пово'
'поверхностны'
'пове'
'побу'
'побо'
'поанглийски_'
'пны'
'пн'
'плю'
'плодотворн'
'плени'
'плен'
'племен'
'плект'
'платформ'
'плату_'
'планируем'
'планировал'
'планирова'
'планет'
'пламени_'
'плак'
'пищ'
'пить'
'питат'
'питание'
'пит'
'письменный_'
'писал_'
'пило'
'пет'
'пест'
'пессимист'
'пес'
'перуанск'
'перспективн'
'перспектив_'
'перспектив'
'персонале_'
'периодических_'
'периодические_'
'перечисли'
'переч'
'переходны'
'переходного_'
'переходе_'
'пересч'
'пересмотренных_'
'пересмотрел'
'пересечении_'
'переселенцев_'
'пересел'
'перерас'
'переработки_'
'переработк'
'перепр'
'перепл'
'перемещения_'
'перемещени'
'перем'
'пережив'
'переезд'
'передовой_'
'передово'
'передвижени'
'передаю'
'передач'
'передава'
'переговорн'
'переговорах_'
'переводчик'
'переве'
'переб'
'первые_'
'первос'
'первоочередных_'
'пенсию_'
'пенсионных_'
'пенсионн'
'пенитенциарны'
'пенди'
'пект'
'пей'
'педо'
'педагогически'
'пед'
'пациентов_'
'патрулировани'
'патрул'
'патент'
'пассажир'
'партнерских_'
'партнерск'
'партия_'
'пароль_'
'парламентско'
'парк_'
'парат'
'параметров_'
'параметра'
'параметр_'
'параллельного_'
'пара'
'пан_'
'память'
'памятник'
'памяти_'
'пам'
'палестинской_'
'палестинского_'
'пакт'
'пакетов_'
'пак'
'пазон'
'падени'
'оэ'
'ощуща'
'ошибочн'
'ошибки_'
'ошибке_'
'ошибка_'
'ошибк'
'ошиб'
'ошен'
'оше'
'очны'
'очной_'
'очно'
'очистит'
'очередны'
'очередной_'
'очевидно'
'оче'
'оценил'
'оценивают'
'оценивае'
'охранных_'
'охватывающи'
'охватываем'
'охватыва'
'охватить_'
'оформления_'
'оформ'
'официальной_'
'официальное_'
'отчуждения_'
'отчетн'
'отчете_'
'отчета'
'отч'
'отца'
'отходами_'
'отходам_'
'отт'
'отсутствует_'
'отск'
'отрицательн'
'отрен'
'отраслей_'
'отражение_'
'отработавших_'
'отпусти'
'отправляет'
'отправлени'
'отправить_'
'отпор'
'отобража'
'отношениям'
'относительн'
'относ'
'отни'
'отнес'
'отн'
'отмывания_'
'отмывани'
'отмечаем_'
'отмети'
'отмены_'
'отличн'
'отличи'
'отличается_'
'отлича'
'откуда_'
'открытых_'
'открытым'
'открыто_'
'открытие'
'открыти'
'открыт_'
'откро'
'отко'
'отклонил_'
'отклонена_'
'отказываться_'
'отказались_'
'отказ_'
'отзыв'
'отдельно'
'отделениям'
'отделени'
'отделе'
'отдела'
'отдач'
'отвечающих_'
'отвечал'
'отвеча'
'ответствен'
'ответов_'
'ответил_'
'ответи'
'ответе_'
'ответа_'
'ответа'
'отве'
'отбыва'
'осх'
'осуществляться_'
'осуществляли'
'осуществлял'
'осуществляемых_'
'осуществля'
'осуществить_'
'осуществи'
'осуд'
'островным_'
'островами_'
'остров'
'остро'
'остол'
'остаточного_'
'останови'
'остан'
'остально'
'осталось_'
'оставши'
[...]
