'<pad>_'
'<EOS>_'
'the_'
' , _'
' ._'
'to_'
'a_'
'of_'
'and_'
'in_'
's_'
' - _'
' '_'
'_'
'on_'
'for_'
'that_'
'is_'
'was_'
'The_'
'with_'
''_'
'as_'
'it_'
'at_'
'he_'
' " _'
'his_'
'I_'
'by_'
'be_'
'from_'
'has_'
'have_'
't_'
'an_'
'._'
'are_'
'n_'
'said_'
'her_'
'-_'
'not_'
'they_'
'  _'
'who_'
'had_'
'their_'
'but_'
'will_'
'this_'
'been_'
'were_'
' ' _'
'or_'
'up_'
' : _'
'after_'
' ( _'
'year_'
'which_'
'e_'
'she_'
'd_'
'. _'
'more_'
'you_'
'one_'
'out_'
'about_'
'He_'
'It_'
'A_'
'would_'
'we_'
'y_'
'also_'
'when_'
'its_'
'all_'
'Trump_'
'ing_'
'can_'
'than_'
'ed_'
'In_'
'time_'
'two_'
'people_'
'over_'
',_'
'into_'
'But_'
'them_'
'do_'
'first_'
'r_'
'o_'
'm_'
'so_'
'could_'
'there_'
'no_'
'last_'
'1_'
'if_'
'just_'
'new_'
' , " _'
're_'
'him_'
'years_'
'what_'
'other_'
' ) _'
'like_'
'some_'
'off_'
'Mr_'
'S_'
'then_'
' $ _'
' ?_'
'back_'
' . _'
'before_'
'i_'
'did_'
'now_'
'only_'
'2_'
'my_'
'We_'
'er_'
'U_'
'being_'
'three_'
'old_'
'000_'
'get_'
'most_'
'our_'
'And_'
'l_'
'es_'
'made_'
'day_'
'me_'
'where_'
'against_'
'while_'
'how_'
'down_'
'3_'
'because_'
' ; _'
'She_'
'make_'
'way_'
'man_'
'any_'
'home_'
'They_'
'h_'
'week_'
'your_'
'many_'
'This_'
'told_'
'5_'
'well_'
'even_'
'us_'
'through_'
'f_'
'during_'
'10_'
'New_'
'those_'
'since_'
'4_'
've_'
'work_'
'too_'
'government_'
'much_'
'still_'
'world_'
'around_'
'four_'
'very_'
'per_'
'take_'
'US_'
'ng_'
' £ _'
'go_'
'says_'
'between_'
'own_'
'police_'
'should_'
'long_'
'million_'
'6_'
'such_'
'say_'
'may_'
'g_'
'found_'
'th_'
'including_'
'see_'
'team_'
'going_'
'left_'
'under_'
'next_'
'family_'
'O_'
'life_'
'There_'
'second_'
'country_'
'season_'
'right_'
'part_'
'former_'
'c_'
'good_'
'p_'
'President_'
'show_'
'That_'
'game_'
'ly_'
'set_'
'think_'
'does_'
'7_'
'another_'
'know_'
'high_'
'end_'
'Th_'
'United_'
'both_'
'five_'
'state_'
'top_'
'same_'
'As_'
' : " _'
'women_'
'w_'
'percent_'
'want_'
'these_'
'night_'
'If_'
'come_'
'help_'
'took_'
'children_'
'0_'
'House_'
'month_'
'20_'
'need_'
'called_'
'public_'
'company_'
'best_'
'b_'
' : ' _'
'st_'
'cent_'
'days_'
'll_'
'used_'
'got_'
'k_'
'8_'
'al_'
'place_'
'group_'
'away_'
'according_'
'president_'
'put_'
'rs_'
'C_'
'came_'
'2016_'
'use_'
'UK_'
'later_'
'2017_'
'May_'
' / _'
'F_'
'months_'
'never_'
'North_'
'Te_'
'You_'
'play_'
'ion_'
'seen_'
' ) , _'
'really_'
'city_'
'able_'
'12_'
'win_'
'Thea_'
'30_'
'T_'
'look_'
'side_'
'London_'
'men_'
' -- _'
'American_'
'six_'
'thee_'
'number_'
' ,_'
'less_'
'media_'
'every_'
'few_'
'might_'
'far_'
'On_'
'half_'
'Friday_'
'u_'
'9_'
'When_'
'here_'
'York_'
'At_'
'2015_'
'B_'
'15_'
'went_'
'For_'
'D_'
'party_'
'head_'
'son_'
'deal_'
'de_'
'support_'
'little_'
'/_'
'No_'
'One_'
'again_'
'Monday_'
'big_'
'without_'
'Sunday_'
'Tuesday_'
'en_'
'case_'
'star_'
'run_'
'past_'
'Wednesday_'
'across_'
'campaign_'
'thew_'
'ad_'
', _'
'11_'
'early_'
'each_'
'health_'
'until_'
'report_'
'point_'
'Thursday_'
'led_'
'car_'
'already_'
'court_'
'Saturday_'
'So_'
'woman_'
'face_'
'City_'
'N_'
'making_'
'school_'
'start_'
'something_'
'having_'
'money_'
'times_'
'least_'
'attack_'
'final_'
'hit_'
'South_'
'te_'
'added_'
'news_'
'business_'
'young_'
'lot_'
'better_'
'election_'
'ago_'
'Ms_'
'whether_'
'change_'
'Australia_'
'am_'
'things_'
'law_'
'White_'
'reported_'
'taken_'
'British_'
'China_'
'M_'
'ca_'
'ti_'
'move_'
' ) ._'
'le_'
'ever_'
'known_'
'players_'
'tax_'
'find_'
'political_'
'though_'
'R_'
'After_'
'working_'
'third_'
'great_'
'Russia_'
'E_'
'become_'
'local_'
'Image_'
'hard_'
'social_'
'England_'
'black_'
'P_'
'50_'
'ts_'
'recent_'
'officials_'
'always_'
'line_'
'full_'
'power_'
'pay_'
'won_'
'house_'
'death_'
'why_'
'behind_'
'following_'
'mother_'
':_'
'area_'
'ers_'
'likely_'
'market_'
'What_'
'L_'
'age_'
'several_'
'among_'
'based_'
'points_'
'given_'
'different_'
'States_'
'free_'
'once_'
'taking_'
'co_'
'Donald_'
'v_'
'H_'
'18_'
'His_'
'security_'
'members_'
'give_'
'asked_'
'25_'
'expected_'
'series_'
'enough_'
'keep_'
'care_'
'close_'
'League_'
'video_'
'white_'
'weeks_'
'comes_'
'John_'
'club_'
'system_'
'100_'
'decision_'
'16_'
'Police_'
'hours_'
'% _'
'Korea_'
'late_'
'often_'
'must_'
'lost_'
'lead_'
'OT_'
'thing_'
'14_'
'yet_'
'13_'
'water_'
'body_'
'State_'
'national_'
'Russian_'
'feel_'
'thought_'
'While_'
'military_'
'office_'
'together_'
'major_'
'future_'
'near_'
'World_'
'saying_'
'se_'
'ON_'
'killed_'
'red_'
' )_'
'love_'
'National_'
'games_'
'seven_'
'job_'
'earlier_'
'held_'
'small_'
'died_'
'clear_'
'EU_'
'However_'
'17_'
'West_'
'looking_'
'With_'
'IN_'
'vote_'
'almost_'
'started_'
'minutes_'
'along_'
'open_'
'2014_'
'European_'
'order_'
'Washington_'
'played_'
'others_'
'Britain_'
'plan_'
'fire_'
'billion_'
'real_'
'outside_'
' ' ._'
' !_'
'z_'
'Ti_'
'story_'
'March_'
'name_'
'W_'
'trying_'
'child_'
'call_'
'shot_'
'getting_'
'saw_'
'G_'
'record_'
'live_'
'hand_'
'person_'
'June_'
'com_'
'J_'
'role_'
'ans_'
'today_'
'wife_'
'himself_'
'form_'
'using_'
'low_'
'due_'
'film_'
'leader_'
'x_'
'shows_'
'father_'
'eight_'
'couple_'
'David_'
'ne_'
'front_'
'food_'
'cut_'
'24_'
'meeting_'
'return_'
'done_'
'doing_'
'room_'
' , ' _'
'statement_'
'chief_'
'America_'
'40_'
'An_'
'K_'
'information_'
'announced_'
'further_'
'became_'
'morning_'
'wanted_'
'coming_'
'began_'
'important_'
'Now_'
'war_'
'News_'
'gave_'
'try_'
'administration_'
'nt_'
'plans_'
'nd_'
'ahead_'
'policy_'
'Brexit_'
'history_'
'bill_'
'Australian_'
'ce_'
'To_'
'course_'
'tor_'
'University_'
'within_'
'companies_'
'round_'
'large_'
'air_'
'event_'
'investigation_'
'leave_'
'staff_'
'April_'
'countries_'
'TV_'
'director_'
'study_'
'released_'
'bit_'
'fans_'
'Obama_'
'All_'
'service_'
'possible_'
'fact_'
'believe_'
'risk_'
'level_'
'career_'
'AR_'
'revealed_'
'post_'
'22_'
'Some_'
'daughter_'
'issue_'
'looked_'
'reports_'
'tow_'
'federal_'
'Cup_'
'stop_'
'ah_'
'player_'
'land_'
'showed_'
'forward_'
'July_'
'James_'
'recently_'
'UN_'
'moment_'
'Andy_'
'19_'
'21_'
'AD_'
'cost_'
'match_'
'ns_'
'playing_'
'nearly_'
'official_'
'friends_'
'fight_'
'toe_'
'short_'
'international_'
'St_'
'summer_'
'whose_'
'executive_'
'goal_'
'data_'
'despite_'
'\u_'
'Court_'
'term_'
'makes_'
'Tao_'
'toy_'
'ch_'
'let_'
'parents_'
'Scotland_'
'action_'
'online_'
'strong_'
'January_'
'rights_'
'control_'
'Senate_'
'Europe_'
'pair_'
'Manchester_'
'key_'
'sure_'
'ar_'
'services_'
' ..._'
'building_'
'ways_'
'Minister_'
'book_'
'Department_'
'turned_'
'continue_'
'process_'
'means_'
'' _'
'X_'
' ) - _'
'French_'
'trade_'
'ball_'
'rather_'
'AC_'
'sent_'
'Y_'
'AI_'
'wo_'
'latest_'
'Republican_'
'community_'
'industry_'
'field_'
'result_'
'aw_'
'kind_'
'My_'
'turn_'
'leaders_'
'Her_'
'Ian_'
'single_'
'met_'
'husband_'
'23_'
'France_'
'Twitter_'
'Michael_'
'price_'
'oft_'
'however_'
'rate_'
' ... _'
'problem_'
'current_'
'hospital_'
'claims_'
'living_'
'appeared_'
'include_'
'share_'
'caption_'
'Sydney_'
'spent_'
'issues_'
'private_'
'OD_'
'inside_'
'financial_'
'Facebook_'
'running_'
' [ _'
' _'
'interest_'
'Then_'
'September_'
'hat_'
'received_'
'2013_'
'500_'
'evidence_'
'biggest_'
'Ar_'
'ry_'
'self_'
'V_'
'chance_'
'race_'
'heard_'
'town_'
'legal_'
'someone_'
'Nd_'
'lives_'
'ground_'
'  ,_'
'AB_'
'experience_'
'felt_'
'needed_'
'football_'
'sex_'
'la_'
'member_'
'visit_'
'hold_'
'worked_'
'na_'
'list_'
'- _'
'research_'
'weekend_'
' & _'
'sexual_'
'human_'
'boy_'
'nothing_'
'special_'
'manager_'
'break_'
'Ind_'
'By_'
'ted_'
'stage_'
'paid_'
'stay_'
'heart_'
'Dr_'
'ND_'
'groups_'
'victory_'
'phone_'
'October_'
'ate_'
'officers_'
'position_'
'foreign_'
'soon_'
'involved_'
'ie_'
'wrote_'
'friend_'
'accused_'
'27_'
'California_'
'Au_'
'light_'
'26_'
'incident_'
'ta_'
'art_'
'hour_'
'actually_'
'increase_'
'anything_'
'hope_'
'relationship_'
'How_'
'offer_'
'idea_'
'claimed_'
'November_'
'general_'
'pf_'
'bring_'
'wants_'
'oaf_'
'ies_'
'Park_'
'oil_'
'sh_'
'tion_'
'December_'
'Labour_'
'nine_'
'question_'
'buy_'
'AMD_'
'program_'
'music_'
'pressure_'
'tried_'
'potential_'
'ha_'
'28_'
'board_'
'needs_'
' ] _'
'ons_'
'Street_'
'fo_'
'quarter_'
'students_'
'cause_'
'Republicans_'
'test_'
'travel_'
'growth_'
'workers_'
'period_'
'anti_'
'firm_'
'higher_'
'dead_'
'Last_'
'force_'
'. , _'
'brought_'
'longer_'
'economic_'
'August_'
'themselves_'
'ic_'
'remains_'
'bad_'
'rise_'
'similar_'
'minister_'
'capital_'
'arrested_'
'Day_'
'space_'
'published_'
'Los_'
'everything_'
'ment_'
'site_'
'leading_'
'winning_'
'energy_'
'ban_'
'fro_'
'Paul_'
'talk_'
'average_'
'seems_'
'ty_'
'road_'
'huge_'
'title_'
'ot_'
'happened_'
'girl_'
'Germany_'
'loss_'
'helped_'
'coach_'
'fell_'
'economy_'
'shared_'
'ge_'
'60_'
'Chinese_'
'scene_'
'remain_'
'2012_'
'difficult_'
'failed_'
'drug_'
'takes_'
'areas_'
'baby_'
'authorities_'
'everyone_'
'main_'
'leaving_'
'provide_'
'nuclear_'
'born_'
'previous_'
'More_'
'worth_'
'moved_'
'forced_'
'Reuters_'
'global_'
'meet_'
'officer_'
'response_'
'knew_'
'fall_'
'training_'
'Times_'
'forces_'
'changes_'
'rest_'
'states_'
'q_'
'non_'
'Ina_'
'view_'
'performance_'
'Photo_'
'either_'
'whole_'
'matter_'
'j_'
'Democrats_'
'currently_'
'George_'
'comment_'
'nation_'
'attacks_'
'tell_'
' :_'
'majority_'
'problems_'
'2018_'
'region_'
'total_'
'jobs_'
'quite_'
'property_'
'ex_'
'confirmed_'
'29_'
'senior_'
'35_'
'Syria_'
'looks_'
'sign_'
'interview_'
'named_'
'mean_'
'February_'
'Paris_'
'San_'
'pm_'
'Z_'
'Q_'
'ally_'
'Angeles_'
'questions_'
'These_'
'personal_'
'stand_'
'serious_'
'thousands_'
'BBC_'
'class_'
'allowed_'
'Two_'
'included_'
'previously_'
'charges_'
'inn_'
'especially_'
'centre_'
'anyone_'
'available_'
'ting_'
'200_'
'Americans_'
'According_'
'injury_'
'charged_'
'sales_'
'press_'
'cases_'
'range_'
'bank_'
'trip_'
'model_'
'figure_'
'photo_'
' ,  _'
'probably_'
'Premier_'
'ation_'
'East_'
'copyright_'
'access_'
'lower_'
'os_'
'Congress_'
'treatment_'
'costs_'
'Jones_'
'happy_'
'hands_'
'impact_'
'quickly_'
'step_'
'watch_'
'ey_'
'Ben_'
'prices_'
'et_'
'Instagram_'
'project_'
'results_'
'works_'
'account_'
'although_'
'instead_'
'act_'
'believed_'
'scored_'
'decided_'
'medical_'
'example_'
'growing_'
'rules_'
'claim_'
'id_'
',  _'
'popular_'
'sense_'
'talks_'
'spending_'
'ra_'
'families_'
'aid_'
'cancer_'
'Prime_'
'border_'
'style_'
'German_'
'ls_'
'Even_'
'fourth_'
'ton_'
'victims_'
'violence_'
'above_'
'gone_'
'ended_'
'kept_'
'el_'
'31_'
'Melbourne_'
'goals_'
'Christmas_'
'homes_'
'allow_'
'reason_'
'posted_'
'largest_'
'charge_'
'described_'
'giving_'
'agency_'
'Of_'
'prison_'
'teams_'
'People_'
'crisis_'
'County_'
'Chelsea_'
'sold_'
'miles_'
'opening_'
'release_'
'pass_'
'continued_'
'beat_'
'Scottish_'
'safety_'
'wrong_'
'focus_'
'minute_'
'injured_'
'raised_'
'speech_'
'":"_'
'goes_'
'technology_'
'events_'
'spokesman_'
'terms_'
'Smith_'
'flight_'
'Johnson_'
'hte_'
'host_'
'2011_'
'particularly_'
'concerns_'
'league_'
'reach_'
'ring_'
'effort_'
'caused_'
'build_'
'cover_'
'create_'
'calls_'
'itself_'
'Texas_'
'situation_'
'ready_'
'teh_'
'trial_'
'joined_'
'rates_'
'Chris_'
'date_'
'threat_'
'bed_'
'gets_'
'ble_'
'Not_'
'efforts_'
'AP_'
'Mark_'
'Is_'
',""_'
'First_'
'patients_'
'signed_'
'success_'
'words_'
'Iran_'
'followed_'
'attention_'
'built_'
'ia_'
'ice_'
'Kim_'
'driving_'
'else_'
'ill_'
'driver_'
'judge_'
'customers_'
'comments_'
'om_'
'shooting_'
'read_'
'opened_'
'decades_'
'conference_'
'net_'
'ma_'
'reality_'
'hotel_'
'created_'
'Many_'
'ho_'
'female_'
'Government_'
'towards_'
'fr_'
'message_'
'Mexico_'
'wit_'
'Clinton_'
'significant_'
'agreed_'
'eye_'
'budget_'
'India_'
'simply_'
'arrived_'
'schools_'
'Thai_'
'ss_'
'gas_'
'movie_'
'Party_'
'agreement_'
'Mrs_'
'residents_'
'Ireland_'
'challenge_'
'kids_'
'ran_'
'alleged_'
'&_'
'Ford_'
'offered_'
'income_'
'45_'
'wish_'
'tour_'
'whom_'
'moving_'
'immediately_'
'mind_'
'2010_'
'ni_'
'Islamic_'
'presidential_'
'changed_'
'opportunity_'
'ions_'
'King_'
'spoke_'
'Union_'
'Secretary_'
'partner_'
'ling_'
'Korean_'
'From_'
'allegations_'
'hair_'
'drive_'
'track_'
'warned_'
'seemed_'
'returned_'
'annual_'
'happen_'
'dress_'
'murder_'
'ter_'
'Florida_'
'missing_'
'middle_'
'hear_'
'International_'
'easy_'
'figures_'
'levels_'
'conditions_'
'cars_'
'alone_'
'approach_'
'north_'
'runs_'
'double_'
'Al_'
'Do_'
'voters_'
'door_'
'Japan_'
'Wales_'
'opposition_'
'Democratic_'
'seem_'
'launched_'
'hearing_'
'foot_'
'details_'
'development_'
'production_'
'hi_'
'stars_'
'funding_'
'ability_'
'caught_'
'passed_'
'herself_'
'street_'
'via_'
'evening_'
'90_'
'central_'
'finally_'
'ant_'
'intelligence_'
'English_'
'brother_'
'investment_'
'wearing_'
'contract_'
'70_'
'straight_'
'parts_'
'lack_'
'extra_'
'starting_'
'ay_'
'review_'
'Office_'
'effect_'
'true_'
'blood_'
'climate_'
'sa_'
'appear_'
'ask_'
'Williams_'
'certain_'
'ness_'
'appears_'
'reached_'
'pretty_'
'wide_'
'base_'
'website_'
'ones_'
'amount_'
'ford_'
'value_'
'student_'
'understand_'
'battle_'
'ties_'
'32_'
'includes_'
'spot_'
'Tom_'
'Ryan_'
'suffered_'
'feet_'
'crime_'
'compared_'
'admitted_'
'Another_'
'ow_'
'safe_'
'target_'
'fore_'
'afternoon_'
'closed_'
'pro_'
'shares_'
'expect_'
'Council_'
'damage_'
'haven_'
'ds_'
'walk_'
'floor_'
'numbers_'
'picture_'
'politics_'
'cash_'
'talking_'
'image_'
';_'
'letter_'
'( _'
'Fox_'
'Just_'
'blue_'
'Meanwhile_'
'girls_'
'deep_'
'century_'
'da_'
'wa_'
'Despite_'
'increased_'
'lose_'
'common_'
'Our_'
'suggested_'
'Liverpool_'
'80_'
'ten_'
'fully_'
'Canada_'
'abuse_'
'Moore_'
'War_'
'gold_'
'Bank_'
'Justice_'
'Africa_'
'General_'
'est_'
'Le_'
'fast_'
'denied_'
'fir_'
'hot_'
'attempt_'
'mo_'
'showing_'
'Spain_'
'ck_'
'Robert_'
'FBI_'
'Muslim_'
'protect_'
'king_'
'winner_'
'actress_'
'pick_'
'south_'
'table_'
'speak_'
'avoid_'
'source_'
'related_'
'fired_'
'launch_'
'Martin_'
'actor_'
'search_'
'competition_'
'storm_'
'highest_'
'Bill_'
'train_'
'store_'
'pre_'
'seat_'
'immigration_'
'experts_'
'crowd_'
'vehicle_'
'sea_'
'decade_'
'considered_'
'demand_'
'Center_'
'station_'
'present_'
'carried_'
'ke_'
'condition_'
'victim_'
'fear_'
'perhaps_'
'fighting_'
'wall_'
'fine_'
'assault_'
'dog_'
'researchers_'
'Scott_'
'les_'
'piece_'
'fund_'
'rose_'
'quality_'
'center_'
'education_'
'missile_'
'address_'
'certainly_'
'believes_'
'married_'
'onto_'
'During_'
'hundreds_'
'Hollywood_'
'Here_'
'original_'
'amid_'
'spend_'
'Getty_'
'ut_'
'beyond_'
'version_'
'owner_'
'save_'
'eyes_'
'Man_'
'Mike_'
'Since_'
'emergency_'
'island_'
'parties_'
'yn_'
'issued_'
'television_'
'drugs_'
'   _'
'aged_'
'secretary_'
'injuries_'
'poor_'
'um_'
'Israel_'
'holiday_'
'ity_'
'sell_'
'products_'
'character_'
'marriage_'
'chat_'
'ks_'
'300_'
'Prince_'
'network_'
'Health_'
'Peter_'
'rule_'
'choice_'
'bid_'
'insurance_'
'committee_'
'calling_'
'ensure_'
'weight_'
'gs_'
'ship_'
'add_'
'Brown_'
'tat_'
'natural_'
'meant_'
'Royal_'
'guilty_'
'sister_'
'Saudi_'
'older_'
'ent_'
'feeling_'
'follow_'
'credit_'
'Group_'
'fashion_'
'cities_'
'ld_'
'ous_'
'defense_'
'cuts_'
'reportedly_'
'Most_'
'complete_'
'supporters_'
'alongside_'
'throughout_'
'Why_'
'33_'
'sometimes_'
'La_'
'weapons_'
'toward_'
'raise_'
'dropped_'
'faces_'
'tha_'
'size_'
'finished_'
'brain_'
'fellow_'
'served_'
'users_'
'Syrian_'
'push_'
'criminal_'
'debate_'
'movement_'
'Italy_'
'places_'
'Arsenal_'
'Committee_'
'strike_'
'eventually_'
'Iraq_'
'broke_'
'hopes_'
'Theresa_'
'positive_'
'powerful_'
'word_'
'famous_'
'join_'
'sale_'
'card_'
'Putin_'
'rd_'
'businesses_'
'Open_'
'population_'
'page_'
'Yet_'
'tough_'
'holding_'
'mental_'
'gun_'
'IT_'
'Both_'
' ' , _'
'green_'
'council_'
'designed_'
'provided_'
'contact_'
'faced_'
'stopped_'
'boss_'
'shown_'
'Steve_'
'placed_'
'paper_'
'millions_'
'cold_'
'mid_'
'box_'
'twice_'
'ors_'
'losing_'
'Andrew_'
'lived_'
'singer_'
'36_'
'cast_'
'34_'
'Security_'
'facing_'
'2009_'
'bar_'
'Os_'
'entire_'
'type_'
'killing_'
'culture_'
'prime_'
'drop_'
'below_'
'perfect_'
'sides_'
'Thomas_'
'disease_'
'dark_'
'investors_'
'park_'
'Although_'
'worst_'
'Act_'
'Harry_'
'nor_'
'Lee_'
'brand_'
'planned_'
'pain_'
'managed_'
'draw_'
'lines_'
'School_'
'crash_'
'male_'
'era_'
'eat_'
'photos_'
'defeat_'
'weather_'
'employees_'
'note_'
'Those_'
'successful_'
'stories_'
'ys_'
'sector_'
'Their_'
'camera_'
'Google_'
'beauty_'
'seeking_'
'Be_'
'views_'
'Madrid_'
' -_'
'fun_'
'ur_'
'squad_'
'appearance_'
'heavy_'
'Richard_'
'2008_'
'putting_'
'ier_'
'fit_'
'struck_'
'standing_'
'champion_'
'candidate_'
'modern_'
'Hill_'
'begin_'
'legislation_'
'plane_'
'Thar_'
'serve_'
'plays_'
'backed_'
'Ir_'
'mark_'
'affected_'
'knows_'
'multiple_'
'laws_'
'score_'
'chairman_'
'skin_'
'practice_'
'consider_'
'particular_'
'written_'
'offers_'
'Wall_'
'simple_'
'domestic_'
'pulled_'
'massive_'
'thinking_'
'seeing_'
'department_'
'housing_'
'Turkey_'
'images_'
'policies_'
'allegedly_'
'ley_'
'debt_'
'discovered_'
'sit_'
'Northern_'
'required_'
'lawyer_'
' " - _'
'loved_'
'Other_'
'benefits_'
'missed_'
'linked_'
'becoming_'
'African_'
'status_'
'restaurant_'
'ding_'
'continues_'
'completely_'
'stock_'
'Will_'
'Apple_'
'wing_'
'Today_'
'east_'
'refused_'
'row_'
'answer_'
'confidence_'
'bought_'
'receive_'
'west_'
'civil_'
'sort_'
'improve_'
'app_'
'asking_'
'gives_'
'referendum_'
'birth_'
'ir_'
'leadership_'
'ht_'
'citizens_'
'carry_'
'votes_'
'waiting_'
'fan_'
'yards_'
'Barcelona_'
'block_'
'ms_'
'Sam_'
'subject_'
'cross_'
'Si_'
'airport_'
'Star_'
'footage_'
'Green_'
'regular_'
'ee_'
'myself_'
'00_'
'wore_'
'speed_'
'remember_'
'voted_'
'rt_'
'Amazon_'
'planning_'
'bee_'
'telling_'
'traditional_'
'thin_'
'fifth_'
'wait_'
'Post_'
'streets_'
'individual_'
'band_'
'400_'
'watching_'
'sport_'
'37_'
'Comey_'
'learn_'
'warning_'
'Queen_'
'un_'
'Daily_'
'declined_'
'benefit_'
'sports_'
'highly_'
'75_'
'OS_'
'dangerous_'
'helping_'
'38_'
'concern_'
'adding_'
'display_'
'rising_'
'fresh_'
'actions_'
'Western_'
'additional_'
'hey_'
'Spanish_'
'finish_'
'sing_'
'send_'
'Joe_'
'Press_'
'clearly_'
'CNN_'
'prevent_'
'reduce_'
'High_'
'Ut_'
'arrest_'
'funds_'
'Real_'
'usually_'
'protest_'
'leg_'
'operation_'
'bus_'
'Sen_'
'shirt_'
'surgery_'
'giant_'
'speaking_'
'nce_'
'addition_'
'Victoria_'
'banks_'
'Big_'
'proposed_'
'Art_'
'nearby_'
'keeping_'
'Road_'
'UPI_'
'ou_'
'exactly_'
'operations_'
'accounts_'
'sed_'
'sanctions_'
'GOP_'
'IRS_'
'independent_'
'society_'
'rally_'
'doubt_'
'owned_'
'Three_'
'Supreme_'
'signs_'
'defence_'
'sources_'
'elections_'
'writing_'
'attorney_'
'influence_'
'doctors_'
'Jr_'
'markets_'
'appeal_'
'identified_'
'Champions_'
'Italian_'
'Chicago_'
'ner_'
'Air_'
'reasons_'
'professional_'
'features_'
'critical_'
'selling_'
'NFL_'
'ings_'
'measures_'
'Virginia_'
'terror_'
'check_'
'secret_'
'vs_'
'Women_'
'48_'
'direct_'
'arm_'
'worse_'
'Corbyn_'
'Thant_'
'rare_'
'paying_'
'Zealand_'
'Red_'
'boys_'
'MPs_'
'concerned_'
'penalty_'
'college_'
'bout_'
'vehicles_'
'strategy_'
'surprise_'
'remained_'
'request_'
'Black_'
'audience_'
'ordered_'
'offering_'
'ine_'
'largely_'
'filed_'
'Its_'
'ear_'
'suspect_'
'language_'
'greater_'
'daily_'
'removed_'
'mostly_'
'hasn_'
'physical_'
'Moscow_'
'documents_'
'Las_'
'Under_'
'Former_'
'der_'
'wear_'
'management_'
'Alex_'
'covered_'
'sitting_'
'estimated_'
'Sir_'
'emerged_'
'voice_'
'conservative_'
'Bay_'
'treated_'
'names_'
'design_'
'traffic_'
'records_'
'younger_'
'feels_'
'fork_'
'NHS_'
'wild_'
'witch_'
'Kelly_'
'normal_'
'illegal_'
'Coast_'
'ro_'
'debut_'
'seek_'
'estate_'
'screen_'
'overall_'
'Harvey_'
'content_'
'Hall_'
'Macron_'
'beach_'
'walking_'
'coast_'
'split_'
'matches_'
'die_'
'ft_'
'progress_'
'justice_'
'books_'
'ACT_'
'beginning_'
'difference_'
'Tim_'
'peace_'
'wars_'
'io_'
'UT_'
'Instead_'
'healthy_'
'shop_'
'passengers_'
'owners_'
'HS_'
'increasingly_'
'aware_'
'39_'
'activity_'
'finding_'
'ist_'
'noted_'
'ig_'
'episode_'
'wedding_'
'seconds_'
'separate_'
'55_'
'si_'
'song_'
'ghat_'
'ruling_'
'reporters_'
'church_'
'MP_'
'suggests_'
'fair_'
'Taylor_'
'bu_'
'SA_'
'ue_'
'ver_'
'Images_'
'advice_'
'beautiful_'
'lly_'
'options_'
'tie_'
' , , _'
'arms_'
'mass_'
'option_'
'internet_'
'ying_'
'wins_'
'quick_'
'artist_'
'42_'
'limited_'
'suggest_'
'various_'
'lo_'
'captain_'
'criticism_'
'pop_'
'sad_'
'foe_'
'clubs_'
'explained_'
'ISIS_'
'ive_'
'spread_'
'suit_'
'responsible_'
'feature_'
'thanks_'
'product_'
'ave_'
'deaths_'
'refugees_'
'pool_'
'Association_'
'committed_'
'Thad_'
'broken_'
'focused_'
'grew_'
'RT_'
'dinner_'
'starts_'
'Like_'
'seats_'
'sound_'
'unable_'
'grow_'
'kill_'
'ham_'
'Co_'
'camp_'
'tests_'
'scheduled_'
'Christian_'
'article_'
'measure_'
'Jack_'
'plenty_'
'independence_'
'ya_'
'directly_'
'ze_'
'res_'
'uses_'
'ned_'
'rain_'
'plus_'
'spotted_'
'pictures_'
'au_'
'upon_'
'sleep_'
'Over_'
'leaves_'
'Great_'
'respond_'
'touch_'
'tournament_'
'jail_'
'profile_'
' # _'
'coverage_'
'Uber_'
'learned_'
'William_'
'di_'
'walked_'
'kick_'
'Commission_'
'likes_'
'44_'
'Irish_'
'bag_'
'bey_'
'ere_'
'survey_'
'terrorist_'
'Kevin_'
'picked_'
'Ono_'
'sat_'
'aircraft_'
'cal_'
'Year_'
'Parliament_'
'Ha_'
'terrorism_'
'sought_'
'Island_'
'stood_'
'enjoy_'
'De_'
'university_'
'Service_'
'clean_'
'Stephen_'
' ) -- _'
'Houston_'
'ka_'
'Or_'
'respect_'
'Love_'
'produced_'
'nature_'
'systems_'
'Central_'
'protests_'
'deals_'
'Ito_'
'2007_'
'troops_'
'discuss_'
'rich_'
'Me_'
'complex_'
'prepared_'
'Thee_'
'trust_'
'dollars_'
'attended_'
'NSW_'
'completed_'
'scale_'
'pitch_'
'conflict_'
'unit_'
'heir_'
'founder_'
'sharing_'
'fora_'
'ISS_'
'bottom_'
'potentially_'
'Asia_'
'drama_'
'publicly_'
'politicians_'
'Edinburgh_'
'ride_'
'reporting_'
'environment_'
'profit_'
'setting_'
'supply_'
'Speaking_'
'boost_'
'urged_'
'yesterday_'
'eating_'
'trading_'
'album_'
'carrying_'
'email_'
'steps_'
'sun_'
'Davis_'
'drivers_'
'armed_'
'laid_'
'Anthony_'
'newspaper_'
'edge_'
'Earlier_'
'Test_'
'union_'
'festival_'
'flights_'
'Murray_'
'Matt_'
'maybe_'
'agent_'
'session_'
'Stadium_'
'li_'
'moments_'
'negotiations_'
'failure_'
'developed_'
'thaw_'
'active_'
'nts_'
'il_'
'repeatedly_'
'rock_'
'handed_'
'meaning_'
'41_'
'wine_'
'shots_'
'ruled_'
'port_'
'effects_'
'charity_'
'changing_'
'revenue_'
'65_'
'happens_'
'turning_'
'nig_'
'Canadian_'
'Because_'
'lawmakers_'
'nad_'
'doctor_'
'heat_'
'://_'
'gay_'
'wake_'
'degree_'
'Jeremy_'
'sand_'
'slow_'
'drink_'
'unlikely_'
'allowing_'
'initially_'
'ac_'
'window_'
'closer_'
'advantage_'
'ian_'
'inspired_'
'science_'
'Source_'
'bigger_'
'taxes_'
'visitors_'
'northern_'
'tech_'
'tweeted_'
'pe_'
'featured_'
'introduced_'
'ws_'
'proved_'
'winter_'
'announcement_'
',"_'
'Who_'
'prove_'
'elected_'
'remaining_'
'harassment_'
'firms_'
'scientists_'
'author_'
'soldiers_'
'van_'
'projects_'
'tree_'
'mission_'
'expensive_'
'hip_'
'wind_'
'CEO_'
'suffering_'
'path_'
'falling_'
'recorded_'
'Japanese_'
'Editing_'
'ID_'
'Flynn_'
'Once_'
'rival_'
'guy_'
'fly_'
'Them_'
'pa_'
'secure_'
'hs_'
'controversial_'
'agencies_'
'counter_'
'bomb_'
'conversation_'
'Hospital_'
'miss_'
'decisions_'
'joint_'
'reform_'
'acting_'
'150_'
'43_'
'enjoyed_'
'cap_'
'replace_'
'suicide_'
'parliament_'
'coalition_'
'ea_'
'yea_'
'ning_'
'Mary_'
'dad_'
'apartment_'
'sentence_'
'Foreign_'
'construction_'
'pace_'
'Mail_'
'ps_'
'programme_'
'Federal_'
'hits_'
'fuel_'
'struggling_'
'Before_'
'generation_'
'expressed_'
'Vegas_'
'serving_'
'poll_'
'hoping_'
'writer_'
'pushed_'
'collection_'
'Lewis_'
'birthday_'
'Indian_'
'proposal_'
'ab_'
'Beach_'
'52_'
'heads_'
'deliver_'
'Ne_'
'Media_'
'dy_'
'Palace_'
'scheme_'
'animal_'
'award_'
'gender_'
'ith_'
'flat_'
'truck_'
'Wash_'
'fish_'
'wee_'
'familiar_'
'sees_'
'ups_'
'promised_'
'district_'
'Queensland_'
'scoring_'
'develop_'
'Nick_'
'filled_'
'Home_'
'enforcement_'
'Nations_'
'specific_'
'plant_'
'radio_'
'decide_'
'transfer_'
'larger_'
'crew_'
'ful_'
'Kate_'
'presence_'
'wood_'
'gain_'
'animals_'
'knee_'
'scandal_'
'necessary_'
'sites_'
'Israeli_'
'initial_'
'ISO_'
'count_'
'Sun_'
'Still_'
'guys_'
'Grand_'
'ler_'
'balance_'
'threatened_'
'loan_'
'regional_'
'messages_'
'colleagues_'
'Old_'
'favourite_'
'agree_'
'College_'
'Charles_'
'ments_'
'individuals_'
'responded_'
'watched_'
'Tony_'
'produce_'
'Barack_'
'fee_'
'communities_'
'Young_'
'corner_'
'headed_'
'declared_'
'smaller_'
'fake_'
'magazine_'
'accept_'
'breaking_'
'eh_'
'tiny_'
'mobile_'
'slightly_'
'ct_'
'argued_'
'hurt_'
'standard_'
'ell_'
'dollar_'
'responsibility_'
'tes_'
'About_'
'adviser_'
'Canberra_'
'Can_'
'46_'
'AFT_'
'busy_'
'stuff_'
'adn_'
'bodies_'
'severe_'
'aft_'
'Reporting_'
'exchange_'
'od_'
'alcohol_'
'47_'
'2005_'
'Brisbane_'
'49_'
'challenges_'
'cy_'
'suspended_'
'increasing_'
'lie_'
'seasons_'
'ass_'
'Army_'
'bringing_'
'approved_'
'existing_'
' ( $ _'
'pointed_'
'Thew_'
'videos_'
'programs_'
'threats_'
'supported_'
'Jeff_'
'Credit_'
'earned_'
'Club_'
'Super_'
'ri_'
'2006_'
'reveal_'
'Afghanistan_'
'attend_'
'religious_'
'strength_'
'legs_'
'guard_'
'allies_'
'Institute_'
'ol_'
'relations_'
'primary_'
'Arabia_'
'grand_'
'banned_'
'causing_'
'governments_'
'tied_'
'Jackson_'
'behaviour_'
'Tory_'
'gn_'
'stands_'
'tt_'
'yard_'
'basis_'
'Hurricane_'
'violent_'
'spring_'
'Only_'
'ure_'
'shopping_'
'agents_'
'semi_'
'Carolina_'
'District_'
'Beijing_'
'stores_'
'Celtic_'
'easily_'
'southern_'
'ye_'
'material_'
'99_'
'Se_'
'Weinstein_'
'als_'
'wast_'
'false_'
'Ats_'
'army_'
'insisted_'
'nice_'
'standards_'
'films_'
'girlfriend_'
'Jordan_'
'Chief_'
'dating_'
'items_'
'ABC_'
'write_'
'nations_'
'ongoing_'
'yourself_'
'experienced_'
'digital_'
'tells_'
'Middle_'
'shortly_'
'remove_'
'truth_'
'Best_'
'limit_'
'pull_'
'ore_'
'driven_'
'op_'
'ff_'
'Ho_'
'lawsuit_'
'warm_'
'Miami_'
'emotional_'
'widely_'
'enter_'
'Sea_'
'platform_'
'commercial_'
'turns_'
'Your_'
'Conservative_'
'creating_'
'ess_'
'threw_'
'extremely_'
'proud_'
'ther_'
'Witt_'
'Daniel_'
'Earth_'
'reading_'
'WATS_'
'vice_'
'moves_'
'houses_'
'visited_'
'effective_'
'CBS_'
'chances_'
'Georgia_'
'attempted_'
'600_'
'regime_'
'investigating_'
'seriously_'
'Video_'
'journey_'
'boat_'
'computer_'
'willing_'
'Democrat_'
'IS_'
'analysis_'
'Game_'
'fears_'
'interests_'
'Adam_'
'teacher_'
'ceremony_'
'yo_'
'duty_'
'flying_'
'delivered_'
'finals_'
'Jim_'
'  ._'
'require_'
'ins_'
'skills_'
'Four_'
'buildings_'
'candidates_'
'authority_'
'protection_'
'determined_'
'choose_'
'em_'
'width_'
'maker_'
'Boston_'
'glass_'
'wags_'
'ses_'
'Turkish_'
'throw_'
'convicted_'
'catch_'
'Sarah_'
'é_'
'dogs_'
'Centre_'
'pregnant_'
'exercise_'
'tweet_'
'ves_'
'assets_'
'Miss_'
'corporate_'
'wasp_'
'int_'
'welcome_'
'Ta_'
'opinion_'
'square_'
'risks_'
'critics_'
'targeted_'
'hen_'
'claiming_'
'shoulder_'
'ends_'
'wh_'
'allows_'
'51_'
'fat_'
'panel_'
'village_'
'patient_'
'Sean_'
'deputy_'
'lawyers_'
'shift_'
'ending_'
'buying_'
'Francisco_'
'shock_'
'worried_'
'beer_'
'Rose_'
'withe_'
'consumers_'
'payments_'
'confident_'
'boyfriend_'
'wads_'
'identity_'
'Force_'
'raising_'
'attacked_'
'cs_'
'posed_'
'Judge_'
'shut_'
'Tillerson_'
'providing_'
'ger_'
'scenes_'
'none_'
'helps_'
'hate_'
'meetings_'
'Sky_'
'Sessions_'
'zone_'
'lift_'
'location_'
'accident_'
'stepped_'
'affect_'
'WASP_'
'ard_'
'Simon_'
'Reporter_'
'grown_'
'yes_'
'pink_'
'crimes_'
'sixth_'
'Also_'
'occurred_'
'Hamilton_'
'God_'
'striker_'
'approval_'
'dozens_'
'Hillary_'
'returning_'
'fees_'
'Justin_'
'heading_'
'organization_'
'apparently_'
'mum_'
'struggle_'
'adults_'
'ny_'
'II_'
'Bush_'
'expert_'
'Ed_'
'established_'
'Valley_'
'AA_'
'rejected_'
'becomes_'
'rescue_'
'TA_'
'Agency_'
'freedom_'
'captured_'
'cool_'
'Glasgow_'
'trouble_'
'learning_'
'conducted_'
'Inc_'
'par_'
'conduct_'
'54_'
'returns_'
'worker_'
'dream_'
'don_'
'possibility_'
'aimed_'
'protesters_'
'device_'
'immigrants_'
'Good_'
'hole_'
'Alabama_'
'wits_'
' ( £ _'
'signing_'
'shape_'
'Bridge_'
'800_'
'jury_'
'infrastructure_'
'suspected_'
'bedroom_'
'ial_'
'holds_'
'dance_'
'attempts_'
'leads_'
'resources_'
'Obamacare_'
'explain_'
'dozen_'
'involving_'
'unique_'
'considering_'
'Lions_'
'territory_'
'route_'
'Oct_'
'immediate_'
'entered_'
'pith_'
'treat_'
'Among_'
'Olympic_'
'km_'
'Well_'
'ideas_'
'friendly_'
'snow_'
'tic_'
'con_'
'gap_'
'Ali_'
'53_'
'Pacific_'
'talent_'
'governor_'
'apart_'
'fe_'
'failing_'
'250_'
'findings_'
'absolutely_'
'amazing_'
'stunning_'
'operating_'
'2019_'
'struggled_'
'rivals_'
'pr_'
'Br_'
'2020_'
'relief_'
'shed_'
'possibly_'
'vast_'
'Wilson_'
'kith_'
'" _'
'Rangers_'
'tight_'
'assistant_'
'interested_'
'passing_'
'Ann_'
'ultimately_'
'lay_'
'studies_'
'tackle_'
'historic_'
'stone_'
'des_'
'unclear_'
'easier_'
'Playing_'
'reduced_'
'Tottenham_'
'thus_'
'Kong_'
'consumer_'
'retired_'
'Iraqi_'
'chair_'
'promise_'
'whatever_'
'ba_'
'chain_'
'activities_'
'connection_'
'corruption_'
'Sept_'
'coal_'
'fewer_'
'Show_'
'Every_'
'Dec_'
'opportunities_'
'powers_'
'bay_'
'vulnerable_'
'thank_'
'hoe_'
'vision_'
'fill_'
'sets_'
'shoot_'
'wn_'
'snap_'
'Republic_'
'Jan_'
'commitment_'
'stress_'
'understood_'
'2000_'
'zed_'
'receiving_'
'producer_'
'draft_'
'NBC_'
'pieces_'
'ump_'
'knowledge_'
'wi_'
'orders_'
'Pakistan_'
'LA_'
'ae_'
'solution_'
'ngs_'
'supporting_'
'ish_'
'pushing_'
'Everton_'
'heavily_'
'escape_'
'Though_'
'regularly_'
'coffee_'
'Jason_'
'perform_'
'listed_'
'drawn_'
'Brazil_'
'PM_'
'dressed_'
'ded_'
'presented_'
'entirely_'
'happening_'
'Nov_'
'Yes_'
'cutting_'
'concert_'
'keen_'
'drove_'
'Lord_'
'cards_'
'neck_'
'provides_'
'tions_'
'characters_'
'chose_'
'crucial_'
'Let_'
'dramatic_'
'sons_'
'alive_'
'text_'
'voting_'
'River_'
'ary_'
'Gold_'
'veteran_'
'direction_'
'Mourinho_'
'rape_'
'spoken_'
'lots_'
'Championship_'
'Channel_'
'sending_'
'aim_'
'mate_'
'Care_'
'anniversary_'
'agenda_'
'blonde_'
'inquiry_'
'capacity_'
'Sweden_'
'rooms_'
'2004_'
'exit_'
'ministers_'
'celebrate_'
'disaster_'
'link_'
'kitchen_'
'viewers_'
'guests_'
'Long_'
'hitting_'
'drinking_'
'recovery_'
'mayor_'
'definitely_'
'impressive_'
'code_'
'fraud_'
'luxury_'
'deeply_'
'professor_'
'Leicester_'
'reaction_'
'ki_'
'Jose_'
'Tower_'
'apply_'
'matters_'
'testing_'
'Ross_'
'thinks_'
'fallen_'
'negative_'
'Josh_'
'relatively_'
'hips_'
'bridge_'
'blame_'
'contributed_'
'Head_'
'56_'
'devices_'
'models_'
'drew_'
'index_'
'Life_'
'spokeswoman_'
'soft_'
'super_'
'oe_'
'accepted_'
'Louis_'
'Arizona_'
'generally_'
'custody_'
'Research_'
'presidency_'
'lunch_'
'distance_'
'performed_'
'pounds_'
'sky_'
'plastic_'
'Labor_'
'developing_'
'blow_'
'Little_'
'division_'
'alternative_'
'tea_'
'Festival_'
'Asian_'
'Pen_'
'supposed_'
'overseas_'
'Senator_'
'core_'
'file_'
'prosecutors_'
'horse_'
'user_'
'ght_'
'partners_'
'acre_'
'mouth_'
'pictured_'
'ism_'
'ces_'
'memory_'
'chemical_'
'passenger_'
'golf_'
'unusual_'
'extreme_'
'58_'
'ABS_'
'defender_'
'reveals_'
'hims_'
'greatest_'
'Jon_'
'wave_'
'Miller_'
'Time_'
'repeal_'
'targets_'
'replaced_'
'Puerto_'
'stuck_'
'bills_'
'extended_'
'pound_'
'59_'
'equipment_'
'Associated_'
'activists_'
'surprised_'
'threatening_'
'clothes_'
'ely_'
'western_'
'Hong_'
'mi_'
'cultural_'
'tr_'
'READ_'
'roads_'
'sugar_'
'posts_'
'danger_'
'originally_'
'uk_'
'Museum_'
'goods_'
'Van_'
'ski_'
'statements_'
'57_'
'Charlie_'
'http_'
'url_'
'artists_'
'Are_'
'ga_'
'Navy_'
'deadly_'
'incredible_'
'positions_'
'ide_'
'analysts_'
'inflation_'
'earnings_'
'Director_'
'Jamie_'
'basic_'
'section_'
'comfortable_'
'truly_'
'classic_'
'commission_'
'dis_'
'bright_'
'Dan_'
'sm_'
'Jersey_'
'combined_'
'studio_'
'Tour_'
'defend_'
'talked_'
'fighters_'
'usual_'
'smart_'
'fought_'
'delivery_'
'sentenced_'
'El_'
'ign_'
'retail_'
'offensive_'
'roll_'
'tries_'
'mix_'
'Ham_'
'probe_'
'machine_'
'fa_'
'controlled_'
'cells_'
'resident_'
'Muslims_'
'closely_'
'mile_'
'stake_'
'intended_'
'Blue_'
'opponents_'
'values_'
'airline_'
'Santa_'
'worry_'
'Merkel_'
'harm_'
'Re_'
'Cameron_'
'impossible_'
'investigators_'
'Airport_'
'clash_'
'advance_'
'teenager_'
'regulations_'
'Public_'
'farm_'
'Foundation_'
'ages_'
'Eric_'
'mine_'
'ASL_'
'surface_'
'species_'
'comedy_'
'Brussels_'
'county_'
'midfielder_'
'internal_'
'decline_'
'associated_'
'fail_'
'ping_'
'mes_'
'tone_'
'identify_'
'parent_'
'-  _'
'Brian_'
'Cook_'
'NE_'
'ul_'
'hoped_'
'prior_'
'Graham_'
'Pyongyang_'
'surrounding_'
'designer_'
'unless_'
'eastern_'
'transition_'
'customer_'
'notes_'
'notice_'
'electric_'
'youth_'
'discussed_'
'stayed_'
'ated_'
'flag_'
'Luke_'
'cat_'
'causes_'
'followers_'
'64_'
'aside_'
'hing_'
'72_'
'finds_'
'winds_'
'que_'
'length_'
'retirement_'
'Price_'
'polls_'
'typically_'
'":_'
'doors_'
'improved_'
'Bob_'
'judges_'
'trend_'
'Arab_'
'transport_'
'migrants_'
'jailed_'
'reporter_'
'Frank_'
'AIs_'
'angry_'
'hosts_'
'2003_'
'defensive_'
'interesting_'
'Hotel_'
'Southern_'
'environmental_'
'Elizabeth_'
'roughly_'
' -  _'
'fi_'
'tend_'
'begins_'
'refugee_'
'democracy_'
'Netflix_'
'Defense_'
'behavior_'
'acts_'
'Attorney_'
'opposed_'
'Ohio_'
'joining_'
'stocks_'
'Ave_'
'maintain_'
'resort_'
'nes_'
'ambassador_'
'harder_'
'continuing_'
'stick_'
'minimum_'
'ance_'
'Rep_'
'Oscar_'
'understanding_'
' € _'
'tears_'
'visiting_'
'dispute_'
'courts_'
'remarks_'
'Philip_'
'Jong_'
'appointed_'
'theme_'
'argument_'
'ticket_'
'directed_'
'va_'
'reaching_'
'trees_'
'ations_'
'Morgan_'
'facility_'
'circumstances_'
'native_'
'Awards_'
'cell_'
'background_'
'Qatar_'
'Church_'
'roles_'
'finance_'
'puts_'
' " ( _'
'cameras_'
'Pence_'
'granted_'
'Berlin_'
'700_'
'otherwise_'
'lies_'
'profits_'
'NBA_'
'95_'
'ingly_'
'questioned_'
'engaged_'
'mixed_'
'tested_'
'software_'
'Six_'
'tly_'
'newly_'
'enjoying_'
'Energy_'
'divorce_'
'Up_'
'AFP_'
'quiet_'
'2001_'
'SE_'
'Fire_'
'beaten_'
'follows_'
'Turnbull_'
'lin_'
'militants_'
'Gary_'
'rent_'
'stadium_'
'Mexican_'
'Right_'
'tennis_'
'ai_'
'Golden_'
'Anderson_'
'detail_'
'arrival_'
'mer_'
'losses_'
'achieve_'
'tourists_'
'formed_'
'stronger_'
'fled_'
'iPhone_'
'Maria_'
'  -_'
'gained_'
'task_'
'marked_'
'66_'
'jacket_'
'saved_'
'Antonio_'
'obvious_'
'ew_'
'den_'
'contest_'
'duo_'
'dry_'
'adult_'
'"_'
'Having_'
'meat_'
'novel_'
'gathered_'
'diet_'
'sweet_'
'yellow_'
'tan_'
'obviously_'
'staying_'
'FA_'
'forecast_'
'beating_'
'determine_'
'priority_'
'employee_'
'Newcastle_'
'han_'
'Mueller_'
'85_'
'ease_'
'desire_'
'founded_'
'Lisa_'
'Mar_'
'lights_'
'rugby_'
'abroad_'
'Family_'
'afford_'
'museum_'
'bet_'
'counts_'
'Ukraine_'
'Disney_'
'mph_'
'hew_'
'wen_'
'Several_'
'Crown_'
'journalist_'
'plants_'
'temperatures_'
'IA_'
'Atlanta_'
'tweets_'
'thy_'
'62_'
'faith_'
'MORE_'
'theory_'
'exposed_'
'Kushner_'
'liked_'
'entry_'
'settlement_'
'closing_'
'brief_'
'garden_'
'Assad_'
'dismissed_'
'Rico_'
'reputation_'
'bin_'
'industrial_'
'permanent_'
'silver_'
'Bannon_'
'journalists_'
'bot_'
'manage_'
'opposite_'
'Children_'
'Five_'
'Adelaide_'
'executives_'
'Games_'
'backs_'
'lying_'
'bars_'
'Lake_'
'ging_'
'strikes_'
'movies_'
' ( " _'
'bear_'
'Patrick_'
'brings_'
'wonder_'
'properties_'
'royal_'
'diplomatic_'
'factor_'
'www_'
'songs_'
'wealth_'
'barely_'
'Sports_'
'trained_'
'minor_'
'shoes_'
'68_'
'USA_'
'demands_'
'innings_'
'bench_'
'mention_'
'welcomed_'
'Xi_'
'ky_'
'cited_'
'elect_'
'firing_'
'Westminster_'
'capable_'
'teachers_'
'departure_'
'significantly_'
'complaints_'
'factors_'
'increases_'
'sts_'
'upcoming_'
'lucky_'
'grounds_'
'earn_'
'Where_'
'damaged_'
'bond_'
'upset_'
'Egypt_'
'jump_'
'expectations_'
'destroyed_'
'sick_'
'rom_'
'excited_'
'thrown_'
'67_'
'Jewish_'
'ov_'
'located_'
'Watch_'
'Amy_'
'structure_'
'champions_'
'arrive_'
'hos_'
'Steven_'
'Football_'
'summit_'
'dealing_'
'cents_'
'investigations_'
'imagine_'
'ace_'
'preparing_'
'Matthew_'
'restaurants_'
'YouTube_'
'experiences_'
'Live_'
'Ana_'
'discussion_'
'gang_'
'temporary_'
'locked_'
'officially_'
'solar_'
'elsewhere_'
'confirm_'
'argue_'
'Alexander_'
'incidents_'
'prompted_'
'Sid_'
'contrast_'
'Human_'
'encourage_'
'racing_'
'effectively_'
'province_'
'vital_'
'Sanders_'
'marks_'
' . , _'
'Diego_'
'Back_'
'complaint_'
'travelling_'
'prospect_'
'outcome_'
'hospitals_'
'Perhaps_'
'striking_'
'bye_'
'Social_'
'tickets_'
'frame_'
'invited_'
'owns_'
'ville_'
'formal_'
'suddenly_'
'mot_'
'Ill_'
'Fed_'
'planet_'
'med_'
'prepare_'
'outs_'
'Ministry_'
'requires_'
'blocked_'
'Kennedy_'
'2002_'
'contacted_'
'connected_'
'competitive_'
'detained_'
'organisation_'
'actual_'
'gate_'
'61_'
'mom_'
'Toronto_'
'Birmingham_'
'forms_'
'wage_'
'Perth_'
'tribute_'
'hero_'
'river_'
'emails_'
'congressional_'
'Abbott_'
'ged_'
'relationships_'
'meal_'
'weak_'
'Jonathan_'
'hue_'
' @_'
'shocked_'
'waste_'
'69_'
'hist_'
'pension_'
'appearances_'
'filmed_'
'guide_'
'Gordon_'
'mistake_'
'document_'
'represent_'
'missiles_'
'web_'
'Top_'
'toll_'
'Academy_'
'sharp_'
'Cleveland_'
'prom_'
'currency_'
'stolen_'
'string_'
'anger_'
'weapon_'
'favour_'
'Harris_'
'healthcare_'
'favorite_'
'$ _'
'package_'
'civilians_'
'entering_'
'Jerusalem_'
'editor_'
'Go_'
'Tr_'
'Russell_'
'ares_'
'tonight_'
'employment_'
'emissions_'
'Neil_'
'bold_'
'Team_'
'Craig_'
'waves_'
'rural_'
'jumped_'
'Services_'
'links_'
'pregnancy_'
'63_'
'gh_'
'Palestinian_'
'electricity_'
'fitness_'
'Irma_'
'witness_'
'sparked_'
'NATO_'
'sexually_'
'peak_'
'numerous_'
'tensions_'
'Following_'
'Hans_'
'selection_'
'championship_'
'instance_'
'gains_'
'Rom_'
'suggesting_'
'aggressive_'
'winners_'
'rail_'
'Lady_'
'empty_'
' . ..._'
'Vladimir_'
'Pope_'
'neither_'
'Roy_'
'types_'
'humans_'
'consequences_'
'71_'
'phones_'
'ied_'
'cream_'
'WTO_'
'investigate_'
'smoke_'
'purchase_'
'rn_'
'ko_'
'sounds_'
'Wimbledon_'
'importance_'
'musical_'
'minority_'
'loose_'
'Law_'
'Professor_'
'locks_'
'keeps_'
'passes_'
'adds_'
' .- _'
'buyers_'
'compete_'
'everybody_'
'estimates_'
'cricket_'
'Noe_'
'overnight_'
'Dutch_'
'illness_'
'symptoms_'
' , $ _'
'hall_'
'ker_'
'fires_'
'behalf_'
'hie_'
'fix_'
'Evans_'
'promote_'
'flow_'
'jeans_'
'ked_'
'Mosul_'
'heels_'
'indeed_'
'percentage_'
'Aug_'
'IR_'
'citing_'
'pl_'
'prize_'
'diagnosed_'
'payment_'
'Spicer_'
'knife_'
'pilot_'
'celebrated_'
'packed_'
'quit_'
'Michelle_'
'clients_'
'featuring_'
'replacement_'
'controversy_'
'backing_'
'Next_'
'Manhattan_'
'yer_'
'Marine_'
'facilities_'
'jet_'
'kin_'
'wider_'
'pleaded_'
'wounded_'
'Bowl_'
'Square_'
'absence_'
'bo_'
'institutions_'
'IE_'
'Corp_'
'Eve_'
'Hus_'
'Liberal_'
'seventh_'
'meanwhile_'
'Radio_'
'performing_'
'Henry_'
'hundred_'
'purpose_'
'Rae_'
'rating_'
'stated_'
'blamed_'
'IL_'
'broad_'
'praised_'
'schedule_'
'ROM_'
'Week_'
'intense_'
'variety_'
'venue_'
'Treasury_'
'kicked_'
'ads_'
'degrees_'
'represents_'
'atmosphere_'
'performances_'
'wer_'
'scores_'
'colour_'
'im_'
'Na_'
'creative_'
'consecutive_'
'metres_'
'ire_'
'Jennifer_'
'lowest_'
'walls_'
'lock_'
'awards_'
'Joseph_'
'Brooklyn_'
'solid_'
'Yemen_'
'OK_'
'tear_'
'proper_'
'falls_'
'sight_'
'Capitol_'
'ships_'
'abortion_'
'120_'
'liberal_'
'hav_'
'celebrity_'
'berg_'
'thoughts_'
'Rome_'
'ges_'
'savings_'
'Rio_'
'assistance_'
'Collins_'
'ber_'
'begun_'
'advanced_'
'promises_'
'Khan_'
'senators_'
'ward_'
'kid_'
'Guardian_'
'dies_'
'ood_'
'master_'
'Others_'
' ? _'
'chosen_'
'expansion_'
'concluded_'
'feed_'
'hed_'
'OE_'
'bound_'
'Iranian_'
'expecting_'
'brothers_'
'documentary_'
'waters_'
'accusations_'
'teen_'
'metal_'
'Don_'
'filming_'
'clothing_'
': _'
'saving_'
'apparent_'
'maximum_'
'tin_'
'Hiss_'
'Atlantic_'
'knot_'
'referred_'
'possession_'
'essential_'
'handle_'
'parking_'
'guns_'
'Each_'
'asylum_'
'hies_'
'gift_'
'neighborhood_'
'properly_'
'Alan_'
'expects_'
'74_'
'slid_'
'Walker_'
'bi_'
'Maybe_'
'desperate_'
'cabinet_'
'fame_'
'multi_'
'killer_'
'widespread_'
'deficit_'
'Dallas_'
'landed_'
'bike_'
'Local_'
'frog_'
'sy_'
'broadcast_'
'expand_'
'collapse_'
'shops_'
'carbon_'
'anxiety_'
'strongly_'
'funded_'
'McConnell_'
'criticized_'
'Vice_'
'engine_'
'Michigan_'
'ster_'
'actors_'
'Kyle_'
'Such_'
'survived_'
'Yb_'
'visits_'
'und_'
'stretch_'
'suspects_'
'rounds_'
'grey_'
'combat_'
'acknowledged_'
'contracts_'
'Welsh_'
'Haas_'
'ET_'
'WHO_'
'communications_'
'knowing_'
'occasion_'
'milk_'
'offices_'
'guest_'
'Watson_'
'opponent_'
'clip_'
'IO_'
'loans_'
'hive_'
'zing_'
'daughters_'
'surge_'
'yl_'
'calm_'
'detailed_'
'Btu_'
'stations_'
'breaks_'
'eve_'
'sin_'
'managers_'
'forget_'
'bly_'
'registered_'
'900_'
'breast_'
'rely_'
'sits_'
'bottle_'
'ong_'
'hiss_'
'tens_'
'Jimmy_'
'attacking_'
'Thompson_'
'ranked_'
'Society_'
'delay_'
'gym_'
'suffer_'
'defending_'
'Francis_'
'exciting_'
'ries_'
'ain_'
'funny_'
'letters_'
'po_'
'outfit_'
'worldwide_'
'tool_'
'spirit_'
'Sand_'
'smile_'
'Wright_'
'hidden_'
'chest_'
'1990s_'
'Business_'
'ancient_'
'brilliant_'
'flew_'
'basketball_'
'speaks_'
'Poland_'
'titles_'
'Allen_'
'Laura_'
'tracks_'
'totally_'
'1980s_'
'Woman_'
'challenging_'
'brown_'
'sion_'
'carpet_'
'bn_'
'Series_'
'whey_'
'ourselves_'
'upper_'
'senator_'
'survive_'
'spokesperson_'
'latter_'
'Nation_'
'facts_'
'partly_'
'equal_'
'opens_'
'Out_'
'eighth_'
'childhood_'
'ise_'
'prosecutor_'
'prominent_'
'bags_'
'tip_'
'Dow_'
'elite_'
'frequently_'
'approached_'
'Islam_'
'noticed_'
'Aaron_'
'updated_'
'belief_'
'hired_'
'Any_'
'Wenger_'
'criticised_'
'Journal_'
'shoe_'
'wonderful_'
'Catalan_'
'odds_'
'Seattle_'
'informed_'
'Australians_'
'Jean_'
'Night_'
'regarding_'
'Hals_'
'aims_'
'73_'
'Ivanka_'
'ory_'
'faster_'
'BR_'
'coat_'
'baseball_'
'cloud_'
'encouraged_'
'mu_'
'stable_'
'affair_'
'mainly_'
'rough_'
'crude_'
'Hills_'
'DNA_'
'cl_'
'interviews_'
'taste_'
'min_'
'Ma_'
'Related_'
'chicken_'
'sen_'
'SNP_'
'proposals_'
'affairs_'
'Ten_'
'advertising_'
'depression_'
'stance_'
'Picture_'
'lady_'
'incredibly_'
'mood_'
'appropriate_'
'rushed_'
'parliamentary_'
'recovered_'
'plot_'
'roof_'
'Rob_'
'therefore_'
'Trust_'
'Commons_'
'units_'
'Princess_'
'dominated_'
'cup_'
'races_'
'boots_'
'Roger_'
'Burt_'
'chaos_'
'unknown_'
'hire_'
'brands_'
'represented_'
'anywhere_'
'Un_'
'hurricane_'
'makers_'
'applied_'
'ministry_'
'gt_'
'inning_'
'Bell_'
'babies_'
'gan_'
'conversations_'
'Jessica_'
'euros_'
'engagement_'
'pack_'
'Rights_'
'franchise_'
'mountain_'
'Philadelphia_'
'[ _'
'zero_'
'wheel_'
'restrictions_'
'Company_'
'therapy_'
'Jane_'
'teenage_'
'organizations_'
'ware_'
'repeated_'
'Fromm_'
'PA_'
'Power_'
'march_'
'gr_'
'Stewart_'
'een_'
'wealthy_'
'contain_'
'extent_'
'ens_'
'Get_'
'za_'
'counsel_'
'resolution_'
'nights_'
'fed_'
'rarely_'
'Mo_'
'personality_'
'mates_'
'slowly_'
'ensemble_'
'Phil_'
'Swansea_'
'gy_'
'partnership_'
'Mae_'
'tradition_'
'Venezuela_'
'settled_'
'Photograph_'
'excellent_'
'sporting_'
'Myanmar_'
'entertainment_'
'regions_'
'Roberts_'
'fairly_'
'ably_'
'Tories_'
'Seven_'
'uncertainty_'
'awarded_'
'practices_'
'Wood_'
'pollution_'
'ight_'
'listen_'
'invest_'
'nit_'
'Dave_'
'fruit_'
'Brut_'
'Leader_'
'Gulf_'
'Rock_'
'dedicated_'
'auction_'
'arr_'
'channel_'
'matching_'
'height_'
'extend_'
'Minnesota_'
'Eastern_'
'locations_'
'protected_'
'badly_'
'technical_'
'activist_'
'tomorrow_'
'marketing_'
'Conservatives_'
'Ares_'
'limits_'
'labor_'
'Jo_'
'Medical_'
'discussions_'
'Global_'
'Education_'
'Swiss_'
'fighter_'
'drinks_'
'terrible_'
'proof_'
'dates_'
'fer_'
'seemingly_'
'yr_'
'racial_'
'iconic_'
'routine_'
'herd_'
'dd_'
'Oh_'
'combination_'
'mortgage_'
'tragedy_'
'tall_'
'stages_'
'requests_'
'ists_'
'Arena_'
'extraordinary_'
'ved_'
'factory_'
'Swedish_'
'Emma_'
'favor_'
'attempting_'
'perfectly_'
'speculation_'
'worn_'
'trips_'
'Mayor_'
'silence_'
'transgender_'
'drawing_'
'Gov_'
'defended_'
'Russians_'
'participants_'
'throwing_'
'poverty_'
'balls_'
'Gould_'
'NT_'
'McGregor_'
'opted_'
'color_'
'breakfast_'
'Diana_'
'hardly_'
'Authorities_'
'1997_'
'Medicaid_'
'Researchers_'
'lat_'
'pose_'
'honest_'
'Hays_'
'77_'
'strange_'
'producers_'
'revealing_'
'ite_'
'inner_'
'Chancellor_'
'explosion_'
'involvement_'
'Asked_'
'campus_'
'headquarters_'
'pot_'
'application_'
'Kansas_'
'hotels_'
'motion_'
'marijuana_'
'bail_'
'operate_'
'Catholic_'
'manufacturing_'
'Carter_'
'Music_'
'personnel_'
'Libya_'
'ud_'
'obtained_'
'leather_'
'ily_'
'quarterback_'
'awn_'
'romance_'
'imposed_'
'recalled_'
'Kurdish_'
'terrorists_'
'eggs_'
'Port_'
'su_'
'golden_'
'adopted_'
'Town_'
'urban_'
'Catalonia_'
'except_'
'lt_'
'1999_'
'achieved_'
'Vietnam_'
'viewed_'
'shadow_'
'politician_'
'tourist_'
'haves_'
'analyst_'
'1970s_'
'BTU_'
'athletes_'
'Greg_'
'Cardiff_'
'seized_'
'tte_'
'ving_'
'reflect_'
'household_'
'ina_'
'appearing_'
'halve_'
'salary_'
'capture_'
'announce_'
'chef_'
'relatives_'
'citizen_'
'delayed_'
'Cambridge_'
'Mitchell_'
'fixed_'
'Warren_'
'crop_'
'Indeed_'
'cyber_'
'exhibition_'
'Olympics_'
'elderly_'
'Us_'
'predicted_'
'attending_'
'blocks_'
'wed_'
'switch_'
'hays_'
'dying_'
'indicated_'
'swimming_'
'mentioned_'
'mothers_'
'fatal_'
'NASA_'
'managing_'
'AFL_'
'exact_'
'McCain_'
'null_'
'resulted_'
'answers_'
'lifted_'
'loves_'
'Cross_'
'haws_'
'heave_'
'hosted_'
'hags_'
'thi_'
'dly_'
'NW_'
'Kent_'
'Take_'
'demanding_'
'resigned_'
'vowed_'
'photographs_'
'Charlotte_'
'Max_'
'joy_'
' ) ; _'
'Dodgers_'
'compensation_'
'testimony_'
'Ont_'
'bathroom_'
'Spurs_'
'sn_'
'Malcolm_'
'cycle_'
'Feb_'
'horror_'
'lle_'
'Duke_'
'tale_'
'Nazi_'
'successfully_'
'Soviet_'
'insists_'
'trail_'
'Which_'
'abandoned_'
'disappointed_'
'appointment_'
'sensitive_'
'crashed_'
'establish_'
'Colorado_'
'wil_'
'76_'
'explains_'
'misconduct_'
'seed_'
'Officials_'
'oo_'
'describe_'
'alert_'
'rush_'
'sai_'
'burn_'
'remarkable_'
'targeting_'
'helicopter_'
'steel_'
'Food_'
'Perry_'
'sustained_'
'odd_'
'wages_'
'serves_'
'Stone_'
'windows_'
'handful_'
'weer_'
'surveillance_'
'reforms_'
'ney_'
'arts_'
'Did_'
'supplies_'
'30pm_'
'las_'
'Later_'
'Jay_'
'cook_'
'specifically_'
'funeral_'
'Angela_'
'Morning_'
'Havel_'
'admits_'
'oy_'
'hell_'
'Herr_'
'euro_'
'ei_'
'Administration_'
'du_'
'cleared_'
'remote_'
'ankle_'
'encounter_'
'banking_'
'% ._'
'bombing_'
'ocean_'
'print_'
'knocked_'
'ped_'
'mini_'
'taught_'
'constant_'
'Danny_'
'ast_'
'Th'
'chocolate_'
'tank_'
'Intelligence_'
'exist_'
'Detroit_'
'Anna_'
'covering_'
'ome_'
'78_'
'nal_'
'headlines_'
'forcing_'
'trapped_'
'Civil_'
'Christopher_'
'Oliver_'
'feelings_'
'Second_'
'pub_'
'racist_'
'Men_'
'inauguration_'
'couples_'
'Published_'
'cheap_'
'mad_'
'ballistic_'
'ale_'
'reference_'
'equally_'
'bat_'
'scrutiny_'
'error_'
'Authority_'
'secured_'
'hill_'
'Telegraph_'
'discrimination_'
'complicated_'
'Maryland_'
'pledged_'
'ced_'
'skid_'
'nowt_'
'riding_'
'Kremlin_'
'deadline_'
'awareness_'
'Avenue_'
'Land_'
'pulling_'
'nobody_'
'thick_'
'normally_'
'Bruce_'
'Capital_'
'offences_'
'complained_'
'holes_'
'Everyone_'
'contained_'
'Sport_'
'Whether_'
'representative_'
'differences_'
'statue_'
'slipped_'
'divided_'
'campaigns_'
'trick_'
'solo_'
'correct_'
'Greece_'
'AL_'
'Brazilian_'
'Joshua_'
'Oxford_'
'lined_'
'comfort_'
'politically_'
'ok_'
'Pennsylvania_'
'Southampton_'
'casual_'
'Ge_'
'inches_'
'Sometimes_'
'Jake_'
'devastating_'
'lands_'
'1998_'
'burning_'
'Rex_'
'20th_'
'79_'
'lla_'
'Ball_'
'reducing_'
'ery_'
'commit_'
'cake_'
'temperature_'
'Sanchez_'
'client_'
'Simpson_'
'realised_'
'flooding_'
'networks_'
'landing_'
'specialist_'
' ­_'
'materials_'
'ears_'
'Financial_'
'trains_'
'map_'
'writers_'
'Free_'
'bs_'
'strategic_'
'arse_'
'Switzerland_'
'papers_'
'afraid_'
'category_'
'planes_'
' , " " _'
'rated_'
'concept_'
'rid_'
'singing_'
'please_'
'Howard_'
'streak_'
'stomach_'
'holidays_'
'pan_'
'ja_'
'joke_'
'nominee_'
'Thor_'
'flood_'
'lover_'
'fantastic_'
'Brady_'
'ag_'
'Cabinet_'
'advised_'
'spots_'
'Hera_'
'stroke_'
'legacy_'
'Warner_'
'shocking_'
'cooking_'
'Saint_'
'ev_'
'arriving_'
'OR_'
'clock_'
'equivalent_'
'paint_'
'Cooper_'
'nto_'
'homeless_'
'collapsed_'
'aides_'
'Lou_'
'Pentagon_'
'moon_'
'mining_'
'Argentina_'
'necessarily_'
'convinced_'
'vely_'
'stream_'
'settle_'
'pt_'
'ak_'
'ratings_'
'welfare_'
'tn_'
'signature_'
'resistance_'
'pet_'
'gown_'
'@_'
'Award_'
'express_'
'writes_'
'handling_'
'org_'
'Bristol_'
'lifestyle_'
'demanded_'
'hide_'
'estimate_'
'dropping_'
'recording_'
'classes_'
'crowds_'
'ino_'
'ets_'
'belt_'
'tive_'
'butt_'
'tower_'
'DC_'
'Rugby_'
'meals_'
'GMT_'
'historical_'
'hanging_'
'fate_'
'woo_'
'visa_'
'employed_'
'hr_'
'branch_'
'Look_'
'Trade_'
'Tokyo_'
'dt_'
'tools_'
'theirs_'
'surrounded_'
'typical_'
'Nicole_'
'Ashley_'
'rolled_'
'overs_'
'pages_'
'soldier_'
'amounts_'
'unveiled_'
'viral_'
'tag_'
'selected_'
'phase_'
'personally_'
'collected_'
'Airlines_'
'enormous_'
'Aberdeen_'
'?_'
'hes_'
'finishing_'
'% , _'
'memories_'
'Di_'
'craft_'
'investigated_'
'Rohingya_'
'premiere_'
'radical_'
'witnesses_'
'legislative_'
'permission_'
'Utah_'
'presidents_'
'bleacherreport_'
'gon_'
'update_'
' - - _'
'romantic_'
'ween_'
'attracted_'
'theatre_'
'somewhat_'
'assessment_'
'Afghan_'
'lit_'
'surely_'
'unity_'
'teaching_'
'addressed_'
'battery_'
'breach_'
'youngest_'
'surprising_'
'Milan_'
'Web_'
'Budget_'
'bone_'
'searching_'
'Conte_'
'Federer_'
'Oklahoma_'
'Mercedes_'
'privacy_'
'Pat_'
'Woods_'
'Wars_'
'Charlottesville_'
'ana_'
'sorry_'
'Kane_'
'lovely_'
'Europa_'
'Erdogan_'
'Jared_'
' " " _'
'Board_'
'Anne_'
'engage_'
'Davies_'
'relative_'
'Costa_'
' , £ _'
'Roman_'
'feared_'
'pursue_'
'locals_'
'nose_'
'j'
'Giants_'
'suspicion_'
'denies_'
'improving_'
'ranks_'
'investments_'
'Secret_'
'recover_'
'ordinary_'
'mystery_'
'exports_'
'goalkeeper_'
'provider_'
'broader_'
'Without_'
'ugh_'
'kn_'
'Blues_'
'presenter_'
'ont_'
'CIA_'
'recognition_'
'Stoke_'
'halt_'
'posting_'
'Singapore_'
'labour_'
'promising_'
'Guardiola_'
'Read_'
'Nine_'
'wold_'
'celebrating_'
'walks_'
'initiative_'
'Given_'
'farmers_'
'emerging_'
'oldest_'
'Hammond_'
'bird_'
'supports_'
'delays_'
'Yorkshire_'
'representatives_'
'gathering_'
'sou_'
'constantly_'
'context_'
'Clark_'
'makeup_'
'depth_'
'arguing_'
'staid_'
'sleeping_'
'cooperation_'
'tips_'
'Orly_'
'honor_'
'fields_'
'foods_'
'rises_'
'disabled_'
'Ward_'
'crazy_'
'ser_'
'mode_'
'earning_'
'narrow_'
'ral_'
'Project_'
'diversity_'
'Grant_'
'yt_'
'Hull_'
'recommended_'
'pleased_'
'representing_'
'painting_'
'defeated_'
'Science_'
' - " _'
'cancelled_'
'disorder_'
'acted_'
'boxing_'
'religion_'
'landscape_'
'longest_'
'Bureau_'
'tis_'
'fs_'
'letting_'
'thousand_'
'Kardashian_'
'ove_'
'Billy_'
'chic_'
'onal_'
'bikini_'
'choices_'
'rhetoric_'
'Dean_'
'sued_'
'Crystal_'
'attitude_'
'dust_'
'ming_'
'suspension_'
'inch_'
'ack_'
'Ca_'
'ninth_'
'Stuart_'
'Susan_'
'crossing_'
'Campbell_'
'81_'
'conspiracy_'
'highlighted_'
'Sophie_'
'birds_'
'perspective_'
'plate_'
'82_'
'Philippines_'
'rescued_'
'establishment_'
'Murphy_'
'celebration_'
'checks_'
'discovery_'
'coaches_'
'ues_'
'Fund_'
'assist_'
'shoulders_'
'drone_'
'label_'
'somewhere_'
'Katie_'
'occasions_'
'Was_'
'deny_'
'af_'
'Caribbean_'
'equality_'
'Ronaldo_'
'ideal_'
'ick_'
'cult_'
'AFN_'
'attract_'
'publication_'
'ents_'
'luck_'
'honour_'
'tht_'
'momentum_'
'unexpected_'
'Fe_'
'Independent_'
'arrests_'
'employers_'
'somebody_'
'regulation_'
'encouraging_'
'realise_'
'starring_'
'iron_'
'Make_'
'hem_'
'extensive_'
'Wells_'
'universities_'
'Hart_'
'towns_'
'salt_'
'picking_'
'carefully_'
'stops_'
'ethnic_'
'Austin_'
'Belgium_'
'Grenfell_'
'flowers_'
'Bangladesh_'
'opener_'
'Boeing_'
'earth_'
'Marc_'
'ical_'
'confirmation_'
'creation_'
'84_'
'dancing_'
'voter_'
'Lane_'
'uld_'
'blast_'
'Emily_'
'nomination_'
'taxi_'
'investor_'
'Greek_'
'10th_'
'Ken_'
'guess_'
'ple_'
'Hey_'
'intent_'
'interviewed_'
'Tennessee_'
'86_'
'everywhere_'
'detention_'
'Liam_'
'Film_'
'Met_'
'aftermath_'
'Hughes_'
'overhaul_'
'loving_'
'Rachel_'
'hop_'
'wrapped_'
'grass_'
'Dubai_'
'fold_'
'Major_'
'weekly_'
'smoking_'
'cruise_'
'wh'
'islands_'
'membership_'
'reduction_'
'Wayne_'
'Kentucky_'
'hy_'
'warn_'
'FC_'
'ranking_'
'herb_'
'moral_'
'covers_'
'resignation_'
'procedure_'
'menu_'
'deployed_'
'pattern_'
'literally_'
'Hugh_'
'lace_'
'Special_'
'impressed_'
'expanded_'
'cable_'
'praise_'
'ence_'
'Shea_'
'directors_'
'survivors_'
'elements_'
'Fairfax_'
'sudden_'
'concrete_'
'warnings_'
'Nadal_'
'copy_'
'del_'
'Chen_'
'Virgin_'
'warming_'
'tee_'
'Sheriff_'
'virus_'
'Boris_'
'ating_'
'1996_'
'chase_'
'legend_'
'visible_'
'streaming_'
'recall_'
'Keith_'
'manner_'
'fy_'
'briefly_'
'quarters_'
'aide_'
'Moon_'
'ters_'
'colleague_'
'tourism_'
'Thur_'
'carrier_'
'medicine_'
'conviction_'
'somehow_'
'monitoring_'
'stressed_'
'sheer_'
'immigrant_'
'wet_'
'stabbed_'
'ane_'
'wan_'
'scared_'
'83_'
'nominated_'
'borders_'
'brutal_'
'Netherlands_'
'Wed_'
'McDonald_'
'ock_'
'signal_'
'vi_'
'wanting_'
'purple_'
'cope_'
'advisers_'
'crack_'
'longtime_'
'Terry_'
'Management_'
'improvement_'
'yon_'
'Ni_'
'Mother_'
'affordable_'
'controls_'
'anyway_'
'rage_'
'oily_'
'photographer_'
'Juan_'
'involves_'
'unprecedented_'
'WA_'
'21st_'
'cheese_'
'consistent_'
'rat_'
'monthly_'
'Norway_'
'91_'
'Brighton_'
'attacker_'
'Baltimore_'
'AM_'
'Emmanuel_'
'mainstream_'
'photograph_'
'finger_'
'steady_'
'grade_'
'Warriors_'
'competing_'
'ap_'
'88_'
'ec_'
'tha'
'bust_'
'rolling_'
'swept_'
'playoff_'
'passion_'
'cheaper_'
'dressing_'
'co'
'guarantee_'
'rapidly_'
'illegally_'
'bowl_'
'providers_'
'trainer_'
'communication_'
'Freedom_'
'alliance_'
'whe_'
'spin_'
'plea_'
'involve_'
'admit_'
'touched_'
'spell_'
' ] ._'
'Cuba_'
'trillion_'
'%_'
'thei_'
'bean_'
'supporter_'
'travelled_'
'nn_'
'sr_'
'pride_'
'civilian_'
'Dame_'
'ord_'
' , '_'
'unlike_'
'buried_'
'Turner_'
'ously_'
'promoting_'
'cally_'
'hunt_'
'ofr_'
'struggles_'
'Girl_'
'teeth_'
'19th_'
'valuable_'
'urging_'
'WASHINGTON_'
'ould_'
'egg_'
'1995_'
' ' - _'
'crossed_'
'lion_'
'inter_'
'Indonesia_'
'Network_'
'producing_'
'Have_'
'Weill_'
'pants_'
'explore_'
'runner_'
'Space_'
'Portugal_'
'extension_'
'pledge_'
'1992_'
'venture_'
'essentially_'
'requirements_'
'raw_'
'trigger_'
'function_'
'rice_'
'carries_'
'narrative_'
'Pro_'
'Adams_'
'Oval_'
'Bean_'
'anthem_'
'soccer_'
'retailers_'
'equity_'
'downtown_'
'escaped_'
'scientific_'
'Bradley_'
'medium_'
'tired_'
'pen_'
'asks_'
'Hernandez_'
'fined_'
'slip_'
'naked_'
'ction_'
'damaging_'
're'
'gather_'
'coup_'
'Around_'
'protecting_'
'ownership_'
'stopping_'
'NOW_'
'embassy_'
'decent_'
'Bayern_'
'foundation_'
'Blake_'
'noise_'
'backlash_'
'EPA_'
'billions_'
'intention_'
'removal_'
'ER_'
'moderate_'
'lessons_'
'exclusive_'
'briefing_'
'Monaco_'
'blaze_'
'apps_'
'shelter_'
'outlets_'
'pipeline_'
'collect_'
'describes_'
'qualifying_'
'Victorian_'
'IP_'
'guidance_'
'dining_'
'listening_'
'Ware_'
'Ray_'
'volunteers_'
'highlight_'
'racism_'
'accompanied_'
'fights_'
'seeks_'
'lan_'
'ignored_'
'popularity_'
'association_'
'ich_'
'advocates_'
'Rodgers_'
'Easter_'
'of'
'maintained_'
'bread_'
'readers_'
'Theatre_'
'checked_'
'assists_'
'challenged_'
'prefer_'
'autumn_'
'pupils_'
'Gorsuch_'
'CCTV_'
'Samsung_'
'87_'
'the'
'organisations_'
'ranging_'
'spaces_'
'sessions_'
'raid_'
'1994_'
'teenagers_'
'citizenship_'
'monitor_'
'unemployment_'
'ano_'
'hoer_'
'forever_'
'wi'
'touchdown_'
'Rooney_'
'risen_'
'comparison_'
'centres_'
'Jesus_'
'shame_'
'Gen_'
'journal_'
'Taliban_'
'MA_'
'triggered_'
'rocket_'
'gin_'
'Lt_'
'shareholders_'
'ind_'
'laugh_'
'Supplied_'
'residential_'
'tape_'
'eb_'
'ken_'
'sta_'
'offense_'
'nervous_'
'lets_'
'Reilly_'
'che_'
'Islands_'
'bitter_'
'fiscal_'
'Columbia_'
'Until_'
'mistakes_'
'command_'
'dealt_'
'fence_'
'rebels_'
'Cruz_'
'relaxed_'
'physically_'
'prosecution_'
'intervention_'
'constitutional_'
'En_'
'Protection_'
'deemed_'
'bility_'
'Rick_'
'Internet_'
'destination_'
'introduce_'
'Conference_'
'orange_'
'billionaire_'
'Mattis_'
'shaped_'
'Eben_'
'machines_'
'fo'
'Emirates_'
'loud_'
'eligible_'
'pays_'
'infection_'
'comeback_'
'ics_'
'Mayweather_'
'fishing_'
'bizarre_'
'finale_'
'celebrities_'
'booked_'
'beneath_'
'Assembly_'
'offs_'
'Brad_'
'merely_'
'v'
'beloved_'
'prisoners_'
'owed_'
'89_'
'bloc_'
'Spencer_'
'crackdown_'
'survival_'
'leaked_'
'slammed_'
'resolve_'
'meets_'
'firs_'
'migration_'
'Munich_'
'Much_'
'thigh_'
'Oregon_'
'Leeds_'
'Mugabe_'
'End_'
'trailer_'
'collision_'
'explosive_'
'bur_'
'hacking_'
'Does_'
'junior_'
'ambulance_'
'Thais_'
'academic_'
'embrace_'
'ants_'
'yeas_'
'raises_'
'assaulted_'
'plain_'
'contains_'
'Baker_'
'gear_'
'Nathan_'
'requested_'
'gly_'
'outstanding_'
'Mars_'
'burned_'
'Market_'
'modest_'
'blog_'
'1960s_'
' ) : _'
'respectively_'
'UPS_'
'firmly_'
'Fashion_'
'Han_'
'exposure_'
'ust_'
'tal_'
'studied_'
'offence_'
'coaching_'
'relevant_'
'Sturgeon_'
'trophy_'
'waited_'
'diabetes_'
'veterans_'
'gunman_'
'Station_'
'horses_'
'93_'
'grandmother_'
'Reserve_'
'anticipated_'
'dish_'
'sis_'
'painful_'
'Klopp_'
'130_'
'ese_'
'diesel_'
'resign_'
'350_'
'humanitarian_'
'ha'
'Hawaii_'
'commander_'
'Margaret_'
'Rd_'
'premium_'
'forth_'
'voices_'
'Kings_'
'formally_'
'soil_'
'regulatory_'
'nurse_'
'Robinson_'
'condemned_'
'ultimate_'
'Manafort_'
'sisters_'
'interior_'
'posing_'
'Writing_'
'Ad_'
'murdered_'
'medal_'
'shes_'
'starred_'
'camps_'
'MailOnline_'
'useful_'
'shower_'
'ani_'
'Mount_'
'Down_'
'cing_'
'htat_'
'Affordable_'
'oin_'
'ambitious_'
'Work_'
'ians_'
'strict_'
'referring_'
'pocket_'
'storms_'
'appeals_'
'stat_'
'grant_'
'Ocean_'
'fault_'
'closest_'
'brunette_'
'climb_'
'butter_'
'iest_'
'households_'
'airports_'
'winger_'
'electronic_'
'Barry_'
'Massachusetts_'
'addiction_'
'procedures_'
'sacked_'
'Chan_'
'Aldo_'
'Arthur_'
'donations_'
'thta_'
'lifetime_'
'margin_'
'taht_'
'timing_'
'regardless_'
'Swift_'
'treatments_'
'frustration_'
'arrives_'
'kes_'
'petition_'
'inmates_'
'stability_'
'Amber_'
'fist_'
'Mitch_'
'workplace_'
'doubled_'
'frustrated_'
'sue_'
'relation_'
'retain_'
'Abe_'
'conservatives_'
'tension_'
'Todd_'
'conclusion_'
'recognise_'
'hosting_'
'virtual_'
'wise_'
'delighted_'
'ates_'
'inappropriate_'
'pol_'
'cans_'
'fin_'
'bottles_'
'penalties_'
'Pittsburgh_'
'Colin_'
'rookie_'
'Richmond_'
'questioning_'
'painted_'
'dr_'
'shake_'
'reverse_'
'substantial_'
'dale_'
'ci_'
'duties_'
'05_'
'midfield_'
'Blair_'
'occur_'
'guards_'
'Clarke_'
'Deputy_'
'ember_'
'guidelines_'
'crying_'
'oar_'
'movements_'
'democratic_'
'z'
'expenses_'
'cation_'
'legally_'
'bury_'
'br_'
'thirds_'
'Tesla_'
'Part_'
'tap_'
'alto_'
'=_'
'resulting_'
'Things_'
'1990_'
' '
'statistics_'
'pin_'
'nationwide_'
'Wisconsin_'
'doe_'
'Organization_'
'parade_'
'verdict_'
'installed_'
'highlights_'
'shy_'
'studying_'
'bow_'
'qualify_'
'spotlight_'
'Mt_'
'evacuated_'
'applications_'
'sd_'
'heritage_'
'agreements_'
'teamed_'
'ini_'
'triple_'
'accommodation_'
'96_'
'gad_'
'wth_'
'Patriots_'
'whoa_'
'Off_'
'outrage_'
'storage_'
'swing_'
'delivering_'
'attractive_'
'Eddie_'
'Wald_'
'kinds_'
'mosque_'
'" : _'
'grab_'
'je_'
'residence_'
'output_'
'asset_'
'Hunt_'
'aws_'
'Ronald_'
'foul_'
'traded_'
'toned_'
'nee_'
'critic_'
'entrance_'
'ays_'
'alarm_'
'waist_'
'Being_'
'kg_'
'."_'
'arguments_'
'barrel_'
'organised_'
'muscle_'
'substance_'
'enemy_'
'98_'
'defined_'
'interference_'
'lists_'
'overcome_'
'reviews_'
'Orleans_'
'pit_'
'governing_'
'k'
'repeat_'
'engineering_'
'stem_'
'Lauren_'
'Austria_'
'knock_'
'teach_'
'Wei_'
'boxes_'
'method_'
'Kingdom_'
'92_'
'suburb_'
'purchased_'
'Place_'
'circle_'
'referee_'
'expanding_'
'shorts_'
'generations_'
'Seoul_'
'nthe_'
'situations_'
'Water_'
'supermarket_'
'twins_'
'trials_'
'electoral_'
'mor_'
' + _'
'grabbed_'
'satellite_'
'throe_'
'skirt_'
'mess_'
'raped_'
'refusing_'
'Parker_'
'minds_'
'inspiration_'
'reserve_'
'rebel_'
'Grace_'
' ! _'
'genuine_'
'acquired_'
'pressed_'
'contemporary_'
'blind_'
'trio_'
'reasonable_'
'rapid_'
'highs_'
'Carl_'
'Defence_'
'urgent_'
'st'
'Edward_'
'mail_'
'ven_'
'launching_'
'firefighters_'
'solve_'
'episodes_'
'Gray_'
'Nelson_'
'Guard_'
'climbed_'
'sized_'
'pending_'
'1993_'
'dreams_'
'Benjamin_'
'disappeared_'
'deserve_'
'Bern_'
'diverse_'
'Could_'
'acres_'
'catching_'
'ars_'
'Willy_'
'Malaysia_'
'Tigers_'
'whop_'
'hang_'
'Elliott_'
'mandate_'
'Scientists_'
'toxic_'
'airlines_'
'edition_'
'pointing_'
'Abu_'
'Alpo_'
'Way_'
'burst_'
'to'
'Microsoft_'
'AT_'
'Policy_'
'sub_'
'careful_'
'anybody_'
'bump_'
'explanation_'
'thins_'
'lengthy_'
'Officers_'
'dialogue_'
'hunting_'
'torn_'
'Netanyahu_'
'ballot_'
'Silva_'
'succeed_'
'regulators_'
'ile_'
'grave_'
'Father_'
'participate_'
'Christie_'
'sp_'
'outdoor_'
'replied_'
'register_'
'Forest_'
'Belfast_'
'centers_'
'temporarily_'
'quest_'
'Orlando_'
'Boy_'
'clinical_'
'militant_'
'discover_'
'Garcia_'
'promotion_'
'wound_'
'vocal_'
'hopefully_'
'The'
'charging_'
'Alsop_'
'lip_'
'deeper_'
'tragic_'
'navy_'
'Calif_'
'stylish_'
'proven_'
'promoted_'
'Garden_'
'Bournemouth_'
'naturally_'
'licence_'
'01_'
'filing_'
'Les_'
'teens_'
'zer_'
'businessman_'
'sweeping_'
'depending_'
'talented_'
'fur_'
'hiding_'
'focusing_'
'neighbours_'
'flames_'
'retailer_'
'connections_'
'din_'
'Thousands_'
'isolated_'
'fest_'
'Cox_'
'boats_'
'hopeful_'
'roots_'
'discussing_'
'lake_'
'CA_'
'Nicola_'
'repair_'
'ort_'
'dated_'
'Should_'
'GP_'
'frequent_'
'forest_'
'periods_'
'strip_'
'solutions_'
'industries_'
'glamorous_'
'ether_'
'witnessed_'
'ports_'
'destruction_'
'rebounds_'
'py_'
'cry_'
'DA_'
'%;_'
'portion_'
'rk_'
'Jenner_'
'authors_'
'ered_'
'mas_'
'urge_'
'soul_'
'creates_'
'recognised_'
'approximately_'
'proceedings_'
'holders_'
'prompting_'
'cocaine_'
'speaker_'
'negotiating_'
'hiring_'
'comedian_'
'Palestinians_'
'object_'
'Age_'
'poses_'
'tactics_'
'graduate_'
'medication_'
'bt_'
'abused_'
'whee_'
'volume_'
'screening_'
'glasses_'
'containing_'
'paired_'
'attached_'
'wa'
'Gareth_'
'associate_'
'disappointing_'
'Z'
'Executive_'
'":{"_'
'Messi_'
'Essex_'
'ek_'
'crown_'
'Friends_'
'Nearly_'
'accusing_'
'FIFA_'
'Lincoln_'
'WW_'
'openly_'
'smartphone_'
'investing_'
'Burnley_'
'oat_'
'wield_'
'desk_'
'stays_'
'ures_'
'hood_'
'grateful_'
'Islamist_'
'warns_'
'2'
'ITV_'
'button_'
'dragged_'
'displayed_'
'websites_'
'trousers_'
'cm_'
'destroy_'
'ree_'
'ron_'
'battling_'
'lane_'
'parks_'
'presents_'
'1989_'
'Sunderland_'
'innocent_'
'ities_'
'gotten_'
'eager_'
'abut_'
'Indiana_'
'lea_'
'sunglasses_'
'objects_'
'Watford_'
'connect_'
'1991_'
'bombs_'
'Thailand_'
'dn_'
'stepping_'
'propaganda_'
'contribution_'
'silent_'
'basically_'
'sum_'
'spectacular_'
'metre_'
'customs_'
'drunk_'
'powered_'
'sto_'
'criminals_'
'crews_'
'q'
'impose_'
'Left_'
'absolute_'
'Karen_'
'yous_'
'Fair_'
'midnight_'
'earthquake_'
'Unlike_'
'progressive_'
'Storm_'
'lity_'
'outing_'
'Late_'
'announcing_'
'Would_'
'Reid_'
'topic_'
'Set_'
'matched_'
'kiss_'
'regard_'
'platforms_'
'110_'
'boom_'
'unfair_'
'genetic_'
'artificial_'
'affects_'
'bunt_'
'polling_'
'formation_'
'qualified_'
'Duterte_'
'audiences_'
'negotiate_'
'Ferguson_'
'computers_'
'sauce_'
'oa_'
'sheet_'
'Olivia_'
'watchdog_'
'dent_'
'Chloe_'
'consent_'
'Sh_'
'insurers_'
'traveling_'
'contribute_'
'ripped_'
'tar_'
'generous_'
'Willa_'
'dementia_'
'Officer_'
'Lawrence_'
'ration_'
'Affairs_'
'punishment_'
'councils_'
'Meghan_'
'Juventus_'
'yeah_'
'suburbs_'
'Inside_'
'contacts_'
'nationals_'
'globe_'
'Money_'
'chi_'
'Country_'
'releases_'
'Harvard_'
'Yankees_'
'lasted_'
'and'
'preferred_'
'magic_'
'Ted_'
'protein_'
'bonus_'
'urn_'
'Reed_'
'diagnosis_'
'mill_'
'impression_'
'Bond_'
' - , _'
'futures_'
'facial_'
'topped_'
'invested_'
'Pa_'
'Additional_'
'Point_'
'othe_'
'tors_'
'tle_'
'loyal_'
'Community_'
'dramatically_'
'fleeing_'
'brave_'
'Commonwealth_'
'sic_'
'mn_'
'Senior_'
'Doe_'
'Cancer_'
'lesson_'
'nationalist_'
'Emergency_'
'logy_'
'Masters_'
'existence_'
'ater_'
'ingredients_'
'Chile_'
'predecessor_'
'iness_'
'taxpayers_'
'skill_'
'prospects_'
'ash_'
'Taiwan_'
'Owen_'
'stole_'
'panic_'
'generated_'
'Pu_'
'fastest_'
'devastated_'
'Wembley_'
'18th_'
'methods_'
'twin_'
'Election_'
'operator_'
'acid_'
'engineer_'
'oppose_'
'wildlife_'
'entitled_'
'aspects_'
'Ye_'
'withdraw_'
'bonds_'
'Homeland_'
'rel_'
'USS_'
'suggestion_'
'extremist_'
'bath_'
'Girls_'
'noting_'
'afterwards_'
'professionals_'
'lf_'
'lap_'
'warrant_'
'Robin_'
'cats_'
'Development_'
'Congressional_'
'wills_'
'Alaska_'
'collective_'
'apology_'
'Phoenix_'
'caps_'
'tons_'
'joins_'
'ben_'
'difficulty_'
'scenario_'
'Nevada_'
'Experts_'
'Nor_'
'withdrawal_'
'technique_'
'nds_'
'selfie_'
'nowhere_'
'Almost_'
'yd_'
'Denver_'
'safely_'
'mere_'
'fierce_'
'Sudan_'
'Ashes_'
'manifesto_'
'weld_'
'employer_'
'Lopez_'
'chip_'
'MS_'
'97_'
'Ron_'
'Thieu_'
'Speaker_'
'files_'
'nude_'
'organized_'
'aired_'
'Finally_'
'chis_'
'clashes_'
'Everything_'
'avoided_'
'renewed_'
'suspicious_'
'arrangements_'
'aging_'
'Metropolitan_'
'HIV_'
'contributions_'
'tunnel_'
'be'
'revolution_'
'underway_'
'eo_'
'Winter_'
'preparation_'
'pat_'
'Arts_'
'bosses_'
'Luis_'
'Snapchat_'
'ren_'
'classified_'
'peers_'
'subsequent_'
'94_'
'noon_'
'jets_'
'Come_'
'Bachelor_'
'regarded_'
'fied_'
'Louisiana_'
'oust_'
'consumption_'
'nerve_'
'Again_'
'cannabis_'
'Jerry_'
'Maduro_'
'Lebanon_'
'Foster_'
'shore_'
'removing_'
'Karl_'
'trucks_'
'keeper_'
'Rover_'
'Downing_'
'strain_'
'burden_'
'Fort_'
'fitting_'
'ME_'
'preliminary_'
'140_'
'troubled_'
'PR_'
'restore_'
'Mohammed_'
'phis_'
'ury_'
'zation_'
'everyday_'
'on'
'dubbed_'
'picks_'
'imports_'
'Line_'
'wsa_'
'reminder_'
'refuse_'
'famously_'
'element_'
'ically_'
'None_'
'bare_'
'bacteria_'
'Unfortunately_'
'Lakers_'
'spirits_'
'gene_'
'reward_'
'bl_'
'credits_'
'strengthen_'
'horrific_'
'Rather_'
'treating_'
'friendship_'
'Johnny_'
'hung_'
'breathing_'
'Ala_'
'wit'
'argues_'
'Carlos_'
'DUP_'
'principal_'
'coastal_'
'motivated_'
'Originally_'
'Pe_'
'Mon_'
'palace_'
'jo_'
'Broadway_'
'teammates_'
'hike_'
'approve_'
'Division_'
'ENE_'
'ert_'
'Somalia_'
'ised_'
'script_'
'unions_'
'ame_'
'chamber_'
'uncomfortable_'
'fortune_'
'ESPN_'
'hTe_'
'difficulties_'
'Action_'
'virtually_'
'ef_'
'memorial_'
'Marcus_'
'battles_'
'primarily_'
'vegetables_'
'Kenya_'
'oh_'
'wih_'
'ignore_'
'routes_'
'Illinois_'
'expense_'
'hearts_'
'History_'
'differently_'
'ought_'
'tougher_'
'tz_'
'Bella_'
'ope_'
'recognize_'
'ray_'
'export_'
'Rams_'
'Fisher_'
'smell_'
'starter_'
'hackers_'
'Harrison_'
'theft_'
'attendance_'
'Atletico_'
'Palmer_'
'clinic_'
'bing_'
'hers_'
'cane_'
'Hundreds_'
'Anyone_'
'Nigeria_'
'gallery_'
'toilet_'
'lung_'
'consistently_'
'fter_'
'influential_'
'theater_'
'Stanley_'
'Mason_'
'Dortmund_'
'remembered_'
'frozen_'
'ake_'
'Unit_'
'dual_'
'See_'
'developments_'
'og_'
'select_'
'emotions_'
'Teh_'
'Julie_'
'understands_'
'accurate_'
'Phillips_'
'fr'
'forgotten_'
'bones_'
'attorneys_'
'Death_'
'amp_'
'180_'
'td_'
'bra_'
'sch_'
'Stars_'
'Commissioner_'
'trauma_'
'fare_'
'neighbors_'
'owing_'
'achievement_'
'pr'
'examples_'
'breath_'
'wire_'
'careers_'
'LL_'
'Hope_'
'item_'
'loo_'
'stunned_'
'20s_'
'nces_'
'emerge_'
'experiment_'
'courses_'
'scientist_'
'mon_'
'fiction_'
'fundamental_'
'unbeaten_'
'gifts_'
'cted_'
'intimate_'
'assume_'
'prevented_'
'dour_'
'flu_'
'Belgian_'
'xe_'
'Summer_'
'dig_'
'Cosby_'
'kicking_'
'regulator_'
'editing_'
'Rodriguez_'
'versus_'
'tent_'
'drives_'
'reflected_'
'auto_'
'advocate_'
'11th_'
'wooden_'
'shirts_'
'trafficking_'
'launches_'
'Plus_'
'Marco_'
'Li_'
'Chase_'
'Saints_'
'recovering_'
'converted_'
'Within_'
'desert_'
'ensuring_'
'ose_'
'tw_'
'x'
'Neill_'
'Raqqa_'
'Sergio_'
'generate_'
'GE_'
'pal_'
'hugely_'
'dominant_'
'Ps_'
'sow_'
'ual_'
'compromise_'
'pole_'
'choosing_'
'revenues_'
'Latin_'
'hd_'
'giants_'
'evil_'
'Dakota_'
'Stokes_'
'Euro_'
'realized_'
'Lat_'
'Season_'
'rental_'
'lon_'
'Jews_'
'Hunter_'
'runway_'
'ands_'
'wiht_'
'Guy_'
'spy_'
'operated_'
'eclipse_'
'Root_'
'subjects_'
'recommendations_'
'Bar_'
'quietly_'
'vessel_'
'memo_'
'grip_'
'Ora_'
'quoted_'
'awkward_'
'mp_'
'Melania_'
'wounds_'
'ours_'
'portfolio_'
'liver_'
'compare_'
'Bu_'
'III_'
'diplomats_'
'Derby_'
'cms_'
'Baby_'
'responding_'
'Economic_'
'£ _'
'developer_'
'threaten_'
'notion_'
'license_'
'Ke_'
'wary_'
'tracking_'
'closure_'
'successor_'
'snapped_'
'Front_'
'seas_'
'sufficient_'
'diseases_'
'wtih_'
'Iowa_'
'filling_'
'ethics_'
'broadcaster_'
'rapper_'
'hn_'
'separated_'
'ria_'
'indicate_'
'Bailey_'
'NEW_'
'researcher_'
'nightclub_'
'Greens_'
'branded_'
'inquest_'
'stakes_'
'THE_'
'runners_'
'Ce_'
'reviewed_'
'marking_'
'ime_'
'ntly_'
'articles_'
'ean_'
'meters_'
'innovation_'
'reception_'
'Lie_'
'IOU_'
'Knight_'
'overwhelming_'
'optimistic_'
'sole_'
'GDP_'
'ram_'
'opioid_'
'fines_'
'celebrates_'
'smooth_'
'guaranteed_'
'ths_'
'confusion_'
'hea_'
'hi'
'Staff_'
'Isis_'
'Edwards_'
'killings_'
'Barbara_'
'beaches_'
'tail_'
'ond_'
'Victor_'
'rings_'
'rumours_'
'Morris_'
'Bennett_'
'lab_'
'Rs_'
'ering_'
'touching_'
'Prosecutors_'
'nk_'
'celebrations_'
'bullying_'
'layer_'
'appreciate_'
'Heather_'
'immune_'
'bite_'
'ridge_'
'predict_'
'Lear_'
'willy_'
'priorities_'
'replacing_'
'aiming_'
'Je_'
'Rebecca_'
'de'
'Herald_'
'HBO_'
'mansion_'
'conceded_'
'Reagan_'
'submitted_'
'iwth_'
'ix_'
'gross_'
'hub_'
'sectors_'
'Ex_'
'staged_'
'respected_'
'HR_'
'Kylie_'
'rear_'
'assembly_'
'slim_'
'comply_'
'afte_'
'expression_'
'laughing_'
'aboard_'
'gig_'
'cam_'
'Marie_'
'screaming_'
'Lucas_'
'Am_'
'Report_'
'ceiling_'
'leak_'
'Cs_'
'peaceful_'
'suits_'
'Orange_'
'traveled_'
'takeover_'
'subsequently_'
'chronic_'
'portrait_'
'steam_'
'responses_'
'counties_'
'Raiders_'
'slight_'
'structures_'
'donated_'
'consideration_'
'oven_'
'Lyon_'
'Eagles_'
'boards_'
'Es_'
'examined_'
'aspect_'
'08_'
'steal_'
'worthy_'
'Constitution_'
'institution_'
'mar_'
'Review_'
'distribution_'
'transferred_'
'harsh_'
'jokes_'
'description_'
'olds_'
'09_'
'accord_'
'Ds_'
'IVF_'
'trends_'
'handled_'
'anymore_'
'Va_'
'notably_'
'ees_'
'rocks_'
'icon_'
'Technology_'
'Dublin_'
'slam_'
'shark_'
'mos_'
'hook_'
'musician_'
'flee_'
'UFC_'
'offshore_'
'Ahmed_'
'collaboration_'
'centuries_'
'sorts_'
'Inn_'
'Holland_'
'landmark_'
'sl_'
'Shanghai_'
'Oil_'
'rly_'
'slide_'
'Marshall_'
'grandfather_'
'Int_'
'Governor_'
'Morse_'
'privately_'
'efficient_'
'versions_'
'constitution_'
'Standard_'
'fleet_'
'comic_'
'ail_'
'Ch_'
'drag_'
'Trafford_'
'Casey_'
'strongest_'
'ders_'
'Eng_'
'yoga_'
'passage_'
'Colombia_'
'sexy_'
'practical_'
'Century_'
'Lukaku_'
'highway_'
'proportion_'
'Transport_'
'marry_'
'bother_'
'reject_'
'perceived_'
'Castle_'
'1986_'
'Angels_'
'Tommy_'
'patterns_'
'pu_'
'Qaeda_'
'Looking_'
'reflects_'
'hose_'
'ngly_'
'ez_'
'districts_'
'Albert_'
'flags_'
'Book_'
'ead_'
'draws_'
'excess_'
'arena_'
'Lucy_'
'pursuit_'
'symbol_'
'inevitable_'
'sharply_'
'finances_'
'Gabriel_'
'boot_'
'Greater_'
'sells_'
'flash_'
'anonymous_'
'deliberately_'
'convince_'
'xt_'
'maintenance_'
'Bali_'
'Information_'
'Helen_'
'shoppers_'
'beef_'
'tops_'
'victories_'
'fixture_'
'seal_'
'Jackie_'
'furniture_'
'haul_'
'assess_'
'dose_'
'glimpse_'
' " ) _'
'Tehran_'
'Mediterranean_'
'lasting_'
'he'
'beau_'
'alter_'
'fails_'
'nder_'
'Trudeau_'
'mountains_'
'yen_'
'ette_'
'IMF_'
'protections_'
'formerly_'
'Story_'
'Fans_'
'1967_'
'cha_'
'hearings_'
'pizza_'
'powder_'
'conflicts_'
'Michel_'
'ao_'
'drops_'
'robbery_'
'for'
'outlook_'
'Chuck_'
'Has_'
'designs_'
'LGBT_'
'Article_'
'workforce_'
'explaining_'
'demonstrated_'
'provision_'
'furious_'
'valued_'
'sunny_'
'Blacks_'
'shortage_'
'Shaw_'
'seekers_'
'rig_'
'Schumer_'
'Missouri_'
'flooded_'
'Ferrari_'
'Louise_'
'Brendan_'
'footballer_'
'homer_'
'Neither_'
'30am_'
'freed_'
'commissioner_'
'tween_'
'Angel_'
'awful_'
'blocking_'
'ture_'
'ein_'
'Sterling_'
'opt_'
'ett_'
'lips_'
'NY_'
'radar_'
'bomber_'
'occasionally_'
'undermine_'
'introduction_'
'consultant_'
'usly_'
'occupied_'
'sentiment_'
'deciding_'
'Del_'
'Egyptian_'
'samples_'
'mt_'
'measured_'
') _'
'Mississippi_'
'Mac'
'160_'
'hint_'
'advances_'
'Border_'
'Andre_'
'Through_'
'Megan_'
'underground_'
'Vince_'
'triumph_'
'sway_'
'react_'
'tier_'
'academy_'
'kit_'
'receiver_'
'yield_'
'Child_'
'automatic_'
'mann_'
'liquid_'
'Hearts_'
'import_'
'Son_'
'jumping_'
'deportation_'
' ! " _'
'Fred_'
'severely_'
'casting_'
'whale_'
'secondary_'
'fantasy_'
'Thank_'
'publish_'
'Chairman_'
'nursing_'
'Denmark_'
'bears_'
'dishes_'
'consensus_'
'Palm_'
'sentences_'
'visual_'
'desperately_'
'Andrea_'
'neutral_'
'underneath_'
'Lynch_'
'Communist_'
'exception_'
'ncy_'
'zi_'
'united_'
'Safety_'
'Anti_'
'robust_'
'peer_'
'Connor_'
'worries_'
'bull_'
'spare_'
'barriers_'
'02_'
'Maine_'
'load_'
'psychological_'
'ement_'
'prod_'
'Metro_'
'insist_'
'meddling_'
'tine_'
'downs_'
'tipped_'
'divide_'
'Ts_'
'eg_'
'regret_'
'sc_'
'125_'
'trans_'
'telephone_'
'athlete_'
'checking_'
'Crime_'
'chancellor_'
'excitement_'
'Cold_'
'Golf_'
'vo_'
'lease_'
'weird_'
'damages_'
'passport_'
'principle_'
'Doug_'
'punch_'
'ade_'
'cr_'
'ES_'
'cousin_'
'Nothing_'
'mainland_'
'developers_'
'requirement_'
'Banks_'
'Scot_'
'Powell_'
'robot_'
'bunch_'
'03_'
'channels_'
'Forces_'
'correspondent_'
'hitch_'
'Larry_'
'vary_'
'ik_'
'lifting_'
'subsidies_'
'1980_'
'searched_'
'pressing_'
'signals_'
'sh'
'laying_'
'bases_'
'vacation_'
'fits_'
'Cole_'
'smashed_'
'Holly_'
'Ukrainian_'
'Page_'
'Zimbabwe_'
'NeWS_'
'realize_'
'UPC_'
'cabin_'
'Shares_'
'clad_'
'Julia_'
'zoo_'
'Con_'
'mire_'
'Dylan_'
'attackers_'
'Confederate_'
'ca'
'ach_'
'Tax_'
'Joel_'
'projected_'
'mil_'
'ample_'
'Wild_'
'festive_'
'stripped_'
'Claire_'
'mirror_'
'comprehensive_'
'median_'
'abode_'
'kers_'
'Prize_'
'tropical_'
'singles_'
'Pete_'
'sly_'
'courage_'
'ova_'
'apartments_'
'obtain_'
'fingers_'
'array_'
'à_'
'Musk_'
'Czech_'
'parked_'
'header_'
'Bulgaria_'
'uncertain_'
'tonnes_'
'neighbour_'
'Sat_'
'Neymar_'
'Po_'
'doubts_'
'Ve_'
'sample_'
'Never_'
'snaps_'
'enable_'
'manufacturers_'
'Ruth_'
'Goldman_'
'sported_'
'clan_'
'Key_'
'fort_'
'observed_'
'F'
'chemicals_'
'McCarthy_'
'yed_'
'screens_'
'AF_'
'tables_'
'USP_'
'answered_'
'ized_'
'Sheffield_'
'smiling_'
'Tyler_'
'cute_'
'BC_'
'barrier_'
'Chiefs_'
'judgment_'
'wishes_'
'sting_'
'rushing_'
'sk_'
'determination_'
'Douglas_'
'pie_'
'migrant_'
'exercises_'
'appealing_'
'dive_'
'rocked_'
'motor_'
'ambitions_'
'lied_'
'Field_'
'Celebrity_'
'bloody_'
'pure_'
'kicks_'
'zo_'
'gen_'
'UCLA_'
'Pole_'
'conventional_'
'Early_'
'interim_'
'Salman_'
'sheriff_'
'ost_'
'Joan_'
'Polish_'
'caution_'
'Delhi_'
'premiums_'
'nurses_'
'inequality_'
'blown_'
'operators_'
'log_'
'whic_'
'intensity_'
'stark_'
'receives_'
'dynamic_'
'SS_'
'Immigration_'
'Scots_'
'titled_'
'Paddock_'
'kilometres_'
'describing_'
'actively_'
'Beverly_'
'tim_'
'Made_'
'departments_'
'ST_'
'hich_'
'assumed_'
'calendar_'
'participation_'
'workout_'
'info_'
'tours_'
'visas_'
'torture_'
'Camp_'
'. : _'
'Tech_'
'guided_'
'fl_'
'ress_'
'Snow_'
'mm_'
'1987_'
'similarly_'
'considerable_'
'Nixon_'
'eld_'
'SO_'
' . )_'
'phenomenon_'
'lone_'
'diamond_'
'weighed_'
'requiring_'
'playoffs_'
'chart_'
'bod_'
'villages_'
'roster_'
'uniform_'
'chairs_'
'column_'
'campaigning_'
'stealing_'
'anonymity_'
'Murdoch_'
'abort_'
'Baldwin_'
'vie_'
'indication_'
'debris_'
'tel_'
'abou_'
'restored_'
'Taking_'
'Oakland_'
'disputed_'
'Gibson_'
'chasing_'
'doping_'
'disclosed_'
'forecasts_'
'sophisticated_'
'https_'
'Too_'
'Nice_'
'timed_'
'sends_'
'loaded_'
'Delta_'
'eliminate_'
'cinema_'
'continent_'
'organic_'
'placing_'
'wheat_'
'assured_'
'Thomson_'
'elf_'
'ang_'
'leaning_'
'endured_'
'ional_'
'stranger_'
'Oe_'
'execution_'
'confused_'
'Ethan_'
'petrol_'
'examine_'
'rds_'
'neighbor_'
'101_'
'retire_'
'god_'
'Julian_'
'wash_'
'Thrones_'
'improvements_'
'aver_'
'Lon_'
'ambition_'
'12th_'
'patrol_'
'Derek_'
'preventing_'
'confessed_'
'mentally_'
'urs_'
'Ze_'
'cycling_'
'Evan_'
'Butt_'
'tissue_'
'gi_'
'USC_'
'heated_'
'sustainable_'
'preserve_'
'humanity_'
'graphic_'
'reminded_'
'Against_'
'loses_'
'Brien_'
'Arkansas_'
'hone_'
'accepting_'
'afto_'
'Ltd_'
'mall_'
'sup_'
'feeding_'
'ola_'
'commitments_'
'acknowledge_'
'siblings_'
'cooked_'
'buses_'
'demonstrate_'
'Darren_'
'oath_'
'ines_'
'Dover_'
'Duchess_'
'queen_'
'1988_'
'associates_'
'Travel_'
'evacuation_'
'Kensington_'
'bullet_'
'ung_'
'annually_'
'fitted_'
'ase_'
'ook_'
'habits_'
'Cohen_'
'twist_'
'depends_'
'updates_'
' ( ) _'
'Xe_'
'Grande_'
'Ger_'
'transformed_'
'Bloomberg_'
'BA_'
'eu_'
'headline_'
'violation_'
'se'
'approaches_'
'confronted_'
'priced_'
'library_'
'recognized_'
'lean_'
'notable_'
'appealed_'
'amendment_'
'tally_'
'fro'
'17th_'
'engaging_'
'Control_'
'violations_'
'emotion_'
'shew_'
'disclose_'
'tense_'
'bipartisan_'
'embraced_'
'volunteer_'
'X'
'elegant_'
'climbing_'
'opinions_'
'mores_'
'pas_'
'tune_'
'Spring_'
'zones_'
'Villa_'
'Amanda_'
'recommend_'
'cleaning_'
'beside_'
'aer_'
'Car_'
'ued_'
'Whig_'
'approaching_'
'Nancy_'
'OPEC_'
'affecting_'
'cancel_'
'passionate_'
'eed_'
'Ae_'
'mutual_'
'donned_'
'reliable_'
'judicial_'
'viewing_'
'unacceptable_'
'Federation_'
'shades_'
'Ls_'
' , ._'
'Peru_'
'Caroline_'
'els_'
'13th_'
'Mel_'
'Born_'
'layers_'
'1979_'
'implement_'
'opera_'
'tenure_'
'substitute_'
'declare_'
'Plan_'
'Fr_'
'buyer_'
'ious_'
'DACA_'
'universe_'
'Franklin_'
'precious_'
'executed_'
'pleasure_'
'colours_'
'moth_'
'Study_'
'Haley_'
'freeze_'
'conducting_'
'booking_'
'universal_'
'Rogers_'
'Express_'
'bearing_'
'dafter_'
'bands_'
'admitting_'
'phrase_'
'newspapers_'
'techniques_'
'Perez_'
'pilots_'
'Members_'
'operates_'
'yow_'
'epic_'
'lobby_'
'logo_'
'grid_'
'1984_'
'Soon_'
'Lloyd_'
'garage_'
'adopt_'
'Lo_'
'Doctor_'
'declaration_'
' " , _'
'revised_'
'partisan_'
'Shakespeare_'
'disruption_'
'Hampshire_'
'economics_'
'Kenny_'
'touchdowns_'
'gaining_'
'reluctant_'
'qe_'
'lineup_'
'successive_'
'Vichy_'
'Coleman_'
'DI_'
'experiencing_'
'Dick_'
'traditionally_'
'heroin_'
'devoted_'
'trainers_'
'disappointment_'
'Tampa_'
'addressing_'
'Exchange_'
'worrying_'
'ital_'
'dirty_'
'Latest_'
'toys_'
'Nazis_'
'Huddersfield_'
'cording_'
'floral_'
'Eight_'
'wears_'
'/ _'
'DJ_'
'notorious_'
'counterparts_'
'nia_'
'rump_'
'weigh_'
'reads_'
'ute_'
'Mountain_'
'suite_'
'boasts_'
'hailed_'
'demonstration_'
'ph_'
'arrangement_'
'costly_'
'1950s_'
'as'
'ua_'
'rin_'
'chips_'
'Galaxy_'
'styled_'
'panels_'
'photographed_'
'Sandy_'
'stamp_'
'drought_'
'Critics_'
'calories_'
'supportive_'
'Joyce_'
'whet_'
'Mont_'
'resist_'
'Q'
'Carr_'
'flowing_'
'pursuing_'
'insisting_'
'blew_'
'Hitler_'
'loyalty_'
'Using_'
'Henderson_'
'NRL_'
'Highway_'
'rallies_'
'Ie_'
'Memorial_'
'surprisingly_'
'deserves_'
'Heart_'
'beds_'
'1985_'
'competitors_'
'Sri_'
'04_'
'recipe_'
'seeds_'
'integrity_'
'Nobel_'
'Between_'
'AOL_'
'testified_'
'Manning_'
'Bernie_'
'3'
'cafe_'
'LONDON_'
'woe_'
'flown_'
'Norwegian_'
'Peace_'
'with'
'addresses_'
'sation_'
'implications_'
'Arctic_'
'Conway_'
'winch_'
'rafter_'
'Vs_'
'Nigel_'
'Cain_'
'afters_'
'Dundee_'
'arranged_'
'flower_'
'Medicare_'
'shouting_'
'grants_'
'excuse_'
'acquisition_'
'Markle_'
'Unite_'
'rm_'
'Jenkins_'
' , - _'
'exists_'
'deserved_'
'Alice_'
'arguably_'
'DE_'
'Ue_'
'Jacob_'
'resume_'
'betting_'
'Pr_'
'minded_'
'750_'
'exploring_'
'Doctors_'
'Small_'
'outbreak_'
'Montana_'
'terminal_'
'principles_'
'disability_'
'canceled_'
'hostile_'
' ] , _'
'technologies_'
'Rod_'
'opposing_'
'Whatever_'
'gut_'
'happiness_'
'crowded_'
'Thanks_'
'Sally_'
'deck_'
'Online_'
'financing_'
'uncle_'
'permit_'
'oxygen_'
'farms_'
'Portland_'
'feat_'
'Cowboys_'
'Shane_'
'Wren_'
'ult_'
'lows_'
'16th_'
'barrels_'
'Tonight_'
'CAM_'
'spreading_'
'equipped_'
'Finance_'
'populist_'
'corporations_'
'Hudson_'
'Queens_'
'Circuit_'
'rep_'
'Brom_'
'ris_'
'insight_'
'erupted_'
'safer_'
'cop_'
'rank_'
'Potter_'
'proving_'
'Nobody_'
'lighting_'
'daring_'
'farmer_'
'lice_'
'throat_'
'Coalition_'
'saves_'
'ition_'
'Ct_'
'Bryan_'
'dresses_'
'merger_'
'80s_'
'aftie_'
'depend_'
'ined_'
'drones_'
'youngster_'
'sponsored_'
'Rich_'
'ep_'
'tot_'
'Ee_'
'violated_'
'shell_'
'alt_'
'zy_'
'adventure_'
'dam_'
'chichi_'
'lia_'
'parole_'
'automatically_'
'juice_'
'bore_'
'abet_'
'Beckham_'
'yob_'
'Qe_'
'altogether_'
'Sullivan_'
'Model_'
'Glenn_'
'commissioned_'
'displays_'
'Sebastian_'
'PSG_'
'Alexis_'
'borough_'
'ike_'
'morel_'
'ility_'
'charities_'
'shield_'
'wickets_'
'Osborne_'
'transportation_'
'Catherine_'
'defendant_'
'Md_'
'tresses_'
'nominees_'
'Norman_'
'scope_'
'Reading_'
'pressures_'
'Obviously_'
'Interior_'
'ound_'
'Bishop_'
'themed_'
'rime_'
'extremists_'
'bits_'
'ink_'
'nod_'
'YORK_'
'Madison_'
'Griffin_'
'endless_'
'thes_'
'spends_'
'Adrian_'
'woul_'
'pi_'
'paintings_'
'embarrassing_'
'legitimate_'
'complain_'
'premier_'
'divisions_'
'gradually_'
' ? " _'
'Bs_'
'commented_'
'at'
'swim_'
'securing_'
'Final_'
'Lib_'
'prayers_'
'conscious_'
'governmental_'
'IDs_'
'Ned_'
'retreat_'
'pour_'
'NHL_'
'offenders_'
'murders_'
'revenge_'
'yb_'
'leaks_'
'Twp_'
'07_'
'meter_'
'ply_'
'grief_'
'maintaining_'
'educated_'
'accessible_'
'Sofia_'
'shooter_'
'relegation_'
'peoples_'
'Yo_'
'engines_'
'ip_'
'allegation_'
'prescription_'
'glad_'
'railway_'
'Captain_'
'Along_'
'wor_'
'coloured_'
'cts_'
'infamous_'
'whoosh_'
'Lily_'
'Cincinnati_'
'Pep_'
'vessels_'
'Carrie_'
'911_'
'skilled_'
'gambling_'
'renewable_'
'seeded_'
'Poole_'
'meaningful_'
'rts_'
'Hungary_'
'Halloween_'
'oing_'
'Prix_'
'dangers_'
'casualties_'
'Vincent_'
'PC_'
'defenders_'
'sho_'
'# _'
'Championships_'
'Heath_'
'cleavage_'
'ches_'
'stint_'
'lasts_'
'purposes_'
'Eh_'
'beliefs_'
'Jinping_'
'Mario_'
'Short_'
'segment_'
'revelations_'
'errors_'
'Coach_'
'Silicon_'
'St'
'Conor_'
'stating_'
'2021_'
'comp_'
'Vettel_'
'snake_'
'overt_'
'ru_'
'Rice_'
'Cuban_'
'mask_'
'Area_'
'considers_'
'Stockholm_'
'Gaza_'
'Far_'
'Nashville_'
'AU_'
'Iceland_'
'definition_'
'worlds_'
'restricted_'
'450_'
'Penn_'
'speeds_'
'Brandon_'
'. ) _'
'eyed_'
' : £ _'
'stall_'
'whenever_'
'Fillon_'
'06_'
'Id_'
'secrets_'
'abbot_'
'accidentally_'
'Room_'
'ma'
'Slam_'
'invasion_'
'gust_'
'Logan_'
'barred_'
'timer_'
'capabilities_'
'joked_'
'kilometers_'
'threatens_'
'pile_'
'legendary_'
'switched_'
'was'
'diving_'
'prepares_'
'donors_'
'circuit_'
'toddler_'
'ras_'
'al'
'Portuguese_'
'nos_'
'clause_'
'Village_'
'consultation_'
'wrongdoing_'
'unto_'
'Ba_'
'economists_'
'prop_'
'whilst_'
'doubles_'
'inclusion_'
'tricky_'
'root_'
'reaches_'
'Please_'
'breakthrough_'
'enemies_'
'me'
'Djokovic_'
'documented_'
'DOE_'
'obesity_'
'Kris_'
'mat_'
'cure_'
'ork_'
'happily_'
'dependent_'
'suggestions_'
'privilege_'
'origin_'
'exchanges_'
'Drug_'
'-- _'
'moire_'
'displaced_'
'ona_'
'relating_'
'30s_'
'vy_'
'tackling_'
'Premiership_'
'counterpart_'
'Connecticut_'
'stairs_'
'mysterious_'
'201_'
'Y'
'ji_'
'Dead_'
'purchases_'
'Debbie_'
'Ice_'
'Ky_'
'Walter_'
'gorgeous_'
'Sr_'
'J'
'Environmental_'
'Play_'
'Bobby_'
'earrings_'
'edged_'
'shipping_'
'Berry_'
'batting_'
'pla_'
'nightmare_'
'sanctuary_'
'releasing_'
'twenty_'
'tthe_'
'cial_'
'brick_'
'Carey_'
'agrees_'
'woke_'
'Istanbul_'
'costume_'
'lled_'
'lls_'
'Fame_'
'missions_'
'travellers_'
'dumped_'
'hack_'
'unnecessary_'
'beings_'
'stabbing_'
'fatally_'
'helpful_'
'Stakes_'
'collusion_'
'denim_'
'Fs_'
'Classic_'
'schemes_'
'minimal_'
'habit_'
'"  _'
'Pr'
'Getting_'
'boosted_'
'mounting_'
'dge_'
'Vatican_'
'bans_'
'har_'
'trump_'
'Bull_'
'enjoys_'
'riders_'
'hum_'
'tr'
'Tesco_'
'bitcoin_'
'Vogue_'
'4'
'throws_'
'recalls_'
'suburban_'
'plunging_'
'Trumps_'
'Brooks_'
'ield_'
'Building_'
'fossil_'
'Sara_'
'ageing_'
'Sue_'
'90s_'
'willingness_'
'marine_'
'testify_'
'uring_'
'lawsuits_'
'eek_'
'ara_'
'Liberty_'
'lucrative_'
'processes_'
'oes_'
'Pedro_'
'horrible_'
'reserves_'
'BT_'
'ured_'
'rides_'
'partially_'
'Gs_'
'abandon_'
'Battle_'
'eased_'
'pedestrians_'
'bedrooms_'
'alike_'
'competitions_'
'V'
'greeted_'
'Corps_'
'cn_'
'Add_'
'undocumented_'
'hamstring_'
'1983_'
'voiced_'
'unhappy_'
'Dennis_'
'steep_'
'chapter_'
'memorable_'
'fthe_'
'cks_'
'pad_'
'thre_'
'ar'
'Peninsula_'
'compliance_'
'tho_'
'Gates_'
'thorough_'
'ular_'
'examination_'
'san_'
'mandatory_'
'donate_'
'H'
'Cr_'
'admission_'
'stranded_'
'Hoe_'
'campaigned_'
'offset_'
'gr'
'autonomous_'
'printed_'
'wicket_'
'Representatives_'
'awaiting_'
'empire_'
'sentencing_'
'Put_'
'Melissa_'
'Light_'
'oon_'
'Gallery_'
'curb_'
'resolved_'
'floors_'
' "_'
'ultra_'
'Christians_'
'fried_'
'rie_'
'Midlands_'
'soap_'
'banning_'
'utility_'
'favourites_'
'Had_'
'wr_'
'sealed_'
'remind_'
'wings_'
'nonprofit_'
'Samuel_'
'youngsters_'
'visitor_'
'acceptable_'
'Mohamed_'
'AS_'
'Howe_'
'raids_'
'ching_'
'underlying_'
'lovers_'
'Toyota_'
'random_'
'ridiculous_'
'hardest_'
'Ns_'
'Davidson_'
'taxpayer_'
'Katy_'
'su'
'elaborate_'
'Hannah_'
'vaccine_'
'ople_'
'disclosure_'
'bets_'
'avoiding_'
'rea_'
'propel_'
'overtime_'
'lending_'
'nest_'
'LA'
'implemented_'
'discipline_'
'Formula_'
'asleep_'
'neo_'
'er'
'listing_'
'dthe_'
'formula_'
'Majority_'
'dire_'
'Happy_'
'Heritage_'
'EST_'
'trusted_'
'hungry_'
'we'
'Alliance_'
'precisely_'
'tta_'
'showcased_'
'Investigators_'
'accuse_'
'thru_'
'zes_'
'Pierre_'
'stunt_'
'sounded_'
'shifts_'
'com'
'Beck_'
'clever_'
'soy_'
'upgrade_'
'rider_'
'llo_'
'wondering_'
'transform_'
'Andrews_'
'subway_'
'anxious_'
'pensions_'
'creator_'
'hre_'
'spark_'
'twp_'
'Bad_'
'rial_'
'Clippers_'
'Call_'
'custom_'
'venues_'
'hilarious_'
'fond_'
'donor_'
'championships_'
'wer'
'ugly_'
'terrifying_'
'recruitment_'
'Reynolds_'
'Fla_'
'mew_'
'Kendall_'
'clouds_'
'demonstrations_'
'calf_'
'nas_'
'FTSE_'
'travelers_'
'sid_'
'compound_'
'boarding_'
'Sn_'
'1'
'infected_'
'porn_'
'bell_'
'ox_'
'Duncan_'
'som_'
'keys_'
'Residents_'
'helm_'
' . ... _'
'initiatives_'
'massacre_'
'Corey_'
'recruit_'
'15th_'
'ngton_'
'economies_'
'scrap_'
'robots_'
'70s_'
' "  _'
'cant_'
'epidemic_'
'detectives_'
'tasks_'
'bureau_'
'Roth_'
'olive_'
'Nicholas_'
'transactions_'
'populations_'
'produces_'
'expertise_'
'Brent_'
'rg_'
'Overall_'
'invitation_'
'undergo_'
'ern_'
'transparency_'
'founding_'
'communicate_'
'spectrum_'
'illion_'
'delicate_'
'BMW_'
'Vancouver_'
'Rory_'
'subtle_'
'lobbying_'
' , ( _'
'dip_'
'Thus_'
'Wade_'
'Mnuchin_'
'burg_'
'PGA_'
'deported_'
'Serena_'
'Ellen_'
'shootings_'
'Romania_'
'guilt_'
'Edited_'
'knees_'
'Airways_'
'famed_'
'fancy_'
'Alzheimer_'
'shifting_'
'external_'
'instant_'
'Studies_'
'1981_'
'Face_'
'slender_'
'influenced_'
'Lab_'
'heroes_'
'wo'
'Bit_'
'ing'
'trademark_'
'1982_'
'audio_'
'superb_'
'edly_'
'designated_'
'bles_'
'Hs_'
'val_'
'laughed_'
'nan_'
'2022_'
'Cal_'
'View_'
'pills_'
'rang_'
'dome_'
' . ) _'
'GB_'
'lling_'
'Jesse_'
'extremism_'
'Ws_'
'speeches_'
'persuade_'
'mber_'
'wards_'
'programmes_'
'Brit_'
'ners_'
'ively_'
'adorable_'
'Mick_'
'Linda_'
'Amendment_'
'stic_'
'attraction_'
'counting_'
'Days_'
'satisfied_'
'commonly_'
'Cash_'
'outcomes_'
'tracked_'
'excessive_'
'bel_'
'breakdown_'
'musicians_'
'chains_'
'disturbing_'
'Walsh_'
'bride_'
'Sony_'
'gal_'
'discount_'
'hedge_'
'benchmark_'
'salad_'
'glamour_'
'Floyd_'
'mo'
'prince_'
'evident_'
'spray_'
' ;_'
'vid_'
'speakers_'
'bronze_'
'scan_'
'diplomat_'
'fascinating_'
'Magic_'
'Germans_'
'Lent_'
'tory_'
'gram_'
'ch'
'renowned_'
'ux_'
'Rescue_'
'superstar_'
'pronounced_'
'rer_'
'nding_'
'le'
'Surrey_'
'significance_'
'branches_'
'gardens_'
'intensive_'
'vintage_'
'hometown_'
'convention_'
'Robertson_'
'holder_'
'performers_'
'g'
'risky_'
'ext_'
'ari_'
'handing_'
'caring_'
'guitar_'
'flour_'
'exclusively_'
'uncovered_'
'cer_'
'Tr'
'Nike_'
'searches_'
'Data_'
'engineers_'
'Yeah_'
'tto_'
'globally_'
'educational_'
'intellectual_'
'burns_'
'Wang_'
'poised_'
'Entertainment_'
'rst_'
'Travis_'
'1000_'
'apologised_'
'publishing_'
'lu_'
'albeit_'
'artistic_'
'dto_'
'teammate_'
'pitched_'
'distant_'
'Leave_'
'monuments_'
'Ur_'
'woulds_'
'sticking_'
'locally_'
'advocacy_'
'Inter_'
'oral_'
'cruel_'
'weakness_'
'sunshine_'
'tremendous_'
'balanced_'
'shifted_'
'sticks_'
'surgeon_'
'60s_'
'optimism_'
'ne'
'ible_'
'Hew_'
'bulk_'
'Medicine_'
'bias_'
'Nottingham_'
'format_'
'muscles_'
'Leigh_'
'accounting_'
'Consumer_'
'Commerce_'
'hover_'
'bal_'
'Joint_'
'Military_'
'Pochettino_'
'att_'
'rallied_'
'fundraising_'
'Leonard_'
'D'
'ura_'
'Aussie_'
'sof_'
'insider_'
'Very_'
'vent_'
'Britons_'
'AN_'
'uch_'
'patch_'
'AM'
'economist_'
'rebuild_'
'categories_'
'weighing_'
'Morrison_'
'nly_'
'tends_'
'Armed_'
'newt_'
'innovative_'
'beg_'
'rents_'
'Globe_'
'Ys_'
'Weather_'
'gesture_'
'spa_'
'cigarettes_'
'justify_'
'inaugural_'
'Uni_'
'Eventually_'
'ption_'
'cargo_'
'cher_'
'jut_'
'thrilled_'
'pets_'
'by'
'Wing_'
'curious_'
'tide_'
'oversight_'
'Climate_'
'enthusiasm_'
'genuinely_'
'floating_'
'in'
'efficiency_'
'Cubs_'
'Curry_'
'Making_'
'Gr_'
'js_'
'Pictures_'
'Johns_'
'dancer_'
'Qs_'
'thanked_'
'historically_'
'confrontation_'
'prayer_'
'io'
'AB'
'financially_'
'We'
'solidarity_'
'grandchildren_'
'cord_'
'Wonder_'
'poster_'
'1974_'
'importantly_'
'collecting_'
'Venice_'
'forum_'
'coin_'
'shareholder_'
'Dancing_'
'wy_'
'ov'
'travels_'
'sia_'
'inspire_'
'Tests_'
'fever_'
'Puigdemont_'
'lethal_'
'No'
'ti'
'strategist_'
'Wallace_'
'Hezbollah_'
'Creek_'
'Chargers_'
'ston_'
'scare_'
'treaty_'
'collar_'
'decides_'
'Bashar_'
'castle_'
'lavish_'
'detailing_'
'derby_'
'te'
'nger_'
'journalism_'
'sa'
'Drive_'
'rankings_'
'glory_'
'Jeffrey_'
'SA'
'nuts_'
'vet_'
'Christ_'
'hug_'
'outlet_'
'Dy_'
'credible_'
'  "_'
'settlements_'
'sensational_'
'foster_'
'skinny_'
'bleeding_'
'Manager_'
'Diane_'
'Da_'
'tariffs_'
'grocery_'
'frm_'
'1st_'
'riot_'
'slavery_'
'refer_'
'mic_'
'feminist_'
'Pakistani_'
'instantly_'
'affiliate_'
'architect_'
'neat_'
'lis_'
'concerning_'
'deposit_'
'raced_'
'campaigners_'
'uts_'
'ero'
'Workers_'
'Harper_'
'Beauty_'
'conservation_'
'backdrop_'
'imagination_'
'divorced_'
'fom_'
'whit_'
'ahs_'
'hind_'
'routinely_'
'zs_'
'tackles_'
'reacted_'
'Weeks_'
'incomes_'
'AC'
'tender_'
'catastrophic_'
'Case_'
'Think_'
'Modern_'
'submarine_'
'completing_'
'Venus_'
'brush_'
'gent_'
'14th_'
'nets_'
'tre_'
'folks_'
'Curtis_'
'Bt_'
'Arnold_'
'prisons_'
'Yates_'
'Tha_'
'transformation_'
'Natalie_'
'instructions_'
'countless_'
'scary_'
'forming_'
'0'
'Fallon_'
'Hot_'
'reactions_'
'architecture_'
'scorer_'
'buck_'
'Access_'
'advisory_'
'treats_'
'eof_'
'Montreal_'
'nted_'
'SS'
'Janet_'
'broadly_'
'5'
'ratio_'
'lad_'
'Hamas_'
'infections_'
'disastrous_'
'Wen_'
'Class_'
'realistic_'
'operational_'
'kills_'
'underwent_'
'xs_'
'failures_'
'traumatic_'
'reviewing_'
'gates_'
'Cricket_'
'ICE_'
'syndrome_'
'tattoo_'
'Falcons_'
'sided_'
'magnitude_'
'fury_'
'Trent_'
'quote_'
'mixture_'
'G'
'copies_'
'BO'
'cu_'
'K'
'Ion_'
'Change_'
'demonstrators_'
'budgets_'
'sw_'
'delight_'
'ac'
'Sportsmail_'
'eer_'
'nail_'
'cit_'
'Xs_'
'Mass_'
'Br'
'pepper_'
'suppliers_'
'Transcript_'
'Tiger_'
'processing_'
'monument_'
'stones_'
'tional_'
'Pele_'
'jersey_'
'colt_'
'Lin_'
'Bur_'
'tanks_'
'Martinez_'
'HM_'
'narrowly_'
'Ss_'
'Ks_'
' " '
'observers_'
'ste_'
'heal_'
'productivity_'
'Stella_'
'Koreans_'
'protective_'
'Stan_'
'jazz_'
'unaware_'
'rae_'
'focuses_'
'credibility_'
'Dad_'
'wedi_'
'Reds_'
'Matthews_'
'lust_'
'Agreement_'
'applying_'
'mice_'
'concussion_'
'Liga_'
'dle_'
'ative_'
'Zoo_'
'Eden_'
'1973_'
'welcoming_'
'Cape_'
'dirt_'
'wick_'
'Keeping_'
'click_'
'intends_'
'ladder_'
'stupid_'
'Mandy_'
'Maker_'
'counted_'
'Bear_'
'laptop_'
'assisted_'
'lining_'
'ology_'
'sections_'
'Philippe_'
'washed_'
'flies_'
'unnamed_'
'Monica_'
'refusal_'
'pact_'
'harmful_'
'P'
'tying_'
'concentration_'
'Montgomery_'
'cooled_'
'mounted_'
'disputes_'
'Hue_'
'Opposition_'
'Hanson_'
'nominations_'
'tweeting_'
'clearing_'
'revelation_'
'Konta_'
'sooner_'
'Cannes_'
'Carson_'
'hockey_'
'For'
'Zs_'
'Holmes_'
'tobacco_'
'pinto_'
'cocktail_'
'Order_'
'logical_'
'Ambassador_'
'thi'
'hav'
'shorter_'
'prestigious_'
'RO'
'Nationals_'
'Actor_'
'governance_'
'cow_'
'Indians_'
'sake_'
'Racing_'
'till_'
'nu_'
'mount_'
'capped_'
'watches_'
'tas_'
'Honda_'
'fu_'
'iy_'
'abusive_'
'Sgt_'
'Astros_'
'pricing_'
'Credit'
'distress_'
'ihs_'
'Mn_'
'compelling_'
'Brits_'
'publisher_'
'pockets_'
'tongue_'
'SUV_'
'Marsh_'
'goers_'
'ough_'
'remembers_'
'submit_'
'raft_'
'iton_'
'DeVos_'
'expectation_'
'utterly_'
'inform_'
'grows_'
'Kerry_'
'Oscars_'
'peninsula_'
'newborn_'
'appetite_'
'hin_'
'threshold_'
'skies_'
'mae_'
'bubble_'
'GM_'
'impacts_'
'Sox_'
'lanes_'
'Danish_'
'rented_'
'contestants_'
'Total_'
'Clo'
'Pogba_'
'hinted_'
'dominate_'
'committees_'
'1977_'
'rap_'
'HI_'
'sive_'
'Rafael_'
'battled_'
'Prof_'
'intelligent_'
'announces_'
'yours_'
'chiefs_'
'AH_'
'eliminated_'
'nasty_'
'basket_'
'Pt_'
'. - _'
'ize_'
'donation_'
'flexibility_'
'Franken_'
'convictions_'
'ouse_'
'refuge_'
'inquiries_'
'wrap_'
'tended_'
'Twenty_'
'washing_'
'piano_'
'echoed_'
'detected_'
'Robbie_'
'elephant_'
'arch_'
'slot_'
'Empire_'
'pe'
'lli_'
'designers_'
'brains_'
'performs_'
'clarity_'
'Jets_'
'provisions_'
'delivers_'
'ée_'
'rity_'
'Keep_'
'detect_'
'ium_'
'deployment_'
'Spacey_'
'ula_'
'showers_'
'denying_'
'infant_'
'Rail_'
'RI'
'fying_'
'Ever_'
'eto_'
'bang_'
'MT_'
'nt'
'cigarette_'
'voluntary_'
'mild_'
'ING_'
'Bird_'
'sights_'
'drafted_'
'poplar_'
'Earl_'
'Kurt_'
'medals_'
'ladies_'
'bling_'
'atop_'
'rip_'
'Manuel_'
'credited_'
'manufacturer_'
'gu_'
'bounce_'
'Simmons_'
'lats_'
'forthcoming_'
'lawmaker_'
'disappearance_'
'obsessed_'
'Trum_'
'Springs_'
'Natural_'
'tack_'
'controlling_'
'dismissal_'
'Samantha_'
'manages_'
'Richardson_'
'Nome_'
'racy_'
'reader_'
'Less_'
'Aston_'
'motive_'
'inf_'
'entrepreneur_'
'neighborhoods_'
'are'
'squeeze_'
'motivation_'
'cautious_'
'fabric_'
'hammer_'
'Moss_'
'Hamburg_'
'Dominic_'
'Analysts_'
'qs_'
'introducing_'
'Mac_'
'mist_'
'showcase_'
'absent_'
'Command_'
'Bulldogs_'
'shine_'
'perception_'
'eing_'
'cliff_'
'US'
'charter_'
'Maya_'
'suffers_'
'DA'
'poorly_'
'Roma_'
'TWA_'
'Armstrong_'
'enhanced_'
'reserved_'
'transfers_'
'impress_'
'Js_'
'Lago_'
'proceed_'
'foll_'
'yuan_'
'pic_'
'eldest_'
'folk_'
'pasta_'
'exploded_'
' ) ( _'
'Strictly_'
'Roberto_'
'Low_'
'Future_'
'Berkeley_'
'costing_'
'Hayes_'
'subjected_'
'Jonny_'
'emphasis_'
'Victory_'
'Ryanair_'
'Years_'
'abuses_'
'1975_'
'prisoner_'
'advise_'
'Rn_'
'boycott_'
'Drew_'
'Mobile_'
'tome_'
'horn_'
'advisor_'
'Leo_'
'assaults_'
'suing_'
'exceptional_'
'decisive_'
'confront_'
'caption'
'tti_'
'tely_'
'Pelosi_'
'Gomez_'
'ensured_'
'Better_'
'hsi_'
'Bath_'
'occasional_'
'Bale_'
'shaking_'
'wheelchair_'
'outlined_'
'Dog_'
'extending_'
'evolved_'
'Butler_'
'AS'
'commerce_'
'Stephanie_'
'flexible_'
'bent_'
'Nicolas_'
'Ban_'
'topics_'
'assessed_'
'poured_'
'debts_'
'govern_'
'Liu_'
'sai'
'Nunes_'
'strategies_'
'stored_'
'rant_'
'slowed_'
'explosives_'
'20'
'electrical_'
'Thanksgiving_'
'outfits_'
'wondered_'
'assigned_'
' " : _'
'marathon_'
'Pruitt_'
'dried_'
'adapt_'
'whew_'
'tu_'
'tof_'
'lacked_'
'expressing_'
'rolls_'
'tasked_'
'surged_'
'1970_'
'relies_'
'Mets_'
'consumed_'
'borrowing_'
'Stanford_'
'Macy_'
'Christine_'
'Voice_'
'Mr'
'Erin_'
'nis_'
'nay_'
'crashing_'
'Sussex_'
'Cavaliers_'
'studded_'
'nth_'
'Theater_'
'Together_'
'von_'
'ordeal_'
'presenting_'
'relied_'
'L'
'reply_'
'Players_'
'Il_'
'relieved_'
'SI'
'Guam_'
'Lionel_'
'corn_'
'1978_'
'Insurance_'
'transit_'
'Singh_'
'Shortly_'
'Nature_'
'ssion_'
'Burns_'
'360_'
'1976_'
'sweep_'
'philosophy_'
'ole_'
'Side_'
'Brother_'
'Arsene_'
'LE'
'commentary_'
'FDA_'
'representation_'
'detective_'
'ington_'
'los_'
'monster_'
'RA_'
'IRA_'
'Modi_'
'crushed_'
'Parents_'
'declining_'
'yan_'
'Bernard_'
'preview_'
'judged_'
' = _'
'weaker_'
'bowling_'
'plunged_'
'Bitcoin_'
'hunger_'
'Customs_'
'rian_'
'lenders_'
'Factor_'
'Convention_'
': : _'
'Ga_'
'tl_'
'staring_'
'Embassy_'
'richest_'
'Investment_'
'Emmy_'
't'
'retained_'
'midst_'
'delicious_'
'pa'
'administrative_'
'soared_'
'quake_'
'unconscious_'
'policing_'
'halfway_'
'Milwaukee_'
'Baghdad_'
'surveyed_'
'imagined_'
'Beyond_'
'thriller_'
'Farm_'
'VA_'
'pursued_'
'precedent_'
'66'
'tos_'
'mont_'
'li'
'Fraser_'
'nic_'
'Silver_'
'Holocaust_'
'1972_'
'AR'
'hae_'
'aggression_'
'respondents_'
'DAT_'
'impeachment_'
'contributing_'
'Try_'
'Ukip_'
'Sharon_'
'Bout_'
'br'
'hatred_'
'certainty_'
'weekends_'
'looming_'
'oi_'
'sworn_'
'stretched_'
'animated_'
'photography_'
'performer_'
'lik_'
'whens_'
'attitudes_'
'hacked_'
'di'
'negotiated_'
'Statistics_'
'juts_'
'Bo_'
'Urban_'
'staggering_'
'bankruptcy_'
'believing_'
'lar_'
'stir_'
'endorsed_'
'170_'
'Third_'
'shire_'
'po'
'rad_'
'expose_'
'Foods_'
'patience_'
'Reports_'
'refuses_'
'austerity_'
'pins_'
'exploration_'
'WikiLeaks_'
'rubber_'
'attends_'
'1968_'
'jumper_'
'Hours_'
'Full_'
'Lowe_'
'lyrics_'
'humour_'
'ye'
'Austrian_'
'woods_'
'lighter_'
'sizes_'
'hu_'
'XI_'
'biological_'
'Youth_'
'anchor_'
'Cristiano_'
'Further_'
'clearance_'
'presentation_'
'gue_'
'icy_'
'Fi_'
'strangers_'
'intro_'
'smiles_'
'farming_'
'bidding_'
'Ch'
'Cornwall_'
'weakened_'
'suck_'
'turnout_'
'tra_'
'Crawford_'
'pipe_'
'sted_'
'slept_'
'nin_'
'binge_'
'colleges_'
'Southgate_'
'Bryant_'
'Indonesian_'
'firearms_'
'boundaries_'
'Dustin_'
'3D_'
'rope_'
'scandals_'
'dividend_'
'mud_'
'neighbouring_'
'luggage_'
'22'
'Political_'
'storey_'
'drills_'
'decrease_'
'sheets_'
'statues_'
'Mayo_'
'Investors_'
'flats_'
'styles_'
'publicity_'
'define_'
'recession_'
'pale_'
'eal_'
'Heat_'
'leased_'
'Representative_'
'Nikki_'
'shade_'
'Gr'
'Target_'
'destinations_'
'HI'
'Danielle_'
'greatly_'
'Fair'
'Ellis_'
'fol_'
'heavyweight_'
'Volkswagen_'
'Â_'
'coaled_'
'Min_'
'Ibrahimovic_'
'Di'
'assaulting_'
'ln_'
'unfortunate_'
'Marvel_'
'imminent_'
'Boys_'
'orbit_'
'punched_'
'ched_'
'Boyd_'
'declaring_'
'Riyadh_'
'Private_'
'texts_'
'ethe_'
'sha_'
'Corporation_'
'Few_'
'vic_'
'participating_'
'indigenous_'
'Fernando_'
'NYC_'
'LSAT_'
'Farrell_'
'okay_'
'terrified_'
'manslaughter_'
'agriculture_'
'belong_'
'tenants_'
'Based_'
'meantime_'
'frustrating_'
'len_'
'dairy_'
'acceptance_'
'sink_'
'prone_'
'Kra'
'Air'
'cite_'
'wrist_'
'angle_'
'Stevens_'
'flip_'
'intervene_'
'haw_'
'rl_'
'peopl_'
'SE'
'1971_'
'Kids_'
'1969_'
'Fri_'
'Seth_'
'combine_'
'carriers_'
'dominance_'
'Finland_'
'campaigner_'
'coroner_'
'Neal_'
'applies_'
'AI'
'achievements_'
'relax_'
'lent_'
'Lanka_'
'isolation_'
'dan_'
'Spaniard_'
'misleading_'
'apple_'
'UBS_'
'Hi_'
'yo'
'kd_'
'str_'
'needing_'
'mogul_'
'registration_'
'sang_'
'Heathrow_'
'Gillespie_'
'Fast_'
'fireworks_'
'ric_'
'slowing_'
'feedback_'
'Coutinho_'
'reunited_'
'deleted_'
'contention_'
'yearn_'
'defendants_'
'apologise_'
'incoming_'
'eaten_'
'sensation_'
'pint_'
'pray_'
'dor_'
'pump_'
'hve_'
'fi'
'Male_'
'Half_'
'salaries_'
'eon_'
'pork_'
'dawn_'
'75'
'Iron_'
'kingdom_'
'Leon_'
'Dark_'
'.  _'
'ounce_'
'Dream_'
'Burke_'
'memoir_'
'ob_'
'eth_'
'MTV_'
'tter_'
'protesting_'
'ACA_'
'invite_'
'pill_'
'cro'
'forwards_'
'M'
'LNG_'
'vibrant_'
'surfaced_'
'rick_'
'indicates_'
'suitable_'
'jewellery_'
'autism_'
'swiftly_'
'dear_'
'blasted_'
'Sa_'
'Bears_'
'apologized_'
'zen_'
'inevitably_'
'employ_'
'adjusted_'
'scent_'
'Trevor_'
'foreigners_'
'physique_'
'genre_'
'Serbia_'
'reign_'
'neighboring_'
'Knicks_'
'holy_'
'Corker_'
'McIlroy_'
'classroom_'
'twos_'
'yea'
'Ivan_'
'50s_'
'bash_'
'pitches_'
'nte_'
'hee_'
'B'
'precise_'
'tey_'
'. '_'
'Barclays_'
'lour_'
'hashtag_'
'Fowler_'
'tube_'
'Somme_'
'Brett_'
'ideology_'
'distributed_'
'beats_'
'Hie_'
'sA'
'bullets_'
'Thanh_'
'Middlesbrough_'
'Wi_'
'injuring_'
'closes_'
'Devon_'
'proceeds_'
'regain_'
'Ro_'
'Damascus_'
'sl'
'Song_'
'framework_'
'touches_'
'turmoil_'
'literature_'
'Opera_'
'heating_'
'Lang_'
'une_'
'freezing_'
'lacking_'
'Lords_'
'cle_'
'soaring_'
'internationally_'
'enforce_'
'ances_'
'permitted_'
'occurs_'
'withdrawn_'
'beans_'
'rubbish_'
'blowing_'
'woes_'
'cheating_'
'Yn_'
'TA'
'My'
'49ers_'
'Newton_'
'relate_'
'Fargo_'
'sacrifice_'
'contestant_'
'Ralph_'
'southeast_'
'IS'
'Free'
'Goff_'
'showdown_'
'ego_'
'nr_'
'jurors_'
'gangs_'
'fixtures_'
'ditch_'
'Alli_'
'Jame_'
'database_'
'Lennon_'
'sexuality_'
'Rump_'
'Fo_'
'complications_'
'uploaded_'
'cies_'
'patent_'
'crashes_'
'cared_'
'Assange_'
'Noah_'
'traders_'
'Hibs_'
'it'
'bug_'
'News'
'supposedly_'
'ousted_'
'entertaining_'
'QC_'
'halted_'
'handsome_'
'Mal'
'skipper_'
'naval_'
'vd_'
'genes_'
'basement_'
'solely_'
'Got_'
'withdrew_'
'diplomacy_'
'RS'
'Luther_'
'Estate_'
'Barnes_'
'aisle_'
'aed_'
'sters_'
'slice_'
'y'
'Waters_'
'flesh_'
'cops_'
'container_'
'shout_'
'lemon_'
'PS_'
'sman_'
'7'
'churches_'
'permanently_'
'duration_'
'ene_'
'suspend_'
'maintains_'
'Amid_'
'Ike_'
'Currently_'
'broker_'
'suited_'
'Kil'
'no'
'Cheryl_'
'Priebus_'
'intend_'
'amateur_'
'tur'
'Sex_'
'Mills_'
'circles_'
'copper_'
'mus_'
'Ontario_'
'yacht_'
'secretly_'
'undergoing_'
'decorated_'
'Amsterdam_'
'upside_'
'pla'
'Gay_'
'pulls_'
' : $ _'
'pre'
'wisdom_'
'fueled_'
'math_'
'Stat_'
'Sainsbury_'
'champagne_'
'Geneva_'
'fashioned_'
'catches_'
'survivor_'
'56'
'productive_'
'indictment_'
'clues_'
'sore_'
'mage_'
'messaging_'
'editorial_'
'ehr_'
'hsa_'
'By'
'999_'
'minorities_'
'spike_'
'F1_'
'presumably_'
'debates_'
'skull_'
'convert_'
'gentle_'
'wd_'
'lipstick_'
'rounded_'
'rfom_'
'Buffalo_'
'oth_'
'Frump_'
'chased_'
' ) '
'rey_'
'reversed_'
'responsibilities_'
'qualifier_'
'helicopters_'
'Ara'
'Going_'
'graduated_'
'imposing_'
'Lynn_'
'rt'
'ferry_'
'listened_'
'Elsewhere_'
'CF'
'unusually_'
'hills_'
'electorate_'
'yields_'
'alleges_'
'tuition_'
'specially_'
'inspiring_'
'ites_'
'tournaments_'
'con'
'mines_'
'Hilton_'
'profession_'
'tore_'
'Hopefully_'
'surviving_'
'eir_'
'spiritual_'
'reflection_'
'Base_'
'revival_'
'trap_'
'organ_'
'smartphones_'
'courtesy_'
'Students_'
'her'
'athletic_'
'Check_'
'ed'
'ark_'
'ros_'
'frmo_'
'Forum_'
'selfies_'
'aviation_'
'overdose_'
'attributed_'
'bikes_'
'Franco_'
'literary_'
'Thames_'
'Bieber_'
'MC'
'Boxing_'
'gers_'
'profound_'
'prevention_'
'Roxy_'
'frock_'
'Tru'
'Bolton_'
'widow_'
'averaged_'
'cease_'
'convincing_'
'tics_'
'lightly_'
'factories_'
'111_'
'mis_'
'floods_'
'putt_'
'Dale_'
'**_'
'l'
'NAFTA_'
'Florence_'
'resorts_'
'enabled_'
'Tramp_'
'IT'
'uy_'
'Nasdaq_'
'Net_'
'learnt_'
'etd_'
'Photos_'
'Clearly_'
'wheels_'
'Outside_'
'neighbourhood_'
'touring_'
'shelters_'
'Snap_'
'ED_'
'Cork_'
'Americana_'
'crops_'
'republic_'
'Petersburg_'
'BST_'
'inmate_'
'fallout_'
'emotionally_'
'drain_'
'Living_'
'AW_'
'studios_'
'defeats_'
'creatures_'
'casino_'
'existed_'
'constituency_'
'rty_'
'leagues_'
'sown_'
'seize_'
'jus_'
'tch_'
'58'
'plates_'
'Payne_'
'span_'
'intentions_'
'Gatland_'
'stein_'
'shortages_'
'objective_'
'broadband_'
'belonging_'
'S'
'fuelled_'
'Grammy_'
'Dozens_'
'allege_'
'purse_'
'reckless_'
'fie_'
'rifle_'
'lb_'
'correctly_'
'likelihood_'
'accidents_'
'Coventry_'
'orth_'
'identifying_'
'trim_'
'RS_'
'Meet_'
'healthier_'
'TMZ_'
'Kislyak_'
'Everybody_'
'Churchill_'
' . '
'functions_'
'Hardy_'
'la'
'explicit_'
'ab'
'recommends_'
'quarterly_'
'preparations_'
'ju'
'hid_'
'Race_'
'supplier_'
'albums_'
'framed_'
'adaptation_'
'committing_'
'Philippine_'
'Mirror_'
'incentive_'
'default_'
'baking_'
'flagship_'
'Richie_'
'Richards_'
'partial_'
'succeeded_'
'lid_'
'Whole_'
'Eur_'
'Dana_'
'Farage_'
'aerial_'
'Wal'
'radiation_'
'Nate_'
'105_'
'speeding_'
'Spieth_'
'Environment_'
'Avery_'
'grim_'
'breathe_'
'uing_'
'mi'
'proves_'
'captioned_'
'bids_'
'recipes_'
'theories_'
'Android_'
'Ale'
'Wildlife_'
'Hazard_'
'Bruno_'
'Detective_'
'boring_'
'vest_'
'Americas_'
'mechanism_'
'brink_'
'Stock_'
'deduction_'
'Ariana_'
'fa'
'siege_'
'contested_'
'overwhelmed_'
'accounted_'
'Wet_'
'charm_'
'1963_'
'Libyan_'
'bun_'
'Strange_'
'villa_'
'CBD_'
'yng_'
'authorized_'
'airstrikes_'
'DOA_'
'sey_'
'Aid_'
'northwest_'
'Gardens_'
'kt_'
'comm_'
'Tell_'
'benefited_'
'sprawling_'
'shi'
'nut_'
'colourful_'
'margins_'
'fuels_'
'instances_'
'Tromp_'
'Bos'
'Beth_'
'21'
'ady_'
'fortunate_'
'Super'
'Albion_'
'Library_'
'warehouse_'
'Singer_'
'outright_'
'cou_'
'Carlton_'
'compiled_'
'appointments_'
'Thurs_'
'R'
'cement_'
'ased_'
'Anfield_'
'Note_'
'Motor_'
'trash_'
'trace_'
'laundering_'
'newest_'
'wardrobe_'
'PS'
'Frenchman_'
'shouted_'
'Fourth_'
'650_'
'happier_'
'valid_'
'nationally_'
'fan'
'Gonzalez_'
'MS'
'quirky_'
'impacted_'
'aggravated_'
'thees_'
'vegan_'
'fortnight_'
'Webb_'
'companion_'
'viable_'
'Rudd_'
'packages_'
'Walmart_'
'lo'
'northeast_'
'Germain_'
'Panthers_'
'beck_'
'lender_'
'firsts_'
'sday_'
'poet_'
'sq_'
'ited_'
'Watt_'
'abs_'
'Hadid_'
'recommendation_'
'ng'
'boosting_'
'tram_'
'otter_'
'abo'
'Footage_'
'Assistant_'
'unwanted_'
'motorists_'
'irst_'
'Southeast_'
'plug_'
'countryside_'
'aunt_'
'G20_'
'retiring_'
'unite_'
'server_'
'Trophy_'
'finest_'
'divisive_'
'sf_'
'ots_'
'unrest_'
'sneakers_'
'shook_'
'serial_'
'eds_'
'permits_'
'supreme_'
'laughter_'
'alerted_'
'rested_'
'dancers_'
'milestone_'
'cou'
'Matty_'
'corrupt_'
'Buck_'
'rows_'
'96'
'surveys_'
'onic_'
'organizers_'
'ado_'
'unpopular_'
'Finn_'
'gun'
'Yorker_'
'Winston_'
'Rupert_'
'ón_'
'whereas_'
'Grump_'
'Ty_'
'condemn_'
'ode_'
'fragile_'
'earliest_'
'Sunni_'
'Schools_'
'115_'
'bee'
'dar'
'Sachs_'
'Le'
'cried_'
'McMaster_'
'separation_'
'12'
'Kay_'
'slower_'
'etc_'
'clashed_'
'pools_'
'lorry_'
'fle'
'corners_'
'accent_'
'Body_'
'MP'
'Che_'
'negotiation_'
'concerts_'
'Presidents_'
'hander_'
'Stop_'
'Program_'
'Stephens_'
'aa_'
'thane_'
'identical_'
'drilling_'
'accountable_'
'lengths_'
'greenhouse_'
'yu_'
'locker_'
'ats_'
'estranged_'
'Hogan_'
'oni_'
'Ducks_'
'fluid_'
'Yesterday_'
'Turin_'
'taker_'
'Zoe_'
'balcony_'
'haev_'
'WA'
'Communications_'
'hon_'
'Marks_'
'55'
'W'
'Follow_'
'owe_'
'eventual_'
'super'
'Start_'
'Industry_'
'lounge_'
'flashed_'
'ident_'
'ahve_'
'igh_'
'complaining_'
'Jess_'
'6'
'predominantly_'
'wel_'
'vn_'
'pl'
'chopped_'
'ou'
'Pur'
'fares_'
'Venezuelan_'
'Planet_'
'Gavin_'
'heightened_'
'ie'
'chaotic_'
'ially_'
'CS'
'wile_'
'Cat_'
'bombers_'
'Champion_'
'installation_'
'ag'
'whistle_'
'violating_'
'lier_'
'Someone_'
'Cl'
'Wong_'
'acute_'
'bilateral_'
'Pro'
'evolution_'
'Category_'
'Lebanese_'
'Ali'
'gov_'
'garlic_'
'supplied_'
'obligations_'
'Glen_'
'fe'
'ug_'
'lively_'
'hvae_'
'calculated_'
'achieving_'
'off'
'Ankara_'
'pause_'
'bolster_'
'Records_'
'themes_'
'sequel_'
'distinct_'
'swift_'
'exam_'
'Sources_'
'rth_'
'sec_'
'ordering_'
'Ir'
'Colt_'
'pitcher_'
'genius_'
'flaunted_'
'Cara_'
'Bunt_'
'jungle_'
'cr'
'cattle_'
'Am'
'feud_'
'ER'
'Hopkins_'
'punished_'
'ara'
'Cruise_'
'tribunal_'
'implementation_'
'filmmaker_'
'sympathy_'
'54'
'she'
'Away_'
'65'
'halftime_'
'unfortunately_'
'90'
'mature_'
'confirms_'
'trusts_'
'flame_'
'ax_'
'Indigenous_'
'Alison_'
'ket_'
'ides_'
'eople_'
'adjust_'
'CT_'
'Windsor_'
'Carroll_'
'quicker_'
'Kerr_'
'Dal'
'undoubtedly_'
'ica_'
'grabbing_'
'fel_'
'clutch_'
'cas_'
'steadily_'
'ethical_'
'Mad_'
'Actress_'
'podcast_'
'portrayed_'
'audit_'
'sponsor_'
'fathers_'
'NS'
'monetary_'
'gloves_'
'transported_'
'AD'
'67'
'Non'
'stalled_'
'outspoken_'
'consulting_'
'ath_'
'sthe_'
'pointer_'
'Tues_'
'charts_'
'bes_'
'wells_'
'participated_'
'Broad_'
'tolerance_'
'postseason_'
'Gas_'
'contractors_'
'boasted_'
'inclusive_'
'sses_'
'lacks_'
'rumors_'
'rivers_'
'clue_'
'that'
'ives_'
'elevated_'
'gently_'
'dismiss_'
'disciplinary_'
'ce'
'Across_'
'77'
'respective_'
'notified_'
'sack_'
'Indies_'
'evacuate_'
'ruin_'
'knocking_'
'tial_'
'peopled_'
'marched_'
'freely_'
'breasts_'
'gray_'
'Scar'
'Magistrates_'
'bark_'
'Rand_'
'Culture_'
'rr_'
'DI'
'transaction_'
'modelling_'
'tting_'
'Alonso_'
'tem_'
'jest_'
'disagree_'
'cancers_'
'critically_'
'agreeing_'
'bd_'
'Stamford_'
'standings_'
'cheer_'
'Porter_'
'ym_'
'Steelers_'
'Kor'
'85'
'thn_'
'crisp_'
'sions_'
'fridge_'
'Home'
'vers_'
'qualities_'
'examining_'
'Sun'
'coordinator_'
'Legal_'
'planted_'
'0s_'
'misses_'
'gaps_'
'coul_'
'Kur'
'Tiffany_'
'TS_'
'ba'
'accuses_'
'gd_'
'cart_'
'womb_'
'ml_'
'Breitbart_'
'SpaceX_'
'accessories_'
'back'
'Strong_'
'NT'
'lers_'
'Biden_'
'82'
'resource_'
'nigh_'
'urges_'
'forensic_'
'contrary_'
'servants_'
'beast_'
'Claude_'
'San'
'jaw_'
'Bolt_'
'Rosa_'
'Airbnb_'
'Valencia_'
'underwear_'
'ev'
'NE'
'Ry_'
'spite_'
'kissing_'
'grace_'
'acquire_'
'rehabilitation_'
'briefed_'
'Use_'
'Senators_'
'Revolution_'
'sleeves_'
'; _'
'nd'
'felony_'
'Bulgarian_'
'contractor_'
'rum_'
'limiting_'
'assassination_'
'Audi_'
'Quebec_'
'unpaid_'
'integration_'
'leap_'
'disorders_'
'bock_'
'Kieran_'
'Pop_'
'confirming_'
'punt_'
'sadly_'
'hel_'
'boxer_'
'leverage_'
'cups_'
'enduring_'
'sidelines_'
'proudly_'
'belly_'
'consequence_'
'revive_'
'spacecraft_'
'batteries_'
'15'
'silly_'
'Tha'
'Dis_'
'Kimmel_'
'ille_'
'deter_'
'embarrassed_'
'Working_'
'shelves_'
'Lea_'
'bac_'
'adoption_'
'rehab_'
'alternatives_'
'Leonardo_'
'2030_'
'Bou'
' , '
'sweat_'
'Ry'
'Med'
'belonged_'
'sums_'
'provincial_'
'Index_'
'enhance_'
'Froome_'
'wished_'
'NCAA_'
'Beyonce_'
'rand_'
'ouch_'
'courtroom_'
'contentious_'
'DD_'
'figured_'
'ising_'
'shelf_'
'Dell_'
'shutdown_'
'alien_'
'staffers_'
'attracting_'
'astonishing_'
'rats_'
'distinctive_'
'Gemma_'
'ver'
'mor'
'ho'
'Sla'
'duck_'
'reiterated_'
'Animal_'
'Ag_'
'Sky'
'Poor_'
'Stan'
'come'
'flows_'
'Trans'
'CNNMoney_'
'novels_'
'Universal_'
'components_'
'Cairo_'
'25'
'rebound_'
'In'
'93'
'rthe_'
'lest_'
'Ottawa_'
'hile_'
'Kabul_'
'Troy_'
'Bi_'
'reo'
'Santos_'
'star'
'finishes_'
'ums_'
'cave_'
'95'
'71'
'eis_'
'goodbye_'
'Val'
'veto_'
'Relations_'
'raided_'
'ad'
'Han'
'priest_'
'slave_'
'ERA_'
'paramedics_'
'his'
'Mum_'
'succession_'
'magical_'
'Something_'
'Barrett_'
'Alexandra_'
'Ser'
'UAE_'
'unchanged_'
' : '
'Pra'
'soup_'
'Inspector_'
'contents_'
'is'
'Gina_'
'hostage_'
'Evert_'
'Companies_'
'oz_'
'aggressively_'
'bathrooms_'
'dre'
'conversion_'
'True_'
'Tate_'
'Bet'
'ö'
'tick_'
'southwest_'
'Cr'
'Vt_'
'propose_'
'cont_'
'Brain_'
'án_'
'grandparents_'
'str'
'destroying_'
'wildfires_'
'contender_'
'handbag_'
'blanket_'
'Nar'
'inspection_'
'ghts_'
'cheek_'
'md_'
'Bowen_'
'Bronx_'
'sensible_'
'Bachelorette_'
'majors_'
'lesser_'
'. -- _'
'wha_'
'opting_'
'nge_'
'Grey_'
'lbs_'
'directions_'
'references_'
'kidney_'
'Walk_'
'inability_'
'ann_'
'gra'
'Eva_'
'wherever_'
'pity_'
'dealer_'
'Prior_'
'or'
'Memphis_'
'Freeman_'
'cl'
'graduates_'
'CE'
'allied_'
'polite_'
'Tex_'
'tactic_'
'Match_'
'elder_'
'traditions_'
'Tai'
'smash_'
'restrict_'
'Hel'
'Regional_'
'Wat'
'Salt_'
'Mis'
'lens_'
'nne_'
'issuing_'
'Hood_'
'expires_'
'criteria_'
'Wagner_'
'dug_'
'Politics_'
'Operation_'
'Johnston_'
'cd_'
'Indianapolis_'
'overwhelmingly_'
'fringe_'
'cooperate_'
'conclude_'
'ques_'
'dos_'
'Jun_'
'CC'
'appoint_'
'Yahoo_'
'connecting_'
'Throughout_'
'Abedi_'
'Television_'
'nda_'
'blank_'
'agricultural_'
'Argentine_'
'rainfall_'
'accommodate_'
'Challenge_'
'ught_'
'lawn_'
'colored_'
'Magazine_'
'Cardinals_'
'buys_'
'glowing_'
'Jenny_'
'Digital_'
'organs_'
'incentives_'
'new'
'lso_'
'homeland_'
'sequence_'
'backgrounds_'
'stormed_'
'lottery_'
'ator_'
'wasted_'
'ito_'
'Say_'
'tra'
'thirty_'
'Independence_'
'tn'
'Windows_'
'Timothy_'
'cked_'
'­_'
'AF'
'oer_'
'whi_'
'stead_'
'plagued_'
'Origin_'
'blaming_'
'pn_'
'Middleton_'
'fiesta_'
'72'
'qualification_'
'jn_'
'Player_'
'vis_'
'fortunes_'
'Jobs_'
'73'
'sp'
'transparent_'
'bu'
'foist_'
'Cymru_'
'vin_'
'males_'
'overturned_'
'sour_'
'sleek_'
'challenger_'
'System_'
'war'
'turnover_'
'yers_'
'over'
'experimental_'
'Cro'
'Chad_'
'capability_'
'pig_'
'Panama_'
'salmon_'
'ote_'
'airs_'
'Yu'
'si'
'ported_'
'tapped_'
'mold_'
'Columbus_'
'symbolic_'
'yi_'
'ex'
'dow_'
'banner_'
'beautifully_'
'Fiona_'
'TO_'
'MRI_'
'rr'
'Housing_'
'tags_'
'linking_'
'backup_'
' ' ' _'
'Round_'
'Holiday_'
'Hassan_'
'Allan_'
'Borussia_'
'thr_'
'13'
'Harbour_'
'tre'
'slick_'
'Tree_'
'hyper'
'component_'
'das_'
'Campaign_'
'Kurds_'
'cognitive_'
'Francois_'
'popping_'
'dignity_'
'Rashford_'
'tricks_'
'rains_'
'Scaramucci_'
'wt_'
'Kaepernick_'
'Mich_'
'Disease_'
'ually_'
'triggering_'
'inherited_'
'denial_'
'Standing_'
' ' '
'loads_'
'lat'
'59'
'potatoes_'
'outsider_'
'rs'
'socially_'
'supermarkets_'
'relying_'
'inc_'
'congress_'
'Star'
'organisers_'
'one'
'interactions_'
'Ree'
'sine_'
'LI'
'Kn_'
'birdie_'
'Judiciary_'
'dia_'
'Crimea_'
'electronics_'
'Shu'
'Native_'
'gasoline_'
'indicating_'
'alleging_'
'Lara_'
'Forbes_'
'stern_'
'ala'
'DEA_'
'***_'
'switching_'
'bargain_'
'Leslie_'
'hurricanes_'
'Durham_'
'ret_'
'Talk_'
'Ste_'
'Lindsay_'
'Lei'
'classical_'
'goo_'
'nationalists_'
'gar_'
' " ) , _'
'sovereignty_'
'homicide_'
'Wiley_'
'hwo_'
'Rad'
'LED_'
'ES'
'sheep_'
'Ministers_'
'GI'
'phat_'
'posters_'
'aback_'
'disrupt_'
'Shaun_'
'ó'
'encourages_'
'colors_'
'Resort_'
'Buy_'
'injection_'
'Smart_'
'Eye_'
'warmer_'
'justified_'
'flagged_'
'Gaga_'
'talents_'
'tactical_'
'Nevertheless_'
'AIDS_'
'deer_'
'New'
'Gro'
'Box_'
'camping_'
'encounters_'
'rec_'
'dictator_'
'podium_'
'hea'
'coins_'
'88'
'transplant_'
'Thunder_'
'gifted_'
'Du_'
'banker_'
'ssed_'
'shit_'
'Maxwell_'
'ju_'
'finely_'
'eff_'
'eas_'
'Lion_'
'DO'
'per'
'Tele'
'wines_'
'doll_'
'unidentified_'
'who'
'technically_'
'es'
'urgency_'
'ine'
'Shannon_'
'LO'
'Clare_'
'Adele_'
'tucked_'
'helmet_'
'relentless_'
'Up'
'GPS_'
'Buckingham_'
'ts'
'premises_'
'disasters_'
'fiance_'
'lend_'
'wiped_'
'Jill_'
'wor'
'hats_'
'whoever_'
'persistent_'
'ammunition_'
'wll_'
'sparking_'
'congressman_'
'McLaren_'
'FO'
'lifts_'
'consume_'
'Wellington_'
'whites_'
'persons_'
'its'
'Fro'
'Bn_'
'repairs_'
'popped_'
'encountered_'
'seasonal_'
'Dance_'
'sigh_'
'r'
'Carol_'
'5million_'
'centrist_'
'Swans_'
'troubles_'
'ak'
'spa'
'imported_'
'78'
'separately_'
'68'
'borne_'
'Sta_'
'pals_'
'Packers_'
'bridges_'
'anther_'
'premature_'
'arrivals_'
'accomplished_'
'pots_'
'install_'
'drill_'
'Aguero_'
'tho'
'bl'
'les'
'Remember_'
'Miranda_'
'rpe'
'offerings_'
'elbow_'
'sacred_'
'edges_'
'poetry_'
'Rush_'
'Etihad_'
'martial_'
'Cassidy_'
'An'
'silk_'
'deliberate_'
'Dawn_'
'hash_'
'stiff_'
'alo_'
'Broncos_'
'creature_'
'shall_'
'Fitzgerald_'
'curves_'
'Bir'
'lation_'
'aM'
'pay'
'dr'
'48'
'220_'
'ruined_'
'leggings_'
'monitored_'
'leas_'
'MO'
'couch_'
'Prevention_'
'ui_'
'oom_'
'turf_'
'Wo_'
'Jazz_'
'CI'
'94'
'maps_'
'lyn_'
'honey_'
'ignoring_'
'Jul_'
'whe'
'navigate_'
'hardware_'
'surplus_'
'setback_'
'sson_'
'ita_'
'leaf_'
'Miles_'
'whi'
'Croatia_'
'recruited_'
'endangered_'
'resting_'
'nA'
'healing_'
'gong_'
'deputies_'
'Sergey_'
'hly_'
'Malaysian_'
'fraction_'
'tation_'
'ideological_'
'theaters_'
'pra'
'Vanessa_'
'exchanged_'
'enterprise_'
'IC_'
'Europeans_'
'uh_'
'orn_'
'oed_'
'delegation_'
'nerves_'
'cru'
'ON'
' " ) ._'
'adapted_'
'Good'
'whip_'
'oned_'
'hated_'
'Sil'
'hal_'
'Bahrain_'
'CE_'
'Band_'
'pond_'
'cares_'
'TOWIE_'
'One'
'quo_'
'directing_'
'Abbas_'
'boo_'
'poison_'
'pier_'
'dine_'
'Sevilla_'
'Lower_'
'":[],"_'
'singled_'
'overweight_'
'230_'
'darkness_'
'Sierra_'
'Geelong_'
'slashed_'
'Fish_'
'trendy_'
'thoroughly_'
'potent_'
'disappear_'
'Brothers_'
'blend_'
'vey_'
'two'
'Toby_'
'rode_'
'76'
'slash_'
'bend_'
'stuffed_'
'Run_'
'Zuckerberg_'
'backyard_'
'shi_'
'pers_'
'Hugo_'
'Sheeran_'
'essay_'
'1964_'
'Tea_'
'Marines_'
'pairs_'
'Ari'
'whales_'
'Muhammad_'
'Celtics_'
'wives_'
'Manson_'
'lonely_'
'Vera_'
'Lives_'
'applicants_'
'Sinn_'
'Pay_'
'use'
'Cy'
'1945_'
'és_'
'wat_'
'pd_'
'positioned_'
' " ?_'
'simultaneously_'
'lic_'
'Ot_'
'Bible_'
'ora_'
'sidelined_'
'reunion_'
'parallel_'
'obligation_'
'Burton_'
'unsure_'
'footy_'
'battered_'
'Somerset_'
'establishing_'
'aL'
'Phillip_'
'swap_'
'void_'
'Mind_'
'jam_'
'Tennis_'
'Exeter_'
'mobility_'
'ey'
'40s_'
'gaming_'
'fractured_'
'Flake_'
'languages_'
'Mach_'
'24'
'competitor_'
'ae'
'tim'
'yar_'
'naming_'
'ME'
'rhythm_'
'fn_'
'92'
'unpredictable_'
'asthma_'
'asid_'
'Christina_'
'obsession_'
'SO'
'sri'
'Pink_'
'Naomi_'
'Ju'
'tio_'
'goat_'
'Heights_'
'pp_'
'apo'
'administrator_'
'Die'
'Sacramento_'
'nonsense_'
'lightning_'
'intake_'
'Record_'
'Main_'
'Ft_'
'rewards_'
'dde'
'cyclist_'
''  _'
'. '
'Fay_'
'charming_'
'Sure_'
'candid_'
'Mi_'
'hts_'
'execute_'
'compromised_'
'23'
'loft_'
'pledges_'
'Downs_'
'females_'
'booth_'
'... _'
'tales_'
'kidnapping_'
'cos_'
'Ra_'
'Ramos_'
'Ko_'
'Davy_'
'm'
'  '_'
'Bork_'
'83'
'rubble_'
'Liz_'
'closet_'
'TS'
'CC_'
'ards_'
'unt_'
'ove'
'Texans_'
' ) :_'
'dock_'
'slump_'
'bre'
'Hal_'
'shoots_'
'shapes_'
'offender_'
'Abbey_'
'undo_'
'punish_'
'Vol'
'Sal'
'Keys_'
'ion'
' .._'
'gel_'
'confidential_'
'photographers_'
'corporation_'
'Mann_'
'preference_'
'publican_'
'Ant_'
'departed_'
'Castro_'
'Politico_'
'Lancashire_'
'outer_'
'toast_'
'territories_'
'rea'
'ere'
'seated_'
'volumes_'
'eM'
'multi'
'Parks_'
'Cody_'
'imp_'
'scattered_'
'allowance_'
'nc_'
'Nie'
'Direct_'
'thir_'
'builds_'
'Joy_'
'nw_'
'sho'
'captures_'
'Jurgen_'
'FM_'
'recipients_'
'intact_'
'Paula_'
'fiend_'
'recuse_'
'Gate_'
'pres_'
'cage_'
'DailyMail_'
'vr_'
'honored_'
'Tn_'
'Chin_'
'satisfaction_'
'Jacobs_'
'Diamond_'
'DNC_'
'coiled_'
'Horn_'
'19'
'Large_'
'tonne_'
'alarming_'
'Congo_'
'Save_'
'NO'
'chill_'
'Opening_'
'fod_'
'communist_'
'Jorge_'
'Previous_'
'Kenneth_'
'Abraham_'
'def_'
'dioxide_'
'premiership_'
'Thatcher_'
'Blasio_'
'Beast_'
'Gur'
'Airbus_'
'nded_'
'concentrate_'
'Says_'
'gro'
'easing_'
'fiery_'
'Fle'
'prescribed_'
'Rihanna_'
'comfortably_'
'Zo'
'zd_'
'persona_'
'ils_'
'Partners_'
'Gill_'
'strained_'
'sailing_'
'Tel_'
'vitamin_'
'resilience_'
'programming_'
'investigator_'
'atic_'
'Block_'
'availability_'
'Out'
'murdering_'
'lr_'
'Yellen_'
'Rosenstein_'
'ife_'
'hybrid_'
'Isa'
'Lome_'
'AP'
'Gd_'
'saga_'
'rei'
'burger_'
'Monte_'
'Chanel_'
'Horse_'
'sm'
'aD'
'Ultimately_'
'recruiting_'
'1966_'
'Presidential_'
'preserved_'
'Current_'
'princess_'
'Colbert_'
'Sales_'
'sofa_'
'inger_'
'amongst_'
'Organisation_'
'ede'
'53'
'age'
'sandwich_'
'Oo'
'Flight_'
'prohibited_'
'Tre'
'Ln_'
'AT'
'jihadists_'
'Give_'
'Gala_'
'1965_'
'smiled_'
'Sou'
'Behind_'
'constructed_'
'Au'
'Kalanick_'
'Co'
'resistant_'
'tol_'
'gle_'
'constituents_'
'RB_'
'Mi'
'motorcycle_'
'GA'
'ality_'
'logic_'
'consciousness_'
'volcano_'
'specialists_'
'dossier_'
'particles_'
'Vn_'
'vacant_'
'binding_'
'Kelley_'
'Steele_'
'trough_'
'tae_'
'dell_'
'hefty_'
'30'
'televised_'
'respects_'
'mers_'
'harassed_'
'Wa_'
'Alfred_'
'Planned_'
'enters_'
'Kyrgios_'
'"},"_'
'lure_'
'par'
'Mauricio_'
'beard_'
'Hat_'
'8'
'pc_'
'employs_'
'pornography_'
'cracked_'
'col_'
'bodily_'
'Nu'
'aB'
'Contact_'
'Morocco_'
'structural_'
'identities_'
'exhausted_'
'ati_'
'immense_'
'crush_'
'cor'
'chemistry_'
'Universe_'
'laser_'
'glorious_'
'processed_'
'Zan'
'thrilling_'
'nam_'
'bers_'
'2nd_'
'remark_'
'shattered_'
'judiciary_'
'Green'
'verbal_'
'paths_'
'ever'
'Jn_'
'minus_'
'skiing_'
'gunfire_'
'Dem_'
'humble_'
'oen_'
'nga_'
'Simone_'
'volatile_'
'Israelis_'
'hikes_'
'Tro'
'Criminal_'
'ews_'
'clips_'
'assembled_'
'historian_'
'bucket_'
'Noel_'
'Protesters_'
'scratch_'
'Zn_'
'Pearson_'
'Appeals_'
'vows_'
'skeptical_'
'ai'
'Aleppo_'
'57'
'destructive_'
'ene'
'bleak_'
'relay_'
'zn_'
'Col_'
'Bake_'
'boo'
'scam_'
'responds_'
'mins_'
'blows_'
'9th_'
'qn_'
'investigative_'
'fou_'
'Somali_'
'inspector_'
'contra_'
'denounced_'
'vity_'
'N'
'uit_'
'deploy_'
'ana'
'sensors_'
'98'
'entity_'
'Sidney_'
'Fields_'
'lar'
'therm_'
'siad_'
'black'
'cot_'
'brawl_'
'ama_'
'05'
'pupil_'
'mal_'
'envoy_'
'ia'
'aft'
'deliveries_'
'cleaner_'
'C'
'Dn_'
'wre_'
'getaway_'
'Kel'
'Fn_'
'81'
'Boy'
'slated_'
'Mall_'
'Browns_'
'exploitation_'
'hottest_'
'stats_'
'retaliation_'
'exploit_'
'AL'
'NC'
'Pride_'
'en'
'codes_'
'Ao'
'potato_'
'OR'
'waking_'
'policeman_'
'Nor'
'FT_'
'Turing_'
'mentor_'
'consuming_'
'240_'
'112_'
'ened_'
'Shell_'
'nearest_'
'considerably_'
'Updated_'
'oro'
's'
'palm_'
'adequate_'
'tablets_'
'Gn_'
'Shore_'
'Electric_'
', " _'
'Hn_'
'awaited_'
'lor_'
'll'
'tng_'
'stretching_'
'anti'
'litter_'
'waving_'
'residency_'
'bac'
'surf_'
'maiden_'
'Judy_'
'Griffiths_'
'drum_'
'horizon_'
'grams_'
'accuracy_'
'entrepreneurs_'
'60'
'noe_'
'1930s_'
'sculpture_'
'pi'
'indoor_'
'Et_'
'Caucus_'
'rod_'
'Lance_'
'Fifth_'
'cab_'
'cellphone_'
'Jon'
'descent_'
'VR_'
'Sur'
'IA'
'vel_'
'nes'
'edt_'
'Markets_'
'Clayton_'
'lions_'
'insurer_'
'ay'
'Ricky_'
'CR'
'scrapped_'
'sco_'
'norm_'
'vegetable_'
'reassure_'
'thec_'
'poorest_'
'Serie_'
'Newport_'
'refund_'
'Var'
'Camilla_'
'wich_'
'mocked_'
'completion_'
'timeline_'
'Cal'
'rsi'
'netted_'
'bred_'
'Preston_'
'Morata_'
'superior_'
'ower_'
'Patel_'
'Juncker_'
'Pitt_'
'Baseball_'
'childcare_'
'Drake_'
'Koeman_'
'breached_'
'antibiotics_'
'experiments_'
'jd_'
'fre'
'cti'
'Rt_'
'hut_'
'Glen'
'Clement_'
'ssi'
'NI'
'liability_'
'aC'
'Norfolk_'
'HA'
'Lindsey_'
'Briton_'
'ih_'
'pouring_'
'concessions_'
'Centers_'
'NSA_'
'Liberals_'
'play'
'laughs_'
'spectacle_'
'smuggling_'
'Glass_'
'deed_'
'175_'
'deadliest_'
'Ine'
'Cummins_'
'86'
'ada'
'magnificent_'
'ire'
'et'
'Mana'
'Kourtney_'
'supremacist_'
'sta'
'rel'
'Oe'
'festivals_'
'Kanye_'
'iers_'
'Ni'
'xn_'
'% '
'lle'
'contracted_'
'clinics_'
'MW_'
'planets_'
'Er_'
'halls_'
'Rajoy_'
'Od_'
'sustain_'
'numb_'
'ballots_'
'far'
'Vikings_'
'Riley_'
'Auckland_'
'rightly_'
'sadi_'
'gation_'
'RA'
'bombshell_'
'Eo'
'70'
'knives_'
'Temple_'
'Katherine_'
'Wolf_'
'labels_'
'ids_'
'Gt_'
'straightforward_'
'legislature_'
'je'
'shaken_'
'Cn_'
'identification_'
'Durant_'
'exhibit_'
'Omar_'
'stretches_'
'peri'
'amendments_'
'Grade_'
'resumed_'
'Chang_'
'dl_'
'Bradford_'
'Bloom_'
' :  _'
'Pn_'
'Malta_'
'Dee_'
'dea'
'Per_'
'frankly_'
'flavour_'
'fat'
'sank_'
'xed_'
'reu'
'Courtney_'
'Com_'
'dump_'
'masks_'
'abilities_'
'wok_'
'ctions_'
'av_'
'Results_'
'Millions_'
'Ge'
'wildly_'
'Nt_'
'Lost_'
'FI'
'NA_'
'akin_'
'rewarded_'
'Help_'
'so'
'CDC_'
'Dou'
'Ahead_'
'af'
'Sutton_'
'you'
'Cohn_'
'ifs_'
'EM'
'ean'
'occupation_'
'paperwork_'
'lty_'
'Sinclair_'
'pavement_'
'contend_'
'edited_'
'unexpectedly_'
' ( '
'pped_'
'baked_'
'Adding_'
'Find_'
'instructed_'
'grain_'
'angered_'
'obese_'
'rational_'
'Chance_'
'TC'
'SEC_'
'unlawful_'
'Qn_'
'Farmer_'
'persuaded_'
'currencies_'
' ...._'
'oo'
'McDonnell_'
'tse'
'fing_'
'beneficial_'
'int'
'Transportation_'
'Rouhani_'
'Property_'
'Junior_'
'Dems_'
'res'
'interaction_'
'chefs_'
'pickup_'
'Shadow_'
'rson_'
'Norwich_'
'99'
'oc_'
'Ze'
'devastation_'
'Pol_'
'ella_'
'Nn_'
'tle'
'tightly_'
'refers_'
'Were_'
'Dd_'
'selves_'
'pes_'
'embracing_'
'ect_'
'Clean_'
'stro'
'Common_'
'bounced_'
'Madge_'
'striped_'
'Kro'
'aci'
'Sh'
'ghost_'
'Bros_'
'sle'
'slew_'
'Wn_'
'Deal_'
'terrific_'
'surprises_'
'Frances_'
'Prices_'
'Besides_'
'founders_'
'jt_'
'stra'
'honestly_'
'Hard_'
'FA'
'Heidi_'
'ers'
'Hawks_'
'Roland_'
'por'
'Zt_'
'Ellie_'
'Rita_'
'eel_'
'Support_'
'remainder_'
'Petty_'
'qu_'
'prosecuted_'
'towers_'
'Whe_'
'massage_'
'explicitly_'
'Can'
'Der'
'Lew_'
'protocol_'
'PE'
'il'
'catwalk_'
'sty_'
'blogger_'
'Df'
'glow_'
'go'
'Ala'
'overlooked_'
'Pool_'
'Nissan_'
'Enrique_'
'messy_'
'Wh_'
'enthusiastic_'
'tary_'
'Bering_'
'pro'
'composed_'
'belongs_'
'RAF_'
'zon_'
'Jam_'
'Wes_'
'fatigue_'
'Northam_'
'1960_'
'entities_'
'ante_'
'Tina_'
'troubling_'
'omen_'
'mans_'
'carer_'
'2025_'
'rivalry_'
'homeowners_'
'ld'
'eD'
'ari'
'Holt_'
'utes_'
'chin_'
'us'
'protects_'
'prints_'
'Wallabies_'
'Rubio_'
'ter'
'Intel_'
'Studios_'
'scrum_'
'Resources_'
'Mohammad_'
'administrations_'
'valley_'
'Yt_'
'MST_'
'rays_'
'militia_'
'greet_'
'Ht_'
'onl_'
'kn'
'humor_'
'coordinated_'
'Qt_'
'tribal_'
'thye_'
'luxurious_'
'endure_'
'am'
'08'
'underwater_'
'reflecting_'
'gland_'
'contenders_'
'rho'
'inal_'
'tehy_'
'sponsors_'
'sas_'
'drown_'
'Wild'
'n'
'Ul'
'mr_'
'mock_'
'Ulster_'
'Tt_'
'songwriter_'
'Por'
'Number_'
'ck'
'Tyson_'
'Blo'
'busiest_'
'Wr'
'uo'
'Joey_'
'Pla'
'Moreover_'
'Batman_'
'wont_'
'abusing_'
'50th_'
'lungs_'
'independently_'
'aided_'
'Either_'
'bush_'
'Under'
'Santiago_'
'Pe'
'vi'
'steering_'
'eve'
'packing_'
'lm_'
'ele_'
'Xn_'
'pedestrian_'
'hail_'
'Yar'
'ices_'
'empathy_'
'maternity_'
'costumes_'
'Jt_'
'Mbappe_'
'pointers_'
'emergence_'
'defining_'
'cu'
'hurting_'
'Vietnamese_'
'ety_'
'Limited_'
'Frankfurt_'
'ain'
'Bulls_'
'cemetery_'
'Owens_'
'Blood_'
'pushes_'
'labelled_'
'elle_'
'handy_'
'Booth_'
'remarkably_'
'Patrol_'
'-$_'
'ère_'
'jewelry_'
'brace_'
'indicted_'
'ta'
'Yeats_'
'Pre_'
'prey_'
'hormone_'
'knockout_'
'Mala'
'farewell_'
'accusation_'
'wr'
'robbed_'
'rhe'
'Whey_'
'PE_'
'Rivers_'
'Flu'
'outskirts_'
'dare_'
'credentials_'
'Dawson_'
' . - _'
'Red'
'Jefferson_'
'Denis_'
'4th_'
'reduces_'
'htey_'
'eH_'
'Kar'
'Bills_'
'Barnier_'
'broth_'
'Suu_'
'vanished_'
'haired_'
'sacks_'
'ah'
'advancing_'
'terrace_'
'reconciliation_'
'nie_'
'iss_'
'coupled_'
'Sho'
'eats_'
'Moyes_'
'unsuccessful_'
'convenience_'
'Weekly_'
'bombings_'
'prompt_'
'collections_'
'Bra'
'hm_'
'Fd_'
'inviting_'
'Kitchen_'
'sub'
'sellers_'
'interact_'
'magazines_'
'altered_'
'Socialist_'
'Sar'
'Irving_'
'mnt_'
'buzz_'
'camp'
'WhatsApp_'
'medications_'
'Gove_'
'Lar'
'breed_'
'Angus_'
'qd_'
'cc'
'disabilities_'
'facto_'
'Ud_'
'Kyi_'
'terrain_'
'marker_'
'ently_'
'oli_'
'Fresh_'
'Sutherland_'
'spat_'
'settling_'
'nat_'
'sie_'
'Canyon_'
'Wt_'
'UEFA_'
'Non_'
'Gul'
'Broad'
'socks_'
'PO'
'Ia'
'Are'
' - ._'
'Uni'
' '  _'
'tastes_'
'problematic_'
'dse'
'creativity_'
'incumbent_'
'Triple_'
'Gil'
'sweater_'
'governors_'
'starters_'
'ly'
'qt_'
'overly_'
'packaging_'
'jihadist_'
'ried_'
'elephants_'
'oversee_'
'breeding_'
'Arabic_'
'reopened_'
'Molly_'
'medicines_'
'debuted_'
'IP'
'overseeing_'
'commentator_'
'staging_'
'sins_'
'highlighting_'
'Wise_'
'thei'
'Enforcement_'
'Dt_'
'thr'
'Ja_'
'Friend_'
'Wee_'
'vicious_'
'soaked_'
'ddi'
'Mart_'
'rogue_'
'Par'
'cheeky_'
'Cd_'
'fife_'
'Sel'
'Nigerian_'
'104_'
' - £ _'
'wand_'
'Ans_'
'Kt_'
'dealers_'
'commuters_'
'Mc'
'ear'
'chemotherapy_'
'tand_'
'postponed_'
'fabulous_'
'Goth_'
'unre'
'Norw_'
'Lloyds_'
'singe_'
'rta'
'plight_'
'coma_'
'excluded_'
'eli'
'Cut_'
'rack_'
'sg_'
'scans_'
'queue_'
'ori'
'Studio_'
'undercover_'
'cartoon_'
'UN'
'Pd_'
'Clint_'
'Starr_'
'Chapman_'
'competed_'
'IOC_'
'Carlo_'
'Chamberlain_'
'revolutionary_'
'1bn_'
' ? '
'ruins_'
'rampage_'
'cultures_'
'absurd_'
'mak_'
'Monty_'
'penned_'
'ballet_'
'aJ'
'Peters_'
'Blackburn_'
'acclaimed_'
'this'
'slams_'
'laps_'
'RE_'
'189'
'miners_'
'Ac_'
'firearm_'
'raping_'
'litre_'
'fd_'
'eA'
'Sd_'
'touted_'
'Recent_'
'regards_'
'playlist_'
'Nai'
'fai'
'miracle_'
'113_'
'nse_'
'dental_'
'% ) _'
'surgeries_'
'rein_'
'kidnapped_'
'61'
'spared_'
'lately_'
'qu'
'distraction_'
'Survey_'
'MVP_'
'Daisy_'
'whopping_'
'Witnesses_'
'conferences_'
'Ajax_'
'Ld_'
'Minutes_'
'punches_'
'kng_'
'endorsement_'
'applause_'
'1962_'
'Betty_'
'viewer_'
'Sub'
'sexist_'
'sc'
'Wearing_'
'Alo'
'yin_'
'sse_'
'plunge_'
'ben'
'Bd_'
'Master_'
'colonial_'
'settings_'
'Tod_'
'Cai'
'negotiator_'
'neckline_'
'hart_'
'escalation_'
'erd_'
'Zd_'
'Sunshine_'
'Gregory_'
'immunity_'
'coconut_'
'xn'
'seller_'
'landfall_'
'grasp_'
'tage_'
'onstage_'
'hospitalized_'
'warfare_'
'eyebrows_'
'gravity_'
'batter_'
'Ma'
'purely_'
'Go'
'Frost_'
'ls'
'fronts_'
'ena_'
'PA'
'Moe_'
'ahd_'
'revived_'
'embarrassment_'
'cakes_'
'owning_'
'Wd_'
'35'
'zt_'
'Ty'
'exotic_'
'Isaac_'
'compares_'
'EM_'
'cladding_'
'blockbuster_'
'Daly_'
'instruments_'
'eu'
'Often_'
'McGowan_'
'BU'
'necklace_'
'invented_'
'fearing_'
'mys_'
'dash_'
'RE'
'Kidman_'
'Bio'
'tA'
'nment_'
'Rules_'
'Pace_'
'dipped_'
'Romelu_'
'79'
'crises_'
'Cambodia_'
'Tayyip_'
'lowered_'
'Wit_'
'TI'
'slogan_'
'millennials_'
'confined_'
'UC_'
'alo'
'Sadly_'
'rue_'
'Sy'
'63'
'Ruby_'
'Flo'
'ym'
'levy_'
'housed_'
'2000s_'
'complexion_'
'ble'
'after'
'Xd_'
'Monk_'
'tones_'
'splash_'
'Hoe'
'En'
'188'
'Parenthood_'
'Hd_'
'liner_'
'ala_'
'Vd_'
'02'
'ramp_'
'fore'
'odes_'
'Novak_'
'skip_'
'Ua'
'Paulo_'
'Already_'
'restraint_'
'dull_'
'Mur'
'Dil'
've'
'hints_'
'Koch_'
'ule'
'grandson_'
'Suns_'
'disposal_'
'Prison_'
'De'
'mid'
'attendees_'
'Jd_'
'Finals_'
'Lavrov_'
'git_'
'sometime_'
'lessly_'
'bribery_'
'Plo'
'1961_'
'joust_'
'Cam_'
'abortions_'
'Yd_'
'youthful_'
'turnaround_'
'justices_'
'Zuma_'
'Xt_'
'ECB_'
'Thi_'
'Sciences_'
'topping_'
'Holyrood_'
'Barton_'
'wil'
'mad'
'Official_'
'Dri'
'kr_'
'Mel'
'½_'
'Td_'
'Imagine_'
'AE'
'hre'
'Niger_'
'pout_'
'Worth_'
'lings_'
'advert_'
'Tara_'
'Madonna_'
'jumps_'
'favored_'
'comparable_'
'assuming_'
'our'
'. ( _'
'Xinhua_'
'Rolling_'
'unde'
'sur_'
'OS'
'Beau'
'conclusions_'
'Similarly_'
'cle'
'ague_'
'arthritis_'
'intercontinental_'
'Gore_'
'tooth_'
'Wal_'
'ogy_'
'exp_'
'Rodrigo_'
'Pablo_'
'Ani'
'fog_'
'blazer_'
' - '
'Qd_'
'Gli'
'sat'
'ivory_'
'ref_'
'inflicted_'
'booming_'
'wou'
'fictional_'
'ea'
'wrestling_'
'Su_'
'Kou'
' ' : _'
'provocative_'
'museums_'
'Mali_'
'Cuomo_'
'Self_'
'inadequate_'
'Equifax_'
'Damian_'
'Playboy_'
'Dol'
'verge_'
'tment_'
'thrive_'
'sot'
'Martha_'
'yearns_'
'nutrition_'
'Starbucks_'
'Rit'
'07'
'obstacles_'
'gto_'
'CK_'
'sn'
'ational_'
'Isle_'
'portraits_'
'clarify_'
'flawed_'
'metro_'
'tc_'
'medieval_'
'der'
'cosy_'
'Wendy_'
'Van'
'lie'
'guarantees_'
'Sol'
'strokes_'
'relaxing_'
'Hindu_'
'supremacists_'
'forged_'
'bec'
'myth_'
'day'
'Saracens_'
'sal_'
'orld_'
'frequency_'
'Certainly_'
'llion_'
'DE'
'Bee'
'ge'
'102_'
' * _'
'interpretation_'
'VW_'
'Collingwood_'
'ening_'
'varied_'
'parental_'
'mots_'
'brook_'
'ET'
'thread_'
'technological_'
'Investigation_'
'225_'
'set'
'attractions_'
'Aboriginal_'
'Holdings_'
'throne_'
'bottoms_'
'chatting_'
'balloon_'
'Alec_'
'135_'
'nano'
'74'
'sands_'
'lla'
'cre'
'Slovenia_'
'tom_'
'Vienna_'
'NI_'
'Louisville_'
'awry_'
'Lawyers_'
'Job_'
'lee_'
'Michele_'
'parenting_'
'Ran'
'disrupted_'
'Walking_'
' " -- _'
'aligned_'
'SC'
'Close_'
'contempt_'
'tribe_'
'NS_'
'shores_'
'gthe_'
'Py'
'Homer_'
'ry'
'edo'
'HSBC_'
'colorful_'
'Over'
'interrupted_'
'dealings_'
'Wol'
'substantially_'
'iv_'
'ining_'
'Walt_'
'farther_'
'á'
'broadcasting_'
'trailing_'
'Upper_'
'Bowie_'
'averaging_'
'tattoos_'
'spill_'
'rA'
'Berkshire_'
'heartbreaking_'
'graduation_'
'xing_'
'wy'
'fet'
'cla'
'Goa_'
'wireless_'
'nr'
'hydrogen_'
'birdies_'
'Keven_'
'hc'
'wig_'
'carved_'
'ib_'
'depressed_'
'sible_'
'sea'
'marching_'
'But'
'op'
'Win_'
'Guinea_'
'Ivory_'
'integrated_'
'spinning_'
'Sporting_'
'fir'
'Mission_'
'midway_'
'cruelty_'
'Torres_'
'xd_'
'cking_'
'USO_'
'fibre_'
'backwards_'
'Io'
'behave_'
'Xo'
'Ramirez_'
'mow_'
'Williamson_'
'Kd_'
'Ben'
'Dar'
'extends_'
'generating_'
'escorted_'
'dra'
'Tur'
'Haw_'
'ni'
'uer_'
'authentic_'
'BM'
'mu'
'batch_'
'midday_'
'composer_'
'Miguel_'
'Dur'
'155_'
'SC_'
'Industrial_'
'ser'
'gala_'
'blunt_'
'generals_'
'Ger'
'Stro'
'Qua'
'Hoffman_'
'Don'
'rejection_'
'dense_'
'they'
'cah'
'affection_'
'ero_'
'poem_'
'forests_'
'defeating_'
'drowned_'
'standoff_'
'ol'
'breaches_'
'bees_'
'rocky_'
'psychologist_'
'mentality_'
'Suarez_'
'rti'
'Renault_'
'tI_'
'bon'
'Sand'
'sailors_'
'faded_'
'lesbian_'
'Thy_'
'hum'
'Vermont_'
'poisoning_'
'Coming_'
'nephew_'
'aa'
'lashed_'
'Rein'
'Shiite_'
'Hale_'
'Dembele_'
'rted_'
'contributor_'
'punching_'
'SM'
'Dhabi_'
'eno'
'Qe'
'litigation_'
'Cw'
'recordings_'
'centered_'
'Willie_'
'kissed_'
'Salah_'
'Deutsche_'
'ase'
'accountability_'
'sel_'
'arsenal_'
'outraged_'
'toughest_'
'Yang_'
'Roosevelt_'
'CO'
'rude_'
'extradition_'
'Devin_'
'hearted_'
'Stones_'
'Ahmad_'
'plaice_'
'blessed_'
'resent_'
'hom_'
'regrets_'
'poorer_'
'appalling_'
'Dra'
'overhead_'
'ony_'
'has'
'debated_'
'Hand'
'tighter_'
'discovering_'
'IM'
'Form_'
'9'
'mega_'
'smoked_'
'unbelievable_'
'outrageous_'
'Byron_'
'Bla'
'lodged_'
'detainees_'
'Man'
'vacuum_'
'recruits_'
'Evening_'
'rec'
'protested_'
'predictions_'
'pies_'
'outgoing_'
'WY_'
'Prosecutor_'
'Movie_'
'West'
'Elliot_'
'Khloe_'
'Colombian_'
'stroll_'
'deceased_'
'Hurricanes_'
'Pre'
'LGBTQ_'
'Curt_'
'wee'
'aro_'
'pitching_'
'partnerships_'
'ub_'
'fre_'
'Tri'
'stems_'
'pivotal_'
'da'
'renew_'
'Recently_'
'Elon_'
'skimpy_'
'superhero_'
'trades_'
'temple_'
'councillor_'
'Vale_'
'coveted_'
'dud_'
'clay_'
'ot'
'nationalism_'
'linebacker_'
'kon'
'freshman_'
'CARE_'
'distressed_'
'lingerie_'
'kov_'
'Hansen_'
'fication_'
'Bed'
'Art'
'certificate_'
'extract_'
'BS_'
'imprisoned_'
'comparing_'
'awesome_'
'CT'
'TE'
'Deep_'
'upheld_'
'RT'
'rebuilding_'
'oto_'
'fu'
'sill_'
'sadness_'
'piled_'
'jockey_'
'instrument_'
'Nina_'
'Jun'
'oR'
'Wednesdays_'
'edd_'
'my'
'defends_'
'crystal_'
'List_'
'environments_'
'wel'
'eN'
'27'
'owski_'
'academics_'
'sre'
'quotes_'
'profitable_'
'ii_'
'agony_'
'KO'
'liberals_'
'flick_'
'PU'
'slipping_'
'motorway_'
'chilling_'
'grades_'
'cracking_'
'Qo'
'Olivier_'
'rte_'
'Par_'
'Know_'
'AA'
'footsteps_'
'UKIP_'
'steer_'
'Wilkinson_'
'Always_'
'nel_'
'accompany_'
'u'
'mocking_'
'Sep_'
'um'
'ek'
'sterling_'
'interfere_'
'el'
'Zidane_'
'post'
'Ia_'
'ows_'
'bullied_'
'h'
'Ash'
'190_'
'ue'
'Monet_'
'tak_'
'dor'
'rra'
'Work'
'Paradise_'
'CP'
'You'
'Holden_'
'Greene_'
'Darwin_'
'ully_'
'casually_'
'awe_'
'ace'
'Qi'
'ken'
'evi'
'collided_'
'NA'
'gol'
'ali_'
'departing_'
'Ele'
'MD_'
'Sci'
'declines_'
'staffer_'
'horrified_'
'escalating_'
'ato_'
'Gardner_'
'Dr'
'Cyprus_'
'oy'
'AfD_'
'sharks_'
'qo'
'prosperity_'
'loo'
'fertility_'
'rumoured_'
'AK_'
'ata_'
'Set'
'Napoli_'
'rned_'
'Townsend_'
'Fight_'
'Boyle_'
'altitude_'
'GPs_'
'Design_'
'regulate_'
'ax'
'bla'
'batsman_'
'stare_'
'mortality_'
'borrowers_'
'hr'
'emoji_'
'Fen'
'lti'
'imprisonment_'
'10'
'slopes_'
'Double_'
'liken_'
'wellbeing_'
'outline_'
'nl_'
'103_'
'villain_'
'Jedi_'
'Canadians_'
'pear_'
'closures_'
'irony_'
'polar_'
'weighs_'
'fun'
'cropped_'
'bogey_'
'analyzed_'
'Yard_'
'WS'
'ank_'
'Kal'
'leaking_'
'Echo_'
'purchasing_'
'On'
'Luckily_'
'Bul'
'dividends_'
'borrow_'
'Caixinha_'
'ade'
'O'
'89'
'questionable_'
'Step_'
'time'
'berry_'
'è'
'sexism_'
'las'
'burnt_'
'Supporters_'
'discharged_'
'mon'
'bha'
'Zu'
'Slovakia_'
'Bruins_'
'Xi'
'Valentine_'
'Minneapolis_'
'yeahs_'
'regulated_'
'Sharapova_'
'Cathedral_'
'Mill_'
'defiance_'
'Sandra_'
'Stark_'
'Average_'
'spells_'
'tate_'
'ki'
'art'
'ource_'
'upbeat_'
'nar'
'cons_'
'some'
'AFC_'
'pinch_'
'autonomy_'
'Tribune_'
'exempt_'
'cone_'
'dh_'
'adjacent_'
'toad_'
'fli'
'Brumbies_'
'tariff_'
'predecessors_'
'Em'
'aH'
'ein'
'dsi'
'ap'
'mighty_'
'actresses_'
'vt_'
'landlords_'
'fave_'
'crowned_'
'upgraded_'
'Jor'
'Fr'
'cat'
'SU'
'Canterbury_'
'tein_'
'ctive_'
'lA'
'jurisdiction_'
'Ibrox_'
'tl'
'vert_'
'innocence_'
'ind'
'eagle_'
'condemnation_'
'cia_'
'Hollande_'
'masked_'
'flaws_'
'charitable_'
'cameo_'
'Spa_'
'sie'
'substances_'
'Dixon_'
'109_'
'fixing_'
'makeshift_'
'afterward_'
'MN_'
'toilets_'
'49'
'boast_'
'Than_'
'Sheikh_'
'attributes_'
'bein_'
'IC'
'ndo_'
'mince_'
'McCann_'
'successes_'
'Anti'
'unofficial_'
'MA'
'Fe'
'affiliated_'
'31'
'Me'
'Ue'
'TO'
'Titans_'
'locate_'
'cheered_'
'input_'
'Hur'
'pf'
'DS'
'tortured_'
'stab_'
'ST'
'ste'
'Fal'
'CA'
'Booker_'
'sparkling_'
'lifelong_'
'Ailes_'
'insult_'
'misery_'
'bothered_'
'subsidiary_'
'Donna_'
'01'
'flurry_'
'whats_'
'aga'
'abe'
'probation_'
'licensed_'
'formidable_'
'avi'
'Katrina_'
'rake_'
'functioning_'
'EC'
'108_'
'signatures_'
'Falls_'
'Cit_'
'Gy'
'favoured_'
'ira_'
'drank_'
'Slater_'
'Bin'
'rse_'
'militias_'
'factions_'
'accidental_'
'Vic_'
'THAAD_'
'physician_'
'journeys_'
'bass_'
'Pauline_'
'Mari'
'Frankie_'
'dot_'
'cyclists_'
'May'
'DOD_'
'tomatoes_'
'accepts_'
'Hu'
'wholly_'
'fruits_'
'evens_'
'cor_'
'Wag'
'La'
'Alexa_'
'ATP_'
' , . _'
'hugging_'
'geo'
'Ring_'
'distracted_'
'Ola'
'. ; _'
'columnist_'
'landslide_'
'Cow'
'Bur'
'ASX_'
'kike_'
'ida_'
'hl'
'Comedy_'
'ailing_'
'BA'
'Amnesty_'
'Aba'
'rooted_'
'Yo'
'sage_'
'rub_'
'possibilities_'
'famine_'
'pretend_'
'populated_'
'inc'
'Mul'
'ED'
'Bron'
'Apr_'
'protester_'
'ison_'
'iS'
'Aar'
'Depp_'
'man'
'Newman_'
'als'
'xy_'
'swinging_'
'nickname_'
'activism_'
'ty'
'satellites_'
'tackled_'
'executions_'
'Driver_'
'Bus'
'ydd_'
'had'
'Mei'
'106_'
'sS'
'comping_'
'cardiac_'
'bats_'
'sal'
'ow'
'ocher_'
'hand'
'Dion_'
'ini'
'dal_'
'inter'
'Mia_'
'predicts_'
'inte'
'complexity_'
'artwork_'
'Ozil_'
'Crosby_'
'Hay_'
'smallest_'
'praising_'
'enacted_'
'bal'
'overlooking_'
'Avi'
'plotting_'
'Amway_'
'rship_'
'09'
'melt_'
'Uo'
'25th_'
'isa'
'Watts_'
' ! ' _'
'swimsuit_'
'lime_'
'Dogs_'
'Ver'
'eet_'
'Ea'
'mes'
'Bod'
'stray_'
'racially_'
'mesh_'
'uni_'
'prospective_'
'Nam_'
'elimination_'
'automated_'
'Vardy_'
'Saturn_'
'Gunners_'
'ritual_'
'pubs_'
'digit_'
'Nun'
'rove_'
'ans'
'Rosie_'
'Choice_'
'strengthening_'
'bon_'
'Remain_'
'eB'
'bar'
'eand_'
'changer_'
'som'
'Vin'
'Pl_'
'stu'
'consistency_'
'hiking_'
'RBS_'
'Exxon_'
'twitter_'
'strictly_'
'Gp'
'symbols_'
'cations_'
'TE_'
'OC'
'Salvador_'
'high'
'ashamed_'
'South'
'poli'
'fox_'
'Shop_'
'mg_'
'Mir'
'Gas'
'enu'
'tendency_'
'pharmaceutical_'
'Seahawks_'
'wher_'
'Aron_'
'PI'
'epo'
'Willis_'
'rainbow_'
'honoured_'
'spree_'
'ller_'
'intriguing_'
'inflammation_'
'bp'
'Latino_'
'roe_'
'png_'
'Temer_'
'bo'
'Marseille_'
'usi'
'activated_'
'LeBron_'
'origins_'
'mos'
'mortgages_'
'lamb_'
'faction_'
'saw'
'limitations_'
'JO'
'tempted_'
'Kos'
'streams_'
'ata'
'Lisbon_'
'dn'
'disgusting_'
'Fa_'
'effectiveness_'
'abound_'
'tiger_'
'ja'
'Elvis_'
'explored_'
'ä'
'thep_'
'flashing_'
'Same_'
'swearing_'
'qn'
'accompanying_'
'04'
'wolf_'
'vague_'
'car'
'Cy_'
'wro'
'Eagle_'
'Ambulance_'
'Gui'
'paste_'
'pardon_'
'lr'
'unfairly_'
'uan'
'trophies_'
'thier_'
'prolonged_'
'mre_'
'Col'
'sbe'
'influx_'
'exile_'
'Ina'
'Beyoncé_'
'boil_'
'assessments_'
'Well'
'Porto_'
'Jamaica_'
'onion_'
'Bs'
'suppose_'
'Lamar_'
'Nei'
'ida'
'earl_'
'commanders_'
'Herrera_'
'trans'
'Die_'
'Ane'
'systemic_'
'Due_'
'holdings_'
'exploited_'
'Fiat_'
'Fletcher_'
'om'
'gy'
'FCC_'
'dng_'
'FE'
'raging_'
'abruptly_'
'Steel_'
'Selena_'
'GO'
'odi'
'unsafe_'
'cotton_'
'condolences_'
'advising_'
'tbsp_'
'aG'
'DS_'
'hype_'
'WI'
'Pan_'
'Ei'
'ina'
'xo'
'socialist_'
'See'
'SN'
'thou_'
'from'
'audition_'
'OT'
'69'
'tray_'
'grounded_'
'Quinn_'
'toes_'
'Judd_'
'Abdul_'
'"'
'Far'
'Securities_'
'Cats_'
'SL'
'Cat'
'pother_'
'acquitted_'
'boutique_'
'bli'
'Zor'
'Ur'
'Movement_'
'xes_'
'Auto'
'pleading_'
'lowing_'
'flawless_'
'Vo'
'Mu_'
'Hil'
'lng_'
'550_'
'rad'
'monkey_'
'War'
'aF'
'woh_'
'bankers_'
'Oc'
'Athletic_'
'KI'
'portions_'
'illnesses_'
'sley_'
'qua'
'miner_'
'Dei'
'nonetheless_'
'Led_'
'CB_'
'32'
'billing_'
'disa'
'circulated_'
'hoe'
'Ae'
'wright_'
'rT'
'jar_'
'Navalny_'
'Marathon_'
'strapped_'
'Families_'
'Buford_'
'weaken_'
'OL'
'Nebraska_'
'pti'
'aT'
'privileged_'
'tunnels_'
'pur'
'Ear'
'tapes_'
'ovic_'
'waved_'
'ringing_'
'eda_'
'000'
'hooked_'
'Sp'
'Kilda_'
'Kiev_'
'Pere'
'40'
'punk_'
'preseason_'
'modified_'
'digging_'
'shing_'
'Tun'
'Luxembourg_'
'Affleck_'
'pressured_'
'laced_'
'kha'
'Klein_'
'Bright_'
'embroiled_'
'Twin_'
'intentionally_'
'cooler_'
'entries_'
'hen'
'ton'
'nin'
'assisting_'
'ms'
'Rakhine_'
'violate_'
'unfolded_'
'thieves_'
'obstruction_'
'Mara_'
'Cos'
'ut'
'pleasant_'
'seafood_'
'ingredient_'
'doff_'
'CM'
'GAO_'
'lass_'
'aS'
'esi'
'cit'
'blacks_'
'postal_'
'VIDEO_'
'nity_'
'ili'
'but'
'yl'
'Xe'
'Otto_'
'Bundesliga_'
'oe'
'nh_'
'Euro'
'oto'
'cub_'
'Observatory_'
'strengthened_'
'dir'
'asi'
'Athens_'
'retro_'
'despair_'
'enrolled_'
'cows_'
'Manila_'
'dragging_'
'Systems_'
'Iain_'
'thumb_'
'Legend_'
'wal_'
'accessed_'
'Hicks_'
'Fo'
'All'
'tam_'
'curve_'
'114_'
'pee_'
'Teen_'
'Pul'
'Firefighters_'
'ministration_'
'UL_'
'champ_'
'builder_'
'Hawkins_'
'iv'
'Holy_'
'treasure_'
'emphasized_'
'ahi'
'gu'
'crease_'
'Swan_'
'Kan'
'heel_'
'Reese_'
'undisclosed_'
'UR'
'embarked_'
'sensor_'
'gri'
'esa'
'feeds_'
'eon'
'ada_'
'Shorten_'
'Ella_'
'Sugar_'
'puppy_'
'nci'
'descended_'
'accelerate_'
'Veterans_'
'Cli'
'Strip_'
'woo'
'hda_'
'runoff_'
'cur_'
'Pit'
'resisted_'
'advantages_'
'Parkinson_'
'lei'
'CN'
'Alexandria_'
'aking_'
'upstairs_'
'starlet_'
'ins'
' ... '
'ud'
'Marin_'
'Mit'
'Lin'
'Clooney_'
'renewal_'
'Indi'
'Ai'
'rot_'
'advises_'
'mob_'
'cta'
'chorus_'
'Kho'
'outs'
'farce_'
'aing_'
'wind'
'payer_'
'Wy'
'Aviation_'
'marketplace_'
'idge_'
'cheapest_'
'brutality_'
'Jacksonville_'
'ication_'
'Des_'
'irs_'
'rebellion_'
'sketch_'
'His'
'Dro'
'riots_'
'html_'
'Light'
'slap_'
'playful_'
'observe_'
'snack_'
'len'
'Minority_'
'ius_'
'Tra'
'T'
'Lithuania_'
'deprived_'
'deposits_'
'compassion_'
'Ny'
'snacks_'
'emerges_'
'Hor'
'Aft_'
'Chambers_'
'06'
'timely_'
'cal'
'Partnership_'
'Bad'
'stationed_'
'gunshot_'
'Westbrook_'
'Stage_'
'earns_'
'Adi'
'Actually_'
'100th_'
'vulnerability_'
'pu'
'enforced_'
'judging_'
'exposing_'
'confusing_'
'solved_'
'EP'
'tightening_'
'measuring_'
'bert_'
'DC'
'mf'
'ewe'
'wholesale_'
'economically_'
'Vor'
'Bentley_'
'signings_'
'liker_'
'1950_'
'recycling_'
'ESE_'
'kar'
'fri'
'deaf_'
'sword_'
'positively_'
'TD_'
'Pw'
'Eat_'
'unemployed_'
'informal_'
'thriving_'
'Gerard_'
'stronghold_'
'Rou'
'towel_'
'ther'
'Dre'
'ural_'
'signaled_'
'meme_'
'Cornell_'
'Annual_'
'norms_'
'Suffolk_'
'Sophia_'
'presided_'
'psychology_'
'commentators_'
'7th_'
'hospitality_'
'trolls_'
'Dau'
'sues_'
'rca'
'41'
'Schmidt_'
'squeezed_'
'rn'
'packs_'
'ht'
'weed_'
'Cindy_'
'imagery_'
'Kit_'
'img_'
'shallow_'
'Zn'
'Qn'
'tw'
'marriages_'
'eer'
'Sweet_'
'Long'
'Aside_'
'scholar_'
'provoked_'
'ei'
'bind_'
'arty_'
'eco_'
'Erik_'
'sville_'
'sung_'
'Want_'
'Reddit_'
'ALSO_'
'qe'
'conditioning_'
'Duran_'
'oB'
'gor'
'dar_'
'yon'
'rer'
'neon_'
'Play'
'Noon_'
'34'
'bor'
'IR'
'reminds_'
'nter_'
'VI'
'ok'
'cherry_'
'Hi'
'Toni_'
'Ter'
'sun'
'Allardyce_'
'float_'
'Warburton_'
'Kun'
'Byrne_'
'Back'
'BS'
'ua'
'intersection_'
'burial_'
'Range_'
'sounding_'
'Tp'
'personalities_'
'miserable_'
'acc'
'MB'
'Lay'
'expire_'
'discounts_'
'Beatles_'
'tract_'
'circus_'
'yan'
'pho'
'Shield_'
'coral_'
'Lot_'
'unanimous_'
'glossy_'
'tailored_'
'sna'
'*_'
'restoration_'
'Ramadan_'
'Law'
'fl'
'predicting_'
'yar'
'gam_'
'CO_'
'As'
'ude_'
'singers_'
'Tusk_'
'tla'
'oversees_'
'Tracy_'
'Fiji_'
'Abdullah_'
'sandals_'
'cular_'
'Zach_'
'Apollo_'
'o'
'arian_'
'Russ_'
'Figures_'
'thrust_'
'rug_'
'renovation_'
'lik'
'dissent_'
'sunset_'
'ops_'
'cre_'
'Tin'
'Bangkok_'
'Aviv_'
'ssing_'
'dhe_'
'Unless_'
'zen'
'rook_'
'hows_'
'detection_'
'wonders_'
'tt'
'cb'
'injustice_'
'Den'
'BHP_'
'slowdown_'
'bowler_'
'administrators_'
'Mo'
'Fury_'
'sovereign_'
'Whit_'
'Mumbai_'
'moist_'
'believer_'
'Yi'
'Matter_'
'smi'
'patterned_'
'nder'
'dazzling_'
'pens_'
'Zer'
'29'
'uer'
'heap_'
'shiny_'
'mis'
'hl_'
'concealed_'
'millionaire_'
'toff_'
'psychiatric_'
'ate'
'painter_'
'laboratory_'
'Is'
'spoon_'
'iw'
'bingo_'
'Xn'
'maths_'
'simpler_'
'accelerated_'
'Isa_'
'Recep_'
'Saunders_'
'Hoff_'
'Fifty_'
'pine_'
'ego'
'mourning_'
'undermined_'
'Cle'
'ias_'
'Zlatan_'
'surroundings_'
'spice_'
'escalated_'
'14'
'reductions_'
'adamant_'
'Gilbert_'
'File_'
' - $ _'
'sail_'
'illicit_'
'killers_'
'befor_'
'att'
'Ashton_'
'oard_'
'Jolie_'
'lessness_'
'jan_'
'nick_'
'homelessness_'
'bells_'
'Dane_'
'una_'
'stud_'
'seaside_'
'eau_'
'eliminating_'
'Sharif_'
'Nintendo_'
'Mountains_'
'mach_'
'JA'
'260_'
'bicycle_'
'mel_'
'spine_'
'Munster_'
'teaches_'
'hei'
'Gou'
'unanimously_'
'tsa'
'grabs_'
'aP'
'Trans_'
'RC_'
'Mang'
'intercepted_'
'dedication_'
'Qantas_'
'grassroots_'
'garbage_'
'bak'
'Bn'
'subscribers_'
'lowering_'
'cf'
'Dolphins_'
'assumption_'
'FL_'
'Che'
'outcry_'
'osn_'
'Kot'
'Jude_'
'AW'
'ic'
'SDF_'
'Fol'
'concentrated_'
'aka_'
'Romanian_'
'Mor'
'26'
'eT'
'burglary_'
'Aa'
'rry_'
'hurdles_'
'blames_'
'WT'
'prolific_'
'cites_'
'ape_'
'Justine_'
'Su'
'Dis'
'87'
'sympathetic_'
'longstanding_'
'dearly_'
'baggage_'
'eF'
'cha'
'sci_'
'nea'
'monitors_'
'heights_'
'download_'
'Gor'
'non'
'slapped_'
'shipped_'
'  '
'undermining_'
'ber'
'Mid_'
'Ask_'
'precision_'
'Chester_'
'850_'
'tuned_'
'side'
'sian_'
'all'
'Fin'
'stack_'
'Upon_'
'responders_'
'pen'
'At'
'men'
'instructor_'
'filter_'
'NP'
'scenarios_'
'Rising_'
'Elle_'
'obstacle_'
'clearer_'
'belongings_'
'aj_'
'Saudis_'
'Province_'
'equaliser_'
'Sou_'
'veness_'
'forge_'
'pains_'
'mane_'
'deport_'
'wea'
'vibe_'
'uf_'
'groom_'
'fairy_'
'teased_'
'latte_'
'institutional_'
'dri'
'Maggie_'
'ATM_'
'cautioned_'
'Anton_'
'restraining_'
'Qp'
'Pel'
'PP'
'rests_'
'pumps_'
'ura'
'SAT_'
'Mae'
'Cana'
'sliding_'
'candy_'
'Teresa_'
'Revenue_'
'Honduras_'
'therapist_'
'sibling_'
'ml'
'diary_'
'dea_'
'neutrality_'
'decreased_'
'Gallagher_'
'urine_'
'surfing_'
'parted_'
'thief_'
'oH'
'dra_'
'Jr'
'indecent_'
'28'
'mei'
'demographic_'
'aux_'
'Warmbier_'
'Lego_'
'Section_'
'HO'
'ebe'
'draped_'
'concluding_'
'undergone_'
'recreational_'
'Tasmania_'
'97'
'spouse_'
'Nato_'
'toss_'
'rave_'
'hailing_'
'arrange_'
'Mun'
'eri'
'Nit'
'Buddhist_'
'tea'
'ke'
'spinner_'
'appreciation_'
'uns'
'reasonably_'
'curse_'
'RBI_'
'Gigi_'
'Alberta_'
'reigning_'
'observation_'
'ams_'
'ten'
'Fan'
'moe_'
'ant'
'Damon_'
'darker_'
'Moses_'
'Kr'
'aground_'
'Kirk_'
'Dru'
'yearly_'
'ization_'
'axe_'
'attire_'
'Nik'
'Gon'
'proximity_'
'devolved_'
'Nr'
'Crows_'
'Bl'
'Bu'
'turkey_'
'spectators_'
'Sexual_'
'Farah_'
'stellar_'
'fee'
'down'
'Lee'
'Brooke_'
'Brennan_'
'cue_'
'Las'
'ule_'
'law'
'Saturdays_'
'explosions_'
'cin'
'VI_'
'Hay'
'nails_'
'cybersecurity_'
'promotional_'
'minors_'
'jn'
'gas'
'del'
'Ye'
'Rees_'
'playground_'
'ledge_'
'shaping_'
'erg_'
'Yale_'
'ubt_'
'recipient_'
'possessions_'
'neglect_'
'BI'
'iar'
'cen_'
'ula'
'tart_'
'Soccer_'
'Ama'
'tumour_'
'oid_'
'sew_'
'Gos'
'heady_'
'Verizon_'
'Erica_'
'rotation_'
'commute_'
'Dido_'
'cus_'
'appreciated_'
'apologize_'
'amounted_'
'$_'
'mni'
'lal_'
'shrinking_'
'iz'
'bight_'
'Ib'
'tme_'
'IV_'
'EE'
'ONS_'
'tablet_'
'Waite_'
'Code_'
'worming_'
'uth_'
'end'
'MU'
'Li'
'Wine_'
'Spe'
'Ag'
'yang_'
'Gel'
'undi'
'dumping_'
'Sei'
'Paterson_'
'BP_'
'securities_'
'Wigan_'
'Sy_'
'.'
'kp'
'Kristen_'
'tically_'
'hunters_'
'answering_'
'Mau'
'Cummings_'
'habitat_'
'contaminated_'
'Annie_'
'fundamentally_'
'MSNBC_'
'ridden_'
'Vern_'
'pos'
'itng_'
'steak_'
'prizes_'
'Barkley_'
'Additionally_'
'politic_'
'fou'
'blessing_'
'marble_'
'Spice_'
'comparisons_'
'ack'
'Borough_'
'Or'
'towering_'
'splitting_'
'iM'
'qa'
'Mile_'
'Meade_'
'Maude_'
'Barr_'
'proposing_'
'Qa'
'EI'
'uniforms_'
'admired_'
'Flint_'
'harbour_'
'Rowe_'
'sleeve_'
'rai'
'composition_'
'Jai'
'head'
'Hariri_'
'GED_'
'2024_'
'commodity_'
'billed_'
'shutting_'
'predictable_'
'dispatched_'
'practically_'
'homemade_'
'bonuses_'
'Tyree_'
'TT'
'Inter'
'Cru'
'cur'
'Weir_'
'Len_'
'IBM_'
'jr_'
'exams_'
'Pp'
'vo'
'Alastair_'
'52'
'sperm_'
'announcements_'
'Nur'
'Yan'
'Lea'
'Jade_'
'ita'
'bene_'
'depart_'
'coffin_'
' .  _'
'ponytail_'
'aghast_'
'toed_'
'taion_'
'.. _'
'afte'
'Gibraltar_'
'retains_'
'pri'
'stressful_'
'avid_'
'unrelated_'
'weights_'
'Motors_'
'nson_'
'nS'
'lash_'
'indefinitely_'
'Zika_'
'Patty_'
'116_'
'diets_'
'Hungarian_'
'landlord_'
'RC'
'Fulham_'
'Care'
'sitcom_'
'jor'
'eo'
'Nolan_'
'boundary_'
'ranges_'
'pleas_'
'Wind'
'Store_'
'Citizens_'
'green'
'enabling_'
'duct_'
'destined_'
'Eleven_'
'3rd_'
'mistaken_'
'inde'
'Mane_'
'Gay'
'Fre'
' " ; _'
'Ipswich_'
'rha'
'Hotspur_'
'sliced_'
'develops_'
'alleg'
'sw'
'Havana_'
'sim_'
'rda'
'probable_'
'Mp'
'Appeal_'
' ]_'
'rgi'
'Merseyside_'
'mea'
'mar'
'Courtesy_'
'Augusta_'
'pubic_'
'floated_'
'Mani_'
'Laurent_'
'lingering_'
'wrongly_'
'Day'
'Chamber_'
'84'
'tents_'
'Gucci_'
'1500_'
'117_'
'nursery_'
'Xa'
'Sale_'
'Nuclear_'
'yne_'
'joking_'
'aces_'
'garment_'
'Ea_'
'Glo'
'tole_'
'eso'
'rash_'
'Chrissy_'
'Alphabet_'
'analysed_'
'admissions_'
'Ig'
'Fortunately_'
'Bondi_'
'min'
'LAN_'
'Gad'
'whore_'
'tri'
'ull_'
'plots_'
'Kre'
'retaining_'
'cheering_'
'So'
'Mace_'
'Fur'
'notification_'
'280_'
'summoned_'
'aly_'
'ICBM_'
'osa_'
'induced_'
'Hos'
'stile_'
'lun'
'consists_'
'Sau'
'Mil'
'Artist_'
'za'
'Mon'
'teir_'
'heartbroken_'
'thm_'
'sped_'
'demonstrates_'
'cir'
'Prop'
'Newt_'
'vp'
'notoriously_'
'flare_'
'coached_'
'270_'
'Patricia_'
'Parramatta_'
'Fl'
'Cyrus_'
'hal'
'ena'
'Milton_'
'Previously_'
'Kle'
'Aldi_'
'Essendon_'
'lea'
'writ_'
'ream_'
'oversized_'
'oT'
'Kr_'
'IN'
'cocktails_'
' . ._'
'ier'
'Bro'
'sar'
'criticizing_'
'civic_'
'bed'
'baseman_'
'Ridge_'
'GT'
'bacon_'
'nec'
'ela'
'Northampton_'
'Mulvaney_'
'Ash_'
'vie'
'Vie'
'Ame'
'urg_'
'bil'
'UA'
'Student_'
'Ah_'
'oin'
'speci'
'part'
'evaluate_'
'limbs_'
'sic'
'lag_'
'esr_'
'biography_'
'Idaho_'
'Bag'
'LT'
'Fla'
'ra'
'key'
'ANZ_'
'trails_'
'pp'
'been'
'CS_'
'warmth_'
'rep'
'Fall_'
'valuation_'
'sr'
'Mayer_'
'son'
'iPad_'
'congestion_'
'cloth_'
'accurately_'
'Neu'
'Chyna_'
'Ui'
'way'
'grilled_'
'ef'
'ct'
'Cob'
'tipping_'
'woken_'
'cracks_'
'Kershaw_'
'un'
'invisible_'
'yse'
'overturn_'
'outdoors_'
'bre_'
'Bil'
'crushing_'
'Word_'
'Pacquiao_'
'slumped_'
'p'
'Chung_'
'savvy_'
'candidacy_'
'mig'
'eS'
'AMA_'
'ati'
'Martial_'
'Les'
'hie'
'dy'
'break'
'Nat'
'Boo'
'stoppage_'
'ks'
'brutally_'
'boarded_'
'suicidal_'
'rou'
'inland_'
'Sai'
'wol'
'fiercely_'
'ane'
'slaves_'
'Un'
'rector_'
'i'
'flashes_'
'carriage_'
'Clay_'
'ski'
'lump_'
'jo'
'ess'
'add'
'EDT_'
'aries_'
'Ant'
'san'
'differ_'
'corridor_'
'nhe'
'ful'
'dom_'
'ano'
'80'
'certified_'
'Jas'
'sch'
'salon_'
'lads_'
'im'
'+ _'
'traits_'
'ies'
'Mack_'
'bel'
'Toshiba_'
'possess_'
'Mom_'
'kin'
'Jupiter_'
'Harley_'
'intensified_'
'Pet'
'red'
'institute_'
'DM'
'spying_'
'rations_'
'fin'
'sha'
'rela'
'eR'
'bach_'
'zr'
'repealing_'
'Gerald_'
'sprint_'
'rejects_'
'penis_'
'wildfire_'
'Xu'
'White'
'low'
'reset_'
'greens_'
'casts_'
'adverse_'
'Plaza_'
'Lead_'
'Ph_'
'authoritarian_'
'Wood'
'MO_'
'UC'
'surgical_'
'Rovers_'
'Ee'
'llo'
'IF'
'Gin'
'moan_'
'Kings'
'Jae_'
'ID'
'zs'
'unleashed_'
'lca'
'hurts_'
'dding_'
'resilient_'
'rch_'
'mation_'
'defied_'
'Bri'
'concede_'
'tire_'
'rounder_'
'Primary_'
'ih'
'ian'
'shoe'
'nen_'
'interceptions_'
'Oz'
'Spa'
'Rom'
'Hit'
'Apart_'
'catastrophe_'
'Masood_'
'Cur'
'wielding_'
'kan'
'abl_'
'Samson_'
'sor_'
'TM'
'Mona'
'Khalid_'
'uni'
'mare_'
'Tunisia_'
'Tat_'
'Letters_'
'supermodel_'
'ior_'
'Single_'
'initiated_'
'crafted_'
'pipes_'
'persecution_'
'mouths_'
'id'
'bribes_'
'Keane_'
'30th_'
' ( @_'
'tel'
'barrage_'
'short'
'disagreed_'
'anticipation_'
'Ie'
'btu_'
'Wolves_'
'sep'
'premise_'
'passports_'
'melting_'
'rockets_'
'marches_'
'Everest_'
'hf'
'attendant_'
'ranged_'
'bored_'
'Rockets_'
'Lawson_'
'Ethics_'
'Alvarez_'
'AN'
'iL'
'Ska'
'Mackay_'
'uu'
'pastor_'
'bi'
'Ler'
'yelling_'
'racked_'
'demise_'
'uo_'
'creators_'
'Tucker_'
'Tube_'
'tni'
'penny_'
'Ste'
'Rei'
'Pippa_'
'ves'
'nicknamed_'
'merit_'
'Barca_'
'tted_'
'timetable_'
'IL'
'educate_'
'Ibrahim_'
'Fellow_'
'echo_'
'Ryder_'
'DR'
'threes_'
'gl_'
'bf'
'Nat_'
'Garrett_'
'wipe_'
'vetting_'
'ehe_'
'unveil_'
'insights_'
'yS'
'capturing_'
'Welcome_'
'Economics_'
'criticise_'
'Net'
'welcomes_'
'Vr'
'aspiring_'
'NG_'
'separatist_'
'eca'
'1947_'
'ransom_'
'objections_'
'mir'
'NG'
'assistants_'
'Devils_'
'aW'
'Pay'
'nap_'
'cooling_'
'perpetrators_'
'expired_'
'eL'
'implementing_'
'Highland_'
'Aero'
'51'
'rh_'
'lit'
'ker'
'Wi'
'sane_'
'Royals_'
'dido_'
'blues_'
'Zi'
'can'
'assignment_'
'Jin'
'Jag'
'homers_'
'fil'
'Ker'
'ravaged_'
'fic_'
'Zhang_'
'Anaheim_'
'eri_'
'Val_'
'loa'
'fraught_'
'fifty_'
'Med_'
'Garner_'
'gam'
'PT_'
'iP'
'Port'
'PST_'
'containers_'
'accordingly_'
'Stock'
'tomato_'
'territorial_'
'surreal_'
'Retail_'
'Doha_'
'Desert_'
'Chi'
'sla'
'gearing_'
'earners_'
'gunmen_'
'await_'
'havoc_'
'em'
'aesthetic_'
'Shinzo_'
'villagers_'
'eur_'
'Streep_'
'sign'
'ky'
'Sergeant_'
'volley_'
'awake_'
'uin'
'frenzy_'
'eman_'
'Stand_'
'Eu'
'nna_'
'borrowed_'
'Darin_'
'Bru'
'savers_'
'rife_'
'She'
'IPO_'
':  _'
'zar'
'ri'
'continental_'
'Subs_'
'Nan'
'Mai'
'Hussein_'
'evaluation_'
'Vu'
'projections_'
'Fonda_'
'tus_'
'izing_'
'Xp'
'Stories_'
'groin_'
'Chi_'
'orchestra_'
'addicted_'
'tz'
'bas_'
'Orthodox_'
'relieve_'
'rat'
'ince_'
'gton_'
'scholarship_'
'provinces_'
'chunk_'
'Wad'
'stunner_'
'Stor'
'avocado_'
'tog_'
'straw_'
'Own_'
'offenses_'
'lief_'
'crosses_'
'Slo'
'confi'
'deci'
'Sin'
'Ak'
' ------------------------- _'
'nsa'
'atu'
'Enoch_'
'Hp'
'cuisine_'
'cheat_'
'í_'
'prevents_'
', '
'muscular_'
'Tou'
'Hispanic_'
'Brock_'
'then'
'freedoms_'
'decree_'
'abo_'
'Fw'
'intervened_'
'dé'
'aut'
'Medal_'
'Hart'
'organizing_'
'Books_'
'187'
'hro'
'Diaz_'
'ali'
'Patients_'
'Passengers_'
'Asi'
'profiles_'
'backpack_'
'Shin'
'Schi'
'lia'
'fairness_'
'do'
'Rr'
'Jenna_'
'iting_'
'compelled_'
'pinned_'
'dl'
'veer_'
'stil_'
'Pun'
'LE_'
'loop_'
'oms_'
'boy'
'solitary_'
'bra'
'Ec'
'turn'
'Haram_'
'ru'
'gated_'
'frightening_'
'uro'
'ee'
'Details_'
'Des'
'depicted_'
'deca'
'HR'
'Fy'
'Fire'
'Clive_'
'not'
'Canary_'
'Ano'
'polo_'
'bemire_'
'lays_'
'Fitz'
'Cardinal_'
'urgently_'
'nicely_'
'osi'
'distinction_'
'accessorised_'
'insurgents_'
'ael'
'rse'
'alarmed_'
'moat_'
'festivities_'
'Gun_'
'uot_'
'sne'
'Zar'
' * * * _'
'Dai'
'hteir_'
'cheers_'
'lou'
'Starting_'
'DHS_'
'spur_'
'physics_'
'metallic_'
'Meany_'
'gl'
'cosmetic_'
'Lima_'
'rem_'
'redi'
'exe'
'watering_'
'opp'
'cne_'
'barn_'
'Fir_'
'recon'
'Ibiza_'
'verse_'
'varying_'
'Sig'
'Link_'
'were'
'bei'
'shootout_'
'cker_'
'Circle_'
'Bor'
'und'
'curry_'
'doomed_'
'cra'
'Parsons_'
'Bow'
'ret'
'isa_'
'bisexual_'
'Yr_'
'Freddie_'
'vow_'
'umber_'
'memes_'
'che'
'Summit_'
'Focus_'
'trailed_'
'gamble_'
'Pratt_'
'Mean_'
'Crow_'
'theri_'
'foundations_'
'engulfed_'
'Jasmine_'
'Brook_'
'arise_'
'Warsaw_'
'Thirty_'
'traces_'
'thef_'
'kins_'
'Sharks_'
'Daley_'
'tehir_'
'paints_'
'Hartley_'
'Soli'
'Res'
'Peterson_'
'Cahill_'
'htis_'
'tT'
'sings_'
'handles_'
'Ton'
'Si'
'Jonas_'
'realm_'
'des'
'backers_'
'Ronnie_'
'Lod'
'ul'
'ginger_'
'Wis_'
'ND'
'Analysis_'
'Nin'
'Klitschko_'
'Copenhagen_'
'wavy_'
'pus_'
'Wr_'
'parti'
'exceed_'
'voluntarily_'
'mil'
'cali'
'Gene_'
'BT'
'Trail_'
'liter_'
'hu'
'tossed_'
'Yong_'
'sneak_'
'lee'
'Tel'
'opioids_'
'mindset_'
'hter_'
'magnetic_'
'Una'
'Ri_'
'Joanna_'
'Chis_'
'goal'
'fire'
'100'
'cg'
'cet_'
'Ve'
'Heavy_'
'Blue'
'rS'
'glo'
'fused_'
'befog_'
'admire_'
'Rey_'
'Rev_'
'Kad'
'texture_'
'Roof_'
' (  _'
'rift_'
'offside_'
'iC'
'Washing_'
'recess_'
'keepers_'
'rman_'
'nga'
'milli'
'icing_'
'hse_'
'doses_'
'Petroleum_'
'EA_'
'Card_'
'Aw'
'locking_'
'hangs_'
'vor'
'ris'
'proposes_'
'exceeded_'
'Nicky_'
'mixing_'
'chambers_'
'facilitate_'
'Sergei_'
'BC'
'heath_'
'edit_'
'wn'
'nce'
'loser_'
'dessert_'
'Rock'
'Ramsey_'
'utter_'
'tude_'
'Switch_'
'Hyde_'
'MI'
'tributes_'
'municipal_'
'insiders_'
'Hodgson_'
'Fernandez_'
'jackets_'
'doubling_'
'census_'
'Dub'
'Doyle_'
'Brand_'
'ona'
'editors_'
'assertion_'
'Pad'
'Capitals_'
'falsely_'
'scholars_'
'legislators_'
'MC_'
'Fi'
'tit_'
'proclaimed_'
'laden_'
'bau'
'wood'
'ale'
'U'
'Ru'
'have'
'air'
'Ar'
'iled_'
'eto'
'ien_'
'diminished_'
'scarf_'
'sinking_'
'ora'
'footballers_'
'andt_'
'Ban'
'tiring_'
'Works_'
'thong_'
'roast_'
'announcer_'
'lef_'
'school'
'own'
'iving_'
'Gun'
'Top'
'hon'
'Post'
'maid_'
'ais_'
'Faith_'
'solicitor_'
'advertisers_'
'Penguins_'
'wc'
'characteristics_'
'Popular_'
'rte'
'assessing_'
'Lu'
'Game'
'smashing_'
'ech_'
'year'
'wl_'
'tenth_'
'Zs'
'observations_'
'coe'
'stigma_'
'sinister_'
'nhe_'
'Javier_'
'Gatwick_'
'Falcon_'
'foo_'
'accusers_'
'Sundays_'
'Que'
'Ca'
'Malibu_'
'opa'
'guides_'
'xr'
'stirring_'
'ota'
'influences_'
'Sherman_'
'raged_'
'bald_'
'phe_'
'Cla'
'malicious_'
'insurgency_'
'honeymoon_'
'Hoo'
'oM'
'niece_'
'youths_'
'incline_'
'ctor_'
'atrocities_'
'Monte'
'graffiti_'
'Stacey_'
'Holder_'
'gh'
'leisure_'
'hc_'
'amo'
'seniors_'
'mortar_'
'Scha'
'Dear_'
'Caracas_'
'uti'
'Cho'
' , [ _'
'Cory_'
'bec_'
'alcoholic_'
'GI_'
'hai_'
'Cl_'
'knit_'
'1917_'
'Rhe'
'Kuwait_'
'rin'
'ese'
'ado'
'Woe_'
'strings_'
'anu'
'Raymond_'
'condemning_'
'SP'
'isation_'
'haunted_'
'Aus'
'teri'
'ghe_'
'eco'
'cas'
'ave'
'Margot_'
'5th_'
'dre_'
'Daw'
'resolutions_'
'ohe_'
'monarch_'
'thsi_'
'kindness_'
'Mer'
'analytics_'
'danced_'
'Stay_'
'Ay'
'eben_'
'promptly_'
'ole'
'micro_'
'Hr'
'Cock'
'inflammatory_'
'Sta'
'Hr_'
'Ful'
'Agriculture_'
'hostility_'
'ribs_'
'inci'
'translate_'
'107_'
'hra'
'Stanton_'
'Lind'
'sacking_'
'GTE_'
'wounding_'
'wb'
'ran'
'hitter_'
'blasts_'
'alli'
'aK'
'wu'
'Notre_'
'console_'
'assa'
'Belt_'
'fours_'
'Meh'
'Com'
'Chevrolet_'
'ff'
'Thi'
'tet'
'que'
'pol'
'hS'
'coats_'
'comet_'
'SV'
'applauded_'
'uno'
'Bp'
'reliance_'
'ahe_'
'Billie_'
'surrender_'
'sei'
'endorse_'
'ection_'
'berth_'
'123_'
'mechanical_'
'Cin'
'garnered_'
'axed_'
'Benitez_'
'warrants_'
'hit'
'harrowing_'
'Detectives_'
'rescuers_'
'mme'
'glittering_'
'Tor_'
'Shed_'
'MIT_'
'Athletics_'
'swipe_'
'acu'
'Kp'
'Hawthorn_'
'Gua'
'progressed_'
'occurring_'
'malware_'
'battlefield_'
'Wer'
'Nepal_'
'5bn_'
'(  _'
'associations_'
'sy'
'prosecute_'
'lk_'
'Penny_'
'Kim'
'CBO_'
'readily_'
'meltdown_'
'Gs'
'ister_'
'Xavier_'
'Join_'
'EB'
'transmission_'
'brake_'
'bins_'
'tighten_'
'befoul_'
'Jar'
'vigil_'
'renting_'
'Ana'
'ived_'
'rem'
'King'
'pan'
'defiant_'
'curls_'
'hou'
'bully_'
'bowled_'
'WE'
'Higgins_'
'MT'
'prediction_'
'oils_'
'Tourism_'
'Stirling_'
'pads_'
'gaze_'
'dat_'
' ? ' _'
'Running_'
'Delaware_'
'gauge_'
'composite_'
'Wes'
'Qatari_'
'ola'
'individually_'
'coun'
'pert_'
'concludes_'
'East'
'cho'
'Gra'
'tails_'
'Cotton_'
'stride_'
'inspectors_'
'generic_'
'belts_'
'Reu'
'Restaurant_'
'GB'
'prep_'
'hunter_'
'aw'
'pope_'
'disc_'
'az_'
'Der_'
'worship_'
'forgot_'
'Dior_'
'ruthless_'
'Ros'
'Clarkson_'
'tolerate_'
'ashes_'
'Speech_'
'visibly_'
'tI'
'acknowledges_'
'partying_'
'Rain_'
'Ivy_'
'Housewives_'
'oN'
'glance_'
'Boe'
'BN'
'pretending_'
'mani'
'gn'
'Syrians_'
'Black'
'statute_'
'Shi'
'olo_'
'ys'
'iu'
'Theo_'
'Reform_'
'polished_'
'Turn_'
'ause_'
'wlil_'
'honours_'
'gum_'
'quet_'
'athletics_'
'ds'
'xu'
'layered_'
'bled_'
'Jakarta_'
'mt'
'Rhodes_'
'sect_'
'Hai'
'Bar'
'ss'
'fig_'
'bri'
'ug'
'ii'
'displaying_'
'assurances_'
'Sr'
'wallet_'
'repay_'
'nu'
'insi'
'curtain_'
'Hin'
'velvet_'
'populism_'
'mc'
'Gir'
'tile_'
'Moroccan_'
'HS'
'wha'
'Kam'
'Este'
'Damien_'
'Cant'
'impending_'
'cam'
'Chair_'
'wra'
'vng_'
'Missing_'
'roller_'
'NY'
'Lp'
'Bottas_'
'Scotsman_'
'Really_'
'Ori'
'Especially_'
'dangerously_'
'soar_'
'evolving_'
'Boko_'
'BB'
'scoop_'
'cho_'
'topless_'
'plead_'
'compact_'
'bot'
'barring_'
'oins_'
'RF'
'ope'
'free'
'altercation_'
'Pop'
'vivid_'
'verb_'
'ster'
'olo'
'Colts_'
'tro'
'geek_'
'ez'
'every'
'PM'
'judgement_'
'insects_'
'Initially_'
'Christi_'
'brilliantly_'
'stumbled_'
'iwll_'
'explores_'
'confronting_'
'Uw'
'tumor_'
'sideline_'
'proc'
'eye'
'Sound_'
'Sadiq_'
'hle'
'Monroe_'
'Goals_'
'ici'
'Parr_'
'GA_'
'Wil'
'Fs'
'wither_'
'whereabouts_'
'sed'
'sL'
'demo'
'adopting_'
'lor'
'145_'
'specify_'
'sI'
'receivers_'
'insults_'
'Wu'
'Otherwise_'
'promotes_'
'societies_'
'netting_'
'aR'
'relegated_'
'oceans_'
'Meyer_'
'unwilling_'
'WWE_'
'Ela'
'cher'
'aro'
'Mra'
'scar_'
'avalanche_'
'More'
'Miley_'
'Cul'
'Ang'
'dis'
'autopsy_'
'thrill_'
'wreck_'
'oar'
'Pri'
'expelled_'
' . ) , _'
'lur'
'itt_'
'SD'
'Klo'
'tant_'
'37'
'nse'
'Roll_'
'Giving_'
'Strachan_'
'sanction_'
'Ore_'
'upward_'
'hare_'
'gin'
'Pearl_'
'Lou'
'Hell_'
'Pol'
'Low'
'18'
'terribly_'
'oS'
'ima'
'hap_'
'lan'
'bro_'
'operative_'
'cottage_'
'ui'
'Kazakhstan_'
'128_'
'dA'
'Married_'
'umbrella_'
'outh_'
'ision_'
'ify_'
'beefier_'
'blouse_'
'advertised_'
'gua'
'dou'
'Gut'
'VA'
'Qui'
'debit_'
'sur'
'TW'
'Rivera_'
'Bai'
'subscription_'
'finalists_'
'drunken_'
'carnival_'
'rpo'
'Aga'
'discomfort_'
'Bee_'
'yc_'
'ologist_'
'escaping_'
'Sasha_'
'zr_'
'junk_'
'any'
'administered_'
'Whi'
'Motherwell_'
'risked_'
'Jen_'
'tihs_'
'Whitney_'
'Ram'
'Hand_'
'Gloria_'
'Address_'
'spurred_'
'sW'
'payers_'
'mak'
'dough_'
'catcher_'
'Moo'
'essence_'
'Royce_'
'excluding_'
'Hat'
'pigs_'
'enables_'
'Fox'
'uprising_'
'Norton_'
'Kol'
'Harold_'
'gg_'
'Fine_'
'Bha'
'nI_'
'flaunts_'
'Cycling_'
'os'
'bea'
'Gera'
'tee'
'flat'
'HU'
'rC'
'cries_'
'BE'
'woven_'
'sol_'
'Yn'
'nk'
'obliged_'
'cen'
'api'
'df_'
'Scho'
'frames_'
'blockade_'
'conceived_'
'Wp'
'whil_'
'ution_'
'printing_'
'swelling_'
'sru'
'sett_'
'organize_'
'Wro'
'Winner_'
'Ple'
'dil'
'Neville_'
'I'
'zc'
'offseason_'
'hurdle_'
'worm_'
'lite_'
'ime'
'Jet_'
'Dunn_'
'outsiders_'
'consult_'
'agains_'
'OP'
'KT'
'guru_'
'Questions_'
'Lodge_'
'rns_'
'possessing_'
'obscure_'
'canvas_'
'Visit_'
'Del'
'tal'
'remake_'
'fundraiser_'
'Key'
'Above_'
'va'
'ore'
'iti_'
'arc_'
'Dragons_'
'5p_'
'sto'
'hig_'
'Nets_'
'strengths_'
'legitimacy_'
'Said_'
'iro_'
'cancellation_'
'arn'
'Wan'
'king'
'interception_'
'hree_'
'Nieto_'
'mums_'
'Vision_'
'edi'
'Gar'
'spun_'
'hite_'
'dro'
'Yun'
'Pearce_'
'Lucky_'
'Bravo_'
'Forrest_'
'jointly_'
'ij'
'daunting_'
'Kathy_'
' ! '
'love'
'62'
'wid'
'usage_'
'tele'
'rne_'
'ria'
'instability_'
'Til'
')_'
'their'
'Cher'
'defying_'
'absorb_'
'Edmund_'
'seating_'
'polic_'
'blond_'
'astronauts_'
'Zinke_'
'Similar_'
'rout_'
'alle'
'Fu'
'Cot'
'rhe_'
'Terrorism_'
'1800_'
'solving_'
'militarily_'
'acquisitions_'
'rote_'
'allocated_'
'Asa'
'antics_'
'Search_'
'Baltic_'
'":" / _'
'hC'
'Scarlett_'
'Knights_'
'Cunningham_'
'nto'
'insufficient_'
'Tit'
'Ard'
'rooftop_'
'orm_'
'book'
'bas'
'adi'
'Ol'
'Ble'
'stimulus_'
'feather_'
'Turks_'
'Coles_'
'traction_'
'eral_'
'Weaver_'
'Oro'
'owes_'
'inu'
'Huckabee_'
'Dot'
'vendors_'
'thoughtful_'
'meditation_'
'filings_'
'Ata'
'stereotypes_'
'kits_'
'Shoe_'
'iously_'
'Io_'
'interpreted_'
'Ground_'
'sby_'
'cac'
'bargaining_'
'erry_'
'erected_'
'bw'
'busyness_'
'aster_'
'Was'
'Traffic_'
'Calvin_'
'continuous_'
'Moran_'
'granddaughter_'
'foam_'
'ssa'
'oti'
'gae_'
'direct'
'tran'
'impr'
'fool_'
'Maguire_'
'Ka_'
'undertaken_'
'tes'
'chr'
'nna'
'last'
'Myer_'
'uck_'
'suitcase_'
'ales_'
'Gru'
'rans'
'rag'
'lightweight_'
'TU'
'publishers_'
'Consider_'
'wonk_'
'RP'
'Cri'
'hin'
'faithful_'
'Lap'
'Collection_'
'sT'
'ner'
'sil'
'Sharp_'
'Imperial_'
'ience_'
'cinemas_'
'ason_'
'Talking_'
'ISIL_'
'Dy'
'Ati'
'mint_'
'RD_'
'unders'
'rous_'
'lazy_'
'imes_'
'Oi'
'pae'
'osed_'
'masters_'
'Counsel_'
'- '
'tin'
'ler'
'Stu_'
'McGrath_'
'Wt'
'synthetic_'
'consulted_'
'Kellyanne_'
'Hayden_'
'unconstitutional_'
'nanny_'
'ades_'
'tar'
'show'
'sb_'
'compounds_'
'Tat'
'Hoover_'
'Big'
'tail'
'nor'
'dS'
'Nim'
'vea'
'outset_'
'qui'
'feld_'
'eW'
'coordination_'
'Wen'
'them'
'Ber'
'185_'
'swings_'
'strains_'
'satisfy_'
'mend_'
'filibuster_'
'Bit'
'rocking_'
'fly'
'aha'
'Hes'
'Bau'
'soh'
'mr'
'capitalism_'
'Vit'
'resu'
'oz'
'Ii'
'vastly_'
'mm'
'T20_'
'Palestine_'
'Kashmir_'
'210_'
'whirl_'
'sor'
'grind_'
'Une'
'AG'
'nl'
'ared_'
'Tar'
'othe'
'ency_'
'embedded_'
'Yor'
'SW_'
'DP'
'Lr_'
'Forth_'
'Bun'
'ger'
'Thu_'
'tern_'
'misled_'
'Mak'
'efore_'
'Yp'
'logistics_'
'cholesterol_'
'affluent_'
'acy_'
'Tah'
'qualifiers_'
'organise_'
'fater_'
'eci'
'JU'
'sE'
'begging_'
'Fp'
'Brittany_'
'voi'
'js'
'capt_'
'LU'
'EC_'
'mads_'
'delegates_'
'dat'
'unde_'
'standout_'
'seeming_'
'manly_'
'dray_'
'Mast'
'Linton_'
'Gla'
'Acting_'
'torso_'
'Pli'
'Fer'
'spiral_'
'reeling_'
'Mont'
'shrink_'
'reservations_'
'lsi'
'dli'
'Graeme_'
'GO_'
'Fit'
'Cost_'
'neg'
'brea'
'1958_'
'startling_'
'leek_'
'Gian'
'rese'
'eti'
'thumbnail_'
'remo'
'Cor'
'liberty_'
'deni'
'Sri'
'unlock_'
'biased_'
'Cas'
'vans_'
'tain_'
'rig'
'ainst_'
'tures_'
'parity_'
'convenient_'
'trajectory_'
'cting_'
'Romney_'
'Northeast_'
'Newsweek_'
'É'
'translated_'
'nei'
'mra'
'enviable_'
'alu'
'whipped_'
'pg'
'bie_'
'Tes'
'Sche'
'Construction_'
'passive_'
'forefront_'
'trader_'
'rite_'
'prominence_'
'Wind_'
'Extra_'
'Ark_'
'mun'
'headache_'
'Uganda_'
'Cola_'
'Chie'
'traced_'
'grad_'
'unarmed_'
'Apparently_'
'gest_'
'conv'
'El'
'Cross'
'reversal_'
'peo'
'biting_'
'Charleston_'
'6th_'
'Int'
'yle_'
'wan'
'Surely_'
'rto_'
'now'
'Mental_'
'Em_'
'Dit'
'inst_'
'fearful_'
'drastic_'
'NFC_'
'Lai'
'36'
'turbulent_'
'sk'
'gil'
'Sat'
'Hero_'
'zan_'
'Natasha_'
'Monster_'
'Jaime_'
'kis_'
'exceptions_'
'backstage_'
'IDE_'
'Leah_'
'rance_'
'bd'
'Highlands_'
'118_'
'uh'
'tycoon_'
'teh'
'shadows_'
'meek_'
'Type_'
'ander_'
'sce'
'plat'
'microphone_'
'Ramsay_'
'Ethiopia_'
'BF'
'hol_'
'winding_'
'cock_'
'ato'
'Homes_'
'puzzle_'
'cough_'
'Roe'
'03'
'ln'
'chaired_'
'Lancaster_'
'hthe_'
'goo'
'airing_'
'swung_'
'staple_'
'raining_'
'AU'
'artillery_'
'tsi'
'tp_'
'throwback_'
'tasting_'
'relocated_'
'nie'
'SB'
'DD'
'Benz_'
'wed'
'puck_'
'char'
'Comm'
'stacked_'
'timber_'
'oha'
'Wu_'
'uta'
'enberg_'
'detonated_'
'Violence_'
'Pamela_'
'Date_'
'í'
'xe'
'surround_'
'Pet_'
'Ed'
'orts_'
'iOS_'
'Semitic_'
'Ride_'
'commands_'
'spilled_'
'Cheshire_'
'Jerome_'
' (_'
'sensitivity_'
'avail_'
'Pac_'
'OM'
'McKe'
'hanged_'
'adventures_'
'EFL_'
'hed'
'cape_'
'anda_'
'Eco'
'crunch_'
'Kay'
'refined_'
'echoes_'
'Rat'
'Customers_'
'nn'
'grieving_'
'submission_'
'oco'
'IE'
'Ay_'
'ske'
'signalled_'
'scrambled_'
'respectful_'
'orientation_'
'contests_'
'ading_'
'Wasps_'
'Spotify_'
'Bat'
'122_'
'mouse_'
'howl_'
'Hus'
'oal_'
'Sea'
'prefers_'
'nha'
'asa'
'Land'
'Into_'
'nig'
'OB_'
'Lah'
'1million_'
'aso_'
'tapping_'
'sporty_'
'Shirley_'
'Nr_'
'HE'
'restructuring_'
'pat'
'nan'
'ib'
'elusive_'
'Yiannopoulos_'
'Nicholson_'
'Calgary_'
'2026_'
'North'
'Head'
'productions_'
'fb'
'beers_'
'eries_'
'Ly_'
'zer'
'clo'
'Cups_'
'tsp_'
'rge'
'ceremonies_'
'aion_'
' ! !_'
'nas'
'rew_'
'manufactured_'
'fra'
'fay_'
'Resident_'
'Ventura_'
'Nova_'
'High'
'planting_'
'genocide_'
'coincidence_'
'Ky'
'withdrawing_'
'wept_'
'Rw'
'Ballet_'
'Angelina_'
'‑_'
'embattled_'
'Qr_'
'Ade'
'xs'
'illa_'
'gur'
'Variety_'
'yw_'
'lear_'
'Mia'
'Host_'
'Sle'
'Pierce_'
'Mark'
'Lan'
'Cp'
'Constable_'
'CB'
'2bn_'
'wree_'
'supervision_'
'ewre_'
'workshop_'
'severed_'
'lunchtime_'
'harvest_'
'pared_'
'rampant_'
'E'
'vw'
'kan_'
'UP_'
'zi'
'fie'
'Ter_'
'Kc'
'yla'
'xi_'
'qr_'
'lC'
'jar'
'shale_'
'gusts_'
'Sal_'
'Cour'
'Bc'
'kno'
'km'
'ent'
'WO'
'Mu'
'reopen_'
'pairing_'
'Tropical_'
'Soc'
'Melanie_'
'Beat'
'Antoine_'
'offending_'
'circulation_'
'oul'
'Sul'
'Prat'
'pos_'
'opposes_'
'corrected_'
'KA'
'Carney_'
'sB'
'roy_'
'Rocky_'
'waits_'
'streamed_'
'reci'
'holed_'
'Route_'
'licensing_'
'convict_'
'Hold_'
'Dia'
'tub_'
'botched_'
'Anything_'
'mp4_'
'Hockey_'
'Deep'
'rifles_'
'gratitude_'
'Round'
' ] '
'mA'
'deficits_'
'ald_'
'Ner'
'Gc'
'Ad'
'prejudice_'
'epa'
'NBN_'
'Mf'
'Lit'
'qc'
'licenses_'
'foil_'
'deductions_'
'Train_'
'Terminal_'
'Rol'
'Ou'
'eni'
'RM'
'Luc'
'Holding_'
'lin'
'branding_'
'Om'
'Electoral_'
'tne'
'gamed_'
'Sut'
'Eli_'
'pur_'
'pso'
'pn'
'appliances_'
'Shad'
'Pretty_'
'Hilary_'
'ska_'
'fish'
'Pl'
'yg_'
'senate_'
'reminiscent_'
'Hour_'
'speculated_'
'oD'
'novelist_'
'elo'
'TB'
'Fremantle_'
'eP'
'Cha'
'Pew_'
'Kurdistan_'
'rbo'
'into'
'Talent_'
'Ne'
'repeating_'
'bitten_'
'read'
'Hm'
'Dorset_'
'stan_'
'seh_'
'Naval_'
'apt'
'Bach_'
'sel'
'Tinder_'
'Ami'
'ified_'
'beo'
'Xr_'
'meh_'
'looms_'
'gases_'
'sticky_'
'pumping_'
'crocodile_'
'Von_'
'Marawi_'
'laptops_'
'iF'
'Rolls_'
'Bak'
'nta_'
'itis_'
'stadiums_'
'oi'
'iri'
'balancing_'
'Click_'
'bet'
'boiled_'
'Milo_'
'Hello_'
'hunk_'
'Mariah_'
'Hannity_'
'Agent_'
'91'
'rece'
'Ricardo_'
'Morton_'
'Lau'
'bou'
'balloons_'
'oor_'
'density_'
'Tor'
'Tn'
'Spider_'
'peach_'
'courthouse_'
'sourced_'
'od'
'losers_'
'Ritchie_'
'Gu'
'Cassini_'
'vis'
'overseen_'
'just'
'Leu'
'ome'
'eurozone_'
'CH'
'cw'
'Too'
'Manly_'
'Kha'
'thankful_'
'ihe_'
'couture_'
'coa'
'Tu'
'suspicions_'
'praying_'
'jan'
'imi'
'Bromwich_'
'servant_'
'ironed_'
'ected_'
'criticize_'
'Belle_'
'poli_'
'otu_'
'Rn'
'Brook'
'Bran_'
'45'
'daylight_'
'rab'
'banana_'
'Ti'
'instinct_'
'satisfying_'
'nel'
'honesty_'
'Yon'
'UM'
'Sochi_'
'sines_'
'rf_'
'UR_'
'Hen_'
'Alps_'
'itch_'
'interventions_'
'harmed_'
'fiancé_'
'Southwest_'
'Sko'
'Kru'
'Ds'
'spokes_'
'linger_'
'fini'
'disruptive_'
'afi'
'squa'
'Bel'
'wraps_'
'tf_'
'ransomware_'
'pS'
'nary_'
'emailed_'
'diverted_'
'advocated_'
'Arpaio_'
'uri'
'paced_'
'distract_'
'communi'
'acknowledging_'
'Va'
'Swa'
'rallying_'
'ik'
'fling_'
'faculty_'
'elementary_'
'DU'
'Alves_'
'ure'
'sponsorship_'
'ourt_'
'grand'
'Ss'
'119_'
'poo_'
'injected_'
'gran'
'Jeep_'
'Wool'
'scales_'
'aq'
'Styles_'
'scrambling_'
'rematch_'
'fn'
'fac_'
'Wawrinka_'
'Pha'
'sG'
'remotely_'
'gestures_'
'derived_'
'  :_'
'injunction_'
'cycles_'
'Wanderers_'
'Mus'
'Mix_'
'Bezos_'
'trai'
'startup_'
'baaing_'
'QB_'
'thet_'
'rol_'
'jpg_'
'bots_'
'Du'
'Bw'
'strap_'
'seizure_'
'dynamics_'
'barrister_'
'HM'
'utilities_'
'tai'
'flipped_'
'domain_'
'machinery_'
'continually_'
'Californian_'
'log'
'laundry_'
'DAR_'
'sz'
'surgeons_'
'inclined_'
'directs_'
'Ns'
'50'
'mli'
'instrumental_'
'arm'
'apples_'
'chooses_'
'Suddenly_'
'xo_'
'unavailable_'
'fac'
'beaming_'
'FILE_'
'Berk'
'stag_'
'peaks_'
'nit'
'hls_'
'filmmakers_'
'Leaders_'
'prostate_'
'excuses_'
'Present_'
'pensioners_'
'hb'
'Xs'
'Shepherd_'
'face'
'eba'
'Leary_'
'processor_'
'disgraced_'
'Perfect_'
'Cage_'
'Abby_'
'na'
'match'
'SR'
'Lawmakers_'
'gluten_'
'coastline_'
'Plymouth_'
'understandable_'
'snakes_'
'nell_'
'commanding_'
'Nonetheless_'
'1948_'
'Ther_'
'ji'
'hai'
'Ja'
'Demi_'
'dur'
'Rr_'
'McGuinness_'
'stent_'
'predators_'
'feminism_'
'barbecue_'
'Sinai_'
'RELATED_'
'Cad'
'replicate_'
'liable_'
'Ket'
'" '
'moths_'
'insulin_'
'Bon_'
'restoring_'
'hhe_'
'Swi'
'Jw'
'Jaguars_'
'Ira'
'Oslo_'
'Operations_'
'meta_'
'dew_'
'beaks_'
'Fife_'
'sut'
'step'
'internationals_'
'Side'
'Moeen_'
'God'
'Bus_'
'sj'
'Zp'
'umpire_'
'ruck_'
'determining_'
'allegiance_'
'Fern'
'Down'
'oke_'
'Lum'
'Cousins_'
'row'
'onions_'
'nac'
'hormones_'
'caliphate_'
'Pi'
'Kuala_'
') , _'
'kne'
'tor'
'scars_'
'Rebel_'
'nostalgia_'
'cafes_'
'Vp'
'Tickets_'
'twisted_'
'meany_'
'ient_'
'iad_'
'hoax_'
'Len'
'lp_'
'extinction_'
'Therefore_'
'Sears_'
'Haz'
'Doo'
'sO'
'organist_'
'Zr_'
'Bairstow_'
'defect_'
'Sot'
'Ci'
'AAP_'
'stan'
'forehand_'
'exited_'
'Stranger_'
'Kom'
'Hy'
'sae'
'rk'
'nte'
'infants_'
'cons'
'Pirates_'
'flair_'
'It'
'swell_'
'line'
'align_'
'Bed_'
'oversaw_'
'Stu'
'Pent'
'yah_'
'kno_'
'ool_'
'oj'
'coi'
'bn'
'Walters_'
'Sc'
'Ren'
'Qs'
'Cyber_'
'Cen'
'Baptist_'
'1953_'
'ze'
'volatility_'
'scream_'
'mal'
'cS'
'Shah_'
'wg'
'verify_'
'collectively_'
'Sno'
'Bour'
'Baird_'
'policymakers_'
'abu'
'Tf'
'sH'
'headaches_'
'conscience_'
'Kara'
'Jab'
'Competition_'
'Abdel_'
'unc'
'pow_'
'fashionable_'
'ort'
'neatly_'
'gel'
'Zoo'
'Show'
'Dp'
'spider_'
'rigorous_'
'Qc'
'NM'
'upwards_'
'interactive_'
'shu'
'Nile_'
'Callum_'
'oca'
'cornerback_'
'bull'
'Webster_'
'Ten'
'Crisis_'
'Bruyne_'
'sig'
'severity_'
'make'
'Stefan_'
'Rhode_'
'McInnes_'
'intentional_'
'ico_'
'Gard_'
'Cards_'
'bile_'
'Daniels_'
'galleries_'
'ail'
'Munch_'
'ythe_'
'sti'
'expressions_'
'besides_'
'Poly'
'Macquarie_'
'stared_'
'graph_'
'cp'
'Enterprise_'
'abandoning_'
'MI_'
'Flying_'
'driveway_'
'Griezmann_'
'motives_'
'hce'
'bravery_'
'Ofcom_'
'Fat_'
'xw'
'quitting_'
'nch_'
'heaven_'
'dig'
'dha'
'aya_'
'Kne'
'eBay_'
'Mini_'
'Coca_'
'sam'
'hay_'
'damning_'
'cia'
'spate_'
'pou'
'adorned_'
'prom'
'Stone'
'feast_'
'earthquakes_'
'cork_'
'Won'
'McLean_'
'Kon'
'Conservation_'
'erman_'
'yhe_'
'sti_'
'rge_'
'idi'
'yf_'
'chatted_'
'VIP_'
'cob'
'Plans_'
'truing_'
'nting_'
'leb'
'Nasa_'
'CD'
'gma'
'Farron_'
'portrayal_'
'objectives_'
'era'
'seri'
'gook_'
'fer'
'Ip'
'tta'
'au'
'tep'
'Stre'
'affordability_'
'wasting_'
'regained_'
'est'
'Fleet_'
'Bombardier_'
'1957_'
'stat'
'pai'
'frightened_'
'Mena'
'Bush'
'kh_'
'depicting_'
'specifics_'
'Ting_'
'arly_'
'ang'
'agonist_'
'Woody_'
'sde'
'Spirit_'
'Growing_'
'Dons_'
'Sorry_'
'Furthermore_'
'vet'
'heed_'
'aba'
'Tho'
'Deborah_'
'propelled_'
'VE_'
'Mut'
'212_'
'tB'
'VAT_'
'sunlight_'
'Leading_'
'Bahamas_'
'whatsoever_'
'por_'
'northeastern_'
'mai'
'ive'
'cousins_'
'Yu_'
'Goodman_'
'Female_'
'pil'
'hoes_'
'Lorraine_'
'Beni'
'policed_'
'ensures_'
'ile'
'desired_'
'Wah'
'Vr_'
'Dc'
'prnewswire_'
'mega'
'aA'
'Klan_'
'scen'
'Medina_'
'Berg'
'finalist_'
'dogged_'
'cleaned_'
'How'
'ido'
'dT'
'rdi'
'mba'
'emi'
'dip'
'absorbed_'
'Sl'
'PF'
'Gf'
'FEMA_'
'unified_'
'uhe_'
'sN'
'practicing_'
'alism_'
'Harding_'
'Pir'
'unin'
'spinal_'
'pig'
'gle'
'Zy'
'Moreno_'
'Gha'
'uncommon_'
'tori'
'dt'
'curriculum_'
'Khe_'
'Inverness_'
'Betsy_'
'med'
'top'
'interval_'
'ffi'
'Awa'
'supplying_'
'flourish_'
'MIN'
'Jed_'
'Dani'
'1959_'
'pul'
'poly'
'hou_'
'anytime_'
'Lumpur_'
'Healthcare_'
'matic_'
'Gala'
'Budapest_'
'royalty_'
'rce'
'mirrors_'
'hurst_'
'tri_'
'Leipzig_'
'rein'
'outdated_'
'heroic_'
'alight_'
'Elaine_'
'Bang_'
'compulsory_'
'Ecuador_'
'Bay'
'wou_'
'tas'
'lre'
'bhe_'
'Sli'
'presenters_'
'Rm_'
'McCartney_'
'Lie'
'Ere'
'sP'
'reproductive_'
'reinforced_'
'gae'
'ren'
'rede'
'ploy_'
'efa'
'construct_'
'Masa'
'Chia'
'Cb'
'yy_'
'sufferers_'
'similarities_'
'incorrect_'
'manual_'
'dei'
'beset_'
'Vanity_'
'Salt'
'undue_'
'swear_'
'rga'
'hallway_'
'unlimited_'
'tempting_'
'servers_'
'counselling_'
'Menendez_'
'Heep_'
'Cre'
'unhealthy_'
'onlookers_'
'Galli'
'phenomenal_'
'Mir_'
'soo'
'commenting_'
'bowlers_'
'than'
'sab'
'Yon_'
'Bryce_'
'supplement_'
'rejecting_'
'airstrike_'
'LC'
'Ek'
'tem'
'cove_'
'Ron'
'Geo_'
'focal_'
'fatalities_'
'blueprint_'
'Wd'
'Johnstone_'
'Constand_'
'nthe'
'husbands_'
'Guinness_'
'archive_'
'Lw'
'yr'
'urt_'
'Porsche_'
'Cf'
'sand'
'gha'
'fulfill_'
'camel_'
'accuser_'
'proceeded_'
'Tomorrow_'
'Style_'
'PT'
'implants_'
'ica'
'bunker_'
'automakers_'
'Regardless_'
'Finch_'
'identifies_'
'Sg'
'kr'
'chan_'
'Kul'
'staffing_'
'ios_'
'Faye_'
'nsi'
'light'
'cleric_'
'championed_'
'RG'
'Kn'
'jin'
'combining_'
'Sme'
'Nag'
'Dan'
'restart_'
'reg_'
'overshadowed_'
'mike_'
'elites_'
'Kat'
'Earle_'
'negotiators_'
'fiancee_'
'Known_'
'Hol'
'wng_'
'exemption_'
'confession_'
'child'
'Truth_'
'ré'
'hg'
'Wheeler_'
'Ks'
'Fou'
'Fore'
'Fran'
'Bare'
'°_'
'nian_'
'cathedral_'
'Connie_'
'Cheltenham_'
'AH'
'nial_'
'iR'
'expectancy_'
'330_'
'tered_'
'fences_'
'recounted_'
'rac'
'lism_'
'greats_'
'maritime_'
'wreckage_'
'hugged_'
'hg_'
'pom'
'arch'
'appropriately_'
'Mill'
'Emi'
'volcanic_'
'Pen'
'flock_'
'Gloucester_'
'pats_'
'Wy_'
'TF'
'MR'
'Haiti_'
'Boulevard_'
'whiles_'
'gal'
'aes_'
'supremacy_'
'resemble_'
'mari'
'Rise_'
'Estonia_'
'xr_'
'dim_'
'anticipate_'
'DN'
'1920s_'
'schedules_'
'long'
'unstable_'
'rng_'
'reboot_'
'bor_'
'Uf'
'Coffee_'
'mhe_'
'fur'
'EL_'
'pree'
'kook_'
'home'
'kar_'
'fins_'
'sup'
'directive_'
'insistence_'
'foot'
'64'
'xa'
'qp'
'jumpsuit_'
'sanctioned_'
'Rha'
'Mahmoud_'
'Defoe_'
'Chef_'
'wheres_'
'Tet'
'Laurie_'
'Koe'
'Commander_'
'Sampson_'
'sidewalk_'
'rh'
'ose'
'poles_'
'bse'
'Safe_'
'Life'
'sickness_'
'encouragement_'
'Al'
'placement_'
'pent_'
'fracture_'
'dle'
'counter'
'Thankfully_'
'secrecy_'
'Git'
'proteins_'
'Carlson_'
'tyre_'
'screened_'
'get'
'fhe_'
'centred_'
'Sing_'
'Pn'
'Dominican_'
'Aung_'
'Ariel_'
'newer_'
'enr'
'disciplined_'
'sandwiches_'
'cyber'
'Nap'
'Hy_'
'Gb'
'une'
'Marcos_'
'Sten'
'CEOs_'
'rendered_'
'nam'
'eted_'
'beca'
'reliant_'
'ody_'
'chanting_'
'Ossoff_'
'workouts_'
'vs'
'energetic_'
'culled_'
'cess_'
'Maa'
'Charter_'
'Adidas_'
'upgrades_'
'fam'
'aled_'
'raci'
'Apprentice_'
'nia'
'faulty_'
'dan'
'Vs'
'Marina_'
'tm'
'spies_'
'gre_'
'Sre'
'portray_'
'oman_'
'mean'
'faux_'
'dilemma_'
'Conyers_'
'iT'
'foo'
'ifn'
'gru'
'fuss_'
'buttons_'
'Trump'
'Er'
'theatrical_'
'gli'
'call'
'akamaihd_'
'Paisley_'
'PET_'
'Daddy_'
'Con'
'longs_'
'groping_'
'bio_'
'Kardashians_'
'Halep_'
'wto_'
'iew_'
'Raul_'
'Kap'
'.._'
'rra_'
'nee'
'bureaucracy_'
'Boh'
'operatives_'
'fni'
'Lies_'
'Hobart_'
'amassed_'
'curing_'
'Sti'
'Idlib_'
'violently_'
'soften_'
'powerhouse_'
'pioneer_'
'improves_'
'uj'
'hears_'
'Scalise_'
'marrying_'
'kilograms_'
'juvenile_'
'eus_'
'JP_'
'Dea'
'' ._'
'  (_'
'picturesque_'
'ong'
'owa'
'Smo'
'Pound_'
'whiled_'
'sers_'
'firefighter_'
'Gre'
'resi'
'Redskins_'
'Ai_'
'ved'
'functional_'
'convoy_'
'aE'
'Sne'
'Fork_'
'zp'
'fit'
'ageist_'
'Schulz_'
'Qu'
'wd'
'strips_'
'marred_'
'lst_'
'Way'
'ACLU_'
'watch'
'sound'
'reconsider_'
'notices_'
'Sto'
'Ene'
'slices_'
'nist_'
'esl'
'aar'
'Walton_'
'tme'
'notch_'
'restricting_'
'senses_'
'sU'
'inventory_'
'Sher'
'Dun'
'catering_'
'Poo'
'Cable_'
'Bry'
'soda_'
'kas_'
'Oaks_'
'Noble_'
'Villa'
'Kis'
'Giant_'
'Bring_'
'ush_'
'tog'
'rre'
'hir'
'fills_'
'waiver_'
'ovation_'
'gushed_'
'Sylvia_'
'Fan_'
'railways_'
'platinum_'
'murderer_'
'calorie_'
'bombed_'
'Lun'
'Higher_'
'look'
'Pala'
'Foot'
'Andre'
'Tan'
'Myers_'
'tae'
'enrollment_'
'cli'
'á_'
'culinary_'
'Para'
'fry_'
'dte'
'coul'
'bites_'
'Randy_'
'Bala'
'spreads_'
'afer_'
'33'
'wandering_'
'neglected_'
'demonstrating_'
'techno_'
'needle_'
'favorable_'
'Fro_'
'stylist_'
'scaled_'
'rio_'
'respiratory_'
'lha'
'dreamed_'
'T1'
'proxy_'
'jy_'
'detached_'
'Gal'
'zhe_'
'fend_'
'entertain_'
'cer'
'Tran_'
'Guide_'
'tearing_'
'nta'
'hom'
'cynical_'
'Tale_'
'Scout_'
'hell'
'Italians_'
'swa'
'freak_'
'care'
'bae'
'yman_'
'iner_'
'ills_'
'gar'
'eta'
'eng_'
'char_'
'hues_'
'builders_'
'brakes_'
'bio'
'pne'
'perfection_'
'peek_'
'rting_'
'hay'
'Ravens_'
'Lhe_'
'tiles_'
'Ny_'
'Alvaro_'
'uninsured_'
'relocate_'
'donning_'
'EF'
'165_'
'homage_'
'Aca'
'wrapping_'
'ott_'
'oG'
'night'
'live'
'junction_'
'Growth_'
'CPR_'
'23rd_'
'wherry_'
'mains_'
'lad'
'cn'
'Rea'
'wle'
'ssa_'
'oma_'
'favors_'
'currents_'
'conte'
'46'
'teem_'
'kilometre_'
'Romero_'
'320_'
'will'
'shells_'
'dramas_'
'brushed_'
'uy'
'offend_'
'failings_'
'Deir_'
'Crack'
'royals_'
'admiration_'
'Casino_'
'ired_'
'architects_'
'Hare_'
'df'
'combines_'
'Wig'
'surfaces_'
'ject_'
'hla'
'Kingston_'
'Corden_'
'Amir_'
'Pal_'
'Ober'
'MM'
'Ahe_'
'qui_'
'khe_'
'accus'
'Trip'
'JFK_'
'cont'
'assure_'
'ager_'
'turnovers_'
'els'
'miss'
'FP'
'Counter_'
'1956_'
'obe_'
'ebo'
'leaned_'
'jt'
'Xhe_'
'Lis'
'Barker_'
'ï'
'flo'
'cloudy_'
'beat'
'Mid'
'led'
'hte'
'Zara_'
'Marlins_'
'EL'
'tenant_'
'WR_'
'Packer_'
'NASCAR_'
'Mora'
'wp'
'drowning_'
'Zr'
'Samoa_'
'Cloud_'
'gad'
'Mindy_'
'priests_'
'lick_'
'attracts_'
'Wo'
'Vy'
'Perm_'
'guarded_'
'Wel'
'Cary_'
'attach_'
'patches_'
'eng'
'mov'
'elli_'
'ddo'
'councillors_'
'bullpen_'
'Lyft_'
'Hefner_'
'pm'
'eness_'
'addict_'
'Yr'
'3bn_'
'tical_'
'offspring_'
'Multiple_'
'Mani'
'nai'
'har'
'classics_'
'ban'
'Lr'
'Bo'
'emnt_'
'Schiff_'
'Saul_'
'swimwear_'
'soundtrack_'
'bused_'
'requesting_'
'Zb'
'Fa'
'ials_'
'hardline_'
'wski_'
'stained_'
'sia'
'compensate_'
'Senegal_'
'Choi_'
'Cer'
'yh_'
'plaintiffs_'
'aspirations_'
'Michelin_'
'pensioner_'
'Mea'
'summary_'
'colony_'
'carers_'
'afetr_'
'Spo'
'Sicily_'
'Harbor_'
'gs'
'aho'
'Hogg_'
'whisky_'
'kni'
'lif_'
'Yhe_'
'Elton_'
'lecture_'
'awa_'
'RU'
'sop'
'qr'
'expansive_'
'Oman_'
'Jennings_'
'Nee_'
'Kei'
'G7_'
'vale_'
'tca'
'erp'
'cno'
'PAC_'
'Glas'
'tribes_'
'beach'
'Phe'
'Meadows_'
'vies_'
'annoying_'
'afe'
'Wilders_'
'Fai'
'den'
'Giles_'
'Gea_'
'Gan'
'sufficiently_'
'ventures_'
'jp'
'destroyer_'
'Ys'
'Rp'
'Numbers_'
'Bhe_'
'Bal'
'metals_'
'liking_'
'Trum'
'LOS_'
'Eer'
'supplements_'
'payout_'
'objected_'
'nders_'
'guiding_'
'cross'
'circulating_'
'Garry_'
'sme_'
'lhe_'
'forgive_'
'arbitration_'
'Zon'
'Uu'
'Bin_'
'stripes_'
'sever_'
'xb'
'olle'
'footing_'
'Mat_'
'Mas_'
'fraternity_'
'draw'
'definitive_'
'Ug'
'Phis_'
'Cole'
'hoodie_'
'connects_'
'boasting_'
'Standards_'
'Rafa_'
'Gau'
'moni'
'realising_'
'phoned_'
'curiosity_'
'Dodd_'
'Democracy_'
'agings_'
'Riverside_'
'lakes_'
'Vel'
'drawings_'
'alternate_'
'Vhe_'
'Reince_'
'serpent_'
'nng_'
'epi'
'candles_'
'Papadopoulos_'
'Franc_'
'Bilic_'
'sober_'
'psi'
'Zac_'
'Allison_'
'noo'
'Laden_'
'sthe'
'depths_'
'bir'
'Observer_'
'Marcel_'
'Grie'
'Dab'
'44'
'fascist_'
'alls_'
'Viral_'
'Sung_'
'Dinner_'
'Buffett_'
'ass'
'Wn'
'Twickenham_'
'And'
'tings_'
'onl'
'nton_'
'ips_'
'Ey'
'Ehe_'
'Bark'
'soc'
'fielder_'
'alist_'
'Zone_'
'Khe'
'Donnell_'
'Dhe_'
'Rachael_'
'Pil'
'Gy_'
'Finding_'
'xhe_'
'see'
'humiliating_'
'Grove_'
'shave_'
'merchandise_'
'dda'
'chilly_'
'campuses_'
'Vo_'
'Py_'
'yera_'
'mod'
'guitarist_'
'Ira_'
'rethink_'
'Zverev_'
'Zhe_'
'Mellon_'
'Jack'
'Dragon_'
'insulting_'
'Goo'
'021'
'rence_'
'gro_'
'surging_'
'Op_'
'Bird'
'whirr_'
'tumultuous_'
'Ass_'
'motorbike_'
'iD'
'downward_'
'Of'
'vying_'
'suc_'
'cM'
'SW'
'water'
'mta'
'comb_'
'aftr_'
'Fli'
'Cir'
'Chavez_'
'Ascot_'
'creepy_'
'arri'
'Princes_'
'hs'
'Sp_'
'Pos'
'LB'
'Cameroon_'
'? _'
'want'
'ripe_'
'up'
'thea_'
'Claudio_'
'zy'
'slaughter_'
'mined_'
'edi_'
'Whilst_'
'Fy_'
'aln'
'Ww'
'Grin'
'shining_'
'esp'
'beaus_'
'Portsmouth_'
'FU'
'qi'
'pastry_'
'nter'
'cone'
'Ima'
'rattled_'
'patents_'
'emission_'
'ators_'
'Ghe_'
'prized_'
'hous'
'Ever'
'jhe_'
'ga'
'cio_'
'TIME_'
'Jy_'
'spit_'
'grooming_'
'evenings_'
'drastically_'
'casualty_'
'ami_'
'transitional_'
'physicians_'
'ode'
'hel'
'Snowden_'
'Beg'
'mound_'
'situated_'
'Lyn'
'pharmacy_'
'evolve_'
'drift_'
'NH'
'Burgess_'
'Ars'
'sam_'
'packet_'
'ote'
'medics_'
'bricks_'
'Os'
'greed_'
'Sonny_'
'Mand'
'Lu_'
'Catalans_'
'takeaway_'
'roses_'
'peacefully_'
'emblazoned_'
'Vote_'
'Trek_'
'Kirk'
'Iz'
'Bet_'
'overcame_'
'Cyn'
'thin'
'eruption_'
'Pass_'
'Park'
'KE'
'Irishman_'
'Hhe_'
'Dele_'
'ps'
'ogi'
'Sane_'
'lauded_'
'Bris'
'lecturer_'
'Oy_'
'Hc'
'old'
'gen'
'raven_'
'qs'
'onw_'
'ns'
'diamonds_'
'Pan'
'Nal'
'Dijk_'
'pse'
'oli'
'offended_'
'improper_'
'aggregate_'
'Hul'
'Hatch_'
'rung_'
'preferences_'
'Strait_'
'Celt_'
'Bia'
'wm'
'py'
'osp'
'Shes_'
'Mart'
'Lockheed_'
'Ic'
'nevertheless_'
'ist'
'cyn'
'tod_'
'soi'
'motherhood_'
'WR'
'Geo'
'Ast'
' /_'
'ruler_'
'iso'
'irrelevant_'
'Mud'
'Maha'
'FS'
'Corby_'
'Boa'
'vhe_'
'participant_'
'instincts_'
'hsi'
'exercising_'
'-'
'nced_'
'nC'
'gon'
'Xr'
'Hig'
'Dor'
'Cars_'
'which'
'swapped_'
'marginal_'
'fil_'
'dubious_'
'cai'
'Shew_'
'Nhe_'
'Listen_'
'loudly_'
'IB'
'cow'
'smugglers_'
'balances_'
'Fry_'
'Bridge'
'BB_'
'lush_'
'lated_'
'Run'
'Glastonbury_'
'supervisor_'
'nB'
'aer'
'work'
'lam_'
'inju'
'dependence_'
'conductor_'
'berries_'
'Tracey_'
'MCG_'
'Kid_'
'Donovan_'
'oedd_'
'sim'
'metropolitan_'
'aV'
'Rowling_'
'â_'
'ya'
'ich'
'Lena_'
'shrine_'
'oth'
'cole'
'Mat'
'Lauer_'
'parting_'
'oit'
'clinch_'
'alley_'
'rro'
'aga_'
'Revolutionary_'
'rowing_'
'piles_'
'oyu_'
'tumbled_'
'Ihe_'
'overnment_'
'Barnett_'
'unr'
'troop_'
'tm_'
'polled_'
'hng_'
'discharge_'
'Wyoming_'
'yaer_'
'shot'
'Technologies_'
'Quick_'
'Charity_'
'COL'
' . . ._'
'ross_'
'plat_'
'lp'
'leopard_'
'Np'
'Mans'
'Felipe_'
'BJP_'
'ilo'
'Uhe_'
'Kara_'
'vb'
'nle'
'namely_'
'illusion_'
'heartfelt_'
'dorm_'
'Parade_'
'Jp'
'Gerry_'
'Gal_'
'mia'
'gie_'
'contingent_'
'gan'
'Rhe_'
'Lakes_'
'Cah'
'mover_'
'cri'
'bne'
'Stand'
'Lc'
'Ey_'
'stet_'
'Economy_'
'reed_'
'oor'
'Lambert_'
'Ire'
'dM'
'acce'
'Ho'
'spanning_'
'pumped_'
'cooperating_'
'ains_'
'Tc'
'Tal'
'CITY_'
'ino'
'dag'
'Arlington_'
'qhe_'
'Spit'
'MMA_'
'Brest_'
'tidy_'
'ims_'
'footprint_'
'dul'
'Writer_'
'Ske'
'1940_'
'there'
'posh_'
'extras_'
'classmates_'
'Watkins_'
'Nah'
'Eli'
'wf'
'rah_'
'patrols_'
'Sol_'
'Odinga_'
'Bob'
'eyar_'
'etr_'
'ejected_'
'Sus'
'Phe_'
'Patterson_'
'199_'
'rd'
'rabbit_'
'listeners_'
'lac'
'births_'
'Ranieri_'
'Mostly_'
'Fifa_'
'Amelia_'
'reminding_'
'flavor_'
'biology_'
'apiece_'
'Vy_'
'Ce'
'intricate_'
'Yt'
'Ff'
'Et'
'sse'
'astronaut_'
'NYPD_'
'Muller_'
'Moody_'
'strappy_'
'showcasing_'
'Mata_'
'lieutenant_'
'creditors_'
'chickens_'
'Hae'
'ticking_'
'rB'
'adverts_'
'Name_'
'LD'
'replaces_'
'ika_'
'basics_'
'Perkins_'
'Jhe_'
'prowess_'
'dC'
'consultants_'
'bale_'
'Orchestra_'
'Ji'
'Anglo_'
'sas'
'poker_'
'pas'
'nand_'
'cluster_'
'bad'
'trending_'
'sphere_'
'rine_'
'indicator_'
'favorites_'
'die'
'Nev_'
'Fhe_'
'qualifications_'
'decider_'
'Comic_'
'vodka_'
'kri'
'jam'
'Hose_'
'Form'
'wishing_'
'spirited_'
'practiced_'
'alos_'
'RI_'
'Hom'
'throug_'
'Qr'
'5000_'
'moo'
'mac'
'eta_'
'criticisms_'
'bc'
'Zin'
'renovated_'
'kle_'
'doorstep_'
'consortium_'
'comb'
'additions_'
'Clinic_'
'surpassed_'
'graduating_'
'dominating_'
'atmospheric_'
'merits_'
'frontline_'
'bowel_'
'Mos'
'Fly_'
'Kala'
'wealthiest_'
'becks_'
'Yy_'
'Lilly_'
'sus_'
'softer_'
'screamed_'
'olic_'
'lured_'
'conglomerate_'
'Wei'
'pon'
'challengers_'
'Dom'
'CH_'
'quantity_'
'need'
'endo'
'Weekend_'
'Malt'
'vaccines_'
'paradise_'
'ned'
'esti'
'Lor'
'mov_'
'heavier_'
'forty_'
'demolition_'
'Chapel_'
'rim_'
'Sic'
'iro'
'adjustment_'
'SPD_'
'Nob'
'NO_'
'ceasefire_'
'VO'
'Lut'
'Loe'
'tumble_'
'secular_'
'horns_'
'eys_'
'cC'
'JC'
'Hell'
'toe'
'probes_'
'Edge_'
'Anita_'
'too'
'sF'
'nL'
'ete_'
'demolished_'
'bolt_'
'Thursdays_'
'Powers_'
'vertical_'
'bypass_'
'EV'
'nma'
'clown_'
'aftre_'
'Rosen'
'OU'
'tornado_'
'mechanisms_'
'dec'
'Oxlade_'
'Ohe_'
'xp'
'slate_'
'embers_'
'distribute_'
'Winchester_'
'sD'
'Muguruza_'
'Carmen_'
'rulings_'
'charismatic_'
'thrush_'
'Cap_'
'fraudulent_'
'eh'
'Tab'
'Ga'
'tat'
'repealed_'
'ois_'
'Wh'
'Iy_'
'45pm_'
' )  _'
'hod'
'WC'
'edo_'
'departures_'
'cy'
'becaus_'
'Whitehall_'
'Uy_'
'Uc'
'Eb'
'legged_'
'angel_'
'Baa'
'Anne'
'quiz_'
'dry'
'TH_'
'Sens_'
'Burg'
'Ase'
'udi'
'sua'
'gos'
'Sd'
'Lyndon_'
'Jo'
'Ate'
'polices_'
'Lig'
'tiy_'
'imaging_'
'effortlessly_'
'comer_'
'Master'
'Kri'
'Irvine_'
'Eu_'
'vei'
'sra'
'noi'
'collapsing_'
'Whe'
'foc'
'earth'
'Universities_'
'Moussa_'
'nno'
'Rhys_'
'HMRC_'
'Breakfast_'
'pect_'
'ofa_'
'Xin'
'Tens_'
'Qw'
'uk'
'tde_'
'oce'
'moer_'
'broadcasters_'
'Frei'
'Denise_'
'2million_'
'verified_'
'sparks_'
'poke_'
'aI'
'EN_'
'luding_'
'Sleep_'
'bea_'
'agonists_'
'Hab'
'ntial_'
'arson_'
'nba'
'flaunting_'
'breaching_'
'UT'
'Ob'
'Ferdinand_'
'Beautiful_'
'statewide_'
'put'
'midweek_'
'kel_'
'hA'
'defects_'
'Title_'
'Ret'
'GoFundMe_'
'tur_'
'tread_'
'integral_'
'fishermen_'
'bruising_'
'angles_'
'Oo_'
'Mah'
'slides_'
'implied_'
'cA'
'ardi'
'computing_'
'Lf'
'Id'
'Hook_'
'vomiting_'
'quieter_'
'conflicting_'
'Fau'
'ntal_'
'fel'
'Swar'
'wild'
'mroe_'
'fats_'
'dismantle_'
'Nn'
'Guatemala_'
'kg'
'Ut'
'Stalin_'
'Nair_'
'Ken'
'Jat'
'Ans'
'tP'
'stricken_'
'proe'
'Cafe_'
'tob_'
'mea_'
'hP'
'fru'
'ela_'
'dere'
'Qy_'
'Ale_'
'manufacture_'
'fount_'
'cos'
'Jan'
'Domino_'
'taped_'
'punishing_'
'gk'
'annoyed_'
'addicts_'
'Yw'
'Underground_'
'lay'
'Coronation_'
'rai_'
'excellence_'
'escort_'
'Il'
'Cran'
'out'
'Territory_'
'Inde'
'Hem'
'Aha'
'melted_'
'how'
'documenting_'
'defenses_'
'Lake'
'espionage_'
'dg'
'cling_'
'atfer_'
'Geoff_'
'wow_'
'testament_'
'lashes_'
'dow'
'Ref'
'lnd_'
'exiting_'
'assumptions_'
'Re'
'homed_'
'consensual_'
'asteroid_'
'Moving_'
'wailer_'
'symptom_'
'sli'
'illustrated_'
'ide'
'aca'
'Rie'
'Kli'
'nationality_'
'Ling_'
'BO_'
'necessity_'
'mas'
'big'
'Mhe_'
'Gren'
'tte'
'hur'
'nonpartisan_'
'Oli'
'Hussain_'
'rive_'
'enlisted_'
'chat'
'Friedman_'
'statutory_'
'rm'
'financed_'
'Kenyan_'
'Cel'
'ew'
'daytime_'
'visibility_'
'expl'
'Rouge_'
'Moonlight_'
'olice_'
'detain_'
'aded_'
'Ik'
'ABM_'
'oen'
'bumper_'
'Hen'
'Gran'
'Giroud_'
'sausage_'
'mpa'
'elevator_'
'ec'
'charred_'
'Near_'
'Hidden_'
'Ender_'
'professionally_'
'iner'
'gc'
'exce'
'dne'
'Pompeo_'
'dna'
'Shocking_'
'poo'
'vat'
'eam_'
'believers_'
'Lle'
'Ax'
'yuo_'
'escalate_'
'accomplish_'
'where'
'lever_'
'bailout_'
'Wre'
'Pres_'
'Cc'
'surrendered_'
'sR'
'rus_'
'Vent'
'Jt'
'wti'
'ead'
'Newark_'
'Ming_'
'fp'
'emo'
'Winter'
'labeled_'
'coping_'
'caste_'
'OD'
'Kali'
'court'
'name'
'Xy_'
'rock'
'cil'
'Marion_'
'gwa'
'news'
'morale_'
'Lid'
' . . . _'
'envy_'
'Zy_'
'333_'
'dinners_'
'Malik_'
'Cam'
'vowing_'
'dolls_'
'disadvantaged_'
'Qhe_'
'ntion_'
'sure'
'igation_'
'Rf'
'rate'
'Swe'
'NZ_'
'devil_'
'Zurich_'
'Wea'
'Discovery_'
'vile_'
'pee'
'Tess_'
'Ke'
'FR'
'unpro'
'plan'
'doi'
'Us'
'UB'
'masses_'
'bum_'
'Ull'
'Rak'
'Qar'
'aout_'
'abstract_'
'thine_'
'Gol'
'selfish_'
'invasive_'
'hwich_'
'EP_'
'Cairns_'
'sity_'
'ring'
'prototype_'
'ndo'
'Solar_'
'Fc'
'Bengaluru_'
'Astana_'
'consultancy_'
'attic_'
'spi'
'pioneering_'
'exc'
'airplane_'
'8th_'
'1944_'
'reversing_'
'Sa'
' - . _'
'wihch_'
'relates_'
'cau'
'oss_'
'loading_'
'hst'
'Op'
'Mg'
'Hog'
'ghe'
'paused_'
'etti_'
'Socceroos_'
'MD'
'variable_'
'partnered_'
'ox'
'din'
'PhD_'
'Hun'
'thro'
'conceal_'
'Antarctica_'
'troll_'
'Duffy_'
'Disneyland_'
'subsidy_'
'stills_'
'roc'
'avoids_'
'Voters_'
'Oat'
'Bena'
'dia'
'bursts_'
'brass_'
'unlucky_'
'headphones_'
'dame_'
'cated_'
'Rs'
'Power'
'Elsa_'
'Dim'
'undertake_'
'reelection_'
'mir_'
'ligament_'
'Ski_'
'frying_'
'eK'
'Short'
'Manus_'
'Allo'
'Af_'
'seu'
'hydro'
'handgun_'
'footed_'
'Sud'
'Sad'
'Mura'
'José_'
'uor'
'reme'
'pei'
'dB'
'amended_'
'weddings_'
'Who'
'Stat'
'Murder_'
'Iu'
'slogans_'
'Stafford_'
'Mes'
'DF'
'tis'
'rau'
'prank_'
'nla'
'kf'
'dit_'
'Gwyneth_'
'Cout'
'payroll_'
'choir_'
'OI'
'185'
'ranch_'
'inserted_'
'Kale'
'Dee'
'lg_'
'indie_'
'differing_'
'cine_'
'stalking_'
'secretive_'
'rgo'
'pits_'
'omre_'
'nies_'
'Brun'
'toured_'
'forgiven_'
'Vw'
'Ole'
'Bona'
'sJ'
'massively_'
'cael_'
'Zen'
'Atkinson_'
'np'
'circular_'
'rib_'
'font_'
'ait'
'Uri'
'Nt'
'KE_'
'SAM_'
'Luton_'
'Halifax_'
'Gord'
'ird_'
'inhabitants_'
'ecosystem_'
'dapper_'
'Pon'
'Osa'
'Chap'
'rest'
'markers_'
'chy_'
'Return_'
'Pena_'
'Fah'
'theb_'
'envelope_'
'bugs_'
'Rand'
'HQ_'
'patrons_'
'rbe'
'freshly_'
'carnage_'
'atn'
'Kraft_'
'ols_'
'merged_'
'frontman_'
'firmer_'
'eC'
'Watergate_'
'Skye_'
'Her'
'ttes_'
'ras'
'policemen_'
'even'
'abot_'
'Tenn_'
'tom'
'mre'
'honed_'
'bounds_'
'TRA'
'Luiz_'
'Hans'
'Blackpool_'
'rna'
'quartet_'
'mill'
'mies_'
'Treaty_'
'uphold_'
'slips_'
'ironic_'
'Wa'
'def'
'clutching_'
'abducted_'
'rco'
'nerd_'
'Squad_'
'Reef_'
'Pity_'
'Cell'
'qy_'
'ises_'
'hp_'
'automation_'
'Semitism_'
'Mou'
'Cic'
'tad'
'sunk_'
'sprayed_'
'Row_'
'Mos_'
'toc'
'scorned_'
'quits_'
'gg'
'boos_'
'Stefanovic_'
'CO2_'
'Attack_'
'wie'
'pir'
'nited_'
'humiliation_'
'bemuse_'
'Jays_'
'FCA_'
'Tomas_'
'Mn'
'Ens'
'Carles_'
'iN'
'Englishman_'
'Downy_'
'horrifying_'
'foiled_'
'Pd'
'proi'
'inaccurate_'
'iB'
'galaxy_'
'RY_'
'1955_'
'tD'
'hoop_'
'disbelief_'
'Nuttall_'
'controversies_'
'Oak_'
'Kf'
'muted_'
'iy'
'Ait'
'whcih_'
'wane_'
'kee'
'Thistle_'
'Levine_'
'Hue'
'EE_'
'workshops_'
'rol'
'lish_'
'homey_'
'filly_'
'bake_'
'Stra'
'Eri'
'madness_'
'frantic_'
'auctions_'
'annu'
'McCa'
'Ace'
'oly_'
'esque_'
'dj'
'cap'
'Training_'
'prose_'
'WB'
'ww'
'thous_'
'petty_'
'obtaining_'
'ani'
'Millie_'
'ylo'
'tR'
'ball'
'accustomed_'
'stry_'
'inspections_'
'cot'
'ago'
'rM'
'multinational_'
'late'
'SAN'
'Presley_'
'Phi'
'Ariz_'
'Need_'
'Exo'
'Cron'
'shilled_'
'sav'
'flared_'
'DW'
'Busch_'
' . " _'
'inte_'
'dby_'
'hus_'
'Norther_'
'Met'
'Ligue_'
'186'
'slain_'
'nbe'
'bankrupt_'
'Son'
'STOL_'
'Ms'
'EG'
'punitive_'
'pati'
'Toy_'
'Shel'
'Lak'
'seer_'
'promoter_'
'maternal_'
'installing_'
'agi'
'acquiring_'
'stemming_'
'motorist_'
'mer'
'fof_'
'esteem_'
'Nord'
'Line'
'vy'
'tou'
'dim'
'authenticity_'
'NRA_'
'whihc_'
'token_'
'seam_'
'mural_'
'lop'
'gre'
'eru'
'abi'
'Petro'
'Nadia_'
'Jc'
'web'
'tsunami_'
'og'
'lem_'
'47'
'mineral_'
'injections_'
'Gibbs_'
'17'
'wir'
'slashing_'
'pass'
'downy_'
'Lab'
'Buckley_'
'Bah'
'uha'
'uat'
'logist_'
'indoors_'
'dence_'
'VE'
'sizzling_'
'reacts_'
'port'
'nutrients_'
'taxis_'
'refreshing_'
'nst_'
'hia_'
'canal_'
'310_'
'yro'
'tci'
'mistakenly_'
'likened_'
'disco_'
'cz'
'Pick_'
'arming_'
'Mag'
'abl'
'Wish_'
'NOTES_'
'AG_'
'xit_'
'win'
'outreach_'
'gno'
'eU'
'downturn_'
'Unionist_'
'Po'
'Fear_'
'yre'
'vol'
'historians_'
'chilli_'
'Herman_'
'rain'
'iH'
'edgy_'
'PR'
'whih_'
'deepest_'
'Af'
'sit'
'reef_'
'neath_'
'ko'
'homework_'
'awr'
'Wald'
'prei'
'mans'
'comp'
'Kohli_'
'Finnish_'
'team'
'rri'
'ob'
'Fet'
'Cyclone_'
'Pec'
'yli'
'reinforce_'
'exclusion_'
'bowls_'
'SK'
'Matic_'
'Initiative_'
'gentleman_'
'blow'
'ach'
'Claus_'
'help'
'eck_'
'Stein_'
'resisting_'
'ila'
'hep_'
'Sap'
'Pai'
'zo'
'completes_'
'awa'
'pin'
'ien'
'inb'
'iel_'
'distances_'
'shod_'
'misdemeanor_'
'iver_'
'Countries_'
'tg_'
'nex_'
'lau'
'dork_'
'Levi_'
'Derbyshire_'
'Brad'
'cler'
'Quin'
'Dha'
'reconstruction_'
'mornings_'
'fentanyl_'
'fade_'
'defences_'
'River'
'Fort'
'spe'
'plains_'
'lumber_'
'ku'
'jor_'
'Visitors_'
'Mercury_'
'JE'
'graft_'
'Loa'
'Ex'
'prosecuting_'
'patron_'
'bg'
'Fl_'
'hampered_'
'exterior_'
'aluminium_'
'Alberto_'
'waiter_'
'unveiling_'
'rl'
'Mariano_'
'Ero'
'Bli'
'Assa'
'more'
'DVD_'
'oni'
'jails_'
'heim_'
'du'
'Tol'
'trek_'
'landscapes_'
'briefings_'
'acc_'
'Kla'
'shipments_'
'sailed_'
'indications_'
'Mob'
'Cs'
'main'
'itt'
'Tub'
'Din'
'pest_'
'other'
'doc'
'Tic'
'Levy_'
'Chal'
'expenditure_'
'Zd'
'subdued_'
'rie'
'm3u8_'
'capsule_'
'Kat_'
'rough'
'oc'
'Jad'
'Hs'
'stalls_'
'sen'
'Moor_'
'here'
'dings_'
'acr'
'lian_'
'firmed_'
'Share_'
'Og'
'Mew_'
'rding_'
'overdue_'
'och_'
'git'
'blade_'
'!_'
'eI'
'Alicia_'
'upsetting_'
'uel_'
'capita_'
'breastfeeding_'
'boa_'
'Past_'
'xer'
'wen'
'slope_'
'safeguard_'
'Foot_'
'alerts_'
' . " '
'nof_'
'leg'
'asse'
'Se'
'Piers_'
'Knew_'
'Bre'
'Paltrow_'
'yto_'
'whch_'
'vr'
'leftist_'
'yn'
'gossip_'
'XL_'
'Uk'
'Iri'
'hops_'
'hig'
'Pizza_'
'Ein'
'thed_'
'tacks_'
'gni'
'ens'
'GN'
'yin'
'remembering_'
'loe'
'Job'
'stor_'
'sculptures_'
'quoting_'
'ais'
'Vat'
'Chil'
'stricter_'
'optional_'
'honors_'
'TB_'
'1940s_'
'surrogate_'
'procession_'
'peaked_'
'bracing_'
'Sna'
'365_'
'snow'
'rof_'
'intimidation_'
'iV'
'ached_'
'Oa'
'Dani_'
'CV'
'weary_'
'tol'
'specialty_'
'organising_'
'Tau'
'Blind_'
'McA'
'Ice'
'Hed'
'vernment_'
'Vers'
'eva'
'commuter_'
'Waymo_'
'Ox'
'smu'
'sau'
'replay_'
'hae'
'Rem'
'facet_'
'Globes_'
'Clemson_'
'sleeved_'
'roasted_'
'justification_'
'eam'
'commodities_'
'Not'
'Emery_'
'Calais_'
'129_'
'zip_'
'gir'
'Vn'
'Move_'
'Mm'
'Edgar_'
'wilderness_'
'needy_'
'employing_'
'Gris'
'Cu'
'recurring_'
'proposition_'
'life'
'dictatorship_'
'Coroner_'
'Cook'
'mosques_'
'fk'
'WW'
'sg'
'commun'
'LG_'
'Jb'
'take'
'strikers_'
'pricey_'
'pageant_'
'obo'
'Weiner_'
'playmaker_'
'han'
'gyn'
'eJ'
'discusses_'
'1939_'
'pints_'
'fading_'
'Usually_'
'Fleetwood_'
'pers'
'lB'
'Tensions_'
'Soo'
'Burger_'
'soothing_'
'Tok'
'Luna_'
'Jf'
'Edmonton_'
'tia_'
'abundance_'
'Alt'
'slat'
'shuttle_'
'calculations_'
'sM'
'overs'
'PARIS_'
'Gree'
'Beirut_'
'vied_'
'gradual_'
'affidavit_'
'MLB_'
'Grand'
'semen_'
'Aer'
'Abel_'
'naive_'
'dial_'
'dh'
'bro'
'Spur'
'Forget_'
'Cu_'
'beverage_'
'Lamb_'
'motel_'
'federation_'
'dded_'
'critique_'
'Mara'
'COM'
'Baylor_'
'pod_'
'oP'
'niche_'
'Swede_'
'ML'
'Ede'
'tp'
'ro'
'larder_'
'col'
'rma'
'insured_'
'Sum'
'Mexicans_'
'Easy_'
'Bell'
'wal'
'ise'
'deli'
'Core_'
'sni'
'oro_'
'Railway_'
'OF_'
'shop'
'milling_'
'bloke_'
'mentions_'
'breathtaking_'
'August'
'zha'
'thu'
'aet'
'Smith'
'temper_'
'reli'
'progression_'
'ished_'
'eho'
'dismal_'
'mounts_'
'constructive_'
'Sister_'
'Opel_'
'separating_'
'exits_'
'cheeks_'
'Watching_'
'Reality_'
'versi'
'rob_'
'lm'
'fared_'
'Yer'
'tunes_'
'Kee'
'slaying_'
'rehearsal_'
'duel_'
'Nam'
'zel'
'publications_'
'ensuing_'
'Sitting_'
'Cologne_'
'70th_'
'pted_'
'prescient_'
'Nash_'
'If'
'Billboard_'
'unsuccessfully_'
'refu'
'hT'
'apparel_'
'Superintendent_'
'Fringe_'
'rit_'
'Eti'
'ven'
'lto_'
'Madeleine_'
'rib'
'lds_'
'celeb_'
'vul'
'victor_'
'transforming_'
'Challenger_'
'xt'
'oer'
'istic_'
'communal_'
'abide_'
'reluctance_'
'pli'
'oved_'
'cost'
'cardiovascular_'
'Whit'
'Sco'
'195_'
'ú'
'disappearing_'
'Ku_'
'Ghana_'
'yelled_'
'comi'
'abuot_'
'Ps'
'Bash_'
'unsu'
'posture_'
'ems_'
'courtyard_'
'when'
'nni'
'glove_'
'eit'
'Water'
'Hampden_'
'Alternative_'
'sentiments_'
'politico_'
'leasing_'
'foremost_'
'Make'
'Lec'
'tei'
'pres'
'moe'
'ket'
'sro'
'loosely_'
'Jail_'
'Dmitry_'
'varieties_'
'supp'
'HMS_'
'Dillon_'
'wod'
'traffickers_'
'kla'
'isi'
'gb'
'full'
'Stru'
'Ladies_'
'Ab'
'kre'
'fen'
'enact_'
'dau_'
'skin'
'nberg_'
'introduces_'
'infer'
'Rog'
'Aman'
'fol'
'eared_'
'disturbed_'
'yas_'
'oL'
'Treasurer_'
'Tam'
'Sm_'
'Pho'
'Pell_'
'Gam'
'vra'
'limbo_'
'iac'
'duet_'
'Rule_'
'Felix_'
'unfolding_'
'uan_'
'gw'
'abotu_'
'Nf'
'Geoffrey_'
'eis'
'Symphony_'
'Lewandowski_'
'Had'
'Griffith_'
'toppled_'
'. " _'
'tO'
'redevelopment_'
'realities_'
'ethe'
'bg_'
'Von'
'RR'
'GH'
'vets_'
'thos_'
'revered_'
'oba'
'expe'
'structured_'
'Bl_'
':'
'tub'
'resembles_'
'forehead_'
'enjoyable_'
'Performance_'
'chen_'
'Tru_'
'rebuke_'
'fusion_'
'Claudia_'
'thumbs_'
'los'
'architectural_'
'Moy'
'Four'
'tyres_'
'touch'
'tagged_'
'nm'
'eun'
'Fundy_'
'slay_'
'itu'
'hectares_'
'Oh'
'Dag'
'Wet'
'Mnangagwa_'
'1954_'
'saf'
'liberation_'
'exceptionally_'
'caffeine_'
'atrocity_'
'ained_'
'Sf'
'Penelope_'
'lodge_'
'Bis'
'recycled_'
'prat_'
'conceding_'
'pt'
'predator_'
'nc'
'land'
'Ton_'
'Harden_'
'tot'
'mini'
'esta'
'chie'
'Inland_'
'tio'
'slamming_'
'Sprint_'
'Bud'
'tro_'
'smarter_'
'hazard_'
'drip_'
'Rus'
'testi'
'appalled_'
'Naz'
'NR'
'Draft_'
'dived_'
'cod'
'Robson_'
'Kin_'
'zn'
'ovi'
'ministerial_'
'fulfil_'
'beige_'
'Ora'
'Bi'
'vn'
'aim'
'Ang_'
'seals_'
'screams_'
'heeled_'
'tit'
'gallon_'
'dthe'
'bat'
'Age'
'rell_'
'hots_'
'enthusiasts_'
'easiest_'
'Sin_'
'Jacques_'
'counterterrorism_'
'atomic_'
'Supt_'
'Hyundai_'
'Cent_'
'é'
'uniquely_'
'rewarding_'
'jr'
'disagreement_'
'Nikkei_'
'François_'
'Dam'
'variations_'
'roi'
'pta'
'portable_'
'poignant_'
'ousness_'
'nent_'
'jee'
'bouts_'
'agai_'
'Ill'
'revoked_'
'Timo'
'Te'
'Midwest_'
'Kit'
'Houses_'
'robe_'
'real'
'Mas'
'ods_'
'granting_'
'Woodward_'
'Jou'
'Hn'
'satire_'
'livestock_'
'brow_'
'breeze_'
'tto'
'sng_'
'osa'
'makeover_'
'kc'
'jealous_'
'bpd_'
'Beau_'
'waxy_'
'sip_'
'desirable_'
'cki_'
'ario_'
'Shia_'
'Riz'
'uce_'
'darling_'
'apa'
'Strike_'
'Nes'
'IG'
'Bowman_'
'Belarus_'
'202_'
'sob'
'rammed_'
'Wee'
'sburg_'
'referenced_'
'enter'
'42'
'ntry_'
'erson_'
'covert_'
'contributes_'
'bane_'
'Vf'
'Thor'
'Safe'
'Rebels_'
'Cowell_'
'seasoned_'
'bob_'
'126_'
'von'
'speculate_'
'lio_'
'damn_'
'aced_'
'Tet_'
'vain_'
'twe'
'tabloid_'
'ndi'
'ele'
'bis_'
'Whites_'
'Dao_'
'defamation_'
'cables_'
'Kirsten_'
'Ju_'
'Gere_'
'Borders_'
'tissues_'
'sK'
'mush_'
'kor'
'bos'
'Rin'
'Elise_'
'ès_'
'ngo_'
'lse'
'gog'
'Jee'
'Arm'
'dances_'
'convey_'
'awaits_'
'Jur'
'CON'
'rily_'
'nW'
'lef'
'gne_'
'accordance_'
'Solomon_'
'uge'
'nde_'
'nF'
'infectious_'
'fec'
'duly_'
'Professional_'
'ó_'
'badge_'
'DO_'
'Bette_'
'wuld_'
'Ring'
'Benfica_'
'wakes_'
'beforehand_'
'Feinstein_'
'Auto_'
'rmo'
'fulfilling_'
'corps_'
'boiling_'
'ames_'
'Koo'
'Jac'
'uly_'
'stru'
'Soho_'
'Auburn_'
'wT'
'vsi'
'found'
'charger_'
'Nad'
'Maj'
'baout_'
'Vicky_'
'Aidan_'
'ment'
'joints_'
'blue'
'USE_'
'useless_'
'skepticism_'
'finial_'
'bait_'
'1B_'
'roo_'
'occupy_'
'atis'
'Ya'
'Kin'
'ups'
'toa'
'scathing_'
'nde'
'Machine_'
'Ghe'
'sness_'
'remanded_'
'erg'
'drying_'
'anonymously_'
'Mosque_'
'Herbert_'
'Cut'
'Burr_'
'seizures_'
'grin_'
'explode_'
'coincide_'
'Cherry_'
'stre'
'smoothly_'
'hotly_'
'conc'
'aobut_'
'Shot_'
'Mira'
'exp'
'doom_'
'Sole'
'FF'
'vri'
'uS'
'moderates_'
'matchup_'
'grammar_'
'Tu_'
'Trey_'
'Nou_'
'tempt_'
'snapping_'
'ires_'
'amn'
'Victims_'
'Ghost_'
'vinegar_'
'communicating_'
'Vil'
'usc'
' . " - _'
'unco'
'gla'
'foes_'
'PG_'
'EFT_'
'Den_'
'Cab'
'una'
'tM'
'gruelling_'
'ete'
'Vou'
'steered_'
'sac'
'pert'
'marquee_'
'curator_'
'bookings_'
'ault_'
'abou'
'Dressed_'
'uction_'
'pros_'
'painkillers_'
'molecules_'
'defy_'
'Nielsen_'
'Bel_'
'rO'
'myriad_'
'extensively_'
'Woolworths_'
'Thur'
'Burn'
'dot'
'bit'
'Nir'
'Mt'
'horrors_'
'Xw'
'Vir'
'Sisi_'
'usa'
'sinc_'
'nuder_'
'flung_'
'Hea'
' ? - _'
'inadvertently_'
'expedition_'
'elevation_'
'Sade_'
'Jessie_'
'tC'
'Sen'
'Qualcomm_'
'Gross_'
'11'
'reckon_'
'pea'
'disgrace_'
'DOJ_'
'124_'
'qar'
'ism'
'Nab'
'Fighting_'
'tir'
'picnic_'
'orotund_'
'eG'
'conta'
'vacancy_'
'pon_'
'hitmaker_'
'enhancing_'
'Rup'
'Maca'
'Lae'
'Dog'
'1949_'
'knight_'
'hooker_'
'dined_'
'chu'
'Bridges_'
'lk'
'estates_'
'cari'
'betrayal_'
'Prague_'
'wS'
'oak_'
'iter'
'hn'
'gloss_'
'Cavs_'
'toa_'
'setbacks_'
'prohibit_'
'hk'
'batt'
'wk'
'withstand_'
'rect'
'fart_'
'Summer'
'Cano'
' .... _'
'urs'
'Rica_'
'Bf'
'pping_'
'kings_'
'esh_'
'behaviors_'
'ars'
'Johanna_'
'Féin_'
'Except_'
'munch_'
'impe'
'forcibly_'
'coincided_'
'Tas'
'Lub'
'ny'
'Papers_'
'Lenin_'
'triggers_'
'lov_'
'exploiting_'
'cred_'
'Meryl_'
' : ' '
'stai'
'hings_'
'cheated_'
'atio_'
'acks_'
'Dream'
'worl_'
'storytelling_'
'reacting_'
'ocn'
'Sid'
'Goodell_'
'Candy_'
'sedan_'
'joy'
'designing_'
'Oprah_'
'LAX_'
'Emanuel_'
'Chu'
'Cali'
'revolt_'
'readings_'
'quin'
'openness_'
'mj'
'flavours_'
'Sce'
'Love'
'devi'
'Willi'
'Ran_'
'' '
'thy'
'stunts_'
'hlo'
'KL'
'Alla'
'alum_'
'ahe'
'Save'
'MAR'
'Cool_'
'understandably_'
'translation_'
'tag'
'rc'
'password_'
'Tw'
'plummeted_'
'syrup_'
'rde'
'discriminatory_'
'Witness_'
'Db'
'tightened_'
'hacks_'
'OO'
'whic'
'thereby_'
'irresponsible_'
'debuts_'
'backward_'
'Hosea_'
'Eta'
'cartel_'
'Sag'
'PC'
'Hop'
'rj'
'downstairs_'
'YPG_'
'Block'
'rve'
'posit_'
'fag'
'aids_'
'Conn_'
'Bb'
'38'
'sways_'
'resa'
'fives_'
'devised_'
'booze_'
'Ac'
'pistol_'
'midterm_'
'matte_'
'legends_'
'feminine_'
'fA'
'about'
'Count_'
'App_'
'mn'
'curt_'
'Laz'
'Kenyatta_'
'Episode_'
'127_'
'queues_'
'pundits_'
'prescriptions_'
'Weston_'
'Gone_'
'ignorance_'
'farm'
'arti'
'Jha'
'cae'
'Part'
'ANGELES_'
'nH'
'dal'
'acutely_'
'Som'
'Hf'
'Dd'
'restrained_'
'lis'
'film'
'accentuated_'
'Serbian_'
'OM_'
'word'
'texting_'
'stirred_'
'photo'
'erne'
'delaying_'
'Warwick_'
'McGuire_'
'Bac'
'profoundly_'
'disco'
'Monarch_'
'share'
'auto'
'Rodney_'
'wool_'
'mono'
'would'
'kee_'
'emp'
'Foley_'
'butter'
'Barra'
'navigation_'
'anni'
'Starc_'
'Od'
'Mada'
'prevail_'
'hor_'
'beamed_'
'Janeiro_'
'spr'
'ements_'
'Yb'
'SNL_'
'Lacazette_'
'iced_'
'Rer'
'under'
'busty_'
'accountant_'
'Kante_'
'woud_'
'moi'
'hso'
'Quality_'
'wt'
'warrior_'
'uted_'
'ndy_'
'lua'
'Dep'
'wartime_'
'regal_'
'ids'
'ham'
'ambassadors_'
'Uruguay_'
'Heller_'
'Cet'
'rpi'
'flaw_'
'deadlock_'
'anc'
'Tim'
'Bent'
'taxation_'
'ffs_'
'cht_'
'Whoever_'
'Rudy_'
'Pal'
'FX_'
'FM'
'Editor_'
'Browne_'
'urt'
'tead_'
'sap'
'ores_'
'mng_'
'hacker_'
'bumped_'
'ather_'
'Zie'
'Wc'
'TG'
'Pier'
'Fran_'
'Count'
'2050_'
'yer'
'wording_'
'suites_'
'submarines_'
'Iranians_'
'Gino_'
'Barron_'
'ght'
'mushrooms_'
'mthe_'
'iPhones_'
'favours_'
'Purple_'
'Julius_'
'Bald'
'richer_'
'medial_'
'Ricciardo_'
'Cau'
'porting_'
'peanut_'
'mine'
'ideals_'
'house'
'ao'
'Papua_'
'hating_'
'evacuations_'
'eccentric_'
'Ng_'
'Joo'
'durin_'
'Italia_'
'baffled_'
'Pep'
'Mol'
'Tournament_'
'Shawn_'
'Savannah_'
'Lightning_'
'winn'
'medi'
'downgraded_'
'desperation_'
'cious_'
'ICC_'
'Coates_'
'Aka'
'ori_'
'aO'
'Swan'
'Bren'
' . ( _'
'yi'
'ropes_'
'publicist_'
'RN_'
'Parti'
'LL'
'Georgi'
'Childhood_'
'tL'
'classy_'
'Zo_'
'Superior_'
'Ing'
'Es'
'Cn'
' ' ( _'
'lord_'
'cookies_'
'Georgian_'
'Epi'
'unpleasant_'
'unfold_'
'seance_'
'homosexuality_'
'dents_'
'anted_'
'Schultz_'
'Ris'
'Gen'
'Arabian_'
'lde_'
'dta'
'Wake_'
'Sara'
'Rd'
'Het'
'Aya'
'yone_'
'kly_'
'holidaymakers_'
'Wilder_'
'Ratcliffe_'
'Londoners_'
'Clara_'
'Asda_'
'lS'
'Vig'
'Thins_'
'Mercer_'
'Gag'
'Est_'
'Elm'
'muc_'
'gainst_'
'Yel'
'Trinity_'
'Moni'
'sma'
'shocks_'
'roar_'
'grains_'
'een'
'dads_'
'Neighbours_'
'Harro'
'Handel_'
'Dutton_'
'yell_'
'rme'
'Ws'
'Jer'
'vk'
'Wizards_'
'Coco_'
'pere'
'decidedly_'
'vegetarian_'
'nne'
'nca'
'exodus_'
'don'
'comics_'
'inkling_'
'honoring_'
'criticising_'
'continuously_'
'afforded_'
'Rc'
'yk_'
'terminated_'
'Sims_'
'Monetary_'
'Forty_'
'Camden_'
'& _'
'prevalent_'
'pala'
'md'
'bin'
'Westwood_'
'Rome'
'Paolo_'
'Paddy_'
'Mandalay_'
'Fore_'
'hugs_'
'gee_'
'citi'
'bidders_'
'Ki'
'Aro'
'torch_'
'shakes_'
'nis'
'concession_'
'Sis'
'uor_'
'brokers_'
'aker_'
'TC_'
'Planning_'
'CU'
'sV'
'Wiltshire_'
'Ranch_'
'Kirkuk_'
'termination_'
'rp'
'resentment_'
'ard'
'Vi'
'Goodwin_'
'procedural_'
'poems_'
[...]
