'<pad>_'
'<EOS>_'
' , _'
' . _'
'_'
'в_'
'и_'
' " _'
'на_'
'а_'
' - _'
'е_'
'с_'
'-_'
'что_'
'не_'
'й_'
'о_'
'у_'
'по_'
'м_'
' _'
'В_'
'я_'
'ы_'
'из_'
'к_'
' ._'
'х_'
'за_'
' : _'
' ( _'
' " . _'
'  _'
'го_'
'ю_'
'для_'
'ом_'
'от_'
'его_'
'ой_'
'как_'
'года_'
',_'
'ов_'
'России_'
'то_'
'это_'
'но_'
'ь_'
'._'
'the_'
'до_'
'ая_'
' " , _'
'т_'
'он_'
'По_'
'ть_'
'ми_'
's_'
'их_'
'этом_'
'ую_'
'ли_'
'1_'
' ) _'
'ся_'
'все_'
'будет_'
'году_'
'также_'
'л_'
'н_'
'во_'
'был_'
'ого_'
'или_'
'же_'
'ем_'
'2_'
'было_'
'уже_'
'США_'
'ее_'
'На_'
'a_'
'ей_'
'время_'
'со_'
'5_'
'том_'
'И_'
'А_'
'to_'
'которые_'
'при_'
'ых_'
'ах_'
' " , - _'
' ? _'
'ет_'
'после_'
'только_'
'еще_'
'ами_'
'так_'
'ые_'
'3_'
'мы_'
'более_'
'of_'
'того_'
'Как_'
'Но_'
'ый_'
'может_'
'были_'
'который_'
'2017_'
'лет_'
'in_'
'and_'
'РФ_'
'С_'
' % _'
'им_'
'они_'
'ам_'
'чтобы_'
' ) . _'
'под_'
'4_'
':_'
'ий_'
'г_'
'му_'
'бы_'
'ка_'
' , - _'
'ки_'
'словам_'
'есть_'
'ие_'
'об_'
'ют_'
'человек_'
'этого_'
'2016_'
'области_'
'6_'
'ым_'
'млн_'
'заявил_'
'Это_'
'10_'
'ла_'
' ) , _'
'7_'
'она_'
'ое_'
'Он_'
'руб_'
'будут_'
'была_'
'Я_'
'8_'
'Об_'
'К_'
'когда_'
'чем_'
'ru_'
'если_'
'сообщает_'
'рублей_'
'р_'
'можно_'
'e_'
'быть_'
'ться_'
'У_'
'где_'
'п_'
'те_'
'очень_'
'ни_'
'вы_'
'О_'
'ной_'
'нет_'
'тыс_'
'. _'
'них_'
'0_'
'd_'
'д_'
'год_'
'тся_'
'компании_'
'20_'
'млрд_'
'Ъ_'
'9_'
'страны_'
'ия_'
'При_'
'без_'
' : " _'
'ных_'
'раз_'
'нас_'
'on_'
'15_'
'ись_'
'Ранее_'
'даже_'
'ная_'
'y_'
'данным_'
' '_'
'президента_'
'один_'
'ing_'
'могут_'
'Россия_'
't_'
'всего_'
'ed_'
'два_'
'около_'
'Украины_'
', _'
'сь_'
'30_'
'пресс_'
'ется_'
'ные_'
'всех_'
' .  _'
'Мы_'
'тем_'
'ный_'
'больше_'
'этот_'
'ях_'
'которая_'
'ло_'
'против_'
'кто_'
'сейчас_'
'12_'
'несколько_'
'сообщил_'
'The_'
'этой_'
'которых_'
'между_'
'ась_'
' , " _'
'ему_'
'ив_'
'решение_'
'ии_'
'пока_'
'себя_'
'через_'
'отметил_'
'ного_'
'is_'
'Если_'
'тысяч_'
'суд_'
'является_'
'2018_'
'Москве_'
'ч_'
'ыми_'
'та_'
'ил_'
'Lenta_'
'сти_'
'Однако_'
'За_'
'Владимир_'
' ... _'
'числе_'
'президент_'
'2015_'
'него_'
'стал_'
'Кроме_'
'11_'
'ку_'
' " ( _'
'з_'
'три_'
'свою_'
'власти_'
'ко_'
'день_'
'was_'
'for_'
'глава_'
' ,_'
' ! _'
'ями_'
'ст_'
'ить_'
'that_'
'работы_'
'над_'
'двух_'
'СМИ_'
'место_'
'ва_'
'ям_'
'города_'
'сказал_'
'да_'
'ются_'
'своей_'
'ке_'
'ную_'
'Коммерсантъ_'
'ранее_'
'Напомним_'
'эти_'
'ок_'
'связи_'
'людей_'
'результате_'
'мира_'
'должны_'
'25_'
'ься_'
'ан_'
'14_'
'сегодня_'
'Путин_'
'Москвы_'
'которой_'
'рассказал_'
'дело_'
'После_'
'Также_'
' $ _'
'ского_'
'Не_'
'сть_'
'16_'
'стало_'
'ский_'
'безопасности_'
'ят_'
'18_'
'жизни_'
'Сергей_'
'других_'
'Так_'
'ен_'
'ать_'
'50_'
'вопрос_'
'случае_'
'17_'
'Для_'
'Александр_'
'человека_'
'n_'
'ось_'
'там_'
'нужно_'
'I_'
'дома_'
'передает_'
'стороны_'
'13_'
'ходе_'
'нам_'
' " - _'
'главы_'
'территории_'
'ев_'
'ны_'
'ской_'
'it_'
'ния_'
'стран_'
'кв_'
'б_'
'ин_'
'лишь_'
'перед_'
' " , " _'
'российских_'
'которого_'
'момент_'
'2014_'
'свои_'
'просто_'
'мнению_'
'ью_'
'своих_'
'организации_'
'рамках_'
'ц_'
'мая_'
'100_'
'r_'
'лись_'
'почти_'
'детей_'
'ние_'
'отношении_'
' ; _'
'считает_'
'меня_'
'стали_'
'ою_'
'Все_'
'информации_'
'лся_'
'ты_'
'with_'
'ому_'
'много_'
'именно_'
' " " _'
'00_'
'участие_'
'Р_'
'июня_'
'должен_'
'декабря_'
'Трамп_'
'однако_'
'сентября_'
' % . _'
'19_'
'24_'
'ным_'
'ра_'
' . , _'
'марта_'
'часть_'
'кой_'
'аи_'
'П_'
' " ._'
'июля_'
'нее_'
'Сегодня_'
'сообщили_'
'одной_'
'стране_'
'as_'
'Они_'
'октября_'
'ков_'
'люди_'
'22_'
'министр_'
'ТАСС_'
'РИА_'
'ное_'
'Во_'
'at_'
'Новости_'
'развития_'
'Сирии_'
'М_'
'государства_'
'21_'
'Что_'
'Дмитрий_'
'- _'
'граждан_'
'назад_'
'ию_'
'одного_'
'менее_'
'идет_'
'40_'
'Сейчас_'
'ит_'
'Трампа_'
'ней_'
'января_'
'времени_'
'ова_'
'дела_'
'an_'
'такой_'
'тех_'
''_'
'компания_'
'апреля_'
'первый_'
'работу_'
'ер_'
'ноября_'
'этих_'
'be_'
'тот_'
'среди_'
'ном_'
'частности_'
'he_'
'чего_'
'либо_'
'средств_'
'своего_'
'говорит_'
' / _'
'вот_'
'образом_'
'тоже_'
' % , _'
'районе_'
'которое_'
'ссылкой_'
'другие_'
'Image_'
'конце_'
'es_'
'Н_'
'удалось_'
'деньги_'
'23_'
'ими_'
'новых_'
'группы_'
'тогда_'
'себе_'
'дня_'
'про_'
'проект_'
'нем_'
'котором_'
'потому_'
'мне_'
'Т_'
'ВЧ_'
'ВЦ_'
'правительства_'
'/_'
'известно_'
'ею_'
'надо_'
'полиции_'
' № _'
'эту_'
'годы_'
'месте_'
'have_'
'Санкт_'
'ции_'
'Президент_'
'Из_'
'партии_'
'Она_'
'возможность_'
'этим_'
'ская_'
'Б_'
'премьер_'
'стала_'
'системы_'
'by_'
'таких_'
'o_'
'ж_'
'ти_'
'ним_'
'части_'
'получил_'
'управления_'
'летний_'
'вместе_'
'26_'
'has_'
'всегда_'
'находится_'
'счет_'
'свой_'
'российского_'
'27_'
'сам_'
'ина_'
'l_'
'начала_'
'здесь_'
'всем_'
'пор_'
'from_'
'течение_'
'er_'
'дел_'
'службы_'
'августа_'
'ал_'
'са_'
'Россию_'
'Д_'
'сайте_'
'начале_'
'ly_'
'ситуации_'
'Глава_'
'служба_'
'новые_'
'теперь_'
' ,  _'
'МВД_'
'очередь_'
'например_'
'Вт_'
'ООН_'
'решения_'
'сразу_'
'сделать_'
'пять_'
'are_'
'28_'
'слова_'
'ости_'
'говорится_'
'новый_'
'долларов_'
'суда_'
'проекта_'
'качестве_'
'ость_'
'такие_'
'банка_'
'региона_'
'стоит_'
'цв_'
'  ,_'
'кВ_'
'трех_'
'свое_'
'his_'
'ик_'
'программы_'
'хотя_'
'своем_'
'поэтому_'
'кого_'
'ма_'
'де_'
'ЕС_'
'Его_'
'февраля_'
'ут_'
'нового_'
'комитета_'
'которую_'
' . - _'
'Андрей_'
'Алексей_'
'лась_'
'помощи_'
'компаний_'
'm_'
'ш_'
'четыре_'
'цы_'
'период_'
'ение_'
'директор_'
'дней_'
'29_'
'команды_'
'городе_'
'Украине_'
'второй_'
'ф_'
'рынка_'
'действия_'
'said_'
'сообщила_'
'должна_'
'итогам_'
'две_'
'60_'
'представитель_'
'деятельности_'
'Мир_'
'ец_'
'российской_'
'мире_'
'истории_'
'администрации_'
'последние_'
'этому_'
'Москва_'
'Согласно_'
'данные_'
'поскольку_'
'эта_'
'ничего_'
'имеет_'
'ском_'
'количество_'
'стать_'
',  _'
'Когда_'
'тому_'
'получили_'
' - " _'
'дом_'
'вице_'
'рынке_'
'рост_'
'внимание_'
'жителей_'
'информацию_'
'прошлого_'
'станет_'
'Федерации_'
'ng_'
'э_'
'необходимо_'
'средства_'
'км_'
'сборной_'
'Поэтому_'
'проблемы_'
'работать_'
'центре_'
'экс_'
'закон_'
'центра_'
'МИД_'
'ения_'
'Г_'
'потом_'
'миллионов_'
'срок_'
'самых_'
'министра_'
'считают_'
'or_'
'которым_'
'нашей_'
' ( " _'
'се_'
'жизнь_'
'н'
'" _'
'ведомства_'
'настоящее_'
'одна_'
'had_'
'али_'
'Еще_'
'места_'
'сети_'
'отмечает_'
'Л_'
'Е_'
'ком_'
'получить_'
'полностью_'
'республики_'
'другой_'
'вопросы_'
'2013_'
'составляет_'
'назвал_'
'ру_'
'подчеркнул_'
'ре_'
'A_'
'многие_'
'прошлом_'
'права_'
'not_'
'200_'
'уровне_'
'000_'
'Госдумы_'
'п'
'евро_'
'Ф_'
'лиц_'
'i_'
'ца_'
'пишет_'
'КНДР_'
'al_'
'ль_'
'добавил_'
'Европы_'
'итоге_'
'встречи_'
'следует_'
'пост_'
'господин_'
'га_'
'Германии_'
'31_'
'участников_'
'населения_'
'всей_'
'ЦБ_'
'меры_'
'службе_'
'лось_'
'си_'
'ну_'
'they_'
'До_'
'право_'
'енко_'
'заявила_'
'Владимира_'
'З_'
'меньше_'
'Да_'
'­_'
'бизнес_'
'лучше_'
'пр_'
'затем_'
'помощью_'
'хорошо_'
'шь_'
'h_'
'Петербурге_'
'ля_'
'своим_'
'произошло_'
'число_'
'иностранных_'
'конечно_'
'интервью_'
'вой_'
'месяцев_'
'ских_'
'улице_'
'ики_'
'отношения_'
'Франции_'
'какой_'
'been_'
'ете_'
'but_'
'заявили_'
'Путина_'
'70_'
'Ц_'
'движения_'
'впервые_'
'СССР_'
'района_'
'помощь_'
'часов_'
'делу_'
'новой_'
'работе_'
'35_'
'овать_'
'ребенка_'
'собой_'
'ИК_'
'выборах_'
'войны_'
'одним_'
'80_'
'каждый_'
'политики_'
'Россией_'
'ием_'
'сфере_'
'ООО_'
'500_'
'ту_'
'сил_'
'в'
'Совета_'
'процентов_'
'конца_'
'совета_'
'представители_'
'виде_'
'Михаил_'
'уровень_'
'пройдет_'
'сотрудников_'
'делать_'
'должно_'
'вообще_'
'90_'
'возможности_'
'произошел_'
'То_'
'порядка_'
'ряд_'
'their_'
'  ._'
'2012_'
'первом_'
'таким_'
'речь_'
'сообщалось_'
'прав_'
'погибли_'
'ведь_'
'деле_'
'т'
'такое_'
'россиян_'
'уголовное_'
'закона_'
'целом_'
'тысячи_'
'первой_'
'среду_'
'большой_'
'АО_'
'версии_'
'раза_'
'сотрудники_'
'российские_'
'какие_'
'первого_'
'caption_'
'who_'
'were_'
'интернет_'
'ает_'
'достаточно_'
'Турции_'
'ле_'
'ДТП_'
'акции_'
'пятницу_'
'практически_'
'ье_'
'экономики_'
'Порошенко_'
'ситуацию_'
'центр_'
'Х_'
'Александра_'
'матче_'
'цев_'
'размере_'
'оно_'
'ситуация_'
'состав_'
'ция_'
'правительство_'
'ует_'
'работ_'
'вший_'
'k_'
'смогут_'
'рынок_'
'примерно_'
'нии_'
'УК_'
'ными_'
'will_'
'чемпионата_'
'имени_'
'агентство_'
'Ио_'
'могли_'
'мог_'
'сказать_'
'данных_'
'Игорь_'
'Украина_'
'her_'
'просмотров_'
'секретарь_'
'газета_'
'Тем_'
'культуры_'
'тут_'
'роста_'
'регионе_'
'ion_'
'денег_'
'.  _'
'первую_'
'сумму_'
'с'
'той_'
'заявление_'
'бюджета_'
'Ир_'
'такого_'
'никто_'
'обороны_'
'ау_'
'300_'
'мужчина_'
'выборов_'
'российский_'
'одном_'
'самом_'
'стоимость_'
'производства_'
'понедельник_'
'g_'
'законопроект_'
'органов_'
'банк_'
'ские_'
'к'
'вам_'
'Э_'
'м'
'ства_'
'Дональд_'
'ат_'
'минут_'
'вас_'
'выборы_'
'мся_'
'проведения_'
'месяца_'
'работает_'
'л'
'см_'
'вторник_'
'город_'
'ясь_'
'провести_'
'this_'
'строительства_'
'ятся_'
'являются_'
'Ч_'
'Тогда_'
'начали_'
'бизнеса_'
'Российской_'
'работа_'
'четверг_'
'бывшего_'
'первых_'
'условиях_'
'йте_'
'часто_'
'Газета_'
'Ю_'
'одно_'
'РБК_'
'якобы_'
'Например_'
'материале_'
'строительство_'
'пояснил_'
'д'
'выше_'
'силу_'
'почему_'
'цены_'
'данный_'
'иков_'
'45_'
'действий_'
'источник_'
'самым_'
'таки_'
'друг_'
'бывший_'
'состоянии_'
'сами_'
'проблем_'
'ика_'
'матч_'
'нельзя_'
'видео_'
'It_'
'сих_'
'говорят_'
'лидер_'
'Петербурга_'
'действительно_'
'Теперь_'
'е'
'разных_'
'многих_'
'роль_'
'Вы_'
'образования_'
'Таким_'
'наших_'
'ила_'
'вать_'
'приводит_'
'ич_'
'согласно_'
'команда_'
'р'
'НАТО_'
'санкции_'
'организаций_'
'ул_'
'нов_'
'месяц_'
'о'
'автомобилей_'
'Ш_'
'Ж_'
' ) - _'
'су_'
'нескольких_'
'председатель_'
'ри_'
'тов_'
'услуг_'
'группа_'
'никогда_'
'цен_'
'смерти_'
'Facebook_'
'находятся_'
'говорить_'
'шесть_'
'щ_'
'ответ_'
'благодаря_'
'депутат_'
'ек_'
'автомобиль_'
'президентом_'
'объем_'
'фонда_'
'стью_'
'давно_'
'продукции_'
'кая_'
'игры_'
'Вот_'
'Дональда_'
'Впрочем_'
'государство_'
'оружия_'
'составе_'
'клуба_'
'силы_'
'Ы_'
'ющих_'
'ели_'
'представителей_'
'Среди_'
'ры_'
'наши_'
'куда_'
'процесс_'
'система_'
'военных_'
'начал_'
'а'
'ме_'
'касается_'
'список_'
'заместитель_'
'развитие_'
'недели_'
'доме_'
'возможно_'
'свободы_'
'пяти_'
'регионов_'
'ce_'
'отношений_'
'директора_'
'Й_'
'copyright_'
'поддержку_'
'годах_'
'ья_'
'агентства_'
'губернатора_'
'од_'
'г'
'санкций_'
' " ) _'
'и'
'уют_'
'домов_'
'заседании_'
'площади_'
'принять_'
'уровня_'
'особенно_'
' , , _'
'раньше_'
'некоторые_'
'условия_'
'сто_'
'властей_'
'руководитель_'
'Есть_'
'совсем_'
'people_'
'мир_'
'реализации_'
'Великобритании_'
'у'
'ос_'
'изменения_'
'мест_'
'Фото_'
'вокруг_'
'несмотря_'
'ор_'
'всю_'
'ЦСКА_'
'фильм_'
'семьи_'
'one_'
'сможет_'
'more_'
'оказался_'
'принято_'
'c_'
'поводу_'
'комиссии_'
'кий_'
'мой_'
'принял_'
'ева_'
'остается_'
'out_'
'матча_'
'рассказали_'
'овой_'
'2011_'
'after_'
'предложил_'
'ель_'
'Всего_'
'ера_'
'ите_'
'четырех_'
'автомобиля_'
'столицы_'
'ять_'
'МЧС_'
'ство_'
'up_'
'объектов_'
'портал_'
'школы_'
'использовать_'
' ?_'
'жители_'
'приняли_'
'операции_'
'членов_'
'столице_'
'деятельность_'
'ъ_'
'господина_'
'ров_'
'кино_'
'ИГ_'
'летнего_'
'самого_'
'ё_'
'Крыма_'
'защиты_'
'машины_'
'информация_'
'which_'
'Сергея_'
'состоится_'
'активно_'
'эксперты_'
'здания_'
'Юрий_'
'неделе_'
'зрения_'
'would_'
'наз_'
'Twitter_'
'главный_'
'найти_'
'предприятия_'
'готовы_'
'мер_'
'about_'
'we_'
'имеют_'
'сообщается_'
'оп_'
'х'
'декабре_'
'результаты_'
'планируется_'
'рядом_'
'следствия_'
'наиболее_'
'Ь_'
'председателя_'
'миллиона_'
'акций_'
'хочет_'
'32_'
'скорее_'
'проектов_'
'линии_'
'создать_'
'нефти_'
'нар_'
'Евгений_'
'самой_'
'she_'
'воды_'
'тонн_'
'документы_'
'написал_'
'позволит_'
'поле_'
'Европе_'
'мо_'
'Более_'
'марте_'
'вполне_'
'ности_'
'переговоры_'
'Москву_'
'точки_'
'з'
'позиции_'
'быстро_'
'национальной_'
'цитирует_'
'вопросам_'
've_'
'программу_'
'провел_'
'планирует_'
'общей_'
'конференции_'
'важно_'
'мероприятия_'
'вших_'
'ро_'
'ве_'
'участия_'
'встрече_'
'Пока_'
'От_'
'Интерфакс_'
'Подробнее_'
'факту_'
'2020_'
'странах_'
'страну_'
'Там_'
'работают_'
'систему_'
' " : _'
'метров_'
'включая_'
'сравнению_'
'метро_'
'400_'
'ел_'
'самый_'
'Этот_'
'придется_'
'пр'
'ник_'
'ющие_'
'Ц'
'Крым_'
'сообщении_'
'спорта_'
'втором_'
'st_'
'ото_'
'пути_'
'you_'
'Николай_'
'получила_'
'газа_'
'Чтобы_'
'вновь_'
'первые_'
'скую_'
'ар_'
'слишком_'
'органы_'
'пришлось_'
'рассказала_'
'фильма_'
'женщина_'
'ФСБ_'
'Алексея_'
'Минобороны_'
'никаких_'
'С'
'Первый_'
'воскресенье_'
'банков_'
'Л'
'ts_'
'ними_'
'2019_'
'ас_'
'сентябре_'
'производство_'
'Ё_'
'задержали_'
'края_'
'чуть_'
'снова_'
'Их_'
'продажи_'
'уж_'
'щих_'
'семь_'
'решил_'
'читайте_'
'ками_'
'парламента_'
'суде_'
'оказались_'
'сообщал_'
'которому_'
'пол_'
'ках_'
'ч'
'Бывший_'
'S_'
'комитет_'
'вшего_'
'доля_'
'мае_'
'сколько_'
'ают_'
'отметили_'
'американских_'
'дети_'
'большинство_'
'ночь_'
'Один_'
'мере_'
'составил_'
'главе_'
'2010_'
'Х'
'депутатов_'
'яя_'
'Ч'
'века_'
'Ф'
'весь_'
'Киеве_'
'субботу_'
'Песков_'
're_'
'некоторых_'
'документов_'
'Щ_'
'целью_'
'ста_'
'наб_'
'ь'
'иться_'
'ус_'
'ы'
'СКР_'
'решили_'
'Нью_'
'year_'
'лица_'
'O'
'область_'
'транспорта_'
'нац_'
'дал_'
'дать_'
'це_'
'происходит_'
'поддержки_'
'Ее_'
'труда_'
'Ю'
'борьбе_'
'составила_'
'Олег_'
'кова_'
'б'
'Н'
'армии_'
'фоне_'
'ниже_'
'издание_'
'наг_'
'Отмечается_'
'результат_'
'хотят_'
'основе_'
'ана_'
'прежде_'
'довольно_'
'женщин_'
'йся_'
'будем_'
'пассажиров_'
'all_'
'Сочи_'
'Российская_'
'отмечают_'
'крупных_'
'сделал_'
'He_'
'В'
'le_'
'факт_'
'пострадали_'
'сезона_'
'пользу_'
'нию_'
'нашли_'
'апреле_'
'сайт_'
'вместо_'
'одну_'
'государств_'
'социальной_'
'дает_'
'Именно_'
'Северной_'
'ены_'
'ду_'
'январе_'
' " ) . _'
'наш_'
'ации_'
'У'
'й'
'ющий_'
'Т'
'американского_'
'такая_'
'каких_'
'Г'
'Ж'
'победу_'
'нные_'
'Mr_'
'значит_'
'готов_'
'контроль_'
'ответственности_'
'переговоров_'
'экономического_'
'says_'
'ность_'
'проходит_'
'Д'
'че_'
'33_'
'соглашения_'
'ена_'
'150_'
'чи_'
'техники_'
'документ_'
'лидера_'
'But_'
'А'
'G'
'M'
'основном_'
'A'
'S'
'государственной_'
'сторону_'
' ' _'
'самое_'
'полиция_'
'клуб_'
'проверки_'
'кроме_'
'регионах_'
'К'
'св_'
'C_'
'постоянно_'
'признал_'
'нных_'
'позволяет_'
'участники_'
'процента_'
'iz_'
'режима_'
'говорил_'
'провели_'
'мнение_'
'p_'
'станции_'
'there_'
'российским_'
'управление_'
'time_'
'час_'
'Э'
'ближайшее_'
'when_'
'З'
'ала_'
'женщины_'
'программе_'
'необходимости_'
'должность_'
'страна_'
'ers_'
'призвал_'
'неделю_'
'ноябре_'
'Хотя_'
'соответствии_'
'us_'
'ян_'
'тренер_'
'вечером_'
'смогли_'
'феврале_'
'can_'
'also_'
'E'
'я'
'своими_'
'развитию_'
'накануне_'
'Московской_'
'обвинения_'
'приходится_'
'любой_'
'Известиям_'
'сильно_'
'жилья_'
'водитель_'
'имя_'
'местных_'
'требования_'
'эксперт_'
'Эти_'
'ний_'
'Кубка_'
'минимум_'
'борьбы_'
'самые_'
'первым_'
'I'
'шоу_'
'создание_'
'Ну_'
'first_'
'Мне_'
'Виктор_'
'Власти_'
'Конечно_'
'Б'
'издания_'
'Испании_'
'com_'
'цию_'
'ment_'
'прошел_'
'машин_'
'услуги_'
'нарушения_'
'невозможно_'
'кампании_'
'Я'
'дальше_'
' ) ._'
'фонд_'
'Р'
' -_'
'Республики_'
'октябре_'
'организация_'
'2008_'
'конфликта_'
'федерального_'
'ДНР_'
'36_'
'Медведев_'
'днем_'
'департамента_'
'происшествия_'
'Политика_'
'Е'
'делам_'
'вести_'
'план_'
'М'
'34_'
'руководителя_'
'Ш'
'ди_'
'de_'
'составит_'
'задержан_'
'Максим_'
'Помимо_'
'ис_'
'ог_'
'новую_'
'сезоне_'
'июне_'
'отмечается_'
'губернатор_'
'i'
'ак_'
'еся_'
'предприятий_'
'ш'
'двое_'
'75_'
'отметила_'
'мировой_'
'ги_'
'ВЕДОМОСТИ_'
'топ_'
'Эстонии_'
'than_'
'Суд_'
'Ведь_'
'восемь_'
'55_'
'точно_'
'военные_'
'предложения_'
'преступления_'
'ответственность_'
'технологий_'
'кг_'
' '
'D'
'бюджет_'
'политике_'
'мало_'
'зал_'
'специалисты_'
'rs_'
'статье_'
'Петр_'
'чаще_'
'обнаружили_'
'ц'
'Спорт_'
'чт_'
'ву_'
'городской_'
'первое_'
'tion_'
'Японии_'
'августе_'
'ФАС_'
'состояние_'
'фото_'
'контроля_'
'руководство_'
'э'
'th_'
'летом_'
'Уже_'
'Эта_'
'официальный_'
'источники_'
'выразил_'
'расследования_'
'последний_'
'Южной_'
'Источник_'
'совершенно_'
'депутаты_'
'расследование_'
'дни_'
'Под_'
'Дмитрия_'
'учетом_'
'движение_'
'Киев_'
'счетом_'
'июле_'
'свыше_'
' . " _'
'ня_'
'летняя_'
'Донбассе_'
'ников_'
'опыт_'
'ды_'
'И'
'уголовного_'
'различных_'
'порядке_'
'системе_'
'ировать_'
'регионального_'
'программа_'
'палаты_'
'цена_'
'соглашение_'
'прошли_'
'прежнему_'
'проекты_'
'Reuters_'
' "  _'
'жить_'
'предложение_'
'дороги_'
'Й'
'недавно_'
'играть_'
'кажется_'
'главного_'
'режим_'
'общества_'
'политика_'
'погиб_'
'всему_'
'Министр_'
'Ы'
'ry_'
'нный_'
'аз_'
'Китая_'
'новым_'
'СК_'
'проблема_'
' " ) , _'
'работал_'
'рождения_'
'en_'
'адрес_'
'П'
'крайне_'
'О'
'создания_'
'история_'
'числа_'
'ад_'
'отказался_'
'равно_'
'Здесь_'
'особо_'
'участием_'
'игроков_'
'иметь_'
'чтоб_'
'объявил_'
'щие_'
'исследования_'
'Китай_'
'P_'
'38_'
'кому_'
'In_'
'должности_'
'будущем_'
'военной_'
'so_'
'депутата_'
'причиной_'
'Крыму_'
'экспертов_'
'ес_'
'аварии_'
'структуры_'
'вопросов_'
'становится_'
'Сам_'
'технологии_'
'Российский_'
'Между_'
'Только_'
'могу_'
'вышел_'
'ится_'
'сумма_'
'онлайн_'
'думаю_'
'x_'
'подтвердил_'
'степени_'
'T'
'годов_'
'Почему_'
'другим_'
'2009_'
'последнее_'
'историю_'
'стоимости_'
'ским_'
'енных_'
'вшие_'
'Правда_'
'Украину_'
'каждого_'
'37_'
'здоровья_'
'десять_'
'представителя_'
'телеканал_'
'напомнил_'
'ча_'
'C'
'Ольга_'
'сон_'
'Павел_'
'президенту_'
'мероприятий_'
'отрасли_'
'второго_'
'людям_'
'правила_'
'Новый_'
'сотрудничества_'
'правил_'
'me_'
'Кореи_'
'Ё'
'территорию_'
'Кто_'
'немного_'
'вая_'
'подписал_'
'лишения_'
'комплекса_'
'базе_'
'уверен_'
'появилась_'
'помочь_'
'вчера_'
'нарушение_'
'ному_'
'среднем_'
'социальных_'
'B'
'принимать_'
'театра_'
'ай_'
'пострадавших_'
'лично_'
'сделки_'
'руки_'
'официально_'
'модели_'
'нашего_'
'возбуждено_'
'группе_'
'обеспечения_'
'P'
'F_'
'американской_'
'пришли_'
'ще_'
'боевиков_'
'ровать_'
'Несмотря_'
'правоохранительных_'
'чемпионате_'
'погибших_'
'международных_'
'обеспечить_'
'сказала_'
'ракеты_'
'главное_'
'Саакашвили_'
'курс_'
'its_'
'Общество_'
'нему_'
'союза_'
'аться_'
'намерен_'
'причем_'
'ха_'
'ряда_'
'заявления_'
'турнира_'
'Петербург_'
'Кстати_'
'рубля_'
'ено_'
'ром_'
'нес_'
'квартиры_'
'другими_'
'часа_'
'ГУ_'
'BBC_'
'лей_'
'службу_'
'конкурса_'
'команду_'
'продолжает_'
'туристов_'
'смог_'
'рулем_'
'сообщения_'
'прокомментировал_'
'тура_'
'гораздо_'
'позже_'
'прямо_'
'позицию_'
'роли_'
'клиентов_'
'вал_'
'инвестиций_'
'товаров_'
'завода_'
'Динамо_'
'сложно_'
'возрасте_'
'Мария_'
'большая_'
'Ь'
'R'
'уточнил_'
'новое_'
'ребенок_'
'порядок_'
'ф'
'Андрея_'
'man_'
'ший_'
'украинских_'
'w_'
'оказалось_'
'ученые_'
'ж'
'победы_'
'Елена_'
'общего_'
'Причем_'
'самолет_'
'ился_'
'42_'
'выступил_'
'over_'
'чиновников_'
'вариант_'
'университета_'
'сама_'
'расходы_'
'хся_'
'сутки_'
'странице_'
'Киева_'
'отдела_'
'годам_'
'последних_'
'момента_'
'H'
'качества_'
'понять_'
'член_'
'запрет_'
'лидеров_'
'совет_'
'Вчера_'
'неоднократно_'
'Вместе_'
'Болгарии_'
'которыми_'
'ближайшие_'
'двумя_'
'no_'
'ких_'
'назвали_'
'середине_'
'вид_'
'шести_'
'нефть_'
'years_'
'удар_'
'48_'
'Италии_'
'2000_'
'утром_'
'получения_'
'хи_'
'самолета_'
'голосования_'
'фактически_'
'do_'
'специалистов_'
'ум_'
'режиме_'
'снижение_'
'произошла_'
'ское_'
'two_'
'прошла_'
'UK_'
'встреча_'
'пра'
'Даже_'
' % - _'
'путь_'
'би_'
'ав_'
'F'
'выйти_'
'44_'
'больницу_'
'День_'
'овал_'
'правило_'
'граждане_'
'иск_'
'65_'
'чно_'
'городах_'
'ченко_'
'долго_'
'продаж_'
'Щ'
'сроки_'
'начать_'
'здание_'
'тему_'
'енные_'
'торговли_'
'ода_'
'здравоохранения_'
'относительно_'
'украинского_'
'заседания_'
'разные_'
'команде_'
'сеть_'
't'
'кие_'
'   _'
'Речь_'
'ted_'
'Министерство_'
'ведомство_'
'продуктов_'
'столько_'
'направлении_'
'главным_'
'ВВП_'
'щей_'
'внутри_'
'мужчины_'
'систем_'
'хотел_'
'военного_'
'условий_'
'39_'
'what_'
'зоне_'
'проводить_'
'щий_'
'them_'
'ty_'
'руководством_'
'цели_'
'случай_'
'ша_'
'требует_'
'предлагает_'
'сначала_'
'could_'
'занимает_'
'связано_'
'ания_'
'кин_'
'Пресс_'
'ставки_'
'море_'
'проведение_'
'много'
'серии_'
'мм_'
'скончался_'
'примеру_'
'( _'
'государственного_'
'щего_'
'пройдут_'
'существует_'
'собирается_'
'чти_'
'вернуть_'
'Компания_'
'ст'
'случаев_'
'цу_'
'Group_'
'оружие_'
'городов_'
'знаю_'
'нием_'
'рассказывает_'
'юсь_'
'доступ_'
'годом_'
'американский_'
'доходов_'
'текущего_'
'арест_'
'чемпионов_'
'можем_'
'вых_'
'члены_'
'ведомстве_'
'правления_'
'мужчин_'
'ю'
'очков_'
'американские_'
'значительно_'
'c'
'ЧМ_'
'елей_'
'совместно_'
'проверку_'
'сезон_'
'па_'
'юго_'
' ? - _'
'Белоруссии_'
'находился_'
'US_'
' . ) _'
'52_'
'путем_'
'могла_'
'сожалению_'
'ается_'
'ге_'
'Лиги_'
'улицы_'
'Роснефти_'
'Многие_'
'входит_'
'статьи_'
'Эксперты_'
'News_'
'ича_'
'Дело_'
'местные_'
'into_'
'поддержке_'
'юю_'
'щ'
'поправки_'
'обычно_'
'se_'
'наказание_'
'попал_'
'Второй_'
'по'
'Господин_'
'нт_'
'B_'
'размер_'
'Нет_'
'заниматься_'
'Ъ'
'оказалась_'
'ба_'
'спустя_'
'событий_'
'главой_'
'туда_'
'честь_'
'еры_'
'сообщают_'
'Иван_'
'прокуратуры_'
'следующий_'
'ремонт_'
'международного_'
'комплекс_'
'прибыли_'
'задача_'
'ход_'
'завод_'
'кам_'
'далеко_'
'дали_'
'отставку_'
'протяжении_'
'новая_'
'друга_'
'вшись_'
'рабочих_'
'just_'
'показатель_'
'Полиция_'
'Представитель_'
'ограничения_'
'вопросу_'
'L_'
'o'
'границы_'
'ies_'
'Затем_'
'ведет_'
'вырос_'
'ились_'
'групп_'
'участвовать_'
'Можно_'
' +_'
'ьный_'
'государственных_'
'игру_'
'сч_'
'директоров_'
'вошли_'
'российском_'
'возле_'
'телеканала_'
'V'
'фестиваля_'
'экономической_'
'колонии_'
'знает_'
'заседание_'
'класса_'
'группу_'
'ческой_'
'взгляд_'
'контракт_'
'u_'
'создании_'
'взять_'
'соответственно_'
'пользователей_'
'ответил_'
'статус_'
'Антон_'
'ch_'
'банки_'
'штраф_'
'местах_'
'T_'
'Бизнес_'
'сделали_'
'форме_'
'выхода_'
'ввести_'
'законодательства_'
'отметить_'
'начальник_'
'журналистам_'
'увеличить_'
'весьма_'
'сообщение_'
'вовсе_'
'появились_'
'my_'
'ление_'
'сложности_'
'лучших_'
'Михаила_'
'интерес_'
'цель_'
'идут_'
'финансов_'
'Со_'
'Лавров_'
'состава_'
'молодых_'
'ешь_'
'террористов_'
'иной_'
'голосов_'
'ъ'
'ВТБ_'
'43_'
'кандидатов_'
'градусов_'
'предстоит_'
'0'
'ds_'
'D_'
'миллиардов_'
'чь_'
'зоны_'
'мать_'
'ТВ_'
'ущерб_'
'решить_'
'Нам_'
'установить_'
'пообещал_'
'делает_'
'журналистов_'
'кую_'
'документа_'
'взрыва_'
'очередной_'
'имущества_'
'газ_'
'животных_'
'ше_'
'нной_'
'гривен_'
'миллиарда_'
'тель_'
'девять_'
'хозяйства_'
'этапе_'
'наук_'
'Правительство_'
'600_'
'"  _'
'провинции_'
'выступления_'
'Центра_'
'Кремля_'
'следующем_'
'привести_'
'инфраструктуры_'
'II_'
'G_'
'подготовки_'
'ьная_'
'называют_'
'партия_'
'спортсменов_'
'изменений_'
'передачи_'
'защите_'
'работников_'
'родителей_'
'травмы_'
'X_'
'правда_'
'МОК_'
'гостей_'
'N'
'йо_'
'нь_'
'утверждает_'
'нная_'
'полицию_'
'U'
'нибудь_'
' [ _'
'главных_'
'нед_'
'газеты_'
'политической_'
'e'
'ne_'
'прошлой_'
'Российские_'
'промышленности_'
'никак_'
'семье_'
'большое_'
'руководства_'
'зависимости_'
'отношение_'
'ники_'
'Ле_'
'абсолютно_'
'общественного_'
'вся_'
'суммы_'
'нко_'
'ge_'
'реновации_'
'наша_'
'отсутствие_'
'Белого_'
'трлн_'
'овых_'
'начало_'
'писал_'
'мэра_'
'Валерий_'
'Наталья_'
'РАН_'
'2007_'
'ьной_'
'странами_'
'общем_'
'каким_'
'вые_'
'требований_'
'команд_'
'местного_'
'41_'
'модель_'
'ении_'
'ией_'
'Главный_'
'власть_'
'километров_'
'щая_'
'войск_'
'международной_'
'енный_'
'другом_'
'пе_'
'эфире_'
'Министерства_'
'Вашингтон_'
'основной_'
'украинской_'
'получит_'
'активов_'
'пройти_'
'рода_'
'игр_'
'премьера_'
'ранения_'
'some_'
'W'
'жи_'
'положение_'
'ческого_'
'премии_'
'занимается_'
'следствие_'
'самостоятельно_'
'поп_'
'нами_'
'идти_'
'ЛНР_'
'ё'
'ожидается_'
'ною_'
'использования_'
'материалы_'
'площадь_'
'КПРФ_'
'Лен'
'договора_'
'вали_'
'47_'
'дорог_'
'главу_'
'чтя_'
'подобные_'
'российская_'
'говоря_'
'сути_'
'лиги_'
'настоящий_'
'сообщило_'
'49_'
'Мак'
'конфликт_'
'компанию_'
'чао_'
'вне_'
'Совет_'
'a'
'ke_'
'выход_'
'финансирования_'
'характер_'
'овали_'
'Под'
'being_'
'встречу_'
'уется_'
'внутренних_'
'Ирана_'
'полагает_'
'военно_'
'частью_'
'нею_'
'плохо_'
'зависит_'
'him_'
'Интернет_'
'тр'
'сторон_'
'интересы_'
'хоть_'
'чки_'
'd'
'Ru_'
'материалов_'
'овые_'
'поставки_'
'Потому_'
'новом_'
' % ) , _'
'сё_'
'вшая_'
'other_'
'са'
'і'
'теракта_'
'ших_'
'Такое_'
'Премьер_'
'пер'
'искусства_'
'таком_'
'остались_'
'Николая_'
'полицейские_'
'56_'
'вещи_'
'Комитета_'
'футболу_'
'ic_'
'вышли_'
'воздуха_'
'базы_'
'M_'
'районах_'
'бой_'
'чту_'
'Решение_'
'120_'
'обратился_'
'политических_'
'ческих_'
'инцидента_'
'te_'
'57_'
'сы_'
'вину_'
' % ) . _'
'политику_'
'отделения_'
'09_'
'аль_'
'семи_'
'оборудования_'
'ления_'
'46_'
'Известия_'
'крупнейших_'
'своему_'
'сотрудник_'
'ради_'
'54_'
'матчей_'
'Накануне_'
'европейских_'
'ation_'
'столь_'
'Союза_'
'Вячеслав_'
'городского_'
'подтвердили_'
'министерства_'
'сборная_'
'выбор_'
'Ирина_'
'like_'
'такую_'
'обязанности_'
'решений_'
'нного_'
'ко'
'полу'
'Единой_'
'че'
'Рос'
'решению_'
'вым_'
'back_'
'случаях_'
'вряд_'
'школе_'
'отказались_'
'Зенит_'
'всеми_'
'ск_'
'ГИБДД_'
'O_'
'успешно_'
'тор_'
'K'
'Евросоюза_'
'водителя_'
'договор_'
'появился_'
'российско_'
'продукты_'
'округа_'
'категории_'
'недвижимости_'
'Борис_'
'До'
'We_'
'получать_'
'Times_'
'востоке_'
'b_'
'прибыль_'
'письмо_'
'находились_'
'насколько_'
'Меркель_'
'приговор_'
'нарушений_'
'250_'
'ночью_'
'сына_'
'800_'
' "_'
'планируют_'
'вернуться_'
'51_'
'закону_'
'название_'
'цене_'
'58_'
'предложили_'
'генерал_'
'чемпионат_'
'форума_'
'сын_'
'качество_'
'new_'
'программ_'
'сторона_'
'добиться_'
'сов_'
'законопроекта_'
'now_'
'со'
'проблему_'
'пожара_'
'действие_'
'пришел_'
'причин_'
'использование_'
'пи'
'новостей_'
'концу_'
'way_'
'источников_'
'Чи'
'Спартак_'
'доходы_'
'намерены_'
'ста'
'машину_'
'группировки_'
'Банк_'
'яет_'
'внимания_'
'вого_'
'инвесторов_'
'десяти_'
'05_'
' € _'
'Сотрудники_'
'пример_'
'ба'
'обязательно_'
'Через_'
'просьбой_'
'last_'
'емся_'
'жертв_'
'выплаты_'
'подготовке_'
'третий_'
'же'
'игра_'
'земли_'
'поможет_'
'знают_'
'рас'
'большие_'
'выросла_'
'финансовых_'
'пред_'
'автомобили_'
'Каталонии_'
'Отметим_'
'Ки'
'Путиным_'
'режиссер_'
'заключения_'
'большую_'
'отказаться_'
'E_'
'иначе_'
'Пере'
'зи_'
'Происшествия_'
'1990_'
'террористической_'
'заместителя_'
'наи'
'пом_'
'домой_'
'исследований_'
'полномочий_'
'угрозы_'
'пу'
'if_'
'на'
'миру_'
's'
'59_'
'скорой_'
'рпо'
'ора_'
'Ни'
'Sa'
'Йо'
'n'
'будто_'
'ракет_'
'участок_'
'буду_'
'неф_'
'временем_'
'our_'
'квартале_'
'основных_'
'региональных_'
'ица_'
'оба_'
'суток_'
'отличие_'
'пунктов_'
'оп'
'трое_'
'кризиса_'
'повышение_'
'бе_'
'компанией_'
'ОАО_'
'выяснилось_'
'еи_'
'регион_'
'отказ_'
'Навального_'
'расходов_'
'штаба_'
'среды_'
'появится_'
'принадлежит_'
'лицо_'
'актер_'
'первая_'
'Такие_'
'бюро_'
'лов_'
'события_'
'одновременно_'
'f_'
'тела_'
'го'
'шего_'
'КНР_'
'задачи_'
'президенты_'
'неё_'
'сотни_'
'легко_'
'ание_'
'L'
'другого_'
'Люди_'
'социально_'
'школ_'
'ав'
'ons_'
'нужны_'
'ист_'
'Вер'
'85_'
'молодежи_'
'огонь_'
'Ци'
'ви_'
'ял_'
'Возможно_'
'приняла_'
'Google_'
'тели_'
'глав_'
'дополнительные_'
'действовать_'
'протеста_'
'попали_'
'прошло_'
'Сообщается_'
'авиакомпании_'
'комиссия_'
'чный_'
'Пи'
'аэропорту_'
'показали_'
'начальника_'
'08_'
'ря'
'53_'
' £ _'
': _'
'ового_'
'крае_'
'воду_'
'New_'
'процесса_'
'ов'
'увидеть_'
'данном_'
'визита_'
'Денис_'
'Ри'
'игре_'
' % ) _'
'гол_'
'рт_'
'администрация_'
'Анна_'
'запрещена_'
'продаже_'
'примет_'
'официальном_'
'ИА_'
'проходят_'
'адвокат_'
'Лондоне_'
'началась_'
'купить_'
'ация_'
'прокуратура_'
'квартир_'
'ждет_'
'говорили_'
'ческий_'
'планы_'
'Очень_'
'ир_'
'станут_'
'будущее_'
'объяснил_'
'Государственной_'
'зе_'
'температура_'
'Иркутской_'
'Евгения_'
'ыв'
'et_'
'влияние_'
'кандидата_'
'оценке_'
'язык_'
'Казани_'
'ине_'
'нова_'
'Эн'
'церкви_'
'Китае_'
'еля_'
'режиссера_'
'этап_'
'жа_'
'количества_'
'm'
'вес_'
'будущего_'
'иногда_'
'публикации_'
'народа_'
'науки_'
'исключительно_'
'продажу_'
'кина_'
'итоги_'
'получат_'
'платить_'
'поколения_'
'ель'
'only_'
'Татьяна_'
'before_'
'борту_'
'осенью_'
'запрос_'
'эт'
'показал_'
'проводится_'
'напоминает_'
'Константин_'
'подобных_'
'коррупции_'
'растет_'
'гибели_'
'сегодняшний_'
'95_'
'больницы_'
'чиновники_'
'el_'
'проекте_'
'Виталий_'
'подряд_'
'get_'
'питания_'
'выступает_'
'предварительным_'
'Росс_'
'тер_'
'сотрудничество_'
'Чу'
'Донбасса_'
'десятки_'
'летней_'
'ежегодно_'
'72_'
'каждой_'
'Лу'
'тво_'
'квартире_'
'инцидент_'
'памяти_'
'омо'
'безопасность_'
'вую_'
'зрителей_'
'ило_'
'сохранить_'
'мяч_'
'мэр_'
'второе_'
'минуте_'
'атаки_'
'V_'
'  "_'
'Перед_'
'лю_'
'go_'
'2005_'
'объекты_'
'канала_'
'еров_'
'готова_'
'территорий_'
'помимо_'
'700_'
'попросил_'
'представляет_'
'Позже_'
'зо'
'Представители_'
'ent_'
'делают_'
'ющей_'
'принятия_'
'вопроса_'
'правительстве_'
'ьте_'
'большим_'
'они'
'больнице_'
'Председатель_'
'енной_'
'2006_'
'тва_'
'жилье_'
'Си'
'шаг_'
'Apple_'
'связь_'
'Ни_'
'музея_'
'дважды_'
'давление_'
'капитала_'
'си'
'планах_'
' + _'
'номер_'
'шая_'
'пре'
'Инцидент_'
'Думаю_'
'попытки_'
'Польши_'
'Бор'
'ман_'
'интернете_'
'другое_'
'теле'
'ьных_'
'результатам_'
'ьо'
'отец_'
'главной_'
'типа_'
'Может_'
'родители_'
'ющего_'
'третьем_'
'нормы_'
'мин'
' : : _'
'конкурс_'
'пытался_'
'Brexit_'
'son_'
'Игоря_'
'св'
'крови_'
'хотели_'
'различные_'
'ен'
'регулярно_'
'операций_'
'ника_'
'овая_'
'ls_'
'тон_'
'вс'
'неза'
'Ти'
'ьт_'
'ческие_'
'избежать_'
'gi'
'хочу_'
'дочь_'
'полицейских_'
'Ким_'
'целях_'
'федерации_'
'начнется_'
'грозит_'
'Анатолий_'
'означает_'
'др_'
'дорожного_'
'жен_'
'правам_'
'самолетов_'
'ЧП_'
'рейтинг_'
'Ученые_'
'мых_'
'чт'
'бу'
'обращения_'
'само'
'Петра_'
'действует_'
'собственности_'
'район_'
'ми'
'би'
'СБУ_'
'Bo'
'опубликовал_'
'состоялась_'
'резко_'
'кое_'
'все'
'чных_'
'Ча'
'where_'
'шей_'
'канал_'
'сом_'
'карты_'
'ео_'
'Ту'
'made_'
'яо'
'опасности_'
'границе_'
'ву'
'боевых_'
'житель_'
'идеи_'
'задержаны_'
'фестиваль_'
'выросли_'
'Су'
'сведения_'
'повышения_'
'еть_'
'nt_'
'причины_'
'Одна_'
'Некоторые_'
'нского_'
'Пу'
'Мо'
'считать_'
'утверждают_'
'вое_'
'енного_'
'оценки_'
'врачи_'
'учреждения_'
'ины_'
'независимости_'
'Грузии_'
'республике_'
'07_'
'существенно_'
'вшей_'
'спикер_'
'лечение_'
'книги_'
'um_'
'ново'
'предлагают_'
'Владимиром_'
'читать_'
'Го'
'вышла_'
'тело_'
'решением_'
'ВО_'
'ющая_'
'финансовой_'
'Но'
'day_'
'сообщали_'
'R_'
'высокой_'
'стороне_'
'риск_'
'Минфин_'
'взрыв_'
'Или_'
'охраны_'
'возраста_'
'Два_'
'England_'
'остаются_'
'ению_'
'языке_'
'серьезно_'
'политик_'
'срока_'
'способ_'
'жо'
'оценкам_'
'64_'
'детьми_'
'дороге_'
'рейтинге_'
'мя_'
'картины_'
'языка_'
'фа'
'оппозиции_'
'назначен_'
'зале_'
'времен_'
'связанные_'
'людьми_'
'идею_'
'вроде_'
'ме'
'входят_'
'to'
'семья_'
'фильме_'
'ждать_'
'ting_'
'проводит_'
'считается_'
'выглядит_'
'россияне_'
'основании_'
'Шо'
'пред'
'налогов_'
'Ra'
'off_'
'русского_'
'three_'
'ческая_'
'Роман_'
'YouTube_'
'временно_'
'Ал'
'Ан'
'03_'
'участков_'
'Ар'
'Ис'
'уо'
'любом_'
'бо'
'ассоциации_'
'яи_'
'взятки_'
'фа_'
'ин'
'буквально_'
'еи'
'снижения_'
'y'
'получают_'
'марки_'
'противо'
'попасть_'
'ьно_'
'сти'
'одному_'
'нуть_'
'телей_'
'дают_'
'ЗАО_'
'увеличение_'
'ресурсов_'
'ину_'
'обращение_'
'этапа_'
'кино'
'ту'
'уз_'
'видов_'
'президентских_'
'совершил_'
'наконец_'
'множество_'
'Проект_'
'Цо'
'парка_'
'дет_'
'аэропорта_'
'связанных_'
'регистрации_'
'ta_'
'останется_'
'назначения_'
'Надо_'
'62_'
'ций_'
'революции_'
'хватает_'
'ьные_'
'плане_'
'06_'
'тема_'
'назвать_'
'предусматривает_'
'какое_'
'зарплаты_'
'N_'
'слово_'
'тра'
'долг_'
'властями_'
'известный_'
' , '
'йо'
'спрос_'
'емых_'
'ии'
'вскоре_'
'll_'
'пытаются_'
'института_'
'able_'
'парламент_'
'процессе_'
'мск_'
'пытались_'
'nd_'
'наличие_'
'машина_'
'отношениях_'
'вперед_'
'привлечь_'
'играет_'
'представить_'
'very_'
'Исламское_'
'убийстве_'
'предполагает_'
'эт_'
'семей_'
'детям_'
'пой_'
'квартиру_'
'лы_'
'посмотреть_'
'Ка_'
'ФРГ_'
'ВС_'
'счета_'
'осталось_'
'собрания_'
'нский_'
'остью_'
'ет'
'no'
'ьного_'
'изменить_'
'умер_'
'три'
'Me'
'спец'
'Спартака_'
'правильно_'
'Би'
'документе_'
'среднего_'
'избирателей_'
'тренера_'
'Илья_'
'h'
'занял_'
'Депутат_'
'собеседник_'
'ос'
'добычи_'
'Ми'
'полной_'
'экономике_'
'родился_'
'чтении_'
'пару_'
'специально_'
'пытается_'
'министром_'
'забил_'
'видео'
'представителями_'
'общественных_'
' & _'
'РЖД_'
'гос'
'ое'
'RT_'
'штаб_'
'60'
'средней_'
'площадки_'
'льно_'
'сказали_'
'убийства_'
'интересов_'
'Сбербанка_'
'времена_'
'вает_'
'world_'
'генеральный_'
'Им_'
'ни'
'хи'
'бо_'
'трудно_'
'счету_'
'Trump_'
'government_'
'нашим_'
'проведении_'
'овым_'
'пен'
'автор_'
'считаю_'
'ЖКХ_'
'because_'
'эо'
'решении_'
'пе'
'видно_'
'X'
'ара'
'Йорке_'
'едва_'
'пере_'
'гражданам_'
'настолько_'
'снизить_'
'рассмотрение_'
'Леонид_'
'областной_'
'долю_'
'свет_'
'восьми_'
'Института_'
'am_'
'ис'
'утра_'
'вом_'
'военнослужащих_'
'нт'
'фотографии_'
'продолжают_'
'им'
'дов_'
'ia_'
'ждут_'
'ад'
'украинские_'
'бороться_'
'алкоголя_'
'али'
'шла_'
'co'
'оу'
'ворота_'
'ски_'
'Чем_'
'Кри'
'ид'
'вский_'
'самая_'
'руках_'
'идея_'
'посту_'
'последнего_'
'конец_'
'превышает_'
'никакого_'
'фото'
'быстрее_'
'то'
'отдельных_'
'судов_'
'ши_'
'долга_'
'супер'
'нным_'
'списке_'
'Центр_'
'реформы_'
'ушел_'
'плюс_'
'борьбу_'
'участка_'
'ыо'
'нг_'
'жу_'
'убийство_'
'состоялся_'
'Владимиру_'
'церемонии_'
'Путину_'
'Мин'
'Тор'
'ЛДПР_'
'производителей_'
'уверены_'
'судом_'
'ФБР_'
'понятно_'
'04_'
'ск'
'нашу_'
'жи'
'Li'
'2004_'
'ым'
'сси'
'Эр'
'истов_'
'Потом_'
'how_'
'остался_'
'ор'
'яр'
'поручил_'
'сто'
'ед_'
'тебя_'
'потребителей_'
'заявлении_'
'bi'
'жена_'
'аны_'
'парк_'
'связаны_'
'Бу'
'слов_'
'iPhone_'
'Пос'
'туре_'
'опять_'
'министров_'
'ма'
' ° _'
'получение_'
'показатели_'
'источника_'
'границу_'
'она'
'серьезные_'
'могло_'
'иа'
'показать_'
'Ад'
'work_'
'вызывает_'
'чной_'
'авиа'
'вторых_'
'максимально_'
'ше'
'торговых_'
'be'
'b'
'явно_'
'лечения_'
'most_'
'ions_'
'te'
'преступлений_'
'предоставить_'
'мало'
'отдыха_'
'ter_'
'шие_'
'Хо'
'АиФ_'
'ющим_'
'поставок_'
'матчи_'
'молодой_'
'указ_'
'гро'
'Донецкой_'
'От'
'уточняет_'
'Te'
'необходимые_'
'against_'
'що'
'одно'
'гре'
'Со'
'Виктора_'
'Ру'
'крупные_'
'российскими_'
'водителей_'
'авто'
'те'
'месту_'
'матчах_'
'Ви'
'k'
'ся'
'обратиться_'
'ур'
' ] _'
'сообщества_'
'необходимость_'
'ере_'
'Красно'
'военный_'
'обо'
'поля_'
'установили_'
'чные_'
'told_'
'61'
'Израиля_'
'отношению_'
'r'
'нападения_'
'названием_'
'международным_'
'районов_'
'сетей_'
'банке_'
'фар'
'весной_'
'ВВС_'
'рии_'
'постепенно_'
'площадью_'
'областного_'
'здании_'
'проверка_'
'зм_'
'age_'
'Нужно_'
'ИВ_'
'юи'
'что'
'ученых_'
'Стоит_'
'Экс_'
'финансирование_'
'мирового_'
'Юлия_'
'стадии_'
'Евро'
'Ta'
'ову_'
'живет_'
'фракции_'
'пункта_'
'значение_'
'войска_'
'чо'
'ике_'
'Та'
'They_'
'неу'
'техника_'
'моря_'
'льный_'
'СКА_'
'изации_'
'стве_'
'ьл'
'Юрия_'
'лидером_'
'примут_'
' " ? _'
'сотрудника_'
'ох_'
'московского_'
'имущество_'
'медицинской_'
'организацию_'
'готовности_'
'пор'
'начались_'
'ол_'
'ар'
'тс'
'ые'
'Германия_'
'Pro'
'принят_'
'чему_'
'нка_'
'сборную_'
'ля'
'су'
'предлагается_'
'ваться_'
'пос'
'ику_'
'Азии_'
'ликвидации_'
'Вы'
'тс_'
'Зенита_'
'участии_'
'йи_'
'площадке_'
'полагают_'
'отца_'
'доход_'
'участке_'
'МВ_'
'скоро_'
'дальнейшем_'
'Сан_'
'полтора_'
'муниципальных_'
'фирмы_'
'соб'
'Vi'
'пои_'
'ацию_'
'Те'
'63_'
'гендиректор_'
'городских_'
'жения_'
'Зо'
'чик_'
'many_'
'курса_'
'начался_'
'ive_'
'далее_'
'огня_'
'Подмосковье_'
'ои'
'Федеральной_'
'объеме_'
'наказания_'
'половины_'
'пою_'
'any_'
'результатов_'
'мин_'
'192'
'ывать_'
'мнения_'
'скому_'
'Газпром_'
'предприятие_'
'кар'
'упал_'
'Национальной_'
'Ши'
'ck_'
'сов'
'щую_'
'ну'
'hi'
'Культура_'
'соцсетях_'
'Кремле_'
'скорость_'
'мор'
'Каждый_'
'ть'
'Оно_'
'Эо'
'предпринимателей_'
'"_'
'само_'
'оборудование_'
'га'
'виду_'
'экспорт_'
'стов_'
'инициативы_'
'остальные_'
'голову_'
'воз'
'открыл_'
'ора'
'эс'
'ьную_'
'l'
'сбор_'
'искать_'
'частных_'
'зу'
'праздник_'
'подал_'
'це'
'лю'
'беженцев_'
'Турция_'
'ве'
'And_'
'театр_'
'поездки_'
'ино_'
'анти'
'радио'
'полгода_'
'память_'
'студентов_'
'She_'
'Пен_'
'удара_'
'положения_'
'научно_'
'микро'
'down_'
'Московского_'
'недо'
'Национального_'
'вания_'
'сверх'
'68_'
'яется_'
'Татарстана_'
'вшийся_'
'карьеру_'
'ку'
'Ба'
'Мор'
'бывает_'
'отре'
'референдума_'
'образ_'
'защиту_'
'перес'
'частично_'
'кибер'
'получении_'
'лета_'
'обвинение_'
'врач_'
'инфляции_'
'форуме_'
'ши'
'проводят_'
'украинский_'
'вдруг_'
'глаза_'
'еле_'
'Верховной_'
'лен_'
'желание_'
'Москвой_'
'топлива_'
'вклад_'
'Вадим_'
'чи'
'Банка_'
'Ша'
'ur'
'Mo'
'строительстве_'
'оперативно_'
'кстати_'
'Пер'
'двум_'
'Госдуме_'
'Открытие_'
'then_'
'нынешнего_'
'обстоятельства_'
'задач_'
'гр'
'Вашингтоне_'
'сектора_'
'ил'
'из'
'при'
'кор'
'66_'
'ска'
' . ) , _'
'имел_'
'Сбербанк_'
'образование_'
'эк'
'очка_'
'юо'
'намерена_'
'врачей_'
'пожар_'
'Индии_'
'выступили_'
'Собчак_'
'энергетики_'
'Жо'
'ета_'
'открытия_'
'ta'
'Матч_'
'кредитов_'
'еа'
'Тро'
'Де'
'Ду'
'нужна_'
'Чо'
'льной_'
'введение_'
'w'
'человеку_'
'стр_'
'КХЛ_'
'подо'
'соцсети_'
'дорогу_'
'La'
'овый_'
're'
'Po'
'данной_'
'третье_'
'енная_'
'Америки_'
'шоссе_'
'внести_'
'вернулся_'
'ВТ_'
'ем'
' . ) . _'
'Ир'
'Госдуму_'
'ук_'
'построить_'
'ря_'
'хороший_'
'обе_'
'народ_'
'позднее_'
'ЦВ_'
'Башкирии_'
'экономических_'
'ns_'
'Наука_'
'01_'
'инвестиции_'
'Союз_'
'сос'
'решила_'
'поли'
'Какие_'
'ана'
'Далее_'
'моста_'
'заметил_'
'моей_'
'Вашингтона_'
'видим_'
'ble_'
'Мэй_'
'ул'
'x'
'сократить_'
'Ро'
'Светлана_'
'чу_'
'уд'
'решать_'
'живут_'
'чка_'
'поступило_'
'получает_'
'многом_'
'ва'
'Яо'
'Новые_'
'Ген'
'рок_'
'половине_'
'ведется_'
'КВ_'
'ro'
'смотреть_'
'ду'
'нул_'
'НХЛ_'
'old_'
'стоят_'
'риски_'
'дут_'
'обсуждения_'
'Сов'
'наше_'
'ght_'
'ере'
'мужчину_'
'введения_'
'турнире_'
'da'
'Media_'
'тельно_'
'шли_'
'аз'
'одни_'
'дно_'
'признать_'
'объекта_'
'ио_'
'лин_'
'учреждений_'
'футбола_'
'проверить_'
'ун_'
'ух_'
'Олега_'
'каждом_'
'z_'
'центров_'
'человеком_'
'бе'
'Востоке_'
'Василий_'
'направления_'
'прием_'
'Re'
'пир'
'обсудили_'
'версия_'
'ra'
'Специалисты_'
'Было_'
'мигрантов_'
'бор'
'Ур'
'нашем_'
'гг_'
'больших_'
'основные_'
'жет_'
'переда'
'кли'
'дополнительных_'
'возможных_'
'ОБСЕ_'
'СУ_'
'ом'
'союз_'
'взял_'
'кризис_'
'гости_'
'законом_'
'законодательство_'
'испытания_'
'пакет_'
'состоит_'
'покинуть_'
'властям_'
'продолжается_'
'подход_'
'1'
'болельщиков_'
'пер_'
'стратегии_'
'мера_'
'оры_'
'авто_'
'проведет_'
'контракта_'
'полном_'
'ано_'
'Вице_'
'зе'
'кандидат_'
'следователи_'
'формы_'
'ыв_'
'каком_'
'усилия_'
'непри'
'Di'
'щим_'
'гражданин_'
'Вар'
'ци'
'минуты_'
'органах_'
'фильмов_'
'но'
'окончания_'
'спроса_'
'наоборот_'
'от'
'Московский_'
'Аа'
'кле'
'нужен_'
'пункт_'
'чиновник_'
'ау'
'ино'
'появилось_'
'чемпион_'
'Аль_'
'По'
'ес'
'аи'
'федеральных_'
'прогноз_'
'онных_'
'объявили_'
'победа_'
'последствия_'
'войне_'
'процедуры_'
'фин'
'ования_'
'ее'
'хо_'
'аль'
'si'
'Си_'
'регионы_'
'пояснили_'
'ведут_'
'кон'
'Единая_'
'газете_'
'Се'
'улиц_'
'коллег_'
'Соединенных_'
'гу_'
'активы_'
'This_'
'Зи'
'оре'
'Тур'
'РИ'
'вина_'
'Хе'
'ха'
'сцене_'
'зданий_'
'опрошенных_'
'Сначала_'
'02_'
'содержание_'
'направлены_'
'правительством_'
'последним_'
'ан'
'Корея_'
'сор'
'уя_'
'тел'
'иком_'
'требуется_'
'повысить_'
'сты'
'смысле_'
'села_'
'пусть_'
'Кара'
'мо'
'медицинских_'
'инициативу_'
'нно_'
'ска_'
'ата_'
'Мужчина_'
'Instagram_'
'du'
'академии_'
'24'
'въезд_'
'льная_'
'лу'
'рубежом_'
'Хи'
'Следствие_'
'шансы_'
'61_'
'Ста'
'мастер_'
'футбол_'
'цо'
'льного_'
'ура_'
'Ново'
'карт_'
'Благодаря_'
'Новая_'
'ори'
'конкурсе_'
'Эл_'
'периода_'
'ицы_'
'ал'
'служб_'
'вода_'
'ам'
'Бар'
'пострадал_'
'детских_'
'Ца'
'составили_'
'работали_'
'око'
'знать_'
'Це'
'30'
'юе'
'журнал_'
'енно_'
'турнир_'
'авиации_'
'заранее_'
'до'
'Ro'
'Тверской_'
'Су_'
'шел_'
'разрешения_'
'продукцию_'
'ас'
' ) '
'чей_'
'шанс_'
'заявлял_'
'Юо'
'Ыо'
'Кирилл_'
'тен'
'Екатерина_'
'прис'
'российское_'
'мальчика_'
'Пан'
' !_'
'применения_'
'секретаря_'
'Do'
'сетях_'
'кра'
'командой_'
'Ему_'
'школу_'
'рейтинга_'
'вый_'
'игроки_'
'зма_'
'вс_'
'ари'
'Документ_'
'многое_'
'устройства_'
'смерть_'
'виды_'
'обратились_'
'ова'
'Шу'
'Джон_'
'сирийской_'
'поддерживает_'
'строительству_'
'показывает_'
'во'
'девушка_'
'na'
'СИЗО_'
'ир'
'ина'
'финала_'
'ряде_'
'Що'
'Тиллерсон_'
'Оо'
'чо_'
'Дону_'
'штата_'
'есь_'
'Кор'
'веществ_'
'25'
'кем_'
'ate_'
'матери_'
'ущерба_'
'песни_'
'www_'
'sh_'
'67_'
'признали_'
'li'
'думы_'
'стоимостью_'
'потери_'
'окна_'
'обмен_'
'69_'
'десятков_'
'выиграл_'
'Хан'
'Саудовской_'
'проекту_'
'угрозу_'
'well_'
'сво'
'полномочия_'
'коалиции_'
'поддержал_'
'ра'
'парке_'
'Стоимость_'
'теля_'
'помогает_'
'брать_'
'иях_'
' " - " _'
'требуют_'
'Фонда_'
'изо'
'Pa'
'Система_'
'случаи_'
'Фо'
'Car'
'чек_'
'Ео'
'машине_'
'сотрудниками_'
'состоянию_'
'илась_'
'Несколько_'
'Те_'
'2003_'
'относится_'
'началось_'
'рук_'
'Такой_'
'ти'
'Франция_'
'un'
'транспортных_'
'используют_'
'капитал_'
'Иран_'
'темы_'
'взяли_'
'Госдума_'
'прое'
'большей_'
'Само'
'Ао'
'лу_'
'базу_'
'цам_'
'ивать_'
'76_'
'лучшим_'
'пол'
'лицензии_'
'як_'
'йа'
'Ми_'
'Гер'
'руководителей_'
'лин'
'ге'
'зации_'
'Около_'
'РА'
'рос'
'партнеров_'
'исполнения_'
'или'
'никакой_'
' . ( _'
'Лин'
'высокий_'
'цией_'
'Ху'
'ег_'
'ование_'
'since_'
'рекорд_'
'размещения_'
'Следственного_'
'письма_'
'na_'
'развитии_'
'НИ'
'Ио'
'называется_'
'сва'
'льные_'
'гор'
'век_'
'утся_'
'аки'
'Главное_'
'ща'
'Пр'
'-  _'
'выводу_'
'Захарова_'
'ток_'
'миссии_'
'World_'
'There_'
' -  _'
'поддержали_'
'жение_'
'большинства_'
'зна'
'Фи'
'тар'
'проходить_'
'бюджетных_'
'Ас'
'Трампом_'
'u'
'Q'
'объема_'
'Ьо'
'Минэкономразвития_'
'Ае'
'make_'
'падения_'
'гражданина_'
'война_'
'уа'
'ны'
'вшихся_'
'уйти_'
'гражданства_'
'экспорта_'
'уть_'
'вами_'
'поста_'
'какая_'
'ясно_'
'очереди_'
'единиц_'
'вского_'
'Больше_'
'очки_'
'Daily_'
'собственной_'
'уе'
'ремонта_'
'небольшой_'
'налога_'
'общий_'
'ара_'
'рано_'
'ыа'
'дя_'
'лом_'
'пресечения_'
'вероятно_'
'Во'
'ВЫ_'
'ви'
'ir'
'сего_'
'снять_'
'Ъо'
'стадионе_'
'государственный_'
'Ге'
'эффект_'
'пенсии_'
'ений_'
'договорились_'
'чного_'
'31'
'лидеры_'
'аа'
'сервис_'
'наверное_'
'автобус_'
'партий_'
'селе_'
'обще'
'ar_'
'национального_'
'Победы_'
'чер'
'сты_'
'ареста_'
'областях_'
'находиться_'
'столкновения_'
'северо_'
'Думы_'
'Ёо'
'финансовые_'
'Co'
'высоко'
'82_'
'сбора_'
'гар'
'соответствует_'
'Три_'
'Su'
' . '
'оди'
'изначально_'
'Российского_'
'нное_'
'Матвиенко_'
'ёо'
'пят'
'обеспечение_'
'видит_'
'над'
'хо'
'речи_'
'объект_'
'авторы_'
'ело_'
'узнать_'
'зен'
'London_'
'причина_'
'народного_'
'вел_'
'иро'
'Жа'
'Большинство_'
'Сам'
'перечень_'
'pro'
'Тр'
'причине_'
'операцию_'
'тесь_'
'занимаются_'
'Дю'
'don_'
'Bu'
'кр_'
'текущем_'
'рз'
'корпорации_'
'крупном_'
'НА'
'такими_'
'канале_'
'признан_'
'Ли'
'ставку_'
'нную_'
'Кубок_'
'ске_'
'сайта_'
'Ат'
'АТО_'
'мые_'
'доли_'
'устройство_'
'Ma'
'ким_'
'раз'
'удастся_'
'хочется_'
'болезни_'
'вер'
'какую_'
'выставки_'
'Да'
'русский_'
'показания_'
'отделение_'
'Директор_'
'home_'
'продать_'
'Кол'
'обвинил_'
'флота_'
'нали'
'кро'
'механизм_'
'Манчестер_'
'130_'
'Ja'
'судья_'
'зак_'
'скорости_'
'связан_'
'передать_'
'Кон'
'тре'
'прекратить_'
'посла_'
'ПАО_'
'большого_'
'хуже_'
'тр_'
'оплаты_'
'привел_'
'сотрудничестве_'
'v_'
'бы'
'знал_'
'выполнять_'
'институт_'
'плана_'
'Сы'
'продолжать_'
'ирует_'
'ени'
'ss_'
'щее_'
'одо'
'народной_'
'Га'
'those_'
'эр'
'играл_'
'Силовые_'
'соревнований_'
'ют'
'общество_'
'Первая_'
'Макрон_'
'ун'
'недель_'
'льных_'
'выходит_'
'коллеги_'
'Кир'
'Сар'
'while_'
'федеральный_'
'ао'
'приведет_'
'поо'
'ати'
'печати_'
'ита'
'начинает_'
'управлении_'
'кри'
'давать_'
'Известно_'
'платы_'
'обл'
'очевидно_'
'компенсации_'
'зан'
'ль'
'still_'
'установлено_'
'ведущих_'
'Вопрос_'
'Ли_'
'нынешнем_'
'КО'
'Видео_'
'пом'
'al'
'заключение_'
'Без_'
'следующего_'
'неизвестно_'
'акция_'
'th'
'сии_'
'Сити_'
'po'
'ber'
'оде'
'поток_'
'относятся_'
'fe'
'ались_'
' " .  _'
'исты_'
'ты'
'обязательства_'
'диалог_'
'Валентина_'
'яют_'
'писали_'
'ветер_'
'Ре'
'кредит_'
'музей_'
'зы_'
'мое_'
'p'
'непро'
'гу'
'Востока_'
'поддержать_'
'начнет_'
'мэрии_'
'йе_'
'Ан_'
'округе_'
'Россиею_'
'оценку_'
'ата'
'жителям_'
'Европу_'
'русской_'
'Гон'
' - '
'русских_'
'зарубежных_'
'лучший_'
'де'
'яли_'
'Му'
'женщину_'
'позиция_'
'подразделения_'
'субъектов_'
'посольства_'
'поро'
'йи'
'вин'
'78_'
'вооруженных_'
'отменить_'
'тори'
'использованием_'
'Встреча_'
'ъо'
'пациентов_'
'выплат_'
'анов_'
'поставить_'
'выступление_'
'Гу'
'99_'
'say_'
'Бур'
'рт'
'Лидер_'
'записи_'
'намерении_'
'зу_'
'Mar'
'ке'
'Штатов_'
'экологии_'
'Ле'
'форму_'
'уи'
'яз_'
'Мир'
'владелец_'
'Ин'
'er'
'требованиям_'
'официального_'
'коп'
'поделился_'
'оз'
'од'
'зон_'
'pe'
'целый_'
'тур_'
'One_'
'мер'
'нской_'
'бен'
'случилось_'
'поражение_'
'ныне_'
'did_'
'ие'
'ton_'
'комментариев_'
'кодекса_'
'Уе'
'Рус'
'опро'
'встреч_'
'фи'
'ру'
'кафе_'
'поезда_'
'открыть_'
'вне'
'74_'
'ови'
'генерального_'
'энерго'
'ур_'
'экономика_'
'вынуждены_'
'Собянин_'
') _'
'покупки_'
'сей_'
'соперника_'
'получается_'
'автомобиле_'
'Участники_'
'Telegram_'
'ической_'
'состояния_'
'населенных_'
'пла'
'такси_'
'сельского_'
'ag'
'уни'
'терроризмом_'
'Аравии_'
'police_'
'анк'
'ене'
'штат_'
'офф_'
'Hu'
'финансового_'
'свободу_'
'оо'
'онной_'
'ФК_'
'йского_'
'выступать_'
'Верховный_'
'остальных_'
'оставить_'
'данному_'
'опроса_'
'кт_'
'иу'
'Яр'
'роз'
'Финансы_'
'поправок_'
'сервиса_'
'объявила_'
'ался_'
'вдвое_'
'расти_'
'ка'
'Тульской_'
'аются_'
'рабочей_'
'мани'
'ько_'
'Ha'
'вают_'
'замглавы_'
'руку_'
'постановление_'
'яи'
'онные_'
'хотим_'
'управлением_'
'политического_'
'сферы_'
'большинстве_'
'Страна_'
'Кра'
'ик'
'Кан'
'Кур'
'ity_'
'Кар'
'стра'
'инский_'
'правительству_'
'росту_'
'Особенно_'
'яс'
'успех_'
'кою_'
'Три'
'ера'
'девушки_'
'led_'
'ча'
'валюты_'
'Ме'
'инг_'
'теракт_'
'борьба_'
'Ту_'
'ситуацией_'
'единственный_'
'подготовку_'
'открыли_'
'это'
'яе'
'ребята_'
'he'
'Чечни_'
'энергии_'
'ост_'
'оли'
'учения_'
'провела_'
'women_'
'going_'
'специалист_'
'доступа_'
'определить_'
'Рай'
'разработки_'
'ыр'
'туризма_'
'местной_'
'ити'
'77_'
'моя_'
'доставили_'
'видел_'
'хорошие_'
'откуда_'
' ) , " _'
'задолженности_'
'Причиной_'
'tu'
'участки_'
'журналисты_'
'обвинили_'
'ока'
'Великой_'
'ди'
'вида_'
'созданию_'
'тяжело_'
'me'
'малого_'
'чная_'
'ведомств_'
'поддерживать_'
'оне_'
'му'
'бесплатно_'
'2002_'
'прибыл_'
'третьего_'
'произошедшего_'
'исследование_'
'Группа_'
'пое'
'сказано_'
' " '
'Ще'
'поселке_'
'жены_'
'еже_'
'Кро'
'последней_'
'врио_'
'наличии_'
'енным_'
'Все'
'Ул'
'10'
'ив'
'виновным_'
'Новой_'
'нравится_'
'мошенничестве_'
'товары_'
'Ос'
'яться_'
'гося_'
'выступал_'
'ous_'
'обла'
'ео'
'общую_'
'целей_'
'ограничений_'
'выполнения_'
'2001_'
'мероприятие_'
'возможностей_'
'содержания_'
'Бри'
'‑_'
'рует_'
'Вал'
'анс'
'Клинтон_'
'прим_'
'пойдет_'
'финале_'
'рот'
'новому_'
'Гри'
'оставил_'
'ением_'
'автобуса_'
'Бре'
'поражения_'
'альной_'
'go'
'ally_'
'ье'
'обсудить_'
'ru'
'исто'
'взаимодействия_'
'некоторое_'
'зону_'
'Марий_'
'лучшие_'
'сан'
'акцию_'
'Наша_'
'Минфина_'
'жно_'
'Нижегородской_'
'Навальный_'
'посол_'
'вшим_'
'видимо_'
'Дон'
'получилось_'
'под'
'Ус'
'современных_'
'жил_'
'мозга_'
'сессии_'
'объясняет_'
'покинул_'
'строить_'
'магазинов_'
'ак'
'29'
'сат'
'интересно_'
'занимал_'
'успел_'
'оа'
'рассмотрения_'
'Уо'
'представил_'
'кси'
'доллара_'
'Гор'
'запрещено_'
'бур'
'Росси_'
'se'
'острова_'
'take_'
'Позднее_'
'данного_'
'цвета_'
'выросло_'
'York_'
'Авто'
'реализацию_'
'Ол'
'доя_'
'достижения_'
'кс_'
'рав'
'ери'
'Пе'
'международный_'
'pa'
'визит_'
'принимают_'
'отвечает_'
'ошибки_'
'дт'
'Международного_'
'Ай'
'можете_'
'разме'
'Mercedes_'
'эксплуатацию_'
'потенциал_'
'видеть_'
'Из'
'ъе'
'Fi'
'назвала_'
'этою_'
'23'
'нов'
'сыграет_'
'любви_'
'йс'
'выходные_'
'Воло'
'цов_'
'учета_'
'цами_'
'он'
'немало_'
'налоговой_'
'Бен'
'звезды_'
'вз'
'СНГ_'
'силами_'
'сел_'
'препаратов_'
'новости_'
'мед'
'плей_'
'овала_'
'обра'
'баррель_'
'прямой_'
'Большой_'
'щиков_'
'ul'
'менять_'
'вни'
'операция_'
'инициативе_'
'заболевания_'
'71_'
'J'
'as'
'вич_'
'создан_'
'оказаться_'
'ню_'
'ЦИК_'
'Pi'
'торгов_'
'гражданской_'
'Коми_'
'Бо'
'Ga'
'приехал_'
'жилых_'
'развивать_'
'За'
'дер'
'ово_'
'Пре'
'сокращение_'
'конкуренции_'
'стро'
'собственных_'
'войну_'
'перспективе_'
'прав'
'гоо_'
'часы_'
'опо'
'авторов_'
'та'
'разговор_'
'поддержка_'
'партнер_'
'  -_'
'пойти_'
'конфедераций_'
'ез'
'Где_'
'ото'
'министерство_'
'ей'
'массовых_'
'Над'
'аэро'
'любые_'
'зи'
'судебных_'
'оценивается_'
'мен_'
'портале_'
'друзей_'
'Be'
'сенатор_'
'Зна'
'переход_'
'право'
'Go'
'лр'
'ела_'
'Фар'
'ядерной_'
'школах_'
'сделано_'
'треть_'
'Днем_'
'кет'
'жа'
'смысл_'
'much_'
'старший_'
'ой'
'нарушении_'
'уточнили_'
'составить_'
'Lo'
'CNN_'
'кре'
'признался_'
'указал_'
'респондентов_'
'информационной_'
'сотрудникам_'
'представлены_'
'мл'
'возраст_'
'ле'
'To'
'73_'
'телефон_'
'Тра'
'запретить_'
'бу_'
'Следственный_'
'давления_'
'школьников_'
'through_'
'разведки_'
'Je'
'tra'
'штате_'
'направил_'
'концерт_'
'законодательству_'
'внешней_'
'влияния_'
'эко'
'сер'
'мл_'
'адо'
'обе'
'детского_'
'аб'
'ре'
'федеральном_'
'связей_'
'добро'
'МГУ_'
'om'
'политиков_'
'известных_'
'заметно_'
'другую_'
'Восточной_'
'аппарата_'
'правоохранительные_'
'ки'
'Пен'
'Мед'
'пара'
'дос'
'продолжит_'
'Северо_'
'третьей_'
'сильный_'
'Гар'
'Зато_'
'потребовал_'
'350_'
'составляют_'
'обли'
'ce'
'пот'
'словами_'
'евой_'
'современной_'
'27'
'реки_'
'понимать_'
'самих_'
'ат'
'Корее_'
'Аи'
'ств_'
'Газпрома_'
'нс_'
'зем'
'рин'
'зат'
'случайно_'
'бт'
'бывших_'
'РПЦ_'
'Джа'
'come_'
'проп'
'привело_'
'акт_'
'Артем_'
'ответить_'
'группой_'
'ци_'
'юр'
'кара'
'Пор'
'Бориса_'
'создавать_'
'надежду_'
'ман'
'Белый_'
'передаче_'
'добавила_'
'обеих_'
'ове'
'Глав'
'K_'
'острове_'
'32'
'прокурор_'
'Международный_'
'гри'
'остаться_'
'незаконно_'
'Мер'
'пон'
'привод'
'Na'
'пишут_'
'ай'
'ган'
'vo'
'кали'
'заболеваний_'
'доб'
'should_'
'нь'
'Хар'
'Фу'
'традиции_'
'мировых_'
'z'
'связана_'
'part_'
'порт_'
'подозреваемых_'
'версию_'
'нашел_'
'пост'
'нтов_'
'зам_'
'характера_'
'вывод_'
'нар'
'think_'
'согласился_'
'De'
'жителя_'
'Ок'
' ( '
'сторонников_'
'нос'
'пришла_'
'имели_'
'другая_'
'Латвии_'
'ci'
'сыграл_'
'оценить_'
'/ _'
'сен'
'емые_'
'Англии_'
'ыи'
'холдинга_'
'приобрести_'
'домах_'
'обратилась_'
'Ит'
'похоже_'
'нав'
'Экономика_'
'последствий_'
'Европейского_'
'зя'
'ance_'
'спецслужб_'
'жел'
'заняла_'
'днях_'
'электро'
'191'
'еб'
'British_'
'ици'
'соглашений_'
'позволяют_'
'перспективы_'
'Ое'
'пов_'
'боевики_'
'Юр'
'уются_'
'иб'
'EU_'
'ельно_'
'усл'
'жар'
'обвиняют_'
'ката'
'традиционно_'
'пет'
'Пол'
'Иа'
'пло'
'Ара'
'се'
'v'
'бре'
'Нар'
'de'
'зад_'
'Ку'
'ног_'
'напрямую_'
'вшиеся_'
'Сер'
'интересах_'
'землю_'
'структур_'
'помещения_'
'делом_'
'Пле'
'Кам'
'ум'
'ic'
'цин'
' " " . _'
'рас_'
'Mail_'
'ВКонтакте_'
'фон_'
'ид_'
'26'
'нци'
'иан'
'охот'
'Ян'
'игрок_'
'рады_'
'аво'
'принципе_'
'кр'
'бар'
'ьд'
'политические_'
'рассмотреть_'
'жан'
'организовать_'
'кос'
'знаем_'
'общая_'
'Мар'
'крайней_'
'журналист_'
'ев'
'оче'
'Ха'
'собираются_'
'упа'
'спокойно_'
'порта_'
'Бе'
'Ев'
'значения_'
'Ве'
'край_'
'вшегося_'
'бит'
'ред_'
'Жители_'
'right_'
'щи_'
'соц'
'митинг_'
'Париже_'
'столичного_'
'вес'
'актера_'
'Фонд_'
'ец'
'180_'
'евро'
'under_'
'кот'
'дить_'
'бс'
'общественной_'
'вопросе_'
'Яндекс_'
'покупку_'
'Getty_'
'193'
'реестр_'
'нж'
'молодые_'
'ОПЕК_'
'чиков_'
'Мам'
'одежды_'
'иям_'
'смогла_'
'ыз'
'чу'
'органами_'
'лб'
'завтра_'
'процедуру_'
'прекрасно_'
'news_'
'фронта_'
'зт'
'щит'
'билетов_'
'Кремль_'
'Аи_'
'разно'
'жени'
'даст_'
'эксплуатации_'
'вор'
'Ленина_'
'финал_'
'работой_'
'онный_'
'спортсмены_'
'гендиректора_'
'gs_'
'няя_'
'ека'
'региональной_'
'некоторым_'
'настоящему_'
'Президента_'
'информацией_'
'яс_'
'Мари'
'американским_'
'мн_'
'замминистра_'
'ане_'
'др'
'fo'
'Сергеем_'
'мама_'
'ел'
'Депутаты_'
'телефону_'
'lt'
'−_'
'Чен_'
'Хам'
'ma'
'жир'
'вр'
' % ( _'
'ыл_'
'приз_'
'Ид'
'ответа_'
'заключается_'
'Ун'
'формирования_'
'списка_'
'памятник_'
'тюрьмы_'
'реконструкции_'
'ству_'
'овского_'
'кон_'
'Эд'
'Тул'
'собственные_'
'сдела'
'Би_'
'Аб'
'Ne'
'имена_'
'Авиа'
'продукт_'
'ter'
'кл_'
'обществе_'
'юге_'
'шки_'
'тия_'
'транспортного_'
'Рей'
'Казахстана_'
'муж_'
'Уа'
'ством_'
'Свердловской_'
'Ke'
'обучения_'
'Ba'
'Images_'
'зин'
'see_'
'становятся_'
'меньшей_'
'посетить_'
'буд'
'сме'
'самолеты_'
'подозреваемого_'
'шо'
'ег'
'билеты_'
'юстиции_'
'установлены_'
'Ко_'
'начинается_'
'впоследствии_'
'ine_'
'морской_'
'открытие_'
'предложила_'
'Последний_'
'участвовали_'
'принимает_'
'спецслужбы_'
'обязательств_'
'нн'
'ГК_'
'le'
'сильнее_'
'проходил_'
'аст'
' - , _'
'пд'
'зачем_'
'Число_'
'электронной_'
'заводе_'
'team_'
'скандал_'
'нок_'
'армия_'
'пт'
'функции_'
'студии_'
'сл'
'мый_'
'co_'
'sta'
'кер'
'долги_'
'between_'
'Пред'
'an'
'советник_'
'ген'
'Ер'
'тер'
'покупке_'
'нти'
'second_'
'сон'
'кол'
'без'
'аре'
'Al'
'саммита_'
'Кап'
'уд_'
'районный_'
'отказалась_'
'корреспондент_'
'рейсов_'
'разрешение_'
'яв_'
'следующей_'
'ден'
'Дан'
'ируют_'
'девяти_'
'гран'
'меж'
'здоровье_'
'альный_'
'партию_'
'op'
'амо'
'российскую_'
'спорт_'
'фильмы_'
'f'
'продавать_'
'еч'
'Мл'
'qui'
'письме_'
'Георгий_'
'g'
'улица_'
'Пут'
'университет_'
'любого_'
'Бело'
'тин'
'прокурора_'
'видели_'
'актриса_'
'об'
'вод'
'Захарченко_'
'Fa'
'Ar'
'позиций_'
'ня'
'музыки_'
'игрока_'
'чн'
'May_'
'хов'
'оказать_'
'дл_'
'Швеции_'
'Тут_'
'ёр'
'другому_'
'рази'
'1000_'
'известен_'
'национальных_'
'Никита_'
'life_'
'СТ'
'экспертизы_'
'Ган'
'ури'
'НДС_'
'ании_'
'онного_'
'жу'
'left_'
'семью_'
'пед'
'ноги_'
'начнут_'
'еги'
'хотелось_'
'сот'
'вопросом_'
'Ла_'
'Ед'
'ding_'
'Сол'
'уто'
'какого_'
'Обамы_'
'сд'
'объемы_'
'Такая_'
'ks_'
'нападение_'
'Транс'
'Ну'
'улицах_'
'цену_'
'тв_'
'полученных_'
'ива'
'Соб'
'организаторов_'
'бла'
'погода_'
'соответствующие_'
'переговорах_'
'кампанию_'
'Русская_'
'Вт'
'городу_'
'Закон_'
'оружием_'
'создана_'
'иных_'
'жт'
'Ари'
'1917_'
'оду_'
'Вин'
'ful_'
'ало_'
'92_'
'задержания_'
'отметив_'
'начинают_'
'РФПЛ_'
'шат'
'зас'
'статью_'
'ша'
'реп'
'био'
'вание_'
'сви'
'жн'
'открыто_'
'контр'
'such_'
'повер'
'судя_'
'слову_'
'состоялось_'
'девочка_'
'Первые_'
'і_'
'земле_'
'тора_'
'проголосовали_'
'ey_'
'лом'
'трагедии_'
'сх'
'компаниям_'
'журнала_'
'про'
'номера_'
'этими_'
'круг_'
'яа'
'час'
'пользоваться_'
'фр'
'вероятность_'
'пок'
'Бол'
'ed'
'ьа'
'основания_'
'изо_'
'безусловно_'
'мощности_'
'школа_'
'рь_'
'яз'
'высокие_'
'областей_'
'недостаточно_'
'инского_'
'закрыть_'
'зав_'
'ьи_'
'поведение_'
'побед_'
'обратно_'
'play_'
'основным_'
'организаторы_'
'family_'
'судна_'
'знак_'
'Впервые_'
'lo'
'спортивных_'
'вв'
'пре_'
'пользователи_'
'Яв'
'Просто_'
'the'
'шин_'
'све'
'начиная_'
'che'
'выйдет_'
'Лю'
'ая'
'воздух_'
'эн'
'население_'
'запрета_'
'водой_'
'ани'
'претензии_'
'окружающей_'
'перво'
'возглавил_'
'требование_'
'вод_'
'Украиной_'
'стражей_'
'тел_'
'государством_'
'бра'
'нер'
'денежных_'
'Укр'
'аренду_'
'стей_'
'произойдет_'
'отказа_'
'red_'
'защитник_'
'рос_'
'еро'
'Зак'
'sa'
'ee_'
'театре_'
'просит_'
'Тар'
'Американский_'
'or'
'аров_'
'In'
'around_'
'звезд_'
'статуса_'
'оров_'
'Тре'
'совершении_'
'вошел_'
'попытке_'
'отсутствия_'
'инициатива_'
'жалобы_'
'бр'
'Ее'
'яд'
'шу'
'доказательств_'
'эи'
'запуск_'
'пле'
'советских_'
'действиях_'
'То'
'написала_'
'производству_'
'нере'
'Мил'
'сра'
'внутренней_'
'зер'
'ще'
'сам'
'непосредственно_'
'Кру'
'Росгвардии_'
'2025_'
'рти'
'тт'
'360_'
'материал_'
'выступают_'
'дорогах_'
'fa'
'Si'
'атор'
'ер'
'ран'
'подписали_'
'TV_'
'недалеко_'
'ировали_'
'активности_'
'див'
'голоса_'
'будете_'
'Кос'
'оль'
'обнаружены_'
'Предполагается_'
'референдум_'
'обороне_'
'света_'
'нес'
'79_'
'транспортной_'
'стр'
'орган_'
'современного_'
'практике_'
'Земли_'
'делегации_'
'социального_'
'супруга_'
'понимают_'
'енное_'
'социальные_'
'Финляндии_'
'указывает_'
'&_'
'рес'
'сердца_'
'Зе'
'иц_'
'собрать_'
'king_'
'эа'
'спасти_'
'ско_'
'агентству_'
'клубе_'
'законы_'
'ево'
'медиа'
'Оба_'
'участниками_'
'докладе_'
'опубликован_'
'успеха_'
'нта_'
'Юн'
'электронных_'
'терроризма_'
'Олимпийских_'
'судьи_'
'Советского_'
'производстве_'
'отходов_'
'линию_'
'свер'
'ран_'
'неожиданно_'
'Цн'
'vi'
'играх_'
'стан'
'местному_'
'Кле'
'сроком_'
'зампред_'
'Рн'
'ЕСПЧ_'
'направление_'
'имо'
'варианты_'
'Америке_'
'полный_'
'известны_'
'оф'
'ЦРУ_'
'моменты_'
'девочки_'
'four_'
'причинам_'
'подозрению_'
'иями_'
'дет'
'la'
'юз_'
'тепло'
'глав'
'аде'
'Запад_'
'щение_'
'имся_'
'увеличения_'
'любовь_'
'остановить_'
'йе'
'вызвали_'
'мои_'
'текст_'
'страной_'
'рай'
'важных_'
'ят'
'четко_'
'бин'
'создали_'
'орт_'
'знали_'
'яни'
'падение_'
'заявлением_'
'ge'
'ыд'
'квартира_'
'Мутко_'
'оказывается_'
'могил'
'комментарии_'
'оно'
'ён'
'160_'
'комментировать_'
'дочери_'
'нты_'
'found_'
'" . _'
'вмешательства_'
'средне'
'Ом'
'чиновника_'
'ае'
'чемпиона_'
'Бут'
'Эе'
'ола'
'нез'
'шин'
'проводятся_'
'тран'
'сыграть_'
'посе'
'тремя_'
'клубов_'
'сол'
'нове'
'мной_'
'пошел_'
'нен'
'country_'
'другу_'
'сре'
'назначил_'
'лон'
'ходить_'
'клад'
'жил'
'год'
'ло'
'лицом_'
'вки_'
'членами_'
'тун'
'тить_'
'участ'
'рассчитывает_'
'разу_'
'Порт'
'Луганской_'
'мни'
'дни'
'детали_'
'радио_'
'да'
'ac'
'Ые'
'намного_'
'доз'
'строй_'
'полуострова_'
'Ща'
'члена_'
'тве_'
'аэропорт_'
'тка'
'солдат_'
'полуострове_'
'мом_'
'Ирака_'
'аев_'
'men_'
'теми_'
'окончательно_'
'мальчик_'
'Будет_'
'поселка_'
'смо'
'Ди'
'in'
'2'
'центры_'
'рад_'
'Картина_'
'ывает_'
'зб'
'объявлен_'
'ning_'
'Медведева_'
'ut'
'1992_'
'подать_'
'уа_'
'ири'
'Ка'
'уем_'
'показателей_'
'выставка_'
'анализа_'
'ставка_'
'сюда_'
'жертвами_'
'Ше'
'Пн'
'900_'
'ence_'
'bri'
'Киргизии_'
'№ _'
'губ'
'кур'
'епо'
'bu'
'86_'
'35'
'собора_'
'неп'
'вед'
' :_'
'ям'
'пос_'
'ини'
'Оа'
'обязаны_'
'западе_'
'завершения_'
'добавляет_'
'Молдавии_'
'профессор_'
'Ju'
'стадиона_'
'Ана'
'il_'
'врача_'
'рубрике_'
'уточняется_'
'Ла'
'ol'
'эффективности_'
'границ_'
'ака'
'Юе'
'Руководитель_'
'ьр'
'установки_'
'выбрать_'
'Яе'
'рой_'
'иа_'
'Мон'
'ra_'
'адвоката_'
'place_'
'21'
'вон'
'дор'
'доклада_'
'американцев_'
'ада'
'Le'
'средняя_'
'снег_'
'бат'
'ын_'
'88_'
'членом_'
'онов_'
'директором_'
'Егор_'
'люб'
'разработке_'
'ент_'
'яв'
'совещании_'
'разо'
'Коп'
'едо'
'ФИФА_'
'метра_'
'ри'
'ком'
'ОСАГО_'
'Воз'
'Z'
'ядерного_'
'Дн'
'цело'
'АИ_'
'стол'
'Тем'
'IT_'
'110_'
'отставке_'
'ожидает_'
'владельца_'
'Пла'
'ьт'
'Or'
'чку_'
'установлен_'
'ага'
'трассе_'
'голосование_'
'Вол'
'Австралии_'
'дала_'
'93_'
'магазин_'
'яна_'
'нта'
'здоровью_'
'ГУ'
'number_'
'пром'
'страхования_'
'лер'
'бол'
'Почти_'
'футболист_'
'уст'
'равно'
'Бразилии_'
'Ka'
'хе'
'ключевых_'
'Та_'
'нут_'
'22'
'сло'
'дел'
'вели_'
'Фе'
'ца'
'важным_'
'Стол'
'появления_'
'черно'
'прио'
'казалось_'
'ближе_'
'спе'
'скор'
'половина_'
'ост'
'оми'
'играли_'
'яти'
'бри'
'открыт'
'мост_'
'зачастую_'
'бизнесмен_'
'Дем'
'Ёе'
'ср'
'Был_'
'проб'
'напротив_'
'вен'
'главная_'
'аве'
'уте'
'сед'
'Ска'
'стены_'
'покупать_'
'лова_'
'ень_'
'ответили_'
'подчеркнула_'
'лице_'
'выходить_'
'вб'
'системой_'
'Юа'
' . - " _'
'уче'
'ван'
'эффективность_'
'рассматривает_'
'International_'
'выс'
'выяснили_'
'допустить_'
'ША_'
'od'
'Рады_'
'Законопроект_'
'гла'
'Ор'
'81_'
'Пол_'
'тор'
'бизнесмена_'
'появятся_'
'Ман'
'участникам_'
'Губернатор_'
'устройств_'
'ине'
'одобрил_'
'юк_'
'щики_'
'пределами_'
'дра'
'вызвал_'
'Чт'
'четверо_'
'овую_'
'wi'
'показала_'
'медали_'
'Ам'
'ёе'
'жюри_'
'ставить_'
'декабр'
'Вз'
'покупателей_'
'Ои'
'зарплату_'
'called_'
'Da'
'езд'
'физических_'
'передал_'
'официальных_'
'общения_'
'налог_'
'увидел_'
'дороже_'
'бюджете_'
'При'
'предложений_'
'западных_'
'деятельностью_'
'Ры'
'ling_'
'чет_'
'рабочие_'
'лько_'
'nce_'
'удал'
'продолжить_'
'ндр'
'вреда_'
'ща_'
'угрозой_'
'наркотиков_'
'win_'
'государственные_'
'Ье'
' # _'
'председателем_'
'обратил_'
'ирования_'
'know_'
'мол'
'посетителей_'
'Великобритания_'
'сделок_'
'еу'
'Об'
'жин'
'насилия_'
'Прос'
'Пон'
'Юл'
'+_'
'правовой_'
'Арт'
'гонки_'
'Мн'
'близкий_'
'ie'
'ея_'
'want_'
'угля_'
'каждому_'
'экономику_'
'оте'
'международные_'
'Y'
'кост'
'пы_'
'Тер'
'Жн'
'ксо'
'сюжет'
'попала_'
'йв'
'минус_'
'док'
'Ъе'
'МО'
'проще_'
'иш'
'Нижнем_'
'уго'
'руководители_'
'парламенте_'
'Кт'
'штрафа_'
'Одним_'
'одн'
'ала'
'Роснефть_'
'причастности_'
'Ят'
'головы_'
'водо'
'Ма'
'расход'
'класс_'
'голов_'
'мен'
'владельцев_'
'Бат'
'тельные_'
'теле_'
'нки_'
'зап_'
'1999_'
'местный_'
'пти'
'обсуждение_'
'Фн'
'won_'
'ne'
'Команд'
'1980_'
'предмет_'
'ети'
'Бн'
'ером_'
'сле'
'фо'
'фл'
'mon'
'ху_'
'улицу_'
'заб'
'оя'
'лоб'
'Фин'
'Ет'
'1991_'
'мороз'
'итель_'
'едино'
'вала_'
'цен'
'потеря'
'личного_'
'Еа'
'pri'
'за'
'ального_'
'Эрдоган_'
'КА'
'Павла_'
'your_'
'полит'
'лим'
'заключил_'
'Har'
'оза'
'Шн'
'Фа'
'Бр'
'Шал'
'народов_'
'кредиты_'
'средний_'
'специальных_'
'рус'
'ром'
'ветра_'
'специальные_'
'end_'
'ял'
'культуре_'
'гт'
'ху'
'футболистов_'
'ота'
'готовится_'
'84_'
'шу_'
'аж_'
'овский_'
'квадратных_'
'ch'
'оро'
'иж'
'вступления_'
'Жу'
'ёт'
'исполнении_'
'on'
'Jo'
'тог_'
'тебе_'
'столицу_'
'Юи'
'Сибири_'
'осто'
'ол'
'набрал_'
'активность_'
'ar'
'вещей_'
'ади'
'ad_'
'1998_'
'Че'
'Пар'
'Ен'
'приняты_'
'нто'
'хозяев_'
'приехали_'
'Од'
'Вл'
'чьи_'
'уве'
'создает_'
'next_'
'пространство_'
'Старо'
'никого_'
'получится_'
'Эа'
'розыск_'
'Cha'
'ходу_'
'фондов_'
'Кре'
'Ке'
'потребления_'
'оператора_'
'Лн'
'Гран_'
'ure_'
'ческую_'
'Эту_'
'дар'
'отдел_'
'Ca'
'етр'
'Эк'
'ha'
'4'
'Ва'
'пис'
'город'
'wa'
'внутри'
'Поскольку_'
'предоставления_'
'вторая_'
'Лт'
'став'
'моделей_'
'Фт'
'Версия_'
'long_'
'организацией_'
'окр'
'гео'
'Совете_'
'син'
'пространства_'
'стол_'
'прода'
'рпи'
'ест_'
'ВИМ_'
'ели'
'Геннадий_'
'вечера_'
'Женщина_'
'бно'
'ут'
'завершился_'
'щт'
'ставок_'
'планеты_'
'допинг_'
'83_'
'победой_'
'иц'
'ваш_'
'спор'
'операторов_'
'ВСУ_'
'пов'
'стре'
'вынужден_'
'база_'
'полета_'
'впрочем_'
'ke'
'муниципального_'
'массовой_'
'Рт'
'тив'
'пас'
'гин'
'реб'
'заменить_'
'атаке_'
'Цы'
'принятие_'
'чить_'
'поко'
'Спустя_'
'est_'
'уп'
'Пал'
'объединения_'
'бро'
'Хн'
'научных_'
'региону_'
'Ыа'
'Олимпиаде_'
'Мт'
'96_'
'жер'
'учитывая_'
'нсо'
'So'
'ьное_'
'Ес'
'rt_'
'поступил_'
'па'
'отмены_'
'диалога_'
'Тай'
'man'
'юс'
'Теле'
'ющее_'
'ыб'
'Официальный_'
'ед'
'Вен'
'Были_'
'зарплат_'
'серию_'
'разобраться_'
'преда'
'Кат'
'Russia_'
'сп'
'наб'
'Вс'
'ред'
'разр'
'ули'
'Па'
'фе'
'Росс'
'нан'
'Чувашии_'
'Ход'
'League_'
'лиге_'
'Gi'
'поддерживают_'
'Пс'
'Нт'
'сы'
'set_'
'сердце_'
'Верховного_'
'WADA_'
'ио'
'ело'
'цем_'
'ресурсы_'
'золото_'
'достичь_'
'children_'
'осо'
'Тюмени_'
'нижней_'
'личности_'
'Ёа'
'Жт'
'активисты_'
'Узбекистана_'
'Ив'
'жен'
'выяснить_'
'Йа'
'оставаться_'
'зако'
'Аз'
'форум_'
'реж'
'обоих_'
'кн_'
'каждым_'
'Спас'
'крупный_'
'Тол'
'Гра'
'оло'
'вторую_'
'летия_'
'енную_'
'беседе_'
'BMW_'
'направлений_'
'ено'
'бое'
'195'
'ребят_'
'ип'
'выводы_'
'магазина_'
'мол_'
'медицинского_'
'Пт'
'Время_'
'line_'
'even_'
'кам'
'готовность_'
'Шл'
'опа'
'хов_'
'приема_'
'ит'
'Лондона_'
'занимался_'
'олов'
'ерс'
'доверия_'
'Еи'
'Пра'
'Гро'
'Джо'
'началом_'
'задержанных_'
'выпуска_'
'мов_'
'завершилась_'
'жилого_'
'Ло'
'ВКС_'
'тельных_'
'ических_'
'уры_'
'еж_'
'Заместитель_'
'ок'
'нй_'
'высказал_'
'Ау'
'Du'
'обслуживания_'
'ировал_'
'Ты'
'цн'
'весе_'
'ten'
'республик_'
'Ьн'
'Валерия_'
'проспекте_'
'отвечать_'
'attack_'
'регулирования_'
'объе'
'требованием_'
'чики_'
'иным_'
'Авиа_'
'заявлений_'
'выплатить_'
'ане'
'тро'
'боль_'
'хол'
'факты_'
'Тан'
'Мур'
'pre'
'восстановления_'
'Шойгу_'
'подростков_'
'лен'
'анализ_'
'несо'
'экипажа_'
'сообщений_'
'красно_'
'еж'
'Дня_'
'Агентство_'
'юридических_'
'Йн'
'Жи'
'жне'
'видят_'
'результата_'
'работала_'
'доклад_'
'Ги'
'Локомотив_'
'гс'
'Автор_'
'приб'
'жили_'
'введении_'
'Мик'
'сй'
'задачу_'
'land_'
'гражданского_'
'Чн'
'Ri'
'тя_'
'международном_'
'dis'
'половиной_'
'Наш_'
'создал_'
'Ля'
'Зт'
'oi'
'технического_'
'правилам_'
'исключено_'
'паст'
'Люд'
'российскому_'
'Сербии_'
'Комитет_'
'предв'
'местами_'
'дефицит_'
'выходе_'
'орган'
'аяся_'
'мы'
'СА'
'событие_'
'признает_'
'преддверии_'
'пояснила_'
'ножом_'
'Ыт'
'прод'
'дешевле_'
'ази'
'вск'
'чело_'
'вл'
'вещества_'
'Сим'
'Александру_'
'картина_'
'самим_'
'родственников_'
'реформ_'
'возглавлял_'
'арестован_'
'Хт'
'Деньги_'
'ги'
'вооружения_'
'НПФ_'
'used_'
'берегу_'
'сем'
'новыми_'
'карту_'
'госпожа_'
'Отечественной_'
'АФК_'
'мужа_'
'Эи'
'Лукашенко_'
'дз'
'Ял'
'уюся_'
'официальной_'
'ъа'
'Щн'
'лог_'
'per'
'юл'
'Бук'
'Сан'
'сал'
'сте'
'лян'
'личных_'
'ического_'
'Ьа'
'Цр'
'Ав'
'способен_'
'серьезных_'
'изменение_'
'единого_'
'отс'
'party_'
'теме_'
'взяла_'
'140_'
'яа_'
'ово'
'Международной_'
'используется_'
'затраты_'
'Йи'
'Бал'
'судей_'
'исо'
'американском_'
' : '
'щенко_'
'дн'
'ьи'
'con'
'сс_'
'оне'
'обращении_'
'цкий_'
'сделку_'
'обсуждать_'
'Ростовской_'
'рта'
'стер'
'Тт'
'good_'
'cy_'
'собрание_'
'топ'
'Прокуратура_'
'Bloomberg_'
'трассы_'
'соревнования_'
'сар'
'попытался_'
'аба'
'Se'
'Ъа'
'Самый_'
'Новгороде_'
'der_'
'укра'
'опасность_'
'ович_'
'выставке_'
'Лиге_'
'обо_'
'лс'
'Зр'
'снизилась_'
'героев_'
'атак_'
'Саратовской_'
'уро'
'Белом_'
'наблюдается_'
'народных_'
'исключением_'
'журналиста_'
' ) " _'
'поставил_'
'никому_'
'зала_'
'распоряжении_'
'формате_'
'ряду_'
'благо'
'приговорил_'
'транспорт_'
'ры'
'обстоятельств_'
'защита_'
'высоких_'
'прекращения_'
'инг'
'бумаги_'
'Ёт'
'чным_'
'дя'
'Екатеринбурге_'
'Ён'
'звание_'
'шар'
'тяжелом_'
'предвыборной_'
'отмене_'
'осталась_'
'взрослых_'
'пребывания_'
'известного_'
'гидро'
'ёа'
'след'
'кредитных_'
'горо'
'рассматривать_'
'применение_'
'понимаю_'
'йский_'
'sur'
'включает_'
'Дар'
'Ассоциации_'
'спи'
'инвалидов_'
'бел'
'направить_'
'задержании_'
'был'
'аренды_'
'during_'
'ьн'
'Марк_'
'рев'
'пя'
'защитить_'
'выпуск_'
'ьс'
'президенте_'
'потерял_'
'общее_'
'Мос'
'Иск'
'суб'
'проблемой_'
'практика_'
'Тн'
'кад'
'ита_'
'лет'
'йс_'
'госу'
'ато'
'Вест'
'лот'
'долгов_'
'доказательства_'
'Ву'
'цт'
'доп'
'артист_'
'Ии'
'перевозки_'
'ba'
'аш'
'рм'
'Одесской_'
'отдельные_'
'боле'
'Сборная_'
'изм_'
'Республике_'
'87_'
'ko'
'праздника_'
'лле'
'емой_'
'Бт'
'инов'
'Трампу_'
'got_'
'фи_'
'реализовать_'
'военную_'
'мета'
'Первое_'
'Бай'
'may_'
'ga'
'энерго_'
'опубликовано_'
'Дт'
'рта_'
'ребенком_'
'процедура_'
'моно'
'гражданство_'
'глубин'
'Pri'
'Lu'
'боя_'
'аты_'
'Кр'
'средствами_'
'близких_'
'Польше_'
'думать_'
'Европейский_'
'сма'
'33'
'эв'
'популярных_'
'вызвало_'
'Зин'
'прос'
'гал'
'so'
'оо_'
'Вместо_'
'rt'
'юш'
'иат'
'рекламы_'
'дам'
'Тюменской_'
'Сен'
'сумме_'
'попытка_'
'виз_'
'яг'
'дес'
'lu'
'ьным_'
'см'
'доказать_'
'возникает_'
'бед'
'Ут'
'резолюции_'
'пел'
'изма_'
'Ън'
'тит'
'уса_'
'изб_'
'Нн'
'МС_'
'помо'
'моменту_'
'выступить_'
'НКО_'
'вал'
'Labour_'
'Gu'
'поздно_'
'партнеры_'
'Яи'
'Ивана_'
'чес'
'судебного_'
'введен_'
'Ра'
'чение_'
'появление_'
'side_'
'реальности_'
'Цт'
'Дер'
'брат_'
'заместителем_'
'Часть_'
'миллион_'
'Эт'
'Ожидается_'
'bg_'
'экономический_'
'технических_'
'лист'
'личность_'
'Эксперт_'
'Май'
'НИИ_'
'ьв'
'политический_'
'Мет'
'пошли_'
'лит'
'летнюю_'
'вблизи_'
'тарифов_'
'должностных_'
'юа'
'СО'
'Джеймс_'
'Ът'
'Александров'
'наследия_'
'бю'
'Ьт'
'Род'
'уверенность_'
'заявок_'
'дол'
'Зн'
'Красной_'
'ВИЧ_'
'Гол'
'сда'
'ини_'
'заверил_'
'дин_'
'жет'
'ът'
'раска'
'митинга_'
'культурного_'
'двух'
'ведения_'
'воде_'
'Национальный_'
'ors_'
' " " , _'
'йд'
'Am'
'территория_'
'оборот_'
'книгу_'
'Хл'
'агро'
'ави'
'просят_'
'опубликовала_'
'уз'
'сс'
'обучение_'
'Щт'
'Bro'
'рово'
'иф'
'Известий_'
'книг_'
'цр'
'регулятора_'
'возвращения_'
'бирже_'
'Судя_'
'лем_'
'заплатить_'
'ьо_'
'русском_'
'двоих_'
'успели_'
'мель'
'кн'
'вступил_'
'муж'
'контролем_'
'памятника_'
'чемпионом_'
'рал'
'иска_'
'направлено_'
'нередко_'
'разговора_'
'непо'
'домашний_'
'правоохранители_'
'кредитной_'
'H_'
'подробности_'
'мир'
'Toyota_'
'сделала_'
'Hi'
'Уи'
'пяти'
'объяснить_'
'вили_'
'ющую_'
'лар'
'изв_'
'дли_'
'возможном_'
'Лос_'
'победил_'
'военным_'
'Вя'
'эе'
'коз'
'Майкл_'
'АС'
'United_'
'кно'
'жизнью_'
'надеется_'
'привели_'
'ози'
'преступление_'
'еже'
'судно_'
'редакции_'
'май'
'ьев_'
'необходимых_'
'изданию_'
'вплоть_'
'секунд_'
'компаниями_'
'Греции_'
'нр'
'видом_'
'условно_'
'упала_'
'использовали_'
'Поп'
'ьского_'
'совместной_'
'пи_'
'кампания_'
'дон'
'ley_'
'201_'
'рож'
'производители_'
'перешел_'
'Адвокат_'
'ън'
'сим'
'pi'
'own_'
'ухода_'
'запись_'
'втор'
'зжа'
'бил'
'американская_'
'Володин_'
'1997_'
'владеет_'
'чески_'
'City_'
'рин_'
'изучения_'
'Кл'
'Кадыров_'
'квартал_'
'изд_'
'выполнить_'
'устав'
'проходили_'
'Кубке_'
'сли'
'европейской_'
'хот'
'мд'
'еру_'
'Post_'
'Вит'
'ka'
'преимущество_'
'блок_'
'цифры_'
'поведения_'
'личной_'
'Йт'
'Евросоюз_'
'роб'
'поезд_'
'ош'
'Гт'
'спа'
'подачи_'
'мн'
'um'
'Наши_'
'хранения_'
'еде_'
'Йе'
'коллекции_'
'черед'
'нао'
'инвесторы_'
'задолженность_'
'ета'
'Эс'
'ья'
'мусора_'
'количеству_'
'Вне'
'Венесуэлы_'
'лекарства_'
'лекарств_'
'Рост_'
'севере_'
'нер_'
'действуют_'
'sh'
'рест'
'порой_'
'называет_'
'ob'
'осе'
'really_'
'mo'
'ско'
'процент_'
'Мало'
'Канады_'
'уч'
'election_'
'цов'
'так'
'шим_'
'соревнованиях_'
'вынес_'
'Влади'
'способом_'
'следить_'
'ван_'
'двери_'
'нз'
'месяцы_'
'лива'
'Австрии_'
'ъи'
'ческое_'
'Мад'
'детской_'
' " ... _'
'газо'
'Кун'
'week_'
'фор'
'Ко'
'указано_'
'норм_'
'йской_'
'участвовал_'
'98_'
'ыва'
'ответ'
' ? '
'полно'
'испытаний_'
'прот'
'иде'
'затрат_'
'яч'
'прийти_'
'ден_'
'ant'
'хы_'
'законов_'
'законе_'
'ект'
'шение_'
'узнали_'
'Прав'
'чв'
'уч_'
'Тот_'
'end'
'певица_'
'опи'
'практики_'
'зно'
'дот'
'восстановить_'
'Бак'
'Рез'
'сак'
'отличается_'
'министру_'
'изменен'
'баллов_'
'голос_'
'нга_'
'возможным_'
'щу'
'отправили_'
'тай'
'гор_'
'мент_'
'Федеральная_'
'Col'
'выступая_'
'аков_'
'Ты_'
'ерен'
'ъя'
'заявку_'
'жд'
'воспользоваться_'
'Сирию_'
'five_'
'фур'
'жалобу_'
'долго'
'Uber_'
'флагом_'
'льную_'
'вит'
'пери'
'основу_'
'руд'
'нд'
'воз_'
'взаимо'
'официальным_'
'мощностью_'
'Первого_'
'реально_'
'ers'
'определенные_'
'ОНФ_'
'show_'
'тельный_'
'изве'
'ft_'
'работники_'
'91_'
'способны_'
'попросили_'
'вторым_'
'Пет'
'54'
'специальный_'
'сил'
'Федерального_'
'Урал'
'ja'
'участник_'
'спектакль_'
'не'
'зар'
'Ёи'
'help_'
'созда'
'следствием_'
'реи'
'оценил_'
'заявки_'
'запрете_'
'расп'
'меру_'
'стражу_'
'йтесь_'
'государству_'
'руб'
'нон'
'Наз'
'забот'
'тки_'
'стратегических_'
'вкладов_'
'Яа'
'свидетельствуют_'
'еда'
'ический_'
'годовых_'
'ma_'
'лт'
'дипломатов_'
'mar'
'тол'
'краю_'
'кп'
'Северная_'
'Общая_'
'аналитик_'
'вижу_'
'работающих_'
'повлиять_'
'аппарат_'
'Оп'
'these_'
'псо'
'нят'
'ница_'
'ицу_'
'Марин_'
'ывают_'
'лифт'
'кап'
'дво'
'Ква'
'щи'
'рубль_'
'портала_'
'полицией_'
'непод'
'Ho'
'рон'
'потреб'
'избирательной_'
'ments_'
'спасатели_'
'размера_'
'Израиль_'
'дл'
'at'
'фон'
'паспорт_'
'овое_'
'Газ'
'мого_'
'играют_'
'форт'
'пункты_'
'препараты_'
'нс'
'суп'
'советской_'
'скими_'
'кот_'
'дс'
'транспорте_'
'потребуется_'
'Объем_'
'История_'
'Чр'
'ожидания_'
'уб'
'титул_'
'зимой_'
'вя'
'перехода_'
'такому_'
'выступила_'
'буде_'
'бер'
'сно'
'занять_'
'вос'
'Япония_'
'Фед'
'ума_'
'сик'
'Дл'
'редко_'
'глазах_'
'составляла_'
'Нас_'
'аналитики_'
'арти'
'Шар'
'Благо'
' " : " _'
'рассчитывать_'
'риска_'
'Сал'
'атаку_'
'Иль'
'носит_'
'журнал'
'Следователи_'
'Северного_'
'Пот'
'it'
'чет'
'оба'
'дождь_'
'That_'
'бле'
'ap'
'показывают_'
'оле'
'мероприятии_'
'йт_'
'бал'
'скажем_'
'Ыи'
'молодого_'
'восстановление_'
'ВМС_'
'ki'
'including_'
'таи'
'премию_'
'мана_'
'Вообще_'
'final_'
'экономические_'
'рет'
'кин'
'чс'
'ена'
'достиг_'
'mp'
'цеп'
'логии_'
'Вас'
'Федор_'
'Марина_'
'наверняка_'
'комитете_'
'Олимпиады_'
'up'
'ёи'
'крем'
'делал_'
'бренда_'
'over'
' ) ; _'
'чест'
'пользуются_'
'адресу_'
'Турцию_'
'расс'
'единственным_'
'Ъи'
'best_'
'запуска_'
'форвард_'
'лы'
'иль'
'подозревают_'
'дохода_'
'шую_'
'штрафы_'
'оти'
'2021_'
'шт'
'лето_'
'аг'
'Запада_'
'связ'
'впечатление_'
'онная_'
'отдать_'
'привлечения_'
'нарушением_'
'молодежь_'
'Рост'
'сб'
'отве'
'дата_'
'КС_'
'Бра'
'out'
'уре'
'сокращения_'
'ностью_'
'лл'
'89_'
'опрос_'
'обладает_'
'Юли'
'Хор'
' % ._'
'претензий_'
'Дом_'
'pe_'
'кандидатуру_'
'вою_'
'представила_'
'Ьи'
'как'
'казн'
'шне'
'московских_'
'ехать_'
'вузов_'
'шест'
'ранс'
'кен'
'Водитель_'
'da_'
'участвуют_'
'отсутствии_'
'проти'
'карьере_'
'бак'
'Недавно_'
'пространстве_'
'украин'
'зн'
'дальнейшего_'
'выполнение_'
'Эв'
'ms_'
'do'
'важный_'
'гон'
'Ро_'
'существуют_'
'мр'
'интернета_'
'гру'
'вд'
'Ростове_'
'Мен'
'скандала_'
'правом_'
'офис_'
'ын'
'ипо'
'обнаружено_'
'коррупцией_'
'кожи_'
'внесен_'
'ыс'
'направлен_'
'карьеры_'
'Европа_'
'тельной_'
'помощник_'
'Он'
'Гре'
'ещ'
'еа_'
'друзья_'
'sing_'
'1995_'
'ющихся_'
'боли_'
'Мол'
'Кн'
'оснований_'
'нк'
'поставили_'
'нин_'
'лав'
'договоренности_'
'ned_'
'Bar'
'федеральной_'
'исходя_'
'Донбасс_'
'Макрона_'
'онер'
'картину_'
'сигнал_'
'дат'
'победителей_'
'пара_'
'йн_'
'Щи'
'rep'
'Бро'
'существ'
'рни'
'Дениса_'
'en'
'ьской_'
'нае'
'изделий_'
'интер'
'XIX_'
'media_'
'ice_'
'190'
'пить_'
'делали_'
'Мр'
'АТ'
'гд'
'Ростов_'
'красно'
'кодекс_'
'ующие_'
'ишь_'
'способности_'
'еле'
'добавить_'
'Зам'
'fi'
'дения_'
'es'
'1994_'
'передач_'
'оа_'
'британского_'
'яно'
'вечер_'
'Меня_'
'прив'
'подобного_'
'Сор'
'факторов_'
'тя'
'неудач'
'Кай'
'Сто'
'отчетности_'
'нф'
'мв'
'Севастополя_'
'Же'
'Сви'
'эксперта_'
'четырех'
'точку_'
'полного_'
'собственного_'
'отв_'
'Иванов_'
' % '
'фонды_'
'сл_'
'перейти_'
'What_'
'электроэнергии_'
'проезд_'
'глаз'
'лять_'
'результатом_'
'рее'
'каш'
'вар'
'шаги_'
'зани'
'строй'
'камеры_'
'вовремя_'
'менеджер_'
'гда_'
'тах_'
'помогут_'
'подготовка_'
'ог'
'согласен_'
'рынки_'
'россиянина_'
'Мас'
'принимали_'
'пар'
'горд'
'su'
'старше_'
'смены_'
'произведен'
'региональные_'
'высшего_'
'возможной_'
'вается_'
'both_'
'платежей_'
'увидели_'
'секторе_'
'вто'
'Центральной_'
'чения_'
'сков'
'III_'
'получали_'
'мж'
'магазинах_'
'Человек_'
'оценили_'
'инс'
'мимо_'
'раж'
'Ют'
'ору'
'опыта_'
'има'
'сценарий_'
'самому_'
'поздравил_'
'палата_'
'готов'
'вооружений_'
'Джи'
'Одно'
'мк'
'золота_'
'автора_'
'центральной_'
'статья_'
'процессы_'
'отм'
'зим'
'самыми_'
'гет'
'Обама_'
'112_'
'di'
'сли_'
'подтвердила_'
'бло'
'аут'
'Венгрии_'
'Мит'
'Ков'
'российск'
'дели'
'Рам'
'Оз'
'МК_'
'Литвы_'
'разным_'
'проведут_'
'Мат'
'Кост'
'россиянин_'
'нагрузки_'
'cho'
'Volkswagen_'
'позволят_'
'жда'
'СМ'
'рия_'
'охране_'
'йб'
'дополнительно_'
'дои'
'провер'
'помещений_'
'оказания_'
'многим_'
'ver_'
'президентской_'
'лицам_'
'боевой_'
'ves_'
'хищении_'
'цел'
'вка_'
'территориях_'
'способствовать_'
'развед'
'подали_'
'визитом_'
'уверенно_'
'Роналду_'
'1996_'
'яков_'
'крупного_'
'ated_'
'мысли_'
'Ki'
'ыт'
'футбольного_'
'урегулирования_'
'приходилось_'
'кадров_'
'зрители_'
'прокат_'
'фан'
'Ксения_'
'des'
'юн'
'представляют_'
'пределах_'
'иные_'
'Ведомости_'
'Ситуация_'
'97_'
'уголовных_'
'пап'
'бес'
'Альфа_'
'конкретных_'
'желающих_'
'same_'
'оч'
'онн'
'каль'
'11'
'чика_'
'уф'
'способность_'
'горожан_'
'Ленты_'
'inc'
'уль'
'голове_'
'увеличилось_'
'рий_'
'количестве_'
'елл'
'Джей'
'писать_'
'тн'
'зарплата_'
'активистов_'
'ht'
'фестивале_'
'дин'
'отправить_'
'зде'
'Бы'
'сок'
'ником_'
'took_'
'украинцев_'
'щик_'
'воо'
'оценка_'
'ого'
'емый_'
'поясняет_'
'месяце_'
'корабль_'
'Тим'
'проверок_'
'ально_'
'еми'
'брата_'
'Гос'
'xi'
'too_'
'угроза_'
'Сколько_'
'предо'
'травм_'
'рн'
'проектом_'
'зор'
'ti'
'учи'
'удается_'
'опасных_'
'постановления_'
'обязан_'
'Сил'
'многочисленные_'
'котор'
'АЭС_'
'победе_'
'обещал_'
'коло'
'имеется_'
'Жр'
'помогают_'
'later_'
'W_'
'выдачи_'
'решено_'
'North_'
'обмена_'
'будучи_'
'граф'
'тб'
'секрет'
'пенсию_'
'художника_'
'зло'
'деля_'
'Прес'
'контролировать_'
'зона_'
'зл'
'Мэр_'
'ссылаясь_'
'современные_'
'русские_'
'ent'
'тически'
'иско'
'евн'
'представит_'
'просто'
'обы'
'выделить_'
'Sp'
'числу_'
'распространил'
'предполагается_'
'аче'
'Новомосковск'
'учитывать_'
'случаю_'
'кс'
'Рек'
'Лет'
'ther_'
'едн'
'глаз_'
'вело'
'ион_'
'еко'
'Шм'
'фронт_'
'иностранные_'
'еств'
'оваться_'
'оборон'
'дост'
'бело_'
'Бел'
'четверт'
'бв'
'сла'
'жон'
'детский_'
'документу_'
'вил_'
'стру'
'ссии_'
'мра'
'контейнер'
'кат'
'завершить_'
'пров'
'данными_'
'Каз'
'Авторы_'
'мет'
'ителей_'
'вской_'
'банкротства_'
'ростом_'
'кова'
'мониторинга_'
'Кал'
'рекомендации_'
'Поли'
'former_'
'рпе'
'разработку_'
'еды_'
'спо'
'сведений_'
'Ab'
'нево'
'мак'
'ож'
'москвичей_'
'внутренние_'
'американцы_'
'Йр'
'секунды_'
'единой_'
'долгое_'
'знаете_'
'Цен'
'Фер'
'зае'
'дан_'
'вывести_'
'масла_'
'ева'
'тан'
'лер_'
'задержала_'
'спаса'
'разд'
'получи'
'лина_'
'блока_'
'нако'
'лд'
'Последние_'
'Кен'
'эз_'
'станций_'
'зато_'
'bra'
'приз'
'музыку_'
'высоким_'
'рез'
'зафиксировано_'
'роп'
'Рен'
'Ve'
'разработать_'
'кал_'
'Нижнего_'
'Наиболее_'
'ьп'
'бир'
'Правительства_'
'ger_'
'появляется_'
'ударов_'
'мил'
'карман'
'ищут_'
'Соответствующее_'
'never_'
'полет_'
'йт'
'звер'
'Владислав_'
'АН_'
'sha'
'площадок_'
'корабля_'
'зао'
'If_'
'Ford_'
'остро'
'апо'
'холдинг_'
'сила_'
'акционеров_'
'трав'
'ровал_'
'йск'
'планов_'
'налоги_'
'возможные_'
'ot_'
'основатель_'
'дв'
'5'
'сектор_'
'ице_'
'ely_'
'лес'
'34'
'кло'
'добавили_'
'ys_'
'group_'
'чот_'
'тру'
'принес_'
'массового_'
'зав'
'Анастасия_'
'шен'
'выт'
'Сб'
'эй'
'туп'
'ащи'
'леса_'
'инициатив_'
'депутатом_'
'повреждения_'
'вро'
'Сс'
'dy_'
'несовершеннолетних_'
'кредита_'
'Чехии_'
'ла'
'put_'
'любых_'
'трети_'
'среде_'
'нными_'
'Маг'
'прид'
'понял_'
'ЧС_'
'need_'
'автомобилем_'
'Сад'
'фе_'
'произошли_'
'екс'
'реа'
'пин'
'сом'
'нск'
'мал'
'Ант'
'открытии_'
'аем_'
'Ист'
'ir_'
'течени'
'развиваться_'
'ьер'
'предварительной_'
'отправил_'
'Оле'
'ула'
'ровали_'
'бренд_'
'беспо'
'гот'
'Пусть_'
'ьс_'
'проф'
'неа'
'ded_'
'собрались_'
'пришло_'
'нон_'
'вил'
'rn'
'лагеря_'
'Эл'
'Станислав_'
'ека_'
'ворот_'
'ФНС_'
'Жер'
'lan'
'торговле_'
'рост'
'предусмотрено_'
'предложением_'
'овер'
'выбора_'
'Минэкономики_'
'фол'
'предложить_'
'ои_'
'встретился_'
'ck'
'Гур'
'la_'
'рынках_'
'реальных_'
'запрет'
'еди'
'преимущественно_'
'паспорта_'
'ето'
'ьев'
'исполнение_'
'ып'
'нда'
'Против_'
'Никто_'
'банд'
'открыт_'
'газ'
'ьский_'
'общественности_'
'етс'
'Бла'
'шм'
'суды_'
'оса'
'их'
'подс'
'зом_'
'АСВ_'
'мод'
'спортивной_'
'ква'
'воздушного_'
'Сю'
'распоряжение_'
'органа_'
'емо'
'понимает_'
'ожидают_'
'ейся_'
'выиграть_'
'Сл'
'средство_'
'уходит_'
'уда_'
'составило_'
'Читайте_'
'Максима_'
'тв'
'случившегося_'
'жл'
'уголовной_'
'подала_'
'банком_'
'ценности_'
'дев'
'хода_'
'ДО'
'gar'
'устроили_'
'мини_'
'яются_'
'ьем_'
'сотен_'
'честно_'
'там'
'сегменте_'
'ночи_'
'нном_'
'головой_'
'центром_'
'ставит_'
'заведения_'
'Второе_'
'обс'
'ветеранов_'
'егося_'
'дри'
'завис'
'дискуссии_'
'Большого_'
'мяса_'
'ждения_'
'банковской_'
'Цу'
'ОП_'
'Анти'
'Bra'
'еп'
'Кер'
'dd'
'сев'
'кораблей_'
'готовит_'
'обор'
'ек'
'Центрального_'
'Ленинградской_'
'нси'
'лаборатории_'
'Яс'
'Але'
'уби'
'ситуаций_'
'Сразу_'
'Сав'
'предприниматель_'
'нест'
'игра'
'циа'
'пс'
'нот'
'иностранцев_'
'альных_'
'ука'
'нист'
'любят_'
'Con'
'сосед'
'нм_'
'актов_'
'ук'
'пани'
'мно'
'изн'
'ард'
'недвижимость_'
'квалификации_'
'инфляция_'
'альянса_'
'предположительно_'
'ежедневно_'
'хе_'
'огромное_'
'награды_'
'Руд'
'ng'
'сь'
'свидетельствует_'
'прои'
'полицейский_'
'нян'
'sse'
'ps_'
'цит'
'советского_'
'просил_'
'негативно_'
'морских_'
'дее'
'ате'
'явля'
'рид'
'огромный_'
'знания_'
'еза'
'Кино'
' ! - _'
'ходатайство_'
'аа_'
'посетил_'
'площадку_'
'рабо'
'суд'
'Джон'
'уде'
'ном'
'высокого_'
'банковских_'
'цар'
'сет'
'прокуратуру_'
'прев'
'влен'
'хорошая_'
'мат'
'зят'
'зда'
'половину_'
'нена'
'Зав'
'Буд'
'совершить_'
'поддержива'
'ус'
'полицейского_'
'информационных_'
'четвертый_'
'Урал_'
'Дагестана_'
'рил'
'плат'
'Прежде_'
'стат'
'Ау_'
'скандал'
'бос'
'Другой_'
'mi'
'смотр'
'еве'
'Футбол_'
'. '
'яко'
'отдых_'
'отдельно_'
'дом'
'oc'
'J_'
'топливо_'
'районы_'
'here_'
'технику_'
'собственность_'
'популярность_'
'терактов_'
'личные_'
'бз'
'Эй'
'Дел'
'el'
'успе'
'came_'
'чук_'
'нег'
'данное_'
'выиграла_'
'последнем_'
'нац'
'епи'
'уж'
'сель'
'принимал_'
'европейские_'
'регулятор_'
'положении_'
'ене_'
'вш'
'возможное_'
'Непо'
'подозреваемый_'
'несет_'
'концов_'
'Руслан_'
'Рад'
'Дейр_'
'Ёр'
'есо'
'горно'
'ующих_'
'коллегами_'
'ску'
'комиссию_'
'дух_'
'аил'
'влияет_'
'сю'
'показ_'
'московском_'
'гли_'
'ste'
'ked_'
'чр'
'проду'
'tri'
'учений_'
'медики_'
'арт'
'36'
'Гас'
'тк'
'Так'
'Оре'
'ner_'
'U_'
'пожаров_'
'очер'
'отра'
'космической_'
'личный_'
'гов'
'аго'
'Программа_'
'Пара'
'уча'
'подчеркнули_'
'обид'
'веке_'
'Минздрава_'
'You_'
'серьезный_'
'партнерами_'
'зы'
'блок'
'another_'
'China_'
'170_'
'Важно_'
'bo'
'ума'
'пев'
'Ър'
'Асада_'
'хор'
'публично_'
'дворе_'
'Тат'
'чество_'
'любит_'
'39'
'трех'
'ест'
'низко'
'выда'
'Цена_'
'дыр'
'Издание_'
'Novinite_'
'корпуса_'
'Зу'
'Mi'
'квартала_'
'герой_'
'ути'
'сняли_'
'окажется_'
'ае_'
'Пассажир'
'яж'
'юст'
'белых_'
'Мя'
'перевозок_'
'мог'
'Подмосковья_'
'ьон'
'снял_'
'разве'
'Ма_'
'тяжести_'
'гас'
'рных_'
'повтор'
'каждая_'
'When_'
'форм_'
'снижению_'
'оы'
'обр'
'va'
'рассказывал_'
'наблюдал'
'Mu'
'сур'
'выпущен'
'1993_'
'подписан_'
'действующего_'
'границей_'
'сса'
'45'
'получа'
'медиа_'
'жр'
'Подо'
'форма_'
'представление_'
'стадион_'
'ноябр'
'бак_'
'тчо_'
'рие'
'нынешний_'
'гр_'
'Ст'
'Русской_'
'game_'
'сна'
'осадков_'
'обыски_'
'музее_'
'известные_'
'Мус'
'Дз'
'экс'
'схемы_'
'передачу_'
'Щр'
'хт'
'рс'
'кк'
'рах_'
'пак'
'pp'
'ary_'
'университет'
'стран'
'нин'
'ерно'
'Штаты_'
'максимум_'
'уровнем_'
'больных_'
'Месси_'
'ход'
'альные_'
'руками_'
'Влад'
'хам'
'проход'
'Григорий_'
'Большая_'
'ly'
'пв'
'ляет_'
'  '
'вред_'
'руководству_'
'альная_'
'кок'
'ические_'
'взаимодействие_'
'Пы'
'находилась_'
'Команда_'
'Street_'
'темпы_'
'сц'
'салоне_'
'природных_'
'ЦК_'
'Движение_'
'rec'
'сав'
'комплексов_'
'вызов_'
'sed_'
'част'
'мяча_'
'гол'
'гора'
'ах'
'тур'
'старт_'
'идо'
'аф'
'треб'
'инвест'
'еля'
'01'
'специальной_'
'обойдется_'
'началу_'
'Жан_'
'Баб'
'Астане_'
'public_'
'управля'
'подразделений_'
'ута'
'сцену_'
'задачей_'
'Евро_'
'структура_'
'объяснили_'
'бумаг_'
'Вооруженных_'
'поиск_'
'уплаты_'
'поста'
'дб'
'еп_'
'вей'
'Кузнецов_'
'улучшить_'
'кандидатом_'
'кофе_'
'УЕФА_'
'сул'
'появиться_'
'атом_'
'призыва'
'нд_'
'кв'
'воздухе_'
'ju'
'et'
'основная_'
'черн'
'июн'
'выражении_'
' ..._'
'цер'
'Ьр'
'Лр'
'Лей'
'og'
'яд_'
'торы_'
'защищать_'
'департамент_'
'стри'
'мощность_'
'вариантов_'
'Руководство_'
'times_'
'низкой_'
'оны_'
'министерстве_'
'кани'
'бран'
'уар'
'парт'
'неподалеку_'
'pat'
'специального_'
'рза'
'кредитования_'
'УП'
'Миро'
'туры_'
'сове'
'Ыр'
'ОАЭ_'
'use_'
'сбил_'
'погибшего_'
'нападающий_'
'административных_'
'Раньше_'
'Кс'
'ГИ'
'трат'
'поставку_'
'политолог_'
'гражданами_'
'ограничить_'
'деревьев_'
'дент'
'выст'
'эффективно_'
'статусе_'
'алкоголь_'
'региональном_'
'лежит_'
'пары_'
'немедленно_'
'клиента_'
'всея_'
'подарок_'
'оказывать_'
'обвиняемого_'
'его'
'... _'
'художник_'
'фт'
'ces_'
'боле_'
'заработать_'
'cha'
' ( ) _'
'ограничение_'
'Египта_'
'43'
'чен_'
'формат_'
'смысла_'
'гов_'
'Ям'
'us'
'супруги_'
'сельхоз'
'мс'
'молод'
'парламент'
'нев'
'мост'
'лод'
'Другие_'
'ka_'
'тарифы_'
'долж'
'Клим'
'Главного_'
'Вир'
'ied_'
'быстро'
'Вес'
'сквер'
'поколение_'
' ( +_'
'тами_'
'любое_'
'away_'
'рст'
'завал'
'Фильм_'
'слов'
'РС'
'Man'
'шения_'
'тно_'
'онс'
'вери'
'Бельгии_'
'Ko'
'ерб'
'дем'
'Рр'
'пм'
'сайтов_'
'оде_'
'WSJ_'
'Sport_'
'G20_'
'тав'
'росте_'
'нести_'
'земельных_'
'сроков_'
'банку_'
'дип'
'нис'
'Ел'
'Cam'
'релизе_'
'ирование_'
'ver'
'являлся_'
'добав'
'Про'
'lly_'
'товар_'
'исте'
'владельцы_'
'страховых_'
'составлял_'
'ела'
'вст'
'фактор_'
'сделает_'
'ресурс_'
'распространения_'
'полную_'
'мь'
'иста_'
'Скорее_'
'bar'
' ... '
'эм'
'рисков_'
'кредиторов_'
'бывшим_'
'ъс'
'набережной_'
'бокс'
'Новгорода_'
'Васильев'
'условии_'
'рса'
'12'
'ходит_'
'подобное_'
'отставки_'
'захват'
'вызвать_'
'обязанностей_'
'небольшие_'
'Афганистане_'
'Оказалось_'
'Генеральный_'
'ссо'
'отд'
'ведущий_'
'филь'
'ро'
'нео'
'судьба_'
'совещания_'
'Рак'
'руют_'
'нера'
'Франсуа_'
'хр'
'пат'
'Шах'
'собственн'
'минимума_'
'иею_'
'палате_'
'мосту_'
'мож'
'Де_'
'сериала_'
'масло_'
'лк'
'вин_'
'Чечне_'
'Рекс_'
'Mon'
'ез_'
'утвердил_'
'гин_'
'ig'
'представлен_'
'выразили_'
'бук'
'top_'
'стиле_'
'пределы_'
'приме'
'возглавляет_'
'Росси'
'ab'
'Вам_'
'юрист_'
'уди'
'ира'
'Вид'
'Samsung_'
'28'
'Барселоны_'
'налоговых_'
'действующих_'
'нормально_'
'меняется_'
'имея_'
'вшейся_'
'берг_'
'номинации_'
'компенсацию_'
'поезд'
'живо'
'Manchester_'
'нди'
'использует_'
'цвет_'
'таблице_'
'происхождения_'
'Ала'
'щими_'
'родной_'
'отечественных_'
'заключенных_'
'ёл'
'стал'
'Сте'
'went_'
'черный_'
'рат'
'прочего_'
'os_'
'тле'
'обещает_'
'использовании_'
'days_'
'Тс'
'Ираке_'
'1970_'
'уша'
'лоп'
'иту'
'сцены_'
'реали'
'опытом_'
'enti'
'ФСИН_'
'перелом'
'парламентских_'
'еы_'
'гра'
'less_'
'сход'
'вины_'
'Самое_'
'рб'
'проживания_'
'ли'
'бя'
'МВФ_'
'Джан'
'тщательно_'
'стороной_'
'рейсы_'
'лиши'
'инга_'
'собственно_'
'пдо'
'кладбище_'
'The'
'столкнулись_'
'партнера_'
'договоров_'
'Коб'
'season_'
'ric'
'тко'
'помогать_'
'оцен'
'Лай'
'Ура'
'Наст'
'Ms_'
'рге'
'эпи'
'объемов_'
'ad'
'тет'
'позволило_'
'приобретение_'
'вн'
'Зал'
'oo'
'юще'
'транс'
'нах_'
'Уж'
'47'
'Федеральное_'
'Коз'
'щения_'
'сохранения_'
'регулярного_'
'пакета_'
'мирных_'
'ster_'
'фаз'
'телеканалу_'
'состояться_'
'СП'
'Меж'
'Грин'
'вдоль_'
'Аг'
'тра_'
'помещение_'
'dia'
'хк'
'нш'
'выезде_'
'вои'
'Ru'
'торов_'
'снижен'
'реализация_'
'гола_'
'беседы_'
'леп'
'Эли'
'Пл'
'les_'
'уан'
'сумел_'
'оператор_'
'ихся_'
'занятия_'
'ано'
'Швейцарии_'
'Фор'
'ug'
'Fo'
'узнал_'
'крат'
'Никит'
'щн'
'приходит_'
'Юд'
'io'
'ровн'
'действительности_'
'вме'
'вде'
'Пат'
'Надеюсь_'
'Press_'
'шка_'
'хит'
'технической_'
'сот_'
'куп'
'колен'
'даты_'
'встретиться_'
'Екатеринбурга_'
'продукция_'
'оста'
'евич_'
'зал'
'гно'
'ОП'
'ur_'
'увеличился_'
'сит'
'порт'
'ители_'
'ep'
'Ali'
'соперников_'
'матери'
'Тл'
'ьб'
'достаточно'
'Не'
'позволить_'
'ков'
'илось_'
'ивает_'
'Киеву_'
'Всемирного_'
'ющими_'
'работ'
'пог'
'бек_'
'тая_'
'саммите_'
'Брюсселе_'
'half_'
'Ази'
'we'
'физической_'
'установлена_'
'соп'
'признаки_'
'мот'
'мессенджер'
'жалоб_'
'caption'
'рл'
'кл'
'dep'
'тие_'
'стра_'
'сек'
'поб'
'еь'
'естественно_'
'достигла_'
'Шт'
'Вел'
'стабильности_'
'получ'
'легче_'
'ическая_'
'есн'
'возбудили_'
'Моя_'
'долл_'
'гос_'
'Мура'
'ввел_'
'сия_'
'дение_'
'ip'
'соответствующий_'
'представили_'
'иво'
'Начал'
'повод_'
'объявлено_'
'нском_'
'иал'
'вра'
'Ср'
'передали_'
'знакомый_'
'дре'
'внес_'
'Насколько_'
'пора'
'але'
'МИ'
'Pu'
'отд_'
'дела'
'Cu'
'угроз_'
'называли_'
'заявило_'
'доск'
'дже'
'щем_'
'тренером_'
'ног'
'дино'
'выведен'
'Бес'
'сит_'
'пита'
'ощущение_'
'нынешней_'
'жит'
'диа'
'Полицейские_'
'пенальти_'
'обещают_'
'Кла'
'ох'
'мов'
'вшую_'
'рассказать_'
'ору_'
'94_'
'Сур'
'увеличилась_'
'пп'
'перд'
'йки_'
'ri'
'сделка_'
'Коло'
'собственный_'
'пенсионеров_'
'нг'
'индустрии_'
'аэродром'
'On_'
'Ni'
'зерна_'
'Восток_'
'усилить_'
'zz'
'рги'
'возникли_'
'Николаев'
'сильные_'
'род'
'закон'
'дир'
'Польша_'
'pu'
'mb'
'утрат'
'жать_'
'писатель_'
'ися_'
'заняться_'
'вол'
'взо'
'администрацию_'
'Стра'
'Иногда_'
'ыг'
'шан'
'участника_'
'защитника_'
'ыть_'
'слабо'
'исп'
'ввели_'
'ТР'
'ny_'
'январ'
'прово'
'Много'
'An'
'явление_'
'сбо'
'женой_'
'бил_'
'единый_'
'дверь_'
'сложнее_'
'отлично_'
'желании_'
'грузов_'
'вертолета_'
'аси'
'хат'
'отправился_'
'Юс'
'Ов'
'Иде'
'We'
'ър'
'пес'
'остров'
'иску_'
'численность_'
'старшего_'
'нам'
'ФАКТАМ_'
'цени'
'оц'
'жь'
'впереди_'
'балла_'
'Баш'
'рове'
'пл_'
'лицами_'
'этаже_'
'спортсмен_'
'свето'
'ома_'
'иками_'
'дату_'
'ведутся_'
'трон'
'согласия_'
'онную_'
'метр'
'бизнесу_'
'ап'
'Кв'
'cor'
'народный_'
'которы_'
'семьей_'
'49'
'тни'
'свидетелей_'
'попытку_'
'независимость_'
'легкой_'
'главные_'
'Конституции_'
'представлять_'
'основного_'
'сдать_'
'бюджету_'
'cri'
'обеспечению_'
'вызвала_'
'ef'
'Sunday_'
'идеал'
'елк'
'Сн'
'jo'
'странам_'
'рака_'
'приговора_'
'мз'
'зме'
'Перес'
'частей_'
'тысячу_'
'зов_'
'запас'
'Росстата_'
'материала_'
'заняли_'
'проведена_'
'мым_'
'фри'
'рд'
'прошлый_'
'Her'
'уще'
'состоятся_'
'поднять_'
'Пас'
'105_'
'ыха'
'неко'
'Обе'
'52'
'неплохо_'
'набор_'
'беж'
'ческим_'
'уля'
'убива'
'тка_'
'ns'
'политическим_'
'объемом_'
'классически'
'кит'
'ПС'
'Матильда_'
'Казань_'
'стно'
'сведениям_'
'лес_'
'кт'
'дан'
'ГА'
'ze'
'милли'
'поа'
'обле'
'ПО_'
'ever_'
'En'
'схеме_'
'рх'
'переговор'
'домо'
'дко'
'Бек'
'ran'
'главка_'
'верить_'
'аю_'
'шр'
'чества_'
'Долго'
'young_'
'финансовый_'
'Про_'
'травму_'
'ei'
'предпринимател'
'мотоцикл'
'кут'
'оват'
'держать_'
' ( $ _'
'хон'
'елев'
'тепла_'
'кти'
'ыли_'
'счете_'
'ожидать_'
'бан'
'Там'
'жизне'
'Над_'
'КоАП_'
'Ti'
'сирийского_'
'руководителем_'
'обратить_'
'ельной_'
'девелопер'
'Сергею_'
'РО'
'песню_'
'летию_'
'So_'
'усилий_'
'управ'
'бул'
'сентябр'
'поездов_'
'воль'
'Инди'
'2022_'
'остав'
'одежду_'
'куратор'
'моего_'
'групп'
'Зс'
'Зд'
'щает_'
'разгром'
'эд'
'фра'
'силе_'
'орт'
'надеюсь_'
'мясо_'
'Мой_'
've'
'участках_'
'емн'
'Италия_'
'Аль'
'пан'
'обу'
'график_'
'местным_'
'Ёс'
'gen'
'eo'
'расширить_'
'льготы_'
'заметили_'
'выд'
'Сей'
'хоз'
'рова_'
'Общественной_'
'украинским_'
'МА'
'Боб'
'хн'
'подготовить_'
'нападении_'
'клиентам_'
'бригады_'
'ьг'
'наблюдения_'
'шее_'
'продлить_'
'ьше_'
'пода'
'периодом_'
'ув_'
'полетов_'
'коммуникаций_'
'Януковича_'
'юри'
'оан'
'ийся_'
'раны_'
'лик'
'Ливии_'
'штрафов_'
'tin'
'тае'
'карто'
'запрещенной_'
'Boeing_'
'выбирать_'
'производитель_'
'врезался_'
'Юнайтед_'
'Южная_'
'Нур'
'оттуда_'
'заключении_'
'дю'
'nk'
'hu'
'сро'
'ждение_'
'длю_'
'Изначально_'
'частн'
'отме'
'европейского_'
'свеже'
'концепции_'
'героя_'
'важные_'
'або'
'Март'
'support_'
'содержится_'
'ито'
'аудитории_'
'Сай'
'собрал_'
'рейс_'
'ню'
'наряд'
'62'
'фак'
'ула_'
'победить_'
'зач_'
'Полу'
'темно'
'сообщество_'
'выручка_'
'Рс'
'Пит'
'МИ_'
'ying_'
'чен'
'необ'
'дорога_'
'Собеседник_'
'40'
'пока'
'обвинению_'
'неизвестные_'
'бус'
'Цс'
'родственники_'
'полях_'
'выве'
'Зл'
'Sy'
'лети'
'аква'
'sit'
'Washington_'
'рю'
'ошибок_'
'нет'
'иен'
'вырастет_'
'Цз'
'ring_'
'юи_'
'убит_'
'после'
'ивал'
'цки'
'ник'
'шься_'
'обращаться_'
'Игра_'
'круп'
'госпитализированы_'
'ian_'
'der'
'скором_'
'ован_'
'енд'
'высказался_'
'СН'
'нор'
'ян'
'уровню_'
'стел'
'подчеркивает_'
'XX_'
'159_'
'ень'
'вг'
'били_'
'Тю'
'ie_'
'произведения_'
'ип_'
'елем_'
'дна_'
'ori'
'ерны'
'смену_'
'организм_'
'внутреннего_'
'Ие'
'приказ_'
'ерт'
'taken_'
'ine'
'юз'
'погоды_'
'нить_'
'йко'
'зара'
'водители_'
'бойцов_'
'Понятно_'
'ris'
'As_'
'яц'
'рак'
'пациента_'
'Нас'
'мут'
'ФИ'
'Вскоре_'
'ровно_'
'говор'
'чин'
'Режиссер_'
'принцип_'
'получал_'
'поездок_'
'веро'
'ФЗ_'
'ye'
'eg'
'рынков_'
'реальные_'
'пострадавшим_'
'лии_'
'лект'
'имеющих_'
'заи'
'провод'
'освобождения_'
'ker_'
'цей_'
'икон'
'чную_'
'вм'
'арс'
'Хиллари_'
'хд'
'фм'
'счастью_'
'стрельбу_'
'старых_'
'реализ'
'пора_'
'поме'
'иностранным_'
'зака'
'АУ_'
'угодно_'
'морского_'
'Локомотива_'
'фу'
'уши'
'тх'
'нашла_'
'клубы_'
'голос'
'внимательно_'
'бега'
'удары_'
'каж'
'заде'
'редактор_'
'мировом_'
'Ценности_'
'природы_'
'особ'
'нат'
'инстанции_'
'гур'
'сохранение_'
'сотрудничать_'
'Минобрнауки_'
'рок'
'велосипед'
'бывшему_'
'Перми_'
'Ден'
'Стар'
'шт_'
'тон'
'крас'
'контрактов_'
'дне'
'дву'
'шал'
'окн'
'деп'
'Шест'
'зра'
'уга'
'ола_'
'общественный_'
'доллар_'
'Кана'
'air_'
'четверть_'
'нл'
'Сама_'
'рейд'
'орон'
'имн'
'Нижне'
'присутствие_'
'объясни'
'власт'
'Бала'
'ro_'
'унов_'
'проводили_'
'запустить_'
'торгового_'
'призвали_'
'ленно'
'Роберт_'
'Лас_'
'мног'
'вашей_'
'Час'
'Renault_'
'приходят_'
'денежные_'
'блик'
'женно'
'вре'
'@_'
'Bi'
' , . _'
'лил'
'етесь_'
'слухи_'
'бора'
'Бер'
'Без'
'любим'
'лис'
'МК'
'мб'
'магазины_'
'Испания_'
'wo'
'цкого_'
'дис'
'app'
'следственного_'
'Марин'
'big_'
'твенно'
'Tor'
'хар'
'исполнительной_'
'установил_'
'демократи'
'говорилось_'
'восстановлен'
'Интерфаксу_'
'рам_'
'разговоре_'
'креп'
'Одновременно_'
'носил'
'модернизации_'
'ельный_'
'ИГИЛ_'
'опьянения_'
'кае'
'запланировано_'
'Управления_'
'Гн'
'сг'
'пек'
'нтер'
'Рос_'
'" '
'новость_'
'доставля'
'британской_'
'Узбекистан_'
'Nissan_'
'перев'
'кан'
'еду_'
'Par'
'сона_'
'прочих_'
'кредитам_'
'бить_'
'пешеходов_'
'зр'
'Гл'
'необходим_'
'рный_'
'анг'
'Минэнерго_'
'ыт_'
'лев'
'ира_'
'артиста_'
'Сред'
'Euro'
'положительно_'
'площадка_'
'неи'
'зд'
'FT_'
'арт_'
'Ex'
'Рок'
'ящий_'
'изъяли_'
'ay_'
'футболиста_'
'уголовн'
'сыро'
'рак_'
'плит'
'логик'
'гул'
'индивидуально'
'Работа_'
'яла_'
'расширение_'
'освободить_'
'крупным_'
'Нем'
'sk'
'ьц'
'находящихся_'
'китайских_'
'везде_'
'родину_'
'персонала_'
'Вд'
'Forbes_'
'ув'
'согласны_'
'реакции_'
'одержал_'
'лены_'
'иру'
'ягод'
'щр'
'уе_'
'ребенку_'
'политическую_'
'инте'
'еха'
'pay_'
'Bank_'
'эксперт'
'проблемами_'
'льн'
'Рот'
'Результаты_'
'Лап'
'носить_'
'духов'
'Нор'
'Коро'
'Дональдом_'
'проблемах_'
'знаком_'
'Центробанк_'
'ожида'
'договориться_'
'доверие_'
'Нан'
'Тен'
'Реал_'
'Ль'
'труд_'
'рынку_'
'обзор'
'ими'
'высокая_'
'Наконец_'
'Вос'
'night_'
'займет_'
'Количество_'
'gg'
'рма'
'пал'
'Аф'
'ss'
'Pe'
'иев_'
'арене_'
'Савченко_'
'запрос'
'жм'
'длят_'
'Тамбов'
'обман'
'ницы_'
'гори'
'атор_'
'называть_'
'ада_'
'пад'
'измен'
'особенности_'
'лез'
'зит'
'баррелей_'
'банках_'
'Мексики_'
'change_'
'созданы_'
'действиями_'
'доктор_'
'Людмила_'
'цл'
'Одно_'
'ьск'
'немецкого_'
'ивший_'
'МТС_'
'ходят_'
'полноценно'
'пойдут_'
'методы_'
'РФС_'
'ода'
'вспомнить_'
'zr_'
'атк'
'спорт'
'рудник'
'етс_'
'век'
'rd'
'элементы_'
'условиям_'
'кул'
'вые'
'Вторая_'
'Бир'
'октябр'
'Марии_'
'трем_'
'растут_'
'появляются_'
'нуждается_'
'закупок_'
'Барселоне_'
'основан'
'арн'
'попа'
'пенсий_'
'терр'
'московской_'
'соблюдать_'
'привела_'
'бизнесе_'
'аева_'
'leader_'
'вить_'
'Эко'
'Пхенчхане_'
'Леонида_'
'сферах_'
'сут'
'стандарт'
'коми'
'ебн'
'President_'
'икам_'
'tro'
'сен_'
'мп'
'зел'
'ждали_'
'баланс_'
'хорошее_'
'мон'
'медицины_'
'Сон'
'управляющий_'
'собственников_'
'опыт'
'надзора_'
'льд'
'каждую_'
'детства_'
'Причина_'
'словно_'
'Челси_'
'Уд'
'ВД_'
'For'
'ующий_'
'тех'
'отмети'
'образовании_'
'контакты_'
'Лат'
'wn_'
'китайской_'
'интереса_'
'идей_'
'возраст'
'Год'
'соблюда'
'подтверждает_'
'аро'
'Укра'
'Плюс_'
'Кей'
'пл'
'Fe'
'церковь_'
'уса'
'счетов_'
'сотрудничеству_'
'рит'
'отчет_'
'отеля_'
'оспарива'
'лее_'
'довери'
'lea'
'эконом'
'участию_'
'убор'
'самоуправления_'
'рк'
'заявл'
'Токио_'
'Рэ'
'официальные_'
'лос'
'амбици'
'взлома'
'Нес'
'совершили_'
'конструкции_'
'собеседника_'
'расположен_'
'проче'
'мес'
'литературы_'
'лед_'
'гива'
'встретится_'
'Виктория_'
'считаем_'
'лак'
'заа'
'противника_'
'важное_'
'юмор'
'случая_'
'попада'
'пар_'
'горда_'
'Кад'
'ow'
'For_'
'чувство_'
'угл'
'тяжелой_'
'отдал_'
'местом_'
'группировка_'
'СИ'
'утр'
'предпринимателя_'
'направили_'
'категорически_'
'занимают_'
'яви'
'состав'
'приватизации_'
'очных_'
'игроком_'
'ебо'
'железной_'
'Американские_'
'тса'
'специ'
'кото'
'сст'
'рег'
'развивается_'
'образовательных_'
'искусств_'
'причину_'
'през'
'нули_'
'инф'
'Фил'
'каза'
'говорю_'
'войти_'
'Тал'
'Жв'
'Год_'
'мися_'
'жей_'
'всо'
'RA'
'сокраща'
'рыбы_'
'пожалуй_'
'еф'
'дуя_'
'дне_'
'тюрьме_'
'став_'
'прин'
'архив'
'ca'
'шек_'
'тво'
'обсуждали_'
'мото'
'бот'
'Ответ'
'Основной_'
'Лун'
'Hyundai_'
'советника_'
'нем'
'посл_'
'перео'
'используются_'
'пробу'
'пб'
'звезда_'
'Кирилла_'
'предоставлении_'
'предметов_'
'изв'
'Обл'
'стны'
'Ын'
'50'
'сыграли_'
'объяв'
'нашими_'
'маршрут_'
'книга_'
'инвалид'
'Никола'
'указывают_'
'структуру_'
'закрытия_'
'money_'
'city_'
'хозяйств'
'следующие_'
'рв'
'обед'
'государственным_'
'ач'
'сильн'
'проиграл_'
'линия_'
'Хэ'
'стоя'
'прове'
'клиенты_'
'ином_'
'возвращение_'
'боеприпасов_'
'Безопасности_'
'проведению_'
'льным_'
'внесли_'
'поте'
'ключевой_'
'инструмент_'
'знаком'
'городом_'
'безо'
'На'
'Mc'
'поле'
'ельных_'
'группового_'
'финиш'
'зависеть_'
'ПА'
'Ды'
'послом_'
'образ'
'корм'
'деньгами_'
'Дра'
'sn'
'fic'
'ant_'
'помог_'
'ич'
'выра'
'lot_'
'призвала_'
'возможностью_'
'Роспотребнадзор_'
'Две_'
'six_'
'прд'
'мле'
'ика'
'двига'
'особое_'
'контракты_'
'сво_'
'вы'
'Кино_'
'перс'
'патриот'
'жим'
'вспоминает_'
'столичных_'
'выл'
'ПР'
'Западной_'
'утвержда'
'самую_'
'признала_'
'временной_'
'Информация_'
'Барака_'
'гонке_'
'визит'
'ваши_'
'Ye'
'снизился_'
'ряд'
'однажды_'
'лево'
'Fu'
'44'
'включены_'
'Tra'
'чное_'
'полное_'
'йн'
'врем_'
'Улюкаева_'
' ! " - _'
'заряд'
'сни'
'Нал'
'Молод'
'Кала'
'террористы_'
'тас'
'пч'
'полковник_'
'Дети_'
'seen_'
'оку'
'договор'
'Пр_'
'маневр'
'ея'
'Ван'
'размещение_'
'замк'
'высокую_'
'алось_'
'Член_'
'цо_'
'еты_'
'енк'
'бл'
'уэ'
'столкнулся_'
'расстрел'
'подп'
'йы_'
'ot'
'every_'
'ele'
'шина_'
'прекращении_'
'отпуск_'
'дь'
'дева'
'Нр'
'реальной_'
'итр'
'Лес'
'рул'
'преступн'
'обмен'
'кя'
'Египет_'
'предметы_'
'молока_'
'МИДа_'
'Кот'
'сел'
'арестом_'
'потребовали_'
'лови'
'заявив_'
'есто'
'дуля_'
'популярности_'
'выделено_'
'Краснодар_'
'проси'
'ивают_'
'студенты_'
'слез'
'коб'
'годе_'
'Новгород_'
'МКС_'
'МГ'
'шести'
'технические_'
'пришл'
'покупа'
'мобильных_'
'Км'
'ut_'
'чани'
'указа_'
'попытались_'
'йских_'
'аресте_'
'Кк'
'ho'
'разрешить_'
'кок_'
'Казахстан_'
'if'
'церемония_'
'мес_'
'зате'
'собак_'
'преп'
'аци'
'яхт'
'хм'
'уг'
'уборк'
'невы'
'Петр'
'ya_'
'ык'
'турецких_'
'рог'
'chi'
'Lada_'
'37'
'эл'
'финансово_'
'велико'
'Кит'
'Audi_'
'разница_'
'нико'
'больш'
'авт'
'умн'
'договоренностей_'
'air'
'характер'
'урс'
'уна_'
'торговые_'
'сенатора_'
'рор'
'Лас'
'ВИ'
'might_'
'рае'
'гром'
'Усть_'
'шл'
'пассажира_'
'опроверг_'
'которою_'
'Сумма_'
'Гай'
'хин_'
'сырья_'
'поду'
'останутся_'
'ион'
'выступит_'
'арм'
'Первым_'
'Летом_'
'Ава'
'цу'
'корпус_'
'альтернатив'
'Черно'
'Са'
'ud'
'ings_'
'als_'
'точек_'
'коммерческих_'
'гни'
'Яд'
'Ся'
'san'
'соответствующих_'
'Строй'
'Сот'
'АОН_'
'стимул'
'нау'
'внесен'
'телефона_'
'стик'
'производителя_'
'равны'
'побережье_'
'нормальны'
'готовят_'
'частот'
'частного_'
'тву_'
'проблеме_'
'московскому_'
'кы'
'ельные_'
'баб'
'Румынии_'
'Александром_'
'tre'
'снимать_'
'мотр'
'ьств'
'фир'
'пассажиры_'
'направила_'
'лан'
'СП_'
'оплату_'
'зить_'
'зарегистрировано_'
'явил_'
'рубеж_'
'оги'
'итог_'
'Рв'
'ПДД_'
'cla'
'содержит_'
'разв'
'нрав'
'йше'
'жилой_'
'возник_'
'тый_'
'стен_'
'непросто_'
'называ'
'классе_'
'формат'
'учиться_'
'рсо'
'магазине_'
'клу'
'жс'
'едл'
'арен'
'Пхеньян_'
'подписей_'
'ором_'
'огнем_'
'назначение_'
'дов'
'Шк'
'Валь'
'фк'
'Португалии_'
'Заб'
'South_'
'кд'
'Сев'
'Джу'
'ou'
'210'
'сова'
'нец_'
'возникла_'
'амп'
'fu'
'чит'
'ров'
'диет'
'Принят'
'Поло'
'ракета_'
'пои'
'Сед'
'Ост'
'Лим'
'ули_'
'гово'
'гигант'
'виа'
'Нового_'
'Компании_'
'футболисты_'
'правах_'
'какими_'
'эпизод'
'чел'
'пох'
'ld'
'президентов_'
'контрол'
'кир'
'банковского_'
'Стал'
'Руб'
'строя_'
'рд_'
'разряд'
'управлению_'
'серия_'
'остров_'
'губернаторов_'
'возникают_'
'арестовали_'
'очной_'
'йл'
'прогноз'
'овод'
'рво'
'мос'
'Ростова_'
'Жд'
'предложен'
'вертолет'
'Siemens_'
'курорт'
'Татарстане_'
'Бах'
'чл'
'план'
'детские_'
'гарантии_'
'Fox_'
'строго_'
'президент'
'щл'
'рив'
'пунктах_'
'СПГ_'
'il'
'фс'
'спу'
'ниш'
'внешн'
'бесс'
'far_'
'ens'
'юп'
'нача'
'запретили_'
'Эм'
'столичном_'
'организациями_'
'кубометров_'
'вернулись_'
'цифровой_'
'университете_'
'нефте'
'нарко'
'быт'
'писател'
'нина_'
'нени'
'космических_'
'код_'
'ительн'
'бывшей_'
'автор'
'Хали'
'ух'
'спикера_'
'профессии_'
'оссии_'
'Воро'
'протокол_'
'нни'
'Лондон_'
'учет_'
'сильного_'
'потенциальных_'
'нй'
'него'
'ао_'
'активе_'
'Цв'
'вко'
'Цвет'
'ока_'
'ндо'
'искусство_'
'высоко_'
'Спец'
'РТ_'
'Посл'
'Берез'
'третьих_'
'контролю_'
'Интересно_'
'lic'
'силой_'
'ента_'
'груз'
'Уз'
'Дав'
'across_'
'War'
'Gar'
'51'
'хс'
'изи'
'воздействия_'
'аналогичным_'
'Бесп'
'didn_'
'Sha'
'фест'
'признаны_'
'обслуживание_'
'виде'
'Пентагона_'
'Орешкин_'
'ыта'
'льное_'
'комментируя_'
'исследовании_'
'асти'
'аппарат'
'ВА'
'творчества_'
'общаться_'
'конкретные_'
'кои'
'est'
'ящи'
'оставили_'
'обвиняется_'
'массовые_'
'sts_'
'специалиста_'
'полу_'
'жительница_'
'добычу_'
'аудио'
'Гул'
'ya'
'субсидии_'
'отстав'
'обвинений_'
'ую'
'туалет'
'трек'
'матер'
'Готов'
'tic_'
'безопасно'
'bb'
'удивил'
'слу'
'пош'
'доставлен_'
'внешне'
'Се_'
'Нико'
'тать_'
'россиянам_'
'предста'
'планирова'
'нч'
'законодательством_'
'зада'
'анова_'
'rr'
'ple'
'представ'
'лежа'
'выставлен'
'хватило_'
'потока_'
'потеряли_'
'ПАСЕ_'
'ществ'
'тип'
'рп'
'культ'
'коо'
'избирательных_'
'ыто'
'подходит_'
'органи'
'лок_'
'вшаяся_'
'вост'
'Вв'
'точн'
'тона_'
'рассчитывают_'
'ига'
'Полит'
'Лан'
'продлится_'
'очевидцев_'
'изделия_'
'МС'
'za'
'per_'
'признании_'
'икр'
'зам'
'ГТ'
'выход'
'явши'
'дств'
'действующий_'
'внесены_'
'added_'
'степень_'
'Надежда_'
'Бил'
'car_'
'пото'
'молодым_'
'климата_'
'ивн'
'Аш'
'social_'
'умно'
'кварт'
'Чл'
'хотела_'
'прог'
'вируса_'
'болельщики_'
'арк'
'Per'
'усти'
'реч'
'причин'
'признание_'
'олигарх'
'обна'
'туристы_'
'поверхности_'
'мость_'
'ВМФ_'
'паро'
'занял'
'деревне_'
'Одессе_'
'Зор'
'Journal_'
'тил_'
'поблагодарил_'
'конкурентов_'
'исполнительный_'
'занятости_'
'добавив_'
'Еже'
'Ya'
'Ser'
'поединок_'
'победителем_'
'емого_'
'Абд'
'сообщению_'
'расследованию_'
'дорогой_'
'существования_'
'орга'
'иже_'
'гвардии_'
'крыт'
'катастроф'
'енн'
'долей_'
'возможностями_'
'арны'
'Проблема_'
'тви'
'катани'
'выгод'
'мест'
'атур'
'ами'
'Сва'
'Виталия_'
'nge'
'переста'
'оин'
'мэ'
'двигателя_'
'Чер'
'Ольг'
'нос_'
'бря_'
'Республика_'
'учебных_'
'посещения_'
'кю'
'коллектив'
'ды'
'Кузнецова_'
'\u_'
'15'
'урегулированию_'
'странны'
'санкци'
'кабин'
'рц'
'непре'
'ложно'
'овно'
'взносов_'
'апа'
'Том'
'high_'
'широко_'
'тепло_'
'счи'
'определения_'
'немецкой_'
'бизнесом_'
'тли'
'продукта_'
'вернется_'
'ТО'
'дому_'
'Ил'
'уло'
'рми'
'енц'
'вени'
'rea'
'феврал'
'отв'
'КП'
'Global_'
'совершен'
'тч'
'списки_'
'лем'
'ково'
'дорожной_'
'Эль'
'1960_'
'химического_'
'опу'
'Управление_'
'Русский_'
'Романа_'
'троих_'
'спор_'
'вот'
'анд'
'аналогичный_'
'Пром'
'Ах'
'ate'
'распространение_'
'оби'
'ида'
'высоком_'
'body_'
'Open_'
'Ad'
'отн'
'мур'
'полномочиями_'
'площадках_'
'ждан'
'ходом_'
'Наверное_'
'фирма_'
'применять_'
'прел'
'оценивают_'
'отказ'
'курсе_'
'тельного_'
'зация_'
'Челябинской_'
'Армении_'
'отб'
'заро'
'ощ'
'Син'
'четвертьфинал'
'прс'
'оборота_'
'лз'
'врем'
'local_'
'том'
'тек'
'прото'
'отдельн'
'ечно'
'декларации_'
'Фри'
'Фр'
'Поле'
'Гс'
'това_'
'осуществлять_'
'Диа'
'овс'
'наград_'
'камер_'
'золото'
'вор_'
'Али'
'прие'
'норма_'
'мит'
'енном_'
'вправе_'
'аудитор'
'Тере'
'head_'
'приложение_'
'овки_'
'лие'
'есл'
'газон'
'450_'
'хорошей_'
'оценивал'
'оу_'
'нарушен'
'нанесли_'
'девушек_'
'Роман'
'Доля_'
'Em'
'моему_'
'Обычно_'
'простой_'
'помогли_'
'будущих_'
'Дела'
'уме'
'ранены_'
'коллектив_'
'весом_'
'Ильи_'
'ьства_'
'очи'
'вет_'
'бун'
'Нижний_'
'Интер'
'Аст'
'38'
'предприятии_'
'обход'
'верны'
'Лл'
'Cor'
'hin'
'формирование_'
'тали'
'опс'
'нужно'
'наде'
'любо'
'stre'
'применением_'
'оят'
'крупной_'
'звен'
'воспитыва'
'аналогично'
'программ'
'недовольство_'
'эле'
'меди'
'импорт_'
'Армавир'
'сервер'
'рте'
'ойн'
'дил'
'гер'
'Ран'
'ОТК_'
'ЛЕ'
'cap'
'воздушных_'
'согласи'
'перенести_'
'люби'
'городские_'
'мас'
'Пик'
'Норвегии_'
'миллионы_'
'бэ'
'deal_'
'торг'
'приложения_'
'отечественного_'
'заво'
'автоматически_'
'цс'
'рами_'
'прок'
'нча'
'надеются_'
'енными_'
'благо_'
'Клин'
'ing'
'сторонники_'
'словом_'
'деб'
'данн'
'гл'
'укрепление_'
'олен'
'консультант'
'Добавим_'
'US'
'Сове'
'французского_'
'АМ'
'ъем'
'произойти_'
'либерал'
'каб_'
'стоп'
'свет'
'мт'
'иле'
'заработной_'
'женщине_'
'дек'
'сотр'
'быт_'
'Романов'
'партнером_'
'наа'
'ездить_'
'Дев'
'ческом_'
'совершено_'
'гей_'
'План'
'справиться_'
'ког'
'дер_'
'ват'
'European_'
'угрожает_'
'спортсмена_'
'рж'
'прием'
'посольство_'
'пикет'
'остр'
'научной_'
'возможного_'
'близкие_'
'экстремизм'
'разл'
'жб'
'боевые_'
'художников_'
'рной_'
'проходила_'
'оци'
'конституции_'
'исключить_'
'интеграции_'
'задержива'
'Пин'
'Вечером_'
'fer'
'корпорация_'
'Сеул'
'months_'
'стоить_'
'сово'
'рен'
'разб'
'вынос'
'цев'
'поиска_'
'печ'
'нанес_'
'сде'
'отл_'
'купил_'
'инцидент'
'заказчик'
'выпустил_'
'Чж'
'Северный_'
'Дома_'
'que'
'промышленной_'
'показателя_'
'пере'
'Московском_'
'Кил'
'Белоруссия_'
'холодной_'
'уя'
'тее'
'стратегию_'
'Московская_'
'Вячеслава_'
'Wi'
'перевод'
'нераз'
'музыка_'
'Фре'
'Гла'
'Врачи_'
'% _'
'пуск_'
'нская_'
'зеркал'
'АК'
'gh_'
'спр'
'нут'
'вышло_'
'Юго_'
'электронные_'
'проме'
'поручение_'
'мем'
'Аэро'
'улучшения_'
'обозначен'
'нит'
'мую_'
'мато'
'используя_'
'автоп'
'Крест'
'Данные_'
'having_'
'тые_'
'рассмотрит_'
'малых_'
'лома'
'Роспотребнадзора_'
'Западе_'
'сыр'
'сомнения_'
'придет_'
'обращений_'
'еон'
'автобусов_'
'arm'
'продолжение_'
'переходе_'
'але_'
'экономи'
'чере'
'спро'
'Вор'
'RE'
'традици'
'конц'
'коллекцию_'
'действиям_'
'гени'
'Звезда_'
'Гр'
'резерв'
'зале'
'Жен'
'упаковк'
'персон'
'гад'
'раду'
'нал'
'массов'
'вис'
'бов'
'ьном_'
'структуре_'
'Нав'
'qua'
'обраща'
'вир'
'Мини'
'Ближнем_'
'научный_'
'куч'
'достигли_'
'Зачем_'
'щад'
'болезнь_'
'Шв'
'Уголовное_'
'уничтожен'
'развод'
'полугодии_'
'ласт'
'здоров'
'чувства_'
'полученные_'
'нек'
'московский_'
'годами_'
'аг_'
'Катара_'
'Дал'
'происходят_'
'посетили_'
'обнаружил_'
'ties_'
'сте_'
'предотвратить_'
'опд'
'Вил'
'sion_'
'нед'
'жива'
'НЕ'
'Кем'
'Житель_'
'цева_'
'торговой_'
'инк'
'роман'
'переданы_'
'назначении_'
'йская_'
'еси'
'Кут'
'Абэ_'
'устанавлива'
'снега_'
'прим'
'плату_'
'ham_'
'президентские_'
'вертолет_'
'билет_'
'рен_'
'nt'
'Res'
' " ) '
'шни'
'разве_'
'град'
'Плат'
'бота'
'He'
'мотор'
'изация_'
'вх'
'Года_'
'live_'
'стил'
'старо'
'предпринимательства_'
'инт'
'Тереза_'
'Россияне_'
'Бет'
'00'
'ёв'
'возгорания_'
'Ей_'
'Главная_'
'тне'
'странно_'
'разда'
'кви'
'Свет'
'хра'
'учеников_'
'эпохи_'
'элементов_'
'шк'
'уществ'
'собор_'
'рива'
'полузащитник_'
'оперативны'
'неизвестный_'
'Администрация_'
'rl'
'сможем_'
'раствор'
'диабет'
'гаранти'
'Золото'
'Mac'
'пропуска'
'предыдущих_'
'предъявлено_'
'лист_'
'гг'
'агрегат'
'Оскар_'
'Васильева_'
'кун'
'климат_'
'избран_'
'Сти'
'Башнефти_'
'учреждение_'
'люд'
'ланд'
'предъявля'
'нго'
'возбудил_'
'бд'
'ib'
'повысил'
'known_'
'. , _'
'шансов_'
'смет'
'родных_'
'рабочий_'
'предоставление_'
'полутора_'
'пени'
'кап_'
'жни'
'гриппа_'
'антик'
'ni'
'массив'
'Рим'
'реакцию_'
'пит'
'перед'
'илл'
'знач'
'закр'
'вмешательстве_'
'аше'
'Шер'
'ЕГЭ_'
'ЕАЭС_'
'Александри'
'something_'
'чисто_'
'мешает_'
'коно'
'доставлены_'
'боли'
'увер'
'дефицита_'
'Департамента_'
'чм'
'выясня'
'ура'
'рей'
'общие_'
'нец'
'мероприятиях_'
'кабинет_'
'дорожк'
'родин'
'пойма'
'перекр'
'обеспечивает_'
'кабинета_'
'Кло'
'without_'
' -- _'
'учени'
'семи'
'прогнозам_'
'масса_'
'Хорошо_'
'хай'
'младший_'
'договоры_'
'Жл'
'school_'
'цент'
'неж'
'ищет_'
'фре'
'ушли_'
'сз'
'профессиональных_'
'сле_'
'лог'
'государственном_'
'Дже'
'eas'
'чать_'
'способ'
'поступили_'
'качественно'
'Краснодарского_'
'Гам'
'приобрел_'
'уле'
'тью_'
'судь'
'пур'
'национальный_'
'Лучший_'
'7'
'погон'
'возврат'
'Минздрав_'
'Аргументы_'
'ft'
'free_'
'тройку_'
'тных_'
'Кас'
'попросила_'
'ота_'
'выиграли_'
'вооружение_'
'Конгресса_'
'ъв'
'певец_'
'жителями_'
'дико'
'Мадуро_'
'ценн'
'французск'
'тей_'
'подтвержда'
'открытым_'
'легких_'
'Фра'
'фле'
'ультра'
'рабочего_'
'лл_'
'купи'
'кла'
'Эль_'
'Мк'
'Зм'
'Абу_'
'фен'
'спектакля_'
'родителям_'
'критики_'
'Хен'
'стрельбы_'
'сад_'
'общих_'
'еме'
'рассматривал'
'вте'
'Андреев'
'few_'
'пожаре_'
'West_'
'получило_'
'поиски_'
'иь'
'Гали'
'Tu'
'яп'
'трудности_'
'Стратеги'
'ММА_'
'face_'
'Bri'
'Art'
'фла'
'торгово_'
'проезд'
'офиса_'
'кровь_'
'гражданских_'
'Спи'
'комплексно'
'интриг'
'высоте_'
'Бан'
'lin'
'стон'
'осени_'
'исторических_'
'ирова'
'Мс'
'прокуратуре_'
'килограммов_'
'гав'
'ари_'
'ret'
'управлять_'
'сч'
'Ум'
'Осетии_'
'ina'
'am'
'семьям_'
'морск'
'моих_'
'Лв'
'облигаций_'
'затор'
'жив'
'Силуанов_'
'частной_'
'ома'
'нака'
'красот'
'коллегой_'
'Ульяновск'
'цова_'
'фигур'
'турнирной_'
'встав'
'приступ'
'орд'
'лют'
'выручки_'
'Рейн'
'Дро'
'Бот'
'пыталась_'
'предприниматели_'
'похищени'
'необычны'
'конверт'
'зс'
'скоро'
'ролик_'
'вка'
'быть'
'анал'
'тротуар'
'сне'
'сильным_'
'овской_'
'боль'
'бандит'
'Пов'
'обита'
'включить_'
'Йорк_'
'Габ'
'id'
'фер'
'ислам'
'рации_'
'особого_'
'орг'
'опр'
'июл'
'говорим_'
'чни'
'хим'
'проз'
'йские_'
'тера_'
'опира'
'мошенничество_'
'лишение_'
'исключает_'
'добавля'
'Учитывая_'
'Уголовного_'
'СБ_'
'Ип'
'чар'
'рочн'
'повышению_'
'неправильно_'
'Цел'
'Никол'
'Африки_'
'des_'
'силовики_'
'двигаться_'
'лно'
'Лы'
'Инте'
'правозащитник'
'обсуждается_'
'генерала_'
'Канад'
'Доб'
'Арбитражный_'
'протест_'
'платформы_'
'вши'
'Сере'
'эль_'
'переправ'
'взаимно'
'Ник'
'Аргентины_'
'меня'
'иня_'
'забыва'
'вла'
'включа'
'вел'
'БА'
'советские_'
'раск'
'объ'
'досрочно_'
'Соединенные_'
'Самолет_'
'Дальнего_'
'Аравия_'
'южно'
'упали_'
'судить_'
'необходимы_'
'запреща'
'температуры_'
'сту'
'принадлежат_'
'отнес'
'зв'
'Северо'
'Зем'
'Деп'
'Ed'
'189'
'представителям_'
'коллегии_'
'исс'
'есс'
'еев_'
'Общ'
'Вести_'
'Велико'
'учителя_'
'заканчива'
'журналистами_'
'бере'
'Автомобиль_'
'семинар'
'павильон'
'обеща'
'направлена_'
'мнением_'
'шахмат'
'сои'
'силовых_'
'рани'
'использовал_'
'еш'
'дав'
'Нидерландов_'
'Маз'
'Ком'
'for'
'интересам_'
'надежды_'
'Дор'
'шоколад'
'сн'
'планета_'
'здрав'
'Кин'
'Германию_'
'помещении_'
'золот'
'дина'
'вт'
'барьер'
'Гамбурге_'
'ist_'
'спирт'
'перевести_'
'йр'
'ише'
'Юлии_'
'Треть'
'look_'
'поход'
'космонавт'
'иди'
'веде'
'Сери'
'экономическом_'
'огромные_'
'клетки_'
'дле'
'дит_'
'рные_'
'прв'
'поза'
'закупки_'
'дете'
'ава'
'Нов'
'FM_'
'чат'
'перехват'
'иса_'
'верно'
'Ev'
'цикл'
'ежи'
'атл'
'Зап'
'схему_'
'офи'
'анализ'
'Учителя_'
'Напомни'
'mu'
'сми'
'планировалось_'
'мус'
'Нельзя_'
'; _'
'стем'
'осуществлял'
'РБ_'
'ОМ'
'ющиеся_'
'нне'
'миро'
'мар'
'иного_'
'введены_'
'сож'
'середины_'
'последнюю_'
'пале'
'индекс_'
'решен_'
'1989_'
'трансфер'
'памятников_'
'Пв'
'ГР'
'hr'
'рои'
'воро'
'акс'
'Роб'
'Очевидно_'
'Двое_'
'субсидий_'
'совершения_'
'достойны'
'дожди_'
'гуля'
'богаты'
'Ред'
'ess_'
'Bea'
'юк'
'рати'
'провоз'
'мени'
'заработал_'
'бн'
'бм'
'шло_'
'холодно'
'принес'
'десятка_'
'Баг'
'state_'
'чивы'
'Суд'
'совещание_'
'получив_'
'парламентарий_'
'Саа'
'учить_'
'сравнения_'
'пользования_'
'полеты_'
'лице'
'прогре'
'жестко_'
'рка'
'наладить_'
'мою_'
'крушения_'
'зова'
'ельная_'
'Слав'
'Остальные_'
'скат'
'онт'
'Карелии_'
'щихся_'
'еин'
'ебе'
' ! " _'
'соответствующее_'
'слушания_'
'разн'
'плакат'
'науке_'
'двигатель_'
'Дм'
'фн'
'украинская_'
'мик'
'доставки_'
'артистов_'
'6'
'41'
'тео'
'сооб'
'первыми_'
'иве'
'ажи'
'Мара'
'упн'
'проезда_'
'подтвержден'
'задействован'
'фотограф'
'питание_'
'незаконным_'
'настаивает_'
'лиш'
'исл'
'Вк'
'und'
'cover'
'сив'
'летних_'
'спортивные_'
'постоянн'
'овощи_'
'маш'
'лам'
'главную_'
'Сос'
'Поклонская_'
'тет_'
'собрании_'
'административного_'
'Хол'
'rm'
'IC'
'торо'
'ссе'
'расследовании_'
'ракетных_'
'повезло_'
'петербургского_'
'открыва'
'мыш'
'льш'
'Che'
'экспертизу_'
'знаний_'
'доо'
'дипломатических_'
'дипломат_'
'УМВД_'
'НС'
'au'
'щв'
'материалах_'
'добиваться_'
'господ'
'воа'
'Дмитрию_'
'Вороненкова_'
' ! " . _'
'сине'
'йон'
'campaign_'
'юв'
'ial_'
'режим'
'мотре'
'деревни_'
'Цл'
'Прин'
'Константина_'
'следу'
'скончалась_'
'ант_'
'Юк'
'Наб'
'Ката'
'back'
'рто'
'рассматривается_'
'прямых_'
'грант'
'ударил_'
'согласились_'
'мах'
'имеются_'
'виновник'
'Уточняется_'
'den'
'сложных_'
'привлекать_'
'мба'
'владе'
'saying_'
'again_'
'осуществляется_'
'картин_'
'давности_'
'аин'
'Эле'
'Выс'
'ov'
'iz'
'Del'
'эвакуировали_'
'усь_'
'несколькими_'
'Ны'
'Нл'
'тренд'
'приостановлен'
'обез'
'весны_'
'past_'
'замену_'
'жной_'
'National_'
'храма_'
'уход_'
'Сло'
'Сир'
'Ёл'
'Бл'
'чке_'
'суду_'
'преми'
'нц'
'ившись_'
'аш_'
'атом'
'Сухо'
'Медвед'
'фет'
'твор'
'кер_'
'жительства_'
'воен'
'вкладыва'
'Вай'
'ВО'
'поддержан'
'ближайших_'
'Коммерсант_'
'опубликованном_'
'вест'
'Хот'
'частные_'
'иви'
'Южно_'
'rin'
'эвакуированы_'
'пола_'
'ПВО_'
'повышенны'
'переход'
'объектах_'
'коле'
'Дмитрием_'
'ффе'
'увеличива'
'срочно_'
'масл'
'люблю_'
'изменилась_'
'Серге'
'Самые_'
'ven'
'уда'
'тд'
'тактик'
'коммуникации_'
'капитан_'
'йка_'
'истори'
'действ'
'дед'
'актив_'
'Йл'
'Бой'
'совместных_'
'дру'
'Саудовская_'
'Министерстве_'
'серо'
'лап'
'гроз'
'выбрали_'
'вошла_'
'аме'
'праздники_'
'ниц_'
'количеством_'
', " _'
'туров_'
'реакция_'
'прессе_'
'пользуется_'
'перенесен'
'отметки_'
'госпитализирован_'
'nts_'
'являет'
'найдены_'
'ерна'
'выходят_'
'Союз'
'42'
'рога'
'летие_'
'криптовалют_'
'журнале_'
'sti'
'2030_'
'приговорен_'
'бухгалтер'
'Сечин_'
'Оч'
'Жириновский_'
'поднимал'
'индекс'
'жв'
'глазами_'
'строчку_'
'сестр'
'возможны_'
'Сат'
'Раст'
'Дом'
'fla'
'ывается_'
'твом_'
'проживает_'
'предупредил_'
'земель_'
'агрессии_'
'ыст'
'тяжелые_'
'сахара_'
'признания_'
'контрабанд'
'данная_'
'lit'
'поставщиков_'
'отсутствует_'
'Прод'
'At_'
'филиала_'
'медиков_'
'именем_'
'Скор'
'Работы_'
'Подр'
'Вра'
'уступа'
'РГ'
'Город_'
'тю'
'спонсор'
'прожива'
'пав'
'истери'
'дзе_'
'bla'
'Air_'
'пообещали_'
'отмет'
'изменится_'
'поджог'
'катастрофы_'
'друзьями_'
'военном_'
'ате_'
'Точн'
'раскол'
'отечественной_'
'адвокатов_'
'Иса'
'ыи_'
'подробно_'
'тигр'
'принима'
'очные_'
'лицензию_'
'ачи'
'ядерных_'
'СС'
'Партии_'
' " " '
'смартфонов_'
'композици'
'гостиницы_'
'анных_'
'8'
'тие'
'подозрени'
'лицу_'
'ia'
'стартует_'
'скал'
'длил'
'брод'
'ьне'
'ржи'
'гл_'
'Britain_'
' " ( " _'
'тельств'
'прошлым_'
'писателя_'
'наград'
'лить_'
'лас'
'брат'
'Чв'
'Иванова_'
'kin'
'inter'
'ec'
'проектах_'
'достигает_'
'акты_'
'Жир'
'Город'
'предупреждение_'
'пне'
'ованно'
'гн'
'администрацией_'
'Бв'
'трудом_'
'соверша'
'самопровозглашенной_'
'распространен'
'напал_'
'ируется_'
'этик'
'любую_'
'создают_'
'народу_'
'бомбы_'
'фасад'
'окончании_'
'депутатами_'
'устал'
'онд'
'ила'
'выступ'
'вани'
'ува'
'поло'
'пз'
'зелен'
'Автор'
'month_'
'сработал'
'рой'
'вызывают_'
'центрах_'
'урагана_'
'мультфильм'
'иго_'
'дуб'
'атов_'
'Сла'
'given_'
'чев'
'находясь_'
'енность_'
'визы_'
'Том_'
'Алис'
'тушени'
'поддержкой_'
'опасения_'
'кать_'
'lost_'
'тайн'
'регионам_'
'раст'
'правоохранителей_'
'оь'
'номи'
'джа'
'внесении_'
'ачн'
'Рас'
'Моз'
'ys'
'thing_'
'dro'
'" , _'
'труд'
'тенденция_'
'стиль_'
'рео'
'знакомых_'
'дочк'
'дольше_'
'выборам_'
'Мел'
'fee'
'убежден_'
'лишить_'
'зап'
'ФС'
'Алексею_'
'схема_'
'продолжаются_'
'прида'
'зол'
'Мы'
'Владивостоке_'
'Верн'
'nes_'
'сказ'
'Ьл'
'Иг'
'is'
'Win'
'представления_'
'нно'
'нал_'
'епре'
'Ыл'
'Корею_'
'делается_'
'гранат'
'Ук'
'НТВ_'
'рь'
'кции_'
'Ск'
'Ап'
'чст'
'разумеется_'
'прописан'
'известна_'
'залог_'
'вопросах_'
'Рл'
'Калинин'
'Ем'
'ym'
'уи_'
'тест_'
'тери'
'способствует_'
'прямом_'
'налоговые_'
'конс'
'исторического_'
'вти'
'убрать_'
'перелет'
'ивается_'
'занимались_'
'Нк'
'win'
'ssi'
'формул'
'ферм'
'предоставлять_'
'карте_'
'Анн'
'ts'
'нож'
'заявлению_'
'Фат'
'Волгоградской_'
'хла'
'нынешних_'
'мусульман_'
'луб'
'достав'
'веса_'
'балл'
'РК_'
'ord'
'Police_'
'участи'
'пенсионного_'
'информ'
'жо_'
'спорту_'
'полпред'
'ноо'
'закрыт_'
'Ег'
'старше'
'силовиков_'
'олимпийский_'
'://_'
'+ _'
'подъезд'
'обжаловать_'
'изм'
'Ангела_'
'However_'
'фил'
'свя'
'ТА'
'Рогозин_'
'Бон'
'ee'
'сок_'
'общение_'
' . ) '
'пусто'
'проч'
'бывшие_'
'zi'
'ct'
'среда_'
'слоев'
'отбыва'
'Кы'
'состоялись_'
'совете_'
'пятиэтажек_'
'отрасль_'
'мна'
'договору_'
'Раз'
'working_'
'темой_'
'таб'
'процессов_'
'надежны'
'кас'
'выплачива'
'Щл'
'яш'
'январь_'
'шир'
'соперник_'
'рук'
'дак'
'find_'
'формально_'
'сцен'
'завершении_'
'ени_'
'демократов_'
'административной_'
'Евровидение_'
'Дуд'
'классов_'
'всерьез_'
'Майк'
'under'
'фв'
'инов_'
'дур'
'даче_'
'Рик'
'Вик'
'чива'
'террористических_'
'етт'
'гир'
'бны'
'Лит'
'численности_'
'устроить_'
'съемки_'
'приют'
'прессы_'
'отк'
'зка'
'вско'
'Ъл'
'mid'
'швед'
'региональный_'
'приятно_'
'предс'
'отзыва'
'Коре'
'Йы'
'судебной_'
'сервисов_'
'медаль_'
'турецкой_'
'посто'
'понимание_'
'оформления_'
'Шир'
'Семенов'
'Самым_'
'Была_'
'шагом_'
'полк'
'мне'
'кли_'
'дожде'
'гиб'
'юг'
'стабильно'
'посла'
'подб'
'пересмотреть_'
'второму_'
'асти_'
'Хал'
'tions_'
'car'
'счита'
'рач'
'предложенны'
'нв'
'иров'
'электрически'
'хно'
'хватит_'
'усиление_'
'сообщала_'
'сертификат'
'инд'
'Пок'
'Одной_'
'Джона_'
'удовлетворен'
'телем_'
'спас'
'объединение_'
'заци'
'гом_'
'владельцем_'
'players_'
'nd'
'юны'
'рум'
'раскритиковал_'
'ДПС_'
'фут'
'точ'
'спрята'
'соболезнования_'
'подвиг'
'отказал_'
'ите'
'банкротстве_'
'Срок_'
'бис'
'асс'
'Юм'
'ub'
'France_'
'антироссийских_'
'Пушкина_'
'Ак_'
'Sea'
'Cup_'
'собирать_'
'риз'
'разбор'
'пу_'
'акова_'
'Све'
'bea'
'этаж'
'французской_'
'дорожно_'
'гроб'
'влива'
'анно'
'хорошим_'
'устроен'
'указани'
'рекорд'
'построен_'
'пассажир_'
'авторитет'
'Бурятии_'
'point_'
'Wo'
'тони'
'осозна'
'империи_'
'име'
'СК'
'Приз'
'портрет'
'подр'
'вложен'
'Парламентской_'
'ПРО_'
'ВС'
'чев_'
'занят'
'двер'
'вслед_'
'Алек'
'чит_'
'уска'
'подход'
'Министр'
'Зат'
'Life_'
'тус'
'par'
'AFP_'
'тэ'
'телевизор'
'способы_'
'пожела'
'оды_'
'незаконной_'
'еско'
'ерк'
'Начало_'
'different_'
'погибла_'
'ртом_'
'пля'
'кредитор'
'жертвой_'
'долгосрочны'
'Дол'
'Абдул'
'ъл'
'хотите_'
'турецк'
'росси'
'продолжил_'
'предыдущего_'
'подсчетам_'
'необходимым_'
'московск'
'Серебренникова_'
'Йв'
'изл'
'Украинские_'
'Ред_'
'физик'
'уехал_'
'строительных_'
'разными_'
'производств_'
'нанести_'
'мат_'
'Тон'
'Заг'
'Дик'
'чита'
'худ'
'тройк'
'льда_'
'должно'
'вно_'
'останавлива'
'организациям_'
'жестко'
'Brent_'
' - . _'
'приняло_'
'приехать_'
'Конституци'
'Калининградской_'
'ьян'
'христиан'
'хан'
'противодействия_'
'православной_'
'Самарской_'
'фран'
'ввод'
'Сара'
'премьер'
'миллиард'
'временного_'
'Худ'
'Вой'
'io_'
'пта'
'нб'
'девят'
'Шр'
'экспорт'
'федеральным_'
'судебные_'
'раунде_'
'лад'
'забили_'
'del'
'флаг'
'улов'
'рать_'
'отменил_'
'овик'
'мили'
'АС_'
'толь_'
'исключил_'
'Дне'
'pen'
'рва'
'гла_'
'Ban'
'неоп'
'нво'
'многочисленных_'
'мад'
'Уфы_'
'Елен'
'cer'
'ью'
'монополи'
'бою_'
'отделении_'
'незаконном_'
'документации_'
'Мю'
'ther'
'died_'
'стоял_'
'разм'
'заявляли_'
'устроил_'
'собственную_'
'представлена_'
'перв'
'отказыва'
'метр_'
'десятилетия_'
'двусторонних_'
'встр'
'Хер'
'Са_'
'ярко'
'толь'
'опубликована_'
'нано'
'ищ'
'всею_'
'Саб'
'Перво'
'резидент'
'подобный_'
'вят'
'Данил'
'start_'
'пори'
'озна'
'обнаружен_'
'вле'
'ань'
'tor'
'удовлетворил_'
'трамва'
'организма_'
'неш'
'версий_'
'Первой_'
'политическая_'
'осл'
'книге_'
'заж'
'апрел'
'сухо'
'судьбу_'
'ствия_'
'полосу_'
'отправк'
'ктр'
'госс'
'ls'
'оев'
'лако'
'иба'
'Курск'
'Алексеев'
'подписать_'
'Местные_'
'Лег'
'тные_'
'певицы_'
'опере'
'ести_'
'Ben'
'офисе_'
'ногу_'
'минуту_'
'желанию_'
'поэт'
'Чан'
'Ух'
'ving_'
'lie'
'already_'
'яу'
'пригласил_'
'колони'
'картине_'
'внешних_'
'hol'
'eti'
'стоять_'
'ников'
'лета'
'возможн'
'Действительно_'
'things_'
'улучшение_'
'олимпийского_'
'шись_'
'разг'
'продукт'
'ези'
'банкир'
'Чемпионат_'
'war'
'экспертно'
'роман_'
'открытых_'
'мех'
'бут'
'Уш'
'Мв'
'Вов'
'Буш'
'yl'
'цаи'
'проведенного_'
'мента'
'испол'
'запасы_'
'Запо'
'Жил'
'ili'
'тес'
'кэ'
'ия'
'анные_'
'Приб'
'tar'
'цветов_'
'классы_'
'xt'
'тайме_'
'рда'
'пошла_'
'дера'
'вц'
'безопасны'
'Путешествия_'
'Пример'
'Максим'
'ьер_'
'состоявше'
'обнаружила_'
'мячей_'
'ист'
'изолятор'
'Ведомостям_'
'ски'
'рем'
'патент'
'героин'
'чистой_'
'написать_'
'мс_'
'конституционно'
'клубом_'
'Мурманск'
'финансовую_'
'первенства_'
'задержани'
'выш'
'ga_'
'3'
'цм'
'финанс'
'платят_'
'осу'
'осн'
'летним_'
'заявляют_'
'ельного_'
'Генпрокуратура_'
'Выяснилось_'
'Microsoft_'
'перерыва_'
'лимит'
'инициативой_'
'еса_'
'вов'
'экстра'
'ыка'
'спецс'
'союзников_'
'свете_'
'рро'
'решетк'
'отя'
'ожив'
'лни'
'еда_'
'дц'
'ОИ_'
'thought_'
'посты_'
'подписыва'
'осв'
'доби'
'Пел'
'Махачкал'
'Дун'
'Василия_'
'202'
'учебного_'
'большом_'
'Много_'
'Вст'
'ght'
'тивн'
'регламент'
'нации_'
'наряду_'
'мио'
'выброс'
'Ик'
' - $ _'
'форм'
'нефтян'
'заметны'
'Зан'
'Академии_'
'эффект'
'пруд'
'принципу_'
'подписания_'
'нарушает_'
'инфраструктуру_'
'дольщиков_'
'азв'
'Эдуард_'
'Сит'
'Исламского_'
'АЛ'
'снима'
'механизма_'
'еву_'
'вк'
'армию_'
'трубопровод'
'собеседников_'
'продлении_'
'относиться_'
'оже'
'здраво'
'ИС'
'? _'
'проигрыва'
'признают_'
'готовить_'
'Св'
'Берлине_'
'развитием_'
'подумать_'
'повод'
'овощей_'
'иски_'
'зни'
'демократии_'
'Утром_'
'РЕН_'
'трудов'
'опухол'
'женск'
'вооруженные_'
'бб'
'населением_'
'дачи_'
'Нос'
'Зим'
'яб'
'употребля'
'укрепления_'
'Бег'
'125_'
'трудо'
'расположены_'
'опол'
'ейше'
'дневно'
'Ыв'
'Миронов_'
'украинском_'
'тал_'
'случа'
'отказе_'
'окно_'
'нече'
'жанр'
'Дим'
' )_'
'лучшей_'
'Улюкаев_'
'Организаторы_'
'Cas'
'сообщи'
'сокращении_'
'происходило_'
'пик'
'изъят'
'асе'
'алась_'
'уно'
'особый_'
'новк'
'ливо'
'Дальнем_'
'тем'
'происходящее_'
'поводом_'
'перепис'
'лидерами_'
'фф'
'удар'
'угрозе_'
'окм'
'инаугурации_'
'Mer'
'требовать_'
'следующих_'
'поступать_'
'начал'
'лучшего_'
'итс'
'демократически'
'Ага'
'старые_'
'свободной_'
'процедур_'
'нюю_'
'комиссар'
'йу'
'ФА'
'Тру'
'ДА'
'until_'
'ьян_'
'участвует_'
'сомнева'
'резки'
'ованы_'
'крик'
'взима'
'Сак'
'Победа_'
'экспертиза_'
'террористами_'
'свт'
'переу'
'километрах_'
'Роскомнадзор_'
'Палестин'
'Нс'
'общим_'
'йцы_'
'важна_'
'ажн'
'woman_'
'сопровождал'
'следы_'
'рко'
'пауз'
'Фен'
'Au'
'штук_'
'ступ'
'статьям_'
'сомнений_'
'продюсер_'
'очевидны'
'етк'
'Видимо_'
'ht_'
'Pol'
'ьков'
'существовал'
'оборону_'
'ново_'
'нашему_'
'Луч'
'care_'
'Af'
'яны'
'школ'
'вича_'
'боя'
'аН'
'Фв'
'Тиллерсона_'
' ! '
'математик'
'ксе'
'картинк'
'иь_'
'ванны'
'ап_'
'Франциско_'
'Мороз'
'КА_'
'реального_'
'авария_'
'Алеппо_'
' ? " - _'
'сой_'
'названи'
'колеса_'
'Хай'
'Военно_'
'she'
'связанно'
'рах'
'количеств'
'ивы'
'зо_'
'стад'
'самоо'
'Валентин'
'супермаркет'
'мны'
'коман'
'дня'
'диаметр'
'Ангел'
'American_'
'росс'
'оказывает_'
'оен'
'наблюдать_'
'исход'
'добровольно_'
'амер'
'ЭС_'
'Борисов'
'убытки_'
'посадку_'
'комплексе_'
'движении_'
'адн'
'Рио_'
'ценностей_'
'самоу'
'рацион'
'расширен'
'опубликовало_'
'ним'
'металло'
'местности_'
'дь_'
'Мей'
'Зас'
'Ag'
'экстренных_'
'рассматривают_'
'избавиться_'
'алист'
'ушла_'
'трудно'
'руем'
'приу'
'мие'
'коллектор'
'укр'
'парень_'
'лип'
'кадры_'
'AP_'
'честны'
'оП'
'лучшее_'
'кай'
'Ze'
'сла_'
'доб_'
'котяры_'
'бен_'
'ser'
'успехов_'
'рыбо'
'призывает_'
'лив'
'дп'
'Государственного_'
'установления_'
'способна_'
'осов'
'Куч'
'Кли'
'участником_'
'запросы_'
'запрещенных_'
'допрос'
'вском_'
'взрыве_'
'Какой_'
'Ваг'
'шн'
'союзн'
'открытом_'
'направлениям_'
'купюр'
'возмущен'
'Колом'
'Киров'
'рей_'
'опе'
'лч'
'комплексы_'
'зарубежные_'
'заказ_'
'жела'
'дополнительн'
'Сант'
'making_'
'утверждения_'
'исследователи_'
'Еп'
'Гост'
'школьн'
'ситуаци'
'оформить_'
'наход'
'навсегда_'
'консул'
'ГС'
'ans_'
'хранение_'
'снижении_'
'опубликованы_'
'обн'
'лор'
'енности_'
'духовно'
'бюджетные_'
'бензин_'
'счастья_'
'редки'
'поняли_'
'поз'
'заявля'
'дисциплин'
'Организации_'
'cc'
'согласован'
'противоречит_'
'ляд'
'Антона_'
'упо'
'рим'
'разговоры_'
'радиостанции_'
'работаем_'
'постановил_'
'иров_'
'Советский_'
'Ленобласти_'
'become_'
'ющ'
'сторонник'
'сод'
'отмечал_'
'определ'
'мирного_'
'коллектива_'
'идеологи'
'выгодны'
'always_'
'Len'
'проводились_'
'периоде_'
'криптовалюты_'
'конгресса_'
'жае'
'health_'
'яблок'
'эфир_'
'телефон'
'преду'
'отложен'
'обратили_'
'нечего_'
'Вис'
'цю'
'соглас'
'плох'
'ност'
'кран'
'здорово_'
'бас'
'юм'
'третьим_'
'сет_'
'пк'
'Хад'
'Архи'
'флот'
'никова_'
'жем_'
'Цель_'
'IB'
'чрезвычайно_'
'проведен_'
'покинули_'
'набра'
'лки_'
'дест'
'военное_'
'внезапно_'
'Планируется_'
'Ох'
'Валери'
'тратить_'
'рне'
'вуза_'
'аев'
'Пяти'
'Gra'
'пко'
'нк_'
'Сел'
'ol_'
'чья_'
'стин'
'рез_'
'Ника'
'черт'
'целе'
'соло'
'мысль_'
'зарегистрировал'
'вход_'
'Дей'
'овском_'
'лите'
'иска'
'гостях_'
'Ёв'
'53'
'норма'
'напи'
'дол_'
'девочку_'
'выигра'
'Наи'
'Китаем_'
'sy'
'ES'
'тно'
'рассчитыва'
'ппе'
'вавши'
'q'
'сна_'
'рекламу_'
'мальчик'
'завершил_'
'Пять_'
'Лед'
'Вся_'
'Benz_'
'склон'
'лжен'
'йный_'
'грузовик'
'Али_'
'уру_'
'удет_'
'попро'
'Тм'
'шны'
'умел'
'старта_'
'неком'
'двойно'
'газопровода_'
'вирус_'
'арсенал'
'Игры_'
'ремен'
'позволили_'
'касс'
'Ьв'
'Тек'
'ЗА'
'74'
'тариф'
'руга'
'нас'
'замо'
'еен'
'Непр'
'Необходимо_'
'санации_'
'рве'
'допустил_'
'глубоки'
'Харви_'
'Идея_'
'чы'
'следующ'
'огр'
'Ром'
'1945_'
'сделан_'
'остановки_'
'нда_'
'настоя'
'направленно'
'медвед'
'Уэ'
'Поводом_'
'Днепр'
'Выборы_'
'лагерь_'
'una'
'res'
'учреждениях_'
'категорий_'
'губернатором_'
'Ил_'
' - - _'
'ьы'
'уголовному_'
'сэ'
'обычных_'
'ированно'
'Федераци'
'ame'
'фирм_'
'рубл'
'рол'
'мобильно'
'маг'
'имен_'
'запа'
'грамм'
'годн'
'Скр'
'тный_'
'тара'
'сбит'
'пило'
'образованию_'
'Оренбург'
'Premier_'
'столб'
'представи'
'верне'
'Зад'
'давали_'
'НО'
'Мала'
'показ'
'ород'
'ерат'
'Ярослав'
'Чел'
'mes_'
'ev'
'удач'
'стакан'
'предост'
'определенных_'
'концерна_'
'ироваться_'
'домом_'
'восьми'
'shi'
'Mas'
'рист'
'располага'
'мотиваци'
'корзин'
'Роз'
'hou'
'ff'
'разгон'
'образа_'
'обеспечен'
'Тв'
'Гарри_'
'Mor'
'форум'
'уничтожа'
'статистики_'
'оценивает_'
'мости_'
'Ори'
'77'
'немецкий_'
'мена_'
'етн'
'двигателей_'
'возникновения_'
'San'
'Air'
'родине_'
'республика_'
'полезно'
'открытый_'
'механизмы_'
'забор'
'терминал'
'рейса_'
'классик'
'йст'
'банкомат'
'аромат'
'Основная_'
'Ираном_'
'упор'
'сыва'
'столов'
'разви'
'очередного_'
'Уил'
'iti'
'справля'
'родилась_'
'карт'
'защища'
'better_'
'партнерства_'
'зак'
'еше'
'делегация_'
'белые_'
'Четыре_'
'Пом'
'unc'
'преодолеть_'
'попробовать_'
'западные_'
'допинга_'
'вдов'
'банкам_'
'Чс'
'Чили_'
'щев'
'состоя'
'провал'
'нность_'
'Юп'
'МП'
'field_'
'ear'
'$ _'
'юб'
'указывал'
'тельная_'
'раг'
'проводиться_'
'неуд'
'Земле_'
'ren'
'лаборатори'
'гуманитарной_'
'гак_'
'Сири'
'Сели'
'ass'
'французский_'
'созыва_'
'потратить_'
'организ'
'белорусско'
'атмосферу_'
'атака_'
'аспект'
'Вп'
'nti'
'цв'
'хл'
'тари'
'присяг'
'органам_'
'объявления_'
'вагонов_'
'блокады_'
'арь_'
'ld_'
'оше'
'кст'
'дт_'
'вари'
'Температура_'
'president_'
'Scotland_'
'фунтов_'
'спин'
'скоростью_'
'сирийских_'
'правительств_'
'онв'
'онально'
'названия_'
'летнему_'
'едни'
'деа'
'глубоко'
'Ci'
'шени'
'хакеры_'
'психо'
'произ'
'конфликтов_'
'занимать_'
'вез'
'ьство_'
'разрешени'
'использоваться_'
'вяз'
'Ян_'
'дешевы'
'данную_'
'Рол'
'Луценко_'
'хорошего_'
'удоб'
'товара_'
'соревновани'
'розыгрыш'
'Федоров'
'Za'
'рад'
'последующе'
'каик_'
'йф'
'доказан'
'гли'
'Люб'
'экскурси'
'уникально'
'подписи_'
'непонятно_'
'миграции_'
'лек'
'динамику_'
'выступа'
'баз_'
'Нв'
'net_'
'суть_'
'жных_'
'авиакомпаний_'
'трас'
'рецепт'
'повышении_'
'один'
'логически'
'использовал'
'дока'
'вечер'
'Портал_'
'Мэ'
'Герман_'
'прит'
'порти'
'огне'
'нется_'
'нерв'
'лиа'
'благотворительно'
'Рев'
'bel'
'To_'
'John_'
'пто'
'представлени'
'нка'
'мед_'
'джи'
'вое'
'ако'
'Обе_'
'широкий_'
'поражени'
'Шевченко_'
'Йорка_'
'Екатерин'
'iss'
'строгого_'
'служить_'
'памятник'
'мужем_'
'Бад'
'погран'
'ински'
'высказались_'
'банковск'
'Центробанка_'
'покупател'
'пил'
'обеспечива'
'исов'
'инн'
'емая_'
'выкуп'
'тираж'
'судьбе_'
'сборы_'
'обсуждают_'
'крупнейшим_'
'Ион'
'храм_'
'тев'
'оцени'
'оре_'
'наве'
'интерьер'
'забира'
'виз'
'британский_'
'Тульск'
'Гв'
'реди'
'ега'
'ветств'
'Камен'
'роси'
'корд'
'заговор'
'Якутии_'
'met'
'приход'
'преступной_'
'дистанции_'
'Кэ'
'ВП'
'154_'
'следующим_'
'сини'
'ровы'
'очаг'
'ожи'
'рованно'
'рио'
'окал'
'Едино'
'Inter'
'73'
'разработали_'
'постоянной_'
'казан'
'зма'
'жилищно_'
'вза'
'автомат'
'См'
'57'
'сое'
'рева'
'особой_'
'находилось_'
'вдо'
'большее_'
'атся_'
'Артем'
'91'
'преследования_'
'алл'
'Москвич'
'шенно'
'тик_'
'озера_'
'нчи'
'мечт'
'дй'
'бух'
'ua_'
'согласие_'
'приемн'
'полосы_'
'бонус'
'расширения_'
'попадают_'
'подразделение_'
'верхней_'
'центрист'
'смотри'
'нел'
'вю'
'аК'
'ill'
'act'
'спутник'
'собственному_'
'прошл'
'профил'
'медалей_'
'близко_'
'Паш'
'сложной_'
'серьезное_'
'резолюцию_'
'полуфинал'
'независимо_'
'меро'
'ведение_'
'Эми'
'Нац'
'lf_'
'case_'
'пости'
'обл_'
'консультации_'
'компьютер'
'Реала_'
'Международная_'
'ября_'
'сени'
'раб'
'предвыборны'
'гае'
'Дв'
'hard_'
'столицей_'
'высказывания_'
'тной_'
'рев_'
'рат_'
'практически'
'попыток_'
'ковой_'
'вающи'
'вали'
'Томск'
'Всем_'
'No'
'рая_'
'ощуща'
'исполнен'
'известной_'
'внесения_'
'Суб'
'Ско'
'Мух'
'чре'
'фо_'
'учас'
'руется_'
'поменял'
'перекрыт'
'мотив'
'иеся_'
'бизнесменов_'
'баллотироваться_'
'Иван'
'уклон'
'занимаем'
'законно'
'гем'
'воле'
'Юно'
'Бэ'
'ёс'
'огу'
'мет_'
'Нер'
'Бит'
'Nor'
' ) : _'
'юно'
'соци'
'психологически'
'подм'
'важность_'
'Пом_'
'72'
'станция_'
'зато'
'вр_'
'Пой_'
'uti'
'оказал'
'ОР'
'МО_'
'Кубани_'
'рели'
'политикой_'
'живы'
'дви'
'чат_'
'тного_'
'расчета_'
'потенциал'
'понятие_'
'никуда_'
'бывал'
'бна'
'ann'
'Mrs_'
'ыле'
'ухо'
'выставля'
'Этим_'
'ДНК_'
'early_'
'Amazon_'
'страховой_'
'молоко_'
'выдаче_'
'агентств_'
'Щв'
'Поп_'
'ММ'
'уш'
'соз'
'объясняют_'
'миров'
'мастера_'
'бод'
'Оде'
'родного_'
'проверке_'
'оказа'
'назначено_'
'Уст'
'Проб'
'Нарв'
'Мост'
'сопр'
'моментов_'
'домашних_'
'герои_'
'бесп'
'атр'
'Минюст_'
'Волгограде_'
'террор'
'рит_'
'заложен'
'екци'
'% '
'моло'
'любителей_'
'желания_'
'выступали_'
'Свою_'
'элит'
'слаб'
'пункте_'
'овавши'
'контакт_'
'испытыва'
'ечк'
'выработк'
'алкогольного_'
'флаг_'
'страх'
'соус'
'сознание_'
'результатах_'
'кру'
'крепки'
'вэ'
'wanted_'
'70'
'пуск'
'анов'
'ака_'
'Guardian_'
'пни'
'игрой_'
'вводить_'
'Народн'
'чуж'
'следственные_'
'проект'
'музыкант_'
'звонки_'
'енка_'
'берегов_'
'Черногории_'
'Господ'
'етв'
'Поэт'
'Площадь_'
'Бей'
'id_'
'Y_'
'рада_'
'закреплен'
'дорого_'
'Зен'
'read'
'ничем_'
'лло'
'ива_'
'активное_'
'je'
'эмоции_'
'работодател'
'мун'
'игр'
'заявлен'
'едет_'
'динамика_'
'ct_'
'AR'
'спон'
'сере'
'сервисы_'
'реке_'
'пы'
'понимаем_'
'помню_'
'ноз'
'непос'
'стихи_'
'рафи'
'положен'
'вечно'
'абот'
'Мог'
'comp'
'On'
'семер'
'графи'
'градо'
'Дов'
'mm'
'эк_'
'руководил_'
'пятого_'
'некоторо'
'гастрол'
'гармони'
'военными_'
'Хан_'
'Же_'
'Американская_'
'шно'
'хв'
'секс'
'ноу_'
'муз'
'ливы'
'давал_'
'выявили_'
'проло'
'ниче'
'лино'
'изучить_'
'вход'
'варианта_'
'Александр'
'цифра_'
'снизились_'
'равных_'
'производственно'
'предпри'
'оме_'
'коне'
'изображен'
'дло'
'Супер'
'Пор_'
'Вед'
'спортивного_'
'сить_'
'микроб'
'каи'
'закл'
'горск'
'Chan'
'сф'
'одны'
'бай'
'ану_'
'Школ'
'тельн'
'сно_'
'раскр'
'прекрасно'
'нде'
'мам'
'льном_'
'лая_'
'дыва'
'видн'
'ue_'
'реализован'
'подвал'
'объявлени'
'оборонно'
'девушку_'
'госкорпорации_'
'видимости_'
'sign'
'увеличен'
'предполагают_'
'назначена_'
'монастыр'
'контактов_'
'инструменты_'
'депутатам_'
'вия_'
'арестовал_'
'Соответствующий_'
'political_'
'ect'
'bou'
'советск'
'показало_'
'передача_'
'оппозиция_'
'атыва'
'ьу'
'думал_'
'дора'
'горячи'
'Саф'
'член'
'тм_'
'пут'
'потеряла_'
'подтвердить_'
'олет'
'дун'
'амм'
'does_'
'club_'
'штаб'
'фы_'
'тором_'
'парти'
'имеюще'
'жде'
'Совет'
'Им'
'dre'
'растений_'
'разработка_'
'показывать_'
'ольш'
'институтов_'
'ех_'
'допущен'
'берет_'
'СМ_'
'Друг'
'run_'
'fire_'
'риал'
'редакцию_'
'праздников_'
'маршруту_'
'конечном_'
'задействованы_'
'городском_'
'Ню'
'Гагарина_'
'щк'
'рмо'
'правд'
'мей'
'дог_'
'властью_'
'апе'
'Берн'
'tan'
'фигурант'
'продажа_'
'проведены_'
'проблемам_'
'петици'
'обслуживани'
'метрополитена_'
'имела_'
'застройщик'
'ган_'
'Хочу_'
'Сре'
'uc'
'уми'
'умеет_'
'просили_'
'подве'
'пилот_'
'овет'
'Гин'
'АН'
'ford_'
'окл'
'мерах_'
'зов'
'госсекретаря_'
'годно'
'nu'
'умышленно'
'судьбы_'
'ситуациях_'
'сговор'
'леч'
'заводов_'
'Лоп'
'Дэвид_'
'Брат'
'gra'
'олимпиад'
'необходима_'
'кома'
'ества_'
'дорогих_'
'Минске_'
'Вене'
'шен_'
'коме'
'ачива'
'ответила_'
'каждое_'
'даю'
'Севиль'
'Аркадий_'
'sol'
'ритм'
'огра'
'мужчине_'
'инноваци'
'бек'
'started_'
'Sin'
'этажа_'
'технология_'
'om_'
'Capital_'
'человеке_'
'футболе_'
'таксист'
'столичн'
'лодк'
'корт'
'Пост'
'Львов'
'Dan'
'толпу_'
'тивно'
'связях_'
'расста'
'полка_'
'написано_'
'зва'
'дилер'
'алгоритм'
'Политик_'
'Дай'
'уточнила_'
'спасателей_'
'реф'
'обсудят_'
'лид'
'Ъв'
'Источники_'
'Дс'
'Деб'
'sel'
'хакеров_'
'увеличится_'
'секунду_'
'путей_'
'онко'
'огород'
'имп'
'taking_'
'cus'
'прогнозы_'
'предлагал_'
'оговор'
'народно'
'инфо'
'автономии_'
'Евровидения_'
'мониторинг_'
'лкива'
'космос_'
'итал'
'заставить_'
'банками_'
'Шат'
'ski'
'предположить_'
'мероприяти'
'конференция_'
'арно'
'аре_'
'Wal'
'1986_'
'сравнении_'
'север'
'овка_'
'авил'
'Еро'
'ече'
'ведущие_'
'Хва'
'Нил'
'Кук'
'third_'
'cat'
'поде'
'выборами_'
'счастлив'
'потребление_'
'находк'
'комп'
'борт_'
'Москв'
'ard_'
'Kia_'
'фрагмент'
'сборных_'
'рассмотрении_'
'елям_'
'аги'
'sen'
'following_'
'AC'
'186'
'тп'
'отов'
'дие'
'great_'
'формулировк'
'снижается_'
'рукой_'
'рао'
'предлага'
'пояс'
'обработк'
'балкон'
'Представ'
'немецких_'
'космического_'
'Хас'
'Ku'
'чок_'
'пута'
'предсказа'
'пеш'
'ньо'
'льду_'
'логи_'
'концерта_'
'датчик'
'альянс_'
'Уб'
'Пушков_'
'Нео'
'ДН'
'уходе_'
'убил_'
'тяжелых_'
'тюр'
'соседей_'
'сообщить_'
'жду_'
'гада'
'бывают_'
'Лука'
'Инт'
'стенд'
'собрали_'
'селе'
'сайты_'
'редств'
'причастность_'
'применении_'
'пребыва'
'пакет'
'лении_'
'каюк_'
'длинны'
'death_'
'Saturday_'
'ьн_'
'пострадавшие_'
'организациях_'
'дач'
'годна_'
'ЛИ'
'wea'
'63'
'шем_'
'противоречи'
'похорон'
'нак'
'ленты_'
'корабли_'
'Руси_'
'Париж_'
'188'
'лиша'
'ире'
'заинтересованны'
'желаю'
'авиаудар'
'Пострадавши'
'юнош'
'хова_'
'химически'
'подра'
'плени'
'канцлер_'
'Зайцев'
'ске'
'профессионального_'
'плюс'
'парад'
'мелко'
'кабмина_'
'док_'
'mal'
'трижды_'
'попроси'
'каков'
'иков'
'Тк'
'Алл'
'minister_'
'Lan'
'ударом_'
'прик'
'оК'
'нте_'
'кооператив'
'дерев'
'арестованы_'
'Гд'
'предп'
'медицинские_'
'инструментов_'
'изнасиловани'
'верующих_'
'бя_'
'Питер'
'rem'
'int'
'House_'
'All'
'ых'
'сада_'
'начнутся_'
'гат'
'Сиб'
'Евр'
'1988_'
'ьки'
'согласования_'
'покажет_'
'отеле_'
'нгов'
'начат'
'демон'
'важнее_'
'Уфе_'
'whether_'
'played_'
'чай_'
'трудоустройств'
'покажут_'
'колбас'
'громко'
'ближайшем_'
'Цены_'
'Санд'
'тэо'
'руководи'
'рам'
'отор'
'миг'
'двор'
'годка_'
'успехом_'
'практику_'
'особых_'
'оград'
'надел'
'готовятся_'
'Чуд'
'Сме'
'Сенатор_'
'ast'
'Bre'
'региональн'
'поче'
'одобрен'
'интеграци'
'еы'
'ейн'
'Голливуд'
'Вр'
'написали_'
'лм'
'земля_'
'здн'
'део'
'горы_'
'беспилотник'
'балета_'
'орк'
'еви'
'выдел'
'ГМ'
'цветы_'
'сей'
'необычно'
'лагере_'
'дальнейшей_'
'вопреки_'
'взрывчатк'
'МиГ_'
'little_'
'удовольствием_'
'кузов'
'камеру_'
'истем'
'достаточны'
'альбом_'
', - _'
'! '
'ыбл'
'секретны'
'промышленны'
'промышленно'
'контрольны'
'занима'
'заинтересованы_'
'дам_'
'будит_'
'тим'
'опубликовали_'
'лучшую_'
'Республик'
'Общий_'
'Кач'
'48'
'цип'
'поисках_'
'ительно_'
'законодательн'
'жал'
'больше'
'алов_'
'Лс'
'115_'
'финансовым_'
'тии_'
'сели_'
'рап'
'предоставлен'
'нее'
'кредитн'
'кабинет'
'вруча'
'безв'
'арз'
'Ра_'
'   '
'тря'
'сетево'
'осужден_'
'неме'
'небольших_'
'луш'
'дм'
'НД'
'Гендиректор_'
'Британии_'
'устан'
'ульт'
'сум'
'свое'
'рих'
'реальность_'
'расположенных_'
'киевски'
'батальона_'
'английски'
'Украинский_'
'Нет'
'mat'
'троллейбус'
'секретно'
'своя_'
'дворца_'
'Мэтт'
'торгов'
'признана_'
'лай'
'доход'
'выч'
'альтернативны'
'Труд'
'Бог'
'Ste'
'цз'
'соо'
'солист'
'ручк'
'орл'
'мягки'
'метод_'
'дорого'
'выр'
'har'
'187'
'совместного_'
'ооб'
'историей_'
'ема'
'дв_'
'Архангельск'
'тче'
'сократилось_'
'пьян'
'отрицает_'
'награду_'
'мом'
'тель'
'сбежа'
'редн'
'песен_'
'кав'
'гитар'
'больниц_'
'ачен'
'Работа'
'Глаз'
'событиях_'
'осужда'
'осад'
'низкий_'
'менеджеров_'
'максимальная_'
'ителя_'
'зуб'
'дизайн_'
'батальон'
'юридическ'
'фун'
'слон'
'рассказыва'
'поступления_'
'лини'
'Роскомнадзора_'
'ight_'
'центрального_'
'фабрики_'
'округ_'
'населенны'
'мастер'
'ипр'
'заключен_'
'чка'
'федеральн'
'улучшил'
'террорист'
'нагрузку_'
'дной_'
'высоты_'
'Агентства_'
'Mad'
'His_'
'Es'
'событием_'
'сделке_'
'поэт_'
'Бс'
'gat'
'рел'
'предстоящих_'
'китайского_'
'зд_'
'дефицит'
'бана'
'Как'
'vel'
'fore'
'750_'
'лиз'
'инди'
'задани'
'загл'
'документах_'
'глобальны'
'гази'
'вопросами_'
'август_'
'Средне'
'Поро'
'Поб'
'Партия_'
'gu'
'яже'
'экипаж_'
'учебник'
'классник'
'гипер'
'волейбол'
'Захар'
'ВАЗ_'
'behind_'
'тил'
'ряды_'
'круга_'
'выявля'
'Уг'
'уезжа'
'тере'
'родителями_'
'психологи'
'презентации_'
'отчете_'
'жилищного_'
'солнечно'
'заключить_'
'дою_'
'Строительство_'
'Поз'
'eb'
'ящих_'
'учен'
'распространяется_'
'пропаганд'
'проб_'
'меню_'
'йог'
'зк'
'ельн'
'дени'
'ago_'
'экск'
'уровн'
'удобны'
'салат'
'приго'
'общественн'
'нефтяной_'
'лих_'
'55'
'серебряны'
'расправ'
'переключ'
'обвинила_'
'носят_'
'напомнила_'
'гибель_'
'вее'
'Афганистана_'
'ca_'
'стар'
'поколени'
'подруг'
'нцев_'
'новост'
'маркетинг'
'дд'
'Сингапур'
'Севастополе_'
'Нд'
'appear'
'фактов_'
'кмо'
'качеству_'
'заявляет_'
'допрос_'
'анный_'
'ite_'
'спасения_'
'снос_'
'осп'
'оплачива'
'обоснова'
'вмешательство_'
'ацией_'
'Этом_'
'ert'
'David_'
'шпион'
'публичных_'
'просьбе_'
'пожизненно'
'коа'
'дека'
'бел_'
'яну'
'юридической_'
'старте_'
'советский_'
'слав'
'прде'
'оэ'
'ляр'
'драм'
'вым'
'ТС'
'Russian_'
'сервис'
'руп'
'разбирательства_'
'Мюнхен'
'Инф'
'сменил'
'рисунк'
'окв'
'знаки_'
'Главным_'
'house_'
'эта'
'честве_'
'твит'
'статистике_'
'рент'
'покрыва'
'открылся_'
'ответы_'
'ико'
'души_'
'Шам'
'cti'
'ценных_'
'столичной_'
'серьезным_'
'государстве_'
'ведом'
'берут_'
'арбитраж'
'Симон'
'Лев_'
'ora'
'эн_'
'тых_'
'предварительно_'
'подав'
'молодежной_'
'иев'
'зне'
'СВ'
'Ольги_'
'прошлое_'
'предпочитают_'
'поступила_'
'несут_'
'нап'
'ичк'
'заме'
'евский_'
'евр'
'Удмуртии_'
'Спикер_'
'series_'
'сыном_'
'состави'
'реестра_'
'материалам_'
'ламп'
'евского_'
'взд'
'ТО_'
'тайно'
'превысил_'
'март_'
'дител'
'Госэкономика_'
'220_'
'.. _'
'яр_'
'ченно'
'футбольной_'
'отделк'
'оран'
'обработки_'
'защитников_'
'зад'
'голо'
'вшему_'
'Сильн'
'Галина_'
'Wales_'
'фестивал'
'сегодняшнего_'
'оставляет_'
'зев'
'гонщик'
'выглядят_'
'вной_'
'вернулась_'
'атив'
'Смол'
'chan'
'Ros'
'унд'
'нич'
'ийски'
'вокзала_'
'вниз_'
'Корне'
'Йс'
'rk'
'хими'
'учителей_'
'несли_'
'йку_'
'иностранного_'
'гел'
'clear_'
'Ge'
'яст'
'федеральные_'
'уна'
'сюжет_'
'спл'
'служ'
'сгорел'
'ритейлер'
'платежи_'
'пасс'
'заем'
'задал'
'заве'
'добр'
'десяти'
'Дворц'
'промышленных_'
'пг'
'однозначно_'
'ниг'
'жертвы_'
'деятелей_'
'Борис'
'lla'
'each_'
'собирался_'
'прокомментировали_'
'оперы_'
'мел'
'аки_'
'РУ'
'Жс'
'feel_'
'cke'
'скрылся_'
'продолжат_'
'принципы_'
'офицеров_'
'оме'
'левы'
'актрисы_'
'hit_'
'хороших_'
'сферу_'
'сокращен'
'рыт'
'рет_'
'помощника_'
'подготовили_'
'огранич'
'лади'
'компромисс'
'выдающи'
'выб'
'абсолютно'
'Посол_'
'четвертом_'
'хозяева_'
'пози'
'материально'
'Окраин'
'стратеги'
'смена_'
'почетны'
'плата_'
'контроле_'
'карта_'
'законопроекту_'
'есен'
'ГОСТ'
'странно'
'предлагали_'
'повестки_'
'питал'
'окол'
'европейск'
'Магнит'
'mit'
'ялся_'
'фарм'
'профессиональной_'
'провалил'
'отмену_'
'найден_'
'каче'
'Давайте_'
'уста'
'реформа_'
'пятый_'
'причинах_'
'послед'
'называемый_'
'аций_'
'ФРС_'
'future_'
'Ver'
'футбольных_'
'парк'
'митинге_'
'домашнего_'
'Сами_'
'Пк'
'Касперского_'
'тив_'
'разместить_'
'нападени'
'газопровод'
'НК'
'Ведомство_'
'Ведомостей_'
'ite'
'фигурантов_'
'прт'
'порог'
'объявить_'
'наблюдателей_'
'затрагива'
'выплату_'
'ive'
'юс_'
'пру'
'американк'
'Раду'
'соответствие_'
'робот_'
'овом_'
'марок_'
'зачете_'
'дорогие_'
'аков'
'КИ'
'Безусловно_'
'56'
'чне'
'страшно_'
'почт'
'пострада'
'очно'
'остальное_'
'объясня'
'нции_'
'крах'
'конт'
'рна'
'предстоящи'
'осн_'
'малыш'
'лесо'
'Пир'
'Любовь_'
'Лих'
'гляд'
'Хс'
'просмотр'
'проживал'
'пони'
'дзор'
'СУ'
'uni'
'ros'
'ona'
'эп'
'турецкого_'
'составлять_'
'серьезной_'
'рети'
'респ'
'жко'
'доста'
'Юв'
'Оу'
'Кинг'
'Wall_'
'чис'
'торги_'
'сыграют_'
'родител'
'дро'
'выше'
'Спасибо_'
'Сиг'
'Имен'
'Додон_'
'ВЕ'
'футбольный_'
'планировали_'
'граждан'
'ген_'
'будят_'
'акта_'
'Татьян'
'Новос'
'сят_'
'западной_'
'членам_'
'посчита'
'пересел'
'перенос'
'легенд'
'контексте_'
'Ьс'
'FI'
'Can'
'хэ'
'увеличении_'
'озно'
'иты_'
'жену_'
'баро'
'Виль'
'чон'
'фильмах_'
'тва'
'российс'
'общественные_'
'музе'
'коллега_'
'ковы'
'йк_'
'жив_'
'Еврокомиссии_'
'kn'
'чков_'
'свежи'
'рить_'
'продвига'
'операторы_'
'онно_'
'крупнейший_'
'имеющие_'
'Го_'
'Бесс'
'физики_'
'счет'
'рыб'
'прист'
'отель_'
'говорила_'
'Сала'
'Пожар_'
'vote_'
'Cal'
'106_'
'эмоционально'
'существование_'
'спортивный_'
'рской_'
'произошедшее_'
'полов'
'оля'
'напа'
'лена_'
'госсекретарь_'
'выехал_'
'бой'
'Оксана_'
'тариф_'
'понятны'
'нх_'
'бал_'
'хал'
'транш'
'привычк'
'матрива'
'культур_'
'защит'
'report_'
'норму_'
'алле'
'Кредит'
'CE'
'размеща'
'подст'
'лоч'
'дао_'
'гип'
'Службы_'
'wor'
'привычны'
'источником_'
'имеем_'
'директор'
'вино_'
'Сно'
'Мок'
'form_'
'шко_'
'представителем_'
'поу'
'лесных_'
'жильцов_'
'ечи'
'дава'
'ани_'
'убийц'
'техн'
'проверять_'
'обязательны'
'лик_'
'входа_'
'Регин'
'Пд'
'ящие_'
'поток'
'пн'
'огл'
'етя'
'внешнеполитического_'
'валютны'
'сентябрь_'
'полн'
'жилом_'
'ента'
'деть_'
'аккумулятор'
'UFC_'
'страховк'
'соглашению_'
'принципиально_'
'пинг'
'отни'
'окс'
'забывать_'
'едит'
'благоустройства_'
'Мах'
'ae'
'тьс_'
'тов'
'соответствуют_'
'подстав'
'нужды_'
'конст'
'клон'
'жест'
'tle'
'ставят_'
'рного_'
'правящей_'
'Тома'
'IV_'
'текущий_'
'смог'
'подростка_'
'остановлен'
'итальянски'
'Майдан'
'Лучше_'
'yn'
'щенно'
'объясняется_'
'напитков_'
'вались_'
'активных_'
'Хил'
'Елизавета_'
'Еве_'
'len'
'Ol'
'экране_'
'формаци'
'совет'
'повестку_'
'Татарстан_'
'sma'
'match_'
'76'
'узе'
'распр'
'низ'
'искренн'
'Место_'
'Куд'
'ранение_'
'претендентов_'
'ирн'
'вничью_'
'Факт'
'Ток'
'Инд'
'Дос'
'ari'
'ьч'
'поды'
'пато'
'некий_'
'баскетбол'
'актеров_'
'Новым_'
') . _'
'оси'
'запретил_'
'Электро'
'Больши'
'power_'
'эвакуации_'
'люс'
'жит_'
'гит'
'Рыб'
'Миш'
'чувств'
'расчеты_'
'профильны'
'прич'
'нте'
'гает_'
'благ'
'анка_'
'Ничего_'
'Берд'
'фт_'
'считали_'
'реги'
'реабилитации_'
'промышленного_'
'знаменитый_'
'Хе_'
'Павл'
'ОВ'
'Инг'
'уничтожить_'
'сложные_'
'лесу_'
'иор'
'израильски'
'афер'
'аемы'
'Мот'
'ult'
'Ham'
' :  _'
'яще'
'фро'
'основа'
'государственную_'
'водоем'
'вку_'
'благотворительны'
'айн'
'Соло'
'ьк'
'убедить_'
'лп'
'итогово'
'дят_'
'боев'
'era'
'щика_'
'скопи'
'программой_'
'перево'
'нейро'
'направлял'
'маци'
'британ'
'Монако_'
'Лаз'
'Лаврова_'
'умы'
'руко'
'принадлежаще'
'прес'
'первому_'
'очная_'
'маз'
'гражданско'
'Ая'
'риск'
'нцы_'
'модны'
'дн_'
'дки_'
'выразила_'
'бон'
'Сид'
'Никаких_'
'Нен'
'Луганск'
'Васильев_'
'Бара'
'коммунальных_'
'дивидендов_'
'вещь_'
'аск'
'КР'
'учрежден'
'передавал'
'ошибку_'
'компаниях_'
'аза'
'Ливан'
'Зелен'
'Добро'
'Анатолия_'
'ятн'
'уверена_'
'противопо'
'поднят'
'окончил_'
'Радио_'
'тин_'
'рно_'
'писала_'
'ограничен'
'обы_'
'лв'
'Минкомсвязи_'
'den_'
'решает_'
'полуостров_'
'откладыва'
'вручен'
'Сдела'
'Заявление_'
'sea'
'Tri'
'провед'
'принятии_'
'отношениям_'
'островов_'
'медленн'
'замечен'
'енти'
'выполнены_'
'ТЦ_'
'сопротивление_'
'размести'
'пах'
'оха'
'обстоятельствах_'
'диагноз_'
'демонстрирует_'
'col'
'рабочим_'
'полным_'
'полноценны'
'нн_'
'коммерческой_'
'затр'
'доходах_'
'вкус_'
'Джонсон_'
'13'
'стандартам_'
'скрип'
'сегмент'
'перечисля'
'паник'
'называемых_'
'исторической_'
'вертолетов_'
'Елены_'
'эф'
'угр'
'способствовал'
'социалист'
'присутствия_'
'корреспонденту_'
'вди'
'Ого'
'Лишь_'
'Бе_'
'cur'
'уменьшил'
'пци'
'кг'
'запланирован_'
'запасов_'
'выдвига'
'авиакомпания_'
'Шел'
'ds'
'3D_'
'юро'
'эксперимент'
'учат'
'праве_'
'ошибка_'
'нке_'
'ницу_'
'кольца_'
'достижение_'
'дим'
'годовом_'
'въезда_'
'Вод'
'Бос'
'ji'
'участник'
'спло'
'разрыв'
'политическое_'
'металл'
'еет_'
'вырасти_'
'адк'
'Ув'
'Tesla_'
'муч'
'иг_'
'Примечательно_'
'Кари'
'seem'
'1987_'
'яйца_'
'чик'
'содействие_'
'преступников_'
'особняк'
'ило'
'вверх_'
'Фон'
'чном_'
'пресе'
'поставках_'
'официальное_'
'нюанс'
'некое'
'кь'
'ждени'
'Павло'
'Минприроды_'
'чаш'
'физкультур'
'тт_'
'строк'
'правовых_'
'пее'
'лошад'
'елн'
'вие_'
'СР_'
'Машин'
'pres'
'ban'
'трансг'
'существующих_'
'станов'
'приравн'
'выполня'
'бурн'
'Оп_'
'dem'
'clo'
'Uni'
'чем'
'тренировки_'
'создано_'
'массу_'
'ктор_'
'испански'
'дополнительного_'
'выдачу_'
'Болгария_'
'move_'
'fort'
'эксперимент_'
'считаются_'
'сохраняется_'
'предыдущ'
'открыты_'
'носител'
'клиент_'
'ичу_'
'издан'
'зз'
'выдавать_'
'встре'
'боец_'
'автоза'
'Ъс'
'Касп'
'1941_'
'условие_'
'тсо'
'сочли_'
'птиц_'
'покрыт'
'позволял'
'обслужива'
'мии_'
'ама'
'eri'
'ута_'
'терн'
'массы_'
'ича'
'Дя'
'разруша'
'послани'
'ожа'
'май_'
'женски'
'Четверт'
'Самая_'
'WikiLeaks_'
'ущ'
'уха'
'прохождения_'
'Обще'
' ... +_'
'сыгра'
'скорую_'
'напомина'
'доступны_'
'буде'
'Хом'
'Тихо'
'Рю'
'тись_'
'сдачи_'
'пространств'
'отцом_'
'оборудован'
'нено'
'наре'
'лко'
'иск'
'звучал'
'ыпа'
'турк'
'тата'
'сою_'
'сай'
'оказывают_'
'оед'
'обвиняемых_'
'нарушениях_'
'направленные_'
'дало_'
'айте_'
'Мартин_'
'Зв'
'Бод'
'определение_'
'мозг_'
'конкретно_'
'деж'
'гина_'
'вшее_'
'важны_'
'бик'
'аналогичн'
'sm'
'ku'
'рублен'
'рования_'
'проце'
'пролив'
'плану_'
'перевез'
'лн'
'линий_'
'ечны'
'возобновил'
'вашего_'
'важен_'
'Сем'
'eli'
'шил'
'степен'
'салон_'
'принесли_'
'дров'
'Газпром'
'рассказ'
'заксобрания_'
'еду'
'банкрот'
'шит'
'свободн'
'рамки_'
'понес'
'небе_'
'моды_'
'Пев'
'Мединский_'
'АР'
'яй'
'учитыва'
'ученик'
'сайт'
'опуска'
'мф'
'Хозя'
'Маль'
'Канада_'
'Зах'
'слуша'
'призна'
'курсы_'
'иностранными_'
'агитаци'
'Витали'
'sto'
'cal'
'ючи'
'хан_'
'смертн'
'продлил_'
'провинци'
'приводят_'
'очно_'
'определенно'
'окт'
'медленно_'
'конфи'
'еку'
'Пе_'
'Ек'
'Демократической_'
'After_'
'уй'
'соответствующего_'
'русско'
'рис_'
'профессионал'
'мега'
'магазин'
'куб_'
'ерв'
'ванн'
'строительной_'
'сокращению_'
'совместные_'
'рки_'
'предприятиях_'
'побережья_'
'парковки_'
'оказавши'
'Остров'
'Оль'
'ДЕ'
'учесть_'
'тят_'
'серб'
'неприятны'
'достро'
'встречал'
'Шан'
'Дре'
'tain'
'ani'
'серы'
'решал'
'правил'
'переш'
'перег'
'Получается_'
'Новосибирске_'
'Комп'
'mer'
'функци'
'призван'
'прибывши'
'нагр'
'кат_'
'вследствие_'
'Индия_'
'Восточный_'
'Вдо'
'шутк'
'управлени'
'скульптур'
'производить_'
'близким_'
'арев_'
'Центральный_'
'точно'
'тоннел'
'руль_'
'огда_'
'облигации_'
'живот'
'бом'
'СС_'
'Пло'
'чувствует_'
'предыдущие_'
'письменно'
'обсудил_'
'исключения_'
'выделен'
'вл_'
'Соо'
'Муж'
'must_'
' ; '
'опор'
'идее_'
'Лыс'
'Super'
'тла'
'сп_'
'рку'
'полицейским_'
'йском_'
'истин'
'изуча'
'зм'
'женщинам_'
'войн_'
'возглавля'
'Ску'
'Отс'
'Нова'
'Золотой_'
'Баст'
'теа'
'сог'
'разведчик'
'разбит'
'нью_'
'наз'
'младше'
'маги'
'избиени'
'двусторонне'
'голосов'
'гк'
'Гонконг'
'ler_'
'Sam'
'фто'
'самостоятельно'
'постави'
'обрати'
'йна_'
'делаем_'
'выполняет_'
'актеры_'
'аМ'
'sp'
'свин'
'рс_'
'предоставил_'
'мати'
'гна'
'Постав'
'эпидеми'
'школьниц'
'прилет'
'полити'
'поединка_'
'лово'
'лете'
'кило'
'14'
'телевидения_'
'расч'
'проста'
'ответственно'
'записыва'
'Фрид'
'full_'
'NASA_'
'чан_'
'устранить_'
'тме'
'сложившейся_'
'пуш'
'порту_'
'помешал'
'зоо'
'дальности_'
'влия'
'ваи'
'азов'
'Основные_'
'шествия_'
'хре'
'устанавливают_'
'рассчитывал'
'государ'
'аном_'
'акти'
'Салават'
'Ленте_'
'Арена_'
'передне'
'вож'
'Фс'
'Женеве_'
'ness_'
'щм'
'хранил'
'стара'
'реальный_'
'проа'
'озв'
'взятк'
'бюджетов_'
'Захаров'
'ВШЭ_'
'give_'
'95'
'твер'
'проводил_'
'опер'
'найд'
'леди_'
'фактором_'
'услыша'
'сото'
'предл'
'опасаются_'
'озо'
'выступающи'
'Барс'
'щет'
'сильных_'
'продолжа'
'оск'
'орм'
'коллекци'
'боев_'
'Сель'
'республику_'
'подписано_'
'ированы_'
'градуса_'
'Фийон_'
'Степанов'
'Смоленск'
'Казан'
'online_'
'прочие_'
'охо'
'наследник'
'луж'
'добыва'
'голосовать_'
'аналитиков_'
'аде_'
'Ялт'
'Мира_'
'утверждал_'
'турнир'
'теории_'
'совершенно'
'секрет_'
'подда'
'плати'
'отправились_'
'нуля_'
'клю'
'вская_'
'СЕ'
'РН'
'Псковской_'
'Новост'
'Музыка_'
'Лиди'
'Задержан'
'eu'
'enough_'
'публики_'
'откроется_'
'нит_'
'корон'
'ий'
'дио'
'акциз'
'Ветер_'
'четвертого_'
'ублик'
'убедил'
'тян'
'стартовал_'
'профессиональн'
'поступк'
'пользовател'
'подозревается_'
'испытание_'
'заведомо_'
'жила_'
'евы'
'возо'
'ац'
'killed_'
'You'
'сложилась_'
'попу'
'обя'
'объектам_'
'нра'
'кандидаты_'
'глубоко_'
'войдут_'
'аппаратов_'
'Петербургу_'
'Име'
'Бь'
'record_'
'Kr'
'снимки_'
'разы_'
'оглас'
'лш'
'клин'
'занятий_'
'задержанного_'
'допуска'
'Ворон'
'sl'
'sho'
'уы'
'супруг'
'руз'
'кура'
'изменении_'
'защитны'
'аь'
'Рук'
'ПК_'
'яна'
'теь'
'продолжал'
'оригинальны'
'мемориал'
'луче'
'впо'
'ФО_'
'Совбеза_'
'hor'
'SS'
'учащихся_'
'сара'
'пропа'
'привлечение_'
'поединке_'
'держав'
'Шс'
'Пад'
'Напр'
'Мо_'
'Мани'
'Гус'
'sca'
'Pet'
'рек_'
'кол_'
'аты'
'арит'
'Южного_'
'ывали_'
'стои'
'применен'
'застройки_'
'выигрыва'
'американ'
'Отец_'
'Нефте'
'Генпрокуратуры_'
'sa_'
'din'
'Lea'
'цд'
'тул'
'территори'
'сис'
'публике_'
'отда'
'ограничил'
'нения_'
'напо'
'вон_'
'mor'
'ical_'
'нду'
'шел'
'уктур'
'след_'
'рир'
'рассказывают_'
'освобожда'
'канц'
'Иркутске_'
'try_'
'ses_'
'холод'
'техническ'
'производ'
'приятны'
'пользу'
'заключили_'
'восторг'
'адр'
'Полтав'
'Отмеча'
'Вечер'
'develop'
'требовали_'
'рыв'
'род_'
'плава'
'ориентиров'
'кожно'
'здоровьем_'
'дрог'
'выпл'
'Нев'
'Вла'
'games_'
'BA'
'упе'
'мозгов'
'культура_'
'дег'
'дадут_'
'готово_'
'вше'
'Бин'
'Андре'
'ыне_'
'ране_'
'разработок_'
'нула_'
'камера_'
'Право'
'rid'
'company_'
'четверти_'
'чая_'
'сноса_'
'сложный_'
'сад'
'проте'
'пого'
'взрыва'
'Уол'
'Любо'
'Дагестане_'
'Владимиров'
'mother_'
'ident'
'West'
'At'
'увеличению_'
'тренд_'
'средних_'
'рят'
'оппозиционер'
'инской_'
'досто'
'enc'
'тз'
'ронн'
'претендент'
'правы'
'поя'
'знаменитого_'
'бульвар'
'ita'
'фабрик'
'тю_'
'техническим_'
'спар'
'сист'
'санкциях_'
'развернул'
'показаний_'
'митинги_'
'льт'
'атно'
'Смерт'
'ИН'
'Вера_'
'нете'
'кал'
'зная_'
'действующим_'
'бород'
'боевиками_'
'айс'
'Джордж'
'симпати'
'свод'
'леи'
'гв'
'возбуждении_'
'вложений_'
'биткойн'
'Лк'
'Ди_'
'Арави'
'46'
'скрыться_'
'псевдо'
'подхода_'
'направля'
'грузовик_'
'высказыва'
'врачу_'
'вине_'
'чил_'
'трупп'
'точка_'
'путешественник'
'пса'
'предупреждения_'
'наблюдени'
'майор_'
'арбитр'
'Проект'
'Димитри'
'Голуб'
'Алексе'
'сорвал'
'потр'
'определяет_'
'вп'
'взяты'
'Средняя_'
'Бед'
'чени'
'созыв'
'пытаясь_'
'прол'
'ктив'
'жик'
'гордо'
'выезжа'
'батыва'
'gs'
'шенны'
'шайбу_'
'чащ'
'регулятор'
'посетит_'
'посел'
'отказывается_'
'китайский_'
'инвестировать_'
'заре'
'Открыт'
'Екатеринбург_'
'уги'
'увеличивается_'
'тест'
'орех'
'оор'
'заполнен'
'будущей_'
'боксер'
'Основ'
'Одн'
'Жертвами_'
'ide'
'FIFA_'
'чрез'
'пробы_'
'код'
'изме'
'зны'
'засе'
'закуп'
'Этой_'
'Метро'
'paper_'
'транспортн'
'закупа'
'заказу_'
'грани_'
'Йор'
'business_'
'Ken'
'юж'
'посещать_'
'подрыва'
'нужда'
'йного_'
'импорта_'
'звучит_'
'дели_'
'выигрыш'
'Щс'
'ship_'
'ьская_'
'щать_'
'ценой_'
'спортом_'
'рец'
'парламентариев_'
'миром_'
'каждые_'
'бол_'
'Дарья_'
'творчеств'
'лс_'
'Pla'
'пенсионерк'
'жг'
'дополнит'
'Ыс'
'Отр'
'Лик'
'Бас'
'сдержа'
'прошедш'
'периодически_'
'обновления_'
'обеспечивать_'
'араб'
'Дании_'
'ГО'
'front_'
'conf'
'ялись_'
'сиб'
'отек'
'одр'
'незнаком'
'двигател'
'выпускников_'
'Вах'
'ised_'
'стартап'
'рык'
'рое'
'протестн'
'поль'
'кора'
'дополнительный_'
'Юни'
'ПФР_'
'Лок'
'hy'
'содержал'
'родным_'
'рис'
'номеров_'
'зет'
'жесткой_'
'выезд_'
'Члены_'
'Национальная_'
'Ant'
'чно'
'пешеход'
'оя_'
'желающие_'
'единства_'
'вке_'
'Российское_'
'Российск'
'сной_'
'пове'
'отряда_'
'миссия_'
'мери'
'конкуренцию_'
'зици'
'дальни'
'благоустро'
'Стамбуле_'
'Рум'
'Лип'
'Будапешт'
'школьники_'
'спрашива'
'составят_'
'промо'
'оМ'
'нервн'
'нач'
'мощный_'
'мине'
'йши'
'жев'
'добры'
'вт_'
'Стивен_'
'Аксенов_'
'янов'
'разум'
'пропаганды_'
'произведений_'
'подарки_'
'осте'
'оперативного_'
'досмотр'
'ёк'
'ураган'
'салон'
'осень_'
'лов'
'задержание_'
'винов'
'Лиц'
'reports_'
'lia'
'acti'
'хин'
'факторы_'
'переч'
'обыграл_'
'номером_'
'напитки_'
'льс'
'инь'
'записке_'
'елов'
'декабрь_'
'авля'
'ава_'
'ТЕ'
'Меди'
'ew'
'эксперимента_'
'позволил_'
'повышен'
'общественно_'
'лени'
'избирател'
'живой_'
'военная_'
'вернули_'
'Гуд'
'Ber'
'наступил'
'мст'
'альн'
'Фей'
'Ряб'
'min'
'як'
'таж'
'прекрасны'
'очн'
'москвич'
'ьщик'
'технический_'
'теннис'
'родн'
'реагировать_'
'рго'
'пьес'
'полковника_'
'поддел'
'научил'
'иваться_'
'зг'
'закрыли_'
'выстраива'
'братьев_'
'автором_'
'Террорист'
'Пользователи_'
'похитили_'
'неиз'
'наци'
'ивания_'
'западный_'
'доследственн'
'господину_'
'американскими_'
'акцент'
'million_'
'dri'
'240_'
'умерла_'
'сложная_'
'рпед'
'поездку_'
'ейк'
'взросл'
'Пав'
'Лари'
'Джер'
'head'
'ыло_'
'преемник'
'нулся_'
'конструктор'
'инвестиционной_'
'Cre'
'ък'
'щни'
'стремится_'
'динг'
'выборе_'
'yo'
'финн'
'станцию_'
'снайпер'
'риторик'
'поступало_'
'лис_'
'лан_'
'крупн'
'вуз'
'будите_'
'акон'
'Спа'
'Рм'
'Побед'
'tis'
'уск'
'указанно'
'связывают_'
'салона_'
'рского_'
'расстройств'
'расстоянии_'
'радикал'
'предположил_'
'потребности_'
'перет'
'перевозчик'
'мусульман'
'механизм'
'займется_'
'завершится_'
'att'
'Vo'
'снов'
'построенны'
'вати'
'ающих_'
'Баби'
'sco'
'сторон'
'птицы_'
'перевод_'
'ниж'
'ивше'
'геро'
'атов'
'trade_'
'held_'
'парн'
'отличаются_'
'отка'
'индустри'
'Натальи_'
'яки_'
'фал'
'тону'
'побе'
'одинаковы'
'йцев_'
'инвестиционного_'
'единственная_'
'волны_'
'вакцин'
'аб_'
'Пят'
'экологически'
'четыр'
'ука_'
'старой_'
'ставител'
'налет'
'заказа_'
'вратарь_'
'Пхеньяна_'
'155_'
'ционно'
'хоте'
'тей'
'спорте_'
'сем_'
'правов'
'полезных_'
'подко'
'отте'
'менеджера_'
'личном_'
'газет'
'буль'
'база'
'альное_'
'Артур_'
'aw'
'сделаны_'
'раунд_'
'приговор'
'организа'
'ноч'
'местными_'
'истечени'
'желто'
'дистанционно'
'аге'
'Сп'
'Сом'
'Сап'
'экспертны'
'уха_'
'противостояния_'
'пересечении_'
'нормально'
'назвав_'
'лла_'
'км'
'животное_'
'достигнуты'
'асн'
'Яку'
'af'
'чатс'
'фланг'
'рина_'
'обязательн'
'кабинете_'
'иза'
'дник'
'дна'
'борц'
'Рд'
'Куз'
'хорошую_'
'постоянного_'
'осудили_'
'манер'
'конфликте_'
'има_'
'выбрал_'
'Сау'
' .. _'
'ьш'
'силам_'
'районного_'
'радо'
'поч'
'получился_'
'оско'
'инвестиционных_'
'выставку_'
'Иб'
'финальн'
'союз'
'оце'
'оруди'
'обвиняемый_'
'нст'
'грузовика_'
'громки'
'бронзовы'
'Рем'
'эми'
'шв'
'улицам_'
'ток'
'стить_'
'статистика_'
'старе'
'Кудрин_'
'Алле'
'PA_'
'ющийся_'
'упре'
'специалистами_'
'организовали_'
'оов'
'овались_'
'личност'
'евре'
'Як'
'Тел'
'Причин'
'Калифорнии_'
'тендер'
'стк'
'среднем'
'священник'
'общежити'
'населен'
'направленных_'
'мульти'
'кб'
'звонков_'
'дои_'
'деталей_'
'годовой_'
'багаж'
'Институт_'
'mag'
'ьют'
'фотографию_'
'уф_'
'прошло'
'перспективны'
'отреагировал_'
'определенный_'
'нор_'
'крымско'
'дальнейшее_'
'гибридн'
'Пх'
'стратегия_'
'соцсетей_'
'соблюдения_'
'поступа'
'одоле'
'нку_'
'личи'
'кими_'
'израильско'
'ектор'
'драг'
'броне'
'Центральн'
'Тегеран'
'Па_'
'ОС'
'hear'
'экспортны'
'сдан'
'правового_'
'отсутствием_'
'душу_'
'артисты_'
'СО_'
'Аэрофлот_'
'свойств'
'кта'
'кредит'
'взросло'
'аь_'
'аке'
'авши'
'Код'
'щс'
'ширин'
'сформировал'
'решит_'
'надежно'
'мя'
'делами_'
'действу'
'волна_'
'Комм'
'Законодательного_'
'ang'
'ыу'
'чип'
'частно'
'хид'
'сегмента_'
'пример'
'больн'
'английского_'
'Турцией_'
'Бю'
'Брон'
'nte'
'ily_'
'опл'
'одних_'
'нема'
'кроссовер_'
'ину'
'Программ'
'томо'
'рекомендовал_'
'осуществлен'
'оказание_'
'логическо'
'которы'
'действующие_'
'бест'
'антибиотик'
'административн'
'Смо'
'Пхеньян'
'Провер'
'ОКБ_'
'tas'
' ? ! _'
'ыс_'
'собственным_'
'раи'
'пож'
'подключен'
'еде'
'выва'
'волонтер'
' " , '
'щин'
'таможенн'
'прее'
'неч'
'нежели_'
'неве'
'концерты_'
'завер'
'грузов'
'готово'
'гз'
'берега_'
'Примерно_'
'Прикамье_'
'Олимпиаду_'
'Един'
'рП'
'организованной_'
'иот'
'ены'
'евши'
'деэскалации_'
'бюджетной_'
'Фд'
'rac'
'became_'
'язы'
'содержащ'
'привлека'
'поручению_'
'оном_'
'молодеж'
'куби'
'взыскать_'
'ваются_'
'актрис'
'Пою_'
'Пил'
'Android_'
'хоккею_'
'страда'
'рубеж'
'редит'
'победитель_'
'очный_'
'отступ'
'нацист'
'зод'
'зафиксировали_'
'дое'
'Швец'
'ath'
'ьз'
'ыла_'
'хоккея_'
'пожарной_'
'писа'
'квадрат'
'алкогольной_'
'Эп'
'Жив'
'Азов'
'юся_'
'тонко'
'подконтрольны'
'пищи_'
'опасно_'
'обусловлен'
'называемой_'
'кч'
'жки_'
'виноград'
'ФГУП_'
'РЕ'
'хозяйство_'
'установка_'
'району_'
'приложени'
'привлечен'
'котл'
'девочк'
'Прив'
'Дам'
'why_'
'low_'
'cent'
'aren'
'упра'
'прирост_'
'жеств'
'Рк'
'Втор'
'шива'
'функций_'
'оплатить_'
'исторический_'
'выгодно_'
'Рамп'
'Конс'
' * '
' "  '
'страшны'
'приглашение_'
'поп'
'отделе_'
'лого'
'лее'
'знакомые_'
'думают_'
'близ_'
'автос'
'Прото'
'Варшав'
'Бк'
'Sal'
'ствол'
'рди'
'прет'
'очками_'
'иг'
'запо'
'дрон'
'взорвал'
'ввоз_'
'бедует_'
'Инс'
'nta'
'традиционных_'
'температур'
'сформировать_'
'оот'
'запуска'
'деревья_'
'ty'
'pla'
'стараются_'
'согласовани'
'служил_'
'решается_'
'помнить_'
'плохой_'
'колод'
'гать_'
'банк'
'СФ_'
'Марков'
'sport_'
'190_'
'ценно'
'сохранять_'
'славы_'
'принудительно'
'представител'
'настоящего_'
'заз'
'включен'
'взятку_'
'рф'
'прошедшие_'
'кни'
'заболевание_'
'вступить_'
'возможен_'
'Gold'
'справился_'
'сенсаци'
'потребует_'
'перешли_'
'Пои_'
'Оку'
'Обо'
'ffe'
'языком_'
'этап'
'эпизод_'
'скуп'
'овано_'
'молодо'
'иы'
'инвестор_'
'значительной_'
'ельную_'
'гва'
'газовы'
'верт'
'Кадр'
'comment'
'теракте_'
'рени'
'неопр'
'ивно'
'жале'
'доктор'
'Служба_'
'явлени'
'лей'
'контрактн'
'исе'
'водств'
'st'
'убеждени'
'точнее_'
'спросил_'
'сдел'
'планшет'
'идент'
'жные_'
'ех'
'Зк'
'ьских_'
'проектам_'
'нза'
'литров_'
'курс'
'изу'
'заблокирован'
'ВЦИОМ_'
'fra'
'уй_'
'термин'
'съе'
'справедливости_'
'рот_'
'рар'
'подл'
'наложен'
'инском_'
'единоросс'
'гло'
'Соколов_'
'emo'
'ушки_'
'тло'
'стационар'
'несл'
'заседаний_'
'амен'
'mos'
'ema'
'фотографи'
'увол'
'русским_'
'реже_'
'зии_'
'грн_'
'возмутил'
'Сво'
'ry'
'close_'
'ard'
'ранен_'
'основателя_'
'каци'
'ичн'
'зафиксирован_'
'заба'
'губернатор'
'груд'
'анию_'
'Краснодара_'
'ЕН'
'val'
'хран'
'обычной_'
'непрост'
'нагрузка_'
'лож'
'дума'
'дар_'
'возвращении_'
'вела_'
'эск'
'удо'
'признав'
'пилотов_'
'иран'
'Ленин'
'ali'
'Cont'
'рг'
'растения_'
'забрать_'
'ести'
'бард'
'анч'
'Упо'
'asked_'
'ain'
'успехи_'
'природе_'
'парламентарии_'
'осс'
'овт'
'овит'
'дик'
'Нау'
'яка_'
'свободе_'
'рующи'
'расширя'
'нол'
'мобильного_'
'кана'
'исповед'
'изменилось_'
'Трав'
'tly_'
'least_'
'уезд'
'пятеро_'
'ниа'
'исключа'
'злоумышленники_'
'Естественно_'
'Дк'
'АР_'
'que_'
'шь'
'хост'
'фю'
'стати'
'нечто_'
'завял'
'губернатору_'
'взб'
'абр'
'Участ'
'Всех_'
'шов_'
'шае'
'читател'
'ускорени'
'сток'
'разработа'
'разговор'
'объему_'
'кож'
'заморозк'
'Сталина_'
'Мд'
'ИК'
'em'
'bat'
'Far'
'капуст'
'дополнительное_'
'Свободн'
'Ключев'
') , _'
'щал'
'фамилии_'
'текущей_'
'протесты_'
'онов'
'источник'
'дка_'
'Новое_'
'ютом_'
'убе'
'снятия_'
'разработан_'
'незаконное_'
'мч'
'мобил'
'марк'
'легкоатлет'
'йм'
'женской_'
'бренд'
'Кок'
'Выб'
'чех'
'стартово'
'сигарет_'
'пору'
'поздравля'
'подоб'
'оид'
'настроение_'
'краевого_'
'бова'
'Хро'
'Хаб'
'Пак'
'Жизнь_'
'64'
'удалил'
'убо'
'сим_'
'риг'
'продано_'
'контор'
'каз'
'заяв'
'возврата_'
'Дил'
'ссор'
'сезон'
'руш'
'отро'
'нарушител'
'кто'
'красоты_'
'каналов_'
'Значит_'
'Дню_'
'Дат'
'Вашингтоном_'
'hours_'
'юо_'
'хищения_'
'фермер'
'сосредоточен'
'риа'
'посредством_'
'подле'
'неде'
'меньши'
'коль'
'заправ'
'бл_'
'Шай'
'Олимпийск'
'Mos'
'чск'
'пыт'
'предметом_'
'называемые_'
'кис'
'грех'
'градус'
'воин'
'автомобильных_'
'Эстония_'
'ПИ'
'Гм'
'cu'
'ьница_'
'угле'
'турнирах_'
'соста'
'российски_'
'рекордно'
'папа_'
'отражен'
'лотере'
'Эст'
'Дес'
'va_'
'тве'
'скромны'
'нко'
'гаджет'
'Шен'
'Игра'
'Бд'
'tat'
'шло'
'решил'
'раб_'
'мх'
'кото_'
'еред'
'авиап'
'ьку_'
'фд'
'перевози'
'ограниченно'
'госпожи_'
'библиотек'
'баллистической_'
'Спасатели_'
'Australia_'
'1950_'
'синг'
'почита'
'подросток_'
'обойтись_'
'луча'
'зон'
'выступлений_'
'большими_'
'амб'
'Начальник_'
'узо'
'трибун'
'разыгра'
'планировал_'
'переработки_'
'лекци'
'доле'
'двор_'
'брак_'
'vis'
'det'
'тонны_'
'современным_'
'смертельно'
'роскош'
'победила_'
'нех'
'диск'
'взрывное_'
'Расс'
'Каролин'
'Израиле_'
'Игр_'
'Ани'
'staff_'
'ыл'
'теплы'
'советник'
'случился_'
'региональное_'
'осуществления_'
'кодекс'
'датель'
'гус'
'выпустили_'
'Пм'
'Mari'
'увы_'
'работа'
'мошенничества_'
'императора_'
'изучи'
'Серг'
'Лар'
'Ind'
'75'
'экономическое_'
'футболк'
'ради'
'потерять_'
'ога'
'науч'
'лыжник'
'кубк'
'кско'
'ико_'
'енци'
'НТ'
'Гел'
'rap'
'ёт_'
'шо_'
'специальности_'
'праву_'
'пик_'
'передни'
'оса_'
'мук'
'мотор_'
'знаков_'
'высшей_'
'агн'
'Третий_'
'Дмитриев'
'Ireland_'
'спер'
'ресторанов_'
'репресси'
'произош'
'инфекци'
'Полтавченко_'
'угон'
'тат'
'скрыт'
'родит'
'отслежива'
'обер'
'мечети_'
'ият'
'дого'
'вывоз'
'владел'
'os'
'dow'
'NBC_'
'съемок_'
'скажу_'
'пользование_'
'льгот_'
'логи'
'валя'
'биржи_'
'Вадима_'
'ex_'
'теори'
'производит_'
'привлекал'
'подчеркну'
'невест'
'мужеств'
'ент'
'дез'
'ближайш'
'Посе'
'esse'
'cons'
'центру_'
'хб'
'сост'
'непред'
'небо_'
'звания_'
'есе'
'дав_'
'бригад'
'Впоследствии_'
'ВТ'
'ping_'
'рная_'
'регистрацию_'
'потерь_'
'пот_'
'посвящен'
'переве'
'откровенно_'
'молодежны'
'искусственного_'
'добраться_'
'Чм'
'Соответственно_'
'Мал'
'Лев'
'Лд'
'Алекси'
'ale'
'ыч'
'ступенчат'
'системно'
'преимущества_'
'позор'
'орит'
'издательств'
'беспре'
'аварийно'
'Канаде_'
'Анны_'
'чек'
'фургон'
'отказа'
'дух'
'аэ'
'Подс'
'Малыш'
'Вас_'
'system_'
'секс_'
'противников_'
'прокомментировала_'
'обход_'
'кури'
'канцлера_'
'еС'
'дивизион'
'Ино'
'Cro'
', '
'тексте_'
'просьбу_'
'литератур'
'икова_'
'блу'
'бам'
'Горо'
'leg'
'эквивалент'
'упр'
'репетици'
'ракет'
'разрыв_'
'полос'
'поворот'
'менно'
'канализаци'
'инвестора_'
'зрителя_'
'дефект'
'ассамблеи_'
'and'
'юг_'
'ылк'
'хать_'
'составлени'
'различными_'
'прости'
'произо'
'пала'
'Защита_'
'чист'
'овски'
'нских_'
'иче'
'витель'
'Ряд_'
'Риг'
'Краснодаре_'
'XXI_'
'1500_'
'сун'
'расположил'
'протокол'
'погашения_'
'повел'
'наруш'
'критике_'
'забро'
'борт'
'блокад'
'агентов_'
'Рамзан_'
'ОТ'
'Морозов_'
'Добав'
'Глу'
'inf'
'aff'
'призва'
'нима'
'воп'
'Чаще_'
'эро'
'чистая_'
'торговлю_'
'тики_'
'напоминают_'
'информационно_'
'женн'
'Камер'
'Ива'
'шта'
'уп_'
'совы'
'рй'
'приговорили_'
'показан'
'оС'
'крыши_'
'еева_'
'бомбардировщик'
'Восточного_'
'Вн'
'сфо'
'продал_'
'праздник'
'ологии_'
'неот'
'напра'
'газом_'
'вооружен'
'tax_'
'юд'
'шить_'
'простых_'
'предоставили_'
'потребовала_'
'перестали_'
'обладател'
'механик'
'ицей_'
'животными_'
'директору_'
'десят'
'дене'
'гом'
'выводи'
'взыскании_'
'Стан'
'Норма'
'Амурской_'
'bur'
'центральн'
'сломал'
'ранспорт'
'присмотр'
'предшественник'
'обладают_'
'инфраструктура_'
'бли_'
'аива'
'адвокат'
'Башкир'
'ue'
'стремительно_'
'принята_'
'нм'
'красив'
'боб'
'Скл'
'Прим'
'юу'
'хвост'
'родственник'
'противник'
'отмечали_'
'определять_'
'зимне'
'задержать_'
'загрузк'
'головного_'
'ici'
'book_'
' ?  _'
'экологической_'
'шторм'
'фрукты_'
'перерыв'
'отбора_'
'одобрила_'
'овин'
'кры'
'коляск'
'гистра'
'вык'
'ален'
'Новак_'
'Антони'
'четки'
'собирались_'
'положил'
'иностранной_'
'белорусски'
'башн'
'Some_'
'фондом_'
'перебо'
'льч'
'комментарий_'
'добровольно'
'боятся_'
'Отказ'
'Корм'
'существу_'
'скид'
'серьезная_'
'вымогательств'
'вирусн'
'Яна_'
'Тя'
'Связ'
'Размер_'
'Криштиану_'
'Америка_'
'партнер'
'мяч'
'метрополитен'
'известная_'
'важной_'
'адвокаты_'
'Кипр'
'67'
'эр_'
'цах_'
'стабильны'
'политико'
'нуж'
'национальные_'
'кта_'
'ично'
'заказов_'
'Лав'
'Времен'
'ценам_'
'хранилищ'
'уйдет_'
'слуг'
'опроверга'
'нажи'
'ирующи'
'болезней_'
'Социальн'
'Сли'
'Ожида'
'Дон_'
'lig'
'9'
'чемпионату_'
'уровней_'
'китайские_'
'добыча_'
'Га_'
'экран'
'уголь_'
'страдает_'
'самоп'
'расчетам_'
'расстояние_'
'расположенн'
'офе'
'отход'
'нужд_'
'нашл'
'кандидатуры_'
'еврокубк'
'дше'
'военнослужащие_'
'аварийного_'
'Хк'
'Обу'
'Мину'
'Ингушетии_'
'Дж'
'pan'
'циф'
'касаются_'
'йстви'
'исполнять_'
'дуэт'
'дта'
'делах_'
'броск'
'анц'
'Причины_'
'ster'
'+ '
'шс'
'чте'
'финансовом_'
'слияни'
'оформлен'
'осужденных_'
'обк'
'молекул'
'консультаци'
'допуск'
'выдан'
'возн'
'Сег'
'Призна'
'Корейском_'
'Барак_'
'ents_'
'Kar'
'эволюци'
'совместное_'
'расчетов_'
'пно'
'отметал'
'мее'
'критику_'
'корне'
'Уор'
'УГ'
'Жел'
'Fin'
'Airlines_'
'стя'
'остан'
'нок'
'известн'
'закончилась_'
'дальне'
'встречах_'
'вероятны'
'бегу'
'ОГ'
'host'
'ъм'
'фотографий_'
'торы'
'необходимую_'
'йш'
'иста'
'исполнилось_'
'восстановил'
'вем'
'ging_'
'ene'
'сообщи_'
'раин'
'отношен'
'мм'
'заведений_'
'Юри'
'round_'
'face'
'eth'
'ресурса_'
'омб'
'зарплате_'
'емым_'
'генерал'
'ьме'
'учн'
'стату'
'создавал'
'проживают_'
'параметры_'
'отража'
'мене'
'йз'
'ища'
'достигал'
'дич'
'включать_'
'Сни'
'Правительств'
'ств'
'раненых_'
'поселени'
'научного_'
'месторождения_'
'Эр_'
'Татфондбанка_'
'coming_'
'шут'
'хлеб_'
'тенденции_'
'молча'
'илли'
'жско'
'выкладыва'
'вступит_'
'брендов_'
'Шей'
'ударил'
'стратегического_'
'причастн'
'посвященный_'
'показа_'
'лка'
'конкуренция_'
'инц'
'иб_'
'Тара'
'сие'
'рсс'
'потерпел_'
'необходимое_'
'десятку_'
'богат'
'айт'
'Прид'
'Манчини_'
'Информацию_'
'уб_'
'развернут'
'присвоени'
'отрицательны'
'металлически'
'компа'
'иках_'
'Korea_'
'хер'
'узко'
'оппозиционно'
'мусор_'
'ЮНЕСКО_'
'Кадырова_'
'mis'
'ha_'
'штат'
'рейс'
'ответом_'
'ивл'
'законо'
'достигло_'
'болезненн'
'rest'
'ea'
'тров'
'роуминг'
'референдуме_'
'отнош'
'ожн'
'коро'
'два'
'гео_'
'возд'
'астро'
'автомати'
'Ште'
'Брянск'
'points_'
'учениях_'
'превысила_'
'подар'
'ПСЖ_'
'Нат'
'Закон'
'hal'
'66'
'тяжелое_'
'сохранен'
'правит'
'постав'
'оказал_'
'ние'
'деревянны'
'story_'
'проектировани'
'повал'
'перевал'
'аса_'
'Мора'
'Йк'
'цб'
'убить_'
'тирован'
'предназначенны'
'популярным_'
'победи'
'передо'
'опци'
'настоящим_'
'назначить_'
'деловой_'
'гии_'
'Мех'
'ngs_'
'Mal'
'функционирова'
'ужден'
'требовал_'
'сент'
'применить_'
'оценивать_'
'оригинал'
'легковых_'
'выо'
'Фк'
'СА_'
'ИИ_'
'рису'
'областны'
'аит'
'Пул'
'Коммунист'
'parents_'
'class'
'потрати'
'Цк'
'Сок'
'alt'
'17'
'устанавливать_'
'саммит_'
'рыночной_'
'роф'
'расследований_'
'етно'
'доц_'
'Чуркин'
'Звер'
'Жм'
'Вет'
'ящая_'
'разделени'
'предлагаю'
'ближ'
'Спортсмен'
'Голов'
'exc'
'decision_'
'bn_'
'прови'
'первично'
'островах_'
'онос'
'английском_'
'автомобилист'
'Соглашение_'
'Ме_'
'Ени'
'often_'
'шли'
'чал_'
'саду_'
'появлял'
'куст'
'высказывани'
'вных_'
'Филипп_'
'юу_'
'эо_'
'условно'
'ург'
'упрек'
'сер_'
'расст'
'поку'
'муниципалитет'
'мировые_'
'емен'
'брю'
'антитеррористическ'
'Пермского_'
'pil'
'тц'
'стекла_'
'рут'
'исход_'
'вч'
'американское_'
'НК_'
'Азербайджана_'
'цц'
'сса_'
'ракетный_'
'осуществить_'
'обществ'
'лежал'
'аря_'
'алимент'
'Иу'
'Волков_'
'unt'
'90'
'ушк'
'стадион'
'попадает_'
'подразумева'
'общественник'
'обстановки_'
'Яг'
'холодны'
'хав'
'реза'
'приехала_'
'подг'
'обре'
'минувшей_'
'ленные_'
'кци'
'законопроекте_'
'жав'
'евым_'
'диссертаци'
'Храм'
'рево'
'пожи'
'обвинен'
'мощностей_'
'медицинская_'
'иент'
'замечательны'
'ельным_'
'автопроизводител'
'Венесуэле_'
'thi'
'ько'
'созданием_'
'скот'
'сери'
'приставов_'
'подан'
'ное'
'минувшие_'
'Разумеется_'
'edi'
'area_'
'экономист'
'подобной_'
'оппозиционера_'
'инск'
'занималась_'
'допусти'
'ini'
'тль'
'теннисист'
'отом'
'мето'
'медикам'
'культуру_'
'куль'
'касал'
'зли'
'варен'
'Свободно'
'Олимпи'
'Липецк'
'Арсенал_'
'ow_'
'Spi'
'тюрьму_'
'рыночны'
'ровал'
'пры'
'поколений_'
'националист'
'научные_'
'моде'
'лой_'
'кофе'
'инсульт'
'закончился_'
'верну'
'Таллинне_'
'Сна'
'чд'
'территорией_'
'рова'
'подтверждают_'
'отправиться_'
'нала'
'лика'
'компенсировать_'
'еал'
'бров'
'Пенси'
'ete'
'фантази'
'туш'
'сценарист'
'сее'
'мбу'
'ловк'
'жал_'
'горячей_'
'nam'
'явны'
'установила_'
'туа'
'специал'
'признаков_'
'привыкли_'
'перепо'
'ляют_'
'исполнил'
'забить_'
'енты_'
'возрос'
'возможно'
'Свердловск'
'Парк_'
'Мероприятие_'
'Анжи_'
'Friday_'
'фундамент'
'собаки_'
'лье'
'гер_'
'британских_'
'Курил'
'seven_'
'Un'
'трет'
'трансляции_'
'показыва'
'освобождение_'
'неосторожности_'
'кадр'
'йв_'
'зама'
'группировок_'
'голосовании_'
'вол_'
'банко'
'ажд'
'Барселона_'
'ik'
'шов'
'ценов'
'усе'
'упл'
'сформулирова'
'нив'
'назначенны'
'лиг'
'закупка'
'взрыво'
'Эва'
'Рит'
'Молодой_'
'Интернете_'
'Ель'
'ugh'
'экзамен'
'ску_'
'религи'
'подготовленны'
'пект'
'откро'
'насе'
'минувшую_'
'долг'
'возобновлени'
'вложил'
'ввоз'
'асно'
'Отра'
'Курс_'
'трагеди'
'строит'
'стартова'
'йти_'
'ваг'
'Конгресс_'
'Гат'
'market_'
'Er'
'экспозиции_'
'слушаний_'
'сдержива'
'потребовал'
'подтверждения_'
'обошлось_'
'лял'
'демонстрации_'
'активной_'
'Ира'
'Була'
'ыно'
'цепочк'
'утверждени'
'удовольствие_'
'темпами_'
'стола_'
'правящ'
'пива_'
'олог_'
'неф'
'намерено_'
'крестьян'
'зко'
'ельное_'
'готовиться_'
'выборн'
'Уни'
'Био'
'pass'
'gan'
'Le_'
'ющи'
'пь'
'прошедших_'
'подавать_'
'певца_'
'образова'
'напали_'
'естественны'
'Карп'
'stic'
'Hea'
'Chi'
'80'
'58'
'транспортное_'
'слови'
'разного_'
'проверяют_'
'подза'
'образу'
'мое'
'матр'
'котор_'
'епе'
'взыска'
'архитектуры_'
'Лаг'
'port_'
'цп'
'собира'
'ритори'
'поликлиник'
'паром'
'огор'
'нахо'
'маленьких_'
'жесткие_'
'вь'
'вн_'
'Бле'
'хватало_'
'соответств'
'президен'
'почты_'
'пона'
'нормам_'
'населению_'
'мини'
'иМ'
'зь'
'Справедливой_'
'финал'
'следовало_'
'предусмотрены_'
'поясни'
'Яз'
'Цм'
'done_'
'тип_'
'считал_'
'противном_'
'перестан'
'мае'
'голов'
'выявлено_'
'Яу'
'uk'
'судах_'
'собственное_'
'принадлежал'
'коалиция_'
'замыка'
'бь'
'ЛА'
'Зе_'
'Девят'
'Госс'
'Альб'
'созна'
'сменил_'
'серийно'
'рич'
'прототип'
'пособия_'
'задержанн'
'гид'
'Пери'
'Казалось_'
'Всемирной_'
'терроризм_'
'реш'
'проводи'
'преподавател'
'премьеру_'
'опозна'
'министры_'
'заемщиков_'
'Трех'
'Расп'
'РЭ'
'Дани'
'Гк'
'Ёк'
'Team_'
'требованию_'
'проо'
'признанны'
'опережа'
'обнаружения_'
'ирован_'
'Рау'
'Воробьев_'
'Алексеем_'
'dev'
'умо'
'службой_'
'поразил'
'мексикан'
'коллегам_'
'истр'
'иел'
'значени'
'заслуги_'
'диагноз'
'ветеран'
'везе'
'брон'
'ават'
'Таб'
'ынх_'
'факт'
'северокорейски'
'роект'
'рер'
'пст'
'приветств'
'правительственных_'
'истра'
'Реп'
'ws_'
'Vis'
' " , -'
'яде'
'ыя'
'психологическо'
'прямого_'
'процентн'
'пристав'
'попадал'
'пам'
'мясо'
'крипто'
'комфортны'
'кист'
'выми_'
'аудит'
'Ростуризм'
'Развитие_'
'Работ'
'rb'
'Сод'
'Бого'
'Pre'
'субсиди'
'столкновение_'
'ремн'
'рали'
'призыв_'
'признавал'
'переи'
'корректировк'
'жур'
'выступлении_'
'Эт_'
'Свои_'
'Лам'
'Европейской_'
'Дель'
'Бул'
'употребление_'
'роя'
'роди'
'очек_'
'кову_'
'зрителям_'
'замеча'
'задумыва'
'ерско'
'вершин'
'Вячеслав'
'1985_'
'янин'
'хозяин_'
'советы_'
'приятел'
'поре'
'помешать_'
'подел'
'пенсионных_'
'отлича'
'отбор'
'инспекции_'
'завоевал_'
'ешк'
'енс'
'водны'
'ОН'
'ьв_'
'часты'
'ткани_'
'сумели_'
'современный_'
'свободно_'
'практическо'
'пояс_'
'нстр'
'местная_'
'имени'
'имат'
'дте'
'внедрение_'
'Южно'
'Куб'
'соверши'
'пригласили_'
'итогов_'
'железнодорожны'
'воспитанник'
'Франк'
'Технологи'
'eight_'
'countries_'
'bor'
'тезис'
'сделают_'
'отвечают_'
'некотор'
'наме'
'лаз'
'использован'
'ельс'
'бои_'
'Председател'
'Ака'
'ern_'
'Yo'
'стабильность_'
'рван'
'расклад'
'проща'
'приходил'
'примирени'
'подготовил_'
'оня'
'йных_'
'зировать_'
'дружб'
'аС'
'Уро'
'101_'
'уменьшени'
'судн'
'сжи'
'призер'
'пожарных_'
'подрыв'
'пешеходно'
'отвечал_'
'обеспечит_'
'меняет_'
'маленький_'
'ети_'
'встал_'
'Коммер'
'tte'
'рыночн'
'льк'
'итальянц'
'демо'
'вольно'
'арендатор'
'key_'
'шер'
'теряет_'
'областном_'
'лят'
'интересные_'
'белорус'
'УЗ'
'ches'
'яю_'
'футбол'
'религиозных_'
'прито'
'настроения_'
'местном_'
'лишне'
'иря'
'затягива'
'един'
'выпускать_'
'алк'
'азн'
'Петро'
'Зон'
'Деми'
'ях'
'хово'
'собеседники_'
'прео'
'порв'
'орны'
'наименовани'
'клеток_'
'заместител'
'замены_'
'емон'
'давлением_'
'авари'
'Уче'
'Родин'
'Ата'
'nit'
'фу_'
'тл'
'таци'
'стройк'
'сильной_'
'подчеркивают_'
'подвеск'
'наступление_'
'намечен'
'зит_'
'доро'
'Свое_'
'mber'
'янско'
'традиционн'
'самолете_'
'оплате_'
'незаме'
'изучать_'
'заход'
'еь_'
'дневник'
'детском_'
'Миг'
'Лариса_'
'Кореей_'
'manage'
'Bell'
'экономически_'
'хранить_'
'фокус'
'фель'
'статей_'
'сообщени'
'призывают_'
'Пекин_'
'Лиз'
'Киев'
'Катар_'
'шко'
'хни'
'турбо'
'споры_'
'соответствующей_'
'ключевые_'
'иши'
'довел'
'дем_'
'гриб'
'глобальной_'
'внедрения_'
'баллистическ'
'аккаунте_'
'Свер'
'Набиуллина_'
'ami'
'Bal'
'экраны_'
'тина_'
'сооружений_'
'нил'
'дк'
'бет'
'ФБК_'
'Киевом_'
'Инно'
'сред'
'ракету_'
'продолжени'
'определил'
'нио'
'наслед'
'выпр'
'бензиновы'
'Чего_'
'spi'
'among_'
'юристов_'
'утств'
'усилит'
'тски'
'тишин'
'прекраща'
'обнаружить_'
'оал'
'матчем_'
'мал_'
'кислород'
'застр'
'жник'
'Уай'
'Маш'
'tho'
'lac'
'ai'
'языков_'
'экономическим_'
'четырем_'
'убили_'
'трудовых_'
'свидетельств'
'популярной_'
'оторва'
'отдали_'
'наш'
'миллион'
'законодательстве_'
'абл'
'Ък'
'Ран_'
'Парижа_'
'pay'
'lat'
'яо_'
'ябр'
'фаворит'
'указом_'
'средством_'
'рупп'
'рси'
'ровк'
'посред'
'порно'
'плеч'
'открытой_'
'деи'
'винт'
'Югра_'
'Ым'
'Ирин'
'nic'
'рыва'
'рский_'
'реконструкцию_'
'пересека'
'отправлен'
'менеджер'
'космодрома_'
'етл'
'дочер'
'Феде'
'Прот'
'ise_'
'230_'
'юристы_'
'читателей_'
'тыва'
'турист'
'транспортные_'
'ськ'
'рыбак'
'превраща'
'покупателя_'
'оши'
'мино'
'должник'
'Фл'
'Куп'
'ИП'
'поднялся_'
'палату_'
'короля_'
'запрещен_'
'впечатл'
'бог'
'Народный_'
'пусты'
'поляк'
'овь'
'мар_'
'вист'
'Францию_'
'Жк'
'our'
'фел'
'скива'
'ресторан_'
'порци'
'опт'
'няк'
'мят'
'Юг'
'Часто_'
'Мав'
'Апо'
'чина_'
'рэпер'
'каба'
'жутк'
'детско'
'Рож'
'ПО'
'Вегасе_'
'lead_'
'порыв'
'ерге'
'дско'
'высокопоставленны'
'беременности_'
'Спр'
'All_'
'сегмент_'
'отличи'
'обру'
'запас_'
'врачам_'
'водит'
'Марсел'
'Доро'
'Вооруженные_'
'port'
'свалк'
'ихи'
'дополнен'
'бок_'
'Миров'
'Девушка_'
'Антонио_'
'doing_'
' % ) '
'учеб'
'сократился_'
'свеч'
'персонал_'
'недр'
'недел'
'милиции_'
'лег'
'копеек_'
'затронул'
'етил'
'долларов'
'вну'
'валов'
'Хир'
'установку_'
'пережил'
'надеемся_'
'книжк'
'европ'
'агра'
'Пог'
'Дис'
'Гиль'
'lli'
'Spe'
'Porsche_'
'ьские_'
'центральных_'
'тности_'
'социальную_'
'регулирование_'
'понрави'
'неожиданно'
'напомнили_'
'монет_'
'менял'
'вный_'
'бли'
'Ря'
'ыра'
'тст'
'сверху_'
'рабочем_'
'прожиточного_'
'оры'
'нанес'
'миллиард_'
'гут_'
'влиять_'
'влени'
'верил'
'Семен'
'Организация_'
'Нападающий_'
'Минтранс_'
'Действ'
'Воронежской_'
'gt'
'Pen'
'тихо'
'страдал'
'состо'
'работающие_'
'понят'
'пич'
'мисси'
'комплект'
'исправить_'
'исполнителей_'
'зил'
'девушк'
'блокчейн_'
'Джордж_'
'itu'
'Info'
'ушка_'
'реставраци'
'организованны'
'оперативно'
'миз'
'драматург'
'Хасан'
'Турист'
'Собра'
'Свое'
'dea'
'телеканале_'
'сериал'
'приносит_'
'погод'
'мамы_'
'броса'
'юбиле'
'трактов'
'снят_'
'охраня'
'нужн'
'нсе'
'жам'
'валюте_'
'Шп'
'Опр'
'МФЦ_'
'spoke'
'украинск'
'узи'
'поклонников_'
'петербуржц'
'осб'
'обуча'
'мозг'
'исключение_'
'ильно'
'встретились_'
'вига'
'Пэ'
'wr'
'ьф'
'танк_'
'стандарт_'
'сино'
'одноименно'
'мме'
'зван'
'высоту_'
'аксессуар'
'Ьк'
'Гоголь_'
'Арх'
'181'
'шаг'
'трагедия_'
'текста_'
'пострадавш'
'моз'
'лекс'
'довести_'
'вложения_'
'агента_'
'Актер_'
'cal_'
'цикла_'
'сообща_'
'очен'
'овы_'
'мид'
'коэффициент'
'комнате_'
'инженерно'
'всемирно'
'Урала_'
'sor'
'gn'
'черного_'
'страх_'
'ресторана_'
'раунда_'
'присвоен'
'поддельны'
'кубо'
'иальн'
'дель_'
'Сети_'
'650_'
'тревог'
'резко'
'приобретения_'
'приобретен'
'полож'
'национальную_'
'лст'
'возмещения_'
'sing'
'dic'
'электром'
'сообщник'
'сои_'
'рр'
'прост'
'онным_'
'называл_'
'ключевым_'
'иС'
'yon'
'хоккейной_'
'усилил'
'убира'
'таково'
'сегодняшни'
'разногласия_'
'прете'
'новейши'
'логов_'
'жали_'
'дии_'
'депозита'
'бабушк'
'Банки_'
'Андре_'
'Nic'
'янк'
'тек_'
'превышать_'
'почи'
'оказывал'
'обещали_'
'критери'
'добыт'
'детстве_'
'гай'
'Эммануэль_'
'Таган'
'шеф_'
'участк'
'развивал'
'означа'
'овар'
'кислот'
'ител'
'заявленны'
'займ'
'зажига'
'ехал_'
'брака_'
'Хм'
'Университета_'
'Рог'
'Мб'
'Изв'
'робот'
'наличия_'
'машино'
'лено_'
'касающ'
'Нак'
'БО'
'Tru'
'' _'
'соседних_'
'распространенны'
'помним_'
'поед'
'отвечая_'
'наезд_'
'звон'
'госпитал'
'водно'
'быстр'
'Тет'
'Новосибирской_'
'lif'
'сади'
'пун'
'просл'
'обширн'
'мане'
'малом'
'using_'
'Associated_'
'фис'
'существенно'
'страт'
'саму_'
'работникам_'
'прип'
'ночны'
'нга'
'золотой_'
'зацию_'
'законопроектов_'
'встречался_'
'введен'
'вае'
'бросил'
'агресси'
'САШ_'
'Зы'
'tt_'
'формировании_'
'урк'
'сиво'
'разному_'
'крут'
'илов'
'аукцион'
'Эмм'
'тношени'
'стандарты_'
'собрани'
'сенатор'
'рече'
'пок_'
'оъ'
'оказали_'
'кш'
'инновационно'
'довер'
'взлом'
'Проко'
'Поиск'
'тти_'
'подписк'
'открыла_'
'материальны'
'кей'
'дово'
'биз'
'Христо'
'regi'
'ex'
'dn'
'чала_'
'региональным_'
'подошел_'
'модернизацию_'
'концепцию_'
'живых_'
'жестоко'
'Мод'
'Горбачев'
'этно'
'цвет'
'танов'
'прямые_'
'приво'
'поэта_'
'потребител'
'пилота_'
'йц'
'запи'
'антн'
'ански'
'ывал'
'тили_'
'продолжающ'
'очного_'
'открыти'
'ляется_'
'лго'
'кса_'
'входящих_'
'Донецка_'
'saw_'
'Online_'
'текущ'
'покину'
'будь_'
'акр'
'Федора_'
'РОС'
'disp'
'увольнения_'
'пояснительной_'
'останки_'
'затронут'
'Подобные_'
'Др'
'Генеральной_'
'эне'
'эндо'
'проработа'
'планк'
'онист'
'нх'
'мировым_'
'зай'
'ТЭ'
'Коль'
'ГП'
'rs'
'dra'
'child_'
'bit_'
'столица_'
'рожа'
'рите'
'продлен'
'подушк'
'планете_'
'орн'
'орбиту_'
'онст'
'новы_'
'мка'
'ительной_'
'забег'
'веща'
'Судья_'
'Зенит'
'Григор'
'security_'
'хау'
'утвержден_'
'счастье_'
'стражи_'
'отсутств'
'напряженности_'
'кори'
'занимаю'
'голь'
'актуально'
'Флорид'
'Гео'
'é'
'тематик'
'смотрят_'
'сахар_'
'известным_'
'Стороны_'
'Нин'
'Вероятно_'
'nn'
'усложн'
'террориста_'
'сестра_'
'поставщик'
'пистолет_'
'пешеходны'
'осм'
'опло'
'крейсер'
'запрещенны'
'вся'
'баллон'
'Рав'
'Немцова_'
'Арен'
'щю'
'тал'
'сторонни'
'событи'
'привяз'
'каналы_'
'исключают_'
'дворце_'
'Томас_'
'яте'
'флот_'
'умент'
'сэкономить_'
'налогообложения_'
'коп_'
'задни'
'восьмо'
'административный_'
'Югры_'
'Академи'
'rel'
'этм'
'ывал_'
'следующее_'
'предполагалось_'
'исчезл'
'иет'
'законодател'
'верит_'
'Кис'
'Госсовета_'
'Son'
'News'
' . . _'
'яне_'
'ческ'
'символик'
'санкциями_'
'нова'
'мощи_'
'интересо'
'икт'
'габарит'
'важная_'
'Сибирь_'
'Сек'
'Банк'
'Аме'
'coa'
'ach'
'энт'
'уме_'
'телефоны_'
'скоп'
'выбира'
'аши'
'Совфеда_'
'Весь_'
'ide_'
'формально'
'украинскими_'
'посещение_'
'млад_'
'маш_'
'жиров'
'енко'
'географи'
'воск'
'Федеральный_'
'Недо'
'Васе_'
'water_'
'этил'
'уу'
'прогремел_'
'объект'
'ноя_'
'департаменте_'
'возвращен'
'Анджелес'
'эу'
'стви'
'нах'
'навер'
'минских_'
'йп'
'исполнит'
'испо'
'горя'
'весн'
'Этого_'
'Европейск'
'Ваши'
'members_'
'Wat'
'устраивает_'
'пуска'
'прорыв'
'посетител'
'поверхность_'
'побо'
'открыта_'
'осуществляться_'
'неизвестно'
'масс'
'избира'
'аналогичные_'
'ЖК_'
'Белгород'
'rat'
'NHS_'
'элитно'
'объединить_'
'кресло_'
'дости'
'глуп'
'востребованны'
'Шари'
'Самаре_'
'ustr'
'ято'
'фей'
'унк'
'тук'
'требова'
'отношени'
'образцы_'
'зая'
'доступности_'
'вокзал'
'Чита'
'Фла'
'ФР_'
'Защитник_'
'wit'
':  _'
'следователей_'
'рн_'
'облас'
'нефтяных_'
'киевско'
'выстрел'
'водных_'
'агрессивны'
'ТИ_'
'Музей_'
'Мексике_'
'Лог'
'Комиссия_'
'Барб'
'ыша'
'шины_'
'приобрета'
'приезжа'
'полт'
'педагогическ'
'нков'
'коробк'
'конкретн'
'Financial_'
'яче'
'условиями_'
'таг'
'стана_'
'сборов_'
'поселения_'
'полоса'
'повар'
'омс'
'гя'
'выпусти'
'Фло'
'log'
'цан'
'сочета'
'представительства_'
'повестке_'
'инициатор'
'гектаров_'
'берга_'
'антироссийск'
'Лебед'
'Башара_'
'Автомобил'
'чиновник'
'человеч'
'стремление_'
'соот'
'премьеры_'
'организме_'
'невн'
'кса'
'индивидуальных_'
'икл'
'запр'
'записк'
'ешн'
'ейс'
'Яп'
'ЮАР_'
'Ват'
'strike'
'America_'
'слух'
'проиграли_'
'покрытия_'
'отчета_'
'минимальны'
'марафон'
'лве'
'культурных_'
'залив'
'ерг_'
'гоо'
'близ'
'walk'
'ua'
'dar'
'Theresa_'
'уроженц'
'уг_'
'увеличились_'
'смене_'
'сердечно_'
'располагает_'
'проката_'
'запрети'
'автобусе_'
'Прог'
'ion'
'Hel'
'юби'
'шве'
'фонде_'
'сексуальных_'
'отменя'
'написан'
'моим_'
'местонахождени'
'еща'
'емп'
'Уильямс_'
'Рыба'
'Вм'
'Аро'
'71'
'утн'
'тельным_'
'рту'
'рск'
'ранне'
'отраслей_'
'лизи'
'Дд'
'stu'
'eat'
'Z_'
'торговый_'
'примеры_'
'приглашен'
'привычно'
'ольн'
'олин'
'оН'
'многоквартирных_'
'контента_'
'дополнительной_'
'банкнот'
'Церкви_'
'Георгия_'
'dly_'
'conce'
'bank_'
'almost_'
'форварда_'
'скрывал'
'река'
'ранни'
'проде'
'отказываются_'
'мегаполис'
'кости_'
'инциденте_'
'выявлени'
'выбер'
'вандал'
'авно'
'Минск_'
'hon'
'ыков'
'усилива'
'уроки_'
'рон_'
'опри'
'медо'
'кар_'
'ичи'
'инве'
'желан'
'Пальмир'
'xe'
'прир'
'претендовать_'
'подъем'
'отмечен'
'лением_'
'корпоративны'
'кандидат'
'жат'
'восточн'
'видеонаблюдения_'
'ало'
'РАНХиГС_'
'job_'
'эффективны'
'холо'
'ракетные_'
'разрешили_'
'инфекции_'
'етик'
'духе_'
'девочек_'
'РТ'
'Новосибирск'
'МЕ'
'ald_'
'тол_'
'стандартов_'
'действующ'
'Петров_'
'Каза'
'Государственн'
'rdi'
'hip_'
'уво'
'ставке_'
'сидеть_'
'предпр'
'площадей_'
'письм'
'отправи'
'объяснила_'
'йной_'
'вас'
'Век'
'услугами_'
'удостоен'
'трасса'
'стремлени'
'созданно'
'серьезную_'
'розыске_'
'прон'
'прави'
'отклонил_'
'имит'
'заподозрили_'
'ДС'
'Главн'
'weeks_'
'stage_'
'oy'
'Im'
'хож'
'трактор'
'телеком'
'сообщат_'
'расса'
'пригл'
'посвящена_'
'люд_'
'занн'
'естественно'
'действовал_'
'вручения_'
'бело'
'Это'
'Хра'
'Главы_'
'ГАЗ_'
'war_'
'чя'
'чиновникам_'
'цифров'
'тракт'
'рдо'
'прого'
'попросту_'
'подразумевает_'
'одобрили_'
'маршрута_'
'извинения_'
'гараж'
'альт'
'УН'
'ations_'
'торговля_'
'последняя_'
'пищев'
'неб'
'наказани'
'миа'
'медицинскую_'
'инициировал'
'войсками_'
'будущий_'
'бога'
'блы'
'ФАКТЫ_'
'Уго'
'Бм'
'court_'
'bl'
'Auto'
'ёд'
'тенденци'
'рм_'
'пул'
'представительниц'
'поддержала_'
'обращал'
'заповедник'
'график'
'горс'
'восприяти'
'ваших_'
'армейцев_'
'Став'
'Дзержинск'
'politic'
'Port'
'щина_'
'штр'
'срыва'
'скре'
'сближени'
'предусмотрена_'
'ппо'
'ничен'
'младшего_'
'злоумышленник_'
'зве'
'Фет'
'Ров'
'Подробн'
'ОС_'
'Акт'
'уволен_'
'тат_'
'таз'
'разбив'
'президиума_'
'поне'
'орс'
'краин'
'коснул'
'зла_'
'жден'
'большому_'
'бойцы_'
'Жанн'
'БД'
'disc'
'шев'
'произнес'
'предъявили_'
'нки'
'надо'
'морд_'
'ловн'
'ассамбле'
'Центре_'
'Неза'
'Най'
'Надежд'
'ЕС'
'Аргентин'
'post_'
'expected_'
'ьзова'
'частный_'
'нна_'
'ибо_'
'воли_'
'вные_'
'виц'
'ввода_'
'важную_'
'аналог'
'американскому_'
'Сине'
'Люк'
'спуска'
'советуют_'
'провокации_'
'полигоне_'
'океана_'
'лужб'
'ливан'
'девяти'
'впер'
'Эб'
'тельное_'
'рабочую_'
'проектно'
'персонал'
'насыщенн'
'мнении_'
'мелоч'
'лению_'
'концерн_'
'большинством_'
'Будем_'
'Telegraph_'
'CO'
'102_'
'уплат'
'сточн'
'притя'
'последовал'
'ноа'
'вие'
'Шур'
'Прис'
'Водител'
'Volvo_'
'59'
'устойчивы'
'удавалось_'
'специальная_'
'рода'
'массово_'
'крупнейшего_'
'завтрак'
'возложен'
'большевик'
'артист'
'Эди'
'Роси'
'Осенью_'
'Двор'
'Ва_'
'ученый_'
'уплени'
'повышать_'
'кля'
'итер'
'интерес'
'ида_'
'зафиксированы_'
'забрали_'
'горны'
'гб'
'выпускник'
'вред'
'Фестиваль_'
'Осе'
'Ким'
'КС'
'ИТ_'
'CI'
'янс'
'распространенно'
'коллективно'
'зать_'
'запол'
'девято'
'борд'
'Жар'
'Дин'
'Блок'
'consider'
'удален'
'тельск'
'счетах_'
'рри'
'ракетк'
'посети'
'панель'
'палато'
'охрану_'
'отразил'
'оим'
'объектом_'
'латин'
'зависимость_'
'дини'
'дид'
'гнут'
'брендом_'
'Нп'
'штрафной_'
'четко'
'роа'
'расчет_'
'отго'
'описыва'
'ноб'
'незаконных_'
'мэр'
'мая'
'лья'
'заканчивается_'
'еру'
'доставк'
'театрально'
'субъект'
'сражени'
'сго'
'представляется_'
'некачественн'
'неизбежн'
'значимых_'
'земляк'
'здо'
'заплат'
'анта_'
'РК'
'Пентагон_'
'close'
'торгах_'
'монт'
'банкротом_'
'актив'
'Хим'
'Митро'
'Кд'
'КБ_'
'считая_'
'революция_'
'ратор'
'пласт'
'отправлен_'
'конфликты_'
'консерватор'
'иня'
'звуко'
'выв'
'Средства_'
'Разб'
'Europe_'
'травм'
'скорректирова'
'полом'
'повлияет_'
'кз'
'илин'
'звуча'
'енч'
'глу'
'встречаются_'
'Шил'
'АП_'
'чут'
'черных_'
'хаб'
'травмами_'
'терри'
'ременно'
'реку_'
'общ'
'мпо'
'мощ'
'Французск'
'Уверен_'
'Сирия_'
'Ирак'
'Баск'
'Андрею_'
'Аба'
'trying_'
'ore_'
'уст_'
'сфер'
'покров'
'объединяет_'
'нско'
'нгел'
'мужской_'
'лидеру_'
'контролиру'
'кй_'
'каменн'
'бежал'
'Мать_'
'Будут_'
'Агро'
'урны'
'труб'
'стов'
'садовод'
'роит'
'пю'
'получател'
'конструкций_'
'запомнил'
'заключи'
'доработа'
'Нь'
'mea'
'llo'
'стреля'
'правитель'
'подобным_'
'писателей_'
'отличн'
'непредсказуем'
'независимой_'
'етов_'
'доходность_'
'гранич'
'ТП'
'Парк'
'Ога'
'Лоб'
'ger'
'deb'
'тою_'
'рованных_'
'полев'
'остей_'
'нев_'
'должн'
'возникнуть_'
'Уф'
'Вале'
'protect'
'третью_'
'столе_'
'препарат_'
'подт'
'ненависти_'
'начин'
'ляци'
'либ'
'ема_'
'дневны'
'Пого'
'Отм'
'ИМ'
'Джеймса_'
'чане_'
'усн'
'разду'
'потенциально_'
'обуви_'
'набрать_'
'лучи'
'лишним_'
'ески'
'гарант'
'брифинге_'
'анима'
'Щк'
'Кры'
'уголовные_'
'соприкосновения_'
'покор'
'пир_'
'отчитал'
'основател'
'конкурент'
'голуб'
'встрече'
'Сент_'
'эстонско'
'экст'
'олж'
'ната'
'модул'
'лений_'
'длинно'
'Эг'
'Че_'
'Систем'
'Серд'
'Свидетел'
'ПФ_'
'Организатор'
'show'
'Act'
'ьни'
'сло_'
'сериал_'
'оправдыва'
'ниях_'
'монстр'
'вида'
'ТИ'
'Домодедово_'
'Ём'
'ER'
'страж'
'снизи'
'передавать_'
'нго_'
'наст'
'живем_'
'еши'
'домашним_'
'высокок'
'Ростовск'
'Зуб'
'БР'
'Американ'
'likely_'
'ытн'
'урожай_'
'сообщае'
'смартфон_'
'руководящи'
'рже'
'радикальны'
'послужил'
'очко_'
'опубликованны'
'овав_'
'вного_'
'блокировк'
'ащ'
'яйц'
'электричества_'
'хокке'
'сложност'
'представит'
'ответственны'
'нод'
'невысок'
'лат'
'кредитного_'
'гоп'
'бду'
'анн'
'player_'
'чтению_'
'собак'
'розничной_'
'рассчита'
'промах'
'посчитали_'
'понадобил'
'победителя_'
'отче'
'имир'
'зж'
'Судан'
'Свят'
'ОО'
'Лм'
'Белорусск'
'whe'
'tt'
'nb'
'Land_'
' )  _'
'рде'
'оформля'
'начина'
'нато'
'найдено_'
'личным_'
'легково'
'компан'
'издани'
'горк'
'вино'
'виза'
'взято'
'берег_'
'Ык'
'Краснодарском_'
'ek'
'CA'
'туман'
'срочно'
'скандально'
'руководстве_'
'размером_'
'плот'
'занято'
'закончится_'
'задания_'
'встрети'
'вли'
'взгляда'
'Чайк'
'Сотрудни'
'СЕ_'
'Зло'
'How_'
'тои'
'позв'
'ове_'
'многими_'
'единственной_'
'дный_'
'ачал'
'reg'
'четы_'
'устанавливаются_'
'тако'
'сду'
'открылась_'
'неоднозначн'
'надеяться_'
'исполкома_'
'искусственны'
'загрязн'
'вк_'
'Саму'
'Ракк'
'Жан'
'Sta'
'тыл'
'меньш'
'комисси'
'закрыты_'
'доверя'
'Палат'
'энергетической_'
'рай_'
'мыс_'
'командир_'
'йство_'
'взр'
'вак'
'аргумент'
'англичан'
'general_'
'транс_'
'проигра'
'межп'
'единицы_'
'водя'
'Счита'
'ep_'
'чк'
'связыва'
'раков'
'размещены_'
'переб'
'отны'
'освобождении_'
'объявля'
'масштаб'
'крупнейшей_'
'выполнении_'
'РМ'
'НГ_'
'Взрыв_'
'Борусси'
'name_'
'87'
'проспекта_'
'предварительны'
'пластиковы'
'офицер'
'земле'
'домашнем_'
'ФГ'
'Малайзии_'
'ГЛОНАСС_'
'Bel'
'шать_'
'террористическая_'
'сбой_'
'полет'
'опубликова'
'онное_'
'ональны'
'обращени'
'надзор_'
'двигал'
'встреча'
'билет'
'Co_'
'экспериментальн'
'сыграла_'
'силах_'
'проведено_'
'поступают_'
'постоянный_'
'полигон'
'основан_'
'окружении_'
'одобрения_'
'образований_'
'неос'
'марка_'
'дла'
'автовладельц'
'nc'
'физически_'
'фанатов_'
'уходить_'
'резервы_'
'передано_'
'общен'
'начальн'
'мско'
'красной_'
'иса'
'евал'
'аэропортах_'
'Яро'
'Саратове_'
'Родители_'
'Арбат'
'kh'
'числ'
'чал'
'фат'
'рант'
'ракт'
'платформе_'
'оз_'
'незаконного_'
'люци'
'двухлетн'
'верн'
'Ростех_'
'Металлург'
'ood_'
'ошиб'
'называемого_'
'москвичи_'
'красивы'
'кома_'
'киевлян'
'избрал'
'выз'
'бав'
'further_'
'тренеров_'
'стен'
'присутствовали_'
'примера_'
'преи'
'нп'
'мериканск'
'между'
'йер'
'деталь'
'внутренний_'
'види'
'Татар'
'шегося_'
'тсв'
'стандартны'
'соперниц'
'росл'
'подума'
'нанесени'
'линг'
'кругах_'
'йк'
'зала'
'для'
'Минюста_'
'Косово_'
'Гил'
'dal'
'японской_'
'хром'
'скважин'
'сельскохозяйственн'
'меся'
'комментирует_'
'капитализаци'
'инициирован'
'инвестиционн'
'диаг'
'дал'
'возвращал'
'внешнего_'
'безу'
'Шереметьево_'
'Стамбул'
'Петер'
'Наш'
'Кел'
'Sim'
' : - _'
'слышал_'
'репутаци'
'продвижени'
'привлечены_'
'поми'
'отп'
'кола'
'запах'
'жов'
'выделенных_'
'аторы_'
'Общественно'
'Зор_'
'Зер'
'Владивостока_'
'Борисов_'
'test'
'экологическ'
'хст'
'хали'
'реше'
'находил'
'выращива'
'влияют_'
'благодарн'
'атри'
'ОН_'
'Жор'
'Боле'
'sli'
'recent_'
'Ir'
'убиты_'
'уал'
'твенны'
'спикер'
'правильно'
'ощутим'
'опаса'
'ограждени'
'валютно'
'Тбилиси_'
'Мега'
'Лив'
'fle'
'штурм'
'уникальный_'
'прогнозирует_'
'обычные_'
'облада'
'нале'
'лиф'
'командира_'
'залива_'
'жите_'
'виш'
'беду'
'Щу'
'Пя'
'Подн'
'ЕВ'
'ДВ'
'явления_'
'юбилей_'
'экспедици'
'экологи'
'щиеся_'
'тг'
'сформирован'
'поруч'
'мировое_'
'йг'
'инструктор'
'автомобилях_'
'Петренко_'
'МР'
'Каков'
'minutes_'
'direct'
'Grand_'
'прм'
'переворота_'
'наби'
'мягко'
'мерны'
'еча'
'ество_'
'дедушк'
'государствами_'
'апрель_'
'Христа_'
'ярко_'
'шахт'
'специальную_'
'спасибо_'
'смы'
'подготов'
'нови'
'колле'
'заочно_'
'дисс'
'десяты'
'Ру_'
'Пода'
'Казахстане_'
'product'
'Bor'
'чие_'
'уделя'
'старт'
'ссуд'
'соединени'
'руководит_'
'постановки_'
'отпустили_'
'лекарственных_'
'концесси'
'казак'
'еской_'
'доставлен'
'дивиденды_'
'вай'
'активами_'
'аР'
'Киевской_'
'vat'
'passe'
'стояще'
'рассм'
'победили_'
'опасени'
'олл'
'обязал_'
'мате'
'масштабно'
'запах_'
'еан'
'диалог'
'Сд'
'ОВ_'
'Лов'
'Америку_'
'yc'
'suggest'
'fans_'
'University_'
'туро'
'тани'
'иное_'
'ержа'
'доработк'
'Хос'
'Филипп'
'ПТ'
'ЛО'
'Дональду_'
'ыгин'
'соли_'
'решенн'
'отелей_'
'общ_'
'найден'
'ица'
'ийско'
'избрания_'
'заново_'
'гдо'
'выходц'
'аста'
'Эф'
'Чудо'
'Сечина_'
'Пора'
'fin'
'ый'
'хлеба_'
'ужа'
'тяжел'
'тиз'
'съезде_'
'сократил'
'протестов_'
'ознакомиться_'
'обст'
'оборонны'
'лун'
'лечении_'
'коммунист'
'гск'
'гог'
'волшебн'
'автобусы_'
'Опыт'
'Огонек_'
'  ,'
'тило'
'спровоцировал'
'пустын'
'нности_'
'ивали_'
'дш'
'дей_'
'урно'
'тоо'
'сан_'
'рассуждает_'
'прибы'
'потенциала_'
'подтверди'
'подвод'
'основана_'
'маршруты_'
'иты'
'жак'
'аен'
'Шарапова_'
'Куда_'
'ak'
'And'
'ятс'
'экономическ'
'чисто'
'прогнозу_'
'падает_'
'лг'
'значи'
'жденн'
'авиаци'
'Соответствующ'
'Соловьев_'
'чувств_'
'терапии_'
'связям_'
'любая_'
'вой'
'баланса_'
'Рейтинг_'
'Раб'
'ыни'
'рши'
'прослуш'
'проин'
'переоцен'
'кавказ'
'жы'
'донор'
'документально'
'артиллери'
'Фок'
'Говоря_'
'ВК'
'services_'
'холодильник'
'стихии_'
'смартфона_'
'оправ'
'оппонент'
'иП'
'замет'
'Трап'
'Стрель'
'Бо_'
'SP'
'пх'
'проспект_'
'очко'
'мент'
'июнь_'
'елями_'
'достоверн'
'демократической_'
'вял'
'Волго'
'Барр'
'according_'
'Dis'
'ямы_'
'ьте'
'промышленность_'
'неизменн'
'курсу_'
'криминальны'
'красный_'
'контрольно_'
'жут_'
'выли'
'Хд'
'случайны'
'признается_'
'обстрел'
'мирово'
'закрыта_'
'высших_'
'вини'
'Энд'
'RNS_'
'хина_'
'уви'
'тик'
'способн'
'рисова'
'разнообразны'
'работника_'
'прокате_'
'поря'
'перестал_'
'перенес'
'отц'
'оспорить_'
'ожидаются_'
'исти'
'дного_'
'вен_'
'бру'
'Марк'
'Идлиб_'
'Злоумышленник'
'Гала'
'федерация_'
'ующего_'
'утк'
'реформу_'
'подтверждающи'
'организм'
'месторождений_'
'ичем_'
'икаци'
'законным_'
'вывода_'
'атск'
'Истори'
'Внешн'
'Быстр'
'ges_'
'эот'
'присоединения_'
'обвал'
'оав'
'нейтральным_'
'мирны'
'международная_'
'выбросов_'
'английский_'
'Расследование_'
'Даниил_'
'Весной_'
'cast'
'Royal_'
'эстонски'
'решена_'
'распи'
'позвонил_'
'общеп'
'низкая_'
'менты_'
'вер_'
'target'
'ционный_'
'универсал'
'тад'
'прохожих_'
'предупредили_'
'пари'
'клиентами_'
'керо'
'изе'
'ившего_'
'Сумм'
'ti_'
'техно'
'распространя'
'ожно'
'оВ'
'мг'
'ковского_'
'зами'
'годи'
'вестн'
'активнее_'
'Эрдогана_'
'Клинцевич_'
'Золот'
'ston'
'hand'
'тиру'
'сал_'
'рассказ_'
'разнообрази'
'позволя'
'облс'
'методик'
'иона_'
'восстановлению_'
'бж'
'Иер'
'Зя'
'real_'
'уты'
'судебном_'
'прозв'
'принимаются_'
'орто'
'округу_'
'норвежск'
'несправедливо'
'набирает_'
'миротворцев_'
'доров'
'влад'
'Сум'
'СПЧ_'
'Йм'
'together_'
'1967_'
'хулиган'
'уступил_'
'урб'
'сестры_'
'отсу'
'обм'
'кус'
'исты'
'запустили_'
'арбитражный_'
'Советск'
'Курт'
'Коммерсант'
'ярк'
'рал_'
'проповед'
'неоднократн'
'комплекс'
'кве'
'итет'
'иму'
'деклараци'
'гонку_'
'богатств'
'Ямал'
'МРОТ_'
'rit'
' .  '
'эффективно'
'четвертой_'
'уба'
'специальное_'
'проле'
'премий_'
'информирова'
'изъяти'
'изменил_'
'змом_'
'дил_'
'Участие_'
'Уп'
'являю'
'утро_'
'сократилась_'
'нять_'
'мпи'
'границах_'
'воздействи'
'ваша_'
'МКАД_'
'электри'
'положением_'
'повышенной_'
'лавин'
'комиссий_'
'ану'
'Материал'
'Говорит_'
'Stor'
'ярких_'
'шку_'
'шет'
'заяви'
'завышен'
'демографическ'
'аварий_'
'МегаФон'
'Лон'
'Ве_'
'Pan'
'ушиб'
'ухудша'
'уду'
'собе'
'прибыла_'
'обсуждаться_'
'кули'
'дено'
'губернаторы_'
'бельгийск'
'Партнер'
'Минс'
'ящего_'
'располагается_'
'разбо'
'начинал'
'намеренно_'
'корпораци'
'еров'
'ваканси'
'быстрого_'
'Шд'
'Уот'
'Лента_'
'rie'
'hte'
'шд'
'упражнени'
'станиц'
'сельских_'
'родственн'
'разрушен'
'продолжения_'
'пово'
'парни'
'нро'
'ледокол'
'кка'
'заму'
'елю_'
'ажива'
' ' '
'ьско'
'хозяйк'
'фигурист'
'рки'
'пш'
'прям'
'побор'
'описани'
'онк'
'нефтепро'
'мене_'
'лли'
'йод'
'ивод'
'включения_'
'вий'
'бум'
'Военно'
'ri_'
'addi'
'ём'
'тюке_'
'сустав'
'предельно_'
'объективно'
'крест'
'комбинаци'
'ЦК'
'Ре_'
'Оста'
'Ирландии_'
'Иркутск'
'ury_'
'трах'
'правду_'
'петь_'
'нце'
'лидирует_'
'информ_'
'дипломата_'
'вылетел_'
'bill'
'Express_'
'тысяче'
'соратник'
'современном_'
'произошедши'
'позицией_'
'пожарные_'
'орош'
'нагл'
'мобильный_'
'избирательн'
'достигнет_'
'вопрос'
'ально'
'Юрист'
'Стро'
'Сле'
'Приднестровь'
'Исследователи_'
'ture_'
'Chelsea_'
'способно'
'сборник'
'путешествие_'
'пусков'
'наг'
'дател'
'госпитализировали_'
'ветеринар'
'Переговоры_'
'МТ'
'хот_'
'прек'
'потребность_'
'построи'
'перевозчика_'
'некогда_'
'маршрутов_'
'американскую_'
'Перм'
'hn'
'bs_'
'язан'
'отмечае'
'онал'
'знала_'
'алкогольны'
'Штатах_'
'Поч'
'ries_'
'эффективной_'
'хорош_'
'това'
'строил'
'семейн'
'рны'
'растительно'
'пропуска_'
'мю'
'ковский_'
'заключению_'
'дож'
'довод'
'бред'
'блюда_'
'Фили'
'Утр'
'Сь'
'Реджеп_'
'Лос'
'Ленинград'
'cre'
'уре_'
'троп'
'стоящи'
'столкновений_'
'состоявши'
'рч'
'проживающи'
'переза'
'очку_'
'отверга'
'обнародован'
'начинать_'
'записан'
'ждал_'
'европейский_'
'дисциплина'
'внутренн'
'Сергеев'
'Пекине_'
'important_'
'ber_'
'She'
'тсе'
'содержатся_'
'сну'
'робота_'
'районн'
'привезли_'
'отменены_'
'нид'
'координации_'
'зау'
'желез'
'еврейско'
'дочки_'
'аллерги'
'Элл'
'ХХ_'
'Иерусалим_'
'Европейски'
'Rob'
'ыки'
'штабе_'
'трудовой_'
'осет'
'обсу'
'миграционны'
'лекции_'
'госзакупок_'
'Титов_'
'Михайлов'
'pur'
'щаяся_'
'читает_'
'уничтожения_'
'семе'
'понятия_'
'подешевел'
'натурально'
'мирн'
'контракту_'
'инци'
'застройк'
'дае'
'выставил'
'винн'
'асфальт'
'Наруш'
'Горд'
'АВ'
'law_'
'dat'
'Qu'
'хоккей_'
'удобно_'
'снизил'
'пай'
'направлениях_'
'мари'
'гой_'
'вступает_'
'Фактически_'
'Вак'
'keep_'
'шей'
'шедевр'
'чистый_'
'ця'
'устанавливается_'
'тепли'
'темп_'
'рг_'
'пролет'
'присутствии_'
'назначили_'
'исполнительны'
'ерг'
'дешев'
'богато'
'ач_'
'аторов_'
'август'
'Хав'
'Слова_'
'Сет'
'Литве_'
'Крас'
'Европ'
'leave_'
'Of_'
'1930_'
'чак'
'подорожал'
'иш_'
'депресси'
'Сказ'
'Дли'
'twi'
'уете_'
'посадки_'
'пожар'
'основыва'
'оригинально'
'объектив'
'обстрелов_'
'миллиметров'
'испорти'
'избирательного_'
'игроками_'
'веск'
'Кале'
'Ален'
'OS_'
'юных_'
'примером_'
'похож_'
'потенциально'
'пообеща'
'перов'
'оиз'
'наказан'
'найм'
'министра'
'дожи'
'Приморского_'
'Показа'
'yt'
'tal'
'угол_'
'убы'
'технологически'
'сш'
'решило_'
'продается_'
'пляж'
'передан_'
'нил_'
'наблюда'
'интересно'
'заводы_'
'дате_'
'ХА'
'Стран'
'Настоящ'
'ual_'
'Wil'
'El'
'1984_'
'читыва'
'уемо'
'соев'
'рош'
'проходивш'
'правой_'
'полици'
'октябрь_'
'мысл'
'кошк'
'ию'
'зали'
'дум_'
'дошл'
'грамот'
'грал'
'автотранспорт'
'Семин'
'Кум'
'Ильин'
'Владимирской_'
'film_'
'capt'
'Wa'
'Stat'
'хал_'
'трубы_'
'однок'
'ограниченными_'
'нива'
'кое'
'кант'
'кает_'
'исполь'
'дх'
'высел'
'бюллетен'
'боял'
'авторски'
'Эск'
'Матильды_'
'Ки_'
'чье_'
'факультета_'
'урон'
'убыток_'
'стиля_'
'свободного_'
'происходи'
'отва'
'оил'
'овн'
'афр'
'Федерация_'
'Майкла_'
'Греф_'
'ble'
'тури'
'стом_'
'склады'
'пка'
'пал_'
'лучшем_'
'кода_'
'календар'
'ическую_'
'ифо'
'испанц'
'заработн'
'действующей_'
'выпустила_'
'всяком_'
'Тог'
'Кемеров'
'Западны'
'припо'
'пери_'
'отстава'
'зеленых_'
'главар'
'Выр'
'ort'
'эхом_'
'щему_'
'считаться_'
'суме'
'сред_'
'располагал'
'ологи_'
'летние_'
'кате'
'давайте_'
'вязи_'
'выдвинут'
'выглядеть_'
'бунт'
'безоб'
'Семья_'
'МИД'
'Ван_'
'anc'
'RU_'
'ьском_'
'частном_'
'ценность_'
'узки'
'трес'
'сорта_'
'слушател'
'разъе'
'приготовлен'
'неисправност'
'напр'
'меда_'
'доложен'
'диско'
'Ъм'
'Центрально'
'Тосно_'
'Гром'
'Аза'
'ze_'
'явлен'
'сменить_'
'рожден'
'прису'
'плавани'
'офо'
'маркет'
'именн'
'землей_'
'дуг'
'вищ'
'Росии_'
'Лондон'
'Занима'
'Аналитики_'
'цикл_'
'ропо'
'покида'
'обяз'
'настоящая_'
'многодетны'
'лаб'
'кид'
'евск'
'доктора_'
'Нам'
'файл'
'учень'
'утс'
'тера'
'приоритет'
'изменя'
'заверша'
'достойно_'
'депутат'
'вручил_'
'веще'
'Щд'
'Фм'
'Твери_'
'Петербургский_'
'Пес'
'Ливи'
'Зюганов_'
'ГД_'
'Вып'
'ks'
'due_'
'телевидение_'
'тап'
'райсуд_'
'пуга'
'отравления_'
'отли'
'отдела'
'оставила_'
'ктор'
'интернат'
'rv'
'ose'
'looking_'
'удин'
'стояли_'
'популярные_'
'пель'
'оров'
'мобильные_'
'криптовалют'
'заказн'
'важно'
'атора_'
'Стив'
'Мэн_'
'КУ_'
'getting_'
'La_'
'Alex'
'шы'
'фте'
'управляющих_'
'тре_'
'тий_'
'сувенир'
'сомнительны'
'собираем'
'снято'
'режиссером_'
'разработанны'
'отменили_'
'орен'
'оправдал'
'ографи'
'объективны'
'нои'
'нарушениями_'
'меду'
'купа'
'крыл'
'зированн'
'задумал'
'домик'
'диплом'
'Щм'
'Нынешн'
'Анг'
'speak'
'sb'
'редко'
'паре_'
'опасные_'
'оени'
'обычн'
'обратно'
'надпис'
'гп'
'афганск'
'ародн'
'Флинн_'
'Сургут'
'Стен'
'Красн'
'Калининграде_'
'Говорят_'
'High'
'AN'
'яние_'
'щел'
'указали_'
'увел'
'сьт'
'сильное_'
'ремонту_'
'новин'
'низким_'
'мим'
'конкурс'
'еск'
'Соро'
'Зел'
'ВФ'
'sat'
'японц'
'фикаци'
'проезжа'
'природного_'
'поти'
'оклад'
'обыск_'
'минировании_'
'дальнейших_'
'айд'
'Страны_'
'Гру'
'Гва'
'Алк'
'law'
'late_'
'школьны'
'част_'
'чайн'
'уемы'
'снегопад'
'рованы_'
'реформе_'
'приня'
'посвящен_'
'параллельно_'
'организовыва'
'обещани'
'методов_'
'загра'
'думает_'
'вознаграждение_'
'величин'
'авших_'
'Макар'
'четвер'
'цион'
'стену_'
'сип'
'сиде'
'репортаж'
'поставленны'
'отно'
'орно'
'мала'
'довольны_'
'двигателем_'
'альным_'
'агент'
'Мелан'
'sive_'
'outside_'
'fr'
'effect'
'Mat'
'наполн'
'длиной_'
'двадцат'
'Играх_'
'Вч'
'PS'
'ядр'
'экономии_'
'форс'
'рекомендуют_'
'ребе'
'пропускн'
'пассажирских_'
'отменен'
'организована_'
'манипуляци'
'кончи'
'запусти'
'забыт'
'дерс'
'агент_'
'Украин'
'Пап'
'Марка_'
'Красноярского_'
'Дум'
'Гет'
'Актуальн'
'sin'
'rus_'
'ьм_'
'широкой_'
'фли'
'удил'
'трезв'
'счел_'
'симптом'
'разор'
'постановлени'
'пожилых_'
'подво'
'лде'
'долгие_'
'денежны'
'двойн'
'аний_'
'Уровень_'
'Соч'
'Банд'
'БРИКС_'
'abo'
'щен_'
'ушло_'
'телесны'
'рсе'
'рейтинги_'
'превышение_'
'празднования_'
'народные_'
'лга'
'инер'
'избегать_'
'Парижско'
'Ба_'
'wel'
'pra'
'SI'
'MPs_'
'упоминани'
'территориальной_'
'ртов'
'предпочита'
'пола'
'пей'
'осуществил'
'нены'
'интервал'
'изображения_'
'жад'
'ецкий_'
'доа'
'детектив'
'Ест'
'emb'
'are'
'шагов_'
'снимал'
'роли'
'рассказывали_'
'происходить_'
'почтовы'
'пожертвовани'
'патологи'
'парков_'
'объявило_'
'льз'
'генератор'
'безопасн'
'аса'
'Понима'
'ph'
'person_'
'Michael_'
'Don'
'страдают_'
'совершать_'
'разворачива'
'протокола_'
'проживающих_'
'принести_'
'прерва'
'подряд'
'погибло_'
'падаю'
'обог'
'непов'
'командования_'
'дорожных_'
'доку'
'Приве'
'Победител'
'Кю'
'Гиб'
'rou'
'чин_'
'успешны'
'указыва'
'тки'
'споров_'
'предупреждени'
'предложено_'
'позволила_'
'планируем_'
'оставля'
'омн'
'завод'
'ееся_'
'Стре'
'Государственная_'
'Sch'
'электронный_'
'шви'
'соединя'
'противодействию_'
'населенного_'
'меньше'
'избранного_'
'Преми'
'Баварии_'
'ron_'
'стор'
'специфик'
'полны'
'оценен'
'контракт'
'камск'
'информаци'
'веч'
'Спор'
'star_'
'штраф'
'фронтов'
'противостоять_'
'продвинут'
'поступлени'
'начаться_'
'имею_'
'животного_'
'дятся_'
'долин'
'внесла_'
'ваше_'
'Экс'
'Немецк'
'Кули'
'Государственный_'
'nds_'
'NA'
'храме_'
'серд'
'рик'
'повреждений_'
'нескольким_'
'незначительны'
'недовери'
'мента_'
'конференцию_'
'касающиеся_'
'идн'
'землетрясения_'
'взяток_'
'белого_'
'Свобода_'
'Иванович_'
'her'
'товарищ'
'прошлогодне'
'кругло'
'делов'
'гарантий_'
'включен_'
'вагон'
'аккаунт'
'Буз'
'Астан'
'military_'
'цирован'
'фрукт'
'фильму_'
'страшно'
'рубежа_'
'приступили_'
'приборов_'
'пленк'
'йде'
'ическое_'
'запад'
'восточно'
'воров'
'возве'
'ведении_'
'берез'
'Чд'
'Псковск'
'Конституционный_'
'Алмаз'
'ration_'
'усов_'
'тесно'
'ставля'
'сея_'
'пузыр'
'отличился_'
'опровергли_'
'нелегал'
'множеств'
'межконтинентальн'
'зил_'
'выг'
'взносы_'
'бор_'
'Чет'
'Каст'
'tru'
'nda'
'устойчиво'
'совершение_'
'присоединиться_'
'подавал'
'перт'
'образовательн'
'нуждаются_'
'недавнего_'
'комментатор'
'кации_'
'законны'
'вхождени'
'возросло_'
'благоприятны'
'беспорядков_'
'аму'
'Эта'
'Тд'
'Стефан'
'ters_'
'яга'
'чести_'
'ценит'
'упро'
'определенн'
'лев_'
'кум'
'звонок_'
'диспле'
'Кавказа_'
'blo'
'ъд'
'снятие_'
'прозвищ'
'подобра'
'особенно'
'небольшим_'
'манд'
'кратко'
'ежа'
'введена_'
'ваю'
'Фотографи'
'Ог'
'race_'
'чает_'
'феномен'
'уклад'
'смертью_'
'ректор_'
'противостояние_'
'прили'
'подв'
'открывает_'
'отключи'
'оат'
'возвращаться_'
'возвращается_'
'валют'
'Зака'
'fas'
'эстрад'
'стартовала_'
'сепаратист'
'приведен'
'правител'
'посо'
'подчинен'
'моем_'
'литовск'
'иго'
'зыва'
'знамениты'
'дальнейш'
'биатлонист'
'Прич'
'Исаакиевского_'
'Госдепа_'
'Exp'
'элиты_'
'хищени'
'тени_'
'супругой_'
'рабочая_'
'помощник'
'икат'
'животные_'
'вв_'
'Кр_'
'подключа'
'отражаю'
'ограничит'
'обновление_'
'дипломат'
'детсад'
'Синдзо_'
'Андерс'
'экстремистской_'
'судам'
'спутник_'
'созида'
'сое_'
'следственных_'
'складывается_'
'рыбу_'
'рию_'
'проведен'
'навод'
'молитв'
'митингов_'
'кругу_'
'зонах_'
'енб'
'арб'
'Лидеры_'
'ЕК_'
'Главной_'
'rai'
'ште'
'уменьшить_'
'стан_'
'спортсмен'
'пте'
'похоже'
'независимых_'
'натор'
'лейтенант_'
'еия_'
'вь_'
'возвраща'
'Хв'
'Тимошенко_'
'Джен'
'Гб'
'stra'
'Medi'
'LA'
'Cou'
'ьши'
'установок_'
'уверенн'
'следователь_'
'себ'
'связк'
'ртн'
'оговори'
'межс'
'запечатлен'
'богатых_'
'архитектур'
'Украинская_'
'Рубин_'
'Постоянн'
'Наг'
'Михаилу_'
'ЕА'
'Голос'
'major_'
'arch'
'ящей_'
'шведско'
'уполномоченны'
'старейши'
'спальн'
'рекр'
'результатами_'
'рассказа'
'процентны'
'поставкам'
'нея'
'ликвидировать_'
'Чех'
'Жит'
'Бере'
'lad'
'ham'
'Tele'
'99'
'энд'
'чё'
'погодных_'
'побег'
'оР'
'необходимой_'
'иваем'
'защитники_'
'единогласно_'
'взлет'
'белый_'
'Перед'
'Местн'
'several_'
'этаж_'
'экран_'
'террорист_'
'тельства_'
'сдавать_'
'ону_'
'мш'
'йа_'
'дошкольн'
'адзор'
'Ьд'
'Молдави'
'Адмирал_'
'ake'
'183'
'чий_'
'стремятся_'
'релиз'
'профилактики_'
'крупнейшие_'
'инки_'
'забыть_'
'еня'
'вступи'
'волк'
'Кож'
'Всероссийского_'
'others_'
'ресторане_'
'предъявлены_'
'оштрафован'
'обязательного_'
'необходимостью_'
'ленн'
'еП'
'авит'
'Черны'
'Макс'
'Макаров_'
'Йд'
'Q_'
'чудо_'
'численны'
'цы'
'цесс'
'ходили_'
'уральск'
'столкну'
'скв'
'работк'
'популярный_'
'положительный_'
'подсказ'
'лондонско'
'лодки_'
'контролирует_'
'коммунальные_'
'квартал'
'дили_'
'вещество_'
'биот'
'Уу'
'Сил_'
'Рат'
'Линд'
'щины_'
[...]
