'<pad>_'
'<EOS>_'
', _'
'._'
'_'
'SRCen_'
'TRGen_'
''_'
' (_'
'a_'
's_'
'the_'
'-_'
'of_'
'?_'
') _'
'de_'
'I_'
'to_'
'!_'
'- _'
')_'
'e_'
'in_'
'. _'
't_'
'and_'
' - _'
'SRCcs_'
'TRGcs_'
'TRGhu_'
'SRChu_'
'/_'
'TRGpl_'
'm_'
'TRGes_'
'd_'
'SRCpl_'
'1_'
'y_'
'you_'
'SRCsv_'
'is_'
'SRCes_'
'TRGsv_'
'en_'
'i_'
'n_'
'for_'
'o_'
'l_'
'2_'
'or_'
'A_'
'on_'
'la_'
'r_'
'that_'
'der_'
'said_'
',_'
'with_'
'à_'
'5_'
'an_'
'it_'
'des_'
'u_'
'mg_'
'You_'
'et_'
'..._'
're_'
'ing_'
'; _'
'es_'
'un_'
'3_'
'er_'
'une_'
'be_'
'4_'
'na_'
'as_'
'k_'
'll_'
'by_'
'är_'
'at_'
'die_'
'me_'
'), _'
': _'
'one_'
'ed_'
'le_'
'und_'
'Oh_'
'The_'
'du_'
'are_'
've_'
'your_'
'se_'
'0_'
'my_'
'al_'
'z_'
'Yeah_'
'6_'
'do_'
' -_'
'Jag_'
'10_'
'w_'
'Hey_'
'not_'
'c_'
'from_'
'g_'
'ml_'
'No_'
'... _'
'NOS_'
':_'
'det_'
'inte_'
']_'
'disorder_'
'och_'
')._'
'no_'
'It_'
'according_'
'which_'
'us_'
' [_'
'é_'
'wherein_'
'SRCfr_'
'te_'
'den_'
'dans_'
'(_'
'att_'
'ne_'
'del_'
'je_'
'go_'
'8_'
'! _'
'nie_'
'7_'
'il_'
'ce_'
'C_'
'claim_'
'this_'
'és_'
'ist_'
'TRGfr_'
'trastorno_'
'Okay_'
'ou_'
'nach_'
'em_'
'się_'
'We_'
'av_'
'um_'
'? _'
'S_'
'ng_'
'. - _'
'producto_'
'jag_'
'í_'
'9_'
'SRCde_'
'einem_'
'mit_'
'que_'
'eine_'
'v_'
'les_'
'don_'
'för_'
'D_'
'/ _'
'E_'
'ie_'
'first_'
'ly_'
'az_'
'TRGde_'
'om_'
'med_'
'est_'
'means_'
'von_'
'som_'
'L_'
'das_'
'dem_'
'12_'
'20_'
'Yes_'
'have_'
'mi_'
'up_'
'Det_'
'einer_'
'ę_'
'ion_'
'b_'
'any_'
'can_'
'har_'
'nem_'
';_'
'på_'
'so_'
'h_'
'pour_'
'R_'
'second_'
'B_'
'á_'
' "_'
'method_'
'ch_'
'j_'
'oder_'
'we_'
'To_'
'au_'
'okay_'
'least_'
'Anspruch_'
'What_'
'el_'
'inyectable_'
'ć_'
'fucking_'
'ní_'
'selon_'
'co_'
'Nie_'
'just_'
'T_'
'ic_'
'wobei_'
'been_'
'all_'
'tion_'
'system_'
'100_'
'ein_'
'par_'
'50_'
'till_'
'Don_'
'ni_'
'get_'
'% _'
'ar_'
'&_'
'out_'
'gonna_'
'solución_'
'ma_'
'30_'
'@_'
'X_'
'11_'
'ý_'
'ą_'
'ment_'
'device_'
'p_'
'got_'
'know_'
'please_'
'claims_'
'15_'
'lt_'
'ka_'
'right_'
'here_'
'gekennzeichnet_'
'signal_'
'os_'
'gt_'
'x_'
'Let_'
'data_'
'ia_'
'vial_'
'ation_'
'ty_'
'sorry_'
'see_'
'dadurch_'
'' _'
'O_'
'That_'
'ek_'
'am_'
'N_'
'Hello_'
'ta_'
'characterized_'
'was_'
'procedure_'
'14_'
'Well_'
'having_'
'ML_'
'comprising_'
'"_'
'da_'
'ja_'
'man_'
'nt_'
'each_'
'what_'
'dig_'
'Nem_'
'jest_'
'por_'
'M_'
'za_'
'he_'
'ě_'
'has_'
'para_'
'about_'
'ung_'
'ten_'
'25_'
'si_'
'there_'
'like_'
'other_'
'shit_'
'use_'
'ción_'
'bis_'
'Du_'
'Mr_'
'con_'
'ra_'
'P_'
'daß_'
'injection_'
'yeah_'
'mL_'
'mig_'
'Hi_'
'revendication_'
'MG_'
'einen_'
'being_'
'[_'
'Tak_'
'van_'
'16_'
'ci_'
'jsem_'
'procedimiento_'
'product_'
'zu_'
'ska_'
'substance_'
'her_'
') (_'
'Please_'
'invention_'
'ów_'
'into_'
'ge_'
'Verfahren_'
'? - _'
'hogy_'
'between_'
'fuck_'
'solution_'
'two_'
'body_'
'kan_'
'ine_'
'13_'
'disease_'
'diagnosis_'
'V_'
'18_'
'lequel_'
'let_'
'time_'
'eines_'
'ki_'
'ej_'
'II_'
'ha_'
'sis_'
'tak_'
'more_'
'qui_'
'vagy_'
'moins_'
'surface_'
'comprises_'
'sz_'
'group_'
'ze_'
' '_'
'ts_'
'Y_'
'information_'
'aus_'
'że_'
'Ansprüche_'
'acid_'
'My_'
'some_'
'patients_'
'than_'
'že_'
'characterised_'
'G_'
'f_'
'auf_'
'meg_'
'st_'
'ón_'
'In_'
'egy_'
'ás_'
'zur_'
'but_'
'syndrome_'
'ett_'
'cell_'
'40_'
'good_'
'material_'
'Ja_'
'wird_'
'här_'
'estructura_'
'God_'
'control_'
'him_'
'zum_'
'... ..._'
'Co_'
'Disease_'
'when_'
'ladite_'
'back_'
'ny_'
'Ne_'
'SAI_'
'durch_'
'24_'
'type_'
'How_'
'vi_'
'H_'
'such_'
'ble_'
'Hej_'
'22_'
'Vi_'
'may_'
'Good_'
'ů_'
'This_'
'itis_'
'ho_'
'im_'
'eller_'
'structure_'
'should_'
'W_'
'sa_'
'."_'
'ledit_'
'EC_'
'vagyok_'
'så_'
'ok_'
'process_'
'INJECTION_'
'für_'
'she_'
'17_'
'ée_'
'ns_'
'ální_'
'sind_'
'ó_'
'further_'
'ate_'
'rs_'
'She_'
'ry_'
'ku_'
'claimed_'
'Your_'
'if_'
'able_'
'ning_'
'Claim_'
'va_'
'dass_'
'non_'
'clorhidrato_'
'tu_'
'sont_'
'now_'
'treatment_'
'ur_'
'sustancia_'
'sur_'
'He_'
'ant_'
'unit_'
'Dr_'
'finding_'
'ale_'
'21_'
'id_'
'through_'
'Procédé_'
'Az_'
'revendications_'
'sir_'
'apparatus_'
'Regulation_'
'avec_'
'ő_'
'huh_'
'Fuck_'
'down_'
'comprimido_'
'bei_'
'ky_'
'take_'
'off_'
'var_'
'fine_'
'too_'
'át_'
'provided_'
'really_'
'end_'
'ben_'
'And_'
'données_'
'Article_'
'Igen_'
' _'
'element_'
'portion_'
'shall_'
'jak_'
'position_'
'OR_'
'over_'
'ter_'
'polvo_'
'unspecified_'
'they_'
'ti_'
'ers_'
'blood_'
'F_'
'hallazgo_'
'š_'
'] _'
'OK_'
'Where_'
'VIAL_'
'virus_'
'200_'
'%, _'
'BAR_'
'ls_'
'used_'
'De_'
'EEC_'
'preceding_'
'min_'
'form_'
'So_'
'side_'
'igen_'
'ina_'
'Sorry_'
'60_'
'after_'
'part_'
'III_'
'yl_'
'od_'
'ies_'
'ol_'
'B'
'www_'
'under_'
'aufweist_'
'ted_'
'age_'
'500_'
'26_'
'ych_'
'going_'
'composition_'
'oral_'
'dispositif_'
'its_'
'ca_'
'DE_'
'caractérisé_'
'Thanks_'
'FOR_'
'them_'
'pressure_'
'were_'
'Get_'
'als_'
'ORAL_'
'nu_'
'" _'
'Jo_'
'test_'
' '
'én_'
'well_'
'po_'
'men_'
'Directive_'
'K_'
'ego_'
'kommer_'
'Do_'
'000_'
'circuit_'
'19_'
'tumor_'
'U_'
'weight_'
'neoplasm_'
'yes_'
'gen_'
'dose_'
'An_'
'SOLUTION_'
'ím_'
'They_'
'ting_'
'28_'
'mnie_'
'hey_'
'then_'
'also_'
'set_'
'ous_'
'including_'
'Salmonella_'
'ive_'
'tam_'
'32_'
'nr_'
'connected_'
'layer_'
'être_'
'23_'
'ad_'
'will_'
'per_'
'R'
'step_'
'Ez_'
'son_'
'containing_'
'ring_'
'mě_'
'following_'
'wait_'
'section_'
'plurality_'
'nde_'
'31_'
'water_'
'ions_'
'base_'
'ses_'
'AND_'
'come_'
' + _'
'T'
'where_'
'level_'
'skin_'
'tt_'
'didn_'
'M'
'osis_'
'Je_'
'sure_'
'baby_'
'tis_'
'ez_'
' , _'
'tic_'
'procédé_'
'Vad_'
'cie_'
'ban_'
'how_'
'ons_'
'need_'
'’_'
'Finding_'
'think_'
'these_'
'neoplasia_'
'ak_'
'selected_'
'organism_'
'Commission_'
'); _'
'nia_'
'comprenant_'
'Mm_'
'ent_'
'using_'
'skall_'
'mean_'
'member_'
'line_'
'Why_'
'bara_'
'moyen_'
'function_'
'ersten_'
'Ahoj_'
'N'
'\u_'
'Na_'
'tell_'
'IN_'
'carcinoma_'
'Come_'
'2004_'
'Just_'
'din_'
'L'
'disorders_'
'very_'
'our_'
'ut_'
'look_'
'image_'
'within_'
'only_'
'nebo_'
'ga_'
'Nej_'
'uh_'
'pro_'
'80_'
'therapy_'
'! - _'
'quelconque_'
'ł_'
'little_'
'value_'
'ES_'
'né_'
'ées_'
'thereof_'
'partie_'
'2005_'
'number_'
'ity_'
'support_'
'gas_'
' % _'
'--_'
'ji_'
'includes_'
'There_'
'+_'
'90_'
'See_'
'less_'
'ya_'
'work_'
'during_'
'com_'
'call_'
'V'
'beta_'
'agent_'
'protein_'
'day_'
'AL_'
'ement_'
'Já_'
'Jak_'
'jsi_'
'W'
'way_'
'kell_'
' ; _'
'nte_'
'han_'
'active_'
'Can_'
'entre_'
'high_'
'ase_'
'Vorrichtung_'
'contact_'
'ých_'
'qu_'
'première_'
'concerne_'
'ces_'
'K'
'INTRAVEN_'
'Go_'
'Are_'
'från_'
'corporal_'
'2003_'
'their_'
'ik_'
'ADDITIVE_'
'point_'
'nek_'
'Z'
'SDV_'
'MDV_'
'système_'
'lower_'
'film_'
'emia_'
'Wait_'
'alis_'
'TABLET_'
'light_'
'formed_'
'make_'
'comprend_'
'zwischen_'
'm'
'vet_'
'p'
'Protein_'
'ke_'
'Ty_'
'Is_'
'ého_'
'bra_'
'IV_'
'Council_'
' : _'
'werden_'
'Chemical_'
'had_'
'infection_'
'alfa_'
'P'
'pain_'
'signals_'
'csak_'
'ser_'
'direction_'
'output_'
'ně_'
'már_'
'mu_'
'Malignant_'
'Oral_'
'70_'
'ss_'
'jo_'
'something_'
'ques_'
'associated_'
'OF_'
'H'
'compound_'
'tablet_'
'never_'
'h'
'did_'
'J'
'Syndrome_'
' \u_'
'27_'
'zweiten_'
'ym_'
'Ingredient_'
'Annex_'
'ass_'
'sen_'
'without_'
'34_'
'still_'
'mer_'
'los_'
'another_'
'renal_'
'communication_'
'2001_'
'aux_'
'Z_'
'help_'
'INTRAVENOUS_'
'D'
'tes_'
'meghatározott_'
'där_'
'contains_'
'products_'
'http_'
'°_'
'li_'
'head_'
'volt_'
'say_'
'forme_'
'eur_'
'Ano_'
'-- _'
'. -_'
'"._'
'temperature_'
'sich_'
'great_'
' &_'
'ner_'
'low_'
'give_'
'HCL_'
'region_'
'before_'
'uje_'
'sin_'
'rna_'
'lo_'
'nak_'
'Look_'
'bar_'
'Who_'
'Stop_'
'yourself_'
'syndrom_'
'ide_'
'ally_'
'Mi_'
'due_'
'phase_'
'who_'
'ba_'
'Ale_'
'tě_'
'29_'
'normal_'
'nerve_'
'liquid_'
'enie_'
'Shit_'
'ig_'
'again_'
'ure_'
'made_'
'increased_'
'different_'
'A'
' — _'
'stop_'
'F'
'th_'
'ampolla_'
'får_'
'ens_'
'ott_'
'open_'
'ire_'
'done_'
'nice_'
'Är_'
'dla_'
'Congenital_'
'dy_'
'Hé_'
'SODIUM_'
'75_'
'ami_'
'ám_'
'infusión_'
'Claims_'
'based_'
'If_'
'vara_'
'S'
'C'
'jako_'
'fluid_'
'find_'
'Ha_'
' !_'
'óza_'
'://_'
'site_'
'36_'
'present_'
'Method_'
'La_'
'étant_'
'new_'
'måste_'
'guys_'
'ía_'
'Én_'
'lub_'
'organismo_'
'EA_'
'nic_'
'memory_'
'source_'
'kg_'
'his_'
'gör_'
'Cell_'
'2002_'
'vill_'
'c'
'Not_'
'k'
'2006_'
'ła_'
'sous_'
'receiving_'
'cia_'
'metal_'
'É'
'same_'
'deficiency_'
'cy_'
'Wow_'
'Han_'
'arranged_'
'joint_'
'input_'
'antigen_'
' / _'
' – _'
'mcg_'
'doing_'
'reaction_'
'ling_'
'betegség_'
'42_'
'powder_'
'hon_'
'Dad_'
'mindestens_'
'Dispositif_'
'300_'
'valve_'
'l'
'Och_'
'Meg'
'J_'
'ák_'
'owe_'
'Whoa_'
'Te_'
'antibody_'
'transmission_'
'ger_'
'Um_'
'G'
'át'
'Ó_'
'tions_'
'dudit_'
'both_'
'ční_'
'cię_'
'2'
'150_'
'rate_'
'ness_'
'enia_'
'Ah_'
' ?_'
'upper_'
'ck_'
'b'
'Jestem_'
'want_'
'human_'
'cal_'
'For_'
'Acute_'
'laquelle_'
'ON_'
'r'
'particular_'
'250_'
'stage_'
'hmm_'
'd'
'mine_'
'\u _'
'must_'
'ary_'
'most_'
'air_'
'those_'
'síndrome_'
'fuckin_'
'Excuse_'
'DNA_'
'nce_'
'ko_'
'vad_'
'tablets_'
'sup_'
'já_'
'area_'
'heart_'
'factor_'
'component_'
'bone_'
'ść_'
'premier_'
'optical_'
'deux_'
'power_'
'All_'
'face_'
'motor_'
'Receptor_'
'processing_'
'network_'
'alpha_'
'ular_'
'frequency_'
'Jsem_'
'-(_'
'łem_'
'zy_'
'specific_'
'measurement_'
')-_'
'ünk_'
'why_'
'lis_'
'kill_'
'ade_'
'Ko'
' • _'
'wrong_'
'dad_'
'NG_'
'NE_'
'malignant_'
'¡_'
'patient_'
'Other_'
'IC_'
' @ _'
'peut_'
'cells_'
'ión_'
'2000_'
'gemäß_'
'European_'
'35_'
'tego_'
'EN_'
'wall_'
'ps_'
'plate_'
'inyección_'
'ica_'
'présente_'
'?!_'
'elements_'
'ING_'
'state_'
'leukemia_'
'33_'
'ot_'
'io_'
'Jó_'
'chamber_'
'00_'
'jestem_'
'ain_'
'Thank_'
'Really_'
'Damn_'
'44_'
'via_'
'tube_'
'prosím_'
'predetermined_'
'ors_'
'ments_'
'ją_'
'tar_'
'las_'
'gotta_'
'enfermedad_'
'nd_'
'Uh_'
'sodium_'
'order_'
'lymphoma_'
'abnormality_'
'ová_'
'fel_'
'1999_'
'rt_'
'voltage_'
'ű_'
'alkyl_'
'ń_'
'itt_'
'cancer_'
'angeordnet_'
'Hmm_'
'observable_'
'ach_'
'On_'
'Mom_'
'Listen_'
'love_'
'name_'
'honom_'
'ande_'
'worry_'
'vid_'
'st'
'ol'
'CH_'
'.._'
'élément_'
'zone_'
'sion_'
'jó_'
'eye_'
'Szia_'
'ER_'
'Blood_'
'1'
'anti_'
'total_'
'isn_'
'ey_'
'autre_'
'´_'
'hand_'
'EG_'
'ux_'
'plus_'
'free_'
'ds_'
'ated_'
'Ooh_'
'Csak_'
'Proszę_'
'ś_'
'problem_'
'medium_'
'fracture_'
'ro_'
'ové_'
'über_'
'third_'
'substantially_'
'home_'
'Now_'
'Carcinoma_'
'Er'
'wa_'
' ) _'
'52_'
'Hur_'
'traitement_'
'three_'
'poids_'
'abnormal_'
'wanna_'
'plasma_'
'better_'
'Den_'
'worin_'
'mi'
'artery_'
';&_'
'tym_'
'sie_'
'jen_'
'38_'
'defined_'
'System_'
'terminal_'
'seen_'
'liver_'
'application_'
'Oké_'
'tissue_'
'e'
'ación_'
'ona_'
'long_'
'lly_'
'single_'
'period_'
'around_'
'He'
'xi'
'especificada_'
'Ab'
'response_'
'ler_'
'X'
'EEG_'
'mm_'
'jste_'
'deuxième_'
'common_'
'ayant_'
'won_'
'ren_'
'ton_'
'preparation_'
'current_'
'effects_'
'res_'
'ni'
'ket_'
'ú_'
'vorrichtung_'
'plusieurs_'
'cause_'
'amended_'
'Neoplasm_'
'would_'
'corresponding_'
'LO'
'skulle_'
'f'
'anything_'
'Le_'
'Dobře_'
'förordning_'
'Disorder_'
'Da'
'moyens_'
'går_'
'flow_'
'art_'
'És_'
'steps_'
'vá_'
'nts_'
'hydrochloride_'
'Fucking_'
'45_'
'12'
'tor_'
'keep_'
'ingen_'
'central_'
'red_'
'400_'
'iso'
'boy_'
'talk_'
'code_'
'axis_'
'um'
'everything_'
'chen_'
'a'
'upp_'
'ko'
'drive_'
'asa_'
'=_'
'sem_'
'last_'
'ii_'
'Te'
'But_'
';/_'
'18'
'receptor_'
'oss_'
'ich_'
'honey_'
'doctor_'
'Human_'
'studies_'
's'
'aren_'
'administration_'
'whoa_'
'anomalía_'
'amino_'
'ární_'
'range_'
'lar_'
'ION_'
'még_'
'infusion_'
'era_'
'ét_'
'old_'
'efter_'
'ea_'
'ir_'
'då_'
'check_'
'oh_'
'ać_'
'together_'
'nej_'
'morning_'
'av'
'I'
'') _'
'gram_'
'coated_'
'care_'
'Tumor_'
'Here_'
'unk_'
'tomorrow_'
'operation_'
'je'
'chaque_'
'amount_'
'ED_'
'jsou_'
'ges_'
'forming_'
'case_'
'U'
'HIV_'
'nk_'
' ('
'lf_'
'Chronic_'
'10'
'oma_'
'hat_'
'ende_'
'Var_'
'LI'
'owy_'
'kus_'
'ane_'
'En_'
'sub_'
'mode_'
'either_'
'could_'
'ci'
'ano_'
'BO'
'mixture_'
'maligna_'
'ju_'
'hi_'
'effect_'
'ův_'
'ur'
'even_'
'doesn_'
'blíže_'
'98_'
'są_'
'lesz_'
'ique_'
'formula_'
'ene_'
'96_'
'. '
'ál_'
'pa'
'insulin_'
'Pod'
'Bye_'
'ra'
'ium_'
'., _'
'wie_'
'ngs'
'conditions_'
'accordance_'
'Hon_'
'Cześć_'
'95_'
'48_'
'już_'
'change_'
'Om_'
'carbon_'
'92_'
'ze'
'ost_'
'consisting_'
'alcohol_'
'above_'
'leave_'
'Open_'
'3'
'wy_'
'tem_'
'injury_'
'ber'
'RT'
'ná_'
'ká_'
'Factor_'
'ta'
'substrate_'
'Y'
'WE_'
'Very_'
'NE'
'vý'
'val'
'life_'
'groups_'
'précédentes_'
'Co'
'30'
'pane_'
'ný_'
'coming_'
'ch'
'Ver'
'Przepraszam_'
'05_'
'01_'
'när_'
'levels_'
'ez'
'eurs_'
'ct_'
'dos_'
'Hodgkin_'
'te'
'om'
'ance_'
'het_'
'block_'
'away_'
'Nice_'
'unité_'
'risk_'
'eu_'
'erste_'
'dobrze_'
'como_'
'Ni_'
'91_'
'2007_'
'zs'
'thing_'
'andra_'
'Q_'
'än_'
'zi'
'polymer_'
'medición_'
'AL'
'ue_'
'suspension_'
'pression_'
'clinical_'
'Type_'
'Sa'
'ET_'
'val_'
'tor'
'pan_'
'combination_'
'41_'
'program_'
'bitch_'
'acute_'
'drug_'
'acide_'
'punkt_'
'nings'
'nas_'
'led_'
'hemorrhage_'
'år_'
'umfaßt_'
'os'
'5'
'y'
'v'
'tylko_'
'multiple_'
'li'
'it'
'getting_'
'ft_'
'alla_'
'THE_'
'zweite_'
'už_'
'station_'
'artikel_'
'Solution_'
'volume_'
'owa_'
'later_'
'INE_'
'ß'
'umfasst_'
'ości_'
'len_'
'commande_'
'¿_'
'units_'
't'
'sig_'
'ory_'
'också_'
'OL_'
'Kar'
'pod'
'ningar_'
'muscle_'
'does_'
'Ta_'
'Ä'
'sequence_'
'place_'
'dear_'
'č_'
'ul_'
'tipo_'
'Ke'
'ts'
'thanks_'
'or'
'Community_'
'oraz_'
'night_'
'met_'
'ino'
'4'
'start_'
'signaux_'
'mono'
'mittel_'
'mia_'
'field_'
'ess_'
'concepto_'
'Trans'
'schen_'
'ex_'
'electrode_'
'along_'
'Sub'
'án_'
'sleep_'
'nal_'
'gs_'
'entrée_'
'tek_'
'respective_'
'bit_'
'120_'
'sed_'
'received_'
'placebo_'
'methyl_'
'lung_'
'in'
'filter_'
'always_'
'ż_'
'x'
'tt'
'rapport_'
'przez_'
'ping_'
'et'
'Jo'
'porządku_'
'outer_'
'couche_'
'bez_'
'assembly_'
'activo_'
' ..._'
'move_'
'magnetic_'
'kurva_'
'ico_'
'given_'
'en'
'anemia_'
'US_'
'Sta'
'46_'
'ły_'
'ér'
'tady_'
'rd_'
'pre_'
'morphologic_'
'meg'
'manière_'
'jesteś_'
'i'
'heat_'
'girl_'
'bad_'
'PO'
'Egy_'
'verbunden_'
'da'
'ada_'
'ter'
'obtained_'
'flu'
'`_'
'Sodium_'
'El'
'; (_'
'.'
'uni'
'syndroma_'
'oro'
'einrichtung_'
'concentration_'
'ce'
'Q'
'study_'
'ony_'
'late_'
'finns_'
'ado_'
'Men_'
'11'
'éléments_'
'var'
'storage_'
'proszę_'
'lite_'
'hur_'
'hos_'
'43_'
'zwei_'
'pacjentów_'
'nad'
'food_'
'cápsula_'
'O'
'while_'
'vers_'
'ul'
'mina_'
'far'
'eat_'
'ší_'
'ys_'
'treated_'
'tol'
'related_'
'mémoire_'
'może_'
'ý'
'ungen_'
'oni'
'ma'
'ier_'
'ek'
'already_'
'alone_'
'ace_'
'DIS_'
'ž_'
'wound_'
'una_'
'inter'
'få_'
'Verbindung_'
'Så_'
'Har_'
'56_'
'dependent_'
'chronic_'
'ání_'
'table_'
'parallel_'
'nicht_'
'Hyper'
'13'
'pořádku_'
'nem'
'elő'
'Zespół_'
'real_'
'pop'
'ns'
'mot_'
'lesión_'
'housing_'
'henne_'
'Od'
'OC'
'HYDROCHLORIDE_'
', "_'
'ła'
'tel_'
'phosphate_'
'people_'
'opening_'
'oid_'
'gel_'
'cká_'
'Je'
'Ö'
'reference_'
'general_'
'dina_'
'Member_'
'37_'
' & _'
'ép'
'war'
'w'
'user_'
'typ_'
'pi'
'physical_'
'per'
'n'
'ka'
'göra_'
'ena'
'breast_'
'ak'
'Use_'
'SI'
'Ra'
'years_'
'azt_'
'Re'
'AP'
'ör'
'tr'
'rá'
'ero'
'activity_'
'EUR_'
'zed_'
'taking_'
'providing_'
'detta_'
'crazy_'
'Tell_'
'24'
'Á'
'supply_'
'ein'
'amine_'
'] (_'
'Verwendung_'
'Hu'
'on'
'morfológica_'
'iert_'
'enthält_'
'direktiv_'
'asshole_'
'ves_'
'ven'
'ken'
'erna_'
'ed'
'diseases_'
'Pa'
'Or'
'LE'
'Keep_'
'0'
'wenn_'
'try_'
'situ_'
'sensor_'
'recording_'
'nothing_'
'ier'
'iem_'
'container_'
'congenital_'
'ange'
'Ja'
'Ú'
'sódica_'
'ria_'
'relative_'
'positive_'
'ki'
'greater_'
'determining_'
'Bo'
'ss'
'machine_'
'Ze'
'Mar'
'primary_'
'para'
'mycket_'
'ik'
'adapted_'
'ène_'
'pe_'
'jí_'
'ida_'
'39_'
' /_'
'vo'
'ver_'
'sk_'
'medicinal_'
'maximum_'
'ely_'
'eb'
'digital_'
'dar'
'channel_'
'ato'
'ID_'
'Ha'
'ól_'
'étape_'
'vorhergehenden_'
'fractura_'
'ar'
'Gi'
'CI'
'16'
'ár'
'valeur_'
'transfer_'
'respectively_'
'ready_'
'nervio_'
'frame_'
'cí_'
'available_'
'address_'
'Wa'
'Tack_'
'z'
'tra'
'pretty_'
'pa_'
'ly'
'ane'
'amino'
'Have_'
'54_'
'yours_'
'vás_'
'vehicle_'
'relates_'
'producing_'
'pow'
'ny'
'ker_'
'Um'
'Cu'
'sing_'
'sheet_'
'photo'
'né'
'moje_'
'making_'
'ezt_'
'Roz'
'INJ_'
'ém_'
'té_'
'production_'
'path_'
'mobile_'
'contenant_'
'zing_'
'wenigstens_'
'van'
'up'
'understand_'
'show_'
'ral_'
'partir_'
'mint_'
'll'
'eri'
'connection_'
'che_'
'Then_'
'TO'
'An'
'ying_'
'réseau_'
'rze'
'one'
'intoxicación_'
'ble'
'Mrs_'
'Hal'
'él_'
'seconde_'
'ons'
'much_'
'lin_'
'kt_'
'jsme_'
'friend_'
'deficiencia_'
'arm_'
'aj_'
'Czy_'
'–_'
'ster_'
'preferably_'
'parts_'
'par'
'myself_'
'fel'
'ent'
'abdominal_'
'Right_'
'RO'
'RI'
'Diseases_'
'9'
'51_'
'sti'
'sta'
'pacientů_'
'ja'
'groupe_'
'content_'
'allt_'
'NEOM_'
'values_'
'ser'
'provide_'
'over'
'opo'
'leg_'
'ks_'
'has'
'fever_'
'congénita_'
'compounds_'
'antígeno_'
'Ti'
'ER'
'23'
'ère_'
'ti'
'sample_'
'rt'
'peri'
'ość_'
'mind_'
'^_'
'Se'
'Me_'
'Jest_'
'Ein'
'EU_'
'93_'
'typu_'
'tonight_'
'thank_'
'sia_'
'poli'
'nap'
'mo_'
'main_'
'ln'
'ho'
'haven_'
'ear_'
'dead_'
'animal_'
'against_'
'TE_'
'NO'
'ATE_'
') '
' ._'
'ję_'
'fucked_'
'fan_'
'ella_'
'disposed_'
'back'
'ai_'
'Herstellung_'
'? -_'
'Í'
'working_'
'nta'
'meet_'
'left_'
'kar'
'ine'
'gone_'
'feel_'
'elle_'
'cji_'
'TE'
'Post'
'Okej_'
'specified_'
'pří'
'mo'
'ir'
'inner_'
'coupled_'
'cerebral_'
'at'
'Sal'
'Cha'
'unter_'
'uk_'
'small_'
'pot'
'není_'
'listen_'
'hydrogen_'
'external_'
'198'
'över_'
'patienter_'
'nes_'
'let'
'iz'
'include_'
'g'
'Maybe_'
'Jól_'
'IA_'
'Benign_'
'toho_'
'mouth_'
'membrane_'
'ert_'
'closed_'
'být_'
'behöver_'
'Kom_'
'Gu'
'25'
'vám_'
'sla'
'laser_'
'gland_'
'ell_'
'course_'
'arteria_'
'anti'
'ana_'
'aj'
'Prze'
'Poly'
'Os'
'Leukemia_'
'Inter'
'Gruppe_'
'72_'
'"?_'
'zat'
'sarcoma_'
'non'
'kat_'
'Structure_'
'LE_'
'Ga'
'Des'
'yp'
'sodio_'
'sko'
'salt_'
'lt'
'ley_'
'daily_'
'below_'
'agents_'
'Tra'
'Fel'
'? '
'ül_'
'star'
'sh_'
'gy'
'er'
'entity_'
'drink_'
'blir_'
'Intra'
'ES'
'Di'
'AR'
'len'
'ice_'
'ha'
'guide_'
'No'
'MA_'
'zo'
'th'
'remember_'
'kor'
'internal_'
'These_'
'Pre'
'Jesteś_'
'. /_'
'nz'
'lateral_'
'int_'
'found_'
'fixed_'
'distance_'
'czy_'
'computer_'
'believe_'
'Ok_'
'Give_'
'Decision_'
'ž'
'ď_'
'ír'
'ás'
'mor'
'kel'
'ings_'
'der'
'cro'
'będzie_'
'Tu'
'To'
'Système_'
'So'
'Si'
'SE'
'Ho'
'ő'
'ális_'
'ség_'
'possible_'
'pen'
'operating_'
'movement_'
'king_'
'cross_'
'ara'
'76_'
'surfaces_'
'pla'
'ot'
'hle_'
'eta'
'ee'
'cool_'
'PRO'
'NA'
'Fu'
'Entire_'
'62_'
'usi'
'sub'
'my'
'j'
'igt_'
'hor'
'ff_'
'cin'
'ations_'
'TION_'
'Miss_'
'68_'
'! '
'nych_'
'electrical_'
'bleeding_'
'adjacent_'
'Teil_'
'Process_'
'POWDER_'
'Hát_'
'GM_'
'CD'
', (_'
'Ó'
'väl_'
'todo_'
'substances_'
'sche_'
'liv'
'guess_'
'IS_'
'Apparatus_'
'6'
'tri'
'ps'
'programme_'
'pli'
'hydro'
'för'
'cloruro_'
'bur'
'Prosím_'
'METHOD_'
'Ch'
'64_'
' = _'
'ści_'
'ło_'
'u'
'tin'
'sobie_'
'sel'
'má_'
'mil'
'jo'
'electric_'
'cervical_'
'aire_'
'When_'
'DI'
'Che'
'2008_'
'15'
'ow_'
'nie'
'media_'
'limb_'
'leukaemia_'
'kis_'
'hot_'
'force_'
'des'
'because_'
'ating_'
'Unspecified_'
'Ste'
'Shh_'
'Kan_'
'tru'
'speed_'
'rotation_'
'resin_'
'rad'
'poisoning_'
'lös'
'lie_'
'ist'
'iel'
'hear_'
'genom_'
'generating_'
'fall_'
'examination_'
'eni'
'display_'
'pe'
'nemoci_'
'ms_'
'length_'
'lar'
'ju'
'intra'
'grupo_'
'diabetes_'
'ani_'
'al'
'Ve'
'Anti'
'transport_'
'tive_'
'lla_'
'ké_'
'key_'
'ever_'
'enden_'
'dobře_'
'administered_'
'Na'
'För_'
'Dar'
'ATION_'
'ři'
'ór'
'ék_'
'wo'
'wal'
'uro'
'suivant_'
'sick_'
'sen'
'pul'
'ght_'
'ení_'
'controlled_'
'Wy'
'Ma_'
'Be_'
'zv'
'to'
'superior_'
'roz'
'plan_'
'permettant_'
'où_'
'organic_'
'nk'
'liga_'
'ian_'
'gel'
'comprise_'
'certain_'
'ae_'
'adi'
'Great_'
'łeś_'
'viral_'
'target_'
'shaped_'
'posterior_'
'lesdits_'
'kli'
'is'
'hal'
'eg'
'applied_'
'Bereich_'
'26'
'zie_'
'urs_'
'sation_'
'reactions_'
'pr'
'ova_'
'le'
'ical_'
'ge'
'detecting_'
'Dobrze_'
'71_'
'tom_'
'tin_'
'ratio_'
'pregnancy_'
'oil_'
'naj'
'moving_'
'inferior_'
'hours_'
'environ_'
'angle_'
'amo'
'ala'
'access_'
'Nu_'
'Ni'
'Ende_'
'DA'
'tk'
'till'
'rendben_'
'reduced_'
'pat'
'outre_'
'nemoc_'
'meta'
'lát'
'ken_'
'hard_'
'gå_'
'façon_'
'ati'
'ano'
'Nic_'
'60'
'125_'
'02_'
'soon_'
'ró'
'methods_'
'increase_'
'destiné_'
'bag_'
'ainsi_'
'Mam_'
'AT'
'ście_'
'tal_'
'sk'
'sel_'
'known_'
'ia'
'hyper'
'examen_'
'el'
'bladder_'
'ato_'
'Sen'
'Mac'
'åt_'
'welche_'
'symptoms_'
'sor'
'pit'
'particles_'
'loss_'
'ejte_'
'days_'
'comme_'
'bardzo_'
'atoms_'
'ales_'
'Fe'
'Du'
': (_'
'žen'
'ým_'
'ácido_'
'ulcer_'
'osz'
'dont_'
'aus'
'Ut'
'Pu'
'LU'
'pre'
'lí'
'ji'
'jej_'
'idi'
'col'
'chi'
'brain_'
'ari'
'ZE'
'Mil'
'Hydrochloride_'
'Druck'
'65_'
'53_'
'ég'
'we'
'ungs'
'tele'
'shape_'
'secondary_'
'post'
'foot_'
'chloride_'
'być_'
'aemia_'
'Rendben_'
'Gar'
'Fa'
'vé_'
'tí'
'though_'
'sha'
'sch_'
'por'
'niveau_'
'fi'
'failure_'
'Vy'
'Maligní_'
'8'
'%) _'
'ön'
'yo'
'yd'
'sortie_'
'pen_'
'onemocnění_'
'iv'
'informations_'
'RETIRADO_'
'Non_'
': '
'102_'
'test'
'sy_'
'portions_'
'nen_'
'necessary_'
'med'
'for'
'dé'
'combustion_'
'action_'
'Už_'
'Par'
'PI'
'97_'
'197'
'110_'
'tan'
'sto'
'shaft_'
'rat_'
'py_'
'osa_'
'oo'
'ng'
'module_'
'kni'
'gy_'
'ering_'
'compositions_'
'components_'
'charge_'
'benzo'
'Product_'
'Lin'
'IU_'
'HLA_'
'éri'
'tension_'
'sé'
'respect_'
'mos'
'longitudinal_'
'jól_'
'full_'
'energy_'
'eh_'
'cut_'
'bul'
'Hogy_'
'Dan'
'94_'
'tu'
'si'
'service_'
'read_'
'object_'
'nu'
'nden_'
'materials_'
'land_'
'hepatic_'
'cs_'
'char'
'MI'
'Har'
'Extra'
'Appareil_'
'40'
'ylo'
'talking_'
'rådets_'
'once_'
'o'
'mother_'
'monitoring_'
'mom_'
'mitt_'
'located_'
'local_'
'gat'
'ec_'
'cen'
'category_'
'VA_'
'Tan'
'One_'
'Nerve_'
'In'
'Hola_'
'Hel'
'EP'
'82_'
'yet_'
'température_'
'space_'
'situation_'
'ry'
'poruchy_'
'ningen_'
'maybe_'
'cos_'
'cel'
'anomaly_'
'Le'
'Device_'
'85_'
'över'
'us'
'tror_'
'köz'
'kör'
'ker'
'kan'
'europa_'
'eau_'
'dy'
'dri'
'di'
'Varför_'
'Take_'
'Ne'
'Could_'
'ül'
'reported_'
'mal_'
'ins'
'if'
'ditt_'
'cold_'
'approximately_'
'June_'
'De'
'Car'
'600_'
'20'
'zá'
'yst'
'vir_'
'ust_'
'ten'
'spo'
'sal'
'nåt_'
'mod'
'lost_'
'ise_'
'cyst_'
'condition_'
'afin_'
'Š'
'ř'
'xa'
'ut'
'switch_'
'solvent_'
'pas_'
'pani_'
'nagyon_'
'liquide_'
'ku'
'fur'
'extending_'
'ela'
'dro'
'ction_'
'coli_'
'carrier_'
'Kon'
'Bar'
'Alright_'
'stay_'
'reduction_'
'pře'
'put_'
'oz'
'něco_'
'inside_'
'ea'
'appareil_'
'Ro'
'RNA_'
'Hy'
'EWG_'
'1000_'
'-, _'
'vy'
'pulmonary_'
'ple'
'osti_'
'lé'
'hello_'
'endo'
'eh'
'consistant_'
'anyone_'
'anterior_'
'Un'
'Pan'
'Ka'
'Holy_'
'Disorders_'
'Did_'
'74_'
'... - _'
'zu'
'yt'
'tract_'
'str'
'severe_'
'olo'
'ole'
'mb'
'interface_'
'ie'
'happy_'
'fibres_'
'extrémité_'
'edema_'
'Neuro'
'Everything_'
'Deficiency_'
'DO'
'ź_'
'vor'
'sza'
'serum_'
'opi'
'mati'
'gas'
'capable_'
'called_'
'bo_'
'bb_'
'angio'
'Ju'
'FI'
'Dia'
'19'
'’ _'
'également_'
'är'
'zt'
'vorgesehen_'
'size_'
'pov'
'post_'
'något_'
'no'
'ln_'
'eo'
'ds'
'dok'
'coś_'
'cover_'
'cm_'
'bá'
'big_'
'Renal_'
'Rady_'
'Po_'
'Ow_'
'DR'
'Ap'
'Ag'
'17'
'él'
'times_'
'room_'
'piece_'
'ned_'
'ká'
'hin'
'ful_'
'ej'
'dys'
'dnia_'
'connecting_'
'anaemia_'
'OS'
'Hold_'
'Formel_'
'FA'
'vy_'
'variable_'
'sa'
'rac'
'mam_'
'kidding_'
'ite_'
'id'
'hormone_'
'fro'
'coating_'
'atom_'
'under'
'ste_'
'screening_'
'ray_'
'pie_'
'ola'
'ode'
'min'
'kod'
'ica'
'hod'
'feeling_'
'células_'
'cyt'
'cla'
'cellules_'
'auf'
'We'
'PC'
'Mo'
'Gdzie_'
'Flu'
'CO'
'Bi'
'yn'
'sweetie_'
'sin'
'sat'
'phenyl_'
'noc'
'lö'
'her'
'ers'
'bed_'
'an'
'Val'
'TI'
'Pop'
'PRE'
'Mittel_'
'MP'
'HA'
'December_'
'å_'
'vel_'
'today_'
'sm_'
'node_'
'neurčená_'
'na'
'mounted_'
'lu'
'leg'
'hydroxy'
'hair_'
'every_'
'double_'
'dog_'
'decreased_'
'bu'
'SC'
'Kor'
'Cancer_'
'Ü'
'unidades_'
'pod_'
'phone_'
'nti'
'nt'
'moteur_'
'me'
'ls'
'kle'
'glass_'
'di_'
'clo'
'ciebie_'
'bez'
'Pr'
'Itt_'
'31'
'yc'
'xo'
'slu'
'ial_'
'fläche_'
'feed_'
'es'
'clearance_'
'car_'
'asis_'
'ania_'
'Tr'
'För'
'Fre'
'28'
'taken_'
'stra'
'safe_'
'recommended_'
'ový_'
'og'
'mid'
'matière_'
'looking_'
'gs'
'fog'
'aldrig_'
'Sync_'
'Su'
'Sk'
'Nie'
'Mu'
'Ma'
'AC'
'vi'
'ther_'
'spe'
'sex_'
'rit'
'owego_'
'osi'
'oa'
'ner'
'ile'
'fal'
'extra'
'cular_'
'courant_'
'chain_'
'byl_'
'bullshit_'
'Ru'
'Most_'
'58_'
'ys'
'until_'
'spinal_'
'release_'
'pad'
'oe'
'od'
'neuro'
'lim'
'kol'
'ke'
'ić_'
'dn'
'dis'
'cer'
'cavity_'
'articulación_'
'addic7ed_'
'Like_'
'Ku'
'FE'
'Aw_'
'14'
'-'
'ád'
'zk'
'vz'
'umfassend_'
'tumour_'
'ton'
'tom'
'sg'
'mide_'
'measuring_'
'lle_'
'hurt_'
'ete_'
'enta'
'discharge_'
'cké_'
'cis'
'aris_'
'appropriate_'
'ah_'
'ab'
'Va'
'Ta'
'TRI'
'Hol_'
'HI'
'Genus_'
'Angio'
'50'
'''
'vod'
'vascular_'
'pluralité_'
'mic_'
'lop'
'intravenous_'
'ink'
'ht'
'fram'
'ets_'
'dne_'
'determined_'
'bude_'
'ask_'
'anie_'
'Me'
'IC'
'Honey_'
'Go'
'86_'
'35'
'ük_'
'wi'
'uta'
'upon_'
'sar'
'protection_'
'mala'
'lis'
'ink_'
'hen'
'hade_'
'categoría_'
'asi'
'arthritis_'
'ah'
'Zu'
'Vis'
'Pe'
'PA'
'Mmm_'
'General_'
'Do'
'Be'
'zin'
'vá'
'vid'
'substituted_'
'ris_'
'results_'
'proc'
'porucha_'
'ose_'
'mám_'
'fer'
'equal_'
'ena_'
'du'
'ay_'
'ava'
'Steuer'
'Skin_'
'My'
'Dobra_'
'Ber'
'AU'
'49_'
'22'
'ě'
'Č'
'és'
'ä'
'zar'
'vr'
'uk'
'suspensión_'
'pump_'
'ote'
'ord'
'miss_'
'lesdites_'
'ini'
'fre'
'co'
'canal_'
'En'
'33'
'year_'
'tag'
'surgery_'
'před'
'observed_'
'nic'
'nasal_'
'mélange_'
'ligt_'
'hernia_'
'heating_'
'ches_'
'cette_'
'ONE_'
'Ar'
'2b_'
'• _'
'ök_'
'vin'
'uz'
'ty'
'sy'
'sme'
'ren'
'pé'
'peripheral_'
'pattern_'
'otra_'
'ono'
'omi'
'nc'
'mar'
'large_'
'inom_'
'ická_'
'hi'
'hepatitis_'
'genannten_'
'all'
'added_'
'Vo'
'UND_'
'States_'
'Jack_'
'Helló_'
'Gy'
'Fi'
'vein_'
'ující_'
'uch'
'told_'
'things_'
'ować_'
'ori'
'jeweils_'
'ions'
'immuno'
'hol'
'heard_'
'ham'
'följande_'
'four_'
'cja_'
'cation_'
'beszél'
'Sha'
'Doc_'
'ára_'
'un'
'thereby_'
'tet'
'ság_'
'serious_'
'rö'
'pel'
'novotvar_'
'kann_'
'fuel_'
'edi'
'dra'
'denna_'
'controlling_'
'ciones_'
'cha'
'beautiful_'
'ausgewählt_'
'ausgebildet_'
'SE_'
'Mat'
'La'
'Kde_'
'HO'
'Ex'
'99_'
'61_'
'27'
'ál'
'weeks_'
'urine_'
'stan'
'promise_'
'pin'
'ped_'
'oxide_'
'ires_'
'ility_'
'dí'
'cho'
'bit'
'bak'
'bab'
'], _'
'Isn_'
'EN'
'7'
'α_'
'íd'
'sanguíneo_'
'rs'
'pulse_'
'points_'
'inde'
'han'
'dos'
'dio'
'carried_'
'best_'
'bel'
'ard_'
'War'
'Pra'
'Para'
'Nagyon_'
'Kap'
'Her'
'Fo'
'CA'
'zd'
'solid_'
'rán'
'pathy_'
'ovat_'
'nes'
'minutes_'
'log'
'kis'
'kas'
'infekce_'
'glad_'
'fort'
'enough_'
'cra'
'context_'
'additional_'
'Ent'
'89_'
'. "_'
')'
' ¡_'
'ín'
'tta'
'ski'
'ras'
'pré'
'przy'
'mal'
'lli'
'iques_'
'fil_'
'dob'
'bon'
'apply_'
'apo'
'Stra'
'Common_'
', '
'áll'
'tid_'
'też_'
'stupid_'
'safety_'
'referred_'
'paragraph_'
'odo'
'lipo'
'kurwa_'
'jed'
'iny_'
'ili'
'ht_'
'guy_'
'fat_'
'UL'
'Sto'
'Sir_'
'IO'
'DIS'
'yl'
'xy'
'wo_'
'stre'
'sic'
'report_'
'nsi'
'lás'
'lig_'
'lam'
'higher_'
'dzie'
'dependiente_'
'ber_'
'autres_'
'adverse_'
'May_'
'Len'
'íš_'
'video_'
'två_'
'tak'
'sz'
'sulfato_'
'sans_'
'po'
'nad_'
'bo'
'SO'
'Qui'
'Pri'
'On'
'Då_'
'Data_'
'Cy'
''._'
'ů'
'če_'
'yć_'
'ub'
'tos'
'therefore_'
'run'
'ones_'
'okej_'
'matter_'
'mas_'
'lesion_'
'job_'
'iga_'
'hiper'
'gen'
'family_'
'bye_'
'au'
'PER'
'NI'
'szi'
'sou'
'shi'
'sam'
'produced_'
'owych_'
'ndi'
'message_'
'led'
'ins_'
'hole_'
'hip_'
'hell_'
'gor'
'eto'
'electronic_'
'ele'
'compared_'
'bzw_'
'bych_'
'brother_'
'bring_'
'Sz'
'Jen_'
'IR'
'Fla'
'EC'
'%_'
'uram_'
'při_'
'piston_'
'lan'
'kot'
'individual_'
'esz'
'ester_'
'enterica_'
'dag_'
'core_'
'ck'
'capsule_'
'bro'
'bn'
'alu_'
'aguda_'
'WA'
'Stage_'
'84_'
'2009_'
'zumindest_'
'stin'
'sle'
'simple_'
'pes'
'org_'
'itu'
'eme_'
'contexto_'
'bör_'
'am'
'aco'
'Van_'
'VI'
'Un_'
'Tre'
'IS'
'42'
'zi_'
'tat'
'szt'
'self_'
'que'
'odi'
'nos'
'mes_'
'ló'
'kidney_'
'hel'
'glucose_'
'fréquence_'
'fos'
'ere'
'bec'
'bar'
'ali'
'UM_'
'Stu'
'Pot'
'OR'
'Mor'
'BE'
'29'
'ye'
'wor'
'sier'
'richtung_'
'respiratory_'
'pom'
'oxy'
'kid_'
'ind'
'emp'
'elektro'
'ból_'
'bles_'
'bearing_'
'axial_'
'[ _'
'Min_'
'MO'
'Einrichtung_'
'DES_'
'Chi'
'Bri'
'ží'
'ya'
'wys'
'wan'
'symptom_'
'ngen_'
'next_'
'ks'
'kam'
'growth_'
'fa'
'engine_'
'ence_'
'Ur'
'USE_'
'SA'
'Majd_'
'Kat'
'Em'
'Charlie_'
'Ac'
'55_'
'ől_'
'za'
'ven_'
'tó'
'tillbaka_'
'ste'
'rod'
'radiation_'
'minden_'
'juk_'
'hoz_'
'health_'
'gli'
'funny_'
'clear_'
'bli_'
'ach'
'Pi'
'MA'
'Huh_'
'Bro'
'Av'
'66_'
'ért_'
'ém'
'zę_'
'ug'
'top_'
'rig'
'oly'
'nit'
'lta'
'lek_'
'jel'
'impairment_'
'ile_'
'hit_'
'gamma_'
'elo'
'einge'
'czy'
'comporte_'
'comportant_'
'az'
'auto'
'arrangement_'
'and'
'addition_'
'Pla'
'OT'
'Nor'
'Met'
'Help_'
'Dys'
'CE_'
'Akkor_'
'21'
'ég_'
'zz'
'zor'
'wa'
'vä'
'vessel_'
'someone_'
'rte'
'radio_'
'ov'
'nen'
'nd'
'mand'
'kérem_'
'gra'
'gaz_'
'eti'
'driving_'
'dit'
'ding_'
'board_'
'aut'
'alo'
'actually_'
'Relax_'
'Les'
'Infection_'
'EM'
'Bla'
'01'
'über'
'án'
'wszystko_'
'vom_'
'vat_'
'ute'
'tre'
'thinking_'
'przeciw'
'neck_'
'kul'
'kow'
'itt'
'enligt_'
'distal_'
'bus_'
'behandling_'
'basis_'
'anticuerpo_'
'ada'
'Po'
'Per'
'IL'
'še'
'µm_'
'tte_'
'true_'
'tac'
'systems_'
'switching_'
'rest_'
'regard_'
'poz'
'mp'
'medication_'
'mate_'
'maj'
'lot_'
'ld_'
'fait_'
'est'
'ern'
'else_'
'date_'
'complex_'
'colon_'
'cas'
'cally_'
'byla_'
'alimentation_'
'aid_'
'ad'
'Us'
'Max_'
'Io'
'DEVICE_'
'CC'
'Acid_'
'ture_'
'syringe_'
'question_'
'při'
'pur'
'pri'
'potential_'
'oli'
'ob'
'nia'
'measures_'
'lle'
'il'
'hold_'
'fonction_'
'Zi'
'Vi'
'Síndrome_'
'Sam_'
'OP'
'GE_'
'CR'
'As_'
'AN'
'ť_'
'ře'
'utan_'
'rz'
'rad_'
'prote'
'outside_'
'oké_'
'oko'
'nor'
'members_'
'mechanism_'
'kanske_'
'ig'
'eś_'
'era'
'edge_'
'dia'
'cur'
'bal'
'art'
'Tri'
'Sajnálom_'
'Pro'
'NT'
'Ś'
'état_'
'usz'
'ud_'
'sb'
'posi'
'ou'
'ose'
'list'
'kur'
'gro'
'god_'
'fun_'
'front_'
'den'
'bri'
'article_'
'Star'
'PT'
'Or_'
'Insulin_'
'Each_'
'Cho'
'Bor'
'36'
'06_'
'ít'
'ág_'
'xt'
'whole_'
'ula_'
'the'
'prom'
'pro'
'pH_'
'out'
'list_'
'kel_'
'filled_'
'fen_'
'father_'
'ern_'
'ensemble_'
'coa'
'calcium_'
'analysis_'
'UI_'
'Por'
'Nat'
'NA_'
'Még_'
'Men'
'Mal'
'Form_'
'For'
'Far'
'Check_'
'AN_'
'?"_'
'że'
'ře_'
'ák'
'ß_'
'yli'
'wouldn_'
'uj_'
'spring_'
'samo'
'ram'
'pseudo'
'prueba_'
'nev'
'nek'
'nci'
'lag'
'kole'
'izo'
'ip'
'io'
'inget_'
'ido_'
'duct_'
'dop'
'cze'
'cou'
'bol'
'ata'
'allo'
'afraid_'
'Rei'
'IN'
'E'
'CH'
'Bu'
'Bru'
'BU'
'őr'
'ły'
'yg'
'teil_'
'qui'
'own_'
'nn'
'nch'
'majd_'
'ila'
'hé'
'gg'
'dur'
'din'
'cart'
'box_'
'VIII_'
'Licht'
'Congratulations_'
'CoA_'
'łam_'
'áz'
'zy'
'whereby_'
'vál'
'té'
'ties_'
'stored_'
'pp'
'ocular_'
'neo'
'medical_'
'lk'
'lichen_'
'inc'
'hy_'
'event_'
'enc'
'dial'
'de'
'composite_'
'class_'
'band_'
'aw'
'agy'
'Mc'
'Jsi_'
'Bio'
'104_'
'ött_'
'â'
'zen'
'zel'
'usa'
'ura'
'som'
'rot'
'rea'
'optique_'
'ont_'
'nau'
'nat'
'můj_'
'mina'
'location_'
'kę_'
'kri'
'infections_'
'haemorrhage_'
'flexible_'
'devices_'
'dermatitis_'
'delivery_'
'count_'
'cord_'
'cardiac_'
'ans'
'ace'
'acc'
'RT_'
'Ob'
'Mono'
'Mi'
'Ki'
'Kan'
'Hi'
'Dis'
'á'
'pó'
'piel_'
'nan'
'mama_'
'lg'
'lak_'
'které_'
'jd'
'ens'
'doses_'
'diameter_'
'dal'
'bek'
'acids_'
'Zusammensetzung_'
'Qua'
'Przy'
'LA'
'Kinase_'
'Dreh'
'AR_'
'tratamiento_'
'toxicity_'
'sódico_'
'stri'
'sant_'
'q_'
'provides_'
'produit_'
'máš_'
'mr'
'liberación_'
'las'
'especificado_'
'enk'
'dislocation_'
'by'
'as'
'VE'
'Id'
'CE'
'77_'
'. (_'
'', _'
'ło'
'ált_'
'tera'
'sne'
'pá'
'poly'
'pair_'
'ně'
'nó'
'mic'
'ler'
'kommissionen_'
'ism_'
'ida'
'ici'
'fu'
'fo'
'fe'
'eno'
'dě'
'Zo'
'Prop'
'GI'
'Ba'
'AS'
'100'
'ích_'
'ék'
'zn'
'vér'
'systemic_'
'stomach_'
'run_'
'ran'
'qua'
'nis'
'multi'
'matériau_'
'kop'
'kind_'
'ional_'
'inflammation_'
'ina'
'he'
'har'
'half_'
'ger'
'enzyme_'
'ef'
'dö'
'bro_'
'avi'
'assay_'
'any'
'Will_'
'WITH_'
'VI_'
'STA'
'Med'
'LL'
'IL_'
'Dobrý_'
'Cap'
'Auf'
'47_'
'ň_'
'zr'
'vě'
'vní_'
'ust'
'tter_'
'så'
'sur'
'rio_'
'ppe'
'of'
'nar'
'mas'
'male_'
'kon'
'ita'
'ido'
'gol'
'gar'
'em'
'Wszystko_'
'Ty'
'TO_'
'TER'
'Mag'
'IT'
'CT_'
'COR'
'78_'
'őket_'
'óz'
'électrique_'
'stream_'
'rc'
'osteo'
'orn'
'ore'
'nos_'
'ms'
'lip'
'kou'
'jedno'
'halo'
'gla'
'fatty_'
'esta'
'bor'
'ben'
'average_'
'ag_'
'Tak'
'Radio'
'Już_'
'EL'
'AG'
'?._'
') [_'
'vaccine_'
'subs'
'port_'
'peuvent_'
'pc'
'needle_'
'micro'
'lá'
'kr'
'hem_'
'fertőzés_'
'ete'
'dot'
'dea'
'cu'
'crónica_'
'bylo_'
'brom'
'blo'
'beam_'
'antagonist'
'ala_'
'TA'
'Sol'
'Receptors_'
'Pulmonary_'
'Lu'
'Inf'
'88_'
'ú'
'ése_'
'you'
'ua'
'transferase_'
'soit_'
'scar'
'rti'
'pan'
'ního_'
'ních_'
'mój_'
'maligno_'
'logical_'
'lní_'
'lement_'
'la'
'kit'
'ic'
'hu_'
'gre'
'fen'
'feeding_'
'eš_'
'effective_'
'direct_'
'composé_'
'ban'
'Ter'
'Spo'
'Son'
'Multiple_'
'Iso'
'Hypo'
'Gen'
'Endo'
'ří'
'í'
'zko'
've'
'vat'
'vaginal_'
'ura_'
'roll_'
'rek'
'pt_'
'presence_'
'prawda_'
'opposite_'
'negative_'
'mis'
'ian'
'hidro'
'ging_'
'ede'
'do'
'distribution_'
'Więc_'
'Schritt_'
'Op'
'Man_'
'KA'
'Gre'
'End'
'Bra'
'Azt_'
'As'
'130_'
'101_'
'.)_'
'. • _'
'wheel_'
'ulo'
'term_'
'panie_'
'mehreren_'
'mass_'
'lä'
'lap'
'kter'
'kie'
'karcinom_'
'ish_'
'hu'
'formation_'
'fin'
'ett'
'ect'
'dzi'
'dry_'
'bis'
'ante_'
'Tro'
'Porucha_'
'Pat'
'Ol'
'Ny'
'NEC_'
'Immuno'
'Dra'
'Ci'
'CAPSULE_'
'Bur'
'5mg_'
'34'
'"'
'zon'
'word_'
'vis_'
'su'
'radio'
'probably_'
'pf'
'než_'
'methyl'
'lf'
'lan_'
'ký_'
'kre'
'jár'
'hom'
'ga'
'eyes_'
'exc'
'ectomy_'
'dle_'
'ct'
'br'
'baj_'
'are'
'akkor_'
'Sure_'
'Ir'
'Doctor_'
'Any'
'32'
'zie'
'zab'
'tool_'
'text_'
'tell'
'sí'
'säger_'
'sl'
'services_'
'rák_'
'rg'
'pus'
'performed_'
'milk_'
'medicine_'
'kom_'
'humana_'
'gni'
'fixation_'
'disco'
'cz_'
'cy'
'binding_'
'af'
'aci'
'aby_'
'ZA'
'Shut_'
'ME_'
'Boże_'
' %_'
'ól'
'week_'
'ures_'
'ure'
'una'
'tro'
'sul'
'sinus_'
'sil'
'sh'
'sections_'
'required_'
'preparado_'
'pou'
'organ_'
'ok'
'nf'
'net_'
'met'
'masz_'
'load_'
'lat_'
'kér'
'isten'
'ide'
'hr'
'haj'
'forget_'
'ends_'
'easy_'
'dow'
'cor'
'až_'
'awi'
'EA'
'Bal'
'5mL_'
'): _'
'uc'
'tos_'
'thought_'
'status_'
'special_'
'spa'
'sob'
'slo'
'reconstituir_'
'reading_'
'ras_'
'pos'
'plastic_'
'plane_'
'person_'
'opa'
'olyan_'
'należy_'
'même_'
'keit_'
'jö'
'inserted_'
'ette_'
'dd'
'damn_'
'chu'
'att'
'ants_'
'Ten'
'TU'
'SP'
'Rat'
'Primary_'
'Poz'
'Nad'
'Lo'
'ET'
'Az'
';'
'š'
'össze'
'ící_'
'zás'
'zas'
'taky_'
'szív'
'soluble_'
'quantité_'
'pin_'
'pass_'
'ná'
'jego_'
'intermediate_'
'inj_'
'hl'
'före'
'egyéb_'
'but'
'buddy_'
'bud'
'blastic_'
'aba'
'VE_'
'Mé'
'Mám_'
'Indi'
'", _'
'že'
'ína_'
'° _'
'zap'
'vär'
'vání_'
'transmitted_'
'transistor_'
'tooth_'
'thickness_'
'tek'
'stor'
'sowie_'
'sit'
'sim'
'sco'
'receive_'
'pulmonar_'
'protein'
'ow'
'ong'
'oh'
'más_'
'mt'
'manner_'
'layers_'
'iu_'
'index_'
'ides_'
'hands_'
'gång_'
'gastro'
'exposure_'
'development_'
'attached_'
'aqueous_'
'Yep_'
'Lymphoma_'
'Jed'
'Epi'
'('
'Über'
'zad'
'ymi_'
'yb'
'whether_'
'utilisation_'
'urinary_'
'tud'
'sun'
'rov'
'pto'
'printing_'
'owo_'
'newborn_'
'nego_'
'mittels_'
'mat_'
'management_'
'mamma_'
'kt'
'kom'
'kn'
'isation_'
'ing'
'hate_'
'gu'
'fas'
'esp'
'esi'
'egy'
'caractérisée_'
'YL'
'Pos'
'Micro'
'Ec'
'Drug_'
'Den'
'Dec'
'DU'
'CP'
'Bet'
'Alpha_'
'Al'
'04_'
'* _'
'zol'
'zm'
'zem'
'vitamin_'
'vena_'
'vel'
'vas'
'top'
'temps_'
'ster'
'stadium_'
'since_'
'se'
'ros'
'prů'
'prior_'
'ph'
'particularly_'
'oti'
'mus'
'medi'
'mag'
'lit'
'ico'
'hatás'
'gruppe_'
'gna'
'fil'
'expuesta_'
'example_'
'esti'
'eren_'
'dessa_'
'chest_'
'bilaga_'
'ba'
'ata_'
'ale'
'Vol'
'Tor'
'Sy'
'Sarah_'
'SULFATE_'
'Proteins_'
'Oberfläche_'
'ND'
'GO'
'03_'
'élet'
'ví'
'vaso'
'vari'
'tér'
'syn'
'segment_'
'phy_'
'parmi_'
'ona'
'oba'
'nge'
'lon'
'logy_'
'lich_'
'les'
'ket'
'inhibitor_'
'former_'
'fle'
'fast_'
'detection_'
'deren_'
'có'
'baren_'
'akt'
'Wil'
'Spr'
'Peri'
'Myelo'
'Cs'
'Cor'
'Closed_'
'Bel'
'ères_'
'welcher_'
'uts'
'sér'
'sent_'
'scan_'
'owej_'
'någon_'
'mir'
'körper_'
'itida_'
'gran'
'gr'
'fetal_'
'fan'
'eli'
'degree_'
'color_'
'chemical_'
'besteht_'
'best'
'Tablet_'
'Sn'
'Sil'
'Rea'
'Ohh_'
'Lor'
'IA'
'Gas'
'CHE'
'BI'
'- '
'ús'
'íc'
'ában_'
'zet'
'während_'
'wy'
'watch_'
'vir'
'unter'
'uli'
'tida_'
'stati'
'spi'
'sf'
'sake_'
'rol'
're'
'rami'
'pí'
'pouvant_'
'passage_'
'muscular_'
'mat'
'lov'
'lie'
'kro'
'ized_'
'hy'
'fla'
'eu'
'dom'
'dine_'
'cto'
'cri'
'corps_'
'ani'
'allergic_'
'alis'
'Wei'
'Virus_'
'Ven'
'ST'
'Richtung_'
'Ri'
'PS'
'PE'
'Ot'
'Mad'
'Cre'
'ši'
'öv'
'ása_'
'yla'
'wk'
'uses_'
'uri'
'uf'
'tni'
'system'
'stádium_'
'ritonavir_'
'represents_'
'outlet_'
'mał'
'mato'
'lymph_'
'lou'
'kó'
'jó'
'ick'
'homo'
'ff'
'ethyl_'
'especially_'
'energi'
'ebe'
'dr_'
'dehydrogenase_'
'changes_'
'card_'
'cam'
'ami'
'RES'
'ON'
'Nem'
'MENT_'
'Gew_'
'Fine_'
'Die_'
'?'
'00'
'— _'
'xy_'
'welcome_'
'verk'
'therapeutic_'
'super'
'sp'
'sn'
'sma'
'shoulder_'
'rk'
'plat'
'pendant_'
'optionally_'
'nej'
'músculo_'
'mus_'
'mise_'
'mer'
'measured_'
'lev'
'lad'
'kö'
'keto'
'kap'
'induced_'
'hes_'
'go'
'entidad_'
'children_'
'bility_'
'ag'
'Van'
'Syn'
'Stay_'
'Rachel_'
'Při'
'Mommy_'
'Mari'
'Ki_'
'Daten'
'CEF'
'Blo'
'800_'
'è'
'tár'
'tre_'
'traumática_'
'transform'
'tej_'
'sze'
'rie_'
'polymère_'
'peptide_'
'owi'
'nost_'
'nne'
'nez'
'myo'
'mino'
'miento_'
'ligne_'
'late'
'krwi_'
'ion'
'håll'
'hn'
'hemorragia_'
'fis'
'fication_'
'everyone_'
'dés'
'document_'
'cito'
'calificador_'
'bien_'
'anormal_'
'acu'
'aca'
'Vem_'
'Var'
'Mikro'
'Elektro'
'Ambiguous_'
'112_'
'ące_'
'étapes_'
'ának_'
'zna'
'vol'
'ud'
'tě'
'tím_'
'tudom_'
'sister_'
'similar_'
'setting_'
'sal_'
'ris'
'replaced_'
'radial_'
'pack_'
'op'
'onto_'
'nádory_'
'nies'
'mm'
'mie'
'lea'
'lady_'
'graft_'
'gi'
'gh_'
'fog_'
'five_'
'czne_'
'cus_'
'burn_'
'biopsy_'
'Za'
'Vor'
'Sm'
'KO'
'Escherichia_'
'AD'
'...?_'
''-_'
'!'
'ň'
'éd'
'white_'
'wesentlichen_'
'voice_'
'vet'
'twice_'
'sugar_'
'sión_'
'semiconductor_'
'research_'
'på'
'play_'
'pis'
'ono_'
'nye'
'nodes_'
'nate_'
'mě'
'mellan_'
'luck_'
'lu_'
'kie_'
'kad'
'intérieur_'
'gene_'
'fér'
'emo'
'ee_'
'dó'
'che'
'cases_'
'almost_'
'Up'
'Ten_'
'Mer'
'GL'
'Dzięki_'
'DE'
'CON'
'AM'
'81_'
'" '
'ěn'
'čí'
'åter'
'yto'
'wasn_'
'uma'
'teraz_'
'tel'
'rá_'
'rou'
'rei'
'rav'
'pl'
'pana_'
'nervous_'
'necrosis_'
'months_'
'moc_'
'lik'
'leucemia_'
'kids_'
'kes_'
'jak'
'interne_'
'identification_'
'ible_'
'hot'
'door_'
'ded_'
'cycle_'
'coffee_'
'cas_'
'bili'
'abscess_'
'aII_'
'ULAR_'
'PVC_'
'Miért_'
'Man'
'Kr'
'January_'
'Dor'
'Ad'
'57_'
'é'
'zam'
'ver'
'uka'
'tere'
'separate_'
'mac'
'kép'
'hypo'
'hope_'
'follows_'
'dif'
'chacun_'
'cervix_'
'blister_'
'WE'
'VER'
'Test_'
'Neo'
'MILLIGRAM_'
'Es'
'Bild'
'BA'
'zo_'
'zik_'
'zer'
'zaj'
'win'
'ventricular_'
'trou'
'tired_'
'tan_'
'stör'
'species_'
'sound_'
'sions_'
'rine_'
'reo'
'plant_'
'orm'
'nombre_'
'movable_'
'milli'
'mel'
'marad'
'lia'
'leb'
'lc'
'które_'
'hou'
'gam'
'form'
'finger_'
'film'
'eck'
'concentrations_'
'assessment_'
'arm'
'ape'
'acetyl'
'Uni'
'Speicher'
'Sin'
'SS'
'Material_'
'ME'
'Enfermedad_'
'Dea'
'Cra'
'Cause_'
'CO_'
'Ano'
'AV'
'46'
'2a_'
' -'
'čt'
'íme_'
'éz'
'zal'
'wiem_'
'web_'
'vn'
'visual_'
'tack_'
'soft_'
'scared_'
'rgi'
'resistance_'
'processor_'
'nincs_'
'läkemedel_'
'logic_'
'lines_'
'leur_'
'jet_'
'hil'
'eze'
'electro'
'catalyst_'
'bra'
'aro'
'Sand'
'SYNDROME_'
'Rep'
'Ren'
'RE'
'Nas'
'Może_'
'John_'
'IX_'
'IM'
'73_'
'%), _'
'women_'
'tör'
'szy'
'szu'
'sweet_'
'stuff_'
'sejtes_'
'screen_'
'schicht_'
'rre'
'result_'
'rats_'
'problems_'
'osa'
'och'
'oc'
'mond'
'million_'
'meto'
'ld'
'kezelés_'
'jeszcze_'
'jeden_'
'iv_'
'infección_'
'ható_'
'ged_'
'dobry_'
'complete_'
'child_'
'cet'
'Ps'
'Nik'
'Már_'
'Hol'
'Ger'
'Didn_'
'Dam'
'Cel'
'CHLORIDE_'
'Amino'
'1998_'
'+ _'
' ¿_'
'ör_'
'ózní_'
'ód'
'ího_'
'vagyunk_'
'umo'
'tuberculosis_'
'tant_'
'sd'
'res'
'requirements_'
'rade_'
'prav'
'owanie_'
'oto'
'nec'
'má'
'mail_'
'lok'
'hm_'
'gru'
'ech_'
'détection_'
'drugs_'
'dr'
'dosage_'
'csinál'
'crap_'
'buta'
'The'
'Ser'
'Nap'
'Inte_'
'EX'
'Because_'
'200'
'!"_'
'št'
'ü'
'wie'
'vitro_'
'steuer'
'series_'
'sch'
'rod_'
'robi'
'relating_'
'rd'
'pru'
'powie'
'parties_'
'not'
'nah'
'nab'
'minute_'
'lék'
'linear_'
'lead_'
'kra'
'jící_'
'ings'
'inf'
'important_'
'heter_'
'hall'
'gén'
'ft'
'fs_'
'follow_'
'final_'
'ech'
'dk'
'controller_'
'ca'
'boys_'
'adeno'
'WATER_'
'Ram'
'OM'
'När_'
'Mel'
'Lympho'
'Köszönöm_'
'Kérem_'
'Komisji_'
'Kin'
'July_'
'Daddy_'
'/'
', - _'
' - (_'
'ěte_'
'utr'
'une'
'und'
'uer'
'tä'
'touch_'
'standard_'
'sta_'
'rzy'
'op_'
'nte'
'nivel_'
'lorsque_'
'leaving_'
'het'
'gos'
'gon'
'file_'
'fe_'
'end'
'contra_'
'cle_'
'cable_'
'bet'
'animals_'
'ado'
'ably_'
'Si_'
'Pom'
'Photo'
'PR'
'OB'
'Ly'
'Jeśli_'
'Gehäuse_'
'Excision_'
'Díky_'
'37'
'úgy_'
'öl'
'áv'
'zp'
'width_'
'weird_'
'vul'
'tz'
'rn_'
'rese'
'prac'
'poda'
'oxygen_'
'ogen'
'nå'
'neh'
'mí'
'medicines_'
'mad'
'loc'
'kin'
'kaw'
'jon_'
'gi_'
'generally_'
'fund'
'ferner_'
'eru'
'enti'
'ente_'
'enf'
'dt'
'doktor'
'dle'
'czas'
'cap_'
'bes'
'areas_'
'adhesive_'
'Tal'
'Masz_'
'KE'
'Il_'
'HE'
'C1_'
'Bol'
'AMPUL_'
'67_'
'ét'
'zne'
'yta'
'welches_'
'tle_'
'teď_'
'tebe_'
'seb'
'rätt_'
'running_'
'rp'
'rash_'
'plan'
'parameters_'
'nik'
'nel_'
'myelo'
'mol'
'men'
'matrix_'
'ledsen_'
'lb'
'lab'
'kérlek_'
'ky'
'forms_'
'eal_'
'dom_'
'desdits_'
'dental_'
'dele'
'cs'
'chlor'
'bla'
'bi'
'barn_'
'ball_'
'arbets'
'accidental_'
'aa'
'Zeit'
'Schicht_'
'NC'
'Mit_'
'INS'
'Hydro'
'GA'
'Frank_'
'Fen'
'Ak'
'...'
'zár'
'yo_'
'ule'
'towards_'
'tn'
'teeth_'
'sätt_'
'szk'
'substrat_'
'starting_'
'sed'
'sajnálom_'
'présentant_'
'profile_'
'positions_'
'olu'
'oj'
'nő'
'norm'
'lek'
'lehet_'
'lat'
'koz'
'initial_'
'haemo'
'gl'
'forth_'
'dul'
'druck'
'don'
'disc_'
'cute_'
'correspondant_'
'configuration_'
'bia'
'bell'
'api'
'ank'
'aka'
'acceptable_'
'Zaburzenia_'
'Mon'
'MU'
'Eins'
'1a_'
'160_'
' -- _'
' - '
'ű'
'ége'
'ája_'
'É_'
'wea'
'vé'
'transmitting_'
'tis'
'sie'
'rl'
'prost'
'pipe_'
'nds_'
'mixed_'
'lini'
'lac'
'kal'
'ization_'
'hon'
'holding_'
'hipo'
'glo'
'foli'
'figyel'
'faktor_'
'fabrication_'
'exp'
'dá'
'compression_'
'composés_'
'bru'
'blod'
'bed'
'US'
'UNG_'
'Sí_'
'SYSTEM_'
'Non'
'Kol'
'INTRAMUSCULAR_'
'Fin'
'EK_'
'Don'
'70'
'.. _'
'úst'
'zb'
'wia'
'sm'
'själv_'
'situación_'
'ré'
'rum_'
'relevant_'
'relation_'
'rare_'
'permet_'
'oxi'
'onal_'
'ním_'
'nog_'
'máj'
'mun'
'major_'
'lin'
'leukemie_'
'leku_'
'female_'
'dor'
'desired_'
'cti'
'combined_'
'bos'
'ač'
'ator_'
'anymore_'
'acides_'
'Ventil'
'UR'
'Poli'
'Pain_'
'PH'
'Kre'
'Ig'
'GU'
'El_'
'šn'
'új'
'vor_'
'vo_'
'vl'
'vera'
'vag'
'ung'
'szar'
'sym'
'supérieure_'
'sten'
'rätt'
'ri'
'ral'
'přípravku_'
'py'
'pali'
'ology_'
'ne'
'lob'
'lal'
'iron_'
'ial'
'gef'
'gastrointestinal_'
'folgenden_'
'everybody_'
'ester'
'elin'
'działa'
'drag'
'bio'
'ate'
'applying_'
'ama'
'abo'
'Tin'
'Sensor'
'Scho'
'SU'
'SM'
'Nin'
'Minden_'
'Les_'
'Kit'
'IF'
'FORM'
'Cyto'
'Choroba_'
'Brenn'
'Blíže_'
'ATI'
'*_'
'úz'
'ön_'
'áb'
'zen_'
'ywa'
'yan'
'wife_'
'vys'
'vizsgálat_'
'varit_'
'után_'
'storing_'
'sod'
'sna'
'ro'
'ria'
'pra'
'pneumonia_'
'percent_'
'nse'
'man'
'male'
'kk'
'insertion_'
'insbesondere_'
'ild'
'idea_'
'fél'
'flo'
'fibre_'
'far_'
'evening_'
'enzym'
'eno_'
'ell'
'drog'
'dil'
'difference_'
'cse'
'clor'
'cke'
'cap'
'brz'
'bl'
'ans_'
'amin'
'ame'
'Zap'
'VO'
'Sä'
'Secondary_'
'Se_'
'PP'
'Ok'
'IST'
'Europeiska_'
'Ele'
'ED'
'Bone_'
'61'
'ős'
'ügy'
'ával_'
'zation_'
'utat'
'unk'
'tü'
'tur'
'treating_'
'tongue_'
'teri'
'tal'
'sö'
'supp'
'sobre_'
'sab'
'ru_'
'rn'
'resi'
'resección_'
'rein'
'properties_'
'plates_'
'ove'
'mito'
'kinase_'
'jcie_'
'iva_'
'inhibitors_'
'há'
'genic_'
'fosfato_'
'ellen'
'dw'
'dosta'
'dor_'
'com'
'chs'
'chr'
'chan'
'cc'
'betegségek_'
'ana'
'Zn'
'TS_'
'Syndromes_'
'Spe'
'Position_'
'Polymer'
'Information_'
'GM'
'Fog'
'Cette_'
'Bre'
'Bit'
'Ben'
'41'
'– _'
'wire_'
'vérzés_'
'ural_'
'tot'
'tig'
'säga_'
'sä'
'sup'
'sulfate_'
'stick'
'sprawie_'
'shown_'
'sho'
'receiver_'
'polyp'
'obu'
'ną_'
'lav'
'lage_'
'kta'
'jin'
'iti'
'ira'
'hueso_'
'fá'
'conversion_'
'brought_'
'bic'
'beslut_'
'aza'
'ario_'
'anticuerpos_'
'Yo_'
'Vá'
'Sie'
'RA'
'Pen'
'Låt_'
'Hiper'
'AUC_'
'39'
','
' ]_'
'ó'
'yz'
'wó'
'wanie_'
'vk'
'turn_'
'tok_'
'tohle_'
'tea'
'stro'
'sig'
'shh_'
'school_'
'rå'
'reacción_'
'ora_'
'nel'
'nai'
'money_'
'mio'
'mikro'
'masse_'
'lem_'
'kry'
'immediately_'
'igaz_'
'hely'
'happening_'
'gjorde_'
'första_'
'fol'
'erk'
'enregistrement_'
'ening_'
'emboli'
'dan'
'comb'
'cid'
'cef'
'bet_'
'anc'
'alright_'
'Thi'
'Slo'
'POLY'
'Kérlek_'
'Jak'
'Eli'
'Electro'
'ELE'
'Dal'
'Al_'
' ... _'
'ąd'
'uterine_'
'tit'
'tio_'
'telle_'
'spine_'
'ruk'
'program'
'penis_'
'ož'
'oso'
'några_'
'nose_'
'modificada_'
'micrograms_'
'live_'
'lak'
'kna'
'jen'
'jeder_'
'interferon_'
'insulina_'
'ieren_'
'hen_'
'get'
'gebildet_'
'först'
'enic_'
'eff'
'domu_'
'dol'
'cí'
'cylinder_'
'csi'
'cr'
'cooling_'
'communications_'
'bé'
'busy_'
'brat'
'bod'
'betegek_'
'ał_'
'ark'
'ares_'
'Shi'
'Post_'
'Om'
'EHS_'
'CYP'
'Bee'
'Anzeige'
'Adeno'
'83_'
'59_'
'.@_'
'... '
'( _'
'úr'
'öd'
'vil'
'va'
'sv'
'subject_'
'reg'
'receptory_'
'przed'
'prze'
'produce_'
'plasti'
'partial_'
'nl'
'logi'
'idu'
'gondol'
'friends_'
'fond'
'esc'
'dz'
'div'
'darling_'
'cru'
'conductive_'
'bea'
'be'
'Zapalenie_'
'Verbindungs'
'Spin'
'San'
'Novo'
'Nos_'
'Gra'
'GS'
'EL_'
'Dos'
'Composition_'
'Chlor'
'CM'
'Bud'
'Antriebs'
'Ami'
'90'
'52'
', -_'
'wz'
'vän'
'thermal_'
'sít'
'sensitive_'
'sealing_'
'rm'
'retro'
'ret'
'rag'
'pub'
'pont_'
'pharmaceutical_'
'oz_'
'ování_'
'ost'
'ní'
'nou_'
'molecular_'
'minimum_'
'malignus_'
'lovely_'
'indi'
'hö'
'hív'
'hereby_'
'hat'
'fish_'
'fag'
'eo_'
'ember_'
'clock_'
'było_'
'bow'
'ake'
'akar'
'adjustment_'
'Tru'
'Sko'
'Sim'
'Promiň_'
'Pow'
'Pin'
'Patients_'
'Ned'
'Mol'
'Having_'
'Gli'
'COATED_'
'. - '
'óc'
'ób'
'tation_'
'stenosis_'
'sr'
'sia'
'rim'
'ration_'
'ovi'
'obje'
'neve'
'neu'
'metod'
'lég'
'lumbar_'
'iá'
'inférieure_'
'ih'
'hro'
'hemato'
'genital_'
'fick_'
'facial_'
'equipment_'
'environment_'
'ene'
'designed_'
'dem'
'bind'
'basi'
'aktiv'
'agi'
'abi'
'XA'
'St'
'Pan_'
'Neoplasia_'
'Move_'
'Methyl'
'LIDOCAINE_'
'Istenem_'
'FO'
'Elnézést_'
'Alkyl_'
'106_'
'šl'
'ś'
'ös'
'vý_'
'vég'
'ula'
'tá'
'transport'
'totally_'
'tok'
'sá'
'sjuk'
'roller_'
'relax_'
'prob'
'potassium_'
'pohodě_'
'pes_'
'ort_'
'oedema_'
'nech'
'mez'
'jan'
'iska_'
'gäller_'
'fibro'
'etwa_'
'esz_'
'disp'
'côté_'
'csö'
'conf'
'cle'
'cka_'
'cir'
'cia'
'benign_'
'aluminium_'
'SY'
'PU'
'Ná'
'Marc'
'Lan'
'KI'
'Harry_'
'Farb'
'ENT'
'Cur'
'CL'
')/_'
'ą'
'óg'
'électrode_'
'woman_'
'vic'
'vertical_'
'uria_'
'tly_'
'tiv'
'thermo'
'ters_'
'supporting_'
'spr'
'san_'
'ned'
'model_'
'ment'
'mellitus_'
'mea'
'mate'
'lasia_'
'ków_'
'když_'
'house_'
'gá'
'ground_'
'gri'
'god'
'geh'
'ert'
'cylindrical_'
'coil_'
'cab'
'bottom_'
'bilden_'
'audit_'
'anyway_'
'amp'
'amending_'
'acetate_'
'Sus'
'Sea'
'Rec'
'Pře'
'Our_'
'OG'
'Kal'
'JA'
'Innen'
'Ia'
'Hor'
'Has'
'Gyerünk_'
'Fol'
'EPI'
'Cla'
'Ble'
'Barr'
'Abnormal_'
'75'
'108_'
'...._'
' ] _'
'žit'
'ší'
'ými_'
'ück'
'én'
'ást_'
'zni'
'yk'
'wat'
'vagina_'
'there'
'temp'
'spraw'
'ska'
'saying_'
'san'
'rst'
'rend'
'rap'
'puls'
'pu'
'ony'
'omo'
'ogy_'
'néz'
'mó'
'mur'
'lot'
'liaison_'
'känner_'
'kup'
'ingar_'
'hing_'
'hez_'
'gł'
'grade_'
'glándula_'
'flat_'
'dit_'
'disc'
'dieser_'
'deh'
'copy_'
'borde_'
'blast'
'amide_'
'aga'
'SION_'
'RC'
'Proč_'
'Prote'
'Over'
'MM'
'Ii'
'INTER'
'Dziękuję_'
'Dental_'
'Auto'
'Aus'
'ós_'
'åtgärder_'
'áž'
'áh'
'xia_'
'uct'
'tria'
'threshold_'
'straight_'
'semmi_'
'rf'
'ram_'
'radical_'
'platte_'
'ouverture_'
'oda'
'lens_'
'lag_'
'js'
'intestinal_'
'ifi'
'headache_'
'dedo_'
'couldn_'
'continuous_'
'close_'
'bolsa_'
'ał'
'articular_'
'antip'
'anderen_'
'Wi'
'Vielzahl_'
'UC'
'Tc_'
'RIC'
'Promiňte_'
'II'
'Hydroxy'
'Hand'
'EI'
'Dy'
'Ce_'
'AZ'
'87_'
'51'
'1996_'
'ï'
'így_'
'zg'
'ville_'
'varie'
'tran'
'thin_'
'tetra'
'ställ'
'smi'
'several_'
'sca'
'rop'
'profil'
'nm_'
'ml'
'mie_'
'metil'
'lio'
'link'
'liga'
'lep'
'lect'
'ků_'
'kl'
'kibaszott_'
'jn'
'ise'
'included_'
'groupes_'
'fri'
'fluoro'
'fiber_'
'fem'
'events_'
'ets'
'err'
'erh'
'dni'
'coupling_'
'choroba_'
'benigna_'
'aufweisen_'
'ative_'
'ates_'
'adenoma_'
'ZO'
'Wor'
'Vic'
'Sze'
'Stan'
'Spa'
'Li'
'Lea'
'Haupt'
'Familial_'
'Ezt_'
'Ein_'
'Din_'
'44'
'43'
'ür'
'énergie_'
'éj'
'yczne_'
'ving_'
'valeurs_'
'valami_'
'tric'
'szen'
'sus_'
'supra'
'spar'
'sc'
'row'
'rez'
'proximal_'
'prec'
'omp'
'nce'
'mówi'
'mmol_'
'miss'
'mark_'
'lem'
'leka'
'ką_'
'kart'
'jusqu_'
'jasn'
'intracranial_'
'images_'
'hä'
'hungry_'
'fájdalom_'
'fully_'
'ffe'
'femoral_'
'erung_'
'cuello_'
'contain_'
'consists_'
'can'
'branch_'
'Vir'
'Rö'
'Pří'
'October_'
'Nu'
'Mes'
'Lä'
'Joint_'
'However_'
'CD1'
'Ass'
'Ala'
'ří_'
'ład'
'éra'
'yi'
'ycin_'
'wł'
'tio'
'ske'
'regions_'
'ree'
'quality_'
'pti'
'partner_'
'niż_'
'neked_'
'nagy_'
'nagy'
'myśl'
'mu'
'lő'
'lova'
'lon_'
'linfoma_'
'interval_'
'ically_'
'hang'
'graphy_'
'gal'
'dru'
'dl_'
'consiste_'
'concerning_'
'cción_'
'break_'
'book_'
'azon'
'app'
'Tim'
'Takže_'
'Semmi_'
'Sat'
'SL'
'Ry'
'Mos'
'Meg_'
'Injection_'
'Indu'
'HT'
'FL'
'Dude_'
'DISEASE_'
'Committee_'
'Com'
'Ben_'
'Antigen_'
'Ans'
'AB'
'ęk'
'ót_'
'zac'
'walk_'
'vertebral_'
'udi'
'tubular_'
'tta_'
'tim'
'teil'
'sit_'
'short_'
'podobn'
'pec'
'ond'
'odl'
'oco'
'nån_'
'mé'
'musi'
'mpo'
'mogę_'
'kül'
'kalla'
'iva'
'isz_'
'injectable_'
'hydroxy_'
'gan'
'functional_'
'experience_'
'ensi'
'ecto'
'dup'
'derived_'
'cza'
'cran'
'correction_'
'considered_'
'clean_'
'cký_'
'cio'
'careful_'
'bottle_'
'awa'
'atic_'
'alkohol'
'abe'
'With_'
'Trastorno_'
'Syndrom_'
'Neoplasms_'
'LA_'
'Jesus_'
'Jake_'
'Entero'
'2010_'
'180_'
'β_'
'Ő_'
'électro'
'äl'
'zé'
'wyb'
'words_'
'wireless_'
'whe'
'versehen_'
'tál'
'trig'
'trans'
'tests_'
'szn'
'suba'
'spectr'
'sett_'
'sea'
'rm_'
'raf'
'quit'
'purpura_'
'provisions_'
'prot'
'pixel_'
'okr'
'neonatal_'
'nav'
'natural_'
'might_'
'jt'
'jedn'
'ilo_'
'ille'
'ila_'
'gyógyszer'
'geb'
'feno'
'ende'
'dude_'
'del'
'cyclo'
'cutting_'
'cop'
'composant_'
'behavior_'
'bat'
'anf'
'aff'
'ac_'
'Watch_'
'UN'
'Ras'
'Lipo'
'Jas'
'Is'
'Förlåt_'
'E1'
'DIA'
'ASE_'
'# _'
'ész'
'yna'
'wał'
'uh'
'travers_'
'thio'
'tam'
'samt_'
'policy_'
'oso_'
'nom'
'many_'
'lé_'
'kóros_'
'jeśli_'
'ioni'
'inga_'
'hetero'
'hand'
'dessen_'
'conc'
'cad'
'blind_'
'RS_'
'Py'
'Port'
'Nothing_'
'Michael_'
'Hell_'
'ENT_'
'EGK_'
'Best'
'Abschnitt_'
'.-% _'
'šk'
'via'
'uč'
'umi'
'tus_'
'tas'
'stu'
'rest'
'psych'
'pp_'
'okozta_'
'nano'
'mér'
'mår_'
'mindig_'
'ią'
'ité_'
'intr'
'ien_'
'használ'
'graphi'
'formant_'
'ew'
'esse'
'eso'
'eset'
'erythro'
'erf'
'dip'
'dig'
'described_'
'ching_'
'ałem_'
'arna_'
'answer_'
'anordnung_'
'amb'
'UP'
'THE'
'State_'
'Sco'
'SH'
'SA_'
'Rand'
'RELEASE_'
'Meta'
'Kate_'
'Gro'
'David_'
'Con'
' °_'
'łu'
'ê'
'ático_'
'whose_'
'waste_'
'uterus_'
'ulf'
'tional_'
'tik'
'throat_'
'testing_'
'szá'
'suitable_'
'staw'
'sky'
'scho'
'pregnant_'
'particules_'
'parameter_'
'nö'
'nst'
'married_'
'lever_'
'iot'
'immun'
'ias_'
'harm'
'förb'
'expression_'
'exi'
'erc'
'erb'
'ente'
'enco'
'eating_'
'dorsal_'
'directly_'
'detected_'
'death_'
'cht'
'bou'
'bie'
'asp'
'ase'
'après_'
'ant'
'anor'
'amazing_'
'\\_'
'ZI'
'Tom'
'STI'
'SS_'
'Rev'
'Pap'
'Oc'
'Nes'
'NT_'
'NN'
'Min'
'MEN'
'IP'
'IG'
'Hä'
'Hereditary_'
'80'
'38'
'zle'
'wyk'
'wear_'
'vyp'
'uno'
'ual_'
'tica_'
'stä'
'started_'
'shock_'
'sav'
'rus'
'rta'
'rak'
'quement_'
'prdele_'
'positioned_'
'osk'
'nda_'
'motor'
'lép'
'lying_'
'lo'
'kiem_'
'jące_'
'iss'
'ien'
'idad_'
'ház'
'hour_'
'hagy'
'gt'
'gjort_'
'gar_'
'fistula_'
'fact_'
'fac'
'evi'
'eran'
'déterminer_'
'dis_'
'dam'
'cond'
'bot'
'bas'
'amplitude_'
'VII_'
'Sar'
'Peter_'
'Nut'
'Nincs_'
'Nan'
'MCG_'
'Injectable_'
'HER'
'Group_'
'Gel'
'GR'
'Frank'
'Fracture_'
'Fil'
'Fibro'
'Fahrzeug'
'FU'
'Element_'
'Czy'
'Baby_'
'Am'
'79_'
'55'
'ási_'
'²_'
'zlato_'
'wis'
'utilisateur_'
'ui'
'uci'
'tý'
'tych_'
'tv'
'tul'
'su_'
'ssi'
'sero'
'see'
'schl'
'rz_'
'rozporządzenia_'
'ron'
'rob'
'removal_'
'public_'
'prédéterminée_'
'programmes_'
'produits_'
'polya'
'oter'
'opathy_'
'nap_'
'moment_'
'moi'
'lee'
'jävla_'
'imm'
'hia'
'goin_'
'fell'
'evaluation_'
'ept'
'dic'
'daughter_'
'cul'
'contained_'
'cartridge_'
'bolest_'
'bli'
'ausge'
'aufge'
'ard'
'anne'
'ang'
'WO'
'Une_'
'Snälla_'
'SCH'
'Run_'
'RR'
'Phil'
'LAN'
'Kontakt'
'JE'
'IE'
'ID'
'Happy_'
'Et'
'Der'
'Dans_'
'Cz'
'Cut'
'Cardiac_'
'CHMP_'
'). _'
'íl'
'émie_'
'zes'
'uję_'
'toni'
'tes'
'specimen_'
'ryn'
'rw'
'rus_'
'rules_'
'rie'
'ric'
'quil'
'poste'
'pea'
'pap'
'page_'
'pac'
'omer'
'nélkül_'
'nám_'
'niez'
'nerv'
'nep'
'líquido_'
'lympho'
'lni'
'kal_'
'ještě_'
'integrated_'
'int'
'illa_'
'ib'
'eur'
'ents_'
'eni_'
'electrically_'
'dde'
'dd_'
'configured_'
'conducto_'
'cie'
'bestehend_'
'ache'
'Ya'
'Welcome_'
'VERFAHREN_'
'UT'
'Sho'
'STO'
'Reg'
'REG'
'Pul'
'Pres'
'Ph'
'Pane_'
'Mike_'
'Magnet'
'Jin'
'Ji'
'HYDRO'
'Dep'
'Choroby_'
'April_'
'64'
'62'
'#_'
'śmy_'
'ř_'
'čin'
'změn'
'zenie_'
'vitesse_'
'uti'
'ugye_'
'toxic_'
'thy_'
'tami'
'supplied_'
'super_'
'skull_'
'sec'
'sclerosis_'
'sad'
'ron_'
'rende'
'rage_'
'paper_'
'noise_'
'nepo'
'mutat'
'mert_'
'mec'
'lymphocytic_'
'ktiv'
'immunoglobulin_'
'iera'
'fourth_'
'flux_'
'fire_'
'extr'
'dm'
'dj'
'disk_'
'density_'
'dat_'
'cina_'
'bild'
'ast'
'anal_'
'acetato_'
'abge'
'YT'
'Tom_'
'Strom'
'Sp'
'Ray'
'REN'
'PAR'
'OJ_'
'Multi'
'Mama_'
'Maga_'
'MAT'
'Injury_'
'Ile'
'Han'
'Erythro'
'EMEA_'
'Bot'
'Außen'
');_'
'Ž'
'ży'
'őt_'
'čí_'
'íb'
'åk'
'ägg'
'áp'
'Úgy_'
'zol_'
'wego_'
'vit'
'vision_'
'vez'
'vagin'
'urz'
'upp'
'uo'
'ulu'
'twój_'
'twe'
'tní_'
'tif'
'szó'
'servant_'
'screw_'
'réalisation_'
'rand'
'rab'
'psi'
'preparing_'
'pic'
'perfect_'
'ovan'
'obstruction_'
'ntes_'
'nter'
'nig'
'neurčené_'
'mét'
'mon_'
'mol_'
'mni'
'lymfom_'
'lp'
'looks_'
'lod'
'lic'
'lel'
'kaz'
'jük_'
'hozzá'
'gh'
'fråga_'
'familiar_'
'ečn'
'exo'
'enz'
'dv'
'dra_'
'davon_'
'cé'
'cre'
'completely_'
'cing_'
'carbon'
'car'
'axe_'
'ang_'
'YE'
'XI'
'Uk'
'UM'
'Tho'
'TRA'
'Rot'
'PD'
'OH_'
'Mój_'
'Moje_'
'Media'
'Liver_'
'Jane_'
'Hele_'
'Ham'
'Haemo'
'Grund'
'Form'
'Film_'
'Coc'
'CT'
'Bra_'
'Agent_'
'Aah_'
'AS_'
'450_'
' # _'
'ün'
'úl'
'år'
'äs'
'ác'
'zavar_'
'ws_'
'waiting_'
'vulva_'
'vannak_'
'típusú_'
'thyroid_'
'thrombo'
'sistema_'
'rma'
'pris'
'pid'
'pewn'
'otros_'
'ota'
'ofa'
'nul'
'neg'
'mini'
'maga_'
'läs'
'lun'
'krvácení_'
'jé'
'jun'
'ionen_'
'igu'
'hr_'
'hep'
'gn'
'gent'
'established_'
'enter'
'else'
'electrodes_'
'ctomy_'
'chlap'
'cher_'
'caused_'
'carbo'
'bö'
'adás'
'Zr'
'Two_'
'Streptococcus_'
'Sor'
'Ring'
'Rad'
'Proto'
'Metall'
'Medi'
'Mam'
'Joe_'
'IB'
'Há'
'Ep'
'Cro'
'Cholera_'
'Cervix_'
'CHA'
'BRA'
'Af'
'ANT_'
'5ML_'
'*'
'ži'
'řen'
'ąd_'
'äu'
'zą'
'whi'
'usion_'
'tutaj_'
'tabletta_'
'stress_'
'sni'
'sell'
'sbe'
'rr'
'ring'
'rin_'
'ret_'
'prov'
'pon'
'perc'
'panel_'
'oxo'
'nádor_'
'nto'
'nekem_'
'market_'
'macro'
'liw'
'lette'
'itel'
'ire'
'intestine_'
'hearing_'
'gm'
'ght'
'gastric_'
'fica'
'fibrosis_'
'etc_'
'ese'
'entero'
'dózis'
'desdites_'
'defect_'
'coo'
'cil'
'ciel'
'chor'
'chod'
'cannot_'
'bym_'
'budu_'
'atr'
'alter'
'als'
'ae'
'adrenal_'
'acting_'
'Wie'
'Ul'
'Tel'
'Säg_'
'Sel'
'Psycho'
'Osteo'
'Name_'
'GRA'
'Disc'
'Diabetes_'
'Cli'
'Cal'
'Ant'
'Am_'
'63_'
'54'
'53'
'):_'
'ática_'
'zne_'
'zine_'
'yr'
'wyda'
'vaj'
'types_'
'tum_'
'tf'
'tas_'
'structures_'
'stig'
'significant_'
'rost'
'retinal_'
'rci'
'pyr'
'przyj'
'pol'
'peg'
'operative_'
'nél_'
'nym_'
'mounting_'
'marketing_'
'lko'
'land'
'kor_'
'kin_'
'kali'
'jon'
'ito'
'ino_'
'innehåller_'
'injektions'
'inen'
'ij'
'happened_'
'gle'
'gate_'
'fé'
'exemple_'
'ento_'
'emi'
'els_'
'els'
'dystrophy_'
'dni_'
'coni'
'ats_'
'aku'
'Win'
'Vänta_'
'Sou'
'OF'
'Nar'
'It'
'IgE_'
'Ge'
'Er_'
'Clo'
'Can'
'Ai'
'ANTI'
'140_'
' #_'
'ť'
'öz'
'ít_'
'więc_'
'volna_'
'voi'
'visz'
'ungss'
'tun'
'trials_'
'tiss'
'therein_'
'terri'
'server_'
'schi'
'région_'
'rib'
'qualifier_'
'psycho'
'press_'
'prata_'
'pas'
'otitis_'
'old'
'off'
'obe'
'nya_'
'nin'
'nausea_'
'nam_'
'nak'
'může_'
'mole_'
'mes'
'mami_'
'magnétique_'
'link_'
'kór'
'komma_'
'kit_'
'ition_'
'iro'
'ipa'
'insulin'
'inne'
'indu'
'ika'
'ied_'
'ické_'
'hej_'
'fluide_'
'etic_'
'erz'
'error_'
'elt'
'eg_'
'deep_'
'conten'
'centre_'
'był_'
'bun'
'base'
'antenna_'
'alltid_'
'ako'
'agu'
'absorption_'
'Zw'
'Veleszületett_'
'TOPICAL_'
'Sv'
'Stre'
'ST_'
'Pus'
'Lé'
'Jun'
'International_'
'HEA'
'HC'
'Gru'
'Got_'
'Easy_'
'Dev'
'Col'
'Bea'
'Ban'
'Any_'
'Ana'
'Alb'
'After_'
'.'_'
'ź'
'č'
'öt'
'wave_'
'vie'
'vak'
'uso_'
'trochę_'
'trat'
'tli'
'telefon'
'tag_'
'séquence_'
'suk'
'stom'
'steht_'
'rub'
'resulting_'
'receptor'
'rar_'
'před_'
'penta'
'okat_'
'nod'
'nařízení_'
'nal'
'mö'
'más'
'mont'
'mental_'
'line'
'lig'
'laz'
'klo'
'inlet_'
'influenza_'
'ienia_'
'horizontal_'
'herpes_'
'grad'
'girls_'
'funk'
'duct'
'cible_'
'biological_'
'bau'
'arterial_'
'allow_'
'alin'
'Unter'
'Träger'
'Seite_'
'Pou'
'Morning_'
'Mik'
'Mell'
'Hemo'
'Health_'
'Emily_'
'Dro'
'Cont'
'Cat'
'Bil'
'Bardzo_'
'Ali'
'zte'
'ume'
'ubi'
'tras'
'tch_'
'só'
'sucks_'
'spaced_'
'sos_'
'sites_'
'sau'
'rubber_'
'przek'
'pok'
'pelvic_'
'oll'
'neki_'
'nach'
'merc'
'mell'
'megl'
'lít'
'lei'
'kochanie_'
'kine'
'keres'
'ita_'
'indicated_'
'herida_'
'got'
'glycol_'
'generator_'
'fraction_'
'extends_'
'ekt'
'eco'
'dáv'
'diso'
'dihydro'
'diese_'
'date'
'conform'
'cat'
'bok'
'bee'
'basz'
'asz'
'arn'
'anl'
'adn'
'ade'
'Was'
'Vel'
'TRE'
'TEN'
'Source_'
'SIN'
'Ran'
'Pal'
'NU'
'Mic'
'IV'
'Eth'
'Coo'
'COL'
'Beta_'
'Beh'
'Att'
'Ald'
': "_'
'196'
'114_'
'őd'
'ět'
'ö'
'även_'
'áció'
'zasran'
'yle_'
'vän_'
'ved_'
'use'
'uré'
'ue'
'több'
'tod'
'tiszt'
'sounds_'
'some'
'sof'
'skä'
'sides_'
'sensiblement_'
'ről_'
'rza'
'ruc'
'rom'
'rne'
'rip'
'quelle_'
'porte_'
'pneumo'
'particle_'
'osob'
'nsa'
'nder_'
'nato'
'muco'
'modified_'
'meter_'
'metabolism_'
'manufacturing_'
'legs_'
'köl'
'krá'
'kost'
'kaps'
'jí'
'insufficiency_'
'idin'
'función_'
'fili'
'eć_'
'exist'
'eci'
'dobr'
'derart_'
'compl'
'break'
'barre'
'acz'
']'
'Za_'
'Wr'
'Vy_'
'USE'
'TAN'
'She'
'Sende'
'Res'
'Que'
'Pyr'
'Plat'
'PG'
'Nick_'
'NS'
'Mala'
'Kurva_'
'Gal'
'Flo'
'Fal'
'Emb'
'Doesn_'
'Deli'
'Cou'
'Cerebral_'
'A2_'
'. –_'
'” _'
'ł'
'öm_'
'ök'
'íz'
'ículo_'
'ére'
'ény'
'ätta'
'äh'
'yn_'
'vomiting_'
'vac'
'uns'
'tl'
'tie'
'tab'
'sé_'
'sty_'
'sse_'
'snížen'
'sci'
'sac'
'retirado_'
'react'
'rbe'
'préparation_'
'probe_'
'pred'
'porod'
'phen'
'perforation_'
'particulier_'
'our'
'ope'
'omat'
'obo'
'nsk'
'moc'
'mk'
'manage'
'light'
'lidocaína_'
'kontakt'
'jedes_'
'jaj'
'iri'
'imaging_'
'identifi'
'hra'
'gya'
'gin'
'gia_'
'gena'
'erst'
'dov'
'desp'
'deformity_'
'complication_'
'coc'
'carrying_'
'bs_'
'bef'
'aś_'
'amplifier_'
'adenocarcinoma_'
'accès_'
'Zas'
'VIL_'
'Test'
'Tel_'
'Tar'
'Something_'
'Sna'
'SYRINGE_'
'STE'
'Pseudo'
'Prim'
'Opi'
'Nech'
'Mea'
'Mary_'
'Kis'
'Intravenous_'
'Fetal_'
'ECT'
'Detta_'
'Amy_'
'Alkyl'
'AK'
'45'
'ęp'
'ím'
'ési_'
'ág'
'ách_'
'zid'
'yna_'
'wow_'
'wet_'
'vezet'
'varje_'
'vacuum_'
'uš'
'ute_'
'ude'
'ual'
'tö'
'tts'
'transverse_'
'tm'
'tiz'
'thus_'
'thoracic_'
'sd_'
'samma_'
'rád_'
'resistant_'
'produire_'
'poh'
'papil'
'package_'
'ovo'
'ofi'
'ności_'
'nim_'
'liśmy_'
'lip_'
'leczenia_'
'kez'
'ios'
'iona'
'intravenosa_'
'ima'
'idine_'
'hét'
'hypertension_'
'hyl'
'hov'
'ford'
'fai'
'erstreckt_'
'erade_'
'dese'
'dek'
'crystal_'
'cardio'
'brac'
'bits_'
'birthday_'
'bi_'
'amina_'
'align'
'Vér'
'Urine_'
'Tylko_'
'TRANS'
'Signal'
'Ost'
'NAD_'
'Mot'
'Milyen_'
'INI'
'HS'
'Fred'
'Ed'
'By_'
'Belgi'
'Band'
'Aren_'
'AI'
'66'
'5MG_'
'." _'
'%._'
'₂_'
'ők_'
'ón'
'év'
'ést_'
'zku'
'zep'
'wątroby_'
'wn'
'walls_'
'viz_'
'tub'
'thrombosis_'
'tent'
'tain'
'szem'
'sufficient_'
'stá'
'stru'
'stopp'
'sse'
'soci'
'seri'
'sens'
'seat_'
'rik'
'return_'
'región_'
'pussy_'
'previous_'
'patía_'
'ozo'
'ort'
'orient'
'nv'
'mixing_'
'mesure_'
'mak'
'lut'
'ligen_'
'less'
'ksy'
'kos'
'kola'
'ják_'
'isa'
'intermédiaire_'
'inne_'
'iko'
'huvud'
'hjälpa_'
'hier'
'gerät_'
'fore'
'felt'
'exactly_'
'erl'
'employ'
'ei'
'early_'
'dost'
'depression_'
'cht_'
'charge'
'carbone_'
'calling_'
'buc'
'bry'
'anal'
'age'
'activities_'
'Yo'
'Wal'
'Tv'
'Tady_'
'TAB_'
'Sam'
'Lev'
'HR'
'Gla'
'Does_'
'Cyst'
'Chan'
'001_'
'! -_'
'ż'
'ča'
'ítás'
'étr'
'än'
'Åh_'
'zones_'
'znacz'
'vissa_'
'valamit_'
'ując'
'teur_'
'szcze'
'suggest'
'strength_'
'stosowania_'
'set'
'ryt'
'ru'
'rna'
'rh'
'request_'
'rain'
'quite_'
'pelvis_'
'ovn'
'oin'
'nyi'
'nebyl'
'naš'
'luv'
'lipid'
'lina_'
'leuco'
'jít_'
'ię'
'hes'
'helt_'
'hard'
'gó'
'grow'
'gle_'
'full'
'fru'
'foto'
'eten_'
'eko'
'dt_'
'constant_'
'cker_'
'cje_'
'bä'
'bre'
'aorta_'
'ante'
'annular_'
'aktivit'
'adv'
'adult_'
'abd'
'ZUR_'
'Vl'
'Ugh_'
'Sti'
'Research_'
'RF_'
'Pit'
'Pa_'
'OE'
'Není_'
'NO_'
'Mittel'
'Mie'
'MS_'
'Lar'
'Kir'
'Jasně_'
'Jan'
'FÖR'
'Eu'
'DEXTROSE_'
'DC_'
'Cer'
'CV'
'Bus'
'All'
'Aha_'
'żeby_'
'śli'
'łącz'
'ěr'
'ění_'
'öm'
'ój_'
'ís'
'äck'
'ád_'
'yu'
'ystem_'
'wyj'
'wej_'
'wać_'
'vár'
'vissza'
'tál_'
'tvůj_'
'tude_'
'tte'
'traumatic_'
'tip'
'tape_'
'surgical_'
'sone_'
'smo'
'sensing_'
'send_'
'sak_'
'référence_'
'ries_'
'ri_'
'read'
'przypadku_'
'projekt'
'prof'
'polis'
'pil'
'phenyl'
'past'
'pappa_'
'ozy'
'opu'
'oka'
'ogr'
'nucleic_'
'nog'
'negativ'
'nar_'
'mål_'
'mul'
'mpe'
'morgon_'
'molecule_'
'micro_'
'mani'
'lock_'
'lla'
'limit_'
'lid'
'kva'
'ische_'
'inva'
'inclu'
'ils_'
'ierten_'
'hän'
'handle_'
'gte'
'gd'
'erie'
'dly_'
'cranial_'
'command_'
'calm_'
'burg'
'bele'
'avsnitt_'
'aryl_'
'ability_'
'Ví'
'Small_'
'Reco'
'Phospho'
'Phase_'
'Out'
'Menge_'
'Ell'
'Dzień_'
'CAL_'
'Breast_'
'Bart'
'BER'
'000'
''?_'
'íte_'
'äll'
'zina_'
'ye_'
'wni'
'window_'
'wid'
'všechno_'
'vš'
'vorzugsweise_'
'vita'
'vertebra_'
'verkligen_'
'training_'
'tho'
'tar'
'sve'
'suc'
'strip_'
'skupin'
'repair_'
'reme'
'rat'
'préférence_'
'plu'
'pani'
'order'
'odd'
'ney_'
'nant_'
'mý'
'mä'
'modulation_'
'limited_'
'leurs_'
'kä'
'kla'
'identified_'
'host_'
'fying_'
'frasco_'
'format_'
'excision_'
'ep'
'entra'
'dens'
'clas'
'chloro'
'characteristics_'
'bid'
'betr'
'beta'
'användning_'
'alkyl'
'YL_'
'Vers'
'Tam'
'TAR'
'Sr'
'Signal_'
'Seiten'
'Produkt'
'Leuko'
'Lab'
'INTRA'
'Hos'
'Hen'
'HCl_'
'First_'
'DM'
'Bes'
'BP_'
'Arm'
'App'
'Akutní_'
'),_'
'šen'
'łe'
'ös_'
'ño_'
'zno'
'zinc_'
'zach'
'wil'
'visa'
'verwendet_'
'venous_'
'velk'
'ungseinrichtung_'
'tw'
'särskilt_'
'szer'
'szcz'
'szak'
'subjects_'
'strahl'
'smell_'
'skl'
'sinus'
'ses'
'sches_'
'scale_'
'samman'
'rum'
'row_'
'rin'
'rel'
'reduce_'
'quick_'
'préc'
'przy_'
'produktu_'
'pres'
'poor_'
'plaque_'
'phal'
'pay_'
'ola_'
'needs_'
'myeloid_'
'mn'
'mme'
'mię'
'líto_'
'los'
'liz'
'levo'
'leve'
'laying_'
'kůže_'
'kim'
'jobb_'
'jde_'
'ič'
'itet_'
'isi'
'ige_'
'identi'
'hybrid'
'hs_'
'hexa'
'hela_'
'hans_'
'gne'
'geni'
'gener'
'forg'
'fini'
'fej'
'factors_'
'ewa'
'esto'
'ery_'
'embarazo_'
'ela_'
'eda'
'ear'
'duration_'
'determine_'
'def'
'decision_'
'daj'
'cze_'
'cuerpo_'
'bó'
'bod_'
'bly_'
'bba'
'atal_'
'aort'
'anno'
'allergy_'
'alive_'
'Zá'
'Zd'
'Tol'
'Sun'
'SON'
'Ret'
'Pol'
'Ple'
'PE_'
'PARA'
'Ov'
'Naprawdę_'
'Lou'
'Ins'
'Ic'
'Fluor'
'FLU'
'Dent'
'DEL'
'CB'
'Brain_'
'Anordnung_'
'Accidental_'
'1b_'
'02'
'řed'
'ós'
'ód_'
'ål'
'ärk'
'ám'
'áli'
'zyn'
'zer_'
'ych'
'xima'
'verz'
'tz_'
'tum'
'tour'
'stell'
'ssz'
'ssa'
'sett'
'sam_'
'réponse_'
'rly_'
'resist'
'reh'
'reducing_'
'rdi'
'pán'
'piss_'
'pick'
'pati'
'parto_'
'oxy_'
'okoz'
'oid'
'odk'
'oca'
'nás_'
'ntr'
'ność_'
'märk'
'mucosa_'
'mpa'
'moja_'
'mno'
'm2_'
'lämna'
'lju'
'kuj'
'jk'
'isk_'
'ipi'
'involving_'
'inmuno'
'idő'
'hör'
'hé_'
'ham_'
'grup'
'generated_'
'fot'
'fie'
'detector_'
'cta'
'cos'
'conductor_'
'colla'
'będę_'
'beteg'
'bene'
'baz'
'bare_'
'asc'
'aria_'
'applications_'
'apa_'
'adat'
'abs'
'Zak'
'Yu'
'Vill_'
'VAL'
'Trac'
'Sur'
'RON'
'Powder_'
'Pie'
'Period'
'Obe'
'Myo'
'Mont'
'Mast'
'LT'
'GE'
'Fra'
'Ev'
'Eh_'
'CYP3A4_'
'CD_'
'Brad'
'Acetyl'
'AC_'
'1997_'
'125'
'₃_'
'łow'
'Ł'
'ív'
'íte'
'zuge'
'ym'
'wst'
'vese'
'ulo_'
'tero'
'stable_'
'sson_'
'sku'
'sive_'
'shouldn_'
'segments_'
'salts_'
'relationship_'
'red'
'rch'
'rar'
'polyester_'
'phosphor'
'ope_'
'odc'
'nitro'
'nde'
'nast'
'mut'
'ming_'
'mention_'
'mega'
'medicin'
'lumière_'
'lai'
'kontrol'
'ive'
'ities_'
'ied'
'husband_'
'hic'
'granuloma_'
'ges'
'genom'
'genannte_'
'faci'
'excuse_'
'ere_'
'enu'
'eil'
'drah'
'derivative_'
'covered_'
'bättre_'
'behandla'
'array_'
'angi'
'Vascular_'
'Vas'
'Teraz_'
'Respiratory_'
'Ray_'
'OD'
'November_'
'Nev'
'Mur'
'Mun'
'Leve'
'Kur'
'Krist'
'Kom'
'Infections_'
'HYPER'
'Franc'
'FEN'
'Enc'
'Daten_'
'DN'
'Byl'
'Bože_'
' ( _'
'’'
'ók'
'ój'
'Å'
'zál'
'wind'
'unit'
'trombo'
'tori'
'sök'
'skt_'
'siv'
'rég'
'removed_'
'reakce_'
'proti_'
'prise_'
'pokr'
'place'
'pl_'
'ph_'
'personal_'
'ped'
'pal'
'ostr'
'ortho'
'må'
'mr_'
'mos_'
'miatt_'
'lme'
'lass'
'ladies_'
'instructions_'
'inflammatory_'
'impr'
'ikt'
'ies'
'ich'
'hydrate_'
'herm'
'gruppen_'
'gentlemen_'
'fusion_'
'fr'
'fosfor'
'formule_'
'ferme'
'esophagus_'
'ember'
'einheit_'
'ei_'
'dysplasia_'
'dep'
'dawki_'
'dag'
'csökkent_'
'csont'
'cons'
'column_'
'celu_'
'ből_'
'beiden_'
'beha'
'azol'
'asse'
'amit_'
'alen'
'act'
'account_'
'Upp'
'Pur'
'OPH'
'New_'
'Nep'
'Mark'
'LIT'
'KN'
'High_'
'Hat'
'Gab'
'GEN'
'FILM_'
'Dre'
'Comm'
'CYT'
'COM'
'Articles_'
'Anyway_'
'Ama'
'220_'
'úr_'
'öka'
'ív_'
'zani'
'zak'
'wä'
'wi_'
'vivo_'
'ves'
'vad'
'ums'
'uko'
'tét'
'technique_'
'szerint_'
'styr'
'stal'
'sst'
'speci'
'sele'
'sas_'
'résine_'
'rali'
'prepared_'
'pomo'
'pixels_'
'ova'
'otras_'
'optic_'
'okres'
'ocia'
'obtenir_'
'nni'
'nh'
'nas'
'mba'
'love'
'lete'
'knee_'
'já'
'insu'
'inmunoglobulina_'
'gé'
'förs'
'forward_'
'ev'
'enlighet_'
'enhance'
'emelkedett_'
'dů'
'drop_'
'dispersion_'
'delta_'
'corneal_'
'copolymer_'
'connector_'
'cip'
'changed_'
'centr'
'bőr'
'była_'
'bite_'
'badań_'
'atrophy_'
'asa'
'antic'
'alkalmaz'
'air'
'absence_'
'abierta_'
'Zdravím_'
'WI'
'Vrozená_'
'Total_'
'TA_'
'Red_'
'Proto_'
'Prom'
'Prec'
'PIGGYBACK_'
'PF_'
'Lily_'
'Led'
'Lau'
'LS'
'Kra'
'KIN'
'Jer'
'Equi'
'CF'
'Bis'
'Anal'
'Ale'
'Abb'
'56'
'210_'
'111_'
' * _'
'či'
'ät_'
'ár_'
'µg_'
'yte'
'yed_'
'wac'
'utilisé_'
'unsp_'
'tés'
'tás'
'tula'
'tj'
'thi'
'studi'
'static_'
'stand_'
'ssa_'
'speak_'
'soc'
'smoke_'
'sled'
'ski_'
'sför'
'rej'
'reb'
'przed_'
'project_'
'preparatu_'
'polym'
'pancreas_'
'oval'
'ors'
'ome'
'noti'
'nervu_'
'national_'
'multiplex'
'multi_'
'mma'
'mixtures_'
'kropp'
'jte_'
'jede_'
'ix'
'interfer'
'inr'
'ingu'
'indulatú_'
'hop'
'histo'
'glyco'
'gai'
'fois_'
'fig'
'fat'
'faire_'
'ezi'
'eve'
'elm'
'dc'
'client_'
'cit'
'cic'
'catch_'
'cali'
'breathing_'
'awesome_'
'ars'
'aromatic_'
'amor'
'amen'
'ab_'
'Winthrop_'
'Tényleg_'
'Spi'
'Ska_'
'Sit'
'Sche'
'PHA'
'Ona_'
'New'
'Neu'
'Mówi'
'March_'
'MON'
'MER'
'List'
'LY'
'LL_'
'Hur'
'Gon'
'Gene_'
'Eur'
'Eff'
'DA_'
'Cmax_'
'Acut_'
'ANE'
'," _'
'% - _'
'žk'
'ńc'
'È'
'zó'
'zí'
'zit'
'xica'
'vö'
'véhicule_'
'värde'
'vert'
'tti'
'tet_'
'tablet'
'social_'
'rier'
'rer_'
'regime_'
'recevoir_'
'prostat'
'presented_'
'polys'
'pheno'
'param'
'ovary_'
'osin'
'ole_'
'ogl'
'ode_'
'oci'
'obs'
'nozzle_'
'nitrogen_'
'nga'
'movi'
'modul'
'mechanical_'
'leitung_'
'lef'
'klas'
'kar_'
'jelent'
'jeho_'
'ičk'
'institution'
'ignal'
'iat'
'iasis_'
'hormon'
'held_'
'haver_'
'förl'
'fó'
'ful'
'fit'
'fet'
'feld'
'fasci'
'eye'
'extension_'
'euro_'
'esetén_'
'emel'
'ely'
'ec'
'další_'
'cour'
'contre_'
'coe'
'cleaning_'
'cko'
'cial_'
'chambre_'
'cellule_'
'cal'
'bypass_'
'bowel_'
'born_'
'bacterial_'
'atte'
'antit'
'anges_'
'ago'
'ages_'
'ack'
'Wo'
'Tohle_'
'Ted_'
'Talán_'
'Sleep_'
'Sl'
'Schalt'
'Same_'
'RM'
'Pac'
'PEN'
'Niech_'
'Máš_'
'Karcinom_'
'Infekce_'
'Fri'
'Europe_'
'EF'
'Dom'
'Dok'
'DER_'
'COM_'
'CAR'
'At_'
'Absolutely_'
'%/_'
'ňov'
'ęt'
'čen'
'ög'
'zis'
'zde'
'yny_'
'wn_'
'wit'
'wed'
'už'
'uro_'
'tung_'
'transition_'
'towa'
'tne'
'tica'
'série_'
'sän'
'stoff'
'stick_'
'sque'
'során_'
'son'
'sign'
'shift_'
'scher_'
'rra'
'rotor_'
'respond'
'reno'
'případ'
'pse'
'phospho'
'part'
'oxa'
'oth_'
'orvos'
'organs_'
'oide_'
'office_'
'obsahuje_'
'neur'
'mne'
'lásd_'
'lose_'
'lor'
'lever'
'lame'
'lad_'
'kaj'
'jist'
'hum'
'herr'
'fáj'
'fta'
'estradiol_'
'erten_'
'eous_'
'eng'
'ence'
'elektrischen_'
'ecz'
'dér'
'dysp'
'dinner_'
'determinación_'
'dela'
'cua'
'connect'
'cn'
'causing_'
'catheter_'
'boli'
'bie_'
'bete'
'bend'
'basic_'
'atá'
'aty'
'atten'
'atos'
'asz_'
'alkoxy_'
'activat'
'\u'
'Tu_'
'Sle'
'Ska'
'Qué_'
'OS_'
'Mani'
'MES'
'Leg'
'LC'
'Kdo_'
'Inhal'
'Im'
'Ib'
'ITIS_'
'Gastrointestinal_'
'ERA'
'Dw'
'Computer'
'Ce'
'Bull_'
'AT_'
'AF'
'3a_'
') - _'
'žd'
'ża'
'świe'
'środk'
'ści'
'óta_'
'été_'
'ément_'
'Üdv_'
'zma'
'wod'
'wic'
'vět'
'vissza_'
'unl'
'uj'
'transmis'
'trac'
'tol_'
'thou'
'tati'
'tat_'
'taki'
'szám'
'swelling_'
'spin'
'sleeve_'
'skon'
'secundaria_'
'scanning_'
'says_'
'rog'
'rekt'
'reggelt_'
'recurrent_'
'rdn'
'rani'
'pě'
'prod'
'placed_'
'ował'
'owania_'
'ord_'
'ome_'
'někdo_'
'nyel'
'nger_'
'naprawdę_'
'mente'
'mehrere_'
'mege'
'md'
'lét'
'longueur_'
'lokal'
'lh'
'końc'
'koli'
'kocha'
'kezd'
'jud'
'inno'
'inh'
'independently_'
'imid'
'ilit'
'hú'
'händer_'
'hol_'
'förfarande'
'ext'
'eritro'
'epi'
'enne'
'encia_'
'dysfunction_'
'cycli'
'channels_'
'cha_'
'beh'
'audi'
'asia_'
'ases_'
'arti'
'adopted_'
'abort'
'Wärme'
'Web'
'Várj_'
'Ursäkta_'
'UD'
'TAL_'
'Szív'
'Spinal_'
'RS'
'Polyp'
'Panie_'
'PA_'
'Ox'
'Může'
'MAL'
'KT'
'His_'
'Gyere_'
'Gor'
'Glob'
'Ge_'
'Dysp'
'Char'
'Bl'
'Bez'
'AIDS_'
'ADI'
'ACI'
'éta'
'zuj'
'zawiera_'
'yé'
'yjn'
'yer_'
'who'
'welchem_'
'vå'
'trz'
'treat_'
'tensi'
'tani'
'spro'
'spray_'
'sop'
'ról_'
'régimen_'
'rud'
'rni'
'ride_'
'retina_'
'rear_'
'quí'
'přes'
'procedures_'
'problém'
'precargada_'
'pole'
'pn'
'persze_'
'perfor'
'paralysis_'
'palm'
'oxic'
'ostat'
'origin_'
'occur_'
'ntar'
'nou'
'nest'
'menta'
'megk'
'matk'
'makes_'
'lysis_'
'lupus_'
'lma'
'lant'
'ké'
'kem_'
'jez'
'iza'
'idiot'
'icul'
'ics_'
'hát'
'hollow_'
'este'
'erv'
'endi'
'elég_'
'effect'
'dura'
'dib'
'detección_'
'definiert_'
'decrease_'
'daten_'
'chl'
'bě'
'bort_'
'bereich_'
'avse'
'ary'
'anest'
'alle'
'affichage_'
'abdomen_'
'Zab'
'Whereas_'
'Uro'
'UE_'
'Tj'
'Szem'
'SZ'
'Rap'
'Persze_'
'Of_'
'Ms_'
'Minden'
'Measurement_'
'MIN'
'Luft'
'Kill'
'INF'
'IDI'
'Gratul'
'George_'
'Four'
'FT'
'Eat_'
'Cop'
'Call'
'Anti_'
'Adren'
':'
'üt'
'ún'
'íts'
'äte'
'yne'
'wszystkich_'
'work'
'wonderful_'
'won'
'wd'
'ult_'
'tvoje_'
'tting_'
'transparent_'
'toner_'
'tau'
'talál'
'stent_'
'spor'
'ská_'
'secret'
'ráno_'
'responsive_'
'register_'
'raz_'
'rant_'
'radia'
'plo'
'pk'
'pigment'
'patrz_'
'osan_'
'oki'
'nám'
'ndet_'
'nag'
'mica_'
'metatars'
'mentioned_'
'mamy_'
'lunch_'
'llen_'
'lakt'
'ione'
'installation_'
'inac'
'hår'
'hus'
'home'
'hlav'
'helye'
'heli'
'groove_'
'gj'
'gem'
'fold_'
'finish_'
'fek'
'ette'
'ess'
'equi'
'entre'
'ema'
'dou'
'defect'
'dare_'
'cér'
'comp'
'closure_'
'circuits_'
'celui_'
'came_'
'cación_'
'bys_'
'blb'
'battery_'
'bande_'
'atri'
'amid'
'alu'
'aires_'
'aine_'
'Tyr'
'Traumatic_'
'TR'
'Super'
'Schwe'
'STR'
'SER'
'Rub'
'Ros'
'Pá'
'Peripheral_'
'Opti'
'OU'
'OA'
'MR'
'Lung_'
'Lager'
'Kop'
'Inge'
'Inc'
'Hin'
'FOR'
'Es_'
'Doktor'
'Dig'
'Cze'
'But'
'Bilde'
'BET'
'Anemia_'
'414_'
'240_'
'- (_'
'ům_'
'ši_'
'śla'
'Ő'
'ńcz'
'Čau_'
'ąt'
'óż'
'ók_'
'ének_'
'éde'
'áj'
'ző'
'ył'
'yri'
'yre'
'verse'
'trauma_'
'tore'
'tobą_'
'tna'
'sége'
'subcutaneous_'
'stroke_'
'strategi'
'stic_'
'span'
'sources_'
'sok'
'security_'
'rent'
'recombinant_'
'rans'
'ran_'
'rach'
'prostu_'
'pros'
'polypeptide_'
'pdr_'
'pare'
'osse'
'orifice_'
'orc'
'niedo'
'neuropathy_'
'mot'
'mis_'
'miesz'
'metallic_'
'meno'
'lucky_'
'lity_'
'követ'
'köt'
'kommissionens_'
'kno'
'kinda_'
'kapit'
'ię_'
'indic'
'ill'
'idyl'
'htm_'
'hodn'
'history_'
'försök'
'förstår_'
'fy_'
'forma_'
'fordul'
'flan'
'fixing_'
'fixa'
'extended_'
'exe'
'ex'
'elli'
'díky_'
'dzieci_'
'dobrý_'
'chy_'
'capsules_'
'byly_'
'buffer_'
'bif'
'behöv'
'bastard_'
'ay'
'augment'
'atí'
'ativ'
'artr'
'arg'
'arat'
'appear'
'anomalies_'
'adrenalina_'
'acid'
'accumulat'
'Wer'
'Uterine_'
'Urinary_'
'Str'
'Sli'
'Say_'
'Rozporządzenie_'
'Rohr'
'Rest'
'Raj'
'RB'
'Pl'
'Pea'
'P1_'
'Organi'
'Mid'
'Mami_'
'MY'
'Int'
'Hl'
'Gran'
'FER'
'DS_'
'Clar'
'Cie'
'Call_'
'Angi'
'105_'
'%-_'
'ót'
'zło'
'zés_'
'zob'
'zapo'
'yw'
'yi_'
'xil'
'wu'
'wt_'
'wsp'
'vis'
'versus_'
'vem_'
'ury_'
'ues_'
'tro_'
'tomography_'
'tions'
'tablett'
'superficial_'
'spu'
'směrnice_'
'sko_'
'sina_'
'sexual_'
'serve'
'seg'
'seeing_'
'rto'
'rosi'
'rino'
'rda'
'quantity_'
'przepraszam_'
'procédés_'
'podr'
'pipe'
'pann'
'ore_'
'nder'
'métallique_'
'mpi'
'motion_'
'menar_'
'locking_'
'lia_'
'lato'
'kär'
'ivit'
'ischen_'
'interior_'
'ilyen_'
'iii_'
'humano_'
'hidroxi'
'hav'
'godzin'
'gets_'
'fung'
'fram_'
'formulation_'
'erd'
'endometri'
'elme'
'dnie'
'distress_'
'dire'
'diagnostic_'
'deli'
'dance_'
'dal_'
'czas_'
'creatinine_'
'contenu_'
'cet_'
'cem'
'cau'
'cari'
'broken_'
'breath_'
'biopsia_'
'beteg_'
'appel'
'antibodies_'
'ald'
'aho'
'agen_'
'aerosol_'
'Witaj_'
'Vé'
'Visst_'
'Verb'
'Thrombo'
'Table_'
'Serum_'
'September_'
'Sakra_'
'SUSPENSION_'
'Receptores_'
'RD'
'Plasma_'
'PRI'
'Oro'
'Må'
'Mond'
'Lic'
'Leave_'
'Internet_'
'Ingen_'
'IR_'
'INT'
'Heart_'
'Halte'
'Fro'
'Fix'
'Ef'
'Daw'
'Ca'
'Br'
'Associated_'
'5a_'
'400'
'10mg_'
'% (_'
'łaś_'
'ąż'
'út'
'éni'
'élé'
'Ér'
'yczna_'
'yag'
'wynik'
'wania_'
'view_'
'ult'
'träffa'
'trá'
'try'
'trust_'
'tropi'
'tap'
'szeret'
'szed'
'synthetic_'
'swear_'
'standard'
'sol'
'so'
'sj'
'ryb'
'rev'
'recon_'
'rato'
'raph'
'pł'
'ption_'
'pta'
'positiv'
'pni'
'pm'
'pee'
'pal_'
'packet_'
'orina_'
'onu'
'oberen_'
'net'
'mna'
'minimal'
'mem'
'linked_'
'leda'
'kning_'
'kde_'
'ines_'
'imp'
'idos_'
'idej'
'iar'
'hete'
'hab'
'gram'
'goo'
'glucosa_'
'git'
'gear_'
'fl'
'fakt_'
'eje'
'desi'
'delay_'
'cso'
'conduit_'
'coefficient_'
'close'
'chin'
'cher'
'ból'
'asy'
'aryl'
'arms_'
'adversa_'
'Widzi'
'Tea'
'TIC_'
'TER_'
'Someone_'
'Som_'
'Ser_'
'Sc'
'SIS_'
'Rich'
'Prób'
'Pituitary_'
'Peni'
'Myeloid_'
'Mert_'
'MET'
'MB'
'Kup'
'Här_'
'Heh_'
'Förs'
'Fläche_'
'FF'
'EB'
'Deb'
'DISPOSITIF_'
'Carol'
'Budu_'
'Ang'
'='
'71'
'%'
'új_'
'éte'
'ès_'
'zła'
'zí_'
'zni_'
'wych_'
'ways_'
'vt'
'után'
'utt'
'useful_'
'tő'
'tys'
'took_'
'tico_'
'ther'
'tha'
'termin'
'ség'
'sue'
'sser'
'sorte_'
'sor_'
'slow_'
'six_'
'semi_'
'selecting_'
'rí'
'része'
'rv'
'questions_'
'powinn'
'port'
'person'
'pant'
'oż'
'ous'
'oides_'
'oct'
'obst'
'ných_'
'nyl'
'nya'
'nodular_'
'near_'
'nacido_'
'mow'
'moti'
'metall'
'mano_'
'läkare_'
'láto'
'lr'
'kezelés'
'iod'
'inzulin'
'intern'
'iden'
'however_'
'histori'
'head'
'haute_'
'gula'
'fluor'
'fer_'
'favor_'
'extraction_'
'ety'
'eter'
'espécimen_'
'espac'
'ese_'
'erw'
'eniu_'
'eli_'
'dyrektywy_'
'doin_'
'diam'
'derm'
'damage_'
'cukr'
'crib'
'complet'
'coccal_'
'cli'
'chy'
'choisi_'
'buti'
'bb'
'barát'
'avant_'
'ator'
'apr'
'antin'
'amm'
'Vr'
'Tox'
'Seb'
'Rit'
'RA_'
'Quer'
'Pru'
'Parliament_'
'Occ'
'Mit'
'Leucemia_'
'LYOPHILIZED_'
'Ker'
'Jen'
'Iv'
'Intestinal_'
'INSULIN_'
'Din'
'Chr'
'Chapter_'
'Bell'
'Beg'
'Bac'
'Arti'
'Amp'
'Add'
'ASS'
'AM_'
'48'
'07_'
'ša'
'łe_'
'ěl'
'ęd'
'äng'
'äd'
'ße_'
'wir'
'ví_'
'vinyl'
'uw'
'určen'
'unco'
'ulin'
'układu_'
'trying_'
'trastornos_'
'tip_'
'tala'
'sł'
'szor'
'sty'
'stat'
'spra'
'skor'
'skal'
'serca_'
'separation_'
'semi'
'sakra_'
'rha'
'rde'
'pła'
'produkt'
'press'
'polic'
'poch'
'ple_'
'phil'
'pers'
'performing_'
'partially_'
'oł'
'owane_'
'ován'
'original_'
'oku'
'odn'
'nyug'
'mięśni'
'mitt'
'metr'
'meat_'
'mam'
'luxación_'
'lte'
'lj'
'lenn'
'kunde_'
'krit'
'kort'
'kne'
'kicsit_'
'kammer_'
'isl'
'interes'
'initial'
'informacji_'
'infected_'
'iness_'
'icit'
'hora'
'hemoglobin'
'hemo'
'healthy_'
'gye'
'gan_'
'fin_'
'feli'
'fail'
'extremidad_'
'evo'
'espace_'
'eral_'
'endocrine_'
'encephalitis_'
'emitte'
'drin'
'dium_'
'diat'
'cost'
'corrected_'
'conv'
'connexion_'
'conducteur_'
'cer_'
'celle_'
'bej'
'bakteri'
'arc'
'ané'
'anya_'
'antih'
'anna'
'alt'
'abnormální_'
'TIS_'
'Stor'
'Sch'
'SUB'
'Related_'
'RE_'
'Paul'
'Pass'
'Noc'
'Nek'
'Lee'
'LD'
'Kas'
'Inco'
'Gland_'
'FIC'
'Exce'
'Dlaczego_'
'Calcium_'
'Bun'
'Bob_'
'Bin'
'At'
'Amo'
'Abtast'
'AV_'
'AII_'
' *_'
'ο'
'őz'
'ík_'
'áso'
'zem_'
'writing_'
'write_'
'wood_'
'whatever_'
'uppgifter_'
'upa'
'ultra'
'ulation_'
'tór'
'trouble_'
'tov'
'tous_'
'tone_'
'thor'
'telephone_'
'takie_'
'tad_'
'tad'
'supported_'
'store_'
'sov'
'smo_'
'sleeping_'
'sir'
'shut_'
'rter'
'reste'
'reactive_'
'q'
'pump'
'pue'
'przec'
'projection_'
'potrzeb'
'poni'
'orm_'
'ond_'
'oma'
'olt'
'ogat'
'nę_'
'nty_'
'niem'
'nemá'
'minut_'
'lNG_'
'két_'
'kolla'
'kiss'
'kce_'
'jeringa_'
'jad'
'itr'
'ite'
'inrichtung_'
'inject'
'ika_'
'ihre'
'hitt'
'herb'
'globulin'
'genes_'
'gdzie_'
'fül'
'fä'
'fs'
'fosfo'
'fak'
'eln'
'därför_'
'cot'
'corn'
'conver'
'constitué_'
'börja'
'buněk_'
'bt'
'bruk'
'bron'
'brid'
'bbe'
'auch_'
'asleep_'
'adapt'
'across_'
'Zna'
'Zam'
'Wys'
'WH'
'Video'
'Uncommon_'
'TYPE_'
'TN'
'TH'
'Swe'
'Sky'
'Rück'
'Pet'
'OH'
'Mess'
'Manu'
'MILLILITER_'
'MED'
'Lys'
'Lie'
'LV'
'Kösz_'
'Katalysator'
'Inv'
'ING'
'IE_'
'Hypop'
'Hoo'
'Hemato'
'HUMAN_'
'Gai'
'FÜR_'
'February_'
'Ek'
'Egy'
'Dé'
'DD'
'Conf'
'Chu'
'Cef'
'. [_'
'życie_'
'či_'
'ült_'
'ík'
'zug'
'zní_'
'zast'
'zapa'
'yse'
'wert_'
'vía_'
'verte'
'vaccination_'
'umb'
'ull'
'tát'
'ták_'
'twi'
'tvo'
'tomu_'
'toi'
'tob'
'tisk'
'til'
'tels_'
'szta'
'syl'
'subt'
'sli'
'skvěl'
'sfa'
'saw_'
'również_'
'razo'
'quiste_'
'proteína_'
'prop'
'processus_'
'polymer'
'nut_'
'ntu'
'nm'
'ngu'
'news_'
'nat_'
'métal_'
'mou'
'mold_'
'mohl'
'mną_'
'mioc'
'miejsc'
'meningitis_'
'megf'
'medel_'
'master_'
'magad_'
'lę'
'längre_'
'lus_'
'lm'
'liegt_'
'kostn'
'konf'
'kobiet'
'kiedy_'
'jdu_'
'inu'
'inst'
'innan_'
'im'
'illa'
'iebe'
'idiot_'
'ibl'
'håller_'
'hypersensitivity_'
'hle'
'hin_'
'hidroc'
'hem'
'haft_'
'gór'
'gång'
'gov'
'gdy_'
'fått_'
'foly'
'fli'
'extra_'
'engem_'
'engagement_'
'eln_'
'dokument'
'defining_'
'daw'
'crack'
'countries_'
'coul'
'corr'
'chyba_'
'chen'
'ced_'
'buy_'
'blue_'
'big'
'azok'
'anastomosis_'
'adj'
'Wert_'
'Vég'
'Tü'
'Sul'
'Spec'
'SEN'
'RAM'
'PRA'
'ONI'
'Muscle_'
'Mum_'
'Make_'
'Lam'
'Inj_'
'Hurry_'
'Hepato'
'HTLV_'
'HP'
'Gall'
'Funk'
'Fore'
'EG'
'Cry'
'Circu'
'Burkitt_'
'Barb'
'BM'
'Adv'
'APPARATUS_'
'ACT'
'69_'
'124_'
'120'
')(_'
'žádn'
'ć'
'ögon'
'young_'
'wol'
'web'
'vértebra_'
'vorge'
'vitamin'
'vale'
'usually_'
'tře'
'tán'
'turn'
'tiro'
'tings_'
'tene'
'sti_'
'sok_'
'skill'
'sek_'
'seal_'
'rupture_'
'ruch'
'rozp'
'roni'
'rendszer_'
'remote_'
'rbi'
'raz'
'pull_'
'pt'
'primaria_'
'otom'
'orgán'
'nię'
'mycin_'
'moderate_'
'mess'
'lya'
'llo'
'lil'
'ligament_'
'leszek_'
'legi'
'lace'
'komm'
'jut'
'itin'
'ious_'
'innerhalb_'
'injections_'
'implant_'
'ienie_'
'hát_'
'hyd'
'hjälp_'
'hero'
'hei'
'gö'
'gum'
'grund'
'grafi'
'fest'
'erzeugt_'
'emic_'
'elet'
'elastic_'
'ectomía_'
'dziewczyn'
'demo'
'cow'
'conduct'
'condition'
'communi'
'codes_'
'cist'
'chn'
'cant'
'cani'
'business_'
'bout'
'borne_'
'befe'
'azo'
'audio_'
'aren'
'ap'
'anus_'
'among_'
'allergi'
'aki_'
'ai'
'Utilisation_'
'UG'
'Teil'
'TY_'
'Sluta_'
'QU'
'Pier'
'Mas'
'Lat'
'IZ'
'IAL_'
'Hetero'
'Hemorrhage_'
'Haló_'
'Gri'
'GN'
'Find_'
'EU'
'Dio'
'Cle'
'Carl'
'Bou'
'Bo_'
'Ara'
'Act'
'.-_'
'ęc'
'čka_'
'övers'
'örö'
'ési'
'zyk'
'zw'
'zus'
'yra'
'yni'
'wasser'
'wart'
'válvula_'
'vin_'
'vill'
'vector_'
'unités_'
'uju_'
'tám'
'twoje_'
'thir'
'telen_'
'technologi'
'tato_'
'szal'
'stück'
'stoff_'
'stanov'
'spec'
'sometimes_'
'sept'
'rü'
'rör'
'rotating_'
'rela'
'reflect'
'quer_'
'puissance_'
'przej'
'proč_'
'poč'
'pir'
'passing_'
'pass'
'parte_'
'parat'
'onen_'
'onde_'
'oka_'
'nucleus_'
'nout_'
'nn_'
'nio'
'motherfucker_'
'missed_'
'mh'
'membran'
'mede'
'materia'
'lång'
'kti'
'kran'
'kinas'
'kerül'
'ked'
'isti'
'ista'
'inver'
'ichtung'
'hög'
'heavy_'
'flat'
'finished_'
'fic'
'facilit'
'exécut'
'evento_'
'eszt'
'esters_'
'eca'
'db'
'czu'
'cytic_'
'cysta_'
'cutaneous_'
'contra'
'continue_'
'contient_'
'chm'
'cele'
'cate'
'broad'
'bones_'
'black_'
'atu'
'approach_'
'aortic_'
'annat_'
'adresse_'
'actuator_'
'] '
'West'
'Vý'
'Sza'
'SYN'
'SP_'
'Před'
'Prov'
'Pretty_'
'POS'
'OTI'
'NR'
'NAL_'
'IND'
'Hül'
'Hm_'
'Herpes_'
'HY'
'HR_'
'Gem'
'Ett_'
'EIN'
'Dosta'
'Class_'
'Chloe_'
'CLA'
'CK'
'Block'
'Bere'
'Asp'
'Arg'
'Akt'
'122_'
'. . ._'
', '_'
'świ'
'čer'
'ört'
'ór_'
'óm'
'által_'
'Öffnung_'
'zej_'
'wym'
'ważn'
'ved'
'utilisant_'
'tänker_'
'troisième_'
'tlen_'
'tia'
'thyro'
'tard'
'struktur'
'stockage_'
'stock'
'steroid'
'sten_'
'speech_'
'sona'
'smart_'
'skr'
'selection_'
'seconds_'
'second'
'rve'
'rio'
'reci'
'quel'
'přec'
'prolonged_'
'podle_'
'pig'
'pedig_'
'paroi_'
'paran'
'ostom'
'numérique_'
'nol'
'nin_'
'méthode_'
'miljö'
'megb'
'maligní_'
'low'
'loo'
'limit'
'lido'
'ledvin_'
'language_'
'kv'
'kosti_'
'kontroll'
'kont'
'kolo'
'kemi'
'kb'
'jem_'
'intended_'
'immune_'
'iga'
'huile_'
'hemoglobin_'
'grund_'
'gravid'
'gleich_'
'förf'
'free'
'fora'
'fix_'
'fed_'
'eń_'
'enci'
'efe'
'dus'
'dimension'
'digit'
'desc'
'depress'
'delivered_'
'cutánea_'
'cj'
'circula'
'chodzi_'
'blu'
'belt_'
'band'
'arte'
'applicable_'
'anda'
'alm'
'ali_'
'alb'
'agonist'
'agente_'
'acyl'
'abschnitt_'
'Zus'
'Zatr'
'ZU'
'Ye'
'YA'
'Vese'
'Verd'
'Tud'
'Tit'
'Temperatur_'
'Surgical_'
'Sher'
'Section_'
'SAM'
'Rod'
'Rob'
'President_'
'Ou'
'OUS_'
'Mix'
'Membran'
'Mann'
'LIS'
'Kraft'
'Klin'
'Ie'
'IP_'
'Hall'
'Gin'
'FR_'
'Eva'
'Egye'
'Dobrá_'
'DP'
'C₁_'
'Cool_'
'CC_'
'CA_'
'Będę_'
'Boo'
'Bat'
'BS'
'Aw'
'Anna_'
'Ame'
'49'
'103_'
'ško'
'ęż'
'ąć_'
'íne'
'ében_'
'åt'
'åll'
'änge'
'ázy_'
'áva'
'áto'
'zier'
'zenia_'
'zel_'
'zed'
'wl'
'wish_'
'vra'
'verbindung_'
'vend'
'vas_'
'ué'
'uji_'
'tűn'
'tubes_'
'tter'
'tog'
'them'
'text'
'tch'
'svår'
'sut'
'soni'
'separated_'
'rtu'
'rossz'
'rima'
'reten'
'ress_'
'residue_'
'regards_'
'raj'
'próbál'
'prób'
'prove'
'pharmac'
'pardon_'
'ovaná_'
'osc'
'orr'
'omá'
'omfatta'
'olás'
'odu_'
'oda_'
'nth'
'note'
'niu_'
'neurol'
'mé_'
'myco'
'mum_'
'można_'
'mondo'
'minu'
'minn'
'megyek_'
'léčiv'
'krwi'
'kou_'
'kontra'
'kes'
'ked_'
'ió'
'intracraneal_'
'inos'
'improved_'
'ikus_'
'ike'
'hül'
'hydraulic_'
'hospital_'
'hl_'
'hir'
'hip'
'hato'
'giv'
'gie_'
'gie'
'gic'
'gegen_'
'gegebenenfalls_'
'fra'
'forme'
'floor_'
'filtra'
'fibers_'
'few_'
'expe'
'exchange_'
'espinal_'
'enthalten_'
'eket_'
'egye'
'effe'
'déf'
'durante_'
'dream'
'dien'
'diagnos'
'crit'
'cristal'
'cream_'
'correct_'
'concentrado_'
'cocc'
'cellular_'
'cellul'
'beg'
'befestigt_'
'azi'
'axiale'
'aru'
'anu_'
'agl'
'affected_'
'affect'
'adz'
'adding_'
'actif_'
'aceta'
'Und'
'UI'
'Tö'
'Too'
'THI'
'Stri'
'Span'
'Sid'
'Rou'
'Rick'
'RECEPT_'
'Prot'
'Pieprz'
'PROTE'
'PERI'
'Oxy'
'Oncogene_'
'OXA'
'Nau'
'Naj'
'Moo'
'Mole'
'MOT'
'Lymphocyte_'
'LY_'
'Ky'
'Kl'
'Iet_'
'Hepatic_'
'HAL'
'Fest'
'Esophageal_'
'Emp'
'Dist'
'Complex_'
'Colle'
'Chor'
'Careful_'
'Asi'
'Ann'
'AMP'
'50mg_'
'350_'
'150'
'118_'
'116_'
'100mg_'
'Žádn'
'ňte_'
'čas_'
'úc'
'éke'
'éc'
'Í_'
'ziel'
'wee'
'wand_'
'vest'
'uv'
'unspec_'
'troc'
'transferasa_'
'terminals_'
'tempor'
'ság'
'szere'
'stit'
'ssion_'
'sign_'
'she'
'sek'
'scen'
'rsi'
'pokoj'
'placenta_'
'pia'
'paj'
'oč'
'oval_'
'nol_'
'nikdy_'
'nicz'
'nb'
'missing_'
'mens_'
'mechani'
'maga'
'madam_'
'lation_'
'lati'
'komor'
'jön_'
'innych_'
'induk'
'increasing_'
'incidence_'
'ilu'
'ierungs'
'iem'
'hth'
'holder_'
'hemoglobina_'
'hemi'
'halogen_'
'gur'
'grand'
'genital'
'gene'
'fus'
'fournir_'
'fia'
'ffa'
'fehér'
'existing_'
'exemp'
'eren'
'ená_'
'enst'
'ener'
'drunk_'
'draw'
'detect'
'defin'
'das'
'ctive_'
'criteria_'
'cont'
'ckl'
'circular_'
'cik'
'cif'
'chv'
'cardiovascular_'
'bog'
'atrofi'
'apu'
'anomálie_'
'aje_'
'able'
'With'
'Walk'
'Tha'
'TUR'
'TT'
'TIT'
'TC'
'TAZ'
'SN'
'Ron'
'Przykro_'
'NG'
'Můj_'
'Ml'
'Merc'
'MAR'
'Lis'
'Julie_'
'Growth_'
'Gastric_'
'EK'
'Diffuse_'
'Cau'
'CLO'
'Binding_'
'Arr'
'Annie_'
'85'
'63'
'1mL_'
'10MG_'
'śni'
'ę'
'če'
'ących_'
'ąc'
'ña_'
'ämnen_'
'ály'
'xin_'
'xid'
'vážně_'
'változ'
'vu'
'vere'
'ują_'
'tró'
'transl'
'tomi'
'teg'
'tati_'
'syn_'
'success'
'subc'
'stře'
'stöd_'
'stát'
'stało_'
'start'
'stanna'
'saker_'
'sak'
'rut'
'risk'
'reli'
'relati'
'pů'
'pulses_'
'przer'
'protéine_'
'propi'
'posta'
'posl'
'porta'
'phor'
'pet'
'party_'
'paro'
'pam'
'ora'
'opro'
'ont'
'odzi'
'objeto_'
'nyl_'
'nica_'
'neb'
'nea'
'naphth'
'méthyl'
'mél'
'lita'
'kum'
'kreis'
'klid'
'keze'
'karb'
'ipl'
'interaction_'
'indication_'
'imper'
'iczn'
'hm'
'glyko'
'geno'
'gal_'
'frei'
'francba_'
'followed_'
'fokoz'
'fisk'
'feed'
'fault_'
'esze'
'ero_'
'erar_'
'entri'
'embolism_'
'elu'
'education_'
'duoden'
'dh'
'dev'
'depuis_'
'denti'
'dent'
'cz'
'cte'
'csökkent'
'contr'
'colour_'
'colo'
'cky_'
'carp'
'bs'
'behaviour_'
'ash'
'anty'
'antr'
'adjusting_'
'Zg'
'Zer'
'Which_'
'Wasserstoff_'
'VON_'
'UA'
'Thro'
'Szé'
'Retinal_'
'RU'
'RET'
'REC'
'Professor_'
'Prac'
'Pis'
'Pigment'
'Phy'
'Pas'
'POUR_'
'OD_'
'Niedo'
'Mist'
'Maxim'
'Los'
'Katie_'
'Jean'
'Hallå_'
'Gör_'
'From_'
'Feder'
'FR'
'Eye_'
'Eve'
'EXP'
'Dete'
'Count'
'Centr'
'Cata'
'Camp'
'Ava'
'Alkohol'
'Ach'
'AE'
'99m_'
'4a_'
'202_'
'. - ¿_'
'ště'
'śmie'
'éti'
'éthyl'
'éi'
'älskar_'
'ári'
'álj'
'zęb'
'zás_'
'został'
'zero_'
'zabij'
'wing_'
'wc'
'vím_'
'vesic'
'veni'
'ulcer'
'tényleg_'
'tygodni'
'tungs'
'tid'
'thereto_'
'tendon_'
'telling_'
'tali'
'systému_'
'synt'
'studier_'
'side'
'ship_'
'seno_'
'rozs'
'rohr'
'rmo'
'richtungen_'
'représente_'
'rem'
'rather_'
'rai'
'produkter_'
'polo'
'pog'
'plazma'
'owo'
'oru_'
'operations_'
'operación_'
'olat'
'odr'
'nut'
'nuclear_'
'ngs_'
'nerek_'
'namn_'
'nali'
'mít_'
'multip'
'mogą_'
'mist'
'mili'
'metri'
'meeting_'
'manu'
'mail'
'lsk'
'listed_'
'kus'
'km'
'kedve'
'jąc'
'jä'
'ikul'
'identifier_'
'hoz'
'hiszem_'
'haemato'
'gio'
'gest'
'förd'
'friction_'
'fortfarande_'
'feto_'
'fele'
'fasz'
'fastställ'
'explain_'
'etin'
'ethylene_'
'este_'
'especi'
'erol_'
'enb'
'eka'
'dź_'
'döda_'
'débit_'
'durch'
'duc'
'dox'
'dels'
'degeneration_'
'december_'
'cromo'
'colitis_'
'clin'
'ciała_'
'champ_'
'cent_'
'cellulose_'
'cefal'
'cann'
'bronchi'
'bring'
'brak'
'bodies_'
'besi'
'bereit'
'ax'
'avses_'
'avir'
'asona_'
'articles_'
'alloy_'
'activated_'
'ac'
'abba_'
'YC'
'Water_'
'Viral_'
'Ton'
'Tetra'
'Supp'
'Sig'
'SK'
'Ris'
'Quin'
'Pf'
'Pero'
'Paul_'
'Part_'
'Pai'
'PHY'
'Má'
'Myśl'
'Methyl_'
'Master_'
'MT'
'Lut'
'INE'
'Gå_'
'GmbH_'
'Fru'
'Figyelj_'
'Faser'
'Egyéb_'
'Cranial_'
'Claire_'
'Central_'
'Cas'
'CSF_'
'Ausgangs'
'Aufzeichnungs'
'Alex_'
'Adi'
'Abd'
': • _'
' ‘_'
' [ _'
'őb'
'ěř'
'ďte_'
'část'
'íž'
'íp'
'échantillon_'
'ça'
'ång'
'Át'
'ző_'
'zł'
'zz_'
'zwei'
'ylat'
'wel'
'was'
'večer_'
'verr'
'vec'
'users_'
'uric'
'unknown_'
'ulta'
'uda'
'táv'
'tycker_'
'tive'
'thin'
'tax'
'står_'
'stem_'
'sol_'
'social'
'signs_'
'sei'
'samples_'
'sad_'
'różn'
'roh'
'resu'
'reparación_'
'rece'
'prsu_'
'prima'
'prep'
'plasmi'
'osu'
'organiz'
'organische'
'olit'
'ojc'
'ocz'
'ocen'
'ober'
'nál_'
'nád'
'nov'
'notamment_'
'niew'
'nami'
'moni'
'mon'
'moid'
'mog'
'middle_'
'mia'
'maschine_'
'länge_'
'lege'
'laryng'
'kok'
'klu'
'isz'
'ior_'
'introduced_'
'inorganic_'
'inb'
'import'
'identifying_'
'hop_'
'hala'
'haemorrhagi'
'gut'
'gui'
'glaucoma_'
'gek'
'frit'
'fit_'
'fact'
'etin_'
'estr'
'ean'
'děl'
'děje_'
'dás'
'driven_'
'dist'
'dez'
'danych_'
'cím'
'czuj'
'czk'
'cyto'
'cost_'
'colour'
'collecte'
'cję_'
'choler'
'chce_'
'causes_'
'bu_'
'boyfriend_'
'blocks_'
'begin'
'avs'
'atta'
'assist'
'apn'
'angel'
'alk'
'alan'
'aero'
'adu'
'ads'
'Zin'
'URE'
'Topical_'
'Thyro'
'TAT'
'Sj'
'Sec'
'SR'
'Rossz'
'Ring_'
'Rend'
'PLA'
'OL'
'Né'
'Nemá'
'Méthode_'
'Mycobacterium_'
'Mus'
'Mehrzahl_'
'MINE_'
'MIA_'
'META'
'Lib'
'LAC'
'Ké'
'Kern'
'IMP'
'Hum'
'Helen_'
'Hear'
'Glo'
'Glas'
'Gan'
'Fai'
'EO'
'Dobré_'
'Diph'
'Daj_'
'Cervical_'
'Cam'
'CU'
'COU'
'CER'
'Białaczka_'
'Auss'
'Att_'
'Ace'
'ARN'
'ADN_'
'325_'
'1995_'
'09_'
'--'
'űn'
'šel_'
'ěž'
'électronique_'
'å'
'álního_'
'állat'
'zrobi'
'zl'
'zač'
'yar'
'wany'
'vorstehenden_'
'vik'
'veterinary_'
'version_'
'variant'
'vacuna_'
'uncertain_'
'twor'
'trip'
'trime'
'topo'
'tight_'
'tial_'
'tejido_'
'találkozunk_'
'säkert_'
'szenvedő_'
'synchron'
'suction_'
'subtype_'
'stron'
'steel_'
'sses_'
'ssel'
'spla'
'spir'
'solid'
'sole'
'smaller_'
'sekund'
'secu'
'sant'
'sangre_'
'rist'
'respira'
'recept'
'proto'
'priorit'
'printed_'
'prevent_'
'prefer'
'poziom'
'powod'
'pivota'
'palp'
'pacient'
'oza'
'owi_'
'ott'
'osp'
'oligo'
'nyom'
'normal'
'niko'
'nda'
'mt_'
'moz'
'mig'
'melléklet'
'mass'
'mask_'
'ló_'
'lägga'
'lys'
'luj'
'local'
'loading_'
'lit_'
'liche_'
'label_'
'který_'
'krv'
'kardi'
'jesteśmy_'
'izing_'
'izi'
'intra_'
'ined_'
'illi'
'här'
'hány'
'holes_'
'highly_'
'gör'
'género_'
'gani'
'gamm'
'force'
'fly_'
'fina_'
'feni'
'faktor'
'faces_'
'eční_'
'ey'
'exceed'
'ento'
'ense_'
'endocrin'
'enda'
'elbow_'
'einander_'
'edges_'
'dép'
'doxorrubicina_'
'determination_'
'cyte_'
'cry_'
'complications_'
'choc'
'chip_'
'certain'
'cera'
'care'
'börjar_'
'brach'
'blank'
'bias'
'bestimmt_'
'behind_'
'beat_'
'bad'
'atok_'
'aszt'
'assess'
'aso'
'amn'
'alkyle_'
'adults_'
'Under'
'Twe'
'Thyroid_'
'Teď_'
'TIN'
'TEL'
'Scha'
'Repair_'
'Prog'
'Parti'
'OMA'
'Neb'
'Nasal_'
'NH_'
'Musí'
'MS'
'Lim'
'LIN'
'Kto_'
'Kim_'
'Kerat'
'Juvenile_'
'Jsou_'
'Interleukin_'
'Hei'
'Gee'
'Ez'
'Eri'
'ENE'
'Dzie'
'DEN'
'Cin'
'Chodź_'
'CHO'
'Benzo'
'Basis_'
'Basi'
'Arch'
'57'
' ” _'
'ők'
'čku_'
'ölt'
'ózy_'
'éa'
'ásá'
'záv'
'zym'
'zusammen'
'zlo'
'yka'
'wrist_'
'uży'
'usti'
'unc'
'umn'
'ují_'
'uga'
'tök'
'tå'
'tség'
'trap'
'transmitter_'
'tory_'
'talk'
'także_'
'sélecti'
'strip'
'stn'
'sso'
'specific'
'smus_'
'signal'
'servi'
'sent'
'sector_'
'réc'
'rici'
'revi'
'remoción_'
'recién_'
'reactor_'
'prawd'
'pracy_'
'poka'
'phthal'
'petit'
'pari'
'pami'
'pai'
'organo'
'organis'
'option'
'ob_'
'nějak'
'nons'
'noi'
'nephro'
'nasz'
'nail_'
'měl'
'mpl'
'mp_'
'monitor_'
'mix'
'mind'
'mely'
'lád'
'lyc'
'lute'
'lose'
'loop_'
'liv_'
'leva'
'lent'
'larynx_'
'kí'
'kyl'
'których_'
'kopi'
'klinikai_'
'isc'
'iqu'
'interfa'
'innen_'
'indicating_'
'ideg'
'ict'
'happen_'
'gum_'
'glu'
'game_'
'fía_'
'fort_'
'fonctionnement_'
'foglal'
'faible_'
'except_'
'ergi'
'erg'
'ered_'
'equivalent_'
'entit'
'enn'
'ealis_'
'działania_'
'dut'
'druh'
'down'
'dla'
'dec'
'crema_'
'contacts_'
'cier'
'ched_'
'butyl_'
'biztos_'
'bacter_'
'atur'
'athi'
'ast_'
'arz'
'använd'
'angiogra'
'angina_'
'amiento_'
'alternat'
'alkohol_'
'agua_'
'afe'
'acquired_'
'acin'
'Zwischen'
'Vin'
'Tá'
'Squ'
'Sac'
'Remember_'
'Pro_'
'Pheno'
'Pad'
'O1'
'Net'
'Mobil'
'Mind'
'Macro'
'METHO'
'Lord_'
'Ll'
'Lec'
'Land'
'Kontakt_'
'Ken'
'Joey_'
'INFECT_'
'Green'
'GEN_'
'GB'
'Follow_'
'Fle'
'Fig'
'Everybody_'
'Estr'
'Err'
'DIP'
'Correct'
'Corp'
'Cooper'
'Combin'
'Christi'
'CZ'
'Brit'
'BIL'
'Ay'
'Artykuł_'
'Alt'
'')'
'íze'
'áz_'
'árt'
'ány_'
'Übertragungs'
'způsob'
'zeug'
'ydy_'
'xic'
'wskaz'
'wr'
'vés'
'ule_'
'uff'
'tán_'
'typ'
'trick'
'transp'
'toe_'
'tka_'
'technik'
'syr'
'svar'
'strom'
'stav'
'state'
'srdce_'
'somat'
'sine'
'shop'
'sexu'
'select'
'sche'
'rte_'
'rien'
'rice_'
'rge'
'retino'
'reflecti'
'rada'
'quenc'
'pte'
'proteins_'
'prosthesis_'
'presentation_'
'preparations_'
'polycy'
'podczas_'
'plex'
'pierdol'
'pee_'
'ozna'
'otrzym'
'openings_'
'oi'
'objaw'
'numer'
'nam'
'mps'
'močov'
'meti'
'látky_'
'lj_'
'lau'
'lateral'
'lastic_'
'kci'
'jú'
'jes'
'ip_'
'inguinal_'
'induction_'
'imo'
'hände'
'help'
'głowy_'
'gp'
'gado'
'funktion_'
'fris'
'fire'
'filament'
'figure_'
'feet_'
'evaluación_'
'epilepsi'
'enen_'
'eit'
'eig'
'efficacy_'
'dome'
'dogs_'
'dispositifs_'
'dimensional_'
'did'
'dialysis_'
'dex'
'dete'
'deb'
'cá'
'czn'
'ctiv'
'compr'
'complica'
'coma_'
'chirurgic'
'cerebro'
'caractéris'
'bum'
'brea'
'bieg'
'bent_'
'bel_'
'beg_'
'bd'
'atz'
'atel'
'ara_'
'appro'
'anémie_'
'anybody_'
'alak'
'acidosis_'
']._'
'ULO'
'Trav'
'Transport'
'Subject_'
'SUBCUTANEOUS_'
'Reference_'
'RIA'
'R1_'
'PUR'
'Moz'
'Mart'
'Mamma_'
'Low_'
'Lit'
'Liga'
'Last'
'Ink'
'Hoz'
'HB'
'Fakt'
'Eine_'
'Edema_'
'Eb'
'ERI'
'EE'
'Del'
'DV'
'DG'
'CY'
'Behälter_'
'Bed'
'Apo'
'Ank'
'Ach_'
'Abstand_'
'ALI'
') ; _'
'žil'
'ření_'
'ěj'
'ču'
'úlcera_'
'öffnung_'
'ént_'
'áč'
'áme_'
'Á_'
'zwi'
'xis_'
'wię'
'went_'
'wcz'
'vår_'
'vänta_'
'vs'
'vorbestimmten_'
'vele_'
'vd'
'való_'
'urat'
'trochu_'
'tradi'
'tine'
'tics_'
'tick'
'teste'
'teo'
'tender'
'technic'
'söt'
'sval'
'suit'
'structur'
'stern'
'squa'
'solvente_'
'snart_'
'sist'
'septic'
'rung_'
'route_'
'round_'
'rok'
'riv'
'rid'
'ric_'
'revêtement_'
'removing_'
'rel_'
'rch_'
'processes_'
'prevent'
'pora'
'population_'
'podání_'
'owni'
'owan'
'outta_'
'orti'
'operac'
'olika_'
'ogi'
'nuts_'
'nosi'
'nj'
'neutrop'
'mint'
'mente_'
'mens'
'melt_'
'mehr_'
'mediante_'
'magnet'
'mach'
'lán'
'köp'
'kun'
'kret'
'isis_'
'instrument_'
'infect'
'infant'
'ign'
'ids_'
'idea'
'handl'
'gul'
'gry'
'germ'
'förmigen_'
'företag'
'forgot_'
'flexi'
'fici'
'experiment'
'esophageal_'
'esh'
'epiderm'
'entlang_'
'duż'
'drick'
'doc'
'dice_'
'database_'
'cykl'
'comprennent_'
'composants_'
'circulation_'
'chea'
'capacitor_'
'bound_'
'boss_'
'blastoma_'
'bk'
'biliar_'
'bekezdés'
'avo'
'authorisation_'
'atresia_'
'asm'
'arr'
'arit'
'arge'
'aph'
'antis'
'amplifi'
'albo_'
'accidente_'
'accessi'
'abst'
'Zj'
'ZY'
'Voi'
'Träger_'
'Trenn'
'TM'
'Stan_'
'Samm'
'SUB_'
'Roo'
'På_'
'Provider_'
'Profil'
'Opa'
'Omlouvám_'
'Odd'
'Nope_'
'Muta'
'Med_'
'Marketing_'
'Mak'
'Lind'
'Leukemias_'
'Jaj_'
'JU'
'Ide'
'Hypert'
'GH'
'Dun'
'Dri'
'Diet'
'Case_'
'Ca_'
'CEN'
'Artikel_'
'Art'
'Allerg'
'Actually_'
'Acid'
'AA'
'A1_'
'6a_'
'68'
'500'
'1994_'
'))'
'ług'
'Če'
'órá'
'ódás'
'éb'
'ås'
'åd'
'ář'
'ász'
'zwierz'
'zvýšen'
'yv'
'wyt'
'wymi'
'wp'
'wire'
'wiesz_'
'wier'
'wers'
'vov'
'voneinander_'
'visit_'
'vaše_'
'uveden'
'ustan'
'upo'
'undi'
'trol'
'tomy_'
'tikus_'
'sło'
'szé'
'szar_'
'sva'
'sug'
'substitu'
'stop'
'sing'
'sida'
'separating_'
'sem'
'seh'
'sce'
'rát_'
'rze_'
'ruct'
'rich_'
'rhe'
'quest'
'pursuant_'
'proud'
'primer_'
'premi'
'preci'
'powiedział'
'popr'
'pojď'
'poc'
'parte'
'ových_'
'otw'
'onne'
'onat'
'ogen_'
'obli'
'nop'
'nature_'
'naci'
'model'
'mindenki'
'mediastin'
'lumine'
'libr'
'lamp_'
'kori_'
'koni'
'killed_'
'ittel'
'iser'
'ised_'
'ingredients_'
'inal'
'illetve_'
'idio'
'iche'
'ice'
'hängig'
'hydrat'
'hre'
'hlu'
'halb_'
'gis'
'genot'
'gard'
'foet'
'feb'
'eś'
'extérieur_'
'exte'
'excess_'
'esis_'
'entire_'
'enth'
'elles_'
'ellen_'
'eite'
'drinking_'
'dosis_'
'doktor_'
'discuss'
'directions_'
'différentes_'
'diff'
'determin'
'derivatives_'
'czeka'
'cyst'
'cyc'
'cus'
'crying_'
'con'
'comparing_'
'cki'
'cka'
'chacune_'
'cał'
'cat_'
'bł'
'breathe_'
'bizony'
'biot'
'bil_'
'berg_'
'balance_'
'bag'
'axially_'
'automat'
'amlodipin'
'alá'
'alli'
'akik'
'agn'
'afternoon_'
'acti'
'act_'
'Zaraz_'
'You'
'Whe'
'Vitamin_'
'Veg'
'Vac'
'VAS'
'Tuberculosis_'
'Top'
'Toni'
'Summ'
'Schritte_'
'Scan'
'SEC'
'Rh'
'Retro'
'Rela'
'REL'
'Przes'
'Polic'
'Plan'
'Pent'
'Oto'
'Not'
'Naz'
'MC'
'Lig'
'Kina'
'Keto'
'KR'
'IVA'
'GES'
'Fü'
'Fl'
'Figyel'
'Enfermedades_'
'ERO'
'ELL'
'Die'
'Das_'
'Da_'
'Control_'
'Const'
'Coa'
'Bude_'
'Body_'
'Antigens_'
'1993_'
'..'
' %, _'
'žalud'
'śle'
'ństw'
'öj'
'óci'
'áš_'
'ává'
'áció_'
'zda'
'zc'
'xin'
'works_'
'vő'
'víz'
'versi'
'veno'
'vehículo_'
'various_'
'vapor'
'uto'
'upt'
'uppe'
'unt'
'ungse'
'tyre'
'tura'
'trag'
'thro'
'tea_'
'tall'
'tale'
'säker_'
'sweetheart_'
'střeva_'
'styl'
'ström'
'stosowan'
'sip'
'sein'
'récepteur_'
'rupt'
'rtan'
'ror'
'ribos'
'repr'
'rekommendera'
'redan_'
'rectum_'
'radioa'
'raci'
'raccord'
'przys'
'proteiny_'
'proh'
'prevention_'
'ppa'
'poll'
'platin'
'pio'
'phy'
'photographi'
'perm'
'performance_'
'oni_'
'omy'
'ológi'
'oczy'
'nting_'
'now'
'nervus_'
'napis'
'moved_'
'moul'
'monocyt'
'mona'
'molecules_'
'mittel'
'mann'
'mammal'
'lík'
'léčb'
'lol_'
'limite'
'lies_'
'lid_'
'leu'
'label'
'kösz'
'kár'
'komp'
'kog'
'kh'
'keys_'
'kdy'
'kat'
'ját_'
'jj'
'ismus_'
'isen'
'iná'
'invent'
'infe'
'induct'
'impact_'
'imi'
'ille_'
'iet'
'hug'
'hlor'
'hled'
'gène_'
'gras'
'goddamn_'
'gina'
'gain_'
'frie'
'fina'
'fach'
'export'
'eras_'
'eczema_'
'dre'
'dotyczące_'
'distribut'
'displace'
'depressi'
'demi'
'definitely_'
'decr'
'csa'
'confi'
'composed_'
'comparison_'
'cig'
'chie'
'chauff'
'chap'
'carb'
'capacity_'
'buck'
'azy_'
'aur'
'arthrop'
'apá'
'annan_'
'andi'
'anat'
'ampule_'
'aliment'
'alg'
'akc'
'Zach'
'Właśnie_'
'Wat'
'Wall'
'Všechno_'
'Vypadá'
'Vit'
'Victor'
'UN_'
'UNT_'
'Szóval_'
'Stro'
'Sed'
'Scott'
'Receptory_'
'Poruchy_'
'Poc'
'PL'
'Muszę_'
'Muco'
'May'
'MIT'
'Lymphocytic_'
'Lac'
'LLE'
'Kry'
'Kos'
'Jimmy_'
'Inje'
'Hunt'
'Hand_'
'Gl'
'Fis'
'Fet'
'Extr'
'Est'
'Durch'
'Drink_'
'Dehydrogenase_'
'Cox'
'CRI'
'Bez_'
'Anschlu'
'Angel'
'Andy_'
'ACID_'
'99'
'110'
'- "_'
', ¿_'
'šu'
'érze'
'äge'
'ární'
'ßen_'
'Új'
'µ'
'zę'
'zom'
'zes_'
'zawsze_'
'yen'
'vře'
'vér_'
'vinyl_'
'veri'
'uł'
'utz'
'uppt'
'unteren_'
'ucha_'
'tym'
'trache'
'total'
'tabletter_'
'szín'
'suppress'
'supplying_'
'stöd'
'structural_'
'soup'
'slot_'
'sjukdom_'
'secretion_'
'rž'
'rös'
'rina_'
'rick'
'reçu'
'refu'
'reflex_'
'raum_'
'provenant_'
'proje'
'poi'
'podpor'
'planet'
'pię'
'pet_'
'pak_'
'osid'
'organique_'
'odw'
'odpo'
'obtain_'
'obra'
'när'
'noc_'
'nier'
'mobil'
'mielo'
'meninge'
'melano'
'marke'
'manufacture_'
'lå'
'lás_'
'lz'
'lne_'
'llen'
'liczb'
'lesionado_'
'lekarz'
'ledn'
'lamina'
'kty'
'klar'
'jesz_'
'jem'
'jat'
'ipe'
'intrav'
'intervertebral_'
'inten'
'inn'
'initiati'
'inhibitory_'
'ilo'
'ifen'
'icz'
'icult'
'hyperplasia_'
'hub'
'hone'
'hlen'
'him'
'gyermek'
'grain'
'gon_'
'goes_'
'globulin_'
'försiktig'
'ford_'
'fastställa'
'extensi'
'exposed_'
'eva'
'ethyl'
'estadio_'
'essentially_'
'esk'
'enzymes_'
'ensure_'
'eke'
'dynami'
'dye_'
'drei'
'dne'
'djur_'
'disso'
'disclosed_'
'dependence_'
'dami'
'daganata_'
'cél'
'czo'
'couches_'
'cord'
'constr'
'confirm'
'color'
'coccus_'
'clamping_'
'city_'
'chlori'
'chlag'
'chemo'
'carboxylic_'
'capacit'
'caf'
'bí'
'boj'
'bird'
'bilirubin'
'bacteria_'
'ater'
'asking_'
'arteri'
'apar'
'annyi'
'amy_'
'ais'
'aide_'
'add'
'achieved_'
'absceso_'
'abr'
'abb_'
'Wha'
'Wand'
'Verti'
'TEM'
'Spra'
'Seriously_'
'Rac'
'RN'
'RH'
'Pull_'
'Programm'
'Pon'
'Pharmaco'
'Pack'
'PROP'
'OSIS_'
'Nézd_'
'Nowotwory_'
'Nitro'
'Nei'
'Monoc'
'Mn'
'Mill'
'Maxi'
'Linfo'
'Köz'
'Kä'
'Kommunikations'
'Hö'
'Henry_'
'HU'
'HL'
'Gene'
'GP'
'Face'
'FP'
'DISORDER_'
'Chondro'
'Cast'
'CART'
'Bronchi'
'Bring_'
'Befestigungs'
'Anzahl_'
'Ane'
'Andre'
': - _'
'. ..._'
'śród'
'ący_'
'útero_'
'íli'
'ête'
'éve'
'éne'
'állapot'
'zrobić_'
'znám'
'zmienion'
'zil'
'zah'
'xA1'
'wirus'
'wam_'
'väl'
'voca'
'viru'
'uś'
'unabhängig_'
'ujące_'
'uel'
'történ'
'toxicit'
'thorax_'
'terr'
'tep'
'tav'
'taj'
'surviv'
'sts_'
'story_'
'somebody_'
'skóry_'
'shot_'
'sending_'
'sba'
'résistance_'
'réception_'
'rozporządzenie_'
'rovn'
'roku_'
'rodzin'
'ringer_'
'ridge'
'rich'
'retic'
'respons'
'reductase_'
'proté'
'protective_'
'procedur'
'prese'
'pref'
'posz'
'pomocy_'
'pocz'
'ového_'
'oru'
'ori_'
'optischen_'
'opat'
'oldal'
'oga'
'oes'
'ods'
'odb'
'nění_'
'nä'
'nál'
'nutrition_'
'nigdy_'
'nif'
'nien'
'nida'
'nick'
'ngl'
'ngio'
'nea_'
'ndro'
'ndo'
'ndel'
'měla_'
'miért_'
'mikrogram'
'mber'
'mali'
'loaded_'
'linfo'
'lesz'
'lecznicz'
'leci'
'következő_'
'kámo_'
'ksi'
'karyo'
'jer'
'ior'
'intraven'
'instruction_'
'inse'
'ift'
'iej_'
'icos_'
'hydroxide_'
'hide'
'heit'
'height_'
'handel'
'haemoglobin_'
'gyakor'
'guidance_'
'gris'
'glas'
'gillar_'
'följ'
'fragment_'
'fern'
'fam'
'eß'
'eyelid_'
'exhaust_'
'etek_'
'electroc'
'einst'
'ehen'
'együtt_'
'dumb_'
'dost_'
'dobra_'
'differential_'
'destr'
'deco'
'ctor'
'copper_'
'converting_'
'complicated_'
'comi'
'chwil'
'chol'
'cardia_'
'bože_'
'boa'
'bezp'
'baseline_'
'aza_'
'appli'
'ann_'
'aliz'
'alergia_'
'ager'
'advice_'
'acce'
'abortion_'
'abla'
'\u \u_'
'Vid'
'Verk'
'URE_'
'Tyrosine_'
'Try_'
'Treatment_'
'TON'
'St_'
'Special_'
'Seri'
'SC_'
'REA'
'Pros'
'Pok'
'Pic'
'POR'
'ONS_'
'Norm'
'NAS'
'Měl'
'Must'
'Motor_'
'Mother_'
'Moja_'
'Mito'
'Let'
'LEN'
'Komp'
'JO'
'Integr'
'Index_'
'Idiopathic_'
'IU'
'IT_'
'INTE'
'Home'
'HAN'
'Gotta_'
'Glucose_'
'Father_'
'Einla'
'Ed_'
'EPINEPHRINE_'
'EMI'
'Direct'
'DISPOSABLE_'
'Cong'
'Cl'
'Ciprofloxacin_'
'CTION_'
'CARDI'
'Bullshit_'
'Beck'
'Beautiful_'
'BEN'
'Ani'
'Always_'
'204_'
', ...'
'). '
'živ'
'čast'
'ącz'
'ély'
'ágo'
'zus_'
'ztr'
'zdr'
'zcz'
'wę'
'wystąpi'
'winding_'
'vikt'
'vier'
'vede'
'uppr'
'uen'
'történt_'
'tyt'
'tvá'
'träg'
'traiter_'
'toxi'
'tout_'
'tlen'
'tla'
'tills'
'tiden_'
'ths_'
'think'
'terrible_'
'teck'
'tart'
'tand'
'takov'
'sü'
'súly'
'sérülés_'
'sze_'
'swa'
'sus'
'suppose'
'ství_'
'studied_'
'strong_'
'strict'
'specifik'
'skriv'
'sis'
'sein_'
'schn'
'rädd_'
'rotein'
'ril_'
'regional_'
'razem_'
'rate'
'rage'
'přítel'
'pár_'
'pu_'
'psychosis_'
'prog'
'pozwol'
'powi'
'poly_'
'podani'
'pissed_'
'pip'
'pies'
'phi'
'personality_'
'passa'
'parti'
'oční'
'oven'
'otrop'
'omb'
'obl'
'nukleo'
'nian'
'máte_'
'moléculaire_'
'mai'
'maci'
'lst'
'lora'
'lkyl'
'litr'
'liti'
'ků'
'kérek_'
'kwas'
'kto'
'kraft'
'komórkow'
'kilo'
'kast'
'kardio'
'kab'
'join_'
'jai'
'ivo'
'irm'
'intraepit'
'inte'
'ime'
'ighet'
'ierung_'
'idiopathic_'
'hus_'
'hets'
'hematoma_'
'helvete_'
'gren'
'gma'
'gib'
'geo'
'galactos'
'functions_'
'fia_'
'expected_'
'etz'
'ether_'
'enteri'
'emulsion_'
'emen'
'elem'
'eks'
'egész_'
'där'
'dzy'
'dva_'
'donn'
'dli'
'dise'
'disab'
'direkt_'
'dermato'
'dee'
'czę'
'czego_'
'cré'
'craneal_'
'correspond'
'concern'
'colle'
'cino'
'chondro'
'chew'
'cest'
'cathode_'
'bulb'
'blis'
'bajo'
'ath'
'anz'
'antig'
'ankle_'
'amounts_'
'absolutely_'
'abrasi'
'Zobacz'
'Xe'
'XY'
'Wasser'
'Vz'
'Vissza'
'Trastornos_'
'TIV'
'Szép_'
'Some_'
'Sh'
'Segít'
'See'
'Schu'
'SG'
'S1_'
'Rai'
'Prol'
'Oo'
'OPE'
'Nyug'
'Längs'
'Lip'
'Lei'
'Kühl'
'Kö'
'Kle'
'Kid'
'Kenn'
'Jä'
'INA'
'Hil'
'Harz'
'Halo_'
'Gud_'
'Excellent_'
'Europ'
'Erfindung_'
'Epid'
'Chin'
'Ces_'
'Category_'
'Calci'
'CONT'
'CIA'
'Beta'
'BLO'
'BIN'
'BAC'
'American_'
'Agr'
'Aa'
'201_'
'03'
'+)'
')+_'
' (&_'
'ři_'
'ütz'
'účinky_'
'úg'
'ärt'
'äch'
'állít'
'ági'
'zánět_'
'zák'
'zyc'
'zub'
'zoo'
'zio'
'ycli'
'yal'
'x1'
'wet'
'werte'
'wake_'
'väg_'
'väg'
'választ'
'vide'
'varför_'
'urticaria_'
'upr'
'unge'
'uit'
'těhotenství_'
'tél_'
'transducer_'
'transd'
'trai'
'tog_'
'toc'
'time'
'tier'
'tensio'
'tari'
'tank_'
'szint_'
'swo'
'studie_'
'soli'
'slut'
'sion'
'serc'
'selectively_'
'sebe_'
'rän'
'rox'
'rout'
'rota'
'rok_'
'reticulo'
'reproduction_'
'rates_'
'ramen'
'quirúrgica_'
'quer'
'quea'
'purpose_'
'práce_'
'processed_'
'problem'
'pren'
'pont'
'pomoc'
'piersi'
'pieces_'
'picture_'
'pia_'
'peritoneal_'
'perf'
'oř'
'ovarian_'
'otherwise_'
'onin'
'ometr'
'olé'
'ochron'
'obt'
'nste'
'nera'
'nepř'
'nedo'
'ndu'
'nation'
'nari'
'muta'
'mor_'
'moment'
'mesur'
'meghal'
'medica'
'media'
'magát_'
'lékař'
'lugnt_'
'longer_'
'lock'
'lenne_'
'lej'
'lede'
'laceration_'
'kung'
'który_'
'kir'
'kem'
'kanal_'
'issa'
'ipr'
'inis'
'informac'
'infantil'
'increases_'
'inate'
'imprim'
'ilis_'
'hiány_'
'gues'
'grafía_'
'gotow'
'gee'
'gases_'
'frequent'
'ewe'
'eux_'
'esófago_'
'erhalten_'
'epe'
'embodiment_'
'ege'
'drying_'
'dient_'
'det'
'destinée_'
'denen_'
'cut'
'conveyor_'
'connecti'
'coi'
'ciow'
'cional_'
'cell'
'causa'
'camera_'
'były_'
'buj'
'budget'
'biologic'
'bin_'
'bil'
'biał'
'bbs_'
'až'
'ań'
'amph'
'alumin'
'alt_'
'alkalmazás'
'ain'
'advance'
'XII'
'Vet_'
'Uh'
'UTI'
'Tumo'
'Trev'
'Therefore_'
'Th'
'Tet'
'Schr'
'Sai'
'SD'
'Robi'
'Ribo'
'Protože_'
'Positive_'
'Ocular_'
'Mou'
'Marie_'
'Maggie_'
'Lyn'
'Luke_'
'L1_'
'Jste_'
'IVE_'
'Hemoglobin_'
'Has_'
'Glu'
'Gill'
'GPS_'
'Fern'
'FUN'
'FIN'
'Exe'
'Cyclo'
'Comp'
'Cod'
'Clostridium_'
'C5_'
'Będzie'
'Bog'
'Benz'
'Arthro'
'Andr'
'Agents_'
': +_'
'1992_'
'), (_'
' ♪ ♪ _'
' ≥ _'
'μ'
'ży_'
'ůst'
'ěd'
'Ě'
'ędzi'
'ąz'
'üssel'
'öh'
'ówk'
'óti'
'ítés'
'érie'
'éna'
'émi'
'écha'
'ább_'
'zaw'
'zasad'
'xu'
'wärts'
'wsz'
'wsk'
'writ'
'więcej_'
'wirk'
'wierdz'
'wha'
'werk'
'wai'
'vág'
'vilket_'
'vaš'
'utn'
'utilis'
'unde'
'ttem_'
'trze'
'tina_'
'tie_'
'thym'
'terapia_'
'tely_'
'takes_'
'säkerhet'
'szövet'
'systol'
'synth'
'subsequent_'
'stei'
'stary_'
'stand'
'skład'
'selective_'
'sejt'
'rimi'
'ril'
'retard_'
'resultat'
'représenta'
'rectal_'
'rec'
'rapid_'
'rako'
'quit_'
'přípravek_'
'pár'
'push'
'przes'
'protocol_'
'protect_'
'proportion_'
'propo'
'propionat'
'pompe_'
'poci'
'phili'
'pewno_'
'perforat'
'park'
'ows_'
'oto_'
'orb'
'onna'
'ohr'
'og_'
'něn'
'nyak'
'numbers_'
'nr'
'normális_'
'nke'
'nisk'
'neš'
'nef'
'must'
'mous'
'monté'
'molar_'
'mild_'
'meso'
'matern'
'mars'
'maleato_'
'mainten'
'lto'
'lorsqu_'
'loro'
'lib'
'leis'
'lab_'
'köze'
'kén'
'kości_'
'komplex'
'kling'
'klar_'
'kak'
'jour_'
'jednot'
'irri'
'interp'
'injekciós_'
'infra'
'imu'
'impression_'
'hud'
'hormon_'
'harg'
'had'
'hac'
'giving_'
'gin_'
'gick_'
'ggl'
'gesch'
'gele'
'format'
'foreign_'
'foam_'
'fié'
'filtration_'
'fibr'
'fertőz'
'feedback_'
'familj'
'exposi'
'exhibit'
'ersi'
'ený_'
'empfangen'
'ello'
'egyszer_'
'egi'
'doi'
'diffuse_'
'diab'
'deliver'
'dalej_'
'człowiek'
'cysti'
'consider'
'completed_'
'compar'
'citr'
'chá'
'chle'
'change'
'calcul'
'buňky_'
'biztonság'
'bik'
'beweg'
'betegek'
'bem'
'bac'
'avoid'
'attach'
'ari_'
'ardi'
'arco'
'arb'
'appar'
'används_'
'anta'
'anomali'
'anima'
'alat'
'aktive'
'agg'
'afecta'
'acteri'
'acoustic_'
'absorbe'
'Zahl_'
'Ura'
'Ud'
'Time_'
'Tablet'
'Szo'
'Swa'
'Substrat_'
'Spas'
'Soli'
'Schneid'
'SSI'
'SOL'
'Rá'
'Rel'
'Program'
'Pregnancy_'
'Position'
'Poor_'
'Oesophag'
'OME'
'Normal_'
'Material'
'MIS'
'MAN'
'Leiter'
'Jsme_'
'Increased_'
'ICA'
'Håll_'
'Homo'
'His'
'Hepatitis_'
'GENE'
'Får_'
'Fran'
'FRO'
'EUR'
'Dö'
'Dic'
'DEFICIENCY_'
'Coś_'
'Conc'
'Cole'
'Cellul'
'CHI'
'Był'
'Boh'
'Amino_'
'Allt_'
'Alice_'
'Adult_'
'AMP_'
'750_'
'109_'
'08_'
'. ~~~ _'
'! - '
'żyw'
'źn'
'ínge'
'ézi'
'éro'
'ére_'
'éo'
'ètre_'
'átk'
'álla'
'zta'
'yes'
'wieder'
'wert'
'weiterhin_'
'wei'
'vyš'
'vyh'
'vona'
'veta_'
'vene'
'utiliz'
'urba'
'unique_'
'umge'
'ught'
'tę_'
'tyl'
'twa'
'tures_'
'ttle_'
'tti_'
'tsch'
'tire'
'teno'
'tampon_'
'szép_'
'stí'
'student'
'stations_'
'spie'
'soda_'
'smak'
'shunt_'
'seem_'
'sami'
'råd'
'rám_'
'rubicin'
'roj'
'reports_'
'reni'
'rem_'
'region'
'recover'
'rech'
'rb'
'razy_'
'razie_'
'quanti'
'pupil'
'provo'
'prostate_'
'pose'
'pods'
'pob'
'pivot'
'pira'
'pek'
'patch_'
'overdose_'
'org'
'opra'
'opla'
'onych_'
'omen'
'oce'
'nso'
'nore'
'nevus_'
'mál'
'musk'
'możesz_'
'miteinander_'
'minska'
'mins'
'micina_'
'mera'
'melanoma_'
'megsz'
'maintenance_'
'magnetische'
'låter_'
'lyo'
'lve'
'like'
'ligamento_'
'leuk'
'következ'
'kés'
'koč'
'konve'
'kick_'
'kia'
'jord'
'ivo_'
'isot'
'intera'
'injekční_'
'ill_'
'iká'
'idy'
'ický_'
'ibi'
'hung'
'human'
'hormona_'
'hodin'
'hlavy_'
'hladin'
'hergestellt_'
'hal_'
'gå'
'green_'
'gleich'
'ged'
'föd'
'físico_'
'fue'
'filtre_'
'filling_'
'fight_'
'ffin'
'feuille_'
'erős'
'erytro'
'entry_'
'engedély'
'ekto'
'dł'
'död'
'déte'
'dzieci'
'dyspla'
'dyrektyw'
'dun'
'drop'
'discontinu'
'diet'
'die'
'descri'
'dent_'
'degr'
'daddy_'
'czynnik'
'czny_'
'cum'
'concu'
'concerned_'
'concentrate_'
'compressed_'
'compre'
'commutation_'
'comm'
'chronic'
'chciał'
'chalt'
'ceramic_'
'cast'
'carbam'
'calcif'
'brin'
'biv'
'aż'
'awia'
'aust'
'antibioti'
'anhydr'
'analog'
'alkali_'
'alimenta'
'alap'
'adver'
'absorb'
'White_'
'Vä'
'Verte'
'Vera'
'Té'
'Trich'
'Tommy_'
'Ti_'
'Szer'
'Sma'
'Sau'
'Rom'
'ROS'
'Poisoning_'
'Pel'
'Parkinson_'
'PV'
'PM'
'PIN'
'PAT'
'Office'
'OST'
'Matt'
'MOD'
'Lex'
'LES_'
'Kurwa_'
'Komple'
'Kam'
'Jenny_'
'Ion'
'IDA'
'Ferr'
'Eingangs'
'ECG_'
'Diso'
'DS'
'Cáncer_'
'Corneal_'
'Betätigungs'
'Bab'
'Artie_'
'Anomal'
'Alo'
'ATO'
'91'
'84'
')) _'
'≥'
'šení_'
'Świ'
'łko'
'čil'
'červen'
'ąt_'
'óp'
'érieure'
'äre'
'äle'
'äg'
'ások_'
'álně_'
'Ör'
'zusammensetzung_'
'zott_'
'zosta'
'znak'
'zim'
'zeni'
'yczn'
'wyr'
'wt'
'wpływ'
'woln'
'várj_'
'vs_'
'verso'
'vern'
'verb'
'urc'
'ungsk'
'ucci'
'több_'
'típus_'
'tyczn'
'tva'
'transz'
'toria'
'thick'
'terapeut'
'technical_'
'sélection_'
'stroma'
'strat'
'soi'
'skada'
'själv'
'simpl'
'silane_'
'shell_'
'sets_'
'septal_'
'salivary_'
'rue'
'rme'
'regular_'
'refer'
'recited_'
'radiogra'
'přís'
'présent'
'przedstawi'
'propr'
'projects_'
'profess'
'produkt_'
'prick_'
'pota'
'polye'
'polariz'
'podív'
'plats_'
'plant'
'oś_'
'ozi'
'ota_'
'osition_'
'optiques_'
'oppo'
'oli_'
'określon'
'ogo'
'nowa_'
'notice_'
'nom_'
'nko'
'nitri'
'nil'
'naukow'
'nati'
'nate'
'narz'
'mémoris'
'močového_'
'mozkov'
'mole'
'modification_'
'modes_'
'miast'
'mek'
'measure_'
'léky_'
'läng'
'lus'
'lur'
'liche'
'lde'
'lce'
'lasti'
'lamp'
'kř'
'komplik'
'koh'
'jícnu_'
'jm'
'jako'
'ismo_'
'iodine_'
'integer_'
'ili_'
'ilag'
'ified_'
'ierte_'
'ient'
'icien'
'iak'
'hri'
'gun_'
'gra_'
'gluc'
'ghet'
'gew'
'fármaco'
'fou'
'fortsätt'
'fish'
'fingers_'
'exclu'
'excit'
'evidence_'
'eth'
'eten'
'establishing_'
'essi'
'enter_'
'ensa'
'emis'
'einges'
'eho'
'dü'
'droit'
'division_'
'dispersi'
'dermal_'
'deflect'
'części'
'curi'
'culture_'
'cui'
'cross'
'coordinate'
'concentr'
'columna_'
'coli'
'cok'
'coding_'
'cod'
'cks_'
'ckn'
'cho_'
'chla'
'chez_'
'chas'
'bour'
'boc'
'biu'
'binary_'
'bev'
'bestehen'
'bered'
'badania_'
'aufn'
'ats'
'atome_'
'astn'
'ars_'
'arc_'
'anyá'
'anci'
'alni'
'allt'
'aler'
'adék'
'adt'
'acja_'
'Zk'
'Wyp'
'Wh_'
'Was_'
'VAN'
'Unit'
'Tris'
'Trauma'
'Tic'
'TEC'
'Stru'
'Sit_'
'Sex_'
'Service'
'Scr'
'SUP'
'SPR'
'Rest_'
'RID'
'Pil'
'Paran'
'Obr'
'Niez'
'Netz'
'Mul'
'Možná_'
'Motor'
'Mand'
'Maj'
'Long_'
'Lep'
'Jar'
'Il'
'Hit'
'Gluc'
'FSH_'
'FAC'
'Earl'
'Dobry_'
'Development'
'DOXORUBICIN_'
'Cri'
'Cran'
'Comple'
'Chyba_'
'CTI'
'CELL_'
'C4_'
'Burk'
'Bladder_'
'Białko_'
'Base'
'BAS'
'Axi'
'Atri'
'Animal_'
'Allo'
'Aj'
'Ade'
'ACTIV'
'; '
' - "_'
'žl'
'šť'
'łon'
'ęcz'
'čk'
'ýza_'
'óxido_'
'étanch'
'érte'
'électrique'
'ätt'
'â_'
'³_'
'zoa'
'znajd'
'zako'
'ysz_'
'yng'
'wysok'
'wag'
'vibration_'
'uso'
'ured_'
'unders'
'underl'
'udo'
'turi'
'tumor'
'trom'
'trodde_'
'trim'
'trie'
'tren'
'transporte'
'track_'
'tiroide'
'tillf'
'teu'
'teen'
'tank'
'szerv'
'syphilis_'
'synd'
'successive'
'stå'
'spot'
'sheets_'
'septum_'
'sensors_'
'senil'
'senast_'
'schizo'
'schem'
'sar_'
'sala'
'rzecz'
'ryzyk'
'roli'
'rikt'
'rigid'
'resp'
'reserv'
'repo'
'renf'
'relative'
'regula'
'refr'
'referenc'
'reat'
'rcz'
'radially_'
'radiale'
'race'
'put'
'proces'
'použív'
'position'
'pln'
'piękn'
'pièce_'
'pierw'
'phon'
'pharynx_'
'parcial_'
'paní_'
'packaging_'
'oxyg'
'otro_'
'organisme'
'operable_'
'occu'
'obě'
'něk'
'núcleo_'
'num'
'nowo'
'nne_'
'neutrali'
'neuron'
'neum'
'ndr'
'měl_'
'moder'
'mnou_'
'mmer_'
'metha'
'menn'
'mena'
'mast'
'machines_'
'lni_'
'lled_'
'lier'
'lato_'
'köszönöm_'
'képes'
'kväll_'
'kovan'
'kov'
'komponente'
'kerato'
'juri'
'jek'
'jejun'
'itz'
'itra'
'ites_'
'issue'
'insulating_'
'insat'
'infarction_'
'iform'
'iditis_'
'hydrauli'
'horn'
'hombro_'
'hni'
'histiocyt'
'hion'
'hair'
'gosh_'
'glöm'
'glut'
'gewi'
'gb'
'fő'
'fü'
'fang'
'falle'
'fa_'
'expert'
'excret'
'excessive_'
'esen_'
'encoding_'
'embryo'
'egr'
'effic'
'drágám_'
'doc_'
'disk'
'dioxide_'
'dilat'
'ders'
'dazu_'
'daz'
'dawk'
'cours_'
'constitute'
'cement_'
'carry_'
'calci'
'betegsége_'
'benefit_'
'become_'
'beau'
'balan'
'baj'
'atti'
'asthma_'
'angebracht_'
'analys'
'ame_'
'actual_'
'activa'
'Zustand_'
'Zell'
'YR'
'XE'
'Wasser_'
'Vilken_'
'Vie'
'UE'
'Tou'
'Thu'
'Tele'
'TRO'
'THER'
'Stat'
'Since_'
'Scre'
'SME'
'SEQ_'
'Rose'
'Pure'
'Pojď'
'Park'
'PLAS'
'Optic_'
'Onc'
'Number_'
'Novotvar_'
'NY'
'NAT'
'Monsieur_'
'Moni'
'MAC'
'Louis_'
'LYMPHO'
'Kla'
'Jö'
'INAL_'
'Herr_'
'HM'
'HEX'
'HEPA'
'HA_'
'Gus'
'God'
'Gerät_'
'EV'
'DES'
'Cé'
'Copy_'
'Contact_'
'Christ_'
'Cholest'
'Carcino'
'Capsule_'
'Cana'
'Bon'
'Authorisation_'
'Aut'
'Anything_'
'Anterior_'
'Alex'
'AMIN'
'175'
'100MG_'
' “ _'
'źni'
'łó'
'ční'
'ączk'
'óra_'
'étel'
'érintő_'
'äts'
'Így_'
'ztrát'
'způsobená_'
'zgodnie_'
'załączniku_'
'zakr'
'yf'
'wki_'
'widzi'
'váš_'
'vos_'
'vors'
'vizelet'
'utvärder'
'uss'
'ureth'
'ulat'
'twin'
'trwa'
'transmit_'
'tonsil'
'tige'
'terapie_'
'tehe'
'tec'
'séparé'
'surge'
'stai'
'sport'
'sorbi'
'snack'
'snabb'
'skad'
'shoot_'
'shoes_'
'shar'
'scopi'
'rozpo'
'rozm'
'replacement_'
'rendelet'
'registre'
'rbo'
'rba'
'rau'
'rast'
'quel_'
'pry'
'protože_'
'possédant_'
'pomy'
'plod'
'pharmaceutique'
'ozás'
'oxida'
'ová'
'opera'
'omy_'
'oesophagus_'
'novo'
'mpt'
'mpla'
'mma_'
'mle'
'mier'
'microscop'
'mari'
'magnet_'
'magn'
'mad_'
'låt'
'luft'
'luc'
'lse_'
'lof'
'liza'
'kál'
'kraj'
'kraft_'
'klass'
'kav'
'jdeme_'
'izom'
'injerto_'
'infl'
'ieb_'
'icia'
'iad'
'hurry_'
'hritis_'
'hopp'
'hesi'
'hennes_'
'heal'
'gay_'
'främ'
'fran'
'formée_'
'foot'
'fogok_'
'fogj'
'flex'
'fect'
'farmako'
'eł'
'extremity_'
'externa_'
'exac'
'erer_'
'enera'
'ements_'
'eme'
'earth_'
'drž'
'displacement_'
'dislo'
'developed_'
'desa'
'dern'
'decomp'
'dating_'
'darstellt_'
'damp'
'corte'
'correct'
'ciu_'
'chau'
'candidiasis_'
'bél'
'bus'
'brá'
'bral_'
'bore'
'boil'
'blocking_'
'bin'
'biliary_'
'beträgt_'
'bead'
'aż_'
'ax_'
'außer'
'auricular_'
'atn'
'atl'
'atis'
'asked_'
'arbete'
'angiop'
'analyse_'
'ammonium_'
'aina'
'adjustable_'
'adh'
'aby'
'aI'
'Wea'
'Verschlu'
'VER_'
'Uc'
'Ts'
'Tomogra'
'Tissue_'
'Till'
'Tart'
'T1_'
'Stev'
'Spokojnie_'
'Severe_'
'Roy'
'RETIRED_'
'Proteína_'
'PULM'
'Nyel'
'Má_'
'MIDE_'
'Lisa_'
'Kt'
'Když_'
'Jeez_'
'Instru'
'Gat'
'Forma'
'Ethan_'
'Enden_'
'Eingabe'
'EST'
'Dám'
'Duct'
'Dermatitis_'
'DAT'
'Cart'
'Card'
'CNS_'
'CK_'
'C1'
'Bos'
'Bei'
'Befe'
'Basis'
'BES'
'Anya_'
'Alan_'
'Adam_'
'ANT'
'AMINE_'
'320_'
'- - _'
' „_'
' %'
'žlázy_'
'życ'
'špatn'
'še_'
'łk'
'ęcie_'
'ęb'
'čení_'
'ük'
'û'
'évi'
'éric'
'äm'
'älle'
'átor'
'álm'
'ái'
'ße'
'}'
'zrobił'
'zale'
'zada'
'yá'
'yce'
'woo'
'wide'
'wer'
'weakness_'
'wash_'
'vätska_'
'vrozen'
'užíva'
'uterino_'
'unsaturated_'
'ungsmittel_'
'ump'
'től_'
'tünetek_'
'túl'
'tyn'
'twarz'
'tryck'
'trois_'
'tissues_'
'tillämpas_'
'tetrac'
'termina'
'tebou_'
'tast'
'tars'
'tai'
'tage_'
'tack'
'tach'
'tabi'
'summ'
'sulph'
'stil'
'spécifique_'
'spasm_'
'souvis'
'slut_'
'slide_'
'sky_'
'silver_'
'silly_'
'significantly_'
'sever'
'serotonin'
'sali'
'sai'
'réaction_'
'rzu'
'rotate'
'rogram'
'rj'
'restr'
'repu'
'rendelet_'
'relativ_'
'regu'
'recip'
'recent'
'rce'
'raised_'
'pulmon'
'pso'
'przesz'
'przesta'
'profes'
'produktów_'
'presión_'
'premature_'
'pote'
'podp'
'pie'
'phan'
'partners'
'owany_'
'ouš'
'ound_'
'otra'
'orte'
'oplast'
'oph'
'opathi'
'oo_'
'onset_'
'onic_'
'ofo'
'odpově'
'néze'
'nym'
'nich_'
'ngi'
'nent_'
'napot_'
'names_'
'młod'
'många_'
'másod'
'most'
'morf'
'monitored_'
'mej'
'matur'
'mang'
'lü'
'localización_'
'lmo'
'legt'
'lben_'
'lamivudin'
'laid_'
'kü'
'können_'
'kön'
'kuty'
'ktr'
'ktions'
'kdo_'
'joints_'
'jmy_'
'jedem_'
'jaw_'
'iás_'
'into'
'intestino_'
'intervalle'
'interleukin'
'inko'
'inheit_'
'infuz'
'ifer'
'hydrogène_'
'hw'
'hec'
'heated_'
'gyógy'
'gus_'
'graphic_'
'globin'
'global'
'generat'
'gaz'
'förändr'
'function'
'folgende_'
'fogom_'
'ferro'
'ezo'
'extrémités_'
'ety_'
'espi'
'esf'
'equin'
'equal'
'entsprechenden_'
'enge'
'első_'
'elb'
'effet_'
'edz'
'död_'
'dyn'
'drum_'
'driver_'
'doty'
'dolog'
'dna_'
'distinct'
'dispositivo_'
'dispos'
'diode_'
'dia_'
'detach'
'ded'
'decode'
'czynn'
'contrast_'
'continu'
'contents_'
'coin'
'chte'
'chroni'
'choisi'
'chne'
'celle'
'carboxyl'
'cara_'
'calcin'
'będziesz_'
'blev_'
'bita'
'bile_'
'bildet_'
'besz'
'axi'
'authorised_'
'aspirin'
'arin'
'archi'
'appreciate_'
'antigen'
'ający'
'ając'
'ades_'
'acrylate_'
'achse_'
'acces'
'Zuführ'
'Wiesz_'
'Who'
'Vál'
'Vil'
'Varia'
'Ureter'
'Typ'
'Tur'
'Tony_'
'Tek'
'Scar'
'SAR'
'ROM'
'RAN'
'Protein'
'Palm'
'Ow'
'Opravdu_'
'Od_'
'Objekt'
'OXI'
'Nervous_'
'Need'
'Nebu'
'Mini'
'Lég'
'LOX'
'Karen_'
'Ještě_'
'Hip'
'Henoch_'
'Gruppen_'
'Gold'
'GI_'
'Führungs'
'Fus'
'Fund'
'Finn'
'Family_'
'Eg'
'Durchmesser_'
'Dif'
'Deep_'
'Compos'
'Colon'
'CD2'
'Bó'
'Big_'
'Betriebs'
'Beth_'
'BUT'
'BRE'
'Alla_'
'Ado'
'Actin'
'Abdominal_'
'ANO'
'89'
'82'
'72'
'2A_'
'160'
'107_'
'04'
'+'
'…_'
'říká'
'ődés'
'ěl_'
'čky_'
'ček_'
'ící'
'éventuellement_'
'établi'
'áza'
'álás'
'zys'
'zra'
'zawierając'
'zav'
'zan'
'yog'
'yjny'
'xen'
'wyp'
'wise_'
'view'
'varand'
'urt'
'urs'
'uppl'
'ulás'
'túl_'
'traje'
'toute'
'tids'
'thermoplastic_'
'tempora'
'tem'
'telefon_'
'taste_'
'słu'
'szül'
'szte'
'szko'
'sync_'
'sweat'
'swe'
'surve'
'strand'
'stehen'
'statistic'
'stam'
'ssive_'
'sitis_'
'simplex_'
'sec_'
'réservoir_'
'rozd'
'ropin'
'right'
'retention_'
'respiratori'
'repa'
'rakovina_'
'quin'
'protru'
'prostaglandin'
'prolaps'
'print_'
'prami'
'pozna'
'ponto'
'polyol'
'pojk'
'permanent_'
'patr'
'pants_'
'palsy_'
'owym_'
'oper'
'ologi'
'olin'
'olic_'
'ody_'
'ock'
'nő_'
'nucle'
'noso'
'njur'
'nine_'
'nge_'
'neza'
'nemocn'
'měn'
'muž'
'możliw'
'monoc'
'monoa'
'moduli'
'mid_'
'mbr'
'matri'
'match_'
'mamo_'
'magnesium_'
'lés'
'lymphoid_'
'log_'
'lno'
'lamin'
'lage'
'kém'
'károsodás'
'kond'
'kapcsolat'
'kacj'
'jś'
'ján'
'jobba'
'jal'
'irányelv_'
'insulat'
'instru'
'induce'
'indicator'
'impaired_'
'ily_'
'ient_'
'iejsz'
'idé'
'idr'
'iał'
'hodnot'
'hma'
'hidr'
'hex'
'hang_'
'haemolytic'
'gud'
'grande_'
'genous_'
'gegenüber_'
'förut'
'fusi'
'ften_'
'frågor_'
'fon'
'fluorosc'
'fix'
'fine'
'fied_'
'fibrom'
'fem_'
'expos'
'erungs'
'epsi'
'enty'
'ensuite_'
'enh'
'emin'
'elt_'
'elh'
'eing'
'edo'
'edn'
'détermin'
'dzie_'
'dope'
'doll'
'dokon'
'dime'
'cukor'
'cree'
'congénito_'
'cong'
'comes_'
'code'
'classi'
'ciclofosfamida_'
'ciclo'
'chli'
'center_'
'cent'
'capt'
'bå'
'biod'
'bere'
'belie'
'bei'
'baráto'
'bardziej_'
'azúcar_'
'aven'
'atrial_'
'atione'
'arbon'
'anyag'
'antes_'
'ander'
'allowing_'
'ago_'
'add_'
'adapté'
'acji_'
'ZOLE_'
'Would_'
'Witam_'
'Wirus'
'Vagin'
'Ulcer_'
'Trip'
'Tat'
'TL'
'TING_'
'Super_'
'Spon'
'Spie'
'Skvěl'
'SUBST'
'Rol'
'Rip'
'Report_'
'RY_'
'Počkej_'
'Poro'
'Pojď_'
'Plus_'
'Part'
'PRODUCT'
'Operati'
'ORO'
'Norma'
'Nigdy_'
'NEURO'
'Model'
'Mich'
'Mamy_'
'MIT_'
'Lucy_'
'Ltd_'
'LAR'
'Kidney_'
'Jess'
'Jdeme_'
'Inn'
'Inhibitor'
'ISO'
'IK'
'Hon'
'HN'
'Grand'
'Ganglio'
'Fur'
'FS'
'Epo'
'Elk'
'Dum'
'Dopp'
'Dichtung'
'Decreased_'
'DEM'
'Cysti'
'Cyst_'
'Compa'
'CN_'
'Bag'
'Ausgabe'
'Aufb'
'AZI'
'; • _'
'76'
'2mg_'
'0mg_'
'.-'
'!!_'
' (& _'
'Ża'
'ńsk'
'étend'
'éch'
'ände'
'Él'
'ztik'
'zna_'
'zmieni'
'zir'
'zení_'
'yjne_'
'walking_'
'vård'
'väldigt_'
'voltam_'
'visa_'
'vete'
'vermi'
'verd'
'velem_'
'vaz'
'usp'
'upe'
'unf'
'ulna'
'ujj'
'typh'
'tyd'
'twoja_'
'tudo'
'tried_'
'transformation_'
'tle'
'tillsammans_'
'throm'
'tence_'
'tedy_'
'sécurité_'
'säure_'
'szerel'
'svä'
'sting_'
'stimulation_'
'stimul'
'stas'
'standards_'
'specie'
'silicon_'
'siebie_'
'sensation_'
'sens_'
'schizophrenia_'
'schaltung_'
'scal'
'sakna'
'rofi'
'rka'
'rito'
'rings_'
'reproduc'
'regulat'
'regler'
'rati'
'radic'
'płuc_'
'pěkn'
'péri'
'puri'
'prépar'
'prédéterminé_'
'przykro_'
'propan'
'prok'
'produkte'
'prescribed_'
'praw'
'pozor'
'podávání_'
'pneumoniae_'
'pig_'
'pick_'
'phar'
'peritone'
'pancre'
'oxyd'
'ovi_'
'oun'
'otta'
'operativ'
'operated_'
'opako'
'onda'
'oks'
'odpowiedni'
'násled'
'numb'
'nij_'
'niego_'
'nada'
'month_'
'monomer_'
'mierda_'
'mida_'
'metabolit'
'meri'
'mening'
'max_'
'marqu'
'mar_'
'lógi'
'lés_'
'lätt'
'lär'
'ligand_'
'lidsk'
'lett_'
'ledviny_'
'last'
'kunna_'
'koncentrac'
'komórek_'
'klä'
'jog'
'jim_'
'jater_'
'jasně_'
'ize_'
'inférieur_'
'inas'
'imagin'
'hydrolys'
'hit'
'hereditary_'
'handling_'
'generate_'
'generaliz'
'gebene'
'gato'
'gad'
'gab'
'föra'
'föl'
'fråga'
'frac'
'fill_'
'farm'
'excellent_'
'erte_'
'eria_'
'enlarge'
'enin'
'enic'
'endast_'
'eld'
'eight_'
'egen'
'egel'
'ef_'
'dzeni'
'dopamin'
'doma'
'dlo'
'dim'
'diarrhoea_'
'diarr'
'deoxy'
'deforma'
'dani'
'ctor_'
'converter_'
'construction_'
'concomitant_'
'conazole_'
'cola'
'clot'
'chosen_'
'chia'
'central'
'bre_'
'blan'
'bero'
'barrier_'
'applica'
'ann'
'anaphyla'
'amon'
'ament'
'alál'
'alte'
'alkyla'
'alatt_'
'agree'
'afi'
'ados_'
'addi'
'accident'
'Zabij'
'XX'
'Venous_'
'Vaginal_'
'Uděl'
'URO'
'Tob'
'Tie'
'Therapy_'
'Terri'
'Somat'
'Sant'
'Rä'
'Release_'
'Radia'
'RATE_'
'Přes'
'Put_'
'Punkt'
'Przed'
'Programme_'
'Profes'
'Potassium_'
'Phosphate_'
'Oz'
'OXY'
'Neuropath'
'Mine'
'Mega'
'Laugh'
'Körper_'
'Kör'
'Kell'
'Jesteśmy_'
'Jaki'
'ITE'
'IEN'
'Hb_'
'Halbleiter'
'Emma_'
'Einheit_'
'Ea'
'Där_'
'Dá'
'Dup'
'Double_'
'Dihydro'
'Diff'
'Cit'
'Chic'
'COD'
'Bene'
'BIO'
'BC'
'Azo'
'Apa_'
'Alu'
'AZOL'
'ANS'
'AMID'
'AJCC_'
'1g_'
'1991_'
'156_'
'117_'
'-- - _'
' %)'
'Δ'
'żon'
'żadn'
'říct_'
'ęg'
'ýho_'
'úti_'
'ópica_'
'ével_'
'édi'
'ènes_'
'ändring_'
'Übertrag'
'zusätzlich'
'zpo'
'yż'
'yh'
'xe'
'współ'
'world_'
'wed_'
'wcze'
'véri'
'vestibul'
'versch'
'verh'
'vegeta'
'uwa'
'utiliser_'
'usc'
'urea_'
'uje'
'tó_'
'tás_'
'tres'
'tox'
'testis_'
'ters'
'tej'
'találkoz'
'tachycardia_'
'supports_'
'submitted_'
'steri'
'stad'
'srá'
'sra'
'sph'
'současn'
'ský_'
'sint'
'sensibili'
'search_'
'sealed_'
'rén'
'riz'
'rif'
'rida'
'resources_'
'reso'
'remove_'
'regist'
'regel'
'redu'
'recovery_'
'ramp'
'radiot'
'quo'
'quent'
'pú'
'pén'
'punkt'
'práv'
'proposal_'
'pron'
'programme'
'produc'
'potasio_'
'positionn'
'porc'
'poma'
'plicní_'
'plast'
'pier'
'pharmaceutically_'
'państw'
'pay'
'passe'
'parag'
'oyl'
'oy'
'orna_'
'oner_'
'oeuvre_'
'odes'
'ocupa'
'ocl'
'nosti_'
'nok'
'nki'
'navir'
'nanc'
'mózgu_'
'médicament'
'myocardial_'
'myelom'
'milyen_'
'methan'
'medial_'
'matt'
'mane'
'mandibular_'
'lägg'
'lyt'
'lue'
'loa'
'llo_'
'leta'
'lehet'
'legyen_'
'lecture_'
'ldi'
'kowa_'
'kning'
'jött'
'iłe'
'item_'
'iste'
'inu_'
'intu'
'intrace'
'infectious_'
'importe'
'implant'
'ilt'
'iger'
'hypof'
'hse'
'hote'
'hjärta'
'hitta_'
'hemorrhagic_'
'helst_'
'hango'
'gue_'
'gripp'
'gras_'
'govern'
'gond'
'genet'
'gemensamma_'
'geben_'
'fiz'
'fetus_'
'fabric_'
'eut'
'estra'
'eryt'
'erup'
'ergo'
'epilepsy_'
'entsprechen'
'előtt_'
'elz'
'eis'
'eful'
'ebi'
'eba'
'drill'
'doz'
'dolor_'
'dolgoz'
'dock_'
'dobę_'
'dobre'
'diaphragm_'
'dess'
'ctions_'
'cover'
'cough_'
'conducting_'
'concept'
'complex'
'commi'
'chu_'
'chick'
'cele_'
'cam_'
'bę'
'burning_'
'boh'
'block'
'bina'
'befindet_'
'beat'
'balls_'
'atz_'
'arra'
'arci'
'ansök'
'ande'
'allmän'
'akutní_'
'ahme'
'aged_'
'adres'
'activation_'
'absces'
'Wirk'
'Wind'
'Whi'
'Wc'
'Vulva'
'Vaso'
'UNE_'
'TV_'
'TP'
'Sva'
'Specific_'
'Sme'
'Sku'
'SPE'
'Ryan_'
'Robert'
'Rig'
'Rese'
'Regist'
'Press'
'Placenta'
'Olivia_'
'Of'
'Oba'
'OPTI'
'OLA'
'OCH_'
'NIC'
'NCI'
'Máj'
'Morph'
'Molly_'
'Miss'
'Misch'
'Mab'
'Lym'
'LP'
'LIP'
'LIC'
'LH'
'Krvácení_'
'Kim'
'Kathe'
'Jona'
'Jess_'
'Interve'
'ITA'
'ILI'
'Hormon'
'HEMO'
'Gewi'
'GER'
'GD'
'Fé'
'Feli'
'Fan_'
'FRA'
'Ery'
'Empfangs'
'Elő'
'EY'
'Dobr'
'Dermato'
'Dat'
'DOP'
'Cutaneous_'
'Cond'
'Chole'
'CYCL'
'CIN_'
'CIN'
'Ani_'
'Adrenal_'
'Addi'
'Acquired_'
'Abgas'
'ARY_'
'ALL'
'AGE_'
'ABL'
'08'
'...!_'
'.!_'
' )'
'₁_'
'τ'
'λ'
'ží_'
'żo'
'řad'
'Ř'
'čko_'
'üll'
'účinn'
'ún_'
'úm'
'ö_'
'ósi'
'ítica_'
'êt'
'értem_'
'ért'
'érde'
'ér_'
'égale_'
'ç'
'äußeren_'
'ätte'
'ást'
'Änd'
'zoster_'
'zmiany_'
'zja'
'zewn'
'yme'
'ylen'
'yeli'
'ycznych_'
'wonder'
'wellen'
'water'
'wart_'
'všichni_'
'všechny_'
'vzd'
'vysok'
'vre_'
'vejiga_'
'varia'
'vaca'
'uzl'
'utg'
'urin'
'upps'
'unda'
'ulan'
'tę'
'történő_'
'turb'
'tumors_'
'träffa_'
'tromb'
'transf'
'train_'
'tragen'
'traffic_'
'toxin_'
'tione'
'tillämp'
'tillv'
'terms_'
'terme'
'technology_'
'tb'
'tartalmaz_'
'takt'
'systém'
'support'
'sulphon'
'strain_'
'states_'
'spre'
'sper'
'smr'
'slip'
'slin'
'slid'
'skuteczn'
'skri'
'situa'
'siker'
'sep'
'sekre'
'sebo'
'sebe'
'sea_'
'schr'
'róla'
'ropi'
'rho'
'resse'
'representing_'
'remission_'
'relatively_'
'rds_'
'puncture_'
'puc'
'pracov'
'popula'
'poja'
'pneumati'
'play'
'piro'
'perox'
'oči'
'oxin'
'oventricular_'
'outc'
'ouch'
'otec'
'orto'
'ork'
'oit'
'ogóln'
'ofta'
'offset_'
'név'
'nádorové_'
'nyílt_'
'nys'
'nuclé'
'note_'
'noe'
'nno'
'nita'
'nico_'
'nger'
'neighbo'
'ménye'
'milieu_'
'mias'
'mettre_'
'mene'
'mel_'
'mehr'
'marin'
'mare'
'marca'
'malo'
'macz'
'lude'
'lse'
'logis'
'lmi'
'llat'
'ling'
'ligger_'
'lida'
'licz'
'lets_'
'lepší_'
'lepiej_'
'laughing_'
'készítmény'
'kérdés'
'kw'
'któr'
'krę'
'komplet'
'klinick'
'joined_'
'jni'
'jelentkez'
'januari_'
'initiat'
'indicative_'
'iment'
'imat'
'igte'
'ight'
'icio'
'hyperp'
'hospha'
'hh_'
'hata'
'halál'
'habit'
'granulocyt'
'gom'
'gluko'
'gil'
'gada'
'fy'
'fum'
'fte'
'framework_'
'forma'
'filtr'
'felsz'
'fall'
'faktiskt_'
'externe_'
'etro'
'estero'
'esem'
'eptid'
'epis'
'entier'
'endos'
'encre_'
'emoc'
'emlék'
'emi_'
'eit_'
'edu'
'dém'
'dyl'
'dwa_'
'domi'
'dizziness_'
'directed_'
'diagnóstic'
'deriv'
'dere'
'defi'
'cév'
'cue'
'creat'
'citi'
'choroid'
'chorio'
'chemis'
'cess'
'capteur_'
'calculating_'
'caine_'
'bute'
'bott'
'bille'
'bier'
'behavio'
'awful_'
'aug'
'atmosph'
'associ'
'aspira'
'apt'
'angeordneten_'
'aneurysm_'
'andro'
'ampoule_'
'adrenerg'
'adjusted_'
'acion'
'accordingly_'
'^ '
'YS'
'Wsz'
'Wom'
'VIS'
'United_'
'Több'
'Typ_'
'Tube'
'Trag'
'Tooth_'
'Sync'
'Soo'
'Sign'
'Rheumat'
'RAP'
'Prostat'
'Procedure_'
'Oxid'
'OV'
'Never_'
'N1_'
'Mim'
'Meni'
'Major_'
'MEL'
'Lower_'
'Loo'
'LEU'
'Keres'
'Josh_'
'Jej'
'Jasne_'
'Immune_'
'ISO_'
'Holder_'
'Hannah_'
'Guy'
'Grad'
'Gil'
'Förder'
'Fish'
'Elég_'
'ERE'
'Dzi'
'Dext'
'Dessa_'
'DRO'
'DH'
'DER'
'DEF'
'CAT'
'Bara_'
'Ball'
'BLE'
'Art_'
'ANI'
'ALPHA_'
'AB_'
';+&_'
'121_'
'... -'
'. \u_'
') \u_'
'' '
' ≤ _'
' „ _'
' ? '
'žádné_'
'űr'
'śpi'
'řekn'
'őriz'
'ębi'
'éno'
'äv'
'änd'
'áról_'
'ánk'
'ánica_'
'zeit'
'zapr'
'zapalenie_'
'ysa'
'yll'
'xial'
'wrap'
'wine_'
'whis'
'wasz'
'vény'
'vorangehenden_'
'vise'
'vilken_'
'vertical'
'vape'
'vaný'
'uve'
'utilise_'
'union'
'ukl'
'ujem'
'ugh_'
'tuberculo'
'tuber'
'tto'
'ttes_'
'tryp'
'tris'
'trin'
'trade_'
'tow'
'tosis_'
'tite'
'terápi'
'temporary_'
'talan'
'také_'
'számo'
'száj'
'szerz'
'szczęś'
'sulfa'
'středn'
'ston'
'sto_'
'ssis_'
'ssen_'
'split_'
'spasm'
'sort'
'smoking_'
'sluta_'
'slight'
'skat'
'siln'
'silic'
'sik'
'serotype_'
'rä'
'rur'
'road_'
'ribavirin_'
'rgen'
'rga'
'rey_'
'rep'
'reliée_'
'redni'
'recognition_'
'recess_'
'reakt'
'rable_'
'přij'
'psico'
'procent_'
'preg'
'predict'
'pratar_'
'počk'
'pomoc_'
'polyvinyl'
'polymers_'
'pole_'
'pois'
'podawani'
'plasma'
'packets_'
'pacjenta_'
'oxid'
'otic_'
'osit'
'orsaka'
'oris'
'opioid'
'oml'
'occa'
'obvious'
'obstructi'
'oben_'
'nurse_'
'ntation_'
'np'
'notified_'
'noh'
'nitis_'
'nik_'
'nedostate'
'nale'
'nae'
'mány'
'multic'
'mop'
'mok'
'moją_'
'megt'
'megalo'
'marker_'
'manipula'
'maladies_'
'lymfocyt'
'lux'
'lum'
'lne'
'leukocyte_'
'lent_'
'lead'
'lase_'
'lange'
'laire'
'lacto'
'kys'
'kvinnor_'
'kultur'
'kontroll_'
'kleiner_'
'jídl'
'juni_'
'jug'
'itos'
'iten_'
'isé'
'ischaemi'
'iom'
'involve'
'introduction_'
'interna_'
'interconnect'
'intake_'
'inhibition_'
'incisión_'
'impuls'
'illin_'
'ihrer_'
'igm'
'igat'
'iba'
'hålla_'
'hypogly'
'hono'
'heart'
'heade'
'gyi'
'gradua'
'godkännande'
'girlfriend_'
'ghte'
'genetic_'
'genetic'
'gap_'
'följer_'
'fáz'
'fixe'
'findings_'
'financial_'
'figur'
'fena'
'feder'
'farmac'
'eż'
'extrac'
'exa'
'estado_'
'erta'
'ersättas_'
'erit'
'erin'
'erei'
'ep_'
'enyl'
'emergency_'
'embo'
'elé'
'elk'
'elevated_'
'ele_'
'elder'
'effektiv'
'ecu'
'eat'
'détecter_'
'dying_'
'dre_'
'doser'
'dors'
'dko'
'divis'
'divers'
'dick_'
'dge_'
'destin'
'deshidrogenasa_'
'dera'
'degenerac'
'dam_'
'ctin'
'csoport'
'crush'
'covering_'
'coronavirus_'
'compartment_'
'coagulation_'
'clothes_'
'ció'
'chronická_'
'chcę_'
'characteristic_'
'ceta'
'cavidad_'
'cations_'
'cassette_'
'caps'
'był'
'bullo'
'blocker'
'biverkningar_'
'bipolar_'
'bilit'
'betegeknél_'
'besagten_'
'ační_'
'azol_'
'axil'
'ateur_'
'aten'
'assigned_'
'aros'
'anse'
'anas'
'amy'
'amin_'
'aliphatic_'
'aliphati'
'albumin_'
'aggódj_'
'affect_'
'acy'
'acetaminofeno_'
'acción_'
'Zl'
'Zb'
'Zar'
'Wygląda'
'Wiem_'
'Vilk'
'Ulcer'
'UK_'
'UB'
'Trop'
'Tau'
'Tas'
'Studie'
'Stop'
'Sem'
'Sek'
'Sarcoma_'
'Richard_'
'R2_'
'Przestań_'
'Potřebuj'
'Pharma_'
'Patient_'
'Only_'
'Olyan_'
'Odpo'
'Oct'
'OW'
'Mind_'
'Mee'
'Medical_'
'McC'
'MD'
'Looks_'
'Leuc'
'Klemm'
'Kel'
'Jud'
'Intro'
'Insert'
'Hormone_'
'Hemi'
'HEN'
'Gum'
'Genom'
'Frie'
'Feld'
'Feel'
'Enter'
'Energie'
'DIN'
'DEC'
'Computer_'
'Cis'
'Chest'
'Chain_'
'Bull'
'Brand'
'Biztos_'
'Billy_'
'BAG_'
'Ausw'
'Artr'
'Ameri'
'Aluminium'
'Alp'
'Alka'
'Achse_'
'Abra'
'25mg_'
'20mg_'
'162'
'.) _'
'řím'
'Ła'
'ěle'
'ąc_'
'üh'
'öl_'
'öde'
'éla'
'ån'
'áti'
'áro'
'áni'
'álok_'
'¹_'
'zö'
'zmi'
'zf'
'większ'
'weniger_'
'wen'
'weak_'
'vu_'
'vora'
'verfahren_'
'verbundene'
'való'
'vain'
'uvi'
'uu'
'utin'
'usta'
'ureter'
'umina'
'umie'
'umab_'
'ulární_'
'uca'
'tés_'
'trieb'
'trich'
'transfert_'
'toz'
'tons'
'thri'
'thread'
'tern'
'temporal_'
'telles_'
'teli'
'ső_'
'súlyos_'
'sír'
'succinato_'
'subscriber_'
'subparagraph_'
'stor_'
'spru'
'spid'
'sot'
'sleep'
'slag_'
'sjukdomar_'
'siostr'
'simultaneously_'
'shel'
'sequences_'
'sclero'
'sach'
'rence_'
'remo'
'record_'
'reaktion'
'rapporter'
'quot'
'pénz'
'przeprowadz'
'profund'
'preventing_'
'presents_'
'pravdu_'
'pool'
'perin'
'pau'
'past_'
'pano'
'ox'
'ovat'
'ované_'
'oup'
'oke'
'often_'
'ocy'
'nás'
'náh'
'nyomo'
'nten_'
'nka'
'niej_'
'neutr'
'nba'
'nawet_'
'mů'
'muj'
'monoclonal_'
'moj'
'miło'
'minut'
'miesi'
'mico_'
'mf'
'mere'
'megh'
'mc'
'matos'
'masc'
'marknaden_'
'lower'
'localiza'
'lex_'
'leukémie_'
'lera'
'larger_'
'kł'
'küld'
'kör_'
'kowan'
'koll'
'kata'
'kapo'
'juvenil'
'jetek_'
'java'
'jaki'
'isolated_'
'isola'
'intraocular_'
'inhibitor'
'inhibi'
'inflama'
'infar'
'igen'
'ieu'
'ierende'
'ienc'
'hypoth'
'hypera'
'hund'
'horrible_'
'helm'
'hea'
'haza'
'gő'
'gw'
'glutam'
'gf'
'gestre'
'gestion_'
'gespeichert'
'generation_'
'gastr'
'förmige_'
'funkc'
'freak_'
'fly'
'fitting_'
'finan'
'filter'
'fenébe_'
'fekély_'
'fajn'
'expla'
'expand'
'etil'
'estro'
'erte'
'erre'
'enclos'
'elni'
'elimin'
'eite_'
'egu'
'efin'
'effectué'
'effective'
'déplace'
'dávky_'
'dynamic_'
'dve'
'dva'
'dulo'
'drz'
'doś'
'dod'
'dnes'
'dié'
'disque_'
'dg'
'deu'
'destinés_'
'dess_'
'cza_'
'cykli'
'ctic_'
'coronary_'
'contrôle_'
'conso'
'consist'
'combina'
'clu'
'cin_'
'chill'
'chc'
'changing_'
'cade'
'bst'
'brake_'
'bioc'
'bioa'
'bing_'
'betyde'
'bare'
'bacterio'
'auto_'
'aument'
'attack_'
'aspiration_'
'apologize_'
'anode_'
'alen_'
'ają_'
'ajout'
'aft'
'adreno'
'adapter_'
'VAR'
'Union_'
'Tria'
'Transp'
'Transcription_'
'TS'
'TRU'
'TH_'
'Steve_'
'Ster'
'Stac'
'Sia'
'Set'
'Seitenw'
'Schmelz'
'SUR'
'Rho'
'Resu'
'Ref'
'Radi'
'RAL_'
'Prola'
'Phenyl'
'Pha'
'Pers'
'Peg'
'Pam_'
'PHOSPHATE_'
'Og'
'OLO'
'Ně'
'Nuclear_'
'Necrosis_'
'Musc'
'Mint'
'Metastatic_'
'Megv'
'Lesi'
'Laser'
'Kopf'
'Kett'
'Kelly_'
'Jacob'
'Irbesartan_'
'Ina'
'Impo'
'Impa'
'Immunoglobulin_'
'Hilf'
'Haz'
'Halogen'
'HCV_'
'Gemisch'
'Före'
'Full_'
'Eric_'
'ETH'
'ENS'
'DL'
'Cav'
'Carbon'
'CARBO'
'CAL'
'Bul'
'Bravo_'
'Bildung_'
'Bie'
'Bas'
'Barne'
'BLE_'
'BIT'
'Asc'
'Anten'
'Amb'
'Amanda_'
'Agen'
'ART'
'AG_'
'73'
'178'
'133'
'. – _'
'łu_'
'ď'
'änder'
'ájá'
'Öl'
'zwiększ'
'zny'
'zji'
'zin_'
'ział'
'zia'
'zek_'
'zdrow'
'zdrav'
'yltransferase_'
'yellow_'
'xon'
'wyg'
'worse_'
'vonatkozó_'
'vlastn'
'viva'
'ventricul'
'varice'
'variab'
'vani'
'vaccin'
'ustal'
'upl'
'udz'
'uck'
'uate'
'tłu'
'tól_'
'télé'
'tänkte_'
'trö'
'trä'
'trzyma'
'troph'
'travers'
'tische'
'tique_'
'timo'
'tibia_'
'thy'
'tette'
'techniques_'
'tear_'
'tarta'
'sül'
'sån'
'sätt'
'sár'
'ságo'
'szövődmény'
'szom'
'szem_'
'syf'
'svět'
'svin'
'surprise'
'sucr'
'stv'
'stole'
'stk'
'stiff'
'spolu'
'spleen_'
'somewhere_'
'sobredosis_'
'sno'
'små'
'smooth'
'sex'
'sena'
'sama_'
'saliva'
'rzą'
'rough'
'ropin_'
'rom_'
'rolimus_'
'rle'
'revisi'
'resolution_'
'require'
'rens'
'ragi'
'radiol'
'racht_'
'quiet_'
'pulmón_'
'puerperi'
'présente'
'przepis'
'przedsi'
'projekt_'
'poss'
'plen'
'pill'
'pi_'
'periode'
'peni'
'pate'
'partic'
'parox'
'ovaný_'
'ously_'
'oty'
'oth'
'otevřen'
'osł'
'orod'
'organ'
'ops'
'opha'
'omni'
'omega'
'observa'
'objects_'
'obj'
'obil'
'obi'
'nung_'
'nud'
'nika'
'nena'
'műtét'
'módo'
'mojego_'
'mirror_'
'metilprednisolona_'
'messages_'
'membrana_'
'martw'
'malformation_'
'make'
'léčby_'
'luz'
'lug'
'ltu'
'lom'
'lje'
'lips_'
'lipos'
'lipid_'
'lgen_'
'leków_'
'lecz'
'latt'
'ktoś_'
'kre_'
'kowe_'
'koc'
'knows_'
'klor'
'kier'
'keits'
'katt'
'joy'
'jednou_'
'izquierdo_'
'ix_'
'irin'
'invi'
'integra'
'injekció_'
'implementation_'
'ification_'
'ices_'
'ibu'
'hó'
'hydrochlorothiazide_'
'hisz'
'heten_'
'hatn'
'halla'
'gyulladás_'
'gun'
'grams_'
'grado_'
'goodness_'
'glutami'
'glomerulone'
'ggi'
'förr'
'flower'
'features_'
'facing_'
'extrud'
'euc'
'etzt'
'esetében_'
'erzeug'
'epithelial_'
'enzo'
'enve'
'enl'
'endot'
'ellt_'
'elit'
'electromagnetic_'
'dzieje_'
'dysk'
'drugi'
'dreh'
'dno'
'dielectric_'
'dest'
'dant'
'czasu_'
'cytochrom'
'cup_'
'cula_'
'corrections_'
'conjugate'
'cone'
'complement'
'closing_'
'chem'
'cephal'
'cemi'
'cardia'
'call'
'cake_'
'budget_'
'budeš_'
'bore_'
'bonded_'
'bond_'
'bolesti_'
'blend'
'blade_'
'besitzt_'
'bep'
'bbi'
'bale'
'ałeś_'
'aztán_'
'auxiliary_'
'aste'
'arthro'
'ardia'
'alkaline_'
'agree_'
'adr'
'aczk'
'abn'
'XO'
'Willi'
'Whit'
'Verfahrens'
'VENT'
'VA'
'Tun'
'Struktur'
'Show_'
'Schwa'
'SEL'
'Relati'
'Redu'
'Present'
'Praw'
'Počk'
'Polya'
'Ortho'
'OPHTHALMIC_'
'Nons'
'NM'
'Mó'
'Mum'
'Mogę_'
'Mierda_'
'Mall'
'Mai'
'MAN_'
'Lidocaine_'
'Leitung'
'Kn'
'Johnson_'
'Jel'
'James_'
'Jackie_'
'Intentional_'
'Imag'
'INO'
'IM_'
'Hypersensitivity_'
'HYDRATE_'
'Grab_'
'Gr'
'Germany_'
'Germ'
'GLU'
'Forg'
'Foc'
'Fan'
'Exp'
'Exci'
'Erfass'
'Efter_'
'EEA_'
'Diagnostic_'
'Dej'
'Conta'
'Cl_'
'Chce'
'CHOL'
'Bizo'
'Bear'
'Basal_'
'Barre'
'Bad'
'Bacterial_'
'Arterio'
'Alv'
'AST_'
': /'
'50MG_'
'2mL_'
'176'
'170'
') • _'
'!.'
'₄_'
'”'
'řízení_'
'ęci'
'üd'
'úžasn'
'ött'
'íro'
'éves_'
'ése'
'értéke'
'équip'
'épp'
'éf'
'èt'
'åker_'
'ändra'
'ämm'
'átok_'
'áno'
'ßt'
'zwa'
'zole_'
'zař'
'załącznik'
'zavol'
'zavar'
'zapomn'
'zado'
'zabi'
'ydo'
'wróci'
'wiz'
'with'
'wick'
'whereas_'
'werk_'
'website_'
'wavelength_'
'warunk'
'věd'
'voie_'
'valamint_'
'utí_'
'urá'
'ureter_'
'urativ'
'upph'
'uns_'
'tű'
'trav'
'transplant'
'tors_'
'topical_'
'tomogra'
'that'
'thalam'
'tesz'
'taxi'
'tartalm'
'taná'
'talán_'
'słysz'
'síntoma'
'séparation_'
'subsp_'
'strom_'
'strai'
'steering_'
'statisti'
'spécifi'
'spotka'
'společn'
'speciali'
'spatial'
'snu'
'ské_'
'sido'
'share'
'sense_'
'sect'
'save_'
'sacr'
'sack'
'réduire_'
'rote'
'root_'
'roc'
'reu'
'retriev'
'retaining_'
'residues_'
'remaining_'
'relevan'
'rację_'
'quinol'
'påverka'
'pure_'
'pud'
'public'
'psychologi'
'princ'
'price'
'powiedzieć_'
'potenci'
'pore'
'polyethylene_'
'placeb'
'pij'
'phosphatase_'
'pełn'
'pert'
'payment'
'p2'
'oxal'
'ovou_'
'ovk'
'oral'
'onom'
'olen'
'oir_'
'ografi'
'odz'
'odno'
'oculo'
'obn'
'obecn'
'nytt'
'nummer_'
'noz'
'nodul'
'neutropenia_'
'nca'
'natural'
'naf'
'mú'
'moim_'
'metabolic_'
'melting_'
'malformac'
'maintain_'
'magni'
'läche_'
'láb'
'laun'
'latch'
'külön'
'kombin'
'klon'
'jutro_'
'jedna_'
'ió_'
'ivi'
'involved_'
'interc'
'industri'
'imuno'
'iff_'
'idro'
'idní_'
'hypog'
'hydrophob'
'hydrocarbon_'
'hook'
'honeybunny_'
'hob'
'hidrocortisona_'
'hend'
'hed_'
'halogen'
'granul'
'gou'
'gluco'
'glob'
'glic'
'gir'
'gangren'
'gallbladder_'
'gabe_'
'gabe'
'förh'
'freie'
'fosfat'
'formé_'
'fertili'
'fels'
'extern'
'exam'
'ethylen'
'esca'
'eres'
'erect'
'ephal'
'entsprechend_'
'enle'
'engr'
'encoded_'
'eman_'
'eba_'
'ears_'
'dug'
'dostan'
'dish'
'disco_'
'diet_'
'dej'
'dehydr'
'decl'
'cór'
'często_'
'cure'
'counter_'
'comportamiento_'
'complain'
'compensat'
'compatib'
'company_'
'cock'
'circum'
'chová'
'choroby_'
'cholesterol_'
'camp'
'bři'
'byc'
'bridge_'
'bran'
'bocsá'
'blok'
'bla_'
'birth_'
'bahn'
'azep'
'avtal'
'aufgeb'
'atomes_'
'ations'
'assembl'
'artificial_'
'ario'
'aná'
'anto'
'angs'
'alls_'
'agencé'
'aer'
'adí'
'adhesi'
'acetil'
'Zoe_'
'Zaj'
'ZN'
'Yup_'
'YN'
'Uns'
'Ums'
'UD_'
'Tato_'
'TIC'
'Sé'
'Sulfate_'
'Steuers'
'Steph'
'Stell'
'Sno'
'Slu'
'Skr'
'Sinus_'
'Signals_'
'Should'
'STER'
'Remo'
'RING'
'REP'
'RAD'
'QUE'
'Plasm'
'Pals'
'Otra'
'Order_'
'Oj'
'Obstructi'
'Oberflächen'
'ORT'
'OPA'
'Nesp'
'Nah'
'Nach'
'Más'
'Myco'
'Mal_'
'MEM'
'Lipid'
'Link'
'Large_'
'Lap'
'Lang'
'LED_'
'Kér'
'Komise_'
'Joan'
'Immun'
'Igaz'
'Hodgkin'
'Histiocyt'
'Hir'
'Hea'
'Haven_'
'HEM'
'Gyomor'
'Grey_'
'Grav'
'Granuloma'
'Goo'
'Girl'
'Gas_'
'GA_'
'Further'
'Fert'
'Fas'
'Fahr'
'FC'
'Even'
'Está'
'Ei'
'Echo'
'ERM'
'ENCE'
'Druck_'
'Dose_'
'Doktor_'
'Dej_'
'Cathe'
'Cath'
'CI_'
'Běž'
'Beszél'
'Benigní_'
'Before_'
'BR'
'Asse'
'Are'
'Acyl'
'Acc'
'ATOR'
'ATC_'
'ARD'
'145'
'101'
'07'
'... ... _'
'. /- _'
',..'
' :'
' . _'
'život'
'ůl'
'čel'
'ülés'
'újra_'
'öreg'
'ína'
'észe'
'éle'
'äure_'
'ämp'
'ását_'
'ány'
'Över'
'zítra_'
'związane_'
'zul'
'zmniejsz'
'zastosowani'
'ytu'
'ytic_'
'ymi'
'wurde_'
'wend'
'watching_'
'vány'
'vulv'
'vizsgálatok_'
'visual'
'verschl'
'venosa_'
'vement_'
'veleszületett_'
'vek'
'vam'
'valid'
'uroni'
'urgen'
'ungs_'
'umá'
'ultrasound_'
'ujesz_'
'uan'
'tą_'
'téri'
'tze'
'tumoral_'
'tsk'
'trop'
'trea'
'transkr'
'tou'
'tomograf'
'tlan'
'texte'
'terminat'
'tablety_'
'såg_'
'szóló_'
'szól'
'svalov'
'supérieur_'
'sulfur'
'suffer'
'stimulating_'
'ssm'
'spp_'
'sposób_'
'spiral'
'soll'
'snälla_'
'slab'
'skit_'
'setz'
'rése'
'rådet_'
'rwa'
'rts'
'rowa'
'rona'
'roa'
'rli'
'rko'
'riktigt_'
'requi'
'regulation_'
'reflex'
'rect'
'recon'
'reag'
'raw_'
'random_'
'quis'
'purposes_'
'przyp'
'promised_'
'presente'
'pras'
'poł'
'potr'
'pot_'
'porte'
'poranění_'
'polyur'
'podj'
'plasty_'
'plak'
'pido'
'paths_'
'parap'
'paper'
'paire_'
'pad_'
'oxacin'
'otid'
'osteoarthr'
'ory'
'orme'
'organizac'
'ores_'
'opération_'
'opti'
'opn'
'ography_'
'ogic'
'ofthe_'
'oblasti_'
'oblast'
'oato_'
'níku_'
'nkt'
'neural'
'nerv_'
'nere'
'neoplas'
'nebe'
'myslí'
'mysl'
'mrtv'
'moči_'
'monitoro'
'modulat'
'mitral_'
'mite'
'misc'
'minde'
'metry_'
'metastatic_'
'megn'
'medl'
'mechanism'
'matic_'
'manc'
'lösning_'
'lew'
'leni'
'lang'
'készül'
'känn'
'kil'
'kezel'
'kezde'
'każde'
'kani'
'jny'
'jedz'
'jack'
'ivat'
'itself_'
'itid'
'isol'
'iris_'
'introducing_'
'introduce_'
'interrupt_'
'ingl'
'indul'
'implementing_'
'imin'
'ildete'
'igni'
'ierz'
'iek'
'iac'
'hrom'
'hist'
'hid'
'hasonl'
'gyógyszerek'
'gua'
'gramm'
'gond_'
'gettin_'
'geme'
'gall'
'fungera'
'flüssige'
'finally_'
'ficial'
'feta'
'fentan'
'externo_'
'examine'
'evaluat'
'eus_'
'etés'
'esto_'
'erenc'
'ered'
'epiteli'
'ené_'
'entr'
'enit'
'enan'
'emy_'
'egyen'
'efecto'
'dålig'
'dás_'
'dwu'
'dron'
'drehbar'
'downstairs_'
'doh'
'disturbance_'
'distan'
'dispers'
'dimethyl'
'difficulty_'
'diese'
'detect_'
'demonstrated_'
'dell'
'definier'
'dagar_'
'crisis_'
'continu_'
'conta'
'colli'
'clip'
'ciąg'
'citrate_'
'cigarette'
'chimique'
'chee'
'chcesz_'
'centro'
'cente'
'calculated_'
'calc'
'butter'
'brief'
'blog'
'beim_'
'badaniach_'
'attribut'
'aspect_'
'answer'
'anh'
'alne_'
'aldo'
'ające_'
'ack_'
'abnormalities_'
'])'
'Yea'
'Versch'
'VIRUS_'
'Tudom_'
'Trombo'
'Thermo'
'Tempor'
'Szu'
'Suba'
'Street_'
'Spir'
'Segment'
'Schn'
'Schi'
'Schei'
'Sara_'
'Sama'
'Rock'
'Roc'
'Reaktion_'
'Pump'
'Prob'
'Poranění_'
'Pomoc'
'Platte_'
'Pick'
'Pani_'
'PROTEIN_'
'PART'
'ODE'
'Neuron'
'Neh'
'Mile'
'Mau'
'Malig_'
'Lympha'
'Lot'
'Log'
'Loc'
'Lek'
'Ladies_'
'Kész'
'Kro'
'Kohlenstoffatomen_'
'KA_'
'Jill_'
'Jam'
'Informations'
'Infec'
'ITI'
'IIb_'
'Hipo'
'Gram'
'Gehäuses_'
'Gastrointestin'
'Fuckin_'
'Fluid'
'Fem'
'FOL'
'FIL'
'Epilepsi'
'Enl'
'English_'
'Endocrine_'
'Ela'
'Einstell'
'ETIN'
'ENDO'
'Dog'
'Dit'
'Derm'
'Day_'
'Dave_'
'Cris'
'Coli'
'Clear'
'Child_'
'Bü'
'Burn_'
'Bry'
'Boy_'
'Biopsy_'
'Betr'
'BT'
'BE_'
'Arbeits'
'Appro'
'Ann_'
'And'
'Alkoxy'
'Activ'
'Acr'
'Access'
'Abschnitt'
'ANGI'
'ANAL'
'8a_'
'65'
'500mg_'
'113_'
'.:'
'."'
'- -_'
', /_'
'**'
'őle'
'ěz'
'ępu'
'čov'
'čn'
'čas'
'ął_'
'ądze'
'üss'
'ühr'
'öt_'
'ówn'
'óri'
'íč'
'ések_'
'éma'
'áda'
'Ál'
'»'
'°'
'zum'
'zka_'
'ziemy_'
'zeg'
'zba'
'zaz'
'zasta'
'zana'
'ysis_'
'yde'
'xp'
'właśnie_'
'wodurch_'
'win_'
'widział'
'wanted_'
'včetně_'
'volt'
'visst_'
'viděl'
'vatten_'
'vasta'
'valent_'
'uty'
'usz_'
'uble_'
'tüdő'
'tête_'
'tuf'
'tubul'
'tropin_'
'trif'
'tillämpning'
'tile'
'thyl'
'thigh_'
'thermoplasti'
'therm'
'thereon_'
'theor'
'thee_'
'teljes_'
'säk'
'szár'
'szok'
'szia_'
'swoje_'
'swi'
'svoj'
'surveillance_'
'sum'
'subsequently_'
'standing_'
'sow'
'somethin_'
'sio'
'shows_'
'show'
'sequen'
'sektor'
'scro'
'saturat'
'rsa'
'rozumie'
'rozporządzeni'
'roti'
'rotati'
'roma'
'rode'
'ringa'
'rico'
'rhi'
'rew'
'rete'
'respirat'
'require_'
'rendszer'
'releasing_'
'recorded_'
'ray'
'ratu'
'rapi'
'předp'
'pter'
'prst'
'propyl_'
'propyl'
'programu_'
'profil_'
'prez'
'plic_'
'pigmenta'
'pigment_'
'pharmacolog'
'phage'
'pez'
'pers_'
'perpendicular_'
'penn'
'patie_'
'paint'
'oxidi'
'otide'
'osto'
'osta'
'osobn'
'oriented_'
'orientation_'
'organisms_'
'organi'
'optim'
'opravdu_'
'operational_'
'omm'
'oliv'
'oire_'
'něte_'
'nécess'
'náv'
'nitu'
'niniejsze'
'nieb'
'nevy'
'nement_'
'needed_'
'natur'
'następujące_'
'nade'
'męż'
'möjligt_'
'místě_'
'mín'
'musí_'
'muscles_'
'muestra_'
'možná_'
'mono_'
'mogł'
'modules_'
'modula'
'microp'
'miała'
'menstrua'
'menor'
'maxim'
'matrice_'
'mark'
'magnéti'
'magam_'
'lytic'
'lors_'
'locat'
'lnoś'
'lna_'
'living_'
'lithium_'
'lik_'
'leitende'
'leges_'
'leaflet_'
'lds_'
'lata'
'lako'
'közö'
'kwa'
'kontakt_'
'kompr'
'kara'
'jski'
'iąg'
'itch'
'iskt_'
'ish'
'isat'
'insane_'
'inneren_'
'infektion'
'impulsion'
'idzie'
'ibuprofen'
'hölgye'
'häng'
'hten'
'hinter'
'hepato'
'hepati'
'hemop'
'helping_'
'gyn'
'gono'
'goi'
'gese'
'gaj'
'frequenz'
'franc'
'frames_'
'fool'
'folge'
'fitted_'
'find'
'experienced_'
'esu'
'erythema_'
'ery'
'enyl_'
'ense'
'eness'
'emit'
'embr'
'ekn'
'efavirenz_'
'edno'
'děn'
'dělá'
'détermination_'
'droga'
'disapp'
'diagnosti'
'diac'
'dextr'
'deta'
'depl'
'deo_'
'deno'
'denně_'
'dementia_'
'deficit_'
'deficien'
'debil'
'dati'
'dangerous_'
'dame'
'dac'
'czynności_'
'cutáneo_'
'cule'
'constructed_'
'compu'
'compressi'
'clari'
'cked_'
'cies'
'cien'
'chicht_'
'checked_'
'check'
'chat'
'charakter'
'certificate'
'cerrada_'
'celular_'
'catal'
'bán'
'bust'
'broncho'
'boro'
'blow_'
'bloody_'
'bic_'
'beyond_'
'belong'
'bc'
'bath_'
'bacterium_'
'azu'
'assistance_'
'appliance'
'apart_'
'antir'
'antidi'
'antal'
'anos'
'anis'
'amik'
'amely'
'akaro'
'agent'
'agenc'
'ador'
'additives_'
'acr'
'accom'
'Zv'
'Wyc'
'Vira'
'Vinc'
'Vagy_'
'VIT'
'Uter'
'Tys'
'Twój_'
'Twi'
'Supra'
'Stä'
'Stufe_'
'Spar'
'Social_'
'Soci'
'Sir'
'Single_'
'Schutz'
'Schal'
'S2_'
'Ré'
'Russ'
'Reta'
'Regulat'
'Region'
'Rebe'
'RK'
'Pokud_'
'Pneumo'
'Peg_'
'PORT_'
'PN'
'Oh'
'OTH'
'ORI'
'Niem'
'Nied'
'Neural'
'Nejs'
'Modifi'
'Mixed_'
'Melano'
'Madam_'
'Los_'
'LOC'
'LEV'
'Kunststoff'
'Koll'
'Kingdom_'
'Kiedy_'
'Kana'
'Kab'
'KS'
'KL'
'Impr'
'Identifi'
'Hn'
'Halló_'
'HT_'
'GLA'
'Fr'
'Eng'
'Dělá'
'DRA'
'DK'
'Clas'
'Cerebr'
'Carr'
'Candid'
'CS'
'Brac'
'Bolest_'
'Bocs_'
'Bau'
'Based_'
'Bacter'
'BENZ'
'Ausl'
'Aspir'
'Arte'
'Apol'
'Alcohol_'
'Ada'
'Abdeck'
'AX'
'1990_'
'10mL_'
' {_'
' ...'
' ,'
' *'
'♪ '
'•_'
'šní_'
'řík'
'ünn'
'örd'
'ófi'
'íté'
'ín_'
'éren'
'élevée_'
'ébe_'
'äta_'
'ändring'
'ála'
'Å_'
'zylindrische'
'związk'
'zow'
'zmian'
'zett_'
'zación_'
'zabaw'
'yte_'
'yt_'
'ysz'
'ysi'
'yroid'
'ymal'
'xyp'
'xel_'
'xan'
'własn'
'wzrost'
'wszystkie_'
'wle'
'welding_'
'weiter_'
'véd'
'vyr'
'von'
'vit_'
'vilka_'
'verri'
'ventil_'
'vent_'
'velo'
'valaki_'
'undr'
'ums_'
'ufe'
'tří'
'tünete'
'trunk_'
'tromboc'
'travel'
'transversa'
'transit'
'transc'
'tools_'
'toa'
'tlak_'
'tku_'
'til_'
'tibial_'
'tia_'
'thrombocytopeni'
'teni'
'sés_'
'sék'
'szczególności_'
'synchronisation_'
'stress'
'stol'
'stic'
'sters_'
'spá'
'spot_'
'significa'
'shak'
'separat'
'semen'
'selhání_'
'seite_'
'seiner_'
'score_'
'salicyl'
'rück'
'ruin'
'rozhodnutí_'
'rone'
'ritis_'
'ringe'
'ridin'
'retarda'
'rer'
'represented_'
'rempl'
'remain'
'relié_'
'relié'
'reduc'
'reception_'
'realis'
'rapporte'
'quantities_'
'przyję'
'przyc'
'prolif'
'presi'
'prel'
'power'
'potřeb'
'possibly_'
'portable_'
'pointe'
'podá'
'podo'
'plug_'
'plaquet'
'plann'
'pivot_'
'pilo'
'pieni'
'personal'
'pent'
'pekt'
'pall'
'outward'
'ordn'
'omet'
'ological_'
'oje'
'obstrucción_'
'objet_'
'obc'
'obacter_'
'nü'
'ného_'
'nsc'
'novel_'
'nią_'
'ngement_'
'nete'
'nding_'
'nces_'
'nawi'
'najd'
'naevus_'
'nac'
'mör'
'mény'
'mur_'
'multiples_'
'move'
'mohou_'
'mmo'
'mirigy_'
'mezi_'
'metformin_'
'mele'
'megm'
'median_'
'massa'
'mano'
'malign'
'mają_'
'magá'
'lén'
'låg'
'lämna_'
'látta'
'lve_'
'lum_'
'lubrica'
'loh'
'llt_'
'lling_'
'lisis_'
'linfático_'
'linear'
'lhe'
'lers_'
'leh'
'lade'
'ként_'
'ktor_'
'krä'
'krásn'
'krzy'
'kován'
'konst'
'koncentr'
'knowledge_'
'kilk'
'kapt'
'kapa'
'kami_'
'jących_'
'juli_'
'jeweiligen_'
'jet'
'jegy'
'isko'
'isierung'
'interrupti'
'inför'
'informe'
'independent_'
'incon'
'inci'
'inar'
'imá'
'igaz'
'icular_'
'hyp'
'hydrochlor'
'hiv'
'heri'
'here'
'halt_'
'gär'
'gás'
'gyű'
'guard'
'größer_'
'gräns'
'group'
'grav'
'granulom'
'goś'
'glin'
'gga'
'gende'
'gaze'
'fiol'
'filtering_'
'fik'
'fenil'
'exia_'
'etis'
'estudio'
'estre'
'erse'
'eredménye'
'eras'
'epidemi'
'epa'
'enzi'
'endotheli'
'emot_'
'embe'
'emba'
'elő_'
'elj'
'elev'
'elektrisch_'
'eggs_'
'dź'
'děložního_'
'dítě_'
'dzięki_'
'duš'
'dum'
'drops_'
'dott_'
'dosing_'
'dona'
'documents_'
'dobo'
'distributed_'
'dimensions_'
'dessus_'
'derecho_'
'cápsulas_'
'cześ'
'ctur'
'cous'
'contact'
'consu'
'colest'
'clé'
'cl'
'chw'
'ceux_'
'catalyti'
'cast_'
'casing_'
'carton_'
'card'
'cage_'
'bü'
'butyl'
'bupivacaína_'
'borta_'
'binder_'
'beweglich'
'betal'
'berätta_'
'benz'
'benne_'
'bacteria'
'automatique'
'authority_'
'authenti'
'attention_'
'attachment_'
'atory_'
'atk'
'atio_'
'assu'
'associé_'
'arch_'
'aquí'
'approved_'
'anticorps_'
'analog_'
'amil'
'alveolar_'
'allvarlig'
'alc'
'alapján_'
'alanine_'
'aktu'
'agra'
'aging_'
'aggregat'
'ader'
'accou'
'Wis'
'Well'
'Wand_'
'Via'
'Vero'
'UF'
'Tric'
'Temperatur'
'TY'
'THA'
'Så'
'Sá'
'Staphylococcus_'
'Shar'
'Science'
'Schaltung_'
'Sab'
'R₁_'
'Rücks'
'Retino'
'Resp'
'RAS'
'Quit_'
'Pont'
'Phasen'
'Perm'
'PHO'
'PATH'
'Nikdy_'
'Next_'
'Natural'
'Nathan_'
'Nam'
'Můžu_'
'Myslím_'
'Mov'
'Monitor'
'Modul'
'Megt'
'Mater'
'Mass'
'Mark_'
'Main'
'MALE'
'Lob'
'Live'
'Laser_'
'LAS'
'Kommissionens_'
'Jane'
'Jako_'
'Insuf'
'Induced_'
'Implant'
'IB_'
'Holly_'
'Hiya_'
'Her_'
'Hay'
'Hans'
'Graci'
'Geo'
'GG'
'Fung'
'Fractur'
'Everyone_'
'Erzeugung_'
'Ere'
'Emboli'
'ENTR'
'Děkuji_'
'Dou'
'Document_'
'Diam'
'Depressi'
'Dependent_'
'Degenerati'
'DOS'
'DIE'
'Células_'
'Csa'
'Contract'
'Conge'
'Colla'
'Cells_'
'COS'
'Break'
'Bran'
'Bohrung'
'Bleeding_'
'Aug'
'Arb'
'Ar_'
'Antib'
'Anschl'
'Anf'
'Anae'
'Also_'
'Alis'
'Abs'
'ADH'
':-'
'81'
'237'
'2011_'
'172'
' - ['
' ! _'
'żu'
'źle_'
'ším_'
'ędz'
'ęcia_'
'ček'
'úpln'
'ô'
'ónica_'
'óni'
'óma'
'íčko_'
'ített_'
'åka_'
'ändras_'
'áll_'
'áce'
'«'
'zobaczenia_'
'zkurven'
'ziv'
'zał'
'yś'
'ync'
'yel'
'xico'
'wynosi'
'wygląda'
'wszys'
'wink'
'wiad'
'wci'
'výb'
'vibrat'
'vati'
'vali'
'ungssch'
'uls'
'těl'
'týdn'
'tópic'
'trial_'
'travel_'
'transfera'
'transfer'
'traf'
'titi'
'thrombocyt'
'therapi'
'than'
'tatás'
'tartrat'
'suspect'
'stm'
'sság'
'ssu'
'srdeční_'
'spä'
'solide_'
'sold'
'smu'
'sluta'
'seven_'
'seur_'
'serotipo_'
'sensiti'
'rski'
'rno'
'rise'
'rigid_'
'rheumati'
'rg_'
'représent'
'reich'
'regulator'
'refrigerat'
'recht'
'reached_'
'rdin'
'rande_'
'pélvic'
'pyro'
'puis_'
'psin'
'przyw'
'przypadk'
'przewod'
'przem'
'proz'
'proli'
'practice_'
'polyp_'
'polymerization_'
'polari'
'plexus_'
'pertu'
'persons_'
'permanent'
'peripher'
'pept'
'pell'
'parents_'
'panc'
'pale'
'pak'
'pag'
'oxid_'
'owie'
'ots'
'orrh'
'opis'
'onia_'
'ois'
'oil'
'ogram'
'oddech'
'occupation'
'obr'
'nze'
'nutri'
'ntha'
'neurologic'
'necroti'
'nebu'
'nazw'
'nationella_'
'nage_'
'mélange'
'män'
'musz'
'morfina_'
'modifi'
'mira'
'microbi'
'mento'
'mend'
'mei'
'mara'
'lányo'
'lángica_'
'lyn_'
'lubi'
'lone'
'llary_'
'listening_'
'linfáticos_'
'ligas'
'life'
'kvi'
'ktor'
'kto_'
'korre'
'kontrolo'
'kommen'
'klarar_'
'klara_'
'kala'
'just'
'jou'
'izac'
'isolati'
'isar'
'irus_'
'intermit'
'intensity_'
'inta'
'inste'
'instant'
'ingest'
'implanta'
'iln'
'igl'
'iente'
'ieh'
'ication_'
'húz'
'hál'
'hrudní'
'hova'
'hos'
'holk'
'hodně_'
'hema'
'harmonise'
'hara'
'gst'
'gno'
'glomerul'
'gift'
'gerin'
'gang'
'führ'
'försä'
'fístula_'
'funkce_'
'flange_'
'firm'
'fibril'
'ffle'
'feron'
'fax'
'essa'
'eot'
'emul'
'emie_'
'elen'
'elemente'
'ekonomisk'
'edl'
'dług'
'dépa'
'duodenal_'
'drá'
'dritten_'
'drar_'
'doub'
'doj'
'disr'
'disminu'
'discontinued_'
'dieses_'
'dica'
'deposit'
'demande'
'definiti'
'dech'
'dala'
'csomó'
'counsel'
'cortical_'
'corresponds_'
'correspond_'
'corpus'
'continue'
'connectée'
'conjuntiv'
'comparat'
'colon'
'cimiento_'
'choice_'
'chlop'
'catara'
'carcinomája_'
'caract'
'capa'
'cana'
'buz'
'brist'
'bovin'
'blí'
'biom'
'bio_'
'bidra'
'betrifft_'
'berä'
'autour_'
'ask'
'anst'
'ania'
'amplification_'
'alit'
'adenosin'
'aden'
'actions_'
'acj'
'acen'
'['
'Zylinder'
'Zrobi'
'Ya_'
'Wonderful_'
'Wick'
'Way'
'Wan'
'Vorr'
'Vergleich'
'Túl'
'Ther'
'Suspension_'
'Subt'
'Substrat'
'Stap'
'Stand'
'Squamous_'
'Sero'
'SID'
'SAL'
'Reproducti'
'Protocol_'
'Probe'
'Poo'
'Pneumoni'
'Plant'
'Pip'
'Ott_'
'Osteoart'
'Off'
'OX'
'OLI'
'Něco_'
'Nå'
'Nä'
'Note'
'Naš'
'Napr'
'NH'
'NF'
'NET'
'NEOPL_'
'Mom'
'Mir'
'Menj_'
'Little_'
'Late'
'Lady_'
'LOS'
'LAM'
'Komm'
'Kay'
'Johnny_'
'Jd'
'Hou'
'Glut'
'GT'
'Function'
'French_'
'Fordította_'
'Fetus_'
'Feh'
'Fe_'
'Fast'
'Facial_'
'FA_'
'Enjoy_'
'Enbrel_'
'Ellie_'
'ENA'
'EKG_'
'Dur'
'Dem'
'Deg'
'Dai'
'Cycli'
'Cso'
'Complement_'
'Citr'
'Chil'
'Carboxy'
'Captain_'
'CARCINOMA_'
'CAP_'
'Bőr_'
'By'
'Bub'
'Brom'
'Breathe_'
'Bobb'
'Bett'
'Au'
'Aqu'
'Alm'
'Agy'
'ANA'
'? /_'
'? - '
'= _'
'5000_'
'322'
'212_'
'143'
')@_'
'żół'
'śmier'
'řeč'
'ěst'
'ělá'
'čné_'
'čist'
'ądz'
'ósea_'
'íle'
'ë'
'émission_'
'électrodes_'
'éhe'
'èse_'
'çoi'
'ätz'
'ão_'
'áza_'
'áló_'
'áci'
'~'
'zyt'
'zwo'
'zpátky_'
'zki_'
'zelle'
'zei'
'ytterligare_'
'yea'
'xazol'
'xant'
'wyc'
'withdraw'
'wheels_'
'wane_'
'wandl'
'vědě'
'věci_'
'vít'
'vyd'
'vue_'
'vos'
'visar_'
'vinn'
'vials_'
'verw'
'velmi_'
'vara'
'vacu'
'uvidí'
'utom_'
'uste'
'uretra'
'urethral_'
'upset_'
'uniform'
'undersökning'
'těžk'
'tünk_'
'träger_'
'toward_'
'tolerance_'
'tja'
'tioner_'
'tide'
'tick_'
'tend'
'teln'
'tein'
'teilweise_'
'tba'
'tanul'
'tant'
'szeme'
'szel_'
'synchroniz'
'symmetri'
'svara'
'supervis'
'sulfi'
'sui'
'substr'
'stämme'
'stwierdz'
'stran'
'stopped_'
'stion'
'steron'
'stabil'
'srácok_'
'sperm'
'sny'
'skór'
'silo'
'sien'
'showed_'
'send'
'selektiv'
'seizure_'
'salm'
'récipient_'
'rát'
'rusza'
'rotary_'
'risks_'
'rior_'
'riff'
'rfi'
'regi'
'reconstruc'
'recognise'
'rama_'
'radius_'
'ract'
'później_'
'pyra'
'pszich'
'prévu'
'précis'
'progress_'
'primi'
'prev'
'presen'
'poo'
'polyo'
'podstawie_'
'podej'
'pic_'
'phic'
'pharmacokinetics_'
'perfu'
'perat'
'patol'
'pasa'
'oze'
'overlap'
'overall_'
'ovari'
'orig'
'oria'
'optimal'
'oprotein'
'oná'
'onkow'
'ondo'
'onde'
'onco'
'omon'
'omed'
'official'
'oen'
'ocho'
'něko'
'ntl'
'night'
'nicotin'
'neurčený_'
'nerwu_'
'nerw'
'nc_'
'mére'
'myopat'
'multipli'
'mort'
'mom'
'miembro_'
'micron'
'meningo'
'megér'
'meaning_'
'meal_'
'mały_'
'ltet'
'localis'
'lobe_'
'liž'
'lipoprotein'
'lift'
'libre_'
'leukocyt'
'leuko'
'lero'
'lemente'
'lder'
'lastia_'
'között_'
'kán'
'kvar_'
'które'
'kró'
'kopo'
'kolej'
'koko'
'kam_'
'kaf'
'iè'
'ische'
'intervent'
'intervals_'
'interpret'
'insi'
'insert'
'injected_'
'inhala'
'info_'
'iner'
'ination'
'immunologic'
'idő_'
'hör_'
'hypertrophi'
'horse'
'hinge'
'high'
'hers_'
'hatáso'
'głupi'
'grupy_'
'gravi'
'gorąc'
'glyc'
'gger'
'gewünschte'
'gau'
'gangs'
'führt_'
'förbättr'
'férfi'
'fyl'
'fter'
'freni'
'follic'
'fokú_'
'fogsz_'
'fiú'
'fichier_'
'fejl'
'fatta'
'fasz_'
'faisceau_'
'expir'
'excitation_'
'excipient'
'euti'
'etri'
'etan'
'estimate'
'essential_'
'escleros'
'escisión_'
'erp'
'ermi'
'erman'
'environmental_'
'entia'
'enhet'
'endometrial_'
'encephalo'
'emea_'
'elektronische'
'eim'
'ega'
'echo'
'ebb_'
'eant'
'drainage_'
'doma_'
'dioxi'
'digo'
'difo'
'différents_'
'diesem_'
'diente_'
'deso'
'deleted_'
'dece'
'data'
'dar_'
'ców_'
'cylind'
'cyclop'
'curved_'
'ctomía_'
'cot_'
'cornea_'
'contien'
'condensat'
'comm_'
'clav'
'ciós_'
'cholera_'
'chicken_'
'checking_'
'cerebr'
'carbonyl_'
'cand'
'bárm'
'bröst'
'blistr'
'blic'
'bino'
'benzyl_'
'beep'
'batterie'
'atin'
'aspe'
'arizonae_'
'apri'
'apli'
'ao'
'anten'
'anormales_'
'analyz'
'analyse'
'anaf'
'alcoholic_'
'aim_'
'adopt'
'adal'
'acrylic_'
'acl'
'abges'
'`'
'Wolf'
'Vždy'
'Vě'
'Ventricular_'
'Vascul'
'Vak'
'Trig'
'Tod'
'Techn'
'Tac'
'Tab'
'TOP'
'TD'
'TC_'
'Spitze'
'Sph'
'Ski'
'Should_'
'SYSTEM'
'Reihe_'
'Regi'
'Rab'
'RP'
'RATI'
'Přestaň_'
'Pilo'
'ONS'
'ONA'
'NOS'
'Mela'
'MP_'
'Lymphom'
'Lun'
'Luft_'
'Lois_'
'Kombination_'
'Jose'
'Jim_'
'Isa'
'Intern'
'Inde'
'Ill'
'IGN'
'Hé'
'Herpe'
'Gł'
'Got'
'GY'
'GAL'
'Funktion'
'Free_'
'Film'
'Famili'
'Exa'
'Esp'
'EDI'
'Done_'
'Danny_'
'Daniel'
'Complete_'
'Cet'
'CS_'
'CIT'
'CG'
'CD4_'
'C3_'
'Buc'
'Blu'
'Bayer_'
'BRO'
'BLA'
'Arn'
'Ari'
'Antagonist'
'Aktiv'
'Administration_'
'AY_'
'AP_'
'ACETAMINOPHEN_'
'500MG_'
'300'
'131_'
'"...'
'žov'
'žij'
'žení_'
'Že'
'šo'
'šla'
'řej'
'čno'
'člán'
'četn'
'üs'
'íst'
'íku_'
'ías_'
'élimin'
'åg'
'ående_'
'äre_'
'älskling_'
'À_'
'¹'
'zolin'
'zacz'
'zaa'
'ywani'
'yho_'
'xyl'
'xetin'
'xes_'
'xane_'
'worked_'
'wes'
'weis'
'ward'
'wali'
'wad'
'věc'
'válasz'
'vou_'
'vorges'
'verschieb'
'uzn'
'utför'
'uret'
'uracil'
'upward'
'unre'
'unp'
'understand'
'uncle_'
'ulá'
'ulent'
'uda_'
'ucha'
'třeba_'
'těch'
'tyrosin'
'tvi'
'trapp'
'tooth'
'toff'
'tkán'
'tjänste'
'tico'
'tická_'
'thermique_'
'testosteron'
'tenn'
'tc'
'tartó'
'talált'
'taki_'
'séric'
'säg'
'szíve'
'szo'
'systèmes_'
'synovi'
'susceptib'
'suck_'
'substrates_'
'submi'
'subm'
'subl'
'subjected_'
'stup'
'sterili'
'stan_'
'spondyl'
'spher'
'spea'
'sp_'
'soa'
'sliding_'
'skjut'
'sitt'
'sino'
'sinc'
'signature'
'sexy_'
'serial'
'senk'
'secured_'
'schritt'
'sati'
'sage_'
'ruptura_'
'rtige'
'rozt'
'rib_'
'respiratorio_'
'reduct'
'redo'
'record'
'rcoma_'
'pál'
'pun'
'pulver'
'pulp'
'pulmonal'
'pulle'
'ptá'
'przew'
'przet'
'pryč_'
'prophyla'
'proliferative_'
'produk'
'priv'
'principle'
'presse'
'pracuj'
'použi'
'polici'
'poison_'
'podw'
'plazm'
'placing_'
'pituitary_'
'physiologi'
'period'
'patiente'
'passed_'
'partition'
'parent'
'paragraphs_'
'paracetamol_'
'panne'
'palat'
'ośr'
'owne'
'owana_'
'oty_'
'oscillat'
'orma'
'organisation_'
'orbita'
'oran'
'optische_'
'opp'
'opinion_'
'ontal'
'omr'
'ologiczn'
'ofl'
'oet'
'odu'
'oby_'
'obtenue'
'nějaké_'
'náp'
'nyo'
'nuj'
'nucléique_'
'nted_'
'normální_'
'nné'
'nivå'
'niep'
'neř'
'nerk'
'médica'
'mutant'
'mould_'
'mother'
'mondta_'
'mobile'
'minor_'
'mindre_'
'metro'
'meter'
'masa'
'martwi'
'mann_'
'maintaining_'
'léče'
'láz_'
'lá_'
'lymphocyte'
'lul'
'lista_'
'levodopa_'
'lement'
'lec'
'lay'
'latter_'
'lately_'
'lapp'
'lager'
'körpers_'
'kód'
'később_'
'kockázat'
'klart_'
'kiss_'
'kieg'
'kerati'
'kataly'
'jod'
'jednost'
'iła'
'ivní_'
'ium'
'ital'
'ission'
'ionic_'
'invest'
'intégré'
'interferon'
'integri'
'impo'
'ije'
'ihop_'
'igé'
'ignor'
'identify_'
'identifie'
'hydroc'
'hog'
'hiány'
'hine_'
'hili'
'hemolytic_'
'hee'
'haps_'
'głow'
'génér'
'gånger_'
'gyö'
'guanin'
'grooves_'
'glyci'
'glik'
'genc'
'gels'
'gala'
'gac'
'förvä'
'förva'
'féle_'
'fájás_'
'fucker'
'fric'
'fonctionnel'
'flask'
'fic_'
'fest_'
'faringe_'
'famili'
'fair_'
'ezd'
'expansion_'
'etik'
'estrogen'
'erma'
'epoetin'
'entraîn'
'enou'
'enke'
'enha'
'enfermedades_'
'endop'
'endocarditis_'
'employed_'
'emlő'
'elte'
'elek'
'electron'
'egyszer'
'eftersom_'
'ecc'
'dystrofie_'
'dural_'
'duch'
'dual'
'dress_'
'doxorubicina_'
'dog'
'dnes_'
'diá'
'divided_'
'dimension_'
'deras_'
'defecto_'
'dba'
'cystitis_'
'cystic_'
'cubi'
'csinált'
'couple'
'couleur_'
'copolymer'
'cono'
'conjunctivitis_'
'come'
'classified_'
'chtěl'
'chorob'
'chim'
'chaleur_'
'chair_'
'celo'
'cath'
'casting_'
'carrie'
'carefully_'
'bude'
'betegségei_'
'bena'
'beaktande_'
'bass'
'bala'
'bai'
'awake_'
'atric'
'appliqué'
'ap_'
'anál'
'anzeig'
'användas_'
'ansvar'
'anspr'
'andere_'
'anaesthe'
'anae'
'amu'
'alud'
'algia_'
'akti'
'akarsz_'
'ajust'
'aint'
'aim'
'agr'
'adora'
'adagolás'
'Zostaw'
'Zm'
'Zat'
'Zan'
'Yours_'
'Wszyscy_'
'Wanna_'
'UTER'
'UR_'
'Transfer'
'TW'
'Sätt_'
'Sulfa'
'Such'
'Subunit_'
'Strahlung'
'Soft'
'Shep'
'Serv'
'Seg'
'Safety_'
'Rahmen_'
'ROPI'
'RL'
'REF'
'Polymer_'
'Physic'
'Phoebe_'
'Peptid'
'Pep'
'Pen_'
'Papill'
'Oncolog'
'Obstetric'
'Nyugi_'
'Nod'
'Nemo'
'Nekem_'
'Nav'
'NT1_'
'NSAID'
'Mě'
'Máte_'
'More_'
'Mohl'
'Mamo_'
'Malforma'
'Lá'
'Lux'
'Liqu'
'Leuco'
'Leo_'
'Lebe'
'Lak'
'LINE_'
'Kru'
'Kontr'
'Kli'
'KU'
'Jon'
'Jod'
'Insp'
'Informationen_'
'ITY_'
'ICE'
'Hono'
'Hoch'
'Herregud_'
'Hard'
'Griff'
'Glyco'
'Georg'
'Generali'
'Gegen'
'Fee'
'Europaparlamentets_'
'Endoscop'
'Emi'
'Emer'
'Electroc'
'Doo'
'Dicke_'
'DEG_'
'Cóż_'
'Compo'
'Clos'
'Chronická_'
'Chris_'
'Chee'
'Chcę_'
'Chcesz_'
'Cassi'
'Case'
'Candida_'
'CLE'
'CELL'
'Byl_'
'Buen'
'Bruce'
'Apr'
'Aph'
'Anap'
'Alfa_'
'ALT_'
'ALL_'
'@ _'
'95'
'4b_'
'250'
'200mg_'
',... '
' $_'
'żę_'
'żk'
'ůz'
'świat'
'őrült'
'ěr_'
'óv'
'óptic'
'ïd'
'ízület'
'írt'
'éssel_'
'ättning'
'áne'
'álním'
'zát'
'zách'
'zuc'
'zpráv'
'zos'
'zná'
'znal'
'yko'
'yde_'
'yas'
'wirken'
'weiteren_'
'wave'
'véle'
'vztah'
'viro'
'vigy'
'vide_'
'venti'
'vehicles_'
'vate'
'vané_'
'vai'
'utveckling_'
'utilisés_'
'upstream_'
'unu'
'unilateral_'
'ungsm'
'ularis_'
'ukr'
'těl_'
'tölt'
'tänd'
'tyr'
'twoją_'
'trus'
'tki_'
'tissu_'
'timing_'
'tett_'
'terhesség'
'terapéutic'
'tect'
'tatt'
'tabletki_'
'sélectionné_'
'szüle'
'syna'
'svi'
'sum_'
'sulfona'
'suicid'
'stronie_'
'strepto'
'sterile_'
'sted_'
'spri'
'sprawdz'
'spojen'
'soul'
'solche'
'skicka'
'sional'
'seu'
'sert'
'sera'
'sejt_'
'schm'
'sand_'
'rész'
'rép'
'régulat'
'rychle_'
'rui'
'rro'
'rozen'
'rodz'
'risker'
'rid_'
'respectivement_'
'resilient'
'reservoir_'
'repeal'
'rapp'
'rane'
'rakt'
'quemadura_'
'přek'
'producer'
'principal_'
'previously_'
'precis_'
'pray'
'polypeptides_'
'pilot'
'pharmaceutique_'
'persistent'
'pero'
'percep'
'penia_'
'owa'
'osób_'
'osít'
'ostatnio_'
'osmo'
'orden'
'online_'
'okol'
'oj_'
'oidi'
'oesophageal_'
'odpowiednio_'
'odj'
'occlusion_'
'occi'
'nč'
'nízk'
'nyál'
'nový'
'nouveau'
'nka_'
'nium_'
'nio_'
'niem_'
'neumon'
'neoplasiája_'
'nejsem_'
'nation_'
'narkot'
'nadzieję_'
'nade_'
'nacz'
'múlt'
'månader_'
'muszę_'
'muni'
'mula'
'morphi'
'monkey'
'mola'
'mment_'
'mluvi'
'mine'
'mien'
'mico'
'metric'
'meda'
'maxilla'
'magneti'
'magas'
'lár'
'loss'
'logick'
'linje'
'lingu'
'linfocit'
'lignes_'
'lahvičk'
'lagri'
'kéne_'
'kuta'
'kovi'
'konz'
'kombiná'
'klí'
'kc'
'kamarád'
'kace_'
'jący_'
'juice_'
'jest'
'jec'
'jakieś_'
'jac'
'iu'
'ism'
'ios_'
'invasiv'
'intes'
'inoc'
'injekci'
'information'
'infestation'
'infekc'
'industrial_'
'induci'
'indicate_'
'ieg'
'ici_'
'hól'
'hyperlipoprotein'
'hygien'
'humo'
'hti'
'hrozn'
'house'
'hole'
'harmoni'
'handla'
'haben_'
'grea'
'grabb'
'gorgeous_'
'gers_'
'gemenskaps'
'förstå'
'förekom'
'funktione'
'fti'
'fruit_'
'fr_'
'foll'
'flowing_'
'finansow'
'ffer'
'femur_'
'fee'
'fastene'
'faec'
'executi'
'excited_'
'espe'
'esof'
'enthaltend_'
'előre'
'elve'
'elongated_'
'elné'
'ellu'
'einz'
'egész'
'ees_'
'educa'
'ection_'
'echn'
'défini'
'dám'
'dran'
'dopr'
'disti'
'dion'
'dies_'
'diclo'
'diabet'
'deg'
'define_'
'cyan'
'cuti'
'cula'
'cuer'
'cud'
'cted_'
'csol'
'cortico'
'convulsi'
'contractur'
'consciousness_'
'conducted_'
'compare'
'collect'
'clinically_'
'clear'
'ció_'
'caution_'
'carbonate_'
'carbi'
'byś_'
'buil'
'bromide_'
'branched_'
'boost'
'bon_'
'bomb'
'bláz'
'blivit_'
'blik'
'bifásica_'
'bici'
'bewegt_'
'bestäm'
'behandl'
'begräns'
'bart'
'ather'
'associée_'
'ascular_'
'arginin'
'ardio'
'arabin'
'appetite_'
'aparato_'
'anom'
'anol_'
'amines_'
'alv'
'altera'
'alma'
'aki'
'adó'
'adott_'
'administración_'
'administr'
'adequate'
'activité_'
'aceton'
'abba'
'Yan'
'Xan'
'Work'
'Wood'
'Verbinder'
'Vaše_'
'VIRA'
'UV_'
'UNIT'
'UCT'
'Troch'
'Tl'
'Thre'
'Termin'
'Taka'
'TION'
'Są'
'Symp'
'Susan_'
'Start_'
'Sla'
'Simple_'
'Shu'
'Shan'
'Ró'
'Rhe'
'Rah'
'Rach'
'ROP'
'Pt'
'Projekt'
'Premature_'
'Posterior_'
'Pomo'
'Polycy'
'Pleura'
'Phosphat'
'Phil_'
'Person'
'Peptide_'
'Patt'
'Parox'
'PROCEDE_'
'PACKAGE_'
'PACK'
'Oy'
'Obi'
'ORA'
'OND'
'OINT'
'Neonatal_'
'Nel'
'Nazdar_'
'Należy_'
'Máme_'
'Membrane_'
'Masse'
'Mant'
'Male_'
'Machine_'
'MICRO'
'METH'
'MAS'
'Luc'
'Local_'
'Liz_'
'Limited_'
'Life_'
'Kön'
'Kri'
'Kons'
'Kie'
'Jedno'
'Jack'
'Insul'
'Ino'
'IOP'
'Hú'
'Haj'
'Haemophilus_'
'Had'
'Granul'
'Good'
'Gd'
'GF_'
'Finger'
'Filter'
'Eusta'
'Europejskie'
'Ester'
'Erzeugen_'
'Ellen'
'Eig'
'Düse'
'Duc'
'Down'
'Dol'
'Dob'
'Disp'
'Dela'
'DET'
'Conver'
'Continu'
'Cir'
'Cic'
'Chloro'
'Cae'
'COO'
'COMPO'
'C2_'
'Bár'
'Bir'
'Bai'
'Bacillus_'
'BY_'
'BB'
'B1_'
'Atrop'
'Aran'
'Allergic_'
'Ae'
'Adrenergic_'
'ATA'
'AD_'
'7a_'
'74'
'3b_'
'140'
'134_'
'115_'
''''
'&'
' − _'
' ='
'—'
'żą'
'żni'
'űt'
'ůr'
'ście'
'čím_'
'Čas'
'ült'
'órganos_'
'óbuj'
'ób_'
'ítő'
'írás'
'éth'
'érték'
'ération_'
'ény_'
'ären_'
'ält'
'Ý'
'ÁS'
'zése'
'zés'
'zur'
'zh'
'zete'
'zdo'
'zbyt'
'zawie'
'zaro'
'zami'
'zaję'
'zajm'
'zag'
'yti'
'yki_'
'xyli'
'względ'
'wstrzyk'
'wrz'
'wprowadza'
'worried_'
'worker'
'wiec'
'wearing_'
'véde'
'volumen_'
'vola'
'vocal_'
'vla'
'visit'
'világ'
'verkar_'
'vecka'
'varo'
'upi'
'unterschiedliche'
'ungsb'
'ungefä'
'umine'
'ulos'
'ulen'
'uft_'
'uco'
'táb'
'trouve'
'troj'
'traktu_'
'trace'
'tlin'
'tko'
'tjej'
'titanium_'
'tical_'
'tete'
'teria'
'teme'
'target'
'tanácsi_'
'sük'
'séquences_'
'sám_'
'szű'
'stun'
'stuck_'
'string'
'stavu'
'starv'
'stab'
'spontan'
'speicher'
'sout'
'soumis'
'sono'
'socket_'
'sní'
'slow'
'slic'
'skie_'
'ske_'
'shou'
'shift'
'setzung'
'session_'
'semmi'
'segu'
'sandwich'
'rót'
'rée'
'réact'
'rzeczy_'
'rve_'
'rungs'
'rse'
'rrho'
'rpi'
'rosis_'
'rolle'
'roll'
'rolig'
'rolac'
'rock_'
'robot'
'robisz_'
'rior'
'rezis'
'reven'
'reto'
'residual_'
'repl'
'repeat'
'rendszeri_'
'rell'
'rekombin'
'reflux_'
'reflektier'
'recur'
'recti'
'recogniz'
'rea_'
'rant'
'rance_'
'půjd'
'připraven'
'přesta'
'přen'
'pół'
'pática_'
'push_'
'ptor'
'ptic'
'przysz'
'prox'
'proto_'
'process'
'prawi'
'pozd'
'potential'
'pontj'
'pomó'
'plás'
'pleura_'
'plasmo'
'pion'
'permeab'
'perform_'
'pem'
'pedic'
'pedia'
'paclitaxel_'
'pack'
'ophthalm'
'operator_'
'oon'
'omete'
'oide'
'oidal'
'obact'
'ník_'
'nucleosi'
'nto_'
'nsferasa_'
'nefro'
'ncy_'
'múltiples_'
'mózg'
'mérték'
'méh'
'mål'
'máme_'
'muse'
'mst'
'moze'
'mniej_'
'miu'
'mineral_'
'mile'
'menti'
'megy_'
'meghatároz'
'mayor_'
'marrow_'
'lý'
'lämplig'
'lsi'
'lny'
'lls_'
'llar'
'litis_'
'limits_'
'lekt'
'law_'
'labor_'
'közé'
'kän'
'kální_'
'kyseliny_'
'kra_'
'ková_'
'kezelt_'
'kereszt'
'kedés'
'kban_'
'każdy'
'kana'
'jte'
'jiným'
'jelentős'
'jakie'
'ives_'
'issues_'
'ison_'
'interval'
'interne'
'inflam'
'incident'
'impur'
'imme'
'ime_'
'illar'
'ilat'
'identical_'
'idase_'
'iai_'
'hydri'
'humans_'
'hibá'
'hers'
'hereditaria_'
'heller_'
'heit_'
'hatj'
'hate'
'hann'
'halten_'
'gło'
'générer_'
'grudnia_'
'grill'
'grel'
'grat'
'grastim_'
'gangli'
'föresl'
'fry'
'fru_'
'formá'
'fibros'
'fatt'
'farb'
'extreme'
'execute'
'ewo'
'etř'
'etra'
'eso_'
'esm'
'equ'
'ensam_'
'enab'
'ellement_'
'elf'
'elemente_'
'elast'
'effectuer_'
'efa'
'ebra'
'dít'
'déch'
'doustn'
'dní_'
'directe'
'dilut'
'dilata'
'dieta'
'developing_'
'design_'
'derma_'
'deal_'
'dato'
'dat'
'dara'
'dae_'
'dab'
'czym_'
'cum_'
'cuc'
'correspondante'
'conveying_'
'contusi'
'contacting_'
'conn'
'cký'
'ckling'
'ciál'
'cido'
'chore'
'cham'
'cata'
'cancer'
'bush'
'brow'
'blow'
'blind'
'bilis'
'bestämmelser_'
'berätta'
'ať_'
'ałam_'
'azuj'
'avsl'
'asym'
'arto'
'approximati'
'använda_'
'antia'
'anni'
'angu'
'angry_'
'alfa'
'ahoj_'
'adiol_'
'acquis'
'aci_'
'Zt'
'Zavol'
'Wä'
'Wit'
'Wir'
'Wesentlichen_'
'Várj'
'Vs'
'Verarbeitung'
'Ventr'
'Uvidíme_'
'Ub'
'URA'
'Tudod_'
'Theo'
'Thank'
'Tessék_'
'Technic'
'TF'
'TEST'
'Systems_'
'Stütz'
'Spu'
'Spot'
'Spalt'
'Semi'
'Secret'
'SUC'
'SPI'
'SEMI'
'Retired_'
'Retin'
'Rece'
'ROPIN_'
'RG'
'REM'
'Querschnitt'
'Przep'
'Powiedz_'
'Pov'
'Poslouchej'
'Poh'
'Pir'
'Pewnie_'
'Partial_'
'Papi'
'Pancreatic_'
'Pam'
'PS_'
'P450_'
'Nucleo'
'Nick'
'Nec'
'NORMAL_'
'NERVE_'
'Myc'
'Musím_'
'Lös'
'Lát'
'Lock'
'Light_'
'Leki_'
'Lehet'
'Kevin_'
'KET'
'Jeszcze_'
'Jani'
'Jamie_'
'Iz'
'Isten_'
'Internal_'
'Induc'
'Impuls'
'Idiot'
'Ia_'
'Histo'
'Heal'
'Hart'
'HOL'
'HARD_'
'GAT'
'Fun'
'Fort'
'Folie'
'Fall'
'FB'
'Esc'
'Eme'
'Element'
'Eingriff_'
'Eddie_'
'ESTER'
'ECH'
'Dru'
'Doxorubicin_'
'Dop'
'Distri'
'Differenz'
'Different'
'Csin'
'Clea'
'Chloride_'
'Cass'
'CYST'
'CHAR'
'CAS'
'Brook'
'BLI'
'B6_'
'Aufnahme_'
'Aort'
'Anal_'
'Alergi'
'Agreement_'
'Addition'
'Addison_'
'ANTIGEN'
'ACUTE_'
'88'
'600'
'59'
'50m'
'47'
'270'
'211'
'206_'
'2013_'
'1M'
'05'
'- [_'
'& '
'%)._'
'% '
'žád'
'ždy'
'żeni'
'űs'
'śnieni'
'řel'
'łat'
'ější_'
'üv'
'ücke'
'örmige'
'örer_'
'öra'
'öp'
'ówi'
'óst'
'íto'
'ígér'
'ések'
'épi'
'épaisseur_'
'électrol'
'ämpf'
'áns'
'általá'
'Áll'
'zó_'
'zt_'
'znaczy_'
'zje'
'zhe'
'zachowa'
'zaburzenia_'
'yttr'
'yj'
'ydro'
'xel'
'wymaga'
'wspania'
'wort'
'wartości_'
'vř'
'vlas'
'vizsgálat'
'vizsgál'
'viselked'
'vidéo_'
'vezm'
'verst'
'verksamhet'
'ventilation_'
'valves_'
'uzyska'
'unspe'
'udn'
'ucie'
'uat'
'tętnic'
'tut'
'tudn'
'tua'
'tten_'
'tromet'
'traumati'
'tlust'
'tlo'
'tivit'
'timmar_'
'tiaz'
'thread_'
'terna'
'tató'
'tatu'
'tate'
'sépar'
'sättning_'
'sztu'
'szinte'
'své'
'susp'
'suppression_'
'supplement'
'sulphate_'
'strum'
'stool_'
'stejn'
'stat_'
'stalo_'
'stack_'
'ssin'
'spela'
'somal_'
'smell'
'sitio'
'simultan'
'signe'
'signale'
'sey_'
'secreción_'
'scre'
'sangu'
'réso'
'régla'
'réfl'
'rse_'
'roż'
'rouleau'
'rose'
'roham'
'rmin'
'rke'
'rk_'
'rium_'
'riu'
'ringen_'
'rica'
'rgic'
'retra'
'ressi'
'relie'
'rega'
'redi'
'recou'
'reason'
'raum'
'rais'
'quir'
'přípravkem_'
'putt'
'psychot'
'przyzna'
'první_'
'provis'
'progressive_'
'progres'
'principe'
'prawn'
'porn'
'polymeric_'
'poietic_'
'plantar'
'plage_'
'pizza_'
'pital'
'pine_'
'pills_'
'personne'
'peroxide_'
'permit'
'perido'
'pathway'
'parallèle_'
'parallèle'
'papilla'
'panu_'
'owu'
'oren'
'ordnung_'
'onej_'
'omina'
'omal'
'olá'
'ojo_'
'oir'
'ofe'
'odst_'
'odona_'
'obten'
'obserwowan'
'obraz'
'obejm'
'np_'
'nowa'
'nohy_'
'nis_'
'niepr'
'nfe'
'nevo'
'neurč'
'ndar'
'naso'
'nasi'
'nadz'
'mű'
'mén'
'médula_'
'média'
'motori'
'mister_'
'miot'
'mieć_'
'methox'
'meters_'
'metaboliz'
'maste'
'marki'
'lytic_'
'lymfatick'
'ludzi_'
'losing_'
'lomet'
'lifi'
'lian'
'leukop'
'leitf'
'ldá'
'lans'
'krč'
'krát_'
'krom'
'kosm'
'kore'
'konsta'
'kombinac'
'kloub'
'kleine'
'kation'
'kante'
'jakiś_'
'ił_'
'itol_'
'itiv'
'ith_'
'ith'
'intéz'
'intencional_'
'insuficiencia_'
'insert_'
'innehåll'
'initiated_'
'inhalador_'
'inha'
'infer'
'ines'
'indépenda'
'indeterminada_'
'incomp'
'incision'
'implante'
'impl'
'ilin'
'iliac_'
'ify'
'ifica'
'idiopat'
'icht_'
'iam'
'ialis_'
'hälsa'
'hypotension_'
'humain'
'hue'
'hs'
'hosp'
'hodin_'
'hn_'
'hio'
'hetetlen'
'hera'
'heparina_'
'hazard'
'halog'
'gátl'
'gyá'
'gyakori_'
'gonoc'
'gloss'
'gingiva'
'gekoppelt_'
'ganglio_'
'före_'
'fun'
'frig'
'fresh_'
'freeze'
'formé'
'formin'
'folk_'
'foc'
'fantastic_'
'fade'
'extrai'
'etine_'
'etamin'
'está_'
'ermöglich'
'erfa'
'erati'
'epti'
'epr'
'epiz'
'ender_'
'enable'
'emission_'
'emia'
'emat'
'elég'
'elv'
'electron_'
'ead'
'dö_'
'dump'
'dst'
'downward'
'dospěl'
'doms'
'domain_'
'dlouho'
'diz'
'disse'
'disposé_'
'dispensing_'
'disa'
'diph'
'develop_'
'desse'
'design'
'delayed_'
'defer'
'decoding_'
'decid'
'dark_'
'czna_'
'cup'
'culi'
'crystal'
'couplé'
'coraz'
'convey'
'contrôle'
'contract'
'congesti'
'conforme_'
'conca'
'communicate'
'collection_'
'collecti'
'cles_'
'clamp_'
'ciąż'
'chromo'
'całkowi'
'cati'
'cancel'
'butyr'
'brei'
'boot'
'bob'
'bezüglich_'
'besk'
'benign'
'automatically_'
'atie_'
'asu'
'association_'
'assa'
'ass'
'arch'
'aque'
'appendi'
'angle'
'ampicilina_'
'ambient'
'alternativ'
'alny'
'albu'
'ajánl'
'ains'
'aha'
'aem'
'adag_'
'actuating_'
'acet'
'Zusammen'
'Zapom'
'Zahn'
'Wybacz_'
'Víš_'
'Vesic'
'VL'
'VEL'
'Universit'
'Transporte'
'Transc'
'Tests_'
'Ted'
'Tati_'
'Tap'
'Tabel'
'TRAT'
'TOR'
'Stö'
'Still'
'Step'
'Second_'
'Sally_'
'STERILE_'
'Rz'
'Reaktions'
'Rau'
'Rapid_'
'RIN_'
'RECO'
'RAT'
'QUE_'
'Pé'
'Prozessor'
'Pneumonia_'
'Platten'
'Pete_'
'Perfor'
'PET'
'PAN'
'Oti'
'Ort'
'Oi'
'Num'
'Night_'
'Nic'
'Nej'
'Neg'
'NK_'
'NER'
'ND_'
'Méh'
'Myocardi'
'Musimy_'
'Muscular_'
'Możesz_'
'Moż'
'Montage'
'Mischung_'
'Minist'
'Migra'
'Method'
'Menjünk_'
'Mechani'
'Lösung_'
'Lud'
'Loca'
'Leo'
'Law'
'LIQUID_'
'Konzentrat'
'Kno'
'Jones_'
'Jdi_'
'Jason_'
'Jad'
'Hív'
'Hz_'
'Hyperp'
'Hr'
'HF'
'Guan'
'Glucos'
'Gewichts'
'Gesamt'
'Geni'
'GEL'
'Fibrom'
'Fasci'
'Ezek_'
'Espa'
'Enz'
'Electric'
'Elast'
'ETI'
'E4'
'Dian'
'Diabetic'
'Dest'
'Dean_'
'Dan_'
'DIF'
'DERIV'
'Cos_'
'Cortic'
'Convulsi'
'Conce'
'Code'
'Clinical_'
'Chciał'
'Cai'
'CUL'
'CRE'
'CD3'
'Blue_'
'Bli'
'Bev'
'Bereiche'
'Becca_'
'Bec'
'BL'
'Ax'
'August_'
'Antic'
'Alle'
'Ain_'
'About_'
'ATPas'
'ATP_'
'ASE'
'AND'
'AME'
'ACETATE_'
'6b_'
'401'
'190'
'149'
'126_'
'10a_'
'. . . . . ._'
', • _'
' ♪ _'
' ''
'₆_'
'žluč'
'świad'
'říd'
'řekl_'
'Řík'
'łania'
'łac'
'ęty'
'čit'
'üb'
'össze_'
'ösen_'
'ół_'
'ótica_'
'íř'
'íná'
'íac'
'étique_'
'éter_'
'écoulement_'
'ått'
'ära_'
'änk'
'ähl'
'átr'
'áld'
'Ön'
'zít'
'způsobe'
'zostan'
'znam'
'zia_'
'zgo'
'zato'
'yśl'
'ywn'
'ylate_'
'yec'
'wio'
'weise_'
'weight'
'wch'
'wards_'
'végtag'
'vyl'
'veszély'
'verlä'
'verf'
'vall'
'valent'
'utveckla'
'utic'
'ussi'
'urg_'
'updated_'
'unav'
'umfassen_'
'ulk'
'uká'
'ugr'
'ug_'
'uděl'
'ubl'
'tőle'
'turned_'
'tup'
'träd'
'tricu'
'transformer_'
'tra_'
'toxo'
'toler'
'tkank'
'tiva_'
'ticu'
'tg'
'team_'
'tazo'
'tartoz'
'tRNA_'
'sérülése'
'szö'
'számít'
'szemé'
'syst'
'swoi'
'swin'
'swab'
'sulfat'
'substituent'
'subluxa'
'stein_'
'stear'
'steady_'
'starch_'
'stap'
'spon'
'specifically_'
'spad'
'soud'
'solo'
'skeletal_'
'sju'
'shield_'
'sev'
'scu'
'scope_'
'scha'
'satisf'
'sart'
'sampling_'
'röv'
'rób'
'roto'
'rock'
'rny'
'ript'
'reve'
'ressort_'
'rent_'
'recommendation'
'rdl'
'rden'
'rava'
'radi'
'páni'
'purs'
'ptic_'
'psyk'
'psoriasis_'
'proxima'
'prostřed'
'produi'
'problema'
'predniso'
'ppy_'
'pour'
'postpartum_'
'postp'
'politi'
'plá'
'planar_'
'phenol_'
'penic'
'patterns_'
'pathia_'
'particulate_'
'parc'
'oš'
'oxyde_'
'owe'
'ov_'
'otr'
'oste'
'osph'
'optic'
'opri'
'ood_'
'onine_'
'onduct'
'onal'
'omia'
'olvas'
'ocyto'
'ocel'
'observation_'
'obie'
'näm'
'nyc'
'nly_'
'nič'
'niñ'
'nim'
'nežádoucí'
'nevím_'
'nejs'
'naz'
'nasa'
'narrow'
'napon'
'napi_'
'může'
'měchýře_'
'módosítás'
'mí_'
'méta'
'mécanisme_'
'mozku_'
'movements_'
'mov'
'motif_'
'monomère'
'molekul'
'moiety_'
'modifié'
'miz'
'mitteln_'
'mita'
'minst_'
'menu'
'menj_'
'mela'
'maz'
'mask'
'marr'
'lány_'
'lymfo'
'lym'
'lph'
'long'
'livsmedel'
'lipide'
'lika_'
'lich'
'libér'
'lez'
'lesquels_'
'lesions_'
'legal_'
'leading_'
'latérale'
'lactat'
'kła'
'kíván'
'kám_'
'která_'
'ksa'
'kompe'
'knew_'
'kla_'
'kiütés_'
'khe'
'keep'
'kapp'
'kape'
'jiné'
'jedne'
'itati'
'irritab'
'irgendeinem_'
'inny'
'init'
'ini_'
'ingen'
'infecciosa_'
'indiqu'
'incorporated_'
'imit'
'ilina_'
'ij_'
'ificación_'
'ieni'
'iec_'
'idon'
'idal_'
'iant'
'iana_'
'hí'
'hoppas_'
'hoo_'
'hme'
'hlas'
'hittar_'
'hető_'
'hemat'
'gz'
'gyom'
'gust'
'guided_'
'grave_'
'gold'
'gk'
'gia'
'gere'
'genomför'
'gave_'
'gass'
'garn'
'főnök'
'fyzi'
'funkció'
'fungal_'
'follicular_'
'floxacin'
'flag'
'fie_'
'ficienc'
'festen_'
'fera'
'felü'
'fec'
'fatigue_'
'falling_'
'fahrzeug'
'extérieure_'
'expect'
'exercise_'
'ever'
'europeisk'
'eter_'
'especificadas_'
'erio'
'erfolgt_'
'erapia_'
'erap'
'eos'
'eol'
'ený'
'env'
'emplacement'
'ema_'
'eibe'
'egen_'
'dí_'
'dronat'
'dp'
'dosa'
'divid'
'dith'
'disin'
'directi'
'diffus'
'diesteras'
'detekti'
'derivación_'
'dase_'
'daganat_'
'côt'
'cálc'
'cyl'
'cyanat'
'currently_'
'curio'
'cun'
'cres'
'conversation'
'constituant'
'conserv'
'confirmed_'
'concentrat'
'comprised_'
'cluster'
'clim'
'classification_'
'cięż'
'citos_'
'cita'
'cim'
'ciliar'
'ciał'
'chrom'
'chri'
'chop'
'chnitt'
'character_'
'centrifug'
'carotid_'
'carn'
'bír'
'byłe'
'byte'
'byli_'
'buf'
'bsor'
'breakfast_'
'branche'
'bother_'
'biologi'
'bevo'
'bes_'
'bas_'
'axes_'
'aussi_'
'ausges'
'atrophi'
'ath_'
'arra_'
'aperture_'
'annak_'
'anhydride_'
'alternating_'
'alam'
'aje'
'airway'
'agre'
'affecting_'
'advise'
'admi'
'adjust'
'additive_'
'accompan'
'Zone'
'Zmi'
'Zakażenie_'
'Wspó'
'Väl'
'Viv'
'Verm'
'Ve_'
'VERS'
'Unters'
'Umfangs'
'Ultras'
'URI'
'ULAT'
'UK'
'Tě'
'Tryp'
'Trom'
'Trif'
'Till_'
'Teilchen'
'TAC'
'Sweet_'
'Sui'
'Strai'
'Steuerung_'
'Seizure'
'SULF'
'STOR'
'Rut'
'Roll'
'Regel'
'Reflex'
'Rect'
'Rech'
'RIS'
'Quiet_'
'Propo'
'Process'
'Powiedział'
'Por_'
'Poj'
'Poi'
'Pocz'
'Pixel'
'Pete'
'Pancrea'
'Paget'
'Packag'
'PROCESS_'
'P2_'
'Old'
'OI'
'Nicotin'
'Nich'
'Nea'
'Naso'
'NTA'
'NL_'
'Myoc'
'Muc'
'Mitch'
'Mis'
'Mira'
'Milli'
'Magzat'
'MYCIN_'
'MEG'
'Lum'
'Ligand'
'Laura_'
'Laryn'
'Lad'
'Kohlenstoff'
'Kei'
'Kath'
'Kali'
'Jav'
'Jap'
'Intrav'
'Inhibi'
'Inflammatory_'
'Hypertensi'
'Hema'
'Gleit'
'Ges'
'Geb'
'Gard'
'GTP_'
'GRO'
'GH_'
'Fos'
'Formul'
'Ethylen'
'Erh'
'Epitheli'
'Ens'
'Elektron'
'ELECTRO'
'Contra'
'Conse'
'Conjunctiv'
'Conduct'
'Chuck'
'COMP'
'Boe'
'Bezug'
'Bakteri'
'Awesome_'
'Au_'
'Atrial_'
'Ata'
'Arteri'
'Appli'
'Anto'
'Antibody_'
'Anth'
'Angela_'
'Agency_'
'Aero'
'Adhe'
'Absolut'
'Absen'
'Abnormalit'
'Abl'
'Abi'
'ADE'
'ACTH_'
'96'
'3A_'
'20MG_'
'1mg_'
'1500'
'142_'
'003'
'+ '
') "_'
'…'
'żn'
'żd'
'Ży'
'ůžu_'
'říka'
'őv'
'ői'
'ět_'
'čního_'
'čem'
'üz'
'üveg'
'ührung'
'öffn'
'ódico_'
'ño'
'éva'
'émett'
'äß'
'ältnis'
'Éd'
'závažn'
'zyma'
'zmęcz'
'zeb'
'zakresie_'
'zaka'
'yth'
'ype_'
'yon'
'yno'
'ylase_'
'yda'
'xid_'
'wraca'
'wielo'
'weit'
'waf'
'věř'
'vě_'
'výk'
'vó'
'vyv'
'vyk'
'vyb'
'visible_'
'vina'
'vessels_'
'venos'
'vap'
'valam'
'valah'
'uvat'
'utsl'
'ution_'
'unta'
'univers'
'ungüento_'
'ulari'
'ukt'
'uill'
'ucz'
'uch_'
'ubo'
'tí_'
'typi'
'type'
'twojej_'
'twist'
'tur_'
'tudod_'
'trit'
'triple'
'trico'
'trak'
'train'
'tme'
'tkow'
'tiona'
'tion'
'timm'
'tillgänglig'
'tidin'
'tické_'
'thérapeutique'
'throw'
'tert_'
'term'
'temat_'
'teljesen_'
'teknisk'
'tail_'
'taga'
'szüksége'
'szerencsé'
'szczególn'
'sympath'
'switched_'
'své_'
'suffisa'
'succin'
'substan'
'stří'
'stér'
'studie'
'struktur_'
'stabilis'
'ssch'
'squamous_'
'spread_'
'spoj'
'solve'
'smě'
'skö'
'skra'
'skip'
'skape'
'sight'
'sied'
'sfor'
'sequential'
'seine'
'segíte'
'segít'
'schli'
'saj'
'růst'
'rés'
'réagi'
'réactif'
'ryl_'
'ryl'
'robot_'
'rní_'
'riñón_'
'rins'
'rig_'
'rias'
'resso'
'resistor_'
'repe'
'renal'
'rekonst'
'ref'
'reducción_'
'reakció_'
'rdo'
'range'
'rah'
'périphérique'
'pytani'
'published_'
'przewlekł'
'przep'
'propose'
'processeur_'
'prat'
'pozitivní_'
'použití_'
'porphyri'
'pomi'
'pola'
'pokud_'
'podzi'
'pocket'
'ples_'
'platten_'
'plasmátic'
'planer'
'placenta'
'pipera'
'pim'
'pian_'
'philic_'
'pharyngeal_'
'pharyng'
'perme'
'periodic'
'pera'
'pector'
'parche_'
'pala'
'pairs_'
'ozu'
'ovirus_'
'oul'
'otri'
'otin'
'osyl'
'osus_'
'osteop'
'ordinateur_'
'orba'
'orat'
'opar'
'ooh_'
'okb'
'ogén'
'ografía_'
'ogical_'
'offen'
'odst'
'obser'
'obro'
'objective_'
'närm'
'nosis_'
'normale'
'nna'
'niu'
'nipple'
'nios'
'nicotinamid'
'neopl'
'ndo_'
'ncia_'
'nazol'
'napos'
'myndighete'
'munká'
'mots'
'monta'
'monoh'
'modifier'
'mně_'
'mmen'
'miko'
'microc'
'mfort'
'metabolise'
'messe'
'mento_'
'menopaus'
'membranes_'
'melo'
'megfelelő_'
'mbe'
'maze'
'maint'
'lő_'
'lý_'
'léčbě_'
'lymphocyt'
'lvi'
'lv'
'lungs'
'lokaliz'
'loge'
'lja'
'litera'
'liter'
'liten_'
'lide'
'licens'
'lesb'
'leki_'
'legislati'
'lbe'
'lagar_'
'lacrimal_'
'krys'
'krevní_'
'kreatinin'
'koppl'
'komplement'
'komo'
'kommun'
'kluc'
'klini'
'kkel_'
'kept_'
'kej'
'kanal'
'kai_'
'jąc_'
'jím'
'junction_'
'joining_'
'jiných_'
'jeu'
'iść_'
'iś'
'iwa'
'iszt'
'isse'
'irregular'
'iov'
'ioti'
'intoleranc'
'interpos'
'interl'
'insol'
'inga'
'informatique_'
'informa'
'influ'
'inek_'
'implantation_'
'illuminat'
'igenom_'
'ige'
'ifie'
'idős'
'iber'
'häm'
'hyla'
'hran'
'holo'
'hlo'
'hli'
'heno'
'hemol'
'hange'
'halt'
'générale'
'größe'
'grati'
'grandm'
'glied_'
'gleichen_'
'genomförande'
'gastrointestin'
'ganglion'
'függ'
'förordning'
'future_'
'fragm'
'fluorin'
'fler_'
'file'
'fermé'
'felé'
'fejez'
'farmakokinet'
'eventu'
'ev_'
'europe'
'etzung_'
'ethi'
'etat'
'estenosis_'
'esta_'
'esper'
'erosi'
'erend'
'eram'
'epox'
'eniem_'
'engaged_'
'említése_'
'eless_'
'electrolyte_'
'elastische'
'ekk'
'ejsz'
'eide'
'ediat'
'děv'
'dział'
'durchgeführt_'
'dukt'
'dotycząc'
'disor'
'discre'
'différent'
'dichlor'
'diamètre_'
'dett'
'detailed_'
'depo'
'depart'
'decyzji_'
'dane_'
'dan_'
'cytosi'
'cv'
'cting_'
'csodá'
'csen'
'couver'
'costs_'
'cop_'
'conçu_'
'confiden'
'compos'
'commo'
'combining_'
'cole'
'circu'
'chromat'
'chov'
'chic'
'chari'
'ceftazidima_'
'cae'
'będzie'
'bori'
'bloqu'
'bilateral_'
'bilag'
'biel'
'bela'
'behov'
'bank_'
'ała_'
'azine_'
'azen'
'avg'
'ató'
'astr'
'asta'
'arterios'
'apte'
'anyu'
'ando'
'anchor'
'amputa'
'amnio'
'alcohol'
'aktyw'
'akarta'
'agan'
'adsorb'
'adrenalin'
'admis'
'administrering_'
'ací_'
'actionne'
'abschnitt'
'] - _'
'Zamknij_'
'Zabie'
'YLATE_'
'Wu'
'Won'
'Weg'
'Vorsp'
'Vorder'
'Viszlát_'
'Vern'
'URIN'
'Transport_'
'Toby_'
'Tinten'
'Think_'
'Terr'
'TROP'
'TNF_'
'TABLE'
'Szeret'
'System'
'Subs'
'Stenos'
'Sing'
'Septi'
'Self_'
'Scal'
'Sauerstoff'
'SOLONE_'
'SOLN_'
'SOFT_'
'SAN'
'Ruptur'
'Run'
'Robin_'
'Ric'
'Regional_'
'Reductase_'
'RAC'
'R3_'
'Proteínas_'
'Perforation'
'Perfect_'
'Perf'
'Pedi'
'Paar_'
'PT_'
'PROCÉDÉ_'
'Ome'
'Obj'
'NÍ'
'Ner'
'NEOPLAS'
'Mort'
'Mick'
'Metallo'
'Menn'
'Mars'
'Marg'
'MONO'
'Länge_'
'Laure'
'Lage_'
'Lace'
'LEUKEMIA_'
'Köszi_'
'Kwas'
'Know'
'Klebs'
'Kip'
'Kau'
'Jiné_'
'Jestli_'
'Iron_'
'Inten'
'Infek'
'IER'
'Hypertroph'
'Hydroxyl'
'How'
'Hav'
'Hank_'
'Grace_'
'Glutam'
'Gie'
'France_'
'Fly'
'Fant'
'Expl'
'Ethyl'
'Epis'
'Epinephrine_'
'Entl'
'EXTR'
'Drž'
'Diverti'
'Di_'
'Denna_'
'Defect'
'Def'
'Davi'
'DU_'
'DANS_'
'Cort'
'Comi'
'Clin'
'Clear_'
'Cia'
'Chorio'
'Cale'
'COMB'
'CAP'
'Bé'
'Borde'
'Boden_'
'Bloo'
'Bewe'
'Benn'
'Behandlung_'
'Bak'
'Azon'
'Atrophy_'
'Atom'
'Ammoni'
'Adenoma_'
'Absor'
'Abby_'
'ARC'
'700_'
'69'
'58'
'2MG_'
'260_'
'245'
'1c_'
' +_'
'₁'
'žu_'
'życia_'
'Że'
'štěn'
'ős_'
'ńskie'
'ęta'
'čník'
'ąpi'
'üre'
'údaj'
'ø'
'ôl'
'ówno'
'ógeno_'
'émetteur_'
'éco'
'ätt_'
'ändrad'
'äffa'
'álta'
'ács'
'záp'
'základ'
'zom_'
'zogen'
'znych_'
'ziti'
'zesp'
'zakażeni'
'ypti'
'ykl'
'xe_'
'wąt'
'wzrok'
'występowa'
'wu_'
'welle_'
'wax'
'ward_'
'wants_'
'vír'
'vérz'
'vám'
'vypadá'
'volunteer'
'vizsgálato'
'virov'
'verg'
'verbind'
'veled_'
'variation_'
'uše'
'uwag'
'urina'
'unte'
'unkt'
'unci'
'unbe'
'ument'
'ujte_'
'ucho'
'ucen'
'uation_'
'tú'
'tów_'
'tzen_'
'tumours_'
'tuk'
'tript'
'transplant_'
'transmit'
'transferring_'
'tillh'
'tien'
'tidigare_'
'tidig'
'thie'
'therefrom_'
'textile'
'testi'
'terhe'
'techn'
'tase'
'tagit_'
'tachy'
'tab_'
'szülés'
'szíves'
'szet'
'szczep'
'szab'
'synthase_'
'sync'
'svý'
'supplémentaire'
'subcla'
'stufe'
'stimulat'
'sth'
'stea'
'stanowi'
'sort_'
'solu'
'smittel_'
'sly'
'skarbie_'
'sitt_'
'sica_'
'shin'
'serin'
'sensitivity_'
'senare_'
'semmit_'
'seems_'
'sedan_'
'search'
'schw'
'scap'
'sap'
'sagt_'
'rty'
'rtuni'
'roztworu_'
'rosa_'
'rodi'
'rizik'
'rgani'
'respekt'
'resor'
'remi'
'refract'
'reconstitution_'
'příprav'
'příloh'
'pyrid'
'punkter'
'psychotic'
'prév'
'présence_'
'przez'
'prz'
'programm'
'professional'
'producen'
'previ'
'pressing_'
'prem'
'predominant'
'practic'
'potent'
'positioning_'
'pon_'
'polar'
'poko'
'poj'
'platelet_'
'pica'
'pharmazeutisch_'
'permettre_'
'pecific_'
'pathologi'
'path'
'parálisis_'
'partner'
'panic_'
'pacjent'
'oïd'
'osar'
'opho'
'onen'
'ondes_'
'ofen'
'obstruk'
'néhány_'
'nutí_'
'novi'
'normali'
'network'
'nervioso_'
'neop_'
'neme'
'nelle'
'needles_'
'nechá'
'nded_'
'natriu'
'nasopharyn'
'måle'
'mutation'
'multifo'
'mue'
'mors'
'morphol'
'monohydrate_'
'mill'
'mieli'
'microorganism'
'mennyi'
'menc'
'mellék'
'mean'
'matche'
'manifestation'
'malt'
'lycer'
'lution_'
'luor'
'lungs_'
'lump'
'ller_'
'likel'
'lepsz'
'leo'
'lay_'
'laugh_'
'lasa_'
'largeur_'
'lande'
'laminate'
'lagstiftning'
'laboratori'
'laborat'
'különb'
'képe'
'kvinna'
'kurz'
'kulární_'
'kul_'
'kova'
'kosz'
'kl_'
'kik'
'keh'
'kcj'
'jące'
'jämför'
'jul'
'judge'
'jne_'
'jaterní'
'jas'
'ischemic'
'iol'
'inwa'
'intrauterin'
'interact'
'inp'
'inj'
'iniz'
'ingre'
'ingenting_'
'iner_'
'indika'
'inder'
'indent'
'inclusion_'
'impress'
'imer'
'image'
'illed_'
'illat'
'ierte'
'iere'
'icus_'
'icke_'
'ibr'
'hónap'
'hívj'
'hár'
'hyperc'
'hydrocarbon'
'hur'
'hospital'
'horečka_'
'hodnocen'
'hoc'
'hmotnost'
'hipertr'
'hidrato_'
'hew'
'hau'
'gówno_'
'gál'
'gu_'
'granted_'
'gotas_'
'glucos'
'getrennt'
'getr'
'gesta'
'geschlossene'
'gemenskapen_'
'gate'
'ganglios_'
'füg'
'förteckn'
'förm'
'förhållande'
'freak'
'frag'
'folyamat'
'flig'
'flavo'
'fene'
'faz'
'fattar_'
'faste'
'fart_'
'familial_'
'faj'
'ezért_'
'extremi'
'express'
'explo'
'exclusive'
'espon'
'específico_'
'erme'
'erka'
'epin'
'eph'
'eosino'
'envoy'
'ensch'
'enek_'
'ened_'
'enda_'
'encephalopathy_'
'eltér'
'eksp'
'ející'
'edni'
'dérivé'
'dépla'
'dál_'
'ductal_'
'drow'
'doctor'
'diuretic'
'dextro'
'devi'
'destination_'
'degrad'
'defe'
'daga'
'czyc'
'cystein'
'csá'
'couple_'
'country_'
'contamina'
'consumer'
'compliance_'
'complementary_'
'commun'
'command'
'circuitry_'
'chut'
'chodz'
'chlape_'
'chambers_'
'ceptiv'
'całe'
'cavit'
'burne'
'breast'
'brazo_'
'brav'
'born'
'bord_'
'boi'
'bloc_'
'blastos_'
'bewirk'
'beve'
'betegség'
'bestimm'
'benzene'
'bedeutet_'
'bav'
'bast'
'badaniu_'
'azin'
'avia'
'aver'
'aux'
'aszo'
'asti'
'associat'
'asis'
'asi_'
'aromati'
'aria'
'aps'
'anxiety_'
'antimi'
'antecedente'
'anioni'
'andteil'
'analogue_'
'amputation_'
'alle_'
'alkan'
'alarm_'
'alacsony_'
'aill'
'agricultural_'
'adl'
'adja'
'adenom'
'addict'
'acut_'
'acro'
'acil'
'acie'
'Znajd'
'Víte'
'Visual_'
'VORRICHTUNG_'
'VAT'
'Understand_'
'Titan'
'Tipo_'
'Thym'
'Those_'
'Thir'
'Text'
'THR'
'T1'
'Słuchaj_'
'Szcze'
'Subacute_'
'Siste'
'Silic'
'Signale_'
'Sick'
'Schla'
'Rolle'
'Roger'
'Road_'
'RECOM'
'Pěkn'
'Pun'
'Posl'
'Porc'
'Poka'
'Phenyl_'
'Phe'
'Personal'
'Percutaneous_'
'Parameter'
'Pane'
'PSE'
'PROG'
'PES'
'Oi_'
'Nucleus_'
'Neoplasias_'
'Nech_'
'Natur'
'NS_'
'NON_'
'NITR'
'NAD'
'Mä'
'Micros'
'Metabolism_'
'Messe'
'Love_'
'LS_'
'Kv'
'Kurv'
'Kran'
'Kraftstoff'
'Justin'
'Jedna_'
'Iopamidol_'
'Iod'
'Inver'
'Infectious_'
'Infección_'
'Incision_'
'ISI'
'IONS_'
'ICATION'
'House_'
'Hot_'
'Hopp'
'Hop'
'Herm'
'Hemorragia_'
'Halter'
'HIN'
'Gree'
'Gono'
'Getr'
'Füll'
'Frå'
'Fon'
'Fila'
'Fever_'
'Fajn_'
'Exam'
'Europa_'
'Elv'
'Elektroden'
'EXTENDED_'
'EINER_'
'Děl'
'Dz'
'Dystroph'
'Duoden'
'Duke'
'Dolor'
'Doc'
'Dire'
'Deficiencies_'
'Datens'
'D2_'
'Cul'
'Court'
'Copolymer'
'Cons'
'COP'
'CEP'
'CAN'
'Butter'
'Bocsánat_'
'Behälter'
'Beau'
'Bass'
'Bada'
'B12_'
'Aty'
'Arra'
'Arc'
'Anl'
'Amin'
'ATIVE'
'AST'
'AINE'
'=- _'
'250mg_'
'1A_'
'132_'
'..."_'
'%)'
' --_'
'′'
'… _'
'“_'
'żył'
'śnia'
'řízen'
'řez'
'ősz'
'łóż'
'části_'
'ąs'
'önt'
'öd_'
'ónico_'
'óh'
'ította'
'íf'
'étrique'
'ésér'
'érzés_'
'érzéke'
'émis'
'écu'
'èn'
'ème_'
'äldr'
'zón'
'związan'
'zuführ'
'zte_'
'zmus'
'zlat'
'zho'
'zawa'
'zavaro'
'yła'
'ynu'
'yca'
'xie_'
'xide_'
'wrażliw'
'wild'
'wielk'
'wide_'
'wickl'
'wenc'
'weig'
'wb'
'warm_'
'ware_'
'více'
'väntar_'
'vänner_'
'vorher'
'voll'
'vitre'
'visco'
'vious'
'verbinde'
'ventr'
'vect'
'v6_'
'utan'
'usu'
'update'
'unsubstituted_'
'ungsa'
'ulla'
'uin'
'ugyan'
'uge'
'uds'
'tő_'
'törése'
'tve'
'tunk_'
'truc'
'transaction_'
'trans_'
'tovább_'
'toast_'
'tning_'
'tight'
'tický'
'tested_'
'terület'
'termé'
'terapii_'
'tent_'
'tekintet'
'tche'
'tang'
'sélectionnée'
'sådana_'
'szybko_'
'szon'
'szolgál'
'szob'
'systemet_'
'svou_'
'suture_'
'sudden'
'subdural_'
'stwo'
'stora_'
'statis'
'stark'
'stain_'
'ssion'
'ssig'
'ssen'
'spokoj'
'soust'
'souf'
'solva'
'snor'
'slep'
'skie'
'skar'
'sinter'
'simila'
'shing_'
'serogr'
'seitlich'
'schu'
'scht'
'samarbet'
'rů'
'rys'
'ryc'
'ruš'
'rua'
'rth'
'rri'
'roy'
'roue'
'rome'
'romb'
'riá'
'richte'
'rhino'
'rheumatoid_'
'rfa'
'resulta'
'ression_'
'represent_'
'repeated_'
'renální_'
'referen'
'rechte'
'reas_'
'rare'
'ramin'
'quant'
'période_'
'punt'
'punct'
'pui'
'puff'
'przyjaciel'
'protease_'
'prolo'
'projecti'
'proceed'
'poza'
'poważn'
'ports_'
'polyméri'
'playing_'
'plante_'
'pine'
'phr'
'personer_'
'periférico_'
'pericardi'
'pengar'
'penetrati'
'oy_'
'outputting_'
'others_'
'orze'
'ország'
'opposi'
'opic'
'ophil'
'onym_'
'odpowied'
'obtaining_'
'numéro'
'nowy'
'nomin'
'nomic'
'nome'
'nogen'
'ningss'
'niepożądane_'
'nici'
'ngar_'
'neuritis_'
'necro'
'naše_'
'műv'
'měrn'
'mère'
'mutual'
'muff'
'mord'
'mood_'
'mittlere'
'minden'
'midol_'
'methi'
'memori'
'megállap'
'manif'
'mais_'
'magán'
'läg'
'lymphatic_'
'lye'
'luoro'
'logiczn'
'liée'
'liqu'
'letter_'
'lens'
'learn_'
'leak'
'lax'
'lactati'
'kých_'
'kány'
'kyt'
'ktu'
'ktion_'
'krk'
'kott'
'kommittén'
'kind'
'key'
'keeping_'
'kamer'
'jätte'
'jában_'
'jenom_'
'jelit'
'iš'
'izquierda_'
'isie'
'iru'
'irre'
'inyl'
'inverte'
'inté'
'intervention_'
'interakc'
'inspection_'
'inle'
'infective_'
'incredibl'
'ince'
'immunog'
'immobili'
'illness_'
'ii'
'iew'
'iano_'
'hülye_'
'hört_'
'höhe'
'hígado_'
'hysi'
'hypote'
'hypoph'
'hoe'
'hodzi'
'hned_'
'histioc'
'herni'
'hemoragie_'
'heh_'
'heat'
'heading_'
'hay'
'haus'
'hagyj'
'gés_'
'gått_'
'guil'
'grip'
'grant'
'goods_'
'gift_'
'gge'
'genasa_'
'geeignet_'
'gation_'
'gang_'
'gag'
'försv'
'fören'
'få'
'freaking_'
'fournis'
'formi'
'forgalomba_'
'folgende'
'fok'
'flash'
'flap_'
'fizi'
'fir'
'filin'
'feste'
'femenin'
'feje'
'fahr'
'exu'
'extend_'
'evní'
'evaluated_'
'etric_'
'etr'
'estéril_'
'escal'
'ering'
'erad'
'enoid'
'encrypted_'
'emn'
'egyet_'
'egal'
'efedrina_'
'een_'
'děts'
'détecté'
'déca'
'dzwo'
'dried_'
'dras'
'dostępn'
'dores_'
'dokument_'
'dning_'
'disposés_'
'displa'
'dipropionat'
'dimin'
'diast'
'diabetic_'
'dej_'
'decan'
'dale'
'czys'
'cyclic_'
'csap'
'creating_'
'create_'
'cowa'
'court'
'corpor'
'conventional_'
'conven'
'conduite'
'concerns_'
'computer'
'communicating_'
'cm'
'chb'
'certifi'
'cefa'
'carpi'
'brush_'
'bror'
'bovine_'
'borat'
'bolt_'
'bleed_'
'blah_'
'biztos'
'bile'
'bezpieczn'
'betätig'
'betala'
'benn'
'beans'
'baci'
'authori'
'ausr'
'ausgewählte'
'atick'
'assiste'
'ards_'
'apa'
'anul'
'aneu'
'amylo'
'alve'
'ail_'
'adu_'
'acyl_'
'actuat'
'acknowledge'
'absolute_'
'Zdr'
'Wyda'
'Wst'
'Werte'
'Walden'
'Vag'
'Urethra'
'Tren'
'Thr'
'Thala'
'Term'
'Talál'
'Taki'
'Sut'
'Suck'
'Stone'
'Stir'
'Stick'
'Serie'
'Sequenz'
'Schraub'
'Schmi'
'Schicht'
'Salivary_'
'SW'
'SUST'
'SKIN_'
'Riv'
'Rickettsia'
'Respirat'
'Remek_'
'Quelle'
'QT_'
'Pł'
'Pójd'
'Psychos'
'Psy'
'Przyj'
'Prostaglandin_'
'Project'
'Procedur'
'Preparat'
'Pre_'
'Polyn'
'Pig'
'Phosphor'
'Pharmaceutical'
'Pharma'
'PROST'
'PROCE'
'PD_'
'PARTICULARS_'
'Oth_'
'Osteop'
'OMY'
'Nig'
'Napis'
'Nagy_'
'NPH_'
'Mouth_'
'Meß'
'Metod'
'Mei'
'Mehr'
'Maschine'
'Marl'
'Lás'
'Lys_'
'Lia'
'Leistungs'
'Leishmania_'
'Lacto'
'Lact'
'Korsako'
'KE_'
'Juli'
'Jay'
'Isolier'
'Into'
'Infan'
'Hypot'
'Hug'
'Hope_'
'Holl'
'Hodn'
'Herb'
'Helm'
'Headache'
'Hamm'
'Guid'
'Glycogen'
'Gehäuse'
'Fli'
'Fer'
'Facto'
'Endometri'
'Edi'
'Ear'
'EMEN'
'ELI'
'Drah'
'Doug_'
'Dista'
'Dip'
'Dil'
'Detekti'
'Demen'
'Deficit_'
'DIC'
'D3_'
'Czynnik_'
'Cus'
'Computed_'
'Color'
'Clu'
'Chci_'
'Cham'
'Ceft'
'Carrie_'
'CTURE_'
'CONC'
'Będzie_'
'Brussels_'
'Boden'
'Boc'
'Blut'
'Biz'
'Bill_'
'Baz'
'Automat'
'Aunt'
'Ash'
'Aryl'
'Andro'
'Adju'
'Aceta'
'Abst'
'Absch'
'AUTO'
'APPAREIL_'
'86'
'230_'
'201'
'128_'
'123_'
'10000'
'06'
'); '
'") _'
'")'
'₂'
'„_'
'żeby'
'ździ'
'ůže'
'średni'
'őt'
'ńczy'
'čl_'
'ąg'
'ýzy_'
'övervak'
'ół'
'ózis'
'ólic'
'ódi'
'íti'
'íta'
'égés'
'échantillons_'
'ål_'
'ärd'
'ára'
'áln'
'Üdvöz'
'Öffnung'
'Åt'
'Állj_'
'zód'
'zugeordnet_'
'zona_'
'zof'
'zien'
'zieh'
'zepam_'
'zatrzym'
'yer'
'ydra'
'yczne'
'yclo'
'xanth'
'występuj'
'wyn'
'wykorzyst'
'wre'
'wita'
'wiedział'
'wiam'
'warz'
'vírus_'
'végzett_'
'ván'
'vorhanden_'
'vite'
'viruses_'
'vigilan'
'vib'
'verrouill'
'ventila'
'vedl'
'vecteur_'
'vakcín'
'utilisée_'
'uten_'
'utbildning_'
'urog'
'upu'
'unt_'
'uniform_'
'ungsg'
'undertak'
'umí'
'ulati'
'ube'
'těles'
'tsz'
'trzec'
'trh'
'traum'
'transient_'
'tracto_'
'tott_'
'titta_'
'titre'
'tit_'
'tism'
'tif_'
'thal'
'terato'
'teach_'
'słych'
'sí_'
'ször'
'szó_'
'szek'
'symptom'
'switch'
'sure'
'summar'
'subtipo_'
'styczn'
'stupně_'
'stretch'
'streams_'
'stellung_'
'stellen_'
'stelle_'
'stabiliz'
'sség'
'ssystem'
'sperma'
'spend'
'sond'
'sodn'
'smärta'
'skur'
'skan'
'située_'
'simulat'
'silica_'
'sidan_'
'serol'
'sensible_'
'segment'
'scream'
'schicht'
'scheme_'
'scanne'
'samt'
'same'
'rý'
'rubr'
'rubb'
'rrhe'
'rozk'
'rique_'
'ride'
'revo'
'respect'
'reprodu'
'repeat_'
'rendellenesség_'
'relaps'
'regre'
'regenerat'
'recombina'
'reac'
'rapporte_'
'qué_'
'qué'
'quera'
'přípravky_'
'pís'
'pyridin'
'pup'
'psychiatr'
'prótesis_'
'provi'
'prosz'
'programmi'
'poś'
'poło'
'počkej_'
'pozitív_'
'powinien'
'porous_'
'polyamide_'
'plung'
'platform'
'plants_'
'pilla'
'pical_'
'pher'
'phases_'
'perv'
'periféri'
'peptidas'
'penti'
'peci'
'paste'
'passen'
'papier_'
'papa'
'oznacza'
'overl'
'ours'
'ouche_'
'osztály'
'ostrożn'
'ostatni'
'osfat'
'orph'
'origina'
'orific'
'ordning'
'opt'
'operat'
'ontr'
'onta'
'omyce'
'omlouvám_'
'omas'
'odbi'
'obtenid'
'nąć_'
'nár'
'nięcia_'
'nist'
'nienie_'
'niek'
'nicze'
'nicht'
'nheit'
'neurom'
'neuroe'
'nervové'
'nejsou_'
'napro'
'nagyobb_'
'mění_'
'mówi_'
'månad'
'människor_'
'myk'
'myc'
'mra'
'moron_'
'molécule'
'modify'
'mice_'
'metotrexato_'
'methacryl'
'megny'
'maternal_'
'mart'
'manne'
'mami'
'maintained_'
'magu'
'léčených_'
'länder'
'lusion_'
'lost'
'loid'
'linéaire_'
'lice'
'leitung'
'laris'
'larg'
'langu'
'lane'
'lactose_'
'labour_'
'labio'
'követően_'
'który'
'kte'
'krvi_'
'kring'
'kový'
'konk'
'kone'
'koncentration'
'kloubu_'
'klad'
'kini'
'kim_'
'kate'
'jsz'
'jestli_'
'jedno_'
'jaké'
'ition'
'itic_'
'iten'
'isp'
'isoimmuni'
'isch_'
'iram'
'inó'
'intersti'
'interro'
'interesting_'
'insuff'
'inso'
'inserción_'
'insect'
'ining_'
'inic'
'inert'
'indicates_'
'incre'
'incierto_'
'inan'
'improvement'
'implemented_'
'immunit'
'immunis'
'iltra'
'illo'
'iles'
'igo'
'igne'
'icl'
'icin'
'icera'
'ib_'
'iate'
'hír'
'hypertrophy_'
'hyperk'
'hurts_'
'hull'
'hlášen'
'hlad'
'hepatoc'
'hemma_'
'helyzet_'
'hands'
'hallga'
'haema'
'guiding_'
'grupper'
'gross'
'gonadotro'
'gonad'
'glycos'
'gill'
'gemessen'
'gebun'
'gare'
'ganze_'
'fört'
'fäl'
'frukt'
'frontal_'
'folia'
'fogad'
'foga'
'fluidi'
'flamm'
'fixée_'
'ferri'
'fenn'
'felv'
'fecskendő'
'familia_'
'ezte'
'ezpiecz'
'extent_'
'expenditure_'
'ethoxy'
'ethane'
'esquelétic'
'esa_'
'erythematosus_'
'ermittel'
'erek'
'eps'
'epine'
'epileptic'
'engaging_'
'enable_'
'emet'
'elké'
'elke'
'electrol'
'eif'
'eich'
'edet'
'désign'
'décr'
'déco'
'durchs'
'dowa'
'dovo'
'douc'
'donnée_'
'dny_'
'djur'
'disturb'
'diffusion_'
'differen'
'dier'
'dico'
'dichte'
'detergent_'
'depresi'
'deck'
'ců_'
'czon'
'cras'
'cramp'
'continuously_'
'containers_'
'consci'
'compuls'
'cní'
'cleane'
'cker'
'civ'
'cite'
'cian'
'chuck'
'cervic'
'cerebrovascular_'
'cep'
'centrale_'
'cefuroxim'
'carcinom'
'captur'
'calibr'
'bądź_'
'bres'
'bole'
'blastom'
'bj'
'biz'
'beslut'
'barbital_'
'bande'
'bana'
'bact'
'autonomi'
'auss'
'atra'
'atosis_'
'ataxi'
'argu'
'appliquée_'
'apparent'
'anywhere_'
'antibiotics_'
'antib'
'anm'
'aneurysm'
'anestesia_'
'andt'
'amig'
'alé'
'although_'
'alom'
'allowa'
'aligned_'
'aig'
'agudo_'
'afte'
'affin'
'affich'
'adresse'
'administer'
'adjacente'
'adeni'
'acét'
'acts_'
'aca_'
'absent_'
'\u — \u_'
'Zy'
'Zvýšen'
'Zacz'
'York'
'YY'
'Were'
'Weber_'
'Vážně_'
'Vezm'
'Varic'
'Uważa'
'Uv'
'Uncle_'
'Ugyan_'
'Tř'
'Tumors_'
'Translat'
'Tracy_'
'Trache'
'Teile_'
'Target'
'Tag'
'Tae'
'Tachy'
'Tab_'
'TRAI'
'TRAC'
'TIM'
'TIA'
'THER_'
'TAM'
'Słysz'
'Szá'
'Szerinte'
'Sym'
'Strom_'
'Stif'
'Společ'
'Spl'
'Spannung_'
'Sixt'
'Silv'
'Seven'
'Schli'
'Sad'
'SALINE_'
'Region_'
'Read'
'ROT'
'ROL'
'RECEPTOR_'
'Pó'
'Progressive_'
'Produc'
'Proc'
'Perc'
'Papa_'
'Page_'
'PROCEDURE'
'Ote'
'Organ'
'OVA'
'OSI'
'ODI'
'Någ'
'Nyom'
'Negative_'
'Nab'
'Miło'
'Metha'
'Megan_'
'Marshall_'
'MUN'
'MEDIC'
'MANUFACTUR'
'Luxemb'
'Legal'
'Left_'
'LM'
'LAG'
'Két'
'Kyle_'
'Kont'
'Kombin'
'KY'
'KOM_'
'Ist'
'Inve'
'Interm'
'Inhibitor_'
'IQ'
'ILLIN_'
'IFI'
'Hogy'
'Hidr'
'Hide'
'Head_'
'Hair'
'Gyak'
'Gate'
'GENERAL'
'Foto'
'Foet'
'Flüssigkeits'
'Fibri'
'Expo'
'Elemente_'
'Eh'
'EX_'
'EMB'
'Dysplasia_'
'Divi'
'Deckel'
'Deck'
'DROPS_'
'Corne'
'Coordinat'
'Compu'
'Cold_'
'Cluster_'
'Clark_'
'Chłoniak_'
'Cał'
'Carbo'
'Cand'
'CTR'
'CHR'
'CALCIUM_'
'Brod'
'Bond'
'Blan'
'Bewegung_'
'Behandl'
'Bedi'
'B2_'
'Auftr'
'Astr'
'Anest'
'Aktivi'
'Agonist'
'Again_'
'Abnormální_'
'ABNORM'
'79'
'77'
'67'
'220'
'154'
'152_'
'12a_'
'100mL_'
'. -'
'‘'
'Ź'
'ších_'
'řet'
'ňují'
'łuż'
'ěji_'
'časn'
'ązan'
'úk'
'újszülött'
'örs'
'öll'
'ófic'
'óf'
'íše'
'ító_'
'ítás_'
'ított_'
'étique'
'éthylène_'
'érz'
'énique'
'élev'
'ébr'
'èmes_'
'äpp_'
'äkt'
'ázi'
'árn'
'ána'
'ÉS'
'{'
'ządz'
'zú'
'zygo'
'zweites_'
'zusammenge'
'zowa'
'zok'
'zlomenina_'
'zgł'
'zet_'
'zentr'
'zagr'
'ylu'
'ycz'
'xina_'
'wspóln'
'worm_'
'wok'
'wodn'
'wny'
'wniosk'
'wieni'
'wewnątrz'
'weg_'
'washing_'
'wah'
'végez'
'växt'
'vyšetření_'
'vidět_'
'veszt'
'vertikal'
'veins_'
'vegetable'
'varl'
'vagytok_'
'utero'
'usual_'
'usk'
'ursäkt'
'urinari'
'unless_'
'ulti'
'uesta'
'udr'
'tá_'
'ttl'
'tropic_'
'trifluoro'
'trem'
'transistors_'
'tort'
'tope'
'tini'
'tial'
'threat'
'terre'
'tema'
'teda_'
'tace'
'słucha'
'słow'
'särskilda_'
'sát'
'szörös_'
'sza_'
'systém_'
'synthet'
'synthesi'
'syndrome'
'swallow'
'surro'
'sube'
'stężenia_'
'ständig_'
'stude'
'strach'
'steg'
'steam'
'stationary_'
'stabilize'
'stabilit'
'ssl'
'ssement_'
'soro'
'soo'
'socker'
'slan'
'skv'
'sila'
'shower_'
'sez'
'seudo'
'semic'
'segmenta'
'seggfej_'
'seed_'
'satt_'
'sale'
'ręk'
'récept'
'ré_'
'räck'
'ruppe'
'rstand'
'ropyl'
'reject'
'reggel'
'recurrente_'
'recub'
'recr'
'recom'
'recei'
'raise'
'race_'
'quio'
'píš'
'pyramid'
'pylor'
'ption'
'psychos'
'proxim'
'protilát'
'projecting_'
'programmable_'
'precipitat'
'pozosta'
'potahovan'
'polyneur'
'polyn'
'polyi'
'pohlav'
'plegi'
'phén'
'phalan'
'phag'
'perpendicula'
'peria'
'perfect'
'penetra'
'pedi'
'peak_'
'pathi'
'partiellement_'
'partiel'
'paral'
'paquets_'
'papp'
'pankreat'
'panels_'
'ością_'
'ox_'
'ovu'
'otte'
'osf'
'orio_'
'oria_'
'områden'
'omes_'
'oman'
'olim'
'okn'
'oint'
'ohled'
'odv'
'odt'
'obtenu_'
'nézz'
'náz'
'nzen'
'nyomás_'
'ntial'
'nová_'
'nosa_'
'nor_'
'nker'
'nivå_'
'nevid'
'netto'
'nesp'
'near'
'ndre'
'ndan'
'nbe'
'n1'
'mög'
'místo_'
'mycos'
'muc'
'moyenne_'
'mojej_'
'mmi'
'mitr'
'misst'
'minket_'
'miljoner_'
'metoder_'
'methylen'
'metho'
'medlemsstaterna_'
'margin_'
'march'
'map_'
'manual_'
'mante'
'magaz'
'lň'
'lí_'
'lát_'
'lumb'
'lud'
'loose_'
'lobulin'
'llow'
'lite'
'listopad'
'lind'
'lige'
'lico_'
'känd'
'kut'
'kristall'
'kort_'
'končetiny_'
'konju'
'kompis_'
'kommunikation'
'kombination'
'knock_'
'kille'
'kill'
'kicsim_'
'kev'
'kellett_'
'kategori'
'kalc'
'ję'
'játok_'
'junk_'
'jdo'
'jamy_'
'ięci'
'itts'
'irra'
'iones_'
'intrac'
'international_'
'interactions_'
'intell'
'institu'
'ingi'
'impedance_'
'impa'
'hypergly'
'host'
'hnu'
'hlavov'
'hla'
'herpesvirus_'
'hemia'
'helyet'
'hebe'
'határoz'
'hatá'
'harden'
'hag'
'hadn'
'görcs'
'granulomatos'
'grand_'
'godn'
'glasses_'
'gear'
'fí'
'fysi'
'fungu'
'frekvenc'
'frecuen'
'frakt'
'fractures_'
'fraction'
'forgive'
'folínico_'
'folks_'
'focus_'
'fob'
'flush'
'flicka'
'fles'
'fisis_'
'firi'
'figyelj_'
'fifth_'
'fi_'
'fellas_'
'falls_'
'facilitate'
'facet'
'ezen_'
'expressed_'
'exchanger_'
'etha'
'eth_'
'establish'
'esqui'
'escl'
'enyém'
'enthaltende'
'ennyi'
'enni'
'engage'
'enes_'
'emu'
'embarrass'
'elvál'
'elect'
'egyed'
'efficace_'
'edr'
'ece'
'ease'
'eal'
'dzies'
'dziecko_'
'dwa'
'dust'
'dum_'
'dröm'
'drinks_'
'dreams_'
'drawn_'
'doxi'
'dotyczących_'
'dolo'
'dolar'
'dobré_'
'dj_'
'distrofia_'
'disseminat'
'displaying_'
'disgusting_'
'disf'
'dirty_'
'director'
'dik_'
'diag'
'destruct'
'designate'
'deposition_'
'depending_'
'dena'
'delar_'
'decided_'
'deal'
'dawka'
'dann_'
'dand'
'câble_'
'często'
'czni'
'culo_'
'csó'
'cooperati'
'contraceptive'
'consulta'
'constituti'
'constituent'
'consi'
'conducto'
'comprim'
'complicación_'
'compensation_'
'compact'
'commen'
'collo'
'coefficients_'
'cnic'
'cking_'
'cirk'
'ciem'
'chromosome'
'chei'
'chai'
'centre'
'celk'
'cec'
'cava_'
'categori'
'cartucho_'
'cartilage_'
'byste_'
'bschnitt_'
'bruis'
'brill'
'bree'
'bras_'
'bort'
'borde'
'boldog'
'bism'
'biph'
'bib'
'bezpečn'
'bevis'
'bert_'
'behandlingen_'
'baw'
'basal'
'barv'
'bari'
'baja_'
'azot'
'aze'
'autom'
'atención_'
'asparta'
'arterioven'
'arterio'
'arta'
'arrest_'
'arre'
'aromatique'
'aris'
'arboxyl'
'aral'
'antivir'
'antigeny_'
'anticon'
'angiotensin_'
'anes'
'ands'
'ameri'
'algorithm'
'akarok_'
'ahead_'
'accepta'
'absorbent_'
']-_'
'Zał'
'Yell'
'XI_'
'Wol'
'Wieder'
'Vår'
'Vors'
'Volume'
'Vestibul'
'Verhältnis_'
'VAC'
'UDP_'
'Trzyma'
'Toxic'
'Thorac'
'T2_'
'Study_'
'Stress'
'Sten'
'Start'
'Sple'
'Somet'
'Somebody_'
'Soc'
'Selon_'
'Sarco'
'SPECI'
'R¹_'
'Rusz'
'Resist'
'Referenz'
'Ree'
'Rectal_'
'Radioi'
'RIE'
'RED'
'Przeci'
'Prost'
'Prior'
'Pressure_'
'Powie'
'Pierdol'
'Pes'
'PL_'
'PLASTIC_'
'PB'
'Ovarian_'
'Ode'
'Oczywiście_'
'OPER'
'OID'
'Nur'
'Nejsem_'
'NIN'
'Mys'
'Mod'
'Mitral'
'Menstrua'
'Megl'
'Medicinal_'
'Medica'
'Maria'
'Maradj'
'Malign'
'Maldi'
'METHYLP'
'Lil'
'Leuk'
'Lead'
'LEAFLET_'
'L2_'
'Külön'
'Körper'
'Kore'
'Kommer_'
'Komisj'
'Kara'
'José_'
'John'
'Ily'
'Ik'
'INC'
'Hör_'
'Hör'
'Holnap_'
'Harvey_'
'Hagyj'
'HYDROC'
'Gun'
'Gua'
'Gesch'
'Gamma_'
'Föl'
'Franci'
'Fluid_'
'Flex'
'Fir'
'Figure'
'FACTOR_'
'F2'
'Express'
'Exo'
'Event'
'Euratom_'
'Eno'
'Enge'
'Els'
'Ej'
'Eis'
'Ee'
'East'
'ETC_'
'ESTR'
'ERT'
'ENC'
'EM_'
'EH'
'EFF'
'Dí'
'Dr'
'Dod'
'Disk'
'Disco'
'Dime'
'DNI'
'DEP'
'Cyt'
'Cyan'
'Cr'
'Chroni'
'Christ'
'Carba'
'CYP2C'
'CYCLOPHOSPHAMIDE_'
'COND'
'CH₂'
'Budeš_'
'Block_'
'Blister'
'Black'
'Biolog'
'Bila'
'Bieg'
'Białka_'
'Bah'
'Aust'
'Atr'
'Answer_'
'Ansprüchen_'
'Angl'
'Aneurysm'
'Adverse_'
'AIR'
'ADP_'
'ADA'
'92'
'5b_'
'370_'
'30m'
'2D'
'2B_'
'225'
'215'
'205_'
'203_'
'1H_'
'158'
'13a_'
'138_'
'136_'
'-[_'
' ± _'
' ), _'
'α'
'żony'
'żona'
'żej_'
'űz'
'ůj_'
'ślu'
'Świetnie_'
'Řekn'
'łuc'
'łn'
'łc'
'ěla_'
'ępn'
'ączeni'
'ütés'
'ötte'
'ívá'
'ítj'
'éza_'
'éval'
'émic'
'élastique'
'ázo'
'ányo'
'Érte'
'ÉT'
'ÉS_'
'ÄN'
'·'
'zza'
'zwyk'
'zve'
'zierte'
'zau'
'z3'
'yó'
'yourselves_'
'yod'
'ylp'
'xime_'
'xami'
'wyż'
'wyłącz'
'worth_'
'wipe'
'wien'
'wiedzi'
'waves_'
'vérnyomás'
'vägen_'
'vorlieg'
'vize'
'virtuel'
'ventral'
'vely_'
'vasculitis_'
'vasculari'
'vascula'
'vanlig'
'vakcin'
'uwzględniając_'
'uvá'
'usn'
'ursprung'
'urn'
'urge'
'uran'
'unn'
'ulos_'
'uit_'
'ucze'
'tyczne_'
'turbine_'
'ttel'
'tránsito_'
'trimeth'
'trigger_'
'trevlig'
'trenn'
'treat'
'transporting_'
'transa'
'traité'
'traction_'
'track'
'tonic_'
'thumb_'
'theri'
'tev'
'tetrahydro'
'teral_'
'tende'
'tenan'
'telenség'
'tarto'
'tamp'
'tabell'
'só_'
'säure'
'sző'
'szám_'
'szpital'
'szex'
'szaka'
'szabály'
'syrup_'
'syringes_'
'symbol_'
'swój_'
'svůj_'
'sutur'
'surrounding_'
'suro'
'superp'
'sulfon'
'substituierte'
'subcutáne'
'streck'
'strati'
'stoo'
'stereo'
'stal_'
'społecz'
'spod'
'specify'
'spal'
'sova_'
'sobe'
'slav'
'skni'
'skap_'
'sif'
'sestr'
'scri'
'schaf'
'sato'
'sail'
'rör_'
'résultat'
'räk'
'rvi'
'rule_'
'rtis'
'rren'
'rozwi'
'room'
'rodilla_'
'rix_'
'riva'
'rett'
'retaine'
'reta'
'resonat'
'residen'
'relief_'
'rectang'
'recesse'
'reca'
'reacting_'
'rano'
'rado_'
'quet_'
'quet'
'qualité_'
'př'
'płod'
'pustul'
'pust'
'punci'
'prowadzi'
'prowadz'
'proton'
'protected_'
'propos'
'propor'
'proof_'
'primär'
'prime'
'prete'
'presenta'
'prepar'
'pravda_'
'pped_'
'pozorován'
'powodu_'
'pouc'
'postihující_'
'pome'
'polyol_'
'polyc'
'poliom'
'podstaw'
'podawan'
'ply'
'pleural_'
'pkt_'
'pit_'
'pilot_'
'pierwszy'
'pierwsze'
'picsába_'
'physiological'
'phleb'
'periods_'
'percent'
'peptides_'
'pend'
'pei'
'pancreatic_'
'oye'
'owl'
'owat'
'otro'
'othe'
'orts'
'orthogonal'
'orre'
'orin'
'organisation'
'opiek'
'opatía_'
'onti'
'onin_'
'onem'
'onego_'
'onar'
'omía_'
'oms'
'ogn'
'oftálmic'
'obrotu_'
'négy'
'nät'
'ntin'
'nové_'
'nolon'
'nobody_'
'nitra'
'nion_'
'ning'
'nha'
'nell'
'natal_'
'nara'
'napp'
'napa'
'métho'
'méně_'
'mät'
'myelog'
'možn'
'monos'
'mocz'
'mistake'
'minuter_'
'microwave'
'mety'
'metastasis_'
'mest'
'mers'
'mero'
'megint_'
'masto'
'makro'
'mainly_'
'lóbulo_'
'lyssna'
'lymphaden'
'luti'
'loud'
'losa'
'lise'
'limfocyt'
'lidi_'
'lic_'
'liar_'
'lehető'
'lecteur'
'lech'
'lands_'
'laj'
'labil'
'kční_'
'körül'
'kurv'
'ktione'
'kse'
'kožní'
'koord'
'konsument'
'kocsi'
'klapp'
'kinetic'
'kina'
'killing_'
'kezelésé'
'každ'
'kand'
'jmen'
'jazyk'
'jar'
'jam_'
'ière_'
'istotn'
'isolier'
'isofánica_'
'iow'
'introdu'
'intrat'
'inhibiting_'
'inhibite'
'ingo'
'införa'
'infrar'
'indol'
'individu'
'indications_'
'inactivat'
'importan'
'ifrån_'
'iero'
'iego_'
'iecz'
'ieb'
'idosis_'
'idl'
'idas'
'ibility_'
'iban'
'hält'
'három'
'hyster'
'hypoplasia_'
'hypop'
'hypertenz'
'hydrok'
'hundred_'
'htm'
'hrombin_'
'holnap_'
'hoch'
'histiocytosis_'
'hinder'
'hexi'
'hemorr'
'helic'
'hane'
'hallott'
'hae'
'gę'
'gówn'
'gí'
'gés'
'gälla'
'guidage_'
'gree'
'grant_'
'glutar'
'glicer'
'glands_'
'generalized_'
'gelagert'
'gastroenteriti'
'gaseous_'
'förslag_'
'fumarat'
'fu_'
'formula'
'forearm_'
'font'
'fonction'
'folde'
'fod'
'foam'
'flächen_'
'fluconazol'
'float'
'fleb'
'fiúk_'
'fiko'
'fier_'
'fick'
'ffe_'
'festge'
'fes'
'extract_'
'etes_'
'esé'
'esin'
'escen'
'erstes_'
'erson'
'erge'
'epitheli'
'episode_'
'epip'
'epim'
'entspricht_'
'ension'
'enol'
'enjoy_'
'elégtelenség_'
'elsz'
'elektron'
'eive'
'einsch'
'eid'
'efficient'
'ectopic'
'easi'
'déterminée'
'dziw'
'dystr'
'durchg'
'dró'
'donor'
'domaine_'
'dodatk'
'dna'
'disz'
'dispense'
'directional'
'diluyente_'
'different'
'depres'
'demenc'
'dasa_'
'dalo'
'célula_'
'czyta'
'cznych_'
'czerwca_'
'cytom'
'cylindre'
'custom'
'cultur'
'csökkenés'
'csk'
'család'
'cox'
'coura'
'cook'
'controls_'
'consumption_'
'consequen'
'connecte'
'computa'
'colora'
'collar_'
'colisión_'
'clínic'
'classe'
'cion'
'chłopc'
'chip'
'charging_'
'cea'
'caught_'
'cateur'
'carr'
'cadera_'
'cabeza_'
'byt'
'buněčn'
'bug'
'bsch'
'brä'
'brzmieni'
'bruc'
'brot'
'brev'
'blå'
'bles'
'blanda'
'bir'
'biologique'
'billi'
'bett'
'benza'
'bels'
'bedr'
'bati'
'ball'
'bal_'
'avoid_'
'auricul'
'aufz'
'atas'
'aspart'
'arrhythmia'
'arrange'
'aqu'
'aphth'
'anv'
'antite'
[...]
