'<pad>'
'<EOS>'
', _'
'the_'
'._'
'of_'
'и_'
'and_'
'_'
'в_'
'to_'
'-_'
'in_'
'. _'
'/_'
' (_'
'a_'
'on_'
'for_'
'на_'
'по_'
'с_'
') _'
':_'
's_'
'The_'
'that_'
'е_'
'а_'
'is_'
': _'
'1_'
'by_'
'о_'
'with_'
'as_'
'й_'
'be_'
'для_'
'что_'
'2_'
'м_'
'не_'
'к_'
'3_'
'В_'
'are_'
'from_'
'or_'
'5_'
'was_'
'4_'
'; _'
',_'
';_'
'at_'
'года_'
'its_'
'я_'
'ы_'
' - _'
')_'
'у_'
'х_'
' "_'
'not_'
'или_'
'it_'
'an_'
'which_'
'также_'
'have_'
'A_'
''_'
'e_'
'United_'
'(_'
'), _'
'10_'
'от_'
'из_'
'their_'
'this_'
'го_'
'all_'
'ing_'
')._'
'will_'
'In_'
'их_'
'7_'
'за_'
'6_'
'd_'
'8_'
'Nations_'
'has_'
'ed_'
'Committee_'
'12_'
'also_'
'Объединенных_'
'Наций_'
'9_'
'11_'
'Организации_'
'I_'
'как_'
'you_'
'other_'
'его_'
'ая_'
'15_'
'General_'
'been_'
'ом_'
'C_'
'ой_'
'ю_'
'которые_'
'00_'
'States_'
'ми_'
'were_'
'had_'
' , _'
'ть_'
'0_'
'y_'
'international_'
'S_'
'чтобы_'
'" _'
'would_'
'20_'
'30_'
'области_'
'should_'
'development_'
'ов_'
'rights_'
't_'
'то_'
'16_'
'том_'
'ую_'
'It_'
'Council_'
'ь_'
'report_'
'information_'
'es_'
'14_'
'ее_'
'18_'
'more_'
'17_'
'2009_'
'13_'
'countries_'
'т_'
'work_'
'such_'
'://_'
'can_'
'21_'
'http_'
'человека_'
'time_'
'including_'
'25_'
'при_'
'развития_'
'resolution_'
'того_'
'19_'
'under_'
'ых_'
'до_'
'b_'
'new_'
'более_'
'22_'
'году_'
'будет_'
'national_'
'human_'
'ого_'
'ей_'
'one_'
'23_'
'были_'
'made_'
'any_'
'вопросам_'
'they_'
'бы_'
'session_'
'Assembly_'
'это_'
'2010_'
'- _'
'This_'
'Ñ_'
'support_'
'n_'
'29_'
'деятельности_'
'2008_'
'все_'
'во_'
'этой_'
'Ð_'
'отношении_'
'?_'
'up_'
'his_'
'International_'
'we_'
'but_'
'Convention_'
'но_'
'out_'
'women_'
'may_'
'прав_'
'c_'
'ся_'
'24_'
'может_'
'соответствии_'
'ли_'
'your_'
'who_'
'activities_'
'связи_'
'State_'
'’_'
'Commission_'
'2007_'
'н_'
'against_'
'ые_'
'всех_'
'время_'
'well_'
'meeting_'
'into_'
'2011_'
'является_'
'между_'
'ly_'
'between_'
'ем_'
'2012_'
'об_'
'r_'
'o_'
'about_'
'"_'
' #_'
'рамках_'
'было_'
'°_'
'2006_'
'работы_'
'же_'
'www_'
'through_'
'2016_'
'со_'
'shall_'
'26_'
'2005_'
'С_'
'i_'
'Government_'
'per_'
'тем_'
'му_'
'implementation_'
'system_'
'Secretary_'
'2000_'
'быть_'
'there_'
'number_'
'm_'
'#_'
'целях_'
'резолюции_'
'05_'
'ый_'
'27_'
'2013_'
'ами_'
'two_'
'if_'
'женщин_'
'those_'
'We_'
'06_'
'04_'
'должны_'
'был_'
'them_'
'May_'
'paragraph_'
'сессии_'
'country_'
'01_'
'он_'
'people_'
'50_'
'качестве_'
'Совета_'
'these_'
'2004_'
' – _'
'стран_'
'мы_'
'he_'
'31_'
'ие_'
'measures_'
'l_'
'AM_'
'use_'
'28_'
'они_'
'который_'
'Комитет_'
'ng_'
'"._'
'этого_'
'помощи_'
'than_'
'order_'
'E_'
'December_'
'", _'
'программы_'
'ое_'
'us_'
'Development_'
'только_'
'после_'
'других_'
'our_'
'organizations_'
'Генеральной_'
'law_'
'2003_'
'детей_'
'г_'
'some_'
'first_'
'economic_'
'during_'
'cooperation_'
'03_'
' «_'
' -- _'
'которых_'
'им_'
'ет_'
'включая_'
'children_'
'Conference_'
' **** _'
'over_'
'only_'
'2015_'
'страны_'
'л_'
'безопасности_'
'years_'
'regional_'
'members_'
'draft_'
'President_'
'Mr_'
'Group_'
'этих_'
'США_'
'areas_'
'al_'
'лиц_'
'которая_'
'Республики_'
'public_'
'provide_'
'no_'
'er_'
'Security_'
'Add_'
'08_'
'системы_'
'ных_'
'2014_'
'000_'
'% _'
'этом_'
'права_'
'обеспечения_'
'если_'
'so_'
'security_'
'non_'
'issues_'
'November_'
'48_'
'level_'
'ым_'
'process_'
'now_'
'financial_'
'do_'
'cent_'
'article_'
'период_'
'ах_'
'management_'
'когда_'
'ки_'
'when_'
'right_'
'make_'
'h_'
'efforts_'
'L_'
'так_'
'случае_'
'мира_'
'same_'
'possible_'
'based_'
'основе_'
'ам_'
'world_'
'02_'
' +_'
'частности_'
'государства_'
'На_'
'Генерального_'
'year_'
'held_'
'PM_'
' <<_'
'следует_'
'своей_'
'most_'
'ensure_'
' »_'
'секретаря_'
'могут_'
'информации_'
'provided_'
'persons_'
'period_'
'many_'
'2002_'
'год_'
'ion_'
'further_'
'following_'
'Rights_'
'2001_'
'ется_'
'case_'
'Republic_'
'July_'
'09_'
'ыми_'
'said_'
'related_'
'data_'
'com_'
'assistance_'
'June_'
'B_'
'организации_'
'ий_'
'будут_'
'Мы_'
'training_'
'need_'
'At_'
'ходе_'
'осуществления_'
'можно_'
'« _'
'within_'
'view_'
'October_'
'меры_'
'дня_'
'services_'
'As_'
'1999_'
'под_'
'taken_'
'take_'
'education_'
'Special_'
'Office_'
'II_'
'уровне_'
'группы_'
'resources_'
'programmes_'
'could_'
'Human_'
'лет_'
'государств_'
'Конвенции_'
'А_'
'programme_'
'40_'
'ресурсов_'
'образом_'
'населения_'
'доклад_'
'декабря_'
'Ассамблеи_'
'On_'
'=_'
'07_'
'particular_'
'ation_'
'средств_'
'ные_'
'ия_'
'информацию_'
'health_'
'each_'
'World_'
'Reply_'
'35_'
'1997_'
'свои_'
'данных_'
'p_'
'g_'
'area_'
'action_'
'To_'
'1995_'
'была_'
'Безопасности_'
'social_'
'free_'
'37_'
'долл_'
'без_'
'Я_'
'place_'
'part_'
'developing_'
'agenda_'
'accordance_'
'able_'
'January_'
'36_'
'ют_'
'Г_'
'technical_'
'ru_'
'relevant_'
'party_'
'must_'
'million_'
'important_'
'both_'
'1998_'
'ются_'
'развитию_'
'она_'
'внимание_'
'peace_'
'her_'
'end_'
'60_'
'33_'
'особенно_'
'ного_'
'международного_'
'действий_'
'adopted_'
' “_'
' ._'
'являются_'
'чем_'
'сотрудничества_'
'staff_'
'set_'
'legal_'
'de_'
'September_'
'March_'
'1993_'
'числе_'
'ка_'
'И_'
'regard_'
'my_'
'le_'
'k_'
'item_'
'community_'
'Russian_'
'No_'
'47_'
' $_'
'управления_'
'ться_'
'сти_'
'вопросу_'
'requested_'
'military_'
'continue_'
'capacity_'
'building_'
']_'
'You_'
'34_'
'' _'
'решение_'
'мер_'
'Комиссии_'
'Для_'
'without_'
'where_'
'special_'
'en_'
'decision_'
'available_'
'He_'
'D_'
'49_'
'1994_'
'течение_'
'ный_'
'ной_'
'ла_'
'Это_'
'like_'
'include_'
'before_'
'32_'
'!_'
'целью_'
'правам_'
'положения_'
'project_'
'general_'
'Member_'
'52_'
' [_'
'ями_'
'стороны_'
'них_'
'К_'
'what_'
'tion_'
'three_'
'necessary_'
'being_'
'\u_'
'National_'
'For_'
'European_'
'57_'
' _'
'членов_'
'уже_'
'сть_'
'статьи_'
'против_'
'поддержку_'
'working_'
'used_'
'basis_'
'New_'
'этот_'
'усилия_'
'вы_'
'Комитета_'
'progress_'
'full_'
'appropriate_'
'access_'
'Posted_'
'46_'
') (_'
'эти_'
'таких_'
'проблемы_'
'необходимо_'
'upon_'
'see_'
'field_'
'control_'
'43_'
'42_'
'39_'
'1996_'
'тся_'
'ни_'
'другие_'
'По_'
'reports_'
'policies_'
'how_'
'established_'
'currently_'
'change_'
'Working_'
'Board_'
'51_'
');_'
' / _'
'решения_'
'помощь_'
'» _'
'very_'
'recommendations_'
'present_'
'policy_'
'ies_'
'high_'
'among_'
'100_'
'программ_'
'политики_'
'поддержки_'
'Телефон_'
've_'
'specific_'
'results_'
'respect_'
'html_'
'future_'
'conditions_'
'[_'
'Phone_'
'Court_'
'August_'
'53_'
'участие_'
'уровня_'
'те_'
'обеспечить_'
'национальных_'
'еще_'
'есть_'
'возможность_'
'way_'
'violence_'
'ts_'
'technology_'
'service_'
'role_'
'provisions_'
'parties_'
'good_'
'addition_'
'Organization_'
'Ministry_'
'April_'
'Africa_'
'54_'
'45_'
'38_'
'различных_'
'проекта_'
'проведения_'
'подготовки_'
'trade_'
'situation_'
'government_'
'gender_'
'Article_'
'странах_'
'работе_'
'принять_'
'Совет_'
'line_'
'institutions_'
'increase_'
'found_'
'after_'
'account_'
'above_'
'Economic_'
'роль_'
'поскольку_'
'ние_'
'которой_'
'где_'
'Он_'
'Кроме_'
'Вы_'
'sector_'
'second_'
'protection_'
'nuclear_'
'needs_'
'issue_'
'group_'
'f_'
'because_'
'Programme_'
'55_'
'средства_'
'решений_'
'наиболее_'
'использования_'
'защиты_'
'submitted_'
'review_'
'private_'
'political_'
'person_'
'market_'
'budget_'
'R_'
'58_'
'” _'
'сотрудников_'
'соответствующих_'
'принятия_'
'ная_'
'людей_'
'значение_'
'д_'
'requirements_'
'required_'
'own_'
'local_'
'Protocol_'
'P_'
'III_'
':: _'
'ям_'
'услуг_'
'территории_'
'расходов_'
'основных_'
'либо_'
'которое_'
'ить_'
'ение_'
'всего_'
'while_'
'society_'
'rs_'
'projects_'
'meetings_'
'major_'
'environment_'
'effective_'
'Fund_'
'41_'
'2017_'
'результате_'
'пункт_'
'вновь_'
'О_'
'th_'
'procedures_'
'life_'
'document_'
'day_'
'am_'
'agencies_'
'There_'
'Social_'
'Parties_'
'If_'
'59_'
'своих_'
'новых_'
'международных_'
'жизни_'
'группа_'
'говорит_'
'всем_'
'Если_'
'poverty_'
'noted_'
'global_'
'civil_'
'ce_'
'best_'
'They_'
'Affairs_'
'1992_'
'":"_'
'торговли_'
'ской_'
'призывает_'
'менее_'
'ии_'
'вопросы_'
'Как_'
'¸_'
'various_'
'received_'
'promote_'
'production_'
'ment_'
'member_'
'long_'
'even_'
'environmental_'
'consider_'
'cases_'
'authorities_'
'address_'
'Women_'
'66_'
'ч_'
'целей_'
'учетом_'
'участия_'
'условий_'
'создания_'
'отмечает_'
'органов_'
'касается_'
'деятельность_'
'weapons_'
'water_'
'population_'
'humanitarian_'
'force_'
'ers_'
'consideration_'
'concerned_'
'business_'
'Party_'
'And_'
'44_'
'путем_'
'процесса_'
'организаций_'
'мере_'
'лишь_'
'июня_'
'другими_'
'whether_'
'systems_'
'state_'
'principles_'
'light_'
'give_'
'discrimination_'
'different_'
'current_'
'contained_'
'But_'
'70_'
'64_'
'через_'
'себя_'
'связанных_'
'развитие_'
'потенциала_'
'организациями_'
'например_'
'ими_'
'имеет_'
'времени_'
'вопрос_'
'возможности_'
'Председателя_'
'Однако_'
'u_'
'resolutions_'
'plan_'
'main_'
'company_'
'age_'
'additional_'
'Mission_'
'F_'
'Action_'
'); _'
'этим_'
'цели_'
'стране_'
'образования_'
'мая_'
'годы_'
'вопросов_'
'particularly_'
'participation_'
'org_'
'note_'
'less_'
'legislation_'
'indigenous_'
'importance_'
'does_'
'behalf_'
'] _'
'South_'
'>> _'
'1990_'
'): _'
'","_'
'" (_'
'ях_'
'учреждений_'
'тех_'
'собой_'
'свою_'
'пункте_'
'проблем_'
'правительства_'
'персонала_'
'ноября_'
'марта_'
'котором_'
'должен_'
'Республика_'
'sustainable_'
'status_'
'police_'
'point_'
'operations_'
'much_'
'means_'
'exchange_'
'days_'
'already_'
'WP_'
'African_'
'56_'
'/ _'
' — _'
'проект_'
'правительство_'
'ось_'
'настоящее_'
'ему_'
'доклада_'
'Комиссия_'
'Группа_'
'using_'
'then_'
'making_'
'levels_'
'according_'
'M_'
'Kazakhstan_'
'February_'
'экспертов_'
'такой_'
'странам_'
'рекомендации_'
'работу_'
'процентов_'
'один_'
'можете_'
'ло_'
'лись_'
'категории_'
'ись_'
'деле_'
'двух_'
'борьбе_'
'Америки_'
'x_'
'total_'
'term_'
'site_'
'result_'
'request_'
'reported_'
'relating_'
'page_'
'land_'
'especially_'
'delegation_'
'conflict_'
'Minister_'
'Iraq_'
'таким_'
'согласно_'
'сделать_'
'районах_'
'относительно_'
'операций_'
'общества_'
'ния_'
'млн_'
'комитета_'
'изменения_'
'дел_'
'апреля_'
'um_'
'terms_'
'subject_'
'secretariat_'
'proposed_'
'lv_'
'impact_'
'concerning_'
'T_'
'Report_'
'N_'
'Law_'
'However_'
'Act_'
'? _'
'своего_'
'свое_'
'правах_'
'помощью_'
'очень_'
'оружия_'
'заседании_'
'Председатель_'
'since_'
'responsibility_'
'rate_'
'question_'
'improve_'
'him_'
'groups_'
'go_'
'framework_'
'four_'
'et_'
'contributions_'
'context_'
'ble_'
'agreed_'
'URL_'
'Secretariat_'
'Governments_'
' № _'
' /_'
'части_'
'сь_'
'счет_'
'проектов_'
'ным_'
'нет_'
'лица_'
'координации_'
'конференции_'
'июля_'
'ию_'
'здравоохранения_'
'ения_'
'должна_'
'действия_'
'даже_'
'towards_'
'statement_'
'room_'
'representative_'
'region_'
'power_'
'personnel_'
'me_'
'living_'
'expressed_'
'entitled_'
'date_'
'cultural_'
'amount_'
'V_'
'THE_'
'Declaration_'
'All_'
'этому_'
'участников_'
'такие_'
'сфере_'
'среди_'
'рекомендаций_'
'ому_'
'окружающей_'
'одного_'
'ную_'
'место_'
'доступа_'
'государствами_'
'ty_'
'third_'
'standards_'
'several_'
'ry_'
'risk_'
'response_'
'regions_'
'official_'
'ne_'
'monitoring_'
'list_'
'inter_'
'ic_'
'however_'
'growth_'
'forces_'
'develop_'
'decided_'
'considered_'
'city_'
'child_'
'These_'
'Executive_'
'Department_'
'62_'
', "_'
'":_'
'экономической_'
'члены_'
'учреждения_'
'условиях_'
'труда_'
'рассмотрения_'
'развивающихся_'
'представить_'
'оценки_'
'оказания_'
'него_'
'международной_'
'комитет_'
'вас_'
'больше_'
'Конференции_'
'v_'
'ted_'
'taking_'
'still_'
'representatives_'
'quality_'
'products_'
'procedure_'
'organization_'
'mandate_'
'large_'
'language_'
'ions_'
'given_'
'fully_'
'forum_'
'family_'
'energy_'
'down_'
'bodies_'
'G_'
'East_'
'Director_'
'Annex_'
'61_'
'200_'
'..._'
'+_'
'эта_'
'числа_'
'февраля_'
'содействия_'
'пункта_'
'ость_'
'общей_'
'ны_'
'нам_'
'над_'
'имеют_'
'здесь_'
'защите_'
'докладе_'
'гражданского_'
'Специального_'
'treatment_'
'self_'
'next_'
'might_'
'just_'
'increased_'
'help_'
'get_'
'food_'
'find_'
'existing_'
'discussion_'
'consultations_'
'application_'
'analysis_'
'addressed_'
'Y_'
'Rapporteur_'
' . _'
'укрепления_'
'технологий_'
'сентября_'
'ребенка_'
'процедуры_'
'право_'
'ок_'
'общего_'
'обеспечению_'
'ное_'
'необходимость_'
'национального_'
'которым_'
'доступ_'
'два_'
'бюджета_'
'Что_'
'П_'
'yet_'
'ting_'
'te_'
'st_'
'regarding_'
're_'
'provision_'
'men_'
'media_'
'know_'
'file_'
'equality_'
'course_'
'called_'
'agreement_'
'Union_'
'US_'
'OF_'
'Central_'
'Asia_'
'65_'
'экономического_'
'число_'
'человек_'
'ты_'
'стратегии_'
'случаях_'
'свой_'
'своем_'
'ряд_'
'производства_'
'поддержке_'
'перед_'
'октября_'
'новые_'
'мероприятий_'
'которого_'
'кой_'
'иностранных_'
'заседаний_'
'ен_'
'дискриминации_'
'групп_'
'выше_'
'Организация_'
'Е_'
'В'
'Ассамблея_'
'wipe_'
'took_'
'sexual_'
'responsible_'
'posts_'
'organized_'
'net_'
'ness_'
'mechanisms_'
'matters_'
'key_'
'hotel_'
'fact_'
'establishment_'
'domestic_'
'did_'
'developed_'
'dated_'
'continued_'
'care_'
'better_'
'attention_'
'adoption_'
'\\_'
'UN_'
'Trade_'
'T'
'Other_'
'O'
'High_'
'English_'
'ECE_'
'C'
'Bank_'
'Armenia_'
'67_'
' '
'сотрудничество_'
'реализации_'
'потребностей_'
'повестки_'
'осуществление_'
'ном_'
'необходимости_'
'местах_'
'которую_'
'контроля_'
'информация_'
'день_'
'выполнения_'
'возможностей_'
'У'
'С'
'Поэтому_'
'times_'
'therefore_'
'text_'
'strengthen_'
'research_'
'providing_'
'problems_'
'principle_'
'previous_'
'planning_'
'ons_'
'obligations_'
'name_'
'labour_'
'knowledge_'
'items_'
'informed_'
'gov_'
'ge_'
'former_'
'facilities_'
'effect_'
'documents_'
'decisions_'
'costs_'
'conference_'
'carried_'
'adequate_'
'X_'
'Service_'
'Management_'
'Geneva_'
'G'
'Foreign_'
'Education_'
'Centre_'
'>>, _'
'., _'
'):_'
' : _'
'ью_'
'сотрудничестве_'
'соответствующие_'
'случаев_'
'ский_'
'р_'
'предложения_'
'получить_'
'полиции_'
'одной_'
'некоторые_'
'компании_'
'должно_'
'документов_'
'государство_'
'годов_'
'Эти_'
'Она_'
'ООН_'
'Доклад_'
'Группы_'
'terrorism_'
'table_'
'study_'
'strong_'
'small_'
'promotion_'
'practices_'
'position_'
'plans_'
'php_'
'led_'
'last_'
'interest_'
'instruments_'
'governmental_'
'form_'
'equipment_'
'criminal_'
'coordination_'
'become_'
'another_'
'air_'
'With_'
'Joined_'
'H_'
'Federation_'
'During_'
'D'
'Code_'
'экономических_'
'финансирования_'
'услуги_'
'см_'
'силу_'
'разработке_'
'продолжать_'
'применения_'
'посредством_'
'поддержанию_'
'однако_'
'обслуживания_'
'ку_'
'использовать_'
'данные_'
'да_'
'вам_'
'борьбы_'
'ать_'
'августа_'
'Д'
'Все_'
'Во_'
'strengthening_'
'questions_'
'purposes_'
'proposal_'
'prevent_'
'peoples_'
'open_'
'observations_'
'nt_'
'ments_'
'informal_'
'included_'
'implement_'
'final_'
'direct_'
'design_'
'approach_'
'administrative_'
'Ukraine_'
'TRANS_'
'Ms_'
'Meeting_'
'L'
'Chairman_'
'80_'
'77_'
'1991_'
'. (_'
',"_'
'эффективности_'
'та_'
'статье_'
'социальных_'
'социальной_'
'систем_'
'сектора_'
'регионе_'
'рассмотрение_'
'разработки_'
'процесс_'
'принципов_'
'обязательства_'
'лся_'
'контексте_'
'имени_'
'здоровья_'
'другой_'
'достижения_'
'документ_'
'дела_'
'вместе_'
'Хотя_'
'При_'
'Международного_'
'Декларации_'
'»._'
'wish_'
'visit_'
'units_'
'transfer_'
'rules_'
'recent_'
'put_'
'purpose_'
'problem_'
'priority_'
'post_'
'pm_'
'periodic_'
'para_'
'others_'
'natural_'
'joint_'
'investment_'
'example_'
'establish_'
'due_'
'court_'
'cost_'
'close_'
'ch_'
'assessment_'
'art_'
'actions_'
'achieve_'
'V'
'Information_'
'First_'
'Agreement_'
'="_'
'63_'
'."_'
' ... _'
'января_'
'тот_'
'социального_'
'создать_'
'сил_'
'сессия_'
'результатов_'
'размере_'
'процента_'
'представители_'
'положений_'
'положение_'
'отметил_'
'осуществлению_'
'насилия_'
'нас_'
'консультаций_'
'власти_'
'анализа_'
'Р_'
'После_'
'О'
'Но_'
'Б'
'types_'
'thus_'
'speed_'
'sources_'
'section_'
'rule_'
'recommended_'
'provides_'
'property_'
'promoting_'
'practice_'
'mass_'
'km_'
'ity_'
'initiatives_'
'includes_'
'ii_'
'ia_'
'fundamental_'
'forms_'
'five_'
'expected_'
'early_'
'concern_'
'clear_'
'certain_'
'awareness_'
'annex_'
'Russia_'
'O_'
'Global_'
'Forum_'
'Europe_'
'Caribbean_'
'CN_'
'An_'
'Also_'
'Agency_'
'75_'
'характер_'
'уголовного_'
'технологии_'
'текста_'
'среды_'
'составляет_'
'следующие_'
'региональных_'
'расширения_'
'процессе_'
'проведение_'
'представления_'
'политических_'
'повышения_'
'поводу_'
'ости_'
'ней_'
'конкретных_'
'какие_'
'Миссии_'
'М_'
'Комитетом_'
'Генеральная_'
'»_'
'vehicle_'
't'
'submit_'
'server_'
'reporting_'
'reference_'
'recommendation_'
'presented_'
'past_'
'ors_'
'notes_'
'news_'
'meet_'
'materials_'
'issued_'
'intended_'
'href_'
'games_'
'funds_'
'foreign_'
'follow_'
'ding_'
'created_'
'conducted_'
'comprehensive_'
'complete_'
'commitment_'
'capital_'
'bring_'
'around_'
'armed_'
'annual_'
'What_'
'VI_'
'Permanent_'
'K_'
'IV_'
'Health_'
'“_'
'ция_'
'хотел_'
'функций_'
'уровнях_'
'управление_'
'стратегий_'
'создание_'
'совета_'
'скачать_'
'сказал_'
'систему_'
'ра_'
'просит_'
'преступности_'
'пока_'
'периода_'
'областях_'
'ним_'
'ниже_'
'кто_'
'ке_'
'ит_'
'интересах_'
'енные_'
'далее_'
'беженцев_'
'Т'
'П'
'Его_'
'А'
'z_'
'workers_'
'wide_'
'war_'
'want_'
'w_'
'treaties_'
'test_'
'team_'
'strategies_'
'stated_'
'significant_'
'serve_'
'regular_'
'reduction_'
'professional_'
'prevention_'
'prepared_'
'potential_'
'partners_'
'opportunities_'
'operational_'
'operating_'
'letter_'
'least_'
'laws_'
'ive_'
'internal_'
'individual_'
'income_'
'here_'
'having_'
'every_'
'enable_'
'concerns_'
'companies_'
'communities_'
'common_'
'cannot_'
'arrangements_'
'alia_'
'[ _'
'York_'
'While_'
'Tribunal_'
'Environment_'
'America_'
'According_'
'; (_'
'эту_'
'часть_'
'ции_'
'технической_'
'странами_'
'соглашения_'
'силы_'
'семьи_'
'себе_'
'роли_'
'результаты_'
'рабочих_'
'процедур_'
'провести_'
'представителей_'
'правосудия_'
'позволяет_'
'осуществлении_'
'основании_'
'обеспечение_'
'несколько_'
'нем_'
'национальном_'
'находится_'
'настоятельно_'
'нарушения_'
'многих_'
'мире_'
'международное_'
'которыми_'
'климата_'
'касающихся_'
'касающиеся_'
'использование_'
'именно_'
'детьми_'
'главным_'
'второй_'
'Э'
'Статья_'
'Соединенных_'
'Рабочей_'
'Они_'
'Д_'
'», _'
'x'
'views_'
'value_'
'threat_'
'tasks_'
'provisional_'
'ous_'
'officers_'
'mission_'
'man_'
'justice_'
'increasing_'
'implemented_'
'iii_'
'higher_'
'funding_'
'experience_'
'ent_'
'employment_'
'election_'
'done_'
'delivery_'
'death_'
'crime_'
'body_'
'benefits_'
'b'
'ate_'
'ally_'
'agreements_'
'ad_'
'University_'
'Treaty_'
'Summit_'
'Panel_'
'Palestinian_'
'Pacific_'
'One_'
'N'
'Ha'
'H'
'Criminal_'
'American_'
'Advisory_'
'@_'
'90_'
'73_'
'68_'
'учета_'
'усилий_'
'три_'
'тому_'
'такого_'
'степени_'
'статьей_'
'союза_'
'соглашений_'
'сегодня_'
'расходы_'
'правовой_'
'плане_'
'песни_'
'органами_'
'обеспечивать_'
'национальной_'
'механизмов_'
'международными_'
'международные_'
'любых_'
'ли'
'лась_'
'ко_'
'делам_'
'государствам_'
'Эта_'
'Программы_'
'ПРООН_'
'Мобильный_'
'Л'
'И'
'Генеральный_'
'y'
'whole_'
'until_'
'un_'
'trafficking_'
'today_'
'territory_'
'steps_'
'she_'
'sessions_'
'se_'
'say_'
'safety_'
'protect_'
'offices_'
'mechanism_'
'm'
'integration_'
'industry_'
'house_'
'hours_'
'greater_'
'great_'
'freedom_'
'far_'
'face_'
'experts_'
'evidence_'
'ensuring_'
'economy_'
'drug_'
'cy_'
'creation_'
'come_'
'changes_'
'below_'
'appreciation_'
'always_'
'Windows_'
'Our_'
'Moscow_'
'Japan_'
'HIV_'
'Germany_'
'E'
'Day_'
'China_'
'>>._'
'88_'
' :: _'
'ят_'
'целом_'
'укрепление_'
'точки_'
'ти_'
'сообщество_'
'совещания_'
'службы_'
'слова_'
'ская_'
'связанные_'
'свободы_'
'распространения_'
'проведению_'
'принципы_'
'приветствует_'
'преступления_'
'представителя_'
'правила_'
'положении_'
'плана_'
'переговоров_'
'ответственность_'
'ответственности_'
'оказывать_'
'могли_'
'министров_'
'местных_'
'комиссии_'
'качества_'
'инвалидов_'
'з'
'женщины_'
'диалога_'
'граждан_'
'Фонда_'
'Специальный_'
'Республике_'
'Европейского_'
'Г'
'Африке_'
'Ассамблеей_'
'«_'
'victims_'
'type_'
'themselves_'
'studies_'
'structure_'
'statistics_'
'statements_'
'standard_'
'stage_'
'specialized_'
'resource_'
'regulations_'
'reform_'
'referred_'
'program_'
'parts_'
'paragraphs_'
'opportunity_'
'office_'
'ns_'
'introduced_'
'index_'
'implementing_'
'goals_'
'game_'
'focus_'
'facilitate_'
'estimated_'
'essential_'
'equal_'
'discussed_'
'culture_'
'basic_'
'authority_'
'ar_'
'approval_'
'administration_'
'activity_'
'ability_'
'U'
'Since_'
'Representative_'
'Regional_'
'R'
'Latin_'
'Kingdom_'
'Justice_'
'Israeli_'
'Israel_'
'Constitution_'
'Agenda_'
'AIDS_'
': "_'
'98_'
'85_'
'", "_'
'! _'
'’ _'
'ядерного_'
'экономики_'
'участники_'
'устойчивому_'
'устойчивого_'
'условия_'
'улучшения_'
'третьей_'
'суда_'
'сторон_'
'стать_'
'способствовать_'
'ского_'
'секретарь_'
'самых_'
'решении_'
'рекомендует_'
'пункту_'
'принятие_'
'приложение_'
'практики_'
'поэтому_'
'потому_'
'последствия_'
'порядке_'
'перевод_'
'первой_'
'органы_'
'одним_'
'обязательств_'
'обязанности_'
'объем_'
'ними_'
'нашей_'
'национальные_'
'народов_'
'направленных_'
'миграции_'
'мест_'
'международному_'
'лось_'
'лицам_'
'использованием_'
'изации_'
'ев_'
'договора_'
'вопроса_'
'возможно_'
'вклад_'
'виде_'
'важное_'
'Ш'
'Секретариат_'
'Под'
'Нью_'
'На'
'З'
'ЕС_'
'Департамента_'
'Всемирной_'
'ВИЧ_'
'¿_'
'´_'
'works_'
'whose_'
'ways_'
'voluntary_'
'up'
'understanding_'
'transport_'
'together_'
'target_'
'strategic_'
'states_'
'signed_'
'sharing_'
'revised_'
'relations_'
'raised_'
'proceedings_'
'price_'
'operation_'
'officials_'
'objectives_'
'modern_'
'minimum_'
'mentioned_'
'material_'
'makes_'
'maintain_'
'ke_'
'integrated_'
'head_'
'gas_'
'few_'
'feel_'
'events_'
'ethnic_'
'etc_'
'establishing_'
'enhance_'
'efficiency_'
'effects_'
'ds_'
'distribution_'
'disarmament_'
'dialogue_'
'contribute_'
'contact_'
'construction_'
'challenges_'
'biennium_'
'back_'
'author_'
'again_'
'affected_'
'act_'
'Y'
'When_'
'UNDP_'
'Technical_'
'Section_'
'Regulation_'
'P'
'M'
'La_'
'Internet_'
'Implementation_'
'Go_'
'Division_'
'Asian_'
'AC_'
'69_'
'500_'
'2'
', - _'
'ющих_'
'эффективного_'
'членам_'
'финансовых_'
'участник_'
'той_'
'страна_'
'состав_'
'соблюдения_'
'связей_'
'сведению_'
'ранее_'
'работа_'
'протокола_'
'применение_'
'предусматривает_'
'представляет_'
'последствий_'
'последние_'
'получения_'
'подготовке_'
'отношения_'
'определения_'
'оно_'
'одна_'
'ности_'
'мужчин_'
'конфликтов_'
'консультации_'
'каждого_'
'исследования_'
'имя_'
'законодательство_'
'емых_'
'другим_'
'деятельностью_'
'делегация_'
'государственных_'
'Этот_'
'Штатов_'
'Ц'
'Р'
'Ко'
'Израиль_'
'Европы_'
'week_'
'website_'
'w'
'ties_'
'temperature_'
'tel_'
'start_'
'single_'
'requests_'
'reduce_'
'recommends_'
'rates_'
'processes_'
'priorities_'
'press_'
'presence_'
'practical_'
'points_'
'play_'
'physical_'
'outcome_'
'once_'
'often_'
'off_'
'negotiations_'
'nce_'
'nature_'
'months_'
'maintenance_'
'lyrics_'
'loss_'
'likely_'
'languages_'
'interested_'
'ings_'
'infrastructure_'
'improving_'
'home_'
'financing_'
'fifty_'
'fifth_'
'el_'
'educational_'
'deal_'
'covered_'
'completed_'
'comments_'
'civilian_'
'ces_'
'central_'
'Turkey_'
'Services_'
'Protection_'
'Plan_'
'Ne'
'Mo'
'Hi'
'Headquarters_'
'Federal_'
'El_'
'Cooperation_'
'Children_'
'Canada_'
'Azerbaijan_'
'Arab_'
'A'
'</_'
'600_'
'300_'
' *** _'
'ющие_'
'членами_'
'хотя_'
'функции_'
'учреждениями_'
'уровень_'
'тысячелетия_'
'требования_'
'структуры_'
'стала_'
'среде_'
'содержится_'
'содействовать_'
'содействие_'
'совместно_'
'следующих_'
'системе_'
'система_'
'сельских_'
'руководство_'
'ресурсами_'
'рассмотреть_'
'районе_'
'различные_'
'программа_'
'про'
'принцип_'
'принимать_'
'приложения_'
'представитель_'
'правил_'
'попрежнему_'
'полной_'
'охраны_'
'основной_'
'организациям_'
'организация_'
'оказание_'
'обучения_'
'ными_'
'норм_'
'нищеты_'
'нии_'
'несмотря_'
'народа_'
'международным_'
'людских_'
'конвенции_'
'й'
'интеграции_'
'инициативы_'
'изменений_'
'зрения_'
'заявление_'
'заседания_'
'закона_'
'докладчика_'
'докладов_'
'делегации_'
'говорится_'
'всей_'
'взносов_'
'бо'
'благодаря_'
'ации_'
'Я'
'ЮНИСЕФ_'
'Федерации_'
'Т_'
'Сторон_'
'Советом_'
'Н'
'Международной_'
'Ин'
'Е'
'Африки_'
'Ассамблее_'
'Азии_'
'Ð¾Ñ_'
'ya_'
'violations_'
'v'
'u'
'traditional_'
'ter_'
'statistical_'
'stakeholders_'
'space_'
'source_'
'soon_'
'scale_'
'sa'
'rooms_'
'real_'
'peacekeeping_'
'participating_'
'multilateral_'
'ms_'
'movement_'
'money_'
'ls_'
'll_'
'let_'
'later_'
'itself_'
'independence_'
'housing_'
'hi'
'hand_'
'h'
'growing_'
'going_'
'factors_'
'exercise_'
'displaced_'
'discussions_'
'designed_'
'd'
'critical_'
'core_'
'conduct_'
'communication_'
'commercial_'
'ck_'
'benefit_'
'ba'
'average_'
'assets_'
'aspects_'
'appeal_'
'abuse_'
'W'
'That_'
'Support_'
'She_'
'Review_'
'Recalling_'
'Non_'
'Next_'
'Li'
'Institute_'
'Energy_'
'Democratic_'
'B'
'Administrative_'
'<<_'
'76_'
'74_'
'400_'
'&_'
' − _'
' >>>_'
'—_'
'этапе_'
'щих_'
'цев_'
'характера_'
'фонда_'
'ту'
'технического_'
'считает_'
'судов_'
'статья_'
'ссылаясь_'
'сроки_'
'специалистов_'
'союз_'
'сокращения_'
'созданию_'
'ских_'
'ру'
'ресурсы_'
'равенства_'
'работать_'
'пятьдесят_'
'пять_'
'профессиональной_'
'просто_'
'происхождения_'
'проверки_'
'прежде_'
'предупреждения_'
'предложение_'
'правительством_'
'праве_'
'повышение_'
'относятся_'
'осуществлять_'
'основу_'
'основные_'
'около_'
'овать_'
'обсуждения_'
'обзор_'
'нового_'
'начала_'
'много'
'мм_'
'миссий_'
'месяцев_'
'линии_'
'ликвидации_'
'ла'
'культурных_'
'йся_'
'источников_'
'инфраструктуры_'
'ил_'
'задач_'
'жизнь_'
'ены_'
'енных_'
'ением_'
'достижение_'
'документы_'
'доклады_'
'делу_'
'дать_'
'данной_'
'группе_'
'гражданских_'
'вопросах_'
'включать_'
'включает_'
'виды_'
'ведения_'
'вать_'
'важность_'
'Штаты_'
'Х'
'У_'
'Российской_'
'Правительство_'
'М'
'Конституции_'
'За_'
'Ж'
'Другие_'
'·_'
'words_'
'woman_'
'web_'
'values_'
'urgent_'
'undertaken_'
'true_'
'trial_'
'treaty_'
'ta'
'supported_'
'supply_'
'son_'
'solution_'
'side_'
'share_'
'sent_'
'remains_'
'reflected_'
'range_'
'preparation_'
'please_'
'outside_'
'needed_'
'model_'
'matter_'
'manner_'
'ma_'
'listed_'
'link_'
'left_'
'lack_'
'l'
'judicial_'
'ism_'
'independent_'
'improvement_'
'goal_'
'ge'
'ful_'
'forward_'
'families_'
'expert_'
'exist_'
'either_'
'effort_'
'donors_'
'create_'
'committed_'
'comment_'
'co_'
'closed_'
'category_'
'brought_'
'border_'
'assessments_'
'asked_'
'applicable_'
'ali'
'acts_'
'W_'
'Switzerland_'
'Sunday_'
'Second_'
'Room_'
'People_'
'Pa'
'Note_'
'Most_'
'Location_'
'K'
'Je'
'How_'
'Force_'
'Ambassador_'
'Al_'
'Al'
'<<< _'
', '
' & _'
'— _'
'–_'
'ясь_'
'ься_'
'формы_'
'финансовой_'
'ут'
'урегулирования_'
'трех_'
'требуется_'
'требует_'
'торговле_'
'технических_'
'там_'
'суд_'
'срок_'
'состоянии_'
'состава_'
'соответствующими_'
'совещание_'
'сети_'
'секретариат_'
'с'
'ряда_'
'роста_'
'разработать_'
'развитии_'
'раз_'
'рабочей_'
'пыток_'
'пунктом_'
'протяжении_'
'прежнему_'
'предоставления_'
'предлагает_'
'пред'
'порядка_'
'покрытия_'
'пи'
'персонал_'
'оценке_'
'оценка_'
'операции_'
'обзора_'
'новой_'
'ни'
'многие_'
'мнению_'
'мнение_'
'ма_'
'ль_'
'ки'
'идет_'
'жа_'
'ена_'
'дополнительные_'
'документе_'
'де'
'данного_'
'государственной_'
'ги'
'выражает_'
'вопросами_'
'воздействия_'
'внутренних_'
'ал'
'Центральной_'
'Центр_'
'Со'
'Ре'
'Рабочая_'
'Пункт_'
'Международный_'
'За'
'Верховного_'
'variety_'
'urban_'
'updated_'
'tools_'
'takes_'
'survey_'
'started_'
'ss_'
'spoke_'
'so'
'sentence_'
'respective_'
'representation_'
'relation_'
'record_'
'receive_'
'reached_'
'pursuant_'
'prior_'
'primary_'
'prices_'
'positions_'
'partnership_'
'opinion_'
'old_'
'oil_'
'offer_'
'obligation_'
'never_'
'near_'
'nationality_'
'mm_'
'maximum_'
'mail_'
'low_'
'located_'
'little_'
'legislative_'
'la'
'known_'
'involvement_'
'invited_'
'investigation_'
'indicators_'
'improved_'
'goods_'
'fund_'
'fourth_'
'forty_'
'floor_'
'external_'
'execution_'
'event_'
'es'
'encourage_'
'elections_'
'effectiveness_'
'e'
'don_'
'destruction_'
'demand_'
'contribution_'
'contributing_'
'commitments_'
'climate_'
'carry_'
'capacities_'
'call_'
'born_'
'bilateral_'
'bank_'
'as'
'ary_'
'apply_'
'applications_'
'anti_'
'aid_'
'actual_'
'active_'
'Western_'
'Such_'
'Strategy_'
'Space_'
'See_'
'Rev_'
'Public_'
'Political_'
'Persons_'
'Monday_'
'Keeper_'
'I'
'Hotel_'
'Here_'
'Friday_'
'Commissioner_'
'By_'
'Bureau_'
'Belarus_'
'After_'
'AND_'
'> <_'
': +_'
'96_'
'92_'
'72_'
'. '
'* _'
' ] _'
'яя_'
'эксплуатации_'
'экономикой_'
'числу_'
'четыре_'
'чего_'
'цы_'
'ф_'
'учебных_'
'участника_'
'терроризма_'
'текст_'
'судебного_'
'сравнению_'
'специальных_'
'сорок_'
'сообщества_'
'создании_'
'событий_'
'со'
'секторе_'
'сейчас_'
'са_'
'руководящих_'
'решению_'
'реформы_'
'региона_'
'ра'
'прогресса_'
'прогресс_'
'программе_'
'программам_'
'проведении_'
'принял_'
'применительно_'
'представлена_'
'предотвращения_'
'предотвращению_'
'потенциал_'
'поощрения_'
'полностью_'
'показатель_'
'подход_'
'поддерживать_'
'под'
'планов_'
'па'
'отсутствие_'
'отметила_'
'от'
'общих_'
'образование_'
'некоторых_'
'настоящему_'
'найти_'
'мо'
'миссии_'
'мирных_'
'методов_'
'мероприятия_'
'ма'
'людьми_'
'лучше_'
'культуры_'
'конце_'
'каждой_'
'кадров_'
'использовании_'
'иметь_'
'игры_'
'документа_'
'до'
'дальнейшего_'
'да'
'государству_'
'государством_'
'гер_'
'га'
'высшем_'
'войны_'
'во'
'внимания_'
'вайп_'
'в'
'ает_'
'Ю'
'Соединенные_'
'При'
'Па'
'Об'
'Ма'
'Ло'
'Королевство_'
'Комитету_'
'Ирака_'
'Га'
'Вместе_'
'Ар'
'á'
'young_'
'ying_'
'wind_'
'welcomed_'
'vote_'
'vehicles_'
'update_'
'tu'
'torture_'
'topic_'
'too_'
'tions_'
'things_'
'success_'
'sta'
'solutions_'
'si'
'settlement_'
'series_'
'school_'
'recognized_'
'ra_'
'plenary_'
'pi'
'performance_'
'paper_'
'p'
'ov_'
'objective_'
'nd_'
'me'
'live_'
'keeping_'
'ja'
'j_'
'institutional_'
'il_'
'identify_'
'ho'
'guidance_'
'fuel_'
'follows_'
'flights_'
'f'
'entry_'
'elements_'
'donor_'
'dollars_'
'dissemination_'
'determined_'
'detention_'
'database_'
'crucial_'
'crisis_'
'consequences_'
'communications_'
'combat_'
'clearly_'
'centre_'
'c'
'billion_'
'bility_'
'associated_'
'assist_'
'arms_'
'applied_'
'ant_'
'along_'
'aircraft_'
'aimed_'
'affairs_'
'added_'
'System_'
'Staff_'
'Some_'
'S'
'Regulations_'
'Ra'
'Pro'
'Please_'
'Optional_'
'Operations_'
'Nuclear_'
'NO'
'Mobile_'
'Millennium_'
'Lyrics_'
'Islands_'
'India_'
'His_'
'Go'
'Furthermore_'
'Countries_'
'CE'
'Bosnia_'
'Association_'
'Although_'
'>_'
'82_'
'81_'
'4'
'212_'
'.'
'%_'
' -_'
' + _'
'−_'
'ьных_'
'щие_'
'частью_'
'форме_'
'фонд_'
'финансовые_'
'факт_'
'у'
'ту_'
'транспортных_'
'тов_'
'те'
'такое_'
'такими_'
'та'
'су'
'стью_'
'сти'
'ство_'
'ства_'
'стандартов_'
'специальной_'
'социально_'
'состояния_'
'соответствующим_'
'соответственно_'
'совещаний_'
'системой_'
'резолюция_'
'расследования_'
'разработку_'
'праву_'
'правительств_'
'постоянно_'
'пользователей_'
'показателей_'
'подготовку_'
'передачи_'
'первых_'
'ор'
'определить_'
'опасных_'
'онных_'
'одно_'
'ограничения_'
'общественной_'
'ник_'
'необходимые_'
'нее_'
'нашего_'
'мых_'
'момент_'
'млрд_'
'мигрантов_'
'международном_'
'материально_'
'любые_'
'любого_'
'крайней_'
'конфликта_'
'компаний_'
'ключевых_'
'ите_'
'инвестиций_'
'ер_'
'дней_'
'ди'
'движения_'
'двадцать_'
'гор'
'высокого_'
'вшие_'
'встречи_'
'весьма_'
'будущем_'
'большой_'
'ат_'
'ам'
'ЮНКТАД_'
'Ы_'
'Фонд_'
'Устава_'
'Управления_'
'Соединенное_'
'Северной_'
'Сан_'
'Ри'
'Про'
'ПО_'
'Организацией_'
'Не_'
'Н_'
'МС'
'Ла'
'К'
'Иран_'
'Закона_'
'Вам_'
'Было_'
'Беларусь_'
'zation_'
'word_'
'try_'
'tried_'
'top_'
'timely_'
'students_'
'stock_'
'sound_'
'sky_'
'sixty_'
'similar_'
'shown_'
'show_'
'short_'
'sh_'
'serious_'
'search_'
'sea_'
'sanctions_'
'ro'
'requires_'
'remained_'
'refugees_'
're'
'publication_'
'proposals_'
'product_'
'poor_'
'personal_'
'pay_'
'participants_'
'overall_'
'offered_'
'nor_'
'networks_'
'na_'
'n'
'look_'
'location_'
'lives_'
'ling_'
'k'
'jurisdiction_'
'judges_'
'iv_'
'ine_'
'individuals_'
'ina'
'hold_'
'guidelines_'
'gu'
'governance_'
'gi'
'fish_'
'findings_'
'features_'
'extent_'
'est'
'enforcement_'
'encounter_'
'en'
'effectively_'
'direction_'
'deployment_'
'de'
'counter_'
'containing_'
'concept_'
'complex_'
'collection_'
'co'
'cities_'
'circumstances_'
'choose_'
'ce'
'came_'
'cal_'
'book_'
'board_'
'birth_'
'balance_'
'ated_'
'approaches_'
'ago_'
'West_'
'Weapons_'
'Vice_'
'Under_'
'U_'
'UNCTAD_'
'TV_'
'Summary_'
'So_'
'Resources_'
'Power_'
'Na'
'Moldova_'
'Mi'
'MI'
'MA'
'Item_'
'Introduction_'
'Informal_'
'Herzegovina_'
'God_'
'Georgia_'
'From_'
'Free_'
'Following_'
'Costa_'
'Chinese_'
'Chief_'
'Charter_'
'Car'
'Brazil_'
'Bi'
'Are_'
'963_'
'91_'
'71_'
'67'
'3'
'10H_'
') - _'
') '
'• _'
'ю'
'шестьдесят_'
'четко_'
'ческой_'
'цию_'
'центр_'
'ца_'
'учитывая_'
'ус'
'ур'
'управлению_'
'транспортного_'
'транспорта_'
'т'
'сферы_'
'статистики_'
'стал_'
'состоит_'
'составе_'
'сообщения_'
'сообщений_'
'совещании_'
'соблюдение_'
'ситуации_'
'сайте_'
'рост_'
'пункты_'
'продолжает_'
'принятых_'
'принципа_'
'примерно_'
'предупреждению_'
'предложений_'
'предлагается_'
'правовых_'
'почти_'
'потребности_'
'пос'
'поездки_'
'поддержка_'
'поддерживает_'
'планирования_'
'отсутствия_'
'отношений_'
'он'
'нормы_'
'нескольких_'
'неправительственными_'
'наркотиков_'
'на'
'н'
'мся_'
'момента_'
'много_'
'мир_'
'механизма_'
'мерах_'
'м'
'кризиса_'
'кризис_'
'какой_'
'информационно_'
'информацией_'
'ием_'
'зи'
'защиту_'
'законодательства_'
'зависит_'
'ере'
'ев'
'должностных_'
'демократии_'
'де_'
'двумя_'
'данном_'
'дает_'
'группой_'
'выполнять_'
'всю_'
'всегда_'
'восьмой_'
'внутри_'
'видов_'
'взаимодействия_'
'ва_'
'ва'
'быстро_'
'борьбу_'
'био'
'базы_'
'африканских_'
'аться_'
'ась_'
'ани'
'Южной_'
'Экономического_'
'Чтобы_'
'Франция_'
'Та'
'Су'
'Согласно_'
'СО'
'России_'
'Пакта_'
'От'
'ОР'
'Новая_'
'Несмотря_'
'Некоторые_'
'Латинской_'
'Ку'
'Кипр_'
'Европе_'
'Гаити_'
'Б_'
'ÐµÑ_'
'Â_'
'° _'
'zone_'
'written_'
'wa'
'tra'
'to'
'tic_'
'throughout_'
'th'
'summary_'
'sub_'
'strategy_'
'size_'
'six_'
'signing_'
'sectors_'
'scope_'
'schools_'
'safe_'
'rural_'
'require_'
'remaining_'
'release_'
'regulation_'
'red_'
'reasons_'
'ratio_'
'ratification_'
'raising_'
'ra'
'proliferation_'
'programs_'
'produced_'
'processing_'
'pre_'
'planned_'
'placed_'
'payment_'
'option_'
'offence_'
'obtain_'
'ninth_'
'month_'
'mo'
'migration_'
'methods_'
'message_'
'medical_'
'markets_'
'lot_'
'limit_'
'les_'
'leave_'
'leading_'
'leadership_'
'lead_'
'le'
'ized_'
'involved_'
'interests_'
'inform_'
'industrial_'
'indicate_'
'inc'
'ility_'
'ide_'
'ical_'
'history_'
'highest_'
'go'
'gave_'
'functions_'
'fire_'
'figures_'
'fight_'
'fa'
'exploitation_'
'experiences_'
'electoral_'
'efficient_'
'div_'
'difficulties_'
'difficult_'
'details_'
'detailed_'
'democratic_'
'delegations_'
'cycle_'
'criteria_'
'crimes_'
'correct_'
'controlled_'
'consistent_'
'compliance_'
'claims_'
'challenge_'
'calls_'
'bi'
'beyond_'
'away_'
'attacks_'
'attack_'
'airport_'
'aim_'
'achieved_'
'accountability_'
'accommodation_'
'a'
'Win'
'Vienna_'
'Use_'
'Ukrainian_'
'UNIDO_'
'UNICEF_'
'UNECE_'
'Trans'
'Sustainable_'
'Research_'
'Promotion_'
'Pakistan_'
'Of_'
'Now_'
'More_'
'Middle_'
'Many_'
'Lo'
'Legal_'
'La'
'Kuwait_'
'Jo'
'Fourth_'
'Eastern_'
'Dec_'
'Crime_'
'Apr_'
'Administration_'
': (_'
'97_'
'84_'
'8'
'79_'
'75'
'7'
'51'
'31'
'26'
'250_'
'22'
' °_'
' )_'
' ('
'языке_'
'ядерной_'
'я'
'энергии_'
'ы'
'четвертой_'
'ческих_'
'часто_'
'центра_'
'хозяйства_'
'ход_'
'ха_'
'х'
'форм_'
'файл_'
'участнику_'
'услугам_'
'усилиях_'
'управляющих_'
'улучшение_'
'тра'
'терроризмом_'
'сторонами_'
'стабильности_'
'среднем_'
'сотрудники_'
'сотрудника_'
'ском_'
'ские_'
'ска'
'семей_'
'резолюцию_'
'регулирования_'
'региональном_'
'рассматривать_'
'разоружению_'
'работ_'
'пути_'
'процессу_'
'проводить_'
'проблеме_'
'причине_'
'принятии_'
'принимая_'
'признавая_'
'преступлений_'
'пор_'
'помочь_'
'политической_'
'подхода_'
'подтверждая_'
'подготовка_'
'план_'
'первый_'
'первого_'
'партнерами_'
'оценок_'
'особое_'
'особо_'
'ос'
'ор_'
'они'
'означает_'
'объектов_'
'общин_'
'обеспокоенность_'
'несовершеннолетних_'
'нес'
'недели_'
'наши_'
'надзора_'
'над'
'молодежи_'
'мирового_'
'ми'
'меня_'
'медицинской_'
'материалов_'
'мандата_'
'ло'
'корректировки_'
'конференция_'
'коммуникации_'
'комитету_'
'количество_'
'количества_'
'кодекса_'
'ка'
'йте_'
'испытаний_'
'ина'
'имущества_'
'ила_'
'играть_'
'задолженности_'
'задачи_'
'еся_'
'ес_'
'ери'
'ер'
'ед'
'дома_'
'должностей_'
'декларации_'
'действующих_'
'данному_'
'гуманитарного_'
'государственного_'
'городе_'
'голосования_'
'годах_'
'глобальных_'
'выбросов_'
'воз'
'военных_'
'внести_'
'вместо_'
'важную_'
'важно_'
'бедствий_'
'аспектов_'
'ан_'
'активно_'
'аб'
'Ч'
'Федерация_'
'Ф'
'Управление_'
'Того_'
'Теперь_'
'Таблица_'
'Стороны_'
'Социального_'
'Ра'
'Поскольку_'
'ОБЪЕДИНЕННЫХ_'
'Новости_'
'Не'
'НАЦИЙ_'
'Косово_'
'Конго_'
'Когда_'
'Ка'
'Закон_'
'Европейский_'
'ЕЭК_'
'Германии_'
'Генеральным_'
'ВО'
'Ðµ_'
'weapon_'
'vulnerable_'
'vo'
'visits_'
'version_'
'ver_'
'urges_'
'unit_'
'un'
'ul_'
'ue_'
'ua_'
'transportation_'
'trans'
'town_'
'territorial_'
'suggested_'
'sufficient_'
'stressed_'
'seventh_'
'ses_'
'selected_'
'select_'
'seeking_'
'secondary_'
'satisfaction_'
'running_'
'road_'
'ri'
'return_'
'respectively_'
'reserves_'
'remain_'
'registration_'
'recovery_'
'reasonable_'
'realization_'
'read_'
'reach_'
'prosecution_'
'prop'
'pressure_'
'possibility_'
'positive_'
'po'
'participate_'
'paid_'
'os_'
'options_'
'opened_'
'online_'
'nts_'
'north_'
'ne'
'names_'
'mp'
'minorities_'
'mine_'
'met_'
'mainly_'
'lower_'
'longer_'
'lo'
'leaders_'
'kind_'
'ka'
'j'
'is'
'initiative_'
'indicated_'
'id_'
'i'
'gross_'
'gallery_'
'ga'
'g'
'flow_'
'fixed_'
'evaluation_'
'entities_'
'entered_'
'enter_'
'elected_'
'eighth_'
'du'
'draw_'
'doing_'
'dll_'
'directly_'
'determination_'
'definition_'
'defined_'
'defence_'
'decide_'
'dates_'
'da_'
'convened_'
'contract_'
'concluding_'
'concluded_'
'component_'
'compensation_'
'code_'
'ck'
'centres_'
'car_'
'breeze_'
'avoid_'
'articles_'
'approved_'
'announced_'
'allow_'
'ai'
'agriculture_'
'agricultural_'
'agency_'
'affect_'
'advice_'
'actually_'
'achievement_'
'accused_'
'accepted_'
'Yerevan_'
'Wi'
'Views_'
'Un'
'USD_'
'US'
'Tuesday_'
'Transport_'
'Training_'
'Thus_'
'Then_'
'Sun_'
'Spain_'
'Safety_'
'ST_'
'SA'
'Questions_'
'Peace_'
'Page_'
'Netherlands_'
'My_'
'Lu'
'Liberia_'
'Korea_'
'Jun_'
'Joint_'
'Iran_'
'Guinea_'
'Gu'
'Goals_'
'Ga'
'GMT_'
'French_'
'Flash_'
'Fi'
'F'
'Experts_'
'Equality_'
'Earth_'
'Each_'
'Do_'
'Do'
'Cyprus_'
'Cuba_'
'Coordination_'
'Company_'
'Center_'
'CD_'
'Assistance_'
'Afghanistan_'
'88'
'83_'
'800_'
'57'
'52'
'36'
'29'
'25'
'120_'
'0'
'/'
'.”_'
' ($_'
' '_'
'ядерных_'
'элементы_'
'ческого_'
'частного_'
'ча'
'цией_'
'центров_'
'центре_'
'цель_'
'хорошо_'
'хо'
'финансирование_'
'ущерба_'
'ущерб_'
'участием_'
'устройства_'
'услугами_'
'укреплению_'
'укреплении_'
'указанных_'
'удовлетворением_'
'увеличение_'
'тыс_'
'трудности_'
'тридцать_'
'топлива_'
'тогда_'
'ти'
'сумма_'
'судебной_'
'стали_'
'сотрудниками_'
'сообщил_'
'содержания_'
'совет_'
'следующим_'
'ситуацию_'
'секретарем_'
'связь_'
'свободу_'
'рынке_'
'руководящие_'
'ров_'
'резолюций_'
'резолюцией_'
'регистрации_'
'ревизоров_'
'распространение_'
'разоружения_'
'развитых_'
'развивающимся_'
'пяти_'
'просила_'
'продукции_'
'провел_'
'причем_'
'принятой_'
'приняли_'
'принимает_'
'принадлежности_'
'приложении_'
'представлены_'
'представление_'
'представил_'
'председателя_'
'предоставление_'
'потребления_'
'последних_'
'поправки_'
'поощрение_'
'положению_'
'полном_'
'полного_'
'политика_'
'по'
'планируется_'
'пере'
'партии_'
'п_'
'оценку_'
'отметить_'
'осуществляется_'
'основном_'
'орган_'
'определены_'
'оп'
'оказанию_'
'озабоченность_'
'од'
'ов'
'обороны_'
'ность_'
'ному_'
'неправительственных_'
'непосредственно_'
'необходимых_'
'нео'
'наших_'
'находящихся_'
'настоящего_'
'наличие_'
'наказания_'
'назначения_'
'министра_'
'министерства_'
'механизмы_'
'материалы_'
'ль'
'ления_'
'круг_'
'которому_'
'коренных_'
'контроль_'
'кон'
'комиссара_'
'ком_'
'класса_'
'кая_'
'иться_'
'ится_'
'истории_'
'информационных_'
'инициатив_'
'ин'
'имеющих_'
'заинтересованных_'
'задача_'
'жителей_'
'ж_'
'ете_'
'друг_'
'дополнительных_'
'добавить_'
'детской_'
'денег_'
'две_'
'данными_'
'группу_'
'глобального_'
'вой_'
'возрасте_'
'внутреннего_'
'влияние_'
'включены_'
'важных_'
'будем_'
'бор'
'безопасность_'
'бедных_'
'бассейна_'
'ба'
'б'
'ают_'
'ания_'
'актов_'
'а'
'ЮНФПА_'
'Факультативного_'
'Тем_'
'Российская_'
'Проект_'
'От_'
'Осуществление_'
'Об_'
'НПО_'
'Му'
'Молдова_'
'Либерии_'
'Китай_'
'Карибского_'
'КР'
'Институт_'
'Из'
'Демократической_'
'Вы'
'é_'
'ÐºÐ_'
'z'
'worked_'
'why_'
'ver'
'va_'
'ut'
'users_'
'useful_'
'understand_'
'twenty_'
'ts'
'think_'
'terrorist_'
'sure_'
'supporting_'
'successful_'
'subprogramme_'
'sub'
'stay_'
'ssi'
'ss'
'spirit_'
'speaking_'
'sought_'
'sometimes_'
'software_'
'skin_'
'sk_'
'situations_'
'simply_'
'si_'
'shows_'
'send_'
'secure_'
'risks_'
'ring_'
'responses_'
'represent_'
'religious_'
'religion_'
'relatively_'
'regime_'
'racial_'
'r'
'published_'
'premises_'
'populations_'
'pointed_'
'ping_'
'penalty_'
'partnerships_'
'papers_'
'original_'
'origin_'
'organizational_'
'om'
'offers_'
'obtained_'
'numbers_'
'nk'
'ning_'
'ni'
'mother_'
'moment_'
'mental_'
'medium_'
'losses_'
'looking_'
'limited_'
'li'
'legitimate_'
'ka_'
'involving_'
'investments_'
'inter'
'inside_'
'ing'
'indicates_'
'inclusion_'
'in'
'imprisonment_'
'gives_'
'girls_'
'ging_'
'finance_'
'files_'
'female_'
'everyone_'
'enhancing_'
'engaged_'
'electronic_'
'easy_'
'ea'
'duty_'
'discuss_'
'developments_'
'described_'
'der_'
'debt_'
'debate_'
'daily_'
'da'
'creating_'
'cover_'
'conventions_'
'continuing_'
'continues_'
'contains_'
'consumption_'
'conferences_'
'compared_'
'comes_'
'collective_'
'civilians_'
'chapter_'
'card_'
'built_'
'ber'
'assess_'
'approximately_'
'appointed_'
'amendment_'
'although_'
'alternative_'
'alone_'
'allowed_'
'add_'
'achieving_'
']]> _'
']._'
'Za'
'X'
'Web_'
'VIII_'
'Unknown_'
'Unit_'
'Those_'
'Territory_'
'Territories_'
'St_'
'Sep_'
'Se'
'Sat_'
'Ro'
'Rica_'
'Requests_'
'Q'
'Prime_'
'Policy_'
'Paris_'
'Paragraph_'
'PA'
'ON'
'Norway_'
'North_'
'No'
'Ministers_'
'Me'
'KASE_'
'Initiative_'
'HRC_'
'Governing_'
'Financing_'
'Finally_'
'Fifth_'
'FOR_'
'FI'
'En'
'Draft_'
'Disarmament_'
'Deputy_'
'DLL_'
'Cu'
'Covenant_'
'Comprehensive_'
'Click_'
'Civil_'
'City_'
'Chamber_'
'Bu'
'Best_'
'Bar'
'Astana_'
'As'
'Army_'
'Ar'
'Additional_'
': '
'99_'
'900_'
'87'
'77'
'76'
'59'
'58'
'43'
'34'
'27'
'1988_'
'15'
'11'
'109_'
'09'
'05'
'03'
'.: _'
'. "_'
',” _'
')]_'
') [_'
'$_'
'$ _'
' ,_'
'– _'
'ющего_'
'эффективные_'
'экологических_'
'ья_'
'ьный_'
'ьного_'
'ье_'
'ыт'
'ща'
'ших_'
'ш_'
'частных_'
'ха'
'фичу_'
'фе'
'фактически_'
'фа'
'ф'
'учреждениях_'
'утверждения_'
'утверждает_'
'установления_'
'уп'
'ум'
'улучшить_'
'уз'
'ует_'
'удалось_'
'трудящихся_'
'тор'
'тон'
'тво'
'строительство_'
'строительства_'
'стражей_'
'статусе_'
'среду_'
'список_'
'специалисты_'
'социальные_'
'сохранить_'
'состоится_'
'соответствующего_'
'соглашение_'
'случаи_'
'служб_'
'следующее_'
'си'
'сер'
'сексуальной_'
'сделал_'
'самом_'
'ри'
'рек'
'раст'
'рассматриваются_'
'ран'
'различными_'
'работников_'
'р'
'пу'
'процессов_'
'пространства_'
'промышленности_'
'проекты_'
'программу_'
'принято_'
'применяется_'
'предусматривается_'
'предоставить_'
'правом_'
'потери_'
'пользования_'
'получили_'
'полномочия_'
'полномочий_'
'политического_'
'пожалуйста_'
'пис'
'песне_'
'переходной_'
'отрасли_'
'отношение_'
'относится_'
'отмечено_'
'отдельных_'
'отвечать_'
'остается_'
'оставаться_'
'организовать_'
'организацией_'
'определение_'
'ок'
'овой_'
'ования_'
'обычно_'
'общественного_'
'обслуживание_'
'оборудования_'
'ну_'
'номер_'
'нных_'
'нные_'
'никаких_'
'ний_'
'незамедлительно_'
'независимости_'
'находятся_'
'науки_'
'настоящей_'
'направленные_'
'мирного_'
'минусовку_'
'мини'
'методы_'
'меньше_'
'масштабов_'
'маршрут'
'максимально_'
'любой_'
'люб'
'лицо_'
'лицами_'
'лат'
'крайне_'
'компенсации_'
'кого_'
'караоке_'
'кан'
'каким_'
'каждый_'
'исследований_'
'использованию_'
'ировать_'
'иные_'
'ин_'
'зо'
'зе'
'защита_'
'законов_'
'заключенных_'
'заключения_'
'заключение_'
'з_'
'женщинами_'
'жа'
'ен'
'емые_'
'ел_'
'еб'
'е'
'другого_'
'достижению_'
'должность_'
'докладу_'
'дети_'
'дат'
'гуманитарной_'
'группами_'
'города_'
'глобальной_'
'главы_'
'гарантировать_'
'выборов_'
'вших_'
'входит_'
'вследствие_'
'вооруженных_'
'воздействие_'
'воды_'
'включения_'
'включают_'
'вз'
'веществ_'
'вести_'
'вер'
'вания_'
'бюджет_'
'бу'
'большинство_'
'би'
'ато'
'ассигнования_'
'анти'
'ак'
'ается_'
'Ша'
'Хо'
'Хабитат_'
'Ф_'
'Украины_'
'То'
'Так_'
'Сьерра_'
'Судана_'
'Совету_'
'Секретариата_'
'Сегодня_'
'Са'
'Ро'
'Результаты_'
'Программа_'
'Приложение_'
'Президент_'
'Песня_'
'Пере'
'Отдел_'
'ОТ'
'Новой_'
'Национальный_'
'Национальной_'
'Например_'
'НИ'
'Мо'
'МО'
'Леоне_'
'Ле'
'Корея_'
'Китая_'
'Италия_'
'Исполнительного_'
'Ирландии_'
'Индонезии_'
'Добавлено_'
'Де'
'Государства_'
'Генеральному_'
'Восточной_'
'Ви'
'ВЕ'
'Армения_'
'Азербайджана_'
'Ð½Ð_'
'zing_'
'zi'
'youth_'
'writing_'
'white_'
'welcomes_'
'va'
'ures_'
'ur'
'universal_'
'uni'
'une'
'under'
'una'
'ul'
'turn_'
'ture_'
'trust_'
'troop_'
'tremulous_'
'tor_'
'tor'
'tle_'
'ti'
'the'
'temporary_'
'te'
'surface_'
'supplies_'
'submission_'
'style_'
'sts_'
'struggle_'
'stages_'
'stability_'
'specified_'
'something_'
'socio_'
'sm_'
'sixth_'
'sites_'
'significantly_'
'ship_'
'setting_'
'se'
'science_'
'ro_'
'rich_'
'restrictions_'
'respond_'
'reservation_'
'requirement_'
'replaced_'
'relationship_'
'reducing_'
'red'
'reality_'
'rather_'
'raise_'
'radio_'
'punishment_'
'ps_'
'prohibition_'
'productive_'
'pro'
'prison_'
'preliminary_'
'pre'
'popular_'
'ple'
'players_'
'places_'
'peaceful_'
'over'
'out'
'ou'
'os'
'ona'
'occupation_'
'notice_'
'ner_'
'multi_'
'marriage_'
'maps_'
'male_'
'lu'
'ls'
'locations_'
'lly_'
'launched_'
'ko'
'king_'
'kilometres_'
'kept_'
'ization_'
'island_'
'internally_'
'integrity_'
'insurance_'
'institution_'
'initial_'
'imposed_'
'implications_'
'img_'
'image_'
'ide'
'htm_'
'host_'
'hip_'
'hard_'
'ground_'
'giving_'
'generally_'
'freedoms_'
'forthcoming_'
'forest_'
'followed_'
'fi'
'fe'
'father_'
'express_'
'except_'
'est_'
'enjoy_'
'ence_'
'emergency_'
'ely_'
'economies_'
'ec'
'do'
'disposal_'
'disasters_'
'di'
'devices_'
'des'
'contributed_'
'contracts_'
'consolidated_'
'confidence_'
'conclusion_'
'components_'
'closely_'
'choice_'
'center_'
'cause_'
'carrying_'
'cap'
'ca_'
'buy_'
'build_'
'bringing_'
'box_'
'bor'
'bar_'
'banks_'
'ban_'
'attempt_'
'ations_'
'at'
'amendments_'
'allows_'
'al'
'achievements_'
'ab'
'] [_'
'Zealand_'
'Wednesday_'
'Water_'
'VII_'
'UNEP_'
'UN'
'Third_'
'Texas_'
'Syrian_'
'Status_'
'Scientific_'
'Sa'
'Roma_'
'Re_'
'Previous1_'
'Population_'
'Palestine_'
'PRO'
'Official_'
'Oct_'
'ON_'
'Ni'
'NG_'
'Mexico_'
'Malaysia_'
'Le'
'Ku'
'Kosovo_'
'Ko'
'Ka'
'J_'
'Its_'
'Italy_'
'Internal_'
'Inter_'
'In'
'IS'
'IR'
'Hu'
'Gender_'
'Further_'
'Foundation_'
'Food_'
'Finland_'
'FAO_'
'Du'
'Di'
'Despite_'
'Construction_'
'Constitutional_'
'Congress_'
'Chile_'
'Chi'
'CEDAW_'
'CC_'
'Budgetary_'
'Bo'
'Bel'
'Be'
'Basic_'
'Armenian_'
':'
'97'
'91'
'89_'
'82'
'80'
'700_'
'48'
'45'
'42'
'32'
'25H_'
'103_'
'101_'
'," _'
'*_'
'"'
' ‘_'
' ..._'
'яет_'
'ющихся_'
'ющий_'
'юстиции_'
'эффективной_'
'энерго'
'энергетики_'
'эн'
'электронной_'
'эгидой_'
'ьной_'
'ывать_'
'ще'
'чные_'
'чи'
'честь_'
'ческие_'
'че'
'часов_'
'ч'
'ци'
'цены_'
'ценностей_'
'фо'
'финансового_'
'фи'
'факторы_'
'фактов_'
'участниками_'
'участвовать_'
'устройство_'
'установить_'
'уделяется_'
'уважение_'
'тре'
'точными_'
'товары_'
'техники_'
'территорий_'
'тер'
'теперь_'
'тен'
'тему_'
'температуры_'
'теми_'
'теме_'
'существуют_'
'суммы_'
'стер'
'стараемся_'
'становится_'
'стандарты_'
'сотрудничать_'
'соотношение_'
'соответствующую_'
'сокращение_'
'сожалению_'
'содержащихся_'
'собственности_'
'скорее_'
'си_'
'семье_'
'секретариатом_'
'секретариата_'
'связанной_'
'сведения_'
'самого_'
'сайт_'
'са'
'рядом_'
'ряде_'
'ры_'
'рот'
'родителей_'
'рекомендацию_'
'реж'
'региональные_'
'регионального_'
'ре_'
'расширение_'
'расследований_'
'районов_'
'разделе_'
'работает_'
'прямо_'
'просьбой_'
'проблемой_'
'приходится_'
'прис'
'приоритетных_'
'приняты_'
'приняла_'
'признаку_'
'призна'
'приговор'
'привести_'
'представляют_'
'представлять_'
'представителями_'
'предложено_'
'пределах_'
'пре'
'попытки_'
'понимания_'
'полу'
'положением_'
'политическим_'
'политические_'
'поли'
'показатели_'
'позволить_'
'позволит_'
'подчеркнул_'
'подтверждает_'
'подразделения_'
'поддержания_'
'перемещенных_'
'первом_'
'партнерства_'
'партнеров_'
'парламента_'
'пар'
'отправляйте_'
'открыть_'
'ответ_'
'основой_'
'основным_'
'основное_'
'оружием_'
'органах_'
'опытом_'
'определении_'
'огня_'
'ового_'
'объекта_'
'общую_'
'общины_'
'общественности_'
'обмен_'
'обеспечении_'
'об'
'о'
'новый_'
'но'
'никогда_'
'ников_'
'нефти_'
'нет'
'нередко_'
'непри'
'необходимую_'
'нен'
'недо'
'не'
'начале_'
'наук_'
'настоящий_'
'нарушений_'
'надлежащих_'
'наблюдателей_'
'му'
'модели_'
'мнения_'
'мировой_'
'минут_'
'места_'
'материала_'
'мандат_'
'мак'
'ля'
'ле'
'конкретные_'
'конвенций_'
'кол'
'ков_'
'ко'
'км_'
'к'
'ит'
'исполнение_'
'ион'
'имеющихся_'
'имеются_'
'ило_'
'иден'
'ивного_'
'иа'
'и'
'знаний_'
'земель_'
'зачастую_'
'заседание_'
'заниматься_'
'заключается_'
'зависимости_'
'завершения_'
'заболеваний_'
'жи'
'ец_'
'ет'
'ент'
'ено_'
'ем'
'ельное_'
'едино'
'доходов_'
'достичь_'
'должности_'
'добиться_'
'диалог_'
'ди_'
'ден'
'действиям_'
'данным_'
'дал'
'д'
'гося_'
'глав'
'гендерного_'
'ген'
'гарантии_'
'га_'
'г'
'выполнение_'
'вы'
'второго_'
'всеми_'
'восстановления_'
'возможных_'
'воздуха_'
'военного_'
'включить_'
'ви'
'взносы_'
'вен'
'вед'
'веб_'
'бывшей_'
'большие_'
'ар'
'анализ_'
'ан'
'активов_'
'активизации_'
'администрации_'
'Югославии_'
'Швейцария_'
'Чили_'
'Хи'
'Ха'
'Франции_'
'Украина_'
'УВКБ_'
'Турции_'
'ТО'
'Сомали_'
'Санкт_'
'Сал'
'СП'
'Президента_'
'Председателем_'
'Помимо_'
'Пол'
'По'
'Перу_'
'Отдела_'
'Основные_'
'ООН'
'Никарагуа_'
'Национального_'
'НА'
'МООН'
'МК'
'Ли'
'Кубы_'
'Колумбия_'
'Казахстана_'
'Казахстан_'
'Й_'
'Испания_'
'Из_'
'Зеландия_'
'Затем_'
'Ду'
'До'
'Ди'
'Да'
'ДА'
'Вер'
'ВОЗ_'
'Бурунди_'
'Би'
'Бангладеш_'
'Армении_'
'Ан'
'Австралия_'
'ö'
'Ð¾Ð_'
'ÐµÐ½Ð_'
'zi_'
'zed_'
'ze_'
'yt'
'ys'
'wrote_'
'wishes_'
'whom_'
'vision_'
'violation_'
'video_'
'uri'
'ure_'
'unable_'
'tri'
'travel_'
'tive_'
'thy_'
'television_'
'telephone_'
'ta_'
'successfully_'
'stress_'
'standing_'
'st'
'specifically_'
'soldiers_'
'sion_'
'she'
'senior_'
'scheduled_'
'says_'
'sale_'
'sa_'
's'
'ry'
'run_'
'ru'
'reviews_'
'responsibilities_'
'ren'
'relief_'
'reflect_'
'reduced_'
'recorded_'
'recommend_'
'recently_'
'ready_'
'ratings_'
'qui'
'qua'
'pu'
'protected_'
'producing_'
'principal_'
'presidential_'
'presentation_'
'prepare_'
'photo_'
'permanent_'
'percent_'
'participated_'
'pa'
'otherwise_'
'ol'
'oa'
'ny'
'nu'
'ns'
'night_'
'network_'
'na'
'ming_'
'mi'
'med_'
'man'
'maintained_'
'lt'
'lost_'
'lor'
'lat'
'largest_'
'ks_'
'ki'
'ke'
'joined_'
'ir_'
'investigations_'
'ins_'
'ine'
'im'
'illegal_'
'identified_'
'hy'
'huso_'
'houses_'
'horario_'
'hora_'
'heads_'
'har'
'ha'
'guarantees_'
'gri'
'gra'
'gh'
'functioning_'
'fu'
'front_'
'formation_'
'fore'
'flows_'
'fiftieth_'
'ffe'
'ff'
'farm_'
'factor_'
'extension_'
'expression_'
'experienced_'
'estimates_'
'ess_'
'equivalent_'
'equipped_'
'envisaged_'
'enough_'
'engagement_'
'encouraged_'
'employees_'
'emissions_'
'ement_'
'du_'
'dra'
'download_'
'dly_'
'district_'
'distance_'
'dispute_'
'disaster_'
'dia'
'device_'
'den'
'demonstrated_'
'democracy_'
'degree_'
'ded_'
'declaration_'
'dan'
'customs_'
'cs_'
'coverage_'
'courts_'
'courses_'
'coordinating_'
'contrary_'
'connection_'
'connected_'
'committee_'
'command_'
'combination_'
'cke'
'citizens_'
'character_'
'cha'
'can'
'cal'
'bro'
'bo'
'beautiful_'
'background_'
'back'
'aware_'
'ati'
'asset_'
'army_'
'ari'
'appear_'
'apartment_'
'ant'
'ani'
'analytical_'
'an'
'ah_'
'ag'
'advisory_'
'actors_'
'acquisition_'
'acceptance_'
'acceptable_'
'academic_'
'Year_'
'Wa'
'Vista_'
'Universal_'
'UNFPA_'
'Travel_'
'Ti'
'Thursday_'
'Thu_'
'Te'
'Table_'
'TO_'
'TION_'
'Sales_'
'SUM_'
'SR_'
'Rwanda_'
'Rules_'
'Region_'
'Quote_'
'Project_'
'Principles_'
'Post_'
'PC'
'Ob'
'OR'
'News_'
'Moreover_'
'Members_'
'Measures_'
'Mari'
'Log_'
'Let_'
'Ke'
'Jerusalem_'
'Ireland_'
'Indonesia_'
'IT'
'IN_'
'IN'
'House_'
'He'
'Gi'
'Ge'
'GDP_'
'Follow_'
'Fe'
'FA'
'Er'
'Environmental_'
'ESCAP_'
'ER'
'EN_'
'EC'
'De_'
'DI'
'DE'
'Culture_'
'Consideration_'
'Colombia_'
'Child_'
'Chair_'
'CRC_'
'CR'
'Business_'
'Belgium_'
'Belarusian_'
'Ba'
'Austria_'
'Australia_'
'Audit_'
'Art_'
'Argentina_'
'Any_'
'Am'
'Ali'
'Ai'
'Ad'
'AR'
'<_'
'95_'
'94_'
'94'
'89'
'87_'
'86_'
'85'
'83'
'79'
'68'
'66'
'6'
'5'
'40'
'37'
'35'
'24'
'201'
'200'
'1984_'
'1978_'
'180_'
'14'
'118_'
'117_'
'116_'
'110_'
'105'
'104_'
'01'
'...+_'
'). _'
') "_'
')'
'# _'
'"><_'
'":{"_'
' • _'
' ("_'
'ё'
'ять_'
'яр'
'языка_'
'ющим_'
'ющее_'
'эффективных_'
'эффективное_'
'этими_'
'ьное_'
'шт'
'школы_'
'широкого_'
'шестой_'
'ша'
'чных_'
'численности_'
'цикла_'
'целевой_'
'ху'
'форума_'
'формирования_'
'финансовыми_'
'файлов_'
'уют_'
'учитывать_'
'уч'
'условии_'
'уничтожения_'
'ун'
'улучшению_'
'ул'
'уж'
'уделять_'
'уг'
'тя'
'тур'
'труд_'
'тро'
'три'
'типа_'
'таблице_'
'структур'
'страну_'
'стоимости_'
'сто'
'стихийных_'
'стил'
'статуса_'
'стало_'
'сотрудничеству_'
'состоявшемся_'
'соответствующей_'
'соответствие_'
'сообщили_'
'согласованных_'
'согласия_'
'совместных_'
'смогут_'
'смертности_'
'следующей_'
'серьезные_'
'серии_'
'сектор_'
'секретарю_'
'се'
'связанным_'
'своему_'
'самолет'
'само'
'ря'
'рыб'
'руководством_'
'руководства_'
'рон'
'рода_'
'ро'
'рисками_'
'решить_'
'решать_'
'религии_'
'результатом_'
'резерв'
'регионах_'
'реб'
'рд'
'ратификации_'
'рассмотрению_'
'рас'
'рамм'
'рамки_'
'разработка_'
'разных_'
'различным_'
'раздел_'
'разбирательства_'
'пунктов_'
'пунктах_'
'происходит_'
'прогноз_'
'проблемам_'
'причин_'
'природных_'
'признать_'
'признательность_'
'при'
'премьер_'
'президента_'
'предусмотрено_'
'предусмотренных_'
'предусмотренные_'
'представляется_'
'представлен_'
'представили_'
'предоставлении_'
'превышает_'
'практике_'
'правило_'
'потребуется_'
'постановление_'
'последующих_'
'понять_'
'пользу_'
'полученных_'
'полученные_'
'полное_'
'полно'
'полицейские_'
'политике_'
'пола_'
'поз'
'поездок_'
'подходов_'
'погоды_'
'повышению_'
'повестка_'
'поведения_'
'поведение_'
'поблагодарить_'
'переговоры_'
'первую_'
'очередь_'
'отходов_'
'отс'
'отмечая_'
'осуществляются_'
'осуществляться_'
'осуществить_'
'основы_'
'осведомленности_'
'органам_'
'органа_'
'опыта_'
'определенные_'
'онт'
'омо'
'одному_'
'оде'
'обязательство_'
'общие_'
'обществе_'
'обще'
'обо'
'обмена_'
'обзор'
'обеспечением_'
'нный_'
'нию_'
'нему_'
'недостаточно_'
'недавно_'
'нев'
'национальными_'
'научных_'
'научно_'
'настоящим_'
'настоящем_'
'народонаселения_'
'наличии_'
'мониторинга_'
'молодых_'
'мин_'
'меньшинств_'
'мен'
'меж'
'медицинского_'
'мандатов_'
'мало'
'любое_'
'лу'
'лов'
'лит'
'лек'
'л'
'курсы_'
'курсов_'
'кс'
'крупных_'
'кроме_'
'коррупцией_'
'кор'
'конца_'
'конкуренции_'
'компонента_'
'комиссия_'
'комиссий_'
'ков'
'ква'
'качество_'
'касающийся_'
'июле_'
'испытания_'
'ис'
'интересов_'
'интер'
'институтов_'
'имеется_'
'иков_'
'ики_'
'ик'
'изучить_'
'изменить_'
'ид'
'ив_'
'зоны_'
'значительные_'
'значительно_'
'земле'
'заявления_'
'затем_'
'засухи_'
'заместитель_'
'зал_'
'законы_'
'закон_'
'задачей_'
'жен'
'ею_'
'ера_'
'енное_'
'енного_'
'ению_'
'ении_'
'ельные_'
'ель_'
'ел'
'евро_'
'ду_'
'др'
'достаточно_'
'дополнительного_'
'дом_'
'долю_'
'доли_'
'докладчик_'
'договоров_'
'добровольных_'
'директив'
'дер'
'делает_'
'действие_'
'девочек_'
'даты_'
'давно_'
'грузов_'
'границ_'
'гражданства_'
'городских_'
'ги_'
'высоко'
'выс'
'выводов_'
'входят_'
'всё_'
'вступления_'
'встреч_'
'вс'
'вра'
'вод'
'вого_'
'внедрения_'
'вне_'
'вид'
'взять_'
'ве'
'вал'
'важные_'
'бюро_'
'большей_'
'банка_'
'ация_'
'ати'
'ари'
'акты_'
'ад'
'авторов_'
'ав'
'Эн'
'ЦИ'
'Х_'
'Фа'
'Утверждение_'
'Специальной_'
'Следует_'
'Сил'
'Се'
'Саудовской_'
'СПИДом_'
'СИ'
'Россия_'
'РА'
'Программе_'
'Представитель_'
'Подготовка_'
'Пакистан_'
'ПРО'
'Оратор_'
'ОБСЕ_'
'ОАО_'
'Нигерии_'
'НО'
'Москве_'
'Министерство_'
'Ме'
'Марокко_'
'МА'
'Л_'
'Коста_'
'Конвенцию_'
'Кон'
'Комиссией_'
'Каб'
'КО'
'Йорк_'
'Интернет_'
'Индии_'
'ИКТ_'
'Женеве_'
'ЕН'
'Департамент_'
'Дата_'
'ДИ'
'Германия_'
'Вопрос_'
'ВОКНТА_'
'Бу'
'Бразилия_'
'Бразилии_'
'Более_'
'Беларуси_'
'БЕЛТА_'
'Америке_'
'Аль_'
'АС_'
'ä'
'ÐµÐ_'
'Ð'
'¸ _'
'zh'
'ye_'
'yan_'
'worth_'
'wood_'
'wn_'
'winter_'
'went_'
'weather_'
'we'
'vulnerability_'
'violent_'
'via_'
'vi'
'ven'
'vely_'
'vegetables_'
'var'
'van'
'uses_'
'user_'
'urged_'
'urge_'
'ur_'
'ume'
'ua'
'u043'
'tur'
'tro'
'transition_'
'train_'
'trading_'
'tourist_'
'tis'
'though_'
'thereby_'
'task_'
'tary_'
'systematic_'
'sustainability_'
'supports_'
'super'
'summer_'
'substantial_'
'subsequent_'
'subregional_'
'structural_'
'strength_'
'step_'
'src_'
'spices_'
'speakers_'
'spa'
'sovereignty_'
'southern_'
'sol'
'skills_'
'sign_'
'sha'
'seven_'
'separate_'
'sensitive_'
'sense_'
'seminars_'
'segment_'
'seem_'
'seek_'
'secured_'
'sections_'
'scientific_'
'rt_'
'rt'
'reviewed_'
'ret'
'res_'
'requiring_'
'represents_'
'repatriation_'
'rel'
'rehabilitation_'
'records_'
'reconstruction_'
'recognition_'
'reason_'
'really_'
'rea'
'ras'
'rapid_'
'quite_'
'que_'
'quarter_'
'purchase_'
'properties_'
'prisoners_'
'pri'
'presents_'
'preparatory_'
'plants_'
'pla'
'phase_'
'percentage_'
'pdf_'
'passed_'
'partner_'
'parents_'
'owned_'
'outstanding_'
'ote'
'ot'
'op_'
'occupied_'
'observers_'
'nde'
'ncy_'
'namely_'
'm²_'
'music_'
'move_'
'mon'
'mit'
'minutes_'
'mid_'
'measurement_'
'measure_'
'md_'
'mar'
'manage_'
'majority_'
'lity_'
'lies_'
'late_'
'ker_'
'keep_'
'ju'
'job_'
'ji'
'ire_'
'ional_'
'invitation_'
'introducing_'
'introduce_'
'intergovernmental_'
'instrument_'
'instance_'
'installation_'
'innovative_'
'initiated_'
'inclusive_'
'ie'
'identification_'
'ice_'
'ica_'
'humidity_'
'hu'
'holding_'
'hn'
'himself_'
'highlighted_'
'her'
'harmful_'
'half_'
'guide_'
'gs_'
'grateful_'
'gn'
'ght_'
'generation_'
'gar'
'fy_'
'ft_'
'fostering_'
'formulation_'
'format_'
'formal_'
'fle'
'firm_'
'financed_'
'fields_'
'fast_'
'extremely_'
'exports_'
'expanding_'
'existence_'
'executive_'
'excellent_'
'er'
'enterprises_'
'enterprise_'
'enabling_'
'eight_'
'eg'
'ee_'
'eat_'
'duties_'
'drafting_'
'display_'
'die_'
'demo'
'decline_'
'decade_'
'cross_'
'corruption_'
'corrections_'
'cor'
'copies_'
'consultation_'
'concepts_'
'competition_'
'competent_'
'cloudzone_'
'claimant_'
'claim_'
'chemical_'
'changing_'
'chaired_'
'ch'
'causes_'
'calendar_'
'broad_'
'break_'
'bre'
'bra'
'big_'
'believed_'
'believe_'
'behind_'
'behaviour_'
'beginning_'
'becoming_'
'became_'
'bearing_'
'bas'
'arguments_'
'ar'
'appears_'
'anniversary_'
'amp_'
'amended_'
'amend_'
'almost_'
'alleged_'
'agree_'
'adopt_'
'adapt_'
'ad'
'actively_'
'across_'
'ach'
'ably_'
'Yugoslavia_'
'Ye'
'XXI_'
'Wed_'
'Uzbekistan_'
'Tue_'
'Tri'
'To'
'Test_'
'Tajikistan_'
'Ta'
'TO'
'TE'
'Sweden_'
'Sudan_'
'Su'
'Strengthening_'
'Statistics_'
'Statement_'
'Standard_'
'St'
'Spo'
'Soviet_'
'Several_'
'Send_'
'Science_'
'School_'
'Sahara_'
'SM'
'SI'
'SC_'
'Resolution_'
'Rea'
'RS'
'RI'
'RE'
'Qatar_'
'Protocols_'
'Prevention_'
'Press_'
'Pre'
'Police_'
'Po'
'Pi'
'Petersburg_'
'Per'
'Peacekeeping_'
'Part_'
'Open_'
'OIOS_'
'Network_'
'NGOs_'
'NE'
'Monitoring_'
'Mat'
'Mar'
'Main_'
'Machine_'
'Ma'
'Last_'
'LI'
'LA'
'KO'
'Ja'
'Inter'
'Indigenous_'
'Indi'
'IX_'
'IP'
'IAEA_'
'Ho'
'Haiti_'
'Google_'
'Gaza_'
'Fri_'
'France_'
'Far'
'Fa'
'Ele'
'Ed'
'EU_'
'Developing_'
'Debian_'
'Dar'
'Dan'
'Corr_'
'Con'
'Community_'
'Co'
'Che'
'Chairperson_'
'CT'
'Burundi_'
'Bulgaria_'
'Bro'
'Bangladesh_'
'BO'
'Authority_'
'Anti_'
'Alexander_'
'Activities_'
'Academy_'
'AM'
'></_'
'> _'
'='_'
'90'
'86'
'81'
'74'
'62'
'60'
'56'
'55'
'49'
'47'
'44'
'28'
'23'
'1989_'
'1983_'
'1967_'
'195'
'188_'
'18'
'12'
'115_'
'106_'
'/?_'
'/>_'
'.]_'
'.)_'
'! '
'!'
' - '
' ******* _'
' ( _'
'”._'
'”, _'
'яется_'
'яд'
'яв'
'юю_'
'этапа_'
'экономические_'
'ыл'
'щей_'
'школ_'
'шаги_'
'ш'
'чрезвычайной_'
'чит'
'чен'
'цен_'
'це'
'хи'
'форум_'
'фонды_'
'уще'
'учет_'
'учащихся_'
'участии_'
'участвующих_'
'утверждение_'
'установлено_'
'установлению_'
'уст'
'уменьшения_'
'указать_'
'указано_'
'указанные_'
'указания_'
'ук'
'уделить_'
'уд'
'угрозу_'
'уважения_'
'ув'
'тюрьмах_'
'ты'
'требуют_'
'требованиям_'
'требование_'
'точка_'
'торговых_'
'товаров_'
'тип'
'тин'
'тик'
'техническую_'
'тан'
'тал'
'считают_'
'сумму_'
'судьи_'
'судебных_'
'суб'
'страхования_'
'стратегическ'
'страной_'
'стороной_'
'стол'
'статью_'
'статей_'
'ст_'
'срока_'
'способствует_'
'специальные_'
'союз'
'социальное_'
'состав'
'сосед'
'сор'
'сообщить_'
'содержание_'
'содействии_'
'согласие_'
'слово_'
'словам_'
'слишком_'
'следующий_'
'ское_'
'сих_'
'ситуаций_'
'силами_'
'семинаров_'
'семейных_'
'сем'
'секторах_'
'сек_'
'связаны_'
'своими_'
'своим_'
'свете_'
'свет_'
'рынка_'
'рт'
'рк'
'речь_'
'рес'
'рекомендацией_'
'результат_'
'регулярно_'
'региональными_'
'регион'
'ре'
'расширению_'
'рассматривается_'
'расследованию_'
'распространяется_'
'распоряжении_'
'расположен'
'рам'
'рак'
'разрешения_'
'разо'
'размеров_'
'равноправия_'
'пят'
'публикации_'
'процессы_'
'протокол'
'производство_'
'проекту_'
'проекте_'
'прод'
'проведено_'
'причины_'
'принятые_'
'принимающей_'
'применять_'
'применении_'
'применением_'
'призвала_'
'претензий_'
'претензии_'
'пресс_'
'прекращения_'
'предыдущих_'
'предпринима'
'предложил_'
'пределами_'
'пребывания_'
'практику_'
'право'
'правительству_'
'почему_'
'постоянной_'
'помимо_'
'помещений_'
'получение_'
'получают_'
'положениями_'
'политику_'
'позицию_'
'позволяют_'
'подготовить_'
'повестку_'
'план'
'пе'
'п'
'охватывает_'
'охват_'
'отправ'
'относящихся_'
'отмен'
'отдыха_'
'отдельным_'
'отвечает_'
'осуществляет_'
'осуществлением_'
'островов_'
'ори'
'органу_'
'ора'
'оплаты_'
'опи'
'оперативных_'
'онного_'
'океан'
'оказывает_'
'оказании_'
'ожидается_'
'одном_'
'одно'
'оди'
'огра'
'ог'
'овн'
'обязанностей_'
'объеме_'
'объема_'
'общественных_'
'обсуждение_'
'обслуживанию_'
'обращения_'
'образованию_'
'обновления_'
'ня_'
'ност'
'новая_'
'нными_'
'нного_'
'низ'
'нием_'
'несет_'
'нера'
'необходимым_'
'необходимы_'
'незаконной_'
'независимость_'
'независимо_'
'невозможно_'
'нашу_'
'наци'
'насилием_'
'насилие_'
'население_'
'нарушение_'
'направлений_'
'нами_'
'налог'
'надо_'
'надлежащие_'
'надлежащего_'
'нав'
'мый_'
'мые_'
'мой_'
'мого_'
'могла_'
'мл'
'миру_'
'миростроительства_'
'министром_'
'миллионов_'
'метр'
'металл'
'месте_'
'меньшей_'
'международно_'
'мед'
'ме'
'малых_'
'людям_'
'любом_'
'лы'
'лист'
'лен'
'ле_'
'культурного_'
'ку'
'кризисов_'
'кра'
'космического_'
'копи'
'координацию_'
'консенсуса_'
'конкретно_'
'код'
'карт_'
'ично'
'итоги_'
'исследование_'
'ис_'
'имею_'
'ика_'
'ик_'
'изменением_'
'изменение_'
'изма_'
'издан'
'играют_'
'иг'
'ива'
'зон_'
'значительной_'
'здания_'
'запис'
'запасов_'
'занимающихся_'
'занимается_'
'заместителя_'
'зам'
'законодательством_'
'заве'
'за'
'жилья_'
'жилье_'
'жертв_'
'женщинам_'
'жения_'
'ж'
'ест'
'ерн'
'енной_'
'енно_'
'ени'
'емой_'
'ек_'
'ей'
'ежегодно_'
'ег'
'доноров_'
'доме_'
'доля_'
'документации_'
'добро'
'диск'
'детям_'
'дело_'
'действовать_'
'данный_'
'гуманитарным_'
'гу'
'гре'
'государствах_'
'городах_'
'гна_'
'глобализации_'
'глава_'
'ге'
'ган'
'газа_'
'выхода_'
'вых_'
'выступить_'
'выступили_'
'выступать_'
'высоким_'
'выработке_'
'выполнить_'
'выплаты_'
'выплат_'
'вызывает_'
'вшихся_'
'втор'
'всеобъемлющей_'
'вооружений_'
'возраста_'
'возможные_'
'внесенными_'
'века_'
'важной_'
'бы'
'будущих_'
'будучи_'
'бо_'
'благо'
'без'
'аст'
'ассоциации_'
'аспектам_'
'ас'
'арабских_'
'апрель_'
'ании_'
'английски_'
'аль_'
'аль'
'ало'
'аж_'
'административных_'
'административным_'
'автобус'
'Япония_'
'Штатах_'
'Шри_'
'Ше'
'Целевой_'
'Форума_'
'Финляндии_'
'Фи'
'Участники_'
'Уголовного_'
'Турция_'
'Тор'
'Те'
'Таким_'
'Также_'
'Таджикистана_'
'Суда_'
'Словения_'
'Сейчас_'
'Само'
'Ру'
'Рассмотрение_'
'Польша_'
'ПО'
'ПИ'
'Ок'
'ОС'
'ООО_'
'Норвегии_'
'Нидерланды_'
'Необходимо_'
'Мир'
'Министерства_'
'Ми'
'Мар'
'МДП_'
'Куба_'
'Ки'
'Кар'
'Кан'
'Кал'
'КИ'
'Йорке_'
'Й'
'Исламская_'
'Израиля_'
'Законом_'
'ЗА'
'Европейская_'
'ЕР'
'Гу'
'Ги'
'Всемирного_'
'Время_'
'Впоследствии_'
'Вас_'
'Буд'
'Болгария_'
'Бо'
'Благодаря_'
'Бисау_'
'Баз'
'Ба'
'Аравии_'
'Александр_'
'Ад'
'Автор_'
'Австрия_'
'АР'
'ó'
'í'
'è'
'Ð½Ñ_'
'±_'
'ze'
'za_'
'work'
'wished_'
'wing_'
'wider_'
'west_'
'weight_'
'waste_'
'voting_'
'vol'
'vital_'
'ving_'
'vin'
'unemployment_'
'undertaking_'
'undertake_'
'und'
'ulo'
'ug'
'uct'
'ual_'
'ty'
'tt'
'trends_'
'tree_'
'transparency_'
'translation_'
'transformation_'
'transactions_'
'trained_'
'tors_'
'ton_'
'tly_'
'thank_'
'tes_'
'technologies_'
'tax_'
'targets_'
'tan'
'tal_'
'sur'
'sum_'
'substantive_'
'substance_'
'su'
'stri'
'strengthened_'
'stra'
'str'
'storage_'
'stand_'
'sse'
'spi'
'spatial_'
'south_'
'sis_'
'sin'
'sex_'
'separation_'
'selection_'
'seeks_'
'sed_'
'sec'
'schedule_'
'saw_'
'sation_'
'sal'
'safeguards_'
'rse'
'ron'
'river_'
'rise_'
'ris'
'rie'
'rid'
'ric'
'revision_'
'reviewing_'
'rest_'
'resolve_'
'represented_'
'removal_'
'register_'
'regards_'
'refugee_'
'refer_'
'rd_'
'rape_'
'ral_'
'qu'
'px_'
'pur'
'publish_'
'publications_'
'protecting_'
'pros'
'procedural_'
'probably_'
'president_'
'preparing_'
'pp_'
'powers_'
'por'
'phenomenon_'
'perfect_'
'pending_'
'pea'
'pass'
'participant_'
'parent_'
'par'
'pages_'
'ownership_'
'ova_'
'outl'
'outcomes_'
'ory_'
'or'
'ongoing_'
'ones_'
'on'
'omi'
'ole'
'oi'
'offences_'
'objects_'
'ob'
'nuts_'
'nt'
'none_'
'nit'
'nis'
'nin'
'nge'
'nes_'
'neither_'
'nation_'
'nas'
'mus'
'moving_'
'monthly_'
'monitor_'
'models_'
'mobile_'
'missions_'
'missing_'
'mil'
'ment'
'membership_'
'mb'
'marked_'
'marine_'
'logical_'
'lines_'
'lev'
'length_'
'learning_'
'learned_'
'leader_'
'latter_'
'lasting_'
'larger_'
'land'
'lamp_'
'la_'
'killed_'
'je'
'ja_'
'ita'
'ist_'
'ise_'
'io_'
'io'
'interpretation_'
'internet_'
'intention_'
'instruction_'
'influence_'
'indeed_'
'incurred_'
'incorporated_'
'ina_'
'impossible_'
'immediately_'
'identity_'
'ia'
'hr'
'household_'
'hour_'
'hope_'
'honour_'
'hoc_'
'highly_'
'healthy_'
'headquarters_'
'head'
'he'
'hand'
'han'
'guided_'
'guests_'
'governing_'
'globalization_'
'ght'
'ges_'
'ger_'
'gene'
'ged_'
'gap_'
'gan'
'funded_'
'fulfil_'
'friend_'
'fraud_'
'forth_'
'formed_'
'forced_'
'fol'
'felt_'
'fats_'
'fall_'
'exhibition_'
'examine_'
'exactly_'
'et'
'enjoyment_'
'enhanced_'
'engine_'
'endorsed_'
'ended_'
'encouraging_'
'ena'
'el'
'ei'
'ecosystems_'
'easily_'
'dor'
'disc_'
'disabilities_'
'differences_'
'difference_'
'detection_'
'define_'
'declined_'
'dealing_'
'councils_'
'corporate_'
'cooperate_'
'convention_'
'content_'
'consultative_'
'constructive_'
'constitute_'
'conservation_'
'consensus_'
'conformity_'
'conflicts_'
'condition_'
'conclusions_'
'con'
'computer_'
'composed_'
'comply_'
'competence_'
'comfortable_'
'collaboration_'
'clients_'
'clean_'
'claimed_'
'cla'
'ci'
'chosen_'
'certainly_'
'century_'
'cb_'
'caused_'
'cations_'
'categories_'
'cash_'
'bri'
'black_'
'bio'
'beneficial_'
'began_'
'be'
'bal'
'ava'
'auspices_'
'audit_'
'attended_'
'att'
'ating_'
'associations_'
'association_'
'art'
'applying_'
'apparent_'
'annexed_'
'ann'
'ance_'
'amounted_'
'als_'
'ak'
'airspace_'
'airlines_'
'ain'
'aged_'
'advanced_'
'addressing_'
'add'
'ace'
'accounting_'
'accept_'
'abs'
'Zone_'
'Z_'
'Z'
'Welcomes_'
'We'
'Vol'
'Vo'
'Va'
'USA_'
'UNHCR_'
'UND'
'Trust_'
'Tra'
'Three_'
'Thailand_'
'Task_'
'TS_'
'TI'
'Strategic_'
'Statements_'
'Sta'
'Sol'
'So'
'Signed_'
'She'
'Session_'
'Sch'
'Saudi_'
'San'
'Sam'
'ST'
'Rule_'
'Road_'
'Rio_'
'Res'
'Representatives_'
'Re'
'Q_'
'Putin_'
'Program_'
'Price_'
'Preparatory_'
'Portal_'
'Poland_'
'Plan'
'Ph'
'Peacebuilding_'
'Partnership_'
'Pal'
'PD'
'Order_'
'Or'
'Online_'
'OU'
'OHCHR_'
'NI'
'NATIONS_'
'My'
'Mu'
'Movement_'
'Mon_'
'Mon'
'Men'
'Medical_'
'MP'
'MO'
'Lithuania_'
'Letter_'
'Labour_'
'LD'
'Kyrgyzstan_'
'Jan_'
'J'
'Islamic_'
'Iraqi_'
'Integrated_'
'Independent_'
'Independence_'
'IF'
'IC'
'Hungary_'
'HI'
'HE'
'HA'
'GRPE_'
'GR'
'GE_'
'Fr'
'For'
'Financial_'
'Family_'
'Euro'
'Estonia_'
'EUR_'
'ES_'
'EM'
'EF'
'Description_'
'Da'
'DA'
'Czech_'
'Conventions_'
'Control_'
'Congo_'
'Christ_'
'Ca'
'COP_'
'CO2_'
'CL'
'CI'
'Based_'
'BA'
'Assistant_'
'An'
'Albania_'
'Air_'
'Agriculture_'
'Address_'
'AT'
'AL_'
'ACCC_'
'AB'
'98'
'96'
'93_'
'78_'
'78'
'69'
'63'
'61'
'54'
'4th_'
'412'
'38'
'20'
'1987_'
'1986_'
'192'
'176_'
'17'
'162'
'16'
'150_'
'143'
'126'
'108_'
'105_'
'1000_'
'1'
'04'
'0000_'
'... _'
', (_'
'))_'
'( _'
'('
'", - _'
'" - _'
' #._'
'”'
'ятся_'
'янс'
'ян_'
'языки_'
'юридических_'
'юридические_'
'юр'
'юго_'
'эффективность_'
'эффективно_'
'эл'
'экспорта_'
'экономическом_'
'экономический_'
'экологической_'
'ьте_'
'ьс'
'ье'
'ь'
'ыс'
'ыв'
'щихся_'
'щего_'
'шь_'
'штат'
'шн'
'широких_'
'шесть_'
'шения_'
'ше'
'чива'
'человечества_'
'чев'
'цен'
'целевых_'
'цвет'
'хся_'
'хочу_'
'хотела_'
'хот'
'химических_'
'функционирования_'
'фт'
'формально'
'фондов_'
'финанс'
'факт'
'ующ'
'участию_'
'ут_'
'устранения_'
'уровнем_'
'упомянут'
'уни'
'унд'
'ума_'
'ул_'
'укт'
'уется_'
'удовлетворение_'
'угл'
'увеличить_'
'уб'
'транс'
'тран'
'традици'
'торо'
'тон_'
'тол'
'ток_'
'то'
'тенге_'
'телефон'
'теле'
'такую_'
'такая_'
'считать_'
'счета_'
'сформулированных_'
'существующих_'
'существует_'
'существенны'
'стро'
'стратегических_'
'сторону_'
'статус_'
'статистических_'
'стара'
'стар'
'становятся_'
'ста'
'ст'
'сроков_'
'средне'
'сразу_'
'справедливости_'
'спорта_'
'спо'
'состоялось_'
'соответствующий_'
'соответствовать_'
'сообщени'
'сом'
'созна'
'создан_'
'содержащих_'
'соверша'
'сов'
'события_'
'собственных_'
'службе_'
'сложно'
'сла'
'ско_'
'ским_'
'сказать_'
'сия_'
'ситуация_'
'сессиях_'
'сессий_'
'сервер'
'семинары_'
'сельского_'
'сектором_'
'сексуального_'
'седьмой_'
'се_'
'свобод_'
'сбора_'
'санкций_'
'самым_'
'самое_'
'сад'
'рук'
'рождения_'
'рово'
'ров'
'рит'
'рисков_'
'риска_'
'ри_'
'реша'
'рекомендовал_'
'реинтеграции_'
'результатах_'
'результатам_'
'режиме_'
'региональным_'
'реагирования_'
'реабилитации_'
'расширить_'
'рассмотрены_'
'рассмотрении_'
'рассматриваться_'
'распространению_'
'рамок_'
'разъяснения_'
'разм'
'различия_'
'развитые_'
'развит'
'раз'
'равных_'
'равны'
'равно'
'рабочий_'
'работой_'
'работающих_'
'путь_'
'пут'
'пс'
'профсоюз'
'профилактики_'
'прос'
'продукты_'
'продуктов_'
'продолжительность_'
'продолжение_'
'продолжа'
'продовольственной_'
'продлени'
'программного_'
'проводится_'
'проводим'
'проведенных_'
'проблемами_'
'проб'
'принимается_'
'прин'
'применяются_'
'призыв'
'признается_'
'приемлемости_'
'придает_'
'приводятся_'
'приводится_'
'привлечения_'
'приверженность_'
'привержен'
'приведет_'
'прив'
'приб'
'предусматривающи'
'предприятия_'
'предоставляет_'
'предложению_'
'предлагаемого_'
'практических_'
'практически_'
'постоянных_'
'постоянного_'
'постановила_'
'пособий_'
'последн'
'порт'
'поощрять_'
'получении_'
'положениям_'
'полицейских_'
'пол'
'поиска_'
'позиции_'
'подчеркивает_'
'подростков_'
'подразделений_'
'подпис'
'повысить_'
'плод'
'планы_'
'письмо_'
'пес'
'перечень_'
'перес'
'передаче_'
'переда'
'перевозки_'
'перво'
'палестинского_'
'очередной_'
'ох'
'официальных_'
'официальные_'
'отчетности_'
'отчет_'
'отправля'
'отношениях_'
'отмечалось_'
'отмечается_'
'отметили_'
'отличие_'
'отдаленных_'
'ответственных_'
'ответственно'
'отбор'
'осуществляемых_'
'остью_'
'остров'
'основания_'
'основ'
'оси'
'оров_'
'организованной_'
'операциях_'
'опасно'
'онная_'
'ом'
'олн'
'окружающую_'
'окладов_'
'ови'
'ова_'
'объект'
'общество_'
'общее_'
'оборудование_'
'обеспокоен_'
'обеспечивает_'
'нст'
'новое_'
'ново'
'нов'
'нн'
'нибудь_'
'неу'
'нер'
'незаконного_'
'недель_'
'недел'
'нг_'
'нашими_'
'нашем_'
'начат'
'начало_'
'научные_'
'нарушением_'
'наркотиками_'
'направлении_'
'направил_'
'нан'
'наконец_'
'наименее_'
'назад_'
'наб'
'мп'
'мотр'
'мол'
'можем_'
'могу_'
'многими_'
'мне_'
'минутах_'
'мин'
'меч'
'механизм_'
'метод'
'месяца_'
'местными_'
'местном_'
'мест'
'мел'
'мб'
'массовой_'
'мар'
'мане'
'люди_'
'любому_'
'лю_'
'льных_'
'лон'
'личного_'
'лидер'
'лечения_'
'лено_'
'ление_'
'лежащ'
'курс'
'кров'
'кри'
'кре'
'коренного_'
'конференций_'
'контрактов_'
'контракт'
'конституци'
'конс'
'конкретном_'
'компьютер'
'ком'
'класс'
'кл'
'кий_'
'кие_'
'квартир'
'кат'
'карты_'
'какого_'
'каких_'
'каждом_'
'йт'
'иях_'
'иш'
'ической_'
'ических_'
'ические_'
'ическ'
'ита'
'источником_'
'исто'
'исполнения_'
'исполнении_'
'ирование_'
'ины_'
'инф'
'интересы_'
'интервью_'
'инструмента_'
'инспекци'
'инс'
'иной_'
'иного_'
'инвалид'
'имо'
'ими'
'имея_'
'имеющие_'
'име'
'има'
'ились_'
'изо'
'изл'
'изве'
'изация_'
'играет_'
'ивно'
'ив'
'иб'
'зре'
'значения_'
'зн'
'заявляет_'
'заявлений_'
'заявил_'
'защитой_'
'затр'
'зас'
'зар'
'занятости_'
'замечания_'
'законных_'
'заключенными_'
'задачу_'
'заб'
'жн'
'живущих_'
'жива'
'жестоко'
'жертвам_'
'женщинах_'
'женщина_'
'жение_'
'жени'
'ента'
'ель'
'ели_'
'ек'
'ейся_'
'ейн'
'единиц_'
'ева_'
'друзей_'
'другую_'
'друга_'
'дохода_'
'достоинства_'
'дос'
'дорожных_'
'дополнительную_'
'документах_'
'докладах_'
'договоры_'
'договор'
'дис'
'директора_'
'директор_'
'джа'
'десят'
'дения_'
'делать_'
'дек'
'действиях_'
'девятой_'
'двухгодичный_'
'двери_'
'дальнейшие_'
'группировк'
'гра'
'готовность_'
'голов'
'годом_'
'говорят_'
'говоря_'
'говор'
'гн'
'глубоко'
'глобальном_'
'главных_'
'вя'
'выступления_'
'выступает_'
'высокой_'
'высоко_'
'высокий_'
'выразить_'
'выразили_'
'выполняет_'
'выполнению_'
'вып'
'выда'
'выгод'
'выборах_'
'вход'
'встрече_'
'встреча'
'всесторонне'
'всеобъемлющего_'
'все'
'восточной_'
'восточно'
'вор'
'вопросом_'
'вообще_'
'воли_'
'водо'
'водных_'
'воде_'
'вну'
'вносить_'
'вно'
'внешней_'
'вилл'
'взаимодействие_'
'введени'
'вашем_'
'вашего_'
'ваш_'
'ваш'
'ваться_'
'вариантов_'
'важным_'
'важный_'
'бюджете_'
'бухгалтерского_'
'бра'
'большого_'
'большинства_'
'большая_'
'бле'
'бит'
'бассейн_'
'банк_'
'банк'
'бал'
'аются_'
'аэропорт'
'аспектах_'
'аре'
'ание_'
'анд'
'альная_'
'али'
'ала_'
'ал_'
'акк'
'аз'
'автор_'
'Южная_'
'Юг_'
'ЮНИДО_'
'Эл'
'Ча'
'Центральных_'
'Хорватии_'
'Хе'
'Фор'
'Финансирование_'
'Уч'
'Условия_'
'Ус'
'Уп'
'Узбекистана_'
'Узбекистан_'
'Техническ'
'Такое_'
'Судан_'
'Страница_'
'Сто'
'Специальным_'
'Специальному_'
'Со_'
'Секции_'
'Секретариатом_'
'Сау'
'СТ'
'СС'
'СЕ'
'СА'
'Рика_'
'Республикой_'
'Рас'
'РП'
'РЕ'
'Просьба_'
'Правило_'
'Правилам_'
'Пос'
'Португалии_'
'План'
'Письмо_'
'Первый_'
'Определение_'
'ОЭСР_'
'ОН_'
'ОН'
'Норвегия_'
'Нор'
'Нев'
'Народно_'
'Наконец_'
'Над'
'НК_'
'Много'
'Многие_'
'Министр_'
'Мексики_'
'Ман'
'МООНСГ_'
'Кувейта_'
'Кувейт_'
'Кр'
'Конференция_'
'Конвенция_'
'Комитете_'
'Ком'
'Кипре_'
'Ката'
'Канада_'
'Камерун_'
'КС_'
'Италии_'
'Исполнительный_'
'Испании_'
'Иран'
'Ил'
'Заседание_'
'Законе_'
'З_'
'Египет_'
'Договора_'
'До_'
'Департаментом_'
'Данные_'
'Данн'
'ДНЯ_'
'ДЕ'
'Группой_'
'Группе_'
'Грузии_'
'Государство_'
'Го'
'Главная_'
'Гер'
'Гар'
'Всемирная_'
'Всего_'
'Воз'
'Во'
'Вин'
'Верховный_'
'Венесуэла_'
'Вене_'
'Венгрия_'
'Великобритании_'
'Ве'
'Вал'
'ВВП_'
'Бр'
'Бор'
'Бельгии_'
'Бел'
'Бар'
'Бал'
'БА'
'Аэро'
'Ап'
'Ам'
'Аль'
'Азиатско_'
'Австрии_'
'Австралии_'
'Ав'
'АТ'
'АН'
'î'
'é'
'à_'
'Ð²_'
'« : _'
'zu'
'zan'
'ys_'
'xi'
'workshops_'
'wishing_'
'willingness_'
'width_'
'where'
'wanted_'
'vp_'
'volume_'
'visited_'
'vis'
'vessels_'
'utilization_'
'uti'
'usually_'
'unknown_'
'universities_'
'unique_'
'understood_'
'um'
'tun'
'trying_'
'transit_'
'traffic_'
'toward_'
'tourism_'
'thousands_'
'thing_'
'theme_'
'ter'
'tend_'
'ten'
'tell_'
'tanks_'
'talk_'
'tables_'
'subparagraph_'
'strict_'
'sto'
'sti'
'ster'
'stand'
'spread_'
'spr'
'spo'
'spend_'
'species_'
'speak_'
'span_'
'sou'
'sla'
'sing_'
'sing'
'shi'
'shelter_'
'shares_'
'servants_'
'ser'
'seminar_'
'seen_'
'seekers_'
'securities_'
'seats_'
'season_'
'sche'
'sch'
'scar'
'sc'
'rus'
'roads_'
'rn'
'rm'
'reside_'
'reservations_'
'replace_'
'rental_'
'relax'
'reiterates_'
'regulatory_'
'regularly_'
'ref'
'recognize_'
'reco'
'reading_'
'rd'
'rc'
'ratified_'
'rat'
'ran'
'quickly_'
'punishable_'
'ps'
'proved_'
'prohibited_'
'prohibit_'
'programming_'
'profile_'
'produce_'
'previously_'
'preparations_'
'prec'
'pra'
'pli'
'pledges_'
'played_'
'pl'
'pin'
'pho'
'phe'
'perspective_'
'permit_'
'periods_'
'performed_'
'per'
'parti'
'paras_'
'parallel_'
'panel_'
'pace_'
'ow_'
'overview_'
'overcome_'
'ori'
'ora'
'oo'
'oni'
'older_'
'ok'
'oe'
'od'
'observed_'
'observe_'
'numerous_'
'nti'
'nov'
'nom'
'nie'
'ngs_'
'nger_'
'nge_'
'nes'
'negative_'
'nds_'
'nc'
'nam'
'nal_'
'mutually_'
'mu'
'ms'
'miss'
'mini'
'mines_'
'mind_'
'mid'
'metres_'
'method_'
'mer'
'measured_'
'meaning_'
'mat'
'master_'
'manual_'
'machine_'
'lon'
'login'
'lli'
'livelihood_'
'lit'
'lists_'
'links_'
'linked_'
'limitation_'
'lic'
'liberalization_'
'letters_'
'legumes_'
'ld_'
'ld'
'lay_'
'lands_'
'lamps_'
'ky_'
'ku'
'ki_'
'key'
'ken_'
'kat'
'kas'
'jobs_'
'it'
'ir'
'involve_'
'investors_'
'internationally_'
'interference_'
'intellectual_'
'integral_'
'inspection_'
'insecurity_'
'ines_'
'indi'
'inde'
'incitement_'
'impacts_'
'ils_'
'ill_'
'ied_'
'idea_'
'id'
'ic'
'ible_'
'ian_'
'homes_'
'holiday_'
'hi_'
'hen'
'hei'
'heavy_'
'heart_'
'hands_'
'ham'
'ha_'
'gy'
'guarantee_'
'green_'
'grad'
'gle'
'gla'
'girl_'
'get'
'ger'
'geo'
'gen'
'gam'
'funtema_'
'fulfilment_'
'fulfilling_'
'friendly_'
'frameworks_'
'frame_'
'fort'
'forests_'
'for'
'focusing_'
'focal_'
'fo'
'fishing_'
'fisheries_'
'feature_'
'ez'
'extrabudgetary_'
'extra'
'explained_'
'expenditure_'
'expansion_'
'excessive_'
'examined_'
'esi'
'error_'
'eradication_'
'era'
'engage_'
'enc'
'emerging_'
'ements_'
'em_'
'electric_'
'eld'
'ela'
'ees_'
'ed'
'ection_'
'earlier_'
'driver_'
'disease_'
'discriminatory_'
'disclosure_'
'dew_'
'determine_'
'despite_'
'desire_'
'designated_'
'der'
'departure_'
'departments_'
'degradation_'
'decent_'
'dangerous_'
'danger_'
'cti'
'ct'
'crises_'
'credit_'
'crawled_'
'covering_'
'copy_'
'coordinated_'
'coordinate_'
'contingent_'
'consolidation_'
'considers_'
'consent_'
'connect'
'confirmed_'
'conf'
'concrete_'
'concentration_'
'composition_'
'completely_'
'complaint_'
'commission_'
'coming_'
'combined_'
'clo'
'click_'
'cle_'
'class_'
'citizenship_'
'cing_'
'church_'
'check_'
'channels_'
'changed_'
'certificate_'
'cereals_'
'cau'
'cation_'
'cards_'
'bu'
'brake_'
'bonds_'
'blog_'
'biological_'
'bill_'
'bes'
'ben'
'believes_'
'begin_'
'base_'
'barcelona_'
'ay'
'awarded_'
'award_'
'availability_'
'authors_'
'authorized_'
'au_'
'atu'
'arrest_'
'arising_'
'aries_'
'ard_'
'arch'
'appointment_'
'anti'
'ana'
'ami'
'allegedly_'
'advantage_'
'advancement_'
'advance_'
'administering_'
'ade'
'addresses_'
'acting_'
'accounts_'
'accelerate_'
'absence_'
'abroad_'
'][_'
']'
'Your_'
'XII_'
'Work'
'Wo'
'Who_'
'Welcoming_'
'Wayback_'
'War_'
'Vi'
'UT'
'UR'
'UNRWA_'
'UNMI'
'UNITED_'
'Two_'
'Turkish_'
'Transitional_'
'Trafficking_'
'Today_'
'Time_'
'Terrorism_'
'Tan'
'TA'
'T1'
'Sy'
'Subcommittee_'
'Sub'
'Study_'
'Stra'
'Statute_'
'Spanish_'
'Spa'
'Southern_'
'Source_'
'Somalia_'
'Som'
'Society_'
'Sk'
'Sixth_'
'Sha'
'Sh'
'Ser'
'Self_'
'SU'
'SP'
'SH'
'SE'
'Ru'
'Ren'
'Rem'
'RU'
'RC'
'RA'
'Qui'
'Professional_'
'Procedure_'
'Pri'
'Pres'
'Pra'
'Poverty_'
'Posts_'
'Peoples_'
'Parliament_'
'Pan'
'Palestinians_'
'PC_'
'Oversight_'
'Over_'
'Os'
'Oil_'
'Observer_'
'OS'
'Nov_'
'Not_'
'Nairobi_'
'NS'
'NA_'
'Mrs_'
'Morocco_'
'Mor'
'Model_'
'Mal'
'ME'
'Lord_'
'London_'
'List_'
'Lin'
'Life_'
'Ki'
'Kha'
'Kaz'
'JSC_'
'Investment_'
'Increased_'
'IT_'
'IPSAS_'
'ILO_'
'IDB_'
'ICT_'
'IA'
'Humanitarian_'
'Home_'
'Holy_'
'Head_'
'Har'
'Hal'
'HU'
'Gre'
'Grand_'
'Gra'
'Gol'
'Get_'
'GA'
'Fre'
'Forces_'
'Fo'
'Find_'
'Field_'
'FE'
'Encourages_'
'Emergency_'
'Elimination_'
'Electoral_'
'Egypt_'
'EN'
'EG'
'ED_'
'Document_'
'District_'
'Discrimination_'
'Desertification_'
'Des'
'Dep'
'Decides_'
'David_'
'Date_'
'Data_'
'DS_'
'Cultural_'
'Cons'
'Comp'
'Communications_'
'Common_'
'Commerce_'
'Combat_'
'Coalition_'
'Char'
'Chapter_'
'Ce'
'Cayman_'
'Calls_'
'Cabinet_'
'CS'
'CON'
'CN'
'CIS_'
'Bre'
'Biological_'
'Ber'
'Ben'
'Basel_'
'Bal'
'Arm'
'Argentine_'
'Arabs_'
'Ant'
'Another_'
'Annual_'
'Ann'
'Among_'
'Ala'
'Airport_'
'Ag'
'Adoption_'
'Ab'
'AP'
'>>_'
'> '
': “_'
'93'
'84'
'71'
'70'
'587'
'53'
'50'
'33'
'202_'
'2020_'
'1985_'
'1981_'
'1980_'
'194'
'165_'
'161'
'160_'
'155_'
'151_'
'145'
'139_'
'130_'
'127_'
'122_'
'/. _'
'.._'
'." _'
'*'
'); (_'
')/_'
'))._'
'"(_'
' №_'
' €_'
' ]_'
' = _'
' (-_'
'”, “_'
'” (_'
'яются_'
'ясно_'
'яс'
'январе_'
'языков_'
'языках_'
'язык_'
'являющихся_'
'ющиеся_'
'ющей_'
'юрисдикции_'
'юрисдикцией_'
'юридической_'
'южно'
'юд'
'этнической_'
'этнических_'
'этапов_'
'этап'
'эр'
'эм'
'эксплуатацию_'
'экономическое_'
'экономи'
'экологического_'
'эк'
'ьн'
'ьд'
'ыва'
'щин'
'щение_'
'щен'
'щая_'
'щ'
'шу'
'школах_'
'шка'
'широкое_'
'широко_'
'шин'
'шести_'
'шен'
'шая_'
'чная_'
'член_'
'чки_'
'числ'
'чин'
'чик_'
'чи_'
'ческий_'
'ческая_'
'частным_'
'час_'
'ционны'
'ционной_'
'ценности_'
'цена_'
'целый_'
'цел'
'це_'
'ц'
'хранение_'
'хр'
'хороший_'
'хозяйство_'
'ход'
'химического_'
'характер'
'хан'
'функционирование_'
'формировани'
'финансовом_'
'финансированию_'
'физических_'
'феврале_'
'факторов_'
'файлы_'
'файле_'
'уязвимости_'
'уязвимо'
'уются_'
'уюся_'
'уш'
'учрежден'
'участвуют_'
'уча'
'уходу_'
'ухода_'
'утверждении_'
'устранение_'
'установление_'
'успешно_'
'усилиям_'
'ус_'
'урс'
'уровню_'
'уровней_'
'урн'
'университет_'
'умер'
'улиц'
'укреплять_'
'укрепля'
'укрепить_'
'удо'
'углерода_'
'увеличения_'
'уведомления_'
'уве'
'убытк'
'ть'
'туризма_'
'трудовой_'
'трудностей_'
'труд'
'третья_'
'требований_'
'транспорт'
'торы_'
'торговлей_'
'тонн_'
'тно'
'тк'
'тить_'
'тесь_'
'тесно_'
'территориальной_'
'терпимости_'
'тельных_'
'тель_'
'тел'
'текст'
'тебе_'
'тверд'
'тат'
'тар'
'танц'
'тай'
'сын'
'считается_'
'сценари'
'сфер'
'существование_'
'существенно_'
'судопроизводства_'
'судебно_'
'субсидий_'
'структурами_'
'структур_'
'стратегию_'
'стратегические_'
'страновом_'
'стра'
'столкнуться_'
'стоит_'
'стои'
'стк'
'стимул'
'ству'
'старе'
'станет_'
'стандартам_'
'стан'
'сталкиваются_'
'ставк'
'сс'
'средних_'
'сражение_'
'спрашивает_'
'справедливо'
'способы_'
'способствовала_'
'способ'
'специальный_'
'специальн'
'специализированные_'
'социальным_'
'сохранения_'
'сотрудникам_'
'сот'
'состоянию_'
'состояние_'
'состоявшейся_'
'составляют_'
'составил_'
'сосредоточи'
'сос'
'сопоставлени'
'соответствия_'
'сообществом_'
'сокращению_'
'содержащиеся_'
'содержащейся_'
'содержатся_'
'содействию_'
'согласован'
'согласился_'
'современны'
'совещаниях_'
'событи'
'соблюдать_'
'снят'
'сни'
'снабжения_'
'сможет_'
'смог_'
'смен'
'службу_'
'сложности_'
'словами_'
'слов'
'следующем_'
'след'
'скр'
'скоростью_'
'скому_'
'сколько_'
'ске_'
'син'
'сеть_'
'сетей_'
'сет'
'сессию_'
'семейного_'
'сельскохозяйственных_'
'сельскохозяйственной_'
'сектору_'
'сей'
'сг'
'связано_'
'связанными_'
'света_'
'свет'
'сва'
'сбор_'
'санкци'
'сан'
'самые_'
'самой_'
'сам'
'рынок_'
'рынках_'
'руководству'
'рос'
'рома_'
'рок'
'родственник'
'родил'
'ровать_'
'рин'
'рж'
'ресурсах_'
'ресурсам_'
'рен'
'ремонта_'
'религиозных_'
'рел'
'реконструкции_'
'реклам'
'рейс'
'режима_'
'ревизии_'
'ревизи'
'реальны'
'расчет_'
'расходах_'
'рассмотрением_'
'расп'
'расовой_'
'расов'
'района_'
'разряд'
'разработаны_'
'разнообразных_'
'разнообрази'
'разделя'
'разделу_'
'раздел'
'развивающиеся_'
'развертывания_'
'разбивке_'
'раж'
'радио'
'равной_'
'рабочая_'
'работник'
'пятой_'
'путей_'
'пуст'
'пунктам_'
'пул'
'прошлом_'
'процессом_'
'процентно'
'проходил'
'профил'
'противо'
'просьбы_'
'проституции_'
'просил_'
'промышленно'
'проектах_'
'продукт'
'продолжают_'
'продажи_'
'прода'
'программой_'
'программами_'
'проведены_'
'проведением_'
'проведен_'
'проблема_'
'причиной_'
'причин'
'присутствия_'
'присутствие_'
'приоритетов_'
'приняло_'
'принципе_'
'принципами_'
'принимаются_'
'принадлеж'
'признании_'
'признает_'
'приглашен'
'приводит_'
'приветствовал'
'приблизительно_'
'пресечени'
'препятствий_'
'прекратить_'
'предыдущего_'
'предусматривают_'
'предстоит_'
'представляющих_'
'представляющ'
'представленный_'
'представлени'
'представила_'
'предпринимательства_'
'предметом_'
'предложить_'
'пределы_'
'предварительной_'
'предварительно'
'практическо'
'правоохранительных_'
'правовые_'
'правильно'
'правилами_'
'почте_'
'потребова'
'посту_'
'постановляет_'
'пост'
'последующей_'
'посещения_'
'посеща'
'пор'
'поправок_'
'поправками_'
'пон'
'помогает_'
'помещения_'
'пользуются_'
'пользоваться_'
'получила_'
'получать_'
'политическую_'
'показан'
'позиций_'
'позволяющи'
'подтвердил'
'подс'
'подпрограммы_'
'подписан'
'подн'
'поделиться_'
'подверга'
'повер'
'пове'
'побе'
'плохо_'
'плеер_'
'платежей_'
'плат'
'плану_'
'планировани'
'пла'
'питания_'
'пересмотре_'
'передовых_'
'перевозок_'
'перевода_'
'перевод'
'паспорт'
'партнерство_'
'палестинской_'
'палестинских_'
'оя'
'оч'
'охватыва'
'официально_'
'отста'
'отра'
'отр'
'отпуска_'
'отношению_'
'открытого_'
'отдельно'
'отделений_'
'ответы_'
'островных_'
'остан'
'ост'
'особенности_'
'осе'
'оры_'
'организациях_'
'организационны'
'опыт_'
'определять_'
'определенных_'
'опол'
'оплат'
'описан'
'оператор'
'оперативной_'
'оперативно'
'ооб'
'онные_'
'оне'
'оме'
'оль'
'ологи'
'октябре_'
'оккупации_'
'оказать_'
'ои'
'оза'
'ограниченны'
'ограничений_'
'ограничение_'
'ограничен'
'овых_'
'овл'
'ове'
'ова'
'обязательно'
'обязанность_'
'обычно'
'объединенных_'
'объединения_'
'общественностью_'
'обусловлен'
'обсужда'
'обстановки_'
'обстановк'
'обращение_'
'образ'
'обработки_'
'оборота_'
'обоих_'
'облегчения_'
'обл'
'обеспечивают_'
'обеспечивается_'
'обе'
'оа'
'ня'
'нь'
'ну'
'нта'
'нт'
'нс'
'ноябре_'
'номеров_'
'новую_'
'нка'
'ники_'
'низких_'
'нераспространения_'
'непро'
'неправительственные_'
'непо'
'необходимой_'
'необ'
'немного_'
'нем'
'нельзя_'
'некоторыми_'
'нежели_'
'нед'
'нг'
'начать_'
'национальный_'
'национальная_'
'населенным_'
'населени'
'народы_'
'направлениях_'
'направления_'
'напоминает_'
'нападений_'
'наме'
'наличия_'
'нака'
'наи'
'назначить_'
'нажмите_'
'навык'
'мя'
'мы'
'мую_'
'мощ'
'морской_'
'морских_'
'монт'
'молод'
'моей_'
'многосторонне'
'мн'
'мит'
'минимальных_'
'микро'
'меша'
'механизмах_'
'метров_'
'место'
'мер'
'мент'
'медицинскому_'
'медицинское_'
'ме_'
'машины_'
'машин_'
'матер'
'массового_'
'мас'
'марте_'
'максимальной_'
'ляци'
'лю'
'льные_'
'льного_'
'лог'
'лн'
'лли'
'лишения_'
'лидеров_'
'лес'
'лем'
'лед'
'легко_'
'лам'
'курса_'
'куп'
'культур_'
'кро'
'кратко'
'кот'
'коро'
'коренные_'
'конфликте_'
'конференциях_'
'контакты_'
'консультативных_'
'консультативного_'
'конституционно'
'конкретным_'
'конкретного_'
'конечном_'
'конец_'
'компания_'
'коммуникационных_'
'комитетом_'
'комитетов_'
'кожи_'
'кнопку_'
'кино'
'касс'
'касающейся_'
'карте_'
'кар'
'ками_'
'кали'
'казнях_'
'казни_'
'каб'
'йского_'
'йские_'
'йн'
'йк'
'иями_'
'итель_'
'ите'
'исти'
'ист'
'используя_'
'используются_'
'используется_'
'использоваться_'
'исп'
'искоренению_'
'исключительно_'
'иск'
'ирования_'
'ира'
'ио'
'институциональны'
'института_'
'институт_'
'ино'
'инициатив'
'инженер'
'инвестор'
'имм'
'имели_'
'имел_'
'им'
'иль'
'ил'
'изнасилования_'
'измен'
'издания_'
'известно_'
'избежание_'
'из'
'иж'
'игра'
'зы_'
'зы'
'зон'
'знать_'
'землю_'
'заявлениями_'
'заявител'
'защищен'
'зации_'
'зат'
'запрещен'
'заполнения_'
'записку_'
'запад'
'занимает_'
'зан'
'замечаний_'
'замен'
'законодательству_'
'законодательные_'
'законодательно'
'законно'
'заключительных_'
'заключению_'
'заключа'
'задержанного_'
'завод'
'журнал'
'жу'
'жил'
'жив'
'жет'
'жена_'
'желает_'
'же'
'жде'
'жда'
'жалоб_'
'жал'
'ещё_'
'ечн'
'ех'
'ете'
'ета'
'естественно'
'еск'
'ес'
'еры_'
'ерв'
'еп'
'енный_'
'емся_'
'емого_'
'елей_'
'езды_'
'ез'
'ежегодного_'
'европейских_'
'дь'
'ды_'
'ду'
'другому_'
'доходы_'
'достигнуты'
'достигнутого_'
'дост'
'дорог_'
'дополнительной_'
'дополнительно_'
'дополнение_'
'донорами_'
'домо'
'дол'
'док'
'договоренности_'
'договор_'
'добровольно'
'дне'
'длительного_'
'дискуссии_'
'диа'
'джи'
'дж'
'детских_'
'десятилетия_'
'дес'
'дерев'
'деньги_'
'дение_'
'дени'
'дели'
'делегацией_'
'делается_'
'дела'
'девять_'
'дев'
'двухгодичного_'
'двойн'
'данн'
'дан'
'дальше_'
'давать_'
'груза_'
'гру'
'готов'
'государственными_'
'государстве_'
'горно'
'гораздо_'
'гон'
'голос'
'гов'
'гласит_'
'главного_'
'гла'
'гео'
'гендерной_'
'гарантий_'
'выход_'
'выступил_'
'высоких_'
'высказыва'
'выразил_'
'выражение_'
'выпуск'
'выполнен'
'вые_'
'выдви'
'выдачу_'
'выводы_'
'выбор_'
'выбор'
'вше'
'втором_'
'вторая_'
'всеобъемлющий_'
'всему_'
'временной_'
'вред'
'впредь_'
'вп'
'вот_'
'вооруженными_'
'воль'
'вол'
'вокруг_'
'войска_'
'возможностью_'
'военный_'
'водой_'
'внешних_'
'влия'
'властями_'
'вла'
'вида_'
'взят'
'взрослых_'
'вещества_'
'весь_'
'вест'
'версия_'
'вероятно_'
'вел'
'ведет_'
'ввиду_'
'вая_'
'вашей_'
'вар'
'вание_'
'ван_'
'ван'
'бюджетным_'
'бюджет'
'будущие_'
'броса'
'бре'
'брака_'
'бот'
'большое_'
'больши'
'большее_'
'бок'
'боеприпасов_'
'бли'
'биологическо'
'бин'
'бесплатно_'
'беременности_'
'бер'
'бел'
'безопасны'
'безопасной_'
'банком_'
'бан'
'базов'
'б_'
'африканского_'
'аф'
'аты'
'атив'
'ате'
'ата_'
'ата'
'арбитраж'
'ант'
'аналитик'
'ана_'
'альной_'
'ального_'
'алл'
'акт'
'ак_'
'ажа'
'аемы'
'административные_'
'аде'
'адаптации_'
'ада'
'авши'
'автор'
'автомобильных_'
'авто'
'авиа'
'аба'
'Японии_'
'Южно'
'ЮНОДК_'
'ЮНЕП_'
'Эс'
'Эритре'
'Ь'
'Ы'
'Швеция_'
'Швейцарии_'
'Число_'
'Чи'
'Чемпионат_'
'Че'
'Чад'
'Ч_'
'Цель_'
'Хар'
'Финляндия_'
'Филиппин_'
'Участие_'
'УС'
'УВКПЧ_'
'Тур'
'Тре'
'Тра'
'Товары_'
'Танзания_'
'ТИ'
'ТА'
'Существует_'
'Суд_'
'Стр_'
'Среди_'
'Спа'
'Создание_'
'Содружества_'
'Содержание_'
'Соглашения_'
'Совещания_'
'Ск'
'Система_'
'Си'
'Сербской_'
'Сентябрь_'
'Сей'
'Сам'
'СТАТ'
'СР_'
'СПИДа_'
'СО2_'
'Ряд_'
'Румыния_'
'Рос'
'Рио_'
'Решение_'
'Региональный_'
'Раз'
'Пят'
'Прос'
'Программу_'
'Превосходительство_'
'Пре'
'Правительства_'
'Пот'
'Постоянного_'
'Положение_'
'Подпись_'
'Подкомиссии_'
'Петербург'
'Пер'
'Париж'
'Пал'
'Пакистана_'
'ПК'
'ПА'
'Отель_'
'Оста'
'Оп'
'Одно'
'Одним_'
'Одна_'
'Один_'
'ОМ'
'ОД'
'Нов'
'Ниже_'
'Нас'
'НС'
'НЕ_'
'Мор'
'Монако_'
'Можно_'
'Михаил_'
'Миссия_'
'Мексика_'
'Международное_'
'Международная_'
'Меж'
'Малайзии_'
'Мал'
'МООНЭЭ_'
'ЛЬ'
'ЛИ'
'ЛЕ'
'Красного_'
'Котд_'
'Контактн'
'Конс'
'Конечно_'
'Компания_'
'Колумбии_'
'Кл'
'Кения_'
'Карт'
'Кам'
'КС'
'КА'
'Июль_'
'Исходя_'
'Источник_'
'Исламской_'
'Ис'
'Информация_'
'Индия_'
'Ивуаре_'
'ИН'
'ИД'
'Зимбабве_'
'Зеландии_'
'Здесь_'
'Зд'
'Записка_'
'Западный_'
'ЗО'
'Женщины_'
'Ее_'
'Документация_'
'Директор_'
'Дже'
'Джа'
'Дет'
'Делегация_'
'ДО'
'Грузия_'
'Гор'
'Глава_'
'Гл'
'Гвинея_'
'Гара'
'ГО_'
'Выборы_'
'Вс'
'Восточн'
'Вос'
'Вод'
'Венской_'
'Были_'
'Была_'
'Бра'
'Боснии_'
'Болгарии_'
'Бер'
'Бельгия_'
'Африканского_'
'Африка_'
'Астана_'
'Аргентина_'
'Арабской_'
'Азербайджан_'
'Абу_'
'Аб'
'АМ'
'АК'
'АБ'
'ü'
'Òåìà_'
'Ð¾_'
'Ð¹_'
'É'
'» (_'
'}'
'{"_'
'zz'
'zes_'
'zen'
'xa'
'wrong_'
'worldwide_'
'wor'
'won_'
'wo'
'witnesses_'
'wis'
'whenever_'
'weeks_'
'wealth_'
'water'
'war'
'walls_'
'walking_'
'walk_'
'votes_'
'voice_'
'vity_'
'visual_'
'vis_'
'viewtopic_'
'vet'
'vary_'
'valuable_'
'ute_'
'ury_'
'uo'
'unt'
'uns'
'unre'
'unnecessary_'
'unilateral_'
'und_'
'ui'
'ues_'
'tribute_'
'tria'
'trend_'
'treated_'
'transmitting_'
'transmit_'
'trainers_'
'track'
'totul_'
'topics_'
'tool_'
'tone_'
'told_'
'tli'
'tit'
'tin'
'time'
'tim'
'tickets_'
'thousand_'
'thought_'
'thirty_'
'thematic_'
'thanks_'
'tests_'
'testing_'
'test'
'territories_'
'tenth_'
'tenge_'
'tele'
'tel'
'tea'
'synergies_'
'swe'
'surveillance_'
'supplied_'
'suppl'
'suffering_'
'subs'
'subjected_'
'stre'
'stipulated_'
'statute_'
'sport_'
'specialists_'
'spec'
'songs_'
'son'
'sole_'
'socio'
'slightly_'
'sli'
'sle'
'slavery_'
'ske'
'significance_'
'sides_'
'showed_'
'shared_'
'sets_'
'served_'
'separately_'
'sell_'
'sel'
'seems_'
'seeing_'
'sea'
'scene_'
'satellite_'
'sanitation_'
'san'
'safeguard_'
'rv'
'rts_'
'rtion'
'rte'
'rr'
'rov'
'round_'
'ros'
'riv'
'rial_'
'ri_'
'rg'
'retr'
'resulting_'
'rest'
'ress_'
'replacement_'
'rent_'
'renewed_'
'removed_'
'remark'
'relative_'
'reinforcing_'
'registered_'
'ree'
'receipt_'
'recalls_'
'realm_'
'realized_'
'reali'
'reaffirms_'
'reaching_'
'rcu'
'ration_'
'ratifying_'
'rance_'
'rai'
'rage_'
'questionnaire_'
'que'
'qualitative_'
'pursue_'
'pti'
'pt'
'progressive_'
'profit_'
'professionals_'
'procurement_'
'print_'
'presidency_'
'pregnancy_'
'possession_'
'port'
'poll'
'pic'
'phone_'
'phases_'
'ph'
'pers'
'pen'
'patterns_'
'passengers_'
'pass_'
'packing_'
'package_'
'pack'
'owner_'
'owing_'
'ow'
'output_'
'ort'
'oro'
'orally_'
'operate_'
'opening_'
'ont'
'onal_'
'om_'
'of'
'odo'
'occur'
'occupational_'
'objections_'
'o'
'nte'
'notification_'
'norms_'
'normal_'
'non'
'no'
'nl'
'nine_'
'nic_'
'ng'
'newly_'
'net'
'neighbour'
'nec'
'nces_'
'my'
'mutual_'
'murder_'
'multi'
'mothers_'
'mor'
'monetary_'
'modalities_'
'mix'
'minors_'
'min_'
'micro'
'methodology_'
'metal_'
'meta'
'meri'
'merc'
'measuring_'
'mean_'
'mation_'
'mas'
'marks_'
'mandatory_'
'mandates_'
'mal'
'ly'
'love_'
'loo'
'log_'
'lm'
'lla_'
'lis'
'liquid'
'lin'
'lid'
'liberty_'
'lf_'
'lement'
'learn_'
'lea'
'launching_'
'lation_'
'kt'
'knew_'
'killings_'
'ked_'
'judiciary_'
'judge_'
'journalists_'
'journal_'
'join_'
'ize_'
'iz'
'iv'
'ium_'
'itr'
'ities_'
'ists_'
'ior_'
'involves_'
'invasion_'
'interpret'
'interim_'
'int'
'instead_'
'inso'
'innovations_'
'inner_'
'initiate_'
'inhabitants_'
'inh'
'inequality_'
'incidents_'
'impunity_'
'impr'
'import'
'immigrants_'
'illicit_'
'ig'
'if'
'iers_'
'ier_'
'ici'
'ica'
'ians_'
'iPod_'
'iPhone_'
'ht'
'hoped_'
'holder_'
'historic_'
'het'
'hatred_'
'handle_'
'hair_'
'gtr_'
'grounds_'
'gro'
'grants_'
'governments_'
'got_'
'gen_'
'gd'
'gather'
'gal'
'gain_'
'function_'
'fruits_'
'fruit_'
'friends_'
'fresh_'
'founded_'
'foundations_'
'forget_'
'focused_'
'flo'
'flight_'
'flat_'
'flag'
'fin'
'film_'
'fic'
'fer'
'feedback_'
'fax_'
'failure_'
'failed_'
'facts_'
'factory_'
'facilitating_'
'facilitated_'
'faced_'
'ey_'
'extrajudicial_'
'extend_'
'expresses_'
'export_'
'explanation_'
'expenses_'
'expectations_'
'expect_'
'existed_'
'exi'
'ever_'
'evaluate_'
'eva'
'eu'
'esse'
'ert'
'ero'
'eria'
'equitable_'
'ep'
'eo'
'enti'
'ent'
'ens'
'ene'
'ency_'
'empowerment_'
'emb'
'email_'
'em'
'elimination_'
'element_'
'ele'
'ek'
'eh'
'ef_'
'ecological_'
'dy_'
'dy'
'dv'
'dro'
'driving_'
'doubt_'
'door_'
'don'
'dom'
'doctor_'
'doc'
'diverse_'
'diseases_'
'discover'
'discount_'
'disc'
'director_'
'director'
'directed_'
'dignity_'
'determining_'
'des_'
'deprived_'
'deposit'
'depend_'
'depart'
'dep'
'den_'
'delete_'
'del'
'decolonization_'
'declarations_'
'dd'
'damage_'
'dal_'
'customers_'
'currencies_'
'cur'
'cult'
'ctor_'
'ctive_'
'cted_'
'ct_'
'crossing_'
'cro'
'counsel_'
'corresponding_'
'conversion_'
'continuous_'
'contest_'
'consumer_'
'constructed_'
'considerations_'
'considerable_'
'cons'
'connections_'
'congratulate_'
'concert'
'collected_'
'coherence_'
'codes_'
'coal_'
'client_'
'clarification_'
'cl'
'chock_'
'cho'
'che'
'charge_'
'channel_'
'chamber_'
'cer'
'cell'
'ceasefire_'
'cati'
'cas'
'camps_'
'bus'
'burn'
'bur'
'breach_'
'bowling_'
'blowing_'
'ble'
'bis'
'biggest_'
'biennial_'
'belonging_'
'belief_'
'bel'
'bear_'
'bea'
'bat'
'band_'
'ban'
'bag'
'aw'
'au'
'attitudes_'
'attendance_'
'attend_'
'attached_'
'atmosphere_'
'asylum_'
'ast'
'assisting_'
'assignment_'
'ass'
'ask_'
'asi'
'ase'
'arrested_'
'arrange_'
'aro'
'approaching_'
'appointments_'
'anyone_'
'ana_'
'ama'
'allowance_'
'allocate_'
'aggression_'
'ageing_'
'af'
'advise_'
'advantages_'
'adaptation_'
'ada'
'acy_'
'acce'
'abili'
'abi'
'a5a0cdfe_'
'Zh'
'Youth_'
'XI'
'Workshop_'
'Wei'
'WTO_'
'WG_'
'WA'
'Voluntary_'
'Very_'
'Ver'
'Vel'
'Ur'
'Up_'
'Unl'
'Uni'
'Under'
'UNS'
'UNODC_'
'UK_'
'Tro'
'Total_'
'Their_'
'Taking_'
'TR'
'Sur'
'Supervisory_'
'Sunset_'
'Sunrise_'
'Slovenia_'
'Sil'
'Sierra_'
'Sho'
'Shi'
'Series_'
'Serbia_'
'Seminar_'
'Sc'
'Sar'
'Salvador_'
'Sal'
'SS_'
'SGB_'
'SA_'
'Rome_'
'Ri'
'Ret'
'Relations_'
'Recognizing_'
'Read_'
'RES'
'RC_'
'RB'
'Quality_'
'Qa'
'Prosecutor_'
'Progress_'
'Plu'
'Planning_'
'Pin'
'Philippines_'
'Petro'
'Performance_'
'Pen'
'Paul_'
'Pat'
'Participation_'
'Pages_'
'PO'
'Outcome_'
'OECD_'
'Novo'
'Not'
'Nigeria_'
'Nav'
'NK'
'NGO_'
'NAS'
'Money_'
'Ministerial_'
'Min'
'Miami_'
'Mauritius_'
'Malta_'
'Mak'
'Mad'
'MS'
'MI_'
'Love_'
'League_'
'Le_'
'LDCs_'
'Kn'
'Ken'
'Karabakh_'
'Jul_'
'Ju'
'Jews_'
'Issues_'
'Island_'
'Is_'
'Iron_'
'Industry_'
'Inc'
'IP_'
'IL'
'Hy'
'Headline_'
'Han'
'Habitat_'
'HTML_'
'HO'
'Governmental_'
'Gene'
'GENERAL_'
'Fu'
'Freedom_'
'Forms_'
'Fl'
'Finance_'
'Figure_'
'Feb_'
'Expert_'
'Ethiopia_'
'Est'
'End_'
'End'
'Eco'
'ET'
'ER_'
'EL'
'Dra'
'Download_'
'Diversity_'
'Dist'
'Dis'
'Dia'
'Denmark_'
'Defence_'
'De'
'DVD_'
'DR'
'DP_'
'DD_'
'Croatia_'
'Country_'
'Corruption_'
'Conte'
'Consultative_'
'Consequently_'
'Compare_'
'Comments_'
'Com'
'Co_'
'Clo'
'Cle'
'Class_'
'Ci'
'Christ'
'Chemical_'
'Cha'
'Cas'
'Capital_'
'Can_'
'Can'
'CP'
'CH'
'CE_'
'CAR'
'Bri'
'Bio'
'Between_'
'Bermuda_'
'Be_'
'Bat'
'Barcelona_'
'Bangkok_'
'Baltic_'
'Bak'
'BE'
'BD'
'BC_'
'BB'
'Award_'
'Au'
'Art'
'Arabic_'
'Appeals_'
'Appeal_'
'And'
'Ana'
'Algeria_'
'Advancement_'
'AS'
'AN'
'AF'
'>>>_'
'><_'
'><\\/_'
'>","_'
': [_'
'967'
'65'
'64'
'39'
'2nd_'
'270_'
'219'
'206'
'199_'
'1973_'
'1972_'
'1971_'
'1968_'
'19'
'189_'
'186'
'185'
'184'
'177'
'170'
'168_'
'167'
'163_'
'146_'
'138_'
'131_'
'124_'
'123_'
'119'
'111_'
'107'
'100'
'00'
'. [_'
','
'+'
'**_'
')<\\/_'
'),_'
')) _'
')) (_'
')(_'
'%._'
'"; _'
'"), _'
'") _'
'" /></_'
' :'
' ... +_'
' - "_'
'�'
'№ _'
'€_'
'…_'
'…'
'” '
'ённые_'
'ём_'
'яют_'
'яться_'
'ят'
'ян'
'яз'
'яже'
'ядерным_'
'явно_'
'являл'
'ющийся_'
'юч'
'юг'
'эффективными_'
'эффективный_'
'этик'
'элемента'
'электронных_'
'электронн'
'экспорт'
'эксплуатацией_'
'эксперт'
'экономическому_'
'экономическим_'
'экономическая_'
'экономика_'
'экз'
'эвакуации_'
'ья'
'ью'
'ьц'
'ьств'
'ьской_'
'ьные_'
'ьно_'
'ьная_'
'ыр'
'ывал'
'ывается_'
'ывает_'
'ъя'
'ъем'
'щую_'
'щий_'
'щиеся_'
'щения_'
'штаб_'
'штаб'
'шо'
'школьного_'
'шкалы_'
'широкую_'
'широкой_'
'ши'
'шест'
'шего_'
'шан'
'чрезвычайно_'
'чн'
'членах_'
'чита'
'чисты'
'чисто'
'четырех_'
'четких_'
'чет'
'черн'
'ченн'
'чени'
'част'
'цо'
'циям_'
'цифров'
'цеп'
'центры_'
'централизованно'
'цвета_'
'хранит'
'хранения_'
'хороше'
'ходит'
'хе'
'характеристики_'
'характеристик_'
'футболу_'
'функционально'
'фр'
'формировании_'
'формирование_'
'фон'
'фис'
'финансовый_'
'финансовую_'
'фильм'
'физической_'
'федерального_'
'факто'
'фактическо'
'уязвимых_'
'ушка_'
'учреждениям_'
'учредил'
'ученик'
'учащиеся_'
'участнике_'
'участвовал_'
'уточн'
'утвержден'
'утвердить_'
'устр'
'устойчивы'
'устно'
'установленных_'
'установки_'
'устанавливает_'
'устанавлива'
'успехи_'
'условиям_'
'урок'
'уран'
'ура'
'упущен'
'управля'
'управлении_'
'упомянутые_'
'упо'
'университет'
'уменьшен'
'умен'
'ум_'
'ули'
'ула_'
'укр'
'указывают_'
'указыва'
'указанием_'
'указал_'
'указ'
'ука'
'узнать_'
'ужен'
'удовлетворять_'
'удовлетворительн'
'удов'
'удобно'
'удел'
'удар'
'угрозы_'
'угроз_'
'уголовн'
'уго'
'увиди'
'увидеть_'
'увеличился_'
'увеличива'
'уважать_'
'убежища_'
'убежден'
'убедиться_'
'уар'
'тье'
'тысяч_'
'тщательно_'
'тура_'
'туп'
'тт'
'трудно_'
'тру'
'трибунала_'
'трех'
'транспортные_'
'транспарентности_'
'традиционно'
'точно_'
'тория_'
'торгово'
'топлив'
'тоб'
'тны'
'тни'
'тическ'
'титул'
'тит'
'тиров'
'тил'
'техническое_'
'техническая_'
'территориях_'
'территори'
'тепло'
'тени'
'тема_'
'тем'
'тельно_'
'текущего_'
'текущ'
'тексты_'
'тек'
'тве'
'тва_'
'тв'
'таможенно'
'тами_'
'так'
'таблицы_'
'сырья_'
'сынов'
'счита'
'счет'
'сч'
'схем'
'существующие_'
'существования_'
'существа_'
'существ'
'сути_'
'супругов_'
'суды_'
'судом_'
'судо'
'судей_'
'судебные_'
'судебное_'
'суде_'
'суверенитета_'
'суверенитет_'
'структурны'
'структура_'
'страховых_'
'страхов'
'стратегия_'
'стратегической_'
'стратегического_'
'страниц'
'страдают_'
'сторон'
'столь_'
'столом_'
'стоимость_'
'стипендий_'
'стер_'
'статьям_'
'статус'
'старших_'
'станции_'
'стандарт'
'стабильн'
'ссылки_'
'ссо'
'сроком_'
'средствах_'
'средствами_'
'средствам_'
'среднего_'
'справочн'
'справ'
'способствуют_'
'способом_'
'способ_'
'споров_'
'специального_'
'союзом_'
'сохранению_'
'сохранение_'
'состоял'
'составления_'
'сосредоточен'
'соп'
'соответствующее_'
'соответствующая_'
'соответствует_'
'сообществу_'
'сообщение_'
'сообщают_'
'сообщается_'
'сообщает_'
'сообща'
'соображени'
'солдат_'
'сол'
'сокращ'
'создал'
'создавать_'
'созда'
'сожаление_'
'соглашении_'
'согласование_'
'согласились_'
'согласи'
'соглас'
'совместной_'
'совместного_'
'совершенствования_'
'совершенствование_'
'совершенн'
'собственные_'
'собственного_'
'собственн'
'собрать_'
'соблюдением_'
'соблюда'
'снижению_'
'смыслу_'
'смо'
'смет'
'смертной_'
'смерти_'
'сме'
'случаю_'
'случай_'
'случа'
'служить_'
'служит_'
'служат_'
'сложных_'
'слоев_'
'сло'
'следить_'
'сле'
'скую_'
'скон'
'ско'
'ск'
'сит'
'систем'
'сила'
'сигнал'
'сив'
'серьезных_'
'сердца_'
'сентябре_'
'семинарах_'
'семинар_'
'семейной_'
'семейн'
'сельское_'
'секс'
'сделано_'
'сделанные_'
'сделанн'
'сдела'
'связям_'
'связанн'
'свод'
'свободной_'
'свободно'
'свидетельствуют_'
'свидетельствует_'
'свежи'
'све'
'сб'
'сат'
'самостоятельно'
'самих_'
'сам_'
'сал'
'ряд'
'рь_'
'рынки_'
'рублей_'
'ру_'
'рой'
'родны'
'родно'
'рог'
'ро_'
'рно'
'риск'
'рис'
'риз'
'риа'
'решил_'
'реши'
'решено_'
'решающее_'
'реформирования_'
'реформ'
'рет'
'репродуктивного_'
'реорганизаци'
'ремонт_'
'рем'
'рекоменду'
'рекомендовала_'
'рез'
'режим_'
'режим'
'редит'
'регулируется_'
'региональной_'
'революци'
'реали'
'реакци'
'раци'
'рати'
'расширении_'
'расширени'
'растущи'
'рассмотрел_'
'рассказал_'
'расс'
'распространять_'
'распространен'
'распределении_'
'расположенных_'
'располага'
'рами_'
'разрушени'
'разрешение_'
'разработа'
'разрабатыва'
'разно'
'разминирования_'
'разминировани'
'размещен'
'размер_'
'разд'
'развивающимися_'
'развивать_'
'развед'
'разв'
'радио_'
'равенство_'
'рабочего_'
'работодател'
'работа'
'пыта'
'пы'
'пт'
'проявля'
'прошли_'
'прошла_'
'прошел_'
'прочно'
'прочих_'
'прочие_'
'прочего_'
'процессах_'
'процесс'
'процентных_'
'процедурой_'
'процедурны'
'процедура_'
'проходят_'
'протоколу_'
'противоречи'
'противопехотных_'
'противном_'
'просьбе_'
'пространство_'
'прост'
'просл'
'просветительски'
'пропаганды_'
'пропаганде_'
'промышленных_'
'промышленного_'
'проис'
'произвольны'
'производству_'
'производстве_'
'производительности_'
'производит'
'проживающих_'
'прожива'
'проектам_'
'продолжало_'
'продолжала_'
'продолжается_'
'продвижения_'
'продаж_'
'прог'
'проводятся_'
'проводят_'
'проводит_'
'проводимых_'
'проводимой_'
'проводил'
'провод'
'провела_'
'пришла_'
'причинам_'
'присоединились_'
'природы_'
'природны'
'приостановления_'
'приоритет'
'приобретени'
'прио'
'принятого_'
'принят_'
'принципу_'
'принимают_'
'принимал'
'принимаемы'
'принадлежащих_'
'примирения_'
'применяться_'
'прим'
'приложени'
'призываем_'
'призыва'
'признают_'
'признания_'
'признание_'
'признаков_'
'признава'
'призван'
'прием'
'прида'
'привилеги'
'приветствуем_'
'привело_'
'прибор'
'преступны'
'преступностью_'
'преступление_'
'преступлени'
'преподавателей_'
'преодоления_'
'прекращении_'
'предусмотреть_'
'предусмотрены_'
'предусматрива'
'представлял'
'представля'
'представленно'
'представителю_'
'представительства_'
'представителем_'
'председатель_'
'предприятий_'
'предпринять_'
'предпринимател'
'предполагается_'
'предполагаем'
'предоставляются_'
'предоставлять_'
'предоставля'
'предоставлен'
'предназначены_'
'предназначен'
'предложила_'
'предлага'
'предварительного_'
'прев'
'практического_'
'практикумов_'
'практика_'
'правления_'
'правительствами_'
'правительствам_'
'пр'
'поч'
'потребоваться_'
'потенциально'
'построен'
'пострадавших_'
'постоянные_'
'постепенно_'
'поставленн'
'поставки_'
'поста'
'пост_'
'последующего_'
'последовательно_'
'последнее_'
'послани'
'посе'
'порядок_'
'попа'
'поощря'
'поощрении_'
'понимание_'
'понимани'
'понима'
'поля_'
'поля'
'пользуется_'
'получен'
'получает_'
'положительн'
'положениях_'
'половины_'
'политическое_'
'полет'
'полезны'
'полезно'
'показателями_'
'показателя_'
'показали_'
'позитивно'
'позволил'
'пожилых_'
'пожелает_'
'поездку_'
'подчеркнули_'
'подчеркнула_'
'подходы_'
'подтверждени'
'подрывает_'
'подписания_'
'подписал'
'подотчетности_'
'поднят'
'подготовлен_'
'подготовкой_'
'подготовил'
'подви'
'погр'
'погиб'
'повышенно'
'поверхности_'
'поведени'
'побед'
'площадь_'
'пленарном_'
'плен'
'пле'
'платформ'
'планирует_'
'пищу_'
'питьевой_'
'письма_'
'писа'
'печат'
'печ'
'перспективы_'
'перехода_'
'переход_'
'переход'
'пересмотреть_'
'пересмотренн'
'пересмотра_'
'переписей_'
'перем'
'передача_'
'передать_'
'перевоз'
'переведен'
'первые_'
'первоочередное_'
'первая_'
'пер'
'пенсий_'
'пен'
'пел'
'патент'
'партнеры_'
'партнерских_'
'партнерски'
'параметр'
'парад'
'пал'
'пакта_'
'пакета_'
'пакет'
'ошибк'
'очные_'
'оче'
'оценкам_'
'оценивать_'
'оценивает_'
'охрану_'
'охране_'
'охран'
'охвата_'
'оу'
'отчеты_'
'отчетный_'
'отчете_'
'отражены_'
'отражение_'
'отражают_'
'отражает_'
'относи'
'открыто'
'открыт_'
'откл'
'отеля_'
'отда'
'отд'
'ответ'
'отвер'
'осуществлял'
'остро'
'оставить_'
'основываться_'
'основанно'
'основан'
'оса'
'орехов_'
'оре'
'органом_'
'организм'
'организацию_'
'ораторов_'
'оратор_'
'ора_'
'опубликованно'
'опубликован'
'опрос'
'опро'
'определенно'
'операциями_'
'оперативно_'
'опера'
'ону_'
'онной_'
'онно'
'омы'
'ольн'
'оло'
'ол'
'окончательны'
'окончания_'
'око'
'оказывают_'
'оказыва'
'оказались_'
'оказал'
'ой'
'означа'
'ознакомиться_'
'озаглавленный_'
'ожидаем'
'ожида'
'одну_'
'одновременно_'
'огонь_'
'огнестрельного_'
'огней_'
'овы_'
'овско'
'овени'
'ованны'
'ованн'
'ование_'
'ован'
'овали_'
'овала_'
'овал'
'обязательствам_'
'обязаны_'
'обязал'
'обяз'
'объектах_'
'объ'
'общий_'
'общемиров'
'общая_'
'обу'
'обсуждений_'
'обсуждени'
'обслужива'
'обследования_'
'обследований_'
'обращени'
'обратил'
'образцов_'
'областей_'
'облада'
'обеих_'
'нужно_'
'нуждаются_'
'нуж'
'нтов_'
'нского_'
'ношения_'
'носят_'
'нос'
'норма'
'номера_'
'новост'
'нност'
'нк'
'нищетой_'
'нит'
'ника_'
'низким_'
'несут_'
'непре'
'неправительственным_'
'ненависти_'
'некоторым_'
'некоторое_'
'неко'
'неизменн'
'независимых_'
'независимой_'
'недостаточно'
'негативны'
'небольшой_'
'небо_'
'нд'
'нге'
'наш'
'начиная_'
'начинаю'
'начальник'
'начал'
'национальную_'
'национальное_'
'национально'
'находящимся_'
'находились_'
'наук'
'настоятельн'
'наслед'
'нас'
'наряду_'
'народ_'
'наркотикам_'
'напряженности_'
'направлено_'
'направленно'
'направлен'
'нападения_'
'нападени'
'нап'
'намерени'
'налогообложения_'
'налаживанию_'
'наилучши'
'называемых_'
'назначенны'
'назнач'
'названием_'
'назва'
'надлежащее_'
'надежны'
'надеемся_'
'нава'
'наблюдению_'
'мужчина_'
'муж'
'мошенничества_'
'мости_'
'моря_'
'море_'
'мора'
'мор'
'мониторинг'
'мон'
'мои'
'моего_'
'мое_'
'модернизаци'
'моделей_'
'мов_'
'мобилизации_'
'мно'
'мнений_'
'мм'
'мирные_'
'министры_'
'министерств'
'минимальны'
'мил'
'механизмами_'
'методами_'
'мета'
'месяц'
'мерами_'
'меморандум'
'международная_'
'медленно'
'медицинских_'
'медицинским_'
'мгновенно_'
'материальных_'
'материальны'
'материалам_'
'масштабы_'
'масштабах_'
'массов'
'масс'
'мандатом_'
'малые_'
'мал'
'максимально'
'магазин'
'ля_'
'людскими_'
'лья'
'льным_'
'льно'
'лы_'
'луж'
'лодк'
'логически'
'лл'
'лк'
'лиш'
'лич'
'лин'
'ликвидаци'
'лие'
'лечение_'
'лет'
'лесов_'
'лесо'
'лер'
'ленны'
'лени'
'лан'
'лад'
'кур'
'культуре_'
'кул'
'кти'
'кругл'
'круга_'
'крестьян'
'крест'
'кредитны'
'кредит'
'крас'
'кр'
'коэффициента_'
'косн'
'координация_'
'концепция_'
'конц'
'конференци'
'контрольно'
'контакт'
'консенсус'
'конгресс'
'компьютерн'
'компонентов_'
'компонент_'
'компонент'
'комплекса_'
'компетентны'
'комнат'
'коммун'
'комитеты_'
'команда_'
'колон'
'коллектив'
'кок'
'климат'
'кла'
'кислот'
'кис'
'кино_'
'кин'
'кер'
'кг_'
'кв'
'качеств'
'ках_'
'категорий_'
'касающееся_'
'касал'
'кас'
'картину_'
'капитального_'
'каналы_'
'канализаци'
'кампании_'
'кам_'
'кам'
'кале'
'каком_'
'каждая_'
'йской_'
'йский_'
'йс'
'йо'
'иям_'
'ию'
'ич'
'ицы_'
'иц'
'их'
'итогов_'
'итоге_'
'итогам_'
'ито'
'ительно_'
'ительн'
'ители_'
'ися_'
'историческо'
'истан'
'исследовател'
'исправ'
'использу'
'использован'
'испански'
'иску'
'искоренения_'
'исключить_'
'исключением_'
'исключа'
'иска'
'ировани'
'ири'
'ир'
'иных_'
'информирования_'
'информирован'
'информировал_'
'информационной_'
'интернет_'
'интерес_'
'интеллектуальной_'
'инструменты_'
'инструментов_'
'институциональной_'
'институты_'
'иностранной_'
'ином_'
'иное_'
'иногда_'
'инклюзивн'
'ине_'
'индивидуальн'
'инвестиции_'
'ина_'
'имп'
'илл'
'икаци'
'ийско'
'изучения_'
'изуча'
'изнасиловани'
'изменениями_'
'изменению_'
'изложенные_'
'известн'
'изв'
'избирателей_'
'изб'
'ие'
'ида_'
'игр'
'ига'
'зык'
'зу'
'зор'
'значимости_'
'знаниями_'
'знания_'
'зна'
'зма_'
'зло'
'зил'
'землепользования_'
'здоровье_'
'зв'
'заявили_'
'захват'
'затрат_'
'запросил'
'запрещении_'
'запрашива'
'запр'
'западно'
'зап'
'занято'
'занимаются_'
'занима'
'заместител'
'заменить_'
'зале_'
'зал'
'закуп'
'закрепленных_'
'законом_'
'законодательных_'
'законе_'
'заключил'
'заключении_'
'заинтересованными_'
'задолженность_'
'задан'
'зад'
'зависят_'
'завершен'
'забр'
'забот'
'журналистов_'
'жительств'
'жиль'
'жилых_'
'жилищ'
'жизненного_'
'живо'
'жертвой_'
'женских_'
'желающие_'
'желани'
'жела'
'ждени'
'ея'
'еш'
'еты_'
'ети'
'ерт'
'еров_'
'еро'
'ео'
'енств'
'енную_'
'енно'
'енн'
'емо'
'емн'
'ельной_'
'ельно'
'ели'
'еле'
'ект'
'ека'
'ейшее_'
'ейр'
'ежн'
'един'
'европейской_'
'дя'
'душу_'
'дух_'
'дут_'
'дс'
'дра'
'др_'
'достижении_'
'достигнутый_'
'достигнуто_'
'достигли_'
'достаточны'
'доставк'
'дороги_'
'доро'
'дора'
'допуска'
'дополня'
'дополнительн'
'домашни'
'долларов_'
'должностях_'
'долгосрочной_'
'долгосрочн'
'докладчиком_'
'докладчиков_'
'доказательства_'
'доказательств_'
'дово'
'доверия_'
'дов'
'добычи_'
'добыва'
'добива'
'дн'
'дит'
'дипломати'
'дина'
'дизайн'
'диверсификаци'
'див'
'дже'
'дефектов_'
'детях_'
'детск'
'детал'
'держа'
'департамента_'
'демократически'
'деловых_'
'деловой_'
'делегациям_'
'делах_'
'декабре_'
'действующим_'
'действуют_'
'действует_'
'действительно_'
'действ'
'дверей_'
'двер'
'дари'
'давление_'
'гуманитарн'
'гс'
'группам_'
'грн_'
'график_'
'график'
'грамот'
'гражданским_'
'гражданские_'
'гражданами_'
'град'
'гр'
'готов_'
'государственном_'
'гостиницы_'
'город'
'голь'
'годов'
'говорить_'
'говорилось_'
'го'
'гно'
'глубокие_'
'главную_'
'главная_'
'геноцид'
'генетической_'
'гене'
'гендерны'
'гарантирует_'
'гар'
'газ'
'выявления_'
'выше'
'выход'
'выступлени'
'выступая_'
'выступал'
'выставке_'
'выраженно'
'выр'
'выполня'
'вынужден'
'вынесенно'
'вынесения_'
'вынес_'
'выигра'
'вызыва'
'выз'
'вывод'
'выборы_'
'входить_'
'ву_'
'вторых_'
'вторжения_'
'вся_'
'вста'
'вст'
'вспомогательных_'
'вспомогательного_'
'всеобъемлющи'
'всемирно'
'вруч'
'временных_'
'временные_'
'врач'
'впечатление_'
'впервые_'
'вошли_'
'восстановлению_'
'восстановление_'
'восстановлен'
'воспользоваться_'
'вори'
'ворени'
'вооруженном_'
'война_'
'возражений_'
'возникают_'
'возника'
'возложи'
'воздушные_'
'воздушн'
'воздействию_'
'возбуждени'
'внутри'
'вносит_'
'внимательно_'
'внешняя_'
'внешним_'
'внесены_'
'внесении_'
'внесен'
'вля'
'владельц'
'включенные_'
'включен_'
'включа'
'вить_'
'вит'
'вин'
'визит'
'виз'
'вид_'
'ви_'
'взаимопонимании_'
'взаимодействовать_'
'взаимной_'
'взаимно'
'вечер'
'вет'
'версии_'
'вернуться_'
'вернул'
'велико'
'веков'
'век_'
'ведущи'
'ве_'
'вдоль_'
'вд'
'ввести_'
'вариант_'
'вари'
'валь'
'вал_'
'вает_'
'бюллетен'
'бюджетных_'
'бухгалтер'
'бут'
'бург'
'бур'
'будущей_'
'будущ'
'буду_'
'буд'
'бс'
'бро'
'брат'
'брак'
'бр'
'большую_'
'большинстве_'
'большим_'
'боев'
'бн'
'бил'
'бесп'
'бес'
'бен'
'безотлагательн'
'бедствия_'
'бедн'
'бе_'
'батаре'
'бар_'
'базу_'
'базе_'
'база_'
'ба_'
'ающие_'
'ающи'
'аэропорта_'
'ач'
'ах'
'аукцион'
'аудио'
'атор_'
'атель'
'аспекты_'
'архитектур'
'арт'
'арми'
'аренде_'
'арабски'
'ап'
'анг'
'аналитическ'
'американской_'
'альтернативы_'
'альных_'
'альную_'
'ализ'
'активное_'
'активизировать_'
'ази'
'ажи'
'аже'
'адк'
'аго'
'автора_'
'автомобилей_'
'автоматически_'
'авлива'
'авиаци'
'ави'
'Ян'
'Юри'
'Юго_'
'ЮНСИТРАЛ_'
'Эфиопия_'
'Эстонии_'
'Экономическое_'
'Эквадор_'
'Э_'
'Штатами_'
'Ши'
'Член'
'Чешской_'
'Цена_'
'Це'
'ЦП'
'ЦЕ'
'Хорватия_'
'Фо'
'Фиджи_'
'Фер'
'Федера'
'Фе'
'Фар'
'ФО'
'Устав'
'Уругвай_'
'Управлением_'
'Ув'
'УСВН_'
'УН'
'Ту'
'Тро'
'Том'
'Токелау_'
'Тихоокеанском_'
'Ти'
'Техас_'
'Так'
'Тай'
'Таджикистан_'
'ТР'
'ТН'
'Средн'
'Список_'
'Специальная_'
'Сп'
'Социально'
'Соединенными_'
'Содействие_'
'Соб'
'Смо'
'См_'
'Словении_'
'Словакия_'
'Ска'
'Сирийской_'
'Сири'
'Син'
'Сес'
'Сент_'
'Свят'
'Сво'
'Сах'
'Саудовская_'
'Санд'
'Сальвадор_'
'СПИД'
'СООНО_'
'СООННР_'
'СН'
'СМ'
'СЛ'
'Румынии_'
'Руанде_'
'Ром'
'Род'
'Регионально'
'Регион'
'Расширение_'
'Размер_'
'Рабочий_'
'Работа_'
'РО'
'РКРТ_'
'Пье'
'Прочие_'
'Процедур'
'Протокол'
'Принят'
'Примен'
'Пред'
'Правил_'
'Пра'
'Почему_'
'Португалия_'
'Подкомитета_'
'Повестки_'
'Повестк'
'План_'
'Пи'
'Пас'
'Пар'
'Палестина_'
'ПРЕДСЕДАТЕЛЬ_'
'ПРЕД'
'ПР'
'ПМ'
'ПЛ'
'Оч'
'Открыт'
'Отделени'
'Особ'
'Ос'
'Ор'
'Октябрь_'
'Ог'
'Обзор_'
'ОК'
'ОА'
'Ну'
'Новые_'
'Нигер'
'Ни'
'Неизвестное_'
'Начальник_'
'Народной_'
'Най'
'Назарбаев_'
'НР'
'НИЕ_'
'Мьянм'
'Моя_'
'Москва_'
'Мне_'
'Минск_'
'Минск'
'Мин'
'Мил'
'Мел'
'Межучрежденческо'
'Мас'
'Марино_'
'Мари'
'Мандат_'
'Мальт'
'Мали_'
'Май_'
'МЭ'
'МП'
'МООНК_'
'МЕ'
'МАР'
'Луи'
'Литвы_'
'Ливане_'
'Латвии_'
'Кыргызстана_'
'Кур'
'Кри'
'Кратк'
'Красно'
'Кот_'
'Коро'
'Координатора_'
'Конф'
'Консультативный_'
'Консультативного_'
'Конвенцией_'
'Комп'
'Комментарии_'
'Кодекса_'
'Кит'
'Кении_'
'Кен'
'Кас'
'Канады_'
'Калифорния_'
'КП'
'КН'
'КК'
'Йемен'
'Ит'
'Исполняющий_'
'Исполнительному_'
'Ирландия_'
'Ирак_'
'Ирак'
'Индонезия_'
'Именно_'
'Име'
'Ивуар'
'ИС'
'ИМ'
'Зап'
'Зал_'
'Зак'
'Женева_'
'Жан'
'Ереван'
'Ему_'
'Европейской_'
'Европейским_'
'Евр'
'ЕС'
'Документ_'
'Докладчик'
'Договаривающ'
'Джон'
'Джер'
'Декабрь_'
'Дания_'
'Дании_'
'Дан'
'Даже_'
'ДС'
'ДОПОГ_'
'ДНЯО_'
'ДЛЯ_'
'Гражданско'
'Гра'
'Государству_'
'Господь_'
'Гол'
'Гн_'
'Гвинее_'
'Газа_'
'ГУ'
'Всемирным_'
'Востоке_'
'Восток'
'Вол'
'Включ'
'Вик'
'Венгрии_'
'Вашингтон'
'Ваше'
'Ваш'
'Ван'
'Ва'
'ВТО_'
'ВР'
'ВП'
'ВИ'
'ВА'
'Бюро_'
'Бри'
'Боливии_'
'Бог'
'Бесп'
'Бело'
'Бе'
'БР'
'БО'
'БГ'
'Афганистана_'
'Аф'
'Ау'
'Аргентины_'
'Аравия_'
'Арабская_'
'Америка'
'Аллах_'
'Алжира_'
'Албании_'
'Ал'
'Адрес_'
'Аг'
'Авто'
'АСЕАН_'
'АО_'
'АНН'
'АЛ'
'č'
'ā'
'Ð½Ð¾Ð'
'Ð¼Ð'
'ÐºÑ_'
'Ð²ÐµÑ_'
'¼'
'» '
'£_'
'zy_'
'zon'
'yr'
'yours_'
'yon'
'yl'
'yk'
'ye'
'yal'
'xenophobia_'
'ws_'
'wors'
'workshop_'
'wonder'
'witnessed_'
'witness_'
'win_'
'wildlife_'
'widespread_'
'wid'
'wha'
'wer_'
'wer'
'welcome_'
'ward_'
'ward'
'wage_'
'voters_'
'voltage_'
'vocational_'
'viv'
'vitamins_'
'visitors_'
'visible_'
'virus_'
'village_'
'vil'
'vid'
'victim_'
'vi_'
'ves_'
'vers'
'verification_'
'varied_'
'val'
'vac'
'utilized_'
'uss'
'ush'
'ure'
'ura'
'unto_'
'university_'
'unin'
'ung_'
'ult_'
'uk'
'ud'
'uc'
'u044'
'tum'
'tton_'
'tter'
'tted_'
'tte'
'truth_'
'troops_'
'tre'
'transnational_'
'transmitted_'
'transferred_'
'tr'
'tour'
'tou'
'total'
'tory_'
'title_'
'tia'
'thou_'
'thereof_'
'ther_'
'ther'
'themes_'
'thee_'
'theast_'
'terrorists_'
'ten_'
'tem'
'techniques_'
'teaching_'
'taxes_'
'taxation_'
'tate'
'tari'
'targeting_'
'targeted_'
'talk'
'tali'
'syn'
'swor'
'surviv'
'surveys_'
'surrounding_'
'supplements_'
'supplement_'
'supervisory_'
'sup'
'suggestions_'
'succeed'
'subsidiary_'
'submissions_'
'sty'
'studied_'
'stroke_'
'stored_'
'sting_'
'stin'
'stic'
'staffing_'
'stable_'
'ssion_'
'sr'
'square_'
'sponsors_'
'sponsored_'
'spl'
'sphere_'
'speech_'
'spe'
'solidarity_'
'sold_'
'sme'
'smaller_'
'sm'
'ski'
'ska'
'sit'
'sil'
'signs_'
'sight_'
'sic'
'sia_'
'sho'
'shift_'
'sher'
'severe_'
'settle'
'servicing_'
'separated_'
'see'
'sectoral_'
'sect_'
'seconds_'
'scr'
'schemes_'
'sb'
'satisfactory_'
'sampling_'
'samples_'
'sample_'
'rs'
'rp'
'roles_'
'rl'
'rk'
'rit'
'rian_'
'ria_'
'ria'
'revitalization_'
'returned_'
'restructuring_'
'restriction_'
'restraint_'
'restaurant_'
'ress'
'responded_'
'resolved_'
'residual_'
'residents_'
'resident_'
'residence_'
'requesting_'
'reproductive_'
'repr'
'remedy_'
'relationships_'
'rejected_'
'reiterated_'
'reforms_'
'refers_'
'referendum_'
'rede'
'recruitment_'
'recognizing_'
'receiving_'
'recall'
'rec'
'realize_'
'reaffirmed_'
'readiness_'
'rapidly_'
'rank'
'rail_'
'quest'
'queries_'
'quenc'
'qualifications_'
'q'
'pull'
'providers_'
'provi'
'proud_'
'protocols_'
'prospect'
'proportion_'
'proper_'
'proof'
'pron'
'prohibits_'
'prohibiting_'
'productivity_'
'proceeds_'
'proc'
'printing_'
'preventive_'
'pretty_'
'pret'
'prea'
'pr'
'ppe'
'posted_'
'posed_'
'port_'
'pool_'
'poly'
'politicians_'
'pol'
'poker_'
'pledged_'
'player_'
'pilot_'
'pil'
'piece_'
'pictures_'
'photos_'
'photograph'
'pet'
'pest_'
'pertinent_'
'personally_'
'permitted_'
'permits_'
'perform_'
'payments_'
'path_'
'pat'
'parliament_'
'park_'
'paint'
'pad'
'oy_'
'owners_'
'oversight_'
'outs_'
'ot_'
'ost_'
'orting_'
'organizing_'
'org'
'opposition_'
'oph'
'operators_'
'op'
'ook_'
'ono'
'ological_'
'oll'
'oli'
'officer_'
'od_'
'oci'
'occurring_'
'occurred_'
'occupying_'
'occasions_'
'occasion_'
'oca'
'oc'
'observer_'
'obo'
'obliged_'
'object_'
'ny_'
'nto'
'nte_'
'nsk'
'nse'
'notably_'
'not'
'normally_'
'nob'
'nks_'
'ngs'
'news'
'nel'
'neighbouring_'
'nei'
'ned_'
'nearly_'
'nder_'
'nd'
'nche'
'nb'
'nat'
'nant_'
'nai'
'mut'
'musicians_'
'municipal_'
'multiple_'
'multipl'
'move'
'mou'
'mobilize_'
'mobilization_'
'mma'
'mm'
'mistake'
'mis'
'ministry_'
'ministries_'
'millions_'
'metro'
'meth'
'meters_'
'met'
'menu_'
'mens'
'meaningful_'
'mea'
'max'
'matic_'
'master'
'marking_'
'mark_'
'map_'
'mandated_'
'makers_'
'mainstreaming_'
'mad'
'macroeconomic_'
'machines_'
'ma'
'm3_'
'lus'
'lov'
'logy_'
'logi'
'loans_'
'loan_'
'llo'
'lle'
'lk'
'liz'
'live'
'literature_'
'lish'
'linkages_'
'ling'
'lin_'
'limitations_'
'lif'
'lie'
'let'
'legally_'
'leg'
'law'
'late'
'ko_'
'kindly_'
'kin'
'kid'
'kh'
'kg_'
'ket'
'kam'
'kal'
'jun'
'judo_'
'jointly_'
'jewelry_'
'jan'
'iy_'
'ively_'
'itude_'
'itu'
'ition_'
'ith_'
'ite'
'itat'
'ison_'
'ish_'
'isa'
'irre'
'ipt'
'ipa'
'ip'
'ious_'
'ior'
'ion'
'invite_'
'investigating_'
'investigate_'
'invest'
'inventory_'
'introduction_'
'intr'
'interviews_'
'intervention_'
'interr'
'interface_'
'interc'
'interactive_'
'intelligence_'
'innovation_'
'ingly_'
'infl'
'infant'
'ind_'
'increases_'
'incident_'
'inadequate_'
'impl'
'imper'
'immediate_'
'ima'
'ili'
'ile'
'il'
'ignorance_'
'ie_'
'idi'
'ict'
'ication_'
'ib'
'ian'
'ial_'
'hydro'
'hunger_'
'huge_'
'hro'
'households_'
'hotels_'
'hostilities_'
'hor'
'hol'
'hit_'
'hire_'
'hin'
'highlights_'
'highlight_'
'heritage_'
'here'
'helping_'
'helpful_'
'hed_'
'heating_'
'hearing_'
'heard_'
'heading_'
'hd'
'harmonization_'
'guides_'
'gui'
'guest_'
'gue_'
'guaranteed_'
'grow_'
'greatly_'
'gre'
'granted_'
'grant_'
'grace_'
'glo'
'gh_'
'gets_'
'geographical_'
'geni'
'gation_'
'gases_'
'gaps_'
'fur'
'fulfilled_'
'fting_'
'ft'
'frequency_'
'formulate_'
'forecast_'
'flexibility_'
'firmly_'
'fired_'
'finds_'
'finding_'
'financially_'
'finally_'
'figure_'
'federal_'
'favour_'
'farmers_'
'far'
'famous_'
'fair_'
'facilitation_'
'facial_'
'fac'
'fa_'
'extreme_'
'extradition_'
'extra_'
'exter'
'extensive_'
'extended_'
'exposure_'
'expos'
'expertise_'
'expe'
'exp'
'exercised_'
'exc'
'examples_'
'ex_'
'ew'
'everywhere_'
'everything_'
'eventually_'
'evening_'
'euro_'
'ett'
'ets_'
'eti'
'estimate_'
'essi'
'esc'
'err'
'erm'
'eri'
'erc'
'era_'
'equity_'
'equally_'
'ep_'
'entirely_'
'enth_'
'ensi'
'ensh'
'ens_'
'enjoy'
'engineering_'
'eng'
'endo'
'ending_'
'employers_'
'employed_'
'emission_'
'embar'
'elaborate_'
'een'
'ee'
'edu'
'edition_'
'editing_'
'edi'
'ecut'
'ects_'
'eco'
'earnings_'
'duration_'
'durable_'
'duplication_'
'duc'
'dual_'
'dru'
'drop_'
'driven_'
'dri'
'draws_'
'down'
'double_'
'documentation_'
'dness_'
'dle'
'diversity_'
'distributed_'
'dist'
'diss'
'disputes_'
'disciplinary_'
'discharge_'
'disa'
'diplomatic_'
'dimensions_'
'differ'
'die'
'di_'
'deterioration_'
'deter'
'detect_'
'detainees_'
'dest'
'ders_'
'dere'
'depth_'
'deployed_'
'depending_'
'depended_'
'department_'
'demonstration_'
'demonstrate_'
'dell'
'deliver_'
'deleted_'
'delayed_'
'defenders_'
'deep'
'dedicated_'
'decrease_'
'declare_'
'decades_'
'dec'
'deb'
'dea'
'db'
'daughter_'
'darts_'
'dar'
'cy'
'cut_'
'cut'
'customary_'
'custom'
'ction_'
'crowd'
'criminal'
'craft'
'cos'
'corrupt_'
'correct'
'corner'
'cop'
'convinced_'
'controls_'
'controller_'
'contributors_'
'contractor_'
'continuously_'
'contain_'
'contacts_'
'contacted_'
'consult'
'constitutional_'
'constitution'
'constantly_'
'consist_'
'confront'
'confinement_'
'condemned_'
'cond'
'compli'
'completion_'
'complement_'
'complaints_'
'competitions_'
'compe'
'compar'
'communicated_'
'commentary_'
'commen'
'commanders_'
'combatants_'
'column_'
'colors_'
'coast'
'club_'
'cli'
'classified_'
'classes_'
'citizen_'
'circulated_'
'cin'
'chen_'
'che_'
'chart_'
'charges_'
'characterized_'
'characteristics_'
'char'
'challenging_'
'ceremony_'
'centuries_'
'ced_'
'cease_'
'cat'
'carriage_'
'capabilities_'
'candidates_'
'calling_'
'burg_'
'bureau'
'burden_'
'buildings_'
'bs'
'brother_'
'broadcast_'
'brief_'
'brand_'
'br_'
'boundary_'
'bound'
'bou'
'bomb'
'bol'
'board'
'blu'
'block'
'blank_'
'bla'
'biofeedback_'
'bili'
'bet'
'berries_'
'ber_'
'benefited_'
'begun_'
'bed_'
'becomes_'
'beam_'
'batt'
'bar'
'ball'
'balcony_'
'balanced_'
'az'
'ay_'
'aver'
'autonomy_'
'ator'
'ates_'
'ast_'
'assurance_'
'assume_'
'associate_'
'assessing_'
'arrived_'
'arise_'
'argue'
'are'
'ards_'
'approve_'
'appropriate'
'appreciate_'
'applies_'
'appeared_'
'apartments_'
'apart_'
'ap'
'ao'
'anticipate'
'answers_'
'answer'
'and'
'ances_'
'analyse_'
'amp'
'amounts_'
'amo'
'amnesty_'
'amen'
'ambi'
'amb'
'alt_'
'allo'
'alle_'
'alle'
'all'
'ality_'
'ale'
'aims_'
'ages_'
'agen'
'aga'
'affordable_'
'ae'
'advocacy_'
'adverse_'
'ador_'
'adopting_'
'ado'
'admit'
'adjustments_'
'adjusted_'
'adherence_'
'ade_'
'acquired_'
'acqui'
'access'
'acc'
'aba'
'aa'
'`_'
'[/_'
'Zu'
'ZE'
'You'
'Yes_'
'Yemen_'
'Ya'
'XV_'
'XIII_'
'World'
'Wit'
'Wind_'
'Why_'
'Where_'
'Wal'
'WS'
'WHO_'
'Vis'
'Virgin_'
'Victims_'
'Vers'
'Venezuela_'
'Ve'
'Van'
'VIP_'
'VE'
'VA'
'Urges_'
'UNIFIL_'
'UNCITRAL_'
'UNC'
'UC'
'Turkmenistan_'
'Tur'
'Ts'
'Tru'
'Tre'
'Transition_'
'Touch_'
'Torture_'
'Tor'
'Too'
'Togo_'
'Tim'
'Til'
'Therefore_'
'The'
'Than'
'Ter'
'Ten'
'Tem'
'Technology_'
'Tanzania_'
'TT'
'TIONS_'
'TC'
'TA_'
'Supreme_'
'Subs'
'Sub_'
'Stockholm_'
'Stock'
'Step'
'Ste'
'Station_'
'Star'
'Standing_'
'Spe'
'Sometimes_'
'Small_'
'Sm'
'Sixty_'
'Sing'
'Sim'
'Si'
'Short'
'Shar'
'Sciences_'
'Saturday_'
'Sant'
'San_'
'STA'
'SQL_'
'SN'
'SECURITY_'
'Romania_'
'Rob'
'Ris'
'Riga_'
'Rev'
'Restrictions_'
'Response_'
'Rel'
'Registration_'
'Ref'
'Reduction_'
'Ras'
'Rai'
'Radio_'
'RT'
'RO'
'RES_'
'RA_'
'Quran_'
'Quick_'
'Production_'
'Product_'
'Process_'
'Proce'
'Previous_'
'Presidents_'
'Presidential_'
'Post'
'Port'
'Pol'
'Platform_'
'Photos_'
'Personal_'
'Pe'
'Paraguay_'
'Para'
'Pap'
'Pandaria_'
'Palace_'
'PU'
'PS'
'PRST_'
'PR'
'PL'
'PER'
'PA_'
'Over'
'Out'
'Operation_'
'Only_'
'Officer_'
'Odessa_'
'Ocean_'
'OT'
'OSCE_'
'OP'
'OD'
'Nursultan_'
'Number_'
'Noting_'
'Nazarbayev_'
'Naz'
'Name_'
'NP'
'ND'
'NC_'
'NA'
'N1'
'Myanmar_'
'Mus'
'Mis'
'Mine_'
'Military_'
'Medi'
'Me_'
'Market_'
'Mar_'
'Man'
'Main'
'Macedonia_'
'MT'
'MEN'
'MD'
'MB'
'Lukashenko_'
'Local_'
'Light_'
'Library_'
'Leone_'
'Latvia_'
'Las'
'LO'
'LL'
'LE_'
'Kyrgyz_'
'Kr'
'King_'
'Kenya_'
'Kan'
'KI'
'Judge_'
'Jud'
'John_'
'Jehovah_'
'Japanese_'
'JIU_'
'Is'
'Invites_'
'Ins'
'Inland_'
'Inf'
'Indeed_'
'Id'
'ING_'
'IMG_'
'IC_'
'ICA'
'IA_'
'Hor'
'Hoc_'
'Heads_'
'Have_'
'HC'
'Greece_'
'Goods_'
'Good_'
'German_'
'Gar'
'Gal'
'GE'
'Former_'
'Final_'
'Fin'
'Fi_'
'Fax_'
'Faso_'
'FO'
'FDI_'
'FD'
'Expresses_'
'Expe'
'Ex'
'Even_'
'Evaluation_'
'Eurostat_'
'Eu'
'Ess'
'Equal'
'Env'
'Enforced_'
'Enc'
'El'
'Eff'
'Educational_'
'EX'
'Don_'
'Disaster_'
'Directorate_'
'Delegations_'
'Decade_'
'Dec'
'Dea'
'DO'
'DF_'
'DC_'
'Cross'
'Cro'
'Cre'
'Counter_'
'Coo'
'Contracting_'
'Consult'
'Congolese_'
'Conc'
'College_'
'Closed_'
'Cities_'
'Church_'
'Changes_'
'Chan'
'Certain_'
'Cart'
'Camp'
'Caledonia_'
'CRP_'
'CO_'
'COMMISSION_'
'CERD_'
'CAT'
'CA'
'Burkina_'
'Britain_'
'Branch_'
'Bra'
'Bor'
'Book_'
'Body_'
'Blood'
'Black'
'Bla'
'Bill_'
'Bei'
'Because_'
'Bay'
'Bas'
'Ban_'
'Bad'
'Back'
'BR'
'BI'
'Az'
'Av'
'Aug_'
'Atomic_'
'Atlantic_'
'Ass'
'Armed_'
'Arabia_'
'Appendix_'
'Ap'
'Alm'
'Ah'
'Agricultural_'
'Afghan_'
'Af'
'Ad_'
'Actions_'
'Acting_'
'Access_'
'Abs'
'AIR_'
'?"'
'>>), _'
'>> (_'
'>>'
': «_'
': <<_'
': $_'
'99'
'978'
'926'
'9'
'850'
'750_'
'73'
'720_'
'72'
'682_'
'650_'
'620'
'610'
'593'
'464'
'46'
'423_'
'380'
'320_'
'307_'
'306'
'301'
'261_'
'248_'
'229_'
'221_'
'2200'
'216'
'210'
'205_'
'204_'
'1975_'
'1970_'
'197'
'1965_'
'1963_'
'196'
'1915'
'191'
'170_'
'164'
'158_'
'154_'
'153_'
'147'
'142_'
'1373_'
'137'
'133_'
'125_'
'1244_'
'119_'
'118'
'114_'
'104'
'103'
'102_'
'102'
'10'
'06'
'...'
'.), _'
'.) _'
'."'
'. - _'
'-'
'****'
'***'
')*_'
'&#_'
'%, _'
'%)_'
'% - _'
'%'
'"},"_'
'":"","_'
'!!!_'
'!!'
' …_'
' ='
' <_'
' ...'
' )'
' " _'
' "'
'。'
'■ '
'− _'
'™'
'ёр'
'ённ'
'ён'
'ёл'
'яющим_'
'яюще'
'ящих_'
'ящие_'
'ящи'
'яции_'
'яц'
'ясн'
'яну'
'яна_'
'ял_'
'ял'
'яко'
'яки'
'як'
'язычны'
'языком_'
'языками_'
'яжн'
'яемы'
'ядра_'
'являющим'
'являющ'
'являе'
'явлени'
'ября_'
'яб'
'ющую_'
'ющейся_'
'ют'
'юристов_'
'юрисдикцию_'
'юз'
'эш'
'эффект'
'этнического_'
'эти'
'этап_'
'энергетических_'
'эмоциональные_'
'элементов_'
'элементами_'
'электрически'
'эле'
'экспо'
'эксп'
'экск'
'экосистемы_'
'экономически_'
'экономич'
'экологически_'
'экологически'
'э_'
'э'
'ьш'
'ьным_'
'ьном_'
'ьник_'
'ьер'
'ьб'
'ын'
'ывающ'
'ыб'
'ъезд_'
'щит'
'щи'
'щелк'
'щее_'
'шума_'
'школьны'
'шки'
'шк'
'широкие_'
'широки'
'ширина_'
'ширин'
'шил'
'ший_'
'шие_'
'шива'
'ши_'
'шестая_'
'шенн'
'шению_'
'шел_'
'шев'
'ше_'
'шат'
'шар'
'шагов_'
'ша_'
'чь'
'чуть_'
'чуж'
'чу'
'чрезмерно'
'чрезвычайных_'
'чрезвычайны'
'чный_'
'чного_'
'чно_'
'членом_'
'члена_'
'чистое_'
'численность_'
'чиновник'
'четкого_'
'четвер'
'чет_'
'чество_'
'честв'
'чест'
'ческую_'
'ческими_'
'черта'
'чер'
'человеческ'
'чек'
'че_'
'чаще_'
'чаты'
'чат'
'частот'
'частный_'
'частном'
'частично_'
'частичн'
'чала'
'ча_'
'цу'
'цк'
'ция'
'цит'
'ципа'
'циона'
'цион'
'цикл_'
'циал'
'центром_'
'центрах_'
'центральны'
'центральной_'
'центра'
'ценных_'
'ценным_'
'ценность_'
'целями_'
'целям_'
'целесообразности_'
'целевого_'
'целев'
'целе'
'цар'
'цам_'
'ц_'
'хт'
'хра'
'хотят_'
'хотите_'
'хотели_'
'хорош'
'хождени'
'ходо'
'хода_'
'хно'
'хим'
'хи_'
'хватает_'
'хать_'
'фф'
'функция_'
'функционирова'
'функцион'
'французский_'
'французски_'
'французск'
'фран'
'фра'
'фотографии_'
'форумов_'
'формулировк'
'форму_'
'формах_'
'формате_'
'форма_'
'форма'
'фло'
'финансовым_'
'финансовая_'
'финансов_'
'финансируе'
'финансировании_'
'фик'
'физического_'
'ферм'
'фер'
'фан'
'фаль'
'фактор_'
'фак'
'файла_'
'фа_'
'уязвимы'
'уя_'
'ующих_'
'ующие_'
'ующего_'
'ущи'
'учреждении_'
'учреждением_'
'учредить_'
'учн'
'учитыва'
'учителя_'
'учетн'
'ученых_'
'учени'
'учебные_'
'учебного_'
'участок_'
'участником_'
'участникам_'
'участвует_'
'уф'
'утра'
'уто'
'утилит'
'утвержденны'
'утвержденно'
'утверждений_'
'утвержда'
'утвердил'
'устройств'
'устранить_'
'устойчивости_'
'устойчиво'
'устными_'
'установок_'
'установленными_'
'установленны'
'установлен'
'установ'
'устанавливаю'
'устанавливается_'
'устав'
'успешных_'
'успешным_'
'успешного_'
'успешн'
'успехом_'
'успех'
'усовершенствова'
'условиями_'
'усилиями_'
'усиление_'
'усилени'
'урегулировани'
'урегулирова'
'управляющ'
'управляемы'
'управленческо'
'упор'
'упоминается_'
'упом'
'упление_'
'упа'
'уникальны'
'универсального_'
'уна'
'ун_'
'уми'
'умес'
'уменьшил'
'уменьшению_'
'улят'
'ульта'
'ульс'
'уль'
'улучши'
'украинско'
'указывалось_'
'указывает'
'указанным_'
'указанному_'
'указанной_'
'указанно'
'указани'
'указали_'
'узк'
'уза'
'уемы'
'удовлетворя'
'удовлетворения_'
'удобств'
'удн'
'удерж'
'уделяться_'
'удален'
'уда_'
'углублени'
'увяз'
'увол'
'уверенность_'
'увеличил'
'увеличени'
'уведомля'
'уважении_'
'убы'
'убо'
'убл'
'убийства_'
'убийств'
'уальны'
'уально'
'уал'
'тяжки'
'тюрьмы_'
'тюрьм'
'тюремного_'
'тюрем_'
'туристов_'
'тури'
'туннелях_'
'тств'
'трудоустройств'
'трудом_'
'трудовых_'
'трибун'
'третьего_'
'третье_'
'трем_'
'требующи'
'требованиями_'
'транспортной_'
'транспарентн'
'транснациональны'
'транснациональной_'
'трансграничных_'
'трансграничной_'
'транзитных_'
'традиционные_'
'традиции_'
'трав'
'точного_'
'торможения_'
'торговые_'
'торгов'
'том'
'толп'
'толкова'
'товарны'
'товарно'
'тов'
'тне'
'тки_'
'ткан'
'тические_'
'тиф'
'тип_'
'тимо'
'тиво'
'тивные_'
'тивны'
'технология'
'технологи'
'техническими_'
'технические_'
'техник'
'техн'
'тесны'
'тесно'
'тес'
'террористов_'
'террористических_'
'террористически'
'терроризм_'
'террор'
'термин_'
'терм'
'тери'
'тенденции_'
'температур'
'тема'
'телям_'
'тельства_'
'тельств'
'тельного_'
'тельная_'
'тельн'
'тель'
'телефонны'
'телекоммуникаци'
'телей_'
'тела_'
'тел_'
'текущих_'
'текущий_'
'тве_'
'таре_'
'тану_'
'танк'
'тан_'
'талант'
'такси_'
'таблиц'
'сы_'
'сы'
'съемк'
'считаю'
'счетов_'
'сцен'
'сформулированны'
'сформулирова'
'сформирован'
'сферах_'
'существующи'
'существующей_'
'существующего_'
'существенную_'
'существенное_'
'сухо'
'сутки_'
'сум'
'суду_'
'судебными_'
'судах_'
'суда'
'суд'
'суверенн'
'субъектами_'
'субрегионе_'
'субрегиональных_'
'сты'
'студии_'
'студентов_'
'сту'
'строк'
'строительные_'
'строительны'
'строги'
'стремлени'
'стреми'
'стрел'
'страновых_'
'страница_'
'стран'
'страж'
'страда'
'стр_'
'стоял'
'сторонни'
'сторона_'
'столкн'
'столиц'
'стол_'
'сток'
'стно'
'стически'
'стихийны'
'стимулировать_'
'степень_'
'степен'
'стенк'
'стей_'
'ственн'
'ства'
'ств'
'статьями_'
'статистике_'
'старшего_'
'станци'
'станов'
'стандартны'
'стандартах_'
'стандартами_'
'стандарт_'
'сталь'
'сталкивается_'
'сталкива'
'стадии_'
'ставок_'
'ставит_'
'став'
'ста_'
'ссылается_'
'ссуды_'
'срочно'
'средство_'
'средств'
'средой_'
'среднесрочного_'
'среднесрочн'
'средн'
'сравнения_'
'ср'
'спутников_'
'спроса_'
'справедливого_'
'способностью_'
'способность_'
'способности_'
'спорт'
'спонсор'
'списке_'
'спи'
'специальным_'
'специальное_'
'спе'
'спа'
'сочетании_'
'социальному_'
'социальн'
'сохраняющейся_'
'сохраняются_'
'сохранении_'
'сохранен'
'сотрудничает_'
'сотруднича'
'состоят'
'состоялась_'
'состоявш'
'состоя'
'составляли_'
'составляла_'
'составлени'
'сопряжен'
'сопровождают_'
'сопровожда'
'соответствуют_'
'сообщила_'
'соображения_'
'сон_'
'созыва'
'созыв'
'создают_'
'созданы_'
'созданны'
'создан'
'создает'
'создава'
'созван'
'сожалением_'
'соединения_'
'соединение_'
'содержит_'
'содержимое_'
'содержаще'
'содержать_'
'содержат_'
'содержа'
'соглашению_'
'согласованно'
'согласования_'
'согласиться_'
'согласилась_'
'совместны'
'совместно'
'совме'
'советов_'
'советника_'
'советник'
'совет'
'совершил'
'совершенных_'
'совершенно_'
'совершении_'
'совершен'
'совершают_'
'совершает_'
'событиях_'
'собственным'
'собственной_'
'собранн'
'собрания_'
'собра'
'соблюдении_'
'собира'
'соб'
'сня'
'сных_'
'сно'
'сним'
'снижения_'
'снар'
'смысл'
'смотр'
'смогла_'
'сметы_'
'смесь'
'слушани'
'слу'
'слои_'
'следующего_'
'следующ'
'следствие_'
'следовательно_'
'слав'
'скрыт'
'скорость_'
'скоро'
'скоординированны'
'сколь_'
'скими_'
'ски_'
'ски'
'скал'
'сказал'
'ск_'
'ситуациях_'
'ситуацией_'
'системах_'
'систематического_'
'сир'
'синерги'
'символ'
'сим'
'сильные_'
'сильн'
'силой_'
'сил'
'сик'
'сии_'
'сие'
'сест'
'серьезный_'
'серьезно_'
'сертификатов_'
'сертификат_'
'серб'
'сент'
'сен'
'семь_'
'семинара_'
'семи_'
'селен'
'секторов_'
'сексуальны'
'секретариат'
'свят'
'связана_'
'связ'
'свыше_'
'своевременно'
'свидетельство'
'свидетельств'
'свидетелей_'
'сверх'
'сбро'
'сбору_'
'сбор'
'сбер'
'сбалансированно'
'сар'
'санкционирова'
'санкции_'
'самоу'
'самос'
'рыт'
'рынков_'
'рынк'
'ры'
'руководящими_'
'руководств'
'руководителя_'
'руководители_'
'руководителей_'
'руководител'
'ружен'
'рует_'
'руб_'
'рту'
'росы_'
'росту_'
'российских_'
'роскошны'
'роп'
'ром_'
'ролей_'
'рол'
'рожден'
'родители_'
'роди'
'рован'
'ровал'
'рны'
'рного_'
'рна'
'рм'
'риску'
'рим'
'решительно_'
'решимости_'
'решениями_'
'решением_'
'речи_'
'реформа_'
'республик'
'ренн'
'ремонту_'
'ременн'
'релиз'
'религиозные_'
'религиозно'
'рект'
'рекомендациями_'
'реко'
'резюме_'
'результата_'
'резолюциями_'
'режи'
'редн'
'редко_'
'редел'
'редактор'
'ред'
'регулярных_'
'регулярны'
'регулярной_'
'регулирующих_'
'регулирова'
'регистриру'
'регистра'
'региональное_'
'рег'
'рев'
'ребенк'
'реального_'
'реально'
'реализован'
'реа'
'рг'
'рационально'
'рационал'
'раунда_'
'ратель'
'рат'
'расы_'
'расширять'
'расширен'
'расчета_'
'рассмотрел'
'расследова'
'рассе'
'распределение_'
'располагать'
'распо'
'расписание_'
'расизма_'
'раннего_'
'ранн'
'ранич'
'рако'
'разы'
'разумны'
'разумно'
'разрыв_'
'разруш'
'разрешени'
'разрешен'
'разреша'
'разработкой_'
'разработанны'
'разработана_'
'разоружение_'
'разнообразн'
'размера'
'разли'
'разделения_'
'разделен'
'раздела'
'развитием_'
'развива'
'развертыва'
'развернут'
'развер'
'разбит'
'раза_'
'рад_'
'рабочим_'
'рабочи'
'рабоче'
'работающие_'
'работающ'
'работают_'
'работал'
'работ'
'пятницу_'
'пятидесятой_'
'пытки_'
'пытках_'
'пыткам'
'пытал'
'публично'
'психологическо'
'психологические_'
'прямо'
'пруденци'
'проявлениями_'
'проявления'
'прошло'
'прошедшие_'
'прош'
'прочной_'
'прочного_'
'проч'
'процедуре_'
'проходит_'
'прохо'
'профилакти'
'профессиональных_'
'профессиональный_'
'профессиональн'
'професси'
'протоколов_'
'противодействия_'
'противодействию_'
'прот'
'просто'
'просит'
'просве'
'пропускн'
'пропаганд'
'пропа'
'промежуто'
'пролив'
'прол'
'прокуратуры_'
'прока'
'пройдут_'
'происшестви'
'происходящи'
'происходят_'
'произош'
'производственных_'
'производительность_'
'производителей_'
'произведени'
'прозрачности_'
'проектом_'
'проектами_'
'прое'
'продукцию_'
'продолжительности_'
'продолжит_'
'продолжи'
'продолжающе'
'продовольствия_'
'продемонстрирова'
'проделанную_'
'продать_'
'продаж'
'прогрессе_'
'прогре'
'программн'
'программах_'
'провоз'
'провинций_'
'провинциальн'
'провинци'
'проверк'
'проверить_'
'провер'
'проведенного_'
'проведена_'
'пров'
'проблемах_'
'проблематики_'
'проблематик'
'пробел'
'пришл'
'прит'
'присужд'
'приступить_'
'присоединя'
'присоединении_'
'прирост_'
'природоохранных_'
'приоритетной_'
'приоритетно'
'приобре'
'принятую_'
'принята_'
'принципиальн'
'принципах_'
'принудительно'
'принимающ'
'приниматься_'
'принес'
'примера_'
'пример'
'применяю'
'применяемы'
'применя'
'применит'
'применимы'
'применили_'
'применению_'
'примен'
'приме'
'прико'
'прикладны'
'призывом_'
'призыв_'
'признателен_'
'признаны_'
'признанны'
'признала_'
'признал'
'признаки_'
'призванны'
'призва'
'приемлемо'
'приема_'
'прие'
'придется_'
'пригодн'
'приглашение_'
'приглаша'
'привлечении_'
'привлечение_'
'привлекательн'
'привлека'
'приветствуя_'
'приверженности_'
'приведения_'
'приведен'
'прибытия_'
'прибыли_'
'претензиям_'
'прет'
'преступно'
'престарелых_'
'прест'
'пресс'
'преследования_'
'преследовани'
'препятствием_'
'препровожд'
'преодоле'
'преобразования_'
'преобразован'
'преобраз'
'преобладаю'
'прений_'
'премии_'
'преми'
'прекращение_'
'прекратил'
'преимущество_'
'преимущественно_'
'преимущества_'
'преимуществ'
'президент_'
'предыдущие_'
'предыдущем_'
'предшественник'
'предусмотренно'
'предусмотре'
'предусматривающее_'
'предупреждение_'
'предупрежд'
'предстоящи'
'предстоящей_'
'представленным'
'представленности_'
'представленной_'
'представительств'
'представи'
'предсказ'
'председателем_'
'председател'
'предприятиях_'
'предпринятые_'
'предпринял'
'предпринимаемые_'
'предпринимаемы'
'предпочт'
'предположит'
'предполагает_'
'предписываю'
'предпис'
'предоставляющих_'
'предоставляющ'
'предоставляю'
'предоставленные_'
'предоставлению_'
'предоставил'
'предназначенно'
'предназнача'
'предмет'
'предложили_'
'предложенных_'
'предложенные_'
'предложении_'
'предлагаю'
'предлагаемых_'
'предел'
'предварительны'
'превра'
'превентивн'
'праздников_'
'праздн'
'правосуди'
'правопорядка_'
'правоо'
'правозащитны'
'правовым'
'правово'
'правительственным'
'правительственны'
'правил'
'прави'
'правами_'
'пра'
'поясн'
'появля'
'появ'
'потрясени'
'потребность_'
'потребителя'
'потребителей_'
'потреб'
'потоков_'
'потеря'
'потенциальны'
'потенциально_'
'поте'
'пот'
'поступи'
'поступающих_'
'постоянным'
'постепенного_'
'постановил_'
'поставщиков_'
'поставщик'
'поставок_'
'поставлено_'
'поставк'
'пособие_'
'пособ'
'посмотреть_'
'последующие_'
'последствиях_'
'последовател'
'последовал'
'последний_'
'последнем_'
'последней_'
'последнего_'
'послал_'
'посетител'
'посетила_'
'посвященные_'
'посвященны'
'посвященной_'
'поруч'
'порты_'
'портн'
'портал'
'поро'
'порнографии_'
'порно'
'популярны'
'поправк'
'попе'
'поощрению_'
'поо'
'понятие_'
'понимает_'
'помощник'
'поможет_'
'помещения'
'помещен'
'помеща'
'пользовател'
'получил_'
'получи'
'получено_'
'получател'
'получат_'
'получае'
'полугоди'
'полосы_'
'положительно_'
'полную_'
'полковник'
'полицейский_'
'политический_'
'политически'
'поле'
'полагать_'
'покупк'
'покупател'
'поко'
'покинуть_'
'показателя'
'показано_'
'пой'
'пози'
'позднее_'
'позволяюще'
'позволили_'
'позади_'
'поездка'
'поездк'
'подчин'
'подчеркивал'
'поду'
'подстрека'
'подрядчиков_'
'подрядчика'
'подробный_'
'подразделениями_'
'подразделени'
'подраздел'
'подр'
'подпункт'
'подпрограмма'
'подпрограмм'
'подотчетн'
'подорва'
'подозр'
'подобных_'
'подобные_'
'подобного_'
'подоб'
'подкомитет'
'подключен'
'подк'
'поддержива'
'поддержани'
'поддержали_'
'подготовленный_'
'подготовленн'
'подвергнут'
'подвергают'
'подвергается_'
'подве'
'подал'
'погод'
'повысил'
'повторны'
'повторно'
'повтор'
'повс'
'победителе'
'пн'
'пля'
'площадью_'
'плохо'
'пло'
'плив'
'пли'
'пленарных_'
'платформы_'
'питание_'
'письменны'
'письменно'
'писател'
'писал_'
'печи'
'печати_'
'персоналу_'
'персоналом_'
'персонале_'
'периодического_'
'периодический_'
'периодические_'
'период'
'перечня_'
'перечислены_'
'перестройки_'
'пересмотренных_'
'пересмотренного_'
'пересмотре'
'пересечения_'
'переселен'
'перераспределения_'
'перераб'
'перена'
'перемещения_'
'перемещение_'
'переживае'
'передовой_'
'передвижения_'
'передан'
'переговор'
'первым_'
'первоочередно'
'первоначально_'
'первоначально'
'первое_'
'пациентам'
'патр'
'пассажиров_'
'пассажир'
'пас'
'партнерстве_'
'парламентск'
'парк'
'парат'
'пара'
'памяти_'
'паль'
'палестин'
'пак'
'пагубн'
'очных_'
'очно'
'очн'
'очистк'
'очевидно'
'оценивается_'
'оценива'
'охватывают'
'охватывать_'
'официальными_'
'официальный_'
'официального_'
'официально'
'официальн'
'оф'
'отчетность_'
'отчетного_'
'отчет'
'отсутствует_'
'отсутствии_'
'отрицательн'
'отраж'
'отобра'
'ото'
'относящи'
'отнес'
'отн'
'отмыванием_'
'отмечен'
'отличн'
'отлича'
'отл'
'открытых_'
'открытым_'
'открытом_'
'открыл'
'отклонени'
'отклон'
'отказались_'
'отказ'
'отк'
'отеле_'
'оте'
'отдельными_'
'отдельные_'
'отдельно_'
'отдельн'
'отделения_'
'отделение_'
'отдел_'
'отдачи_'
'отдач'
'отвеча'
'ответственны_'
'ответов_'
'ответе_'
'осход'
'осуществля'
'осуществлен'
'осужден'
'островные_'
'острова_'
'остран'
'остр'
'осто'
'остаю'
'остаток_'
'остат'
'остальных_'
'остав'
'оста'
'особых_'
'особы'
'особого_'
'особенностей_'
'особ'
'осо'
'основывается_'
'основанные_'
'основани'
'осм'
'осл'
'освобождени'
'освобожден'
'осве'
'осадков_'
'ору'
'орот'
'ором_'
'орож'
'оро'
'орма'
'ориентация_'
'организуемы'
'организу'
'организованны'
'организованн'
'организова'
'организа'
'оратор'
'оранжев'
'орам'
'опыте_'
'опубликова'
'оптимальны'
'опроса_'
'определяет_'
'определила_'
'опор'
'описанны'
'операция_'
'опекун'
'опе'
'опасность_'
'опасности_'
'опа'
'оны_'
'онный_'
'оми'
'оле'
'ол_'
'окруж'
'окр'
'окончании_'
'окон'
'оккупированных_'
'оккупированной_'
'оккуп'
'океана_'
'оказывающ'
'оказываем'
'оказан'
'оказалась_'
'ока'
'озо'
'ознаменова'
'озн'
'озаглавленного_'
'озабоченност'
'ожени'
'оже'
'ое'
'одобрила_'
'одобрил'
'односторонни'
'одн'
'одежд'
'огу'
'огромный_'
'огромн'
'ограниченный_'
'оговорки_'
'оговорк'
'ого'
'ог_'
'овыва'
'овани'
'обязательством_'
'обязательны'
'обязан_'
'обы'
'объясняется_'
'объяснения_'
'объявления_'
'объяв'
'объективной_'
'объедин'
'общинны'
'общинно'
'община'
'обществом_'
'общем_'
'обучению_'
'обучение_'
'обсужден'
'обсудить_'
'обстоятельствах_'
'обре'
'обращен'
'обращал'
'обращается_'
'обраща'
'обратиться_'
'обрат'
'образовательных_'
'обработ'
'обрабатываю'
'обоснова'
'оборудован'
'оборот'
'обои_'
'обознач'
'обменно'
'облегчени'
'област'
'обладающ'
'обладать_'
'обладает_'
'обзорны'
'обеспокоенностью_'
'обеспокоена_'
'обеспечивающие_'
'обеспечивающ'
'обеспечиваются_'
'обед'
'обвинения_'
'обвин'
'оба'
'ням_'
'нынешних_'
'нынешнем_'
'ныне_'
'нц'
'нут'
'нуждается_'
'нтно'
'нта_'
'нско'
'нских_'
'нский_'
'нот'
'носител'
'нормативных_'
'нормально'
'нормал'
'норирован'
'нок_'
'ног'
'новыми_'
'новск'
'новости_'
'нови'
'нной_'
'нко'
'ничего_'
'нич'
'ница_'
'ником_'
'нико'
'никакой_'
'никак'
'низки'
'ниже'
'нз'
'нехватк'
'нефть_'
'нефт'
'нетерп'
'несущ'
'нести_'
'несостоятельн'
'несоо'
'несоблюдени'
'несо'
'нераспространении_'
'непрерывно'
'неправильн'
'непосредственно'
'непод'
'неофициальных_'
'неофициальной_'
'неофициально'
'неотложные_'
'неот'
'неоднократно_'
'необходимыми_'
'необходимая_'
'необходима_'
'необходим'
'немноги'
'немецк'
'немедленно_'
'нел'
'нейтрал'
'неизбежн'
'незначительн'
'незамедлительным_'
'незаме'
'незаконным'
'незаконн'
'независим'
'недостат'
'недискриминации_'
'недавни'
'недавне'
'негативно'
'небольшо'
'неблагоприятн'
'небе'
'неб'
'ндо'
'нда_'
'нда'
'нашли_'
'нашим_'
'наше_'
'наша_'
'начинает_'
'наче'
'начально'
'началась_'
'находящиеся_'
'находяще'
'находиться_'
'находи'
'научно'
'нат'
'насчитыва'
'настоящих_'
'настоящ'
'наст'
'насколько_'
'населенных_'
'нарушениях_'
'нарушениям'
'наруша'
'народу_'
'нарко'
'наращивания_'
'нара'
'напрямую_'
'напротив_'
'направля'
'направлениям_'
'направлена_'
'напра'
'напомнил'
'напоминаю'
'наполнен'
'напитк'
'намного_'
'намерении_'
'намерен'
'налогов'
'налаживания_'
'накопленн'
'нако'
'наказани'
'найму_'
'найм'
'наибольш'
'назначении_'
'назначение_'
'назначен_'
'надругательств'
'надлежащей_'
'надеюсь_'
'надежно'
'надежды_'
'надежду_'
'надеется_'
'наград'
'наг'
'наводнения_'
'набора_'
'набор_'
'наблюдений_'
'наблюдателя_'
'мят'
'мысль_'
'мым'
'муч'
'муни'
'музыка_'
'музей'
'мужчин'
'мотив'
'мост'
'морю_'
'морск'
'морей_'
'моральн'
'моно'
'моменто'
'мом_'
'молодого_'
'молит'
'моде'
'мог_'
'мобильных_'
'мобильн'
'мобилиз'
'мо_'
'многочисленных_'
'многочисленным'
'многочисленные_'
'многосторонних_'
'мнениями_'
'мле'
'младших_'
'мист'
'миротвор'
'мирным'
'мирн'
'министр_'
'министерством_'
'министерств_'
'минимально'
'миллиона_'
'миллиардов_'
'миллиарда_'
'мигранта'
'механизмом_'
'механизм'
'метро_'
'метода_'
'мети'
'мет'
'месячный_'
'месту_'
'местные_'
'местной_'
'местно'
'мерт'
'мерам_'
'меньшинства'
'меньш'
'менн'
'мелки'
'межсекторальн'
'межправительственные_'
'международный_'
'медицины_'
'медицинские_'
'мба'
'мах'
'матическ'
'материала'
'материал'
'матери_'
'масштабе_'
'мастер'
'март_'
'маркировк'
'маргинал'
'манск'
'мани'
'мандаты_'
'мана_'
'ман_'
'ман'
'малоимущих_'
'май'
'мае_'
'любим'
'льт'
'льс'
'льни'
'льк'
'лучшего_'
'лот'
'лом_'
'лок'
'ложн'
'логов_'
'ллер'
'лл_'
'лишенных_'
'личных_'
'личный_'
'личности_'
'лично_'
'лицензи'
'лиц'
'лип'
'лине'
'лин_'
'лик'
'леч'
'летом_'
'лета'
'лены_'
'ленного_'
'ленно'
'лений_'
'лекарств'
'лежит_'
'лежащие_'
'легитимн'
'лах_'
'ландск'
'ланд'
'лагере'
'кци'
'курсе_'
'культурные_'
'культурно'
'культур'
'куда_'
'кто'
'кс_'
'крупны'
'критическо'
'критериям'
'критерии_'
'критери'
'кризисом_'
'кризис'
'кредитов_'
'кредито'
'кредитно'
'кредитам_'
'кратчайшие_'
'кратки'
'кос'
'коррупции_'
'корпоративны'
'корпоративно'
'коп'
'координируе'
'координир'
'координационных_'
'координационн'
'координатора_'
'координатор'
'концепцию_'
'концепции_'
'концентрации_'
'концентраци'
'конфликты_'
'конфликтами_'
'конфликт_'
'конфликт'
'конфиденциальности_'
'контролируе'
'контролировать_'
'контролир'
'контрактам_'
'контра'
'континента'
'контингент'
'контейнер'
'контактн'
'конт'
'консультативной_'
'консульт'
'конструктивн'
'консо'
'конкурсн'
'конкурс'
'конкурент'
'конечно'
'кондицион'
'конд'
'конвенци'
'комфортно_'
'комфорт'
'компромисс'
'комплексны'
'комплексно'
'комплекс'
'компетенции_'
'компетенци'
'компенсацию_'
'компаниями_'
'комп'
'комната_'
'коммуникационн'
'коммуникаций_'
'коммунально'
'коммерческо'
'коммерческих_'
'коммер'
'комментарии_'
'комитете_'
'коми'
'команды_'
'команд'
'коллекци'
'коллега'
'количестве'
'количеств'
'кож'
'кодекс_'
'кодекс'
'клип'
'клиника'
'клиентов_'
'кли'
'классов_'
'классификации_'
'классификаци'
'кир'
'кера'
'квартал'
'квалификации_'
'квадратных_'
'качественно'
'като'
'категория'
'категори'
'катастроф'
'катал'
'касающуюся_'
'касающимся_'
'касающегося_'
'картин'
'кандидата'
'каналам'
'кана'
'каллиграфии_'
'какое_'
'како'
'казне'
'каз'
'кажется_'
'каждое_'
'кадрово'
'йства_'
'йских_'
'йская_'
'йны'
'йного_'
'йде'
'йд'
'ищ'
'ич_'
'ици'
'ихся_'
'иу'
'итянск'
'итог'
'ительств'
'ительных_'
'ительным'
'ителей_'
'исчисля'
'исходя_'
'исход'
'истрат'
'источника_'
'источник'
'исторических_'
'истече'
'истек'
'исследовани'
'испытывают_'
'испытание_'
'испытани'
'исправления_'
'исправительных_'
'использовались_'
'исполня'
'исполнителя'
'исполнени'
'исл'
'искусственн'
'искусства_'
'искоренение_'
'искорен'
'исключены_'
'иси'
'ирующ'
'ирует_'
'ируемо'
'иру'
'ирова'
'иров'
'ип'
'инфра'
'информировать_'
'информир'
'информационны'
'информационного_'
'информационн'
'ину'
'интересам_'
'интенсивно'
'инструмент_'
'инструкци'
'инструкт'
'институционал'
'институт'
'инов'
'ини'
'инженерн'
'индустри'
'индивидуальных_'
'индекс'
'инд'
'инвесторов_'
'инвестициям'
'инвестиционных_'
'инвестирования_'
'инвалидности_'
'инал'
'имым'
'имся_'
'импорт'
'иммиграционн'
'иммиграции_'
'имеющи'
'имеющейся_'
'имен'
'иле'
'иком_'
'ико'
'икат'
'ийски'
'ийс'
'изъя'
'изучению_'
'израильские_'
'изоля'
'изображение'
'изн'
'изменил'
'измененны'
'изменен'
'изм_'
'изложенным_'
'изложенн'
'изза_'
'изделий_'
'издал'
'изд'
'изготовител'
'изго'
'известных_'
'известна_'
'избра'
'избирательно'
'избира'
'избегать_'
'изацию_'
'иждивен'
'иеся_'
'идо'
'идея'
'идентификации_'
'идеи_'
'идеал'
'иде'
'ида'
'игаци'
'ивших'
'ивши'
'иваются_'
'ивать_'
'ивани'
'ивал'
'ивает'
'ибо_'
'зрител'
'зр'
'золот'
'зова'
'значительным_'
'значительны'
'значительное_'
'значительного_'
'значительная_'
'значительн'
'знач'
'знание'
'знает_'
'злоупотреблени'
'зированны'
'зимн'
'зи_'
'земли_'
'земле_'
'здорового_'
'здо'
'здании_'
'зд'
'звук'
'звон'
'зво'
'зва'
'заявляем_'
'заявлении_'
'заявлени'
'заявила_'
'заяв'
'защища'
'защитников_'
'защитник'
'заци'
'зах'
'затронул'
'застр'
'застави'
'заряд'
'зарегистрированны'
'зарегистрирован'
'запугивани'
'запросы_'
'запросов_'
'запрещается_'
'запрет'
'заполнен'
'запланированны'
'запланированное_'
'запас'
'занятых_'
'заняти'
'занимающ'
'занимал'
'замечательно'
'замечаниях_'
'заместителем_'
'заместителей_'
'заме'
'залож'
'закупок_'
'закупка'
'закрыты'
'закрытое_'
'закрыт'
'закрывается_'
'закрепленн'
'закрепл'
'законодательстве_'
'заключительн'
'заключенного_'
'заключалась_'
'закл'
'заказчик'
'заказа'
'заи'
'зае'
'задержки_'
'задержанных_'
'задержани'
'загрязнител'
'загрязнения_'
'загрязн'
'заг'
'завис'
'завет'
'завершены_'
'завершение_'
'заба'
'журналист'
'жско'
'жо'
'жно'
'жни'
'жить_'
'жите'
'жим'
'жило'
'жизненно_'
'животных_'
'жи_'
'жертвы_'
'жертвами_'
'женны'
'женност'
'жем_'
'желе'
'желающ'
'ждан'
'жалобу_'
'жалоба'
'жало'
'её_'
'еша'
'ечен'
'ечат'
'ецк'
'ето'
'есь_'
'еств'
'есп'
'ерк'
'ержа'
'ерат'
'епи'
'енс'
'енным_'
'енная_'
'ениям'
'ений_'
'ене'
'ена'
'емым'
'емы'
'емом_'
'емны'
'ема'
'ельными_'
'ела'
'екс'
'ейши'
'ейше'
'ейского_'
'ези'
'ежегодных_'
'ежегодны'
'еже'
'ее'
'еды_'
'едины'
'единственным_'
'единственн'
'единени'
'едел'
'еде'
'еда_'
'еда'
'ед_'
'егося_'
'егат'
'европейские_'
'ева'
'ды'
'дцат'
'дующий_'
'духовных_'
'дума'
'дт'
'другом_'
'дру'
'доступности_'
'доступе_'
'достойны'
'достоинство_'
'досто'
'достигнут_'
'достаточной_'
'достаточное_'
'достав'
'доста'
'дорожно'
'дорожн'
'допускается_'
'дополнени'
'доно'
'дони'
'домов_'
'дома'
'должным_'
'должностного_'
'должност'
'долгосрочного_'
'долгов'
'долго_'
'долго'
'докт'
'доклад'
'доказательство'
'договорных_'
'договорно'
'договориться_'
'договоренностей_'
'договоре'
'договорам_'
'довольно_'
'добыч'
'добавленной_'
'добавил'
'доб'
'дной_'
'дно'
'длинн'
'длина_'
'дл'
'дическ'
'дици'
'дисциплины_'
'дист'
'дискриминация_'
'дискриминационны'
'дискриминацией_'
'директор'
'дипломатически'
'дио'
'динамик'
'диктатуру_'
'диаг'
'джейлбрейк_'
'дефицит'
'детского_'
'дете'
'детально_'
'десято'
'десятилети'
'деревн'
'депутат'
'департамент'
'денежных_'
'демонстриру'
'демонстра'
'демократическо'
'демократи'
'демобилизации_'
'дело'
'делают_'
'декларацию_'
'действующе'
'действиями_'
'дей'
'двусторонних_'
'дву'
'дво'
'движущ'
'двигатель_'
'дви'
'двадцат'
'дают_'
'дату_'
'дар'
'даме'
'дальнейшему_'
'дальн'
'далеко'
'давала_'
'дав'
'гус'
'гуманитарных_'
'губерн'
'гу_'
'группах_'
'греш'
'графическ'
'граф'
'гранат'
'гран'
'гражданско'
'гражданин'
'грави'
'готовы_'
'готовности_'
'государственным_'
'государственный_'
'государственные_'
'гостин'
'гостей_'
'городск'
'город_'
'гом'
'голод'
'годн'
'годами_'
'год'
'гов_'
'глубокую_'
'глу'
'глобальны'
'глобал'
'гк'
'гер'
'географическо'
'географических_'
'генетически_'
'генеральн'
'генерал'
'гендерных_'
'гендерно'
'ге_'
'гг_'
'гва'
'гас'
'гарантия'
'гарантир'
'ган_'
'выявлени'
'выч'
'вытека'
'выступающи'
'выступа'
'выстр'
'выставлен'
'высот'
'высоком_'
'высокие_'
'высказали_'
'вырос_'
'выразил'
'выраженн'
'выражении_'
'выража'
'выработки_'
'выработа'
'выпускников_'
'выпуска_'
'выполняют_'
'выполняли_'
'выполняем'
'выполнении_'
'выплачива'
'выплат'
'вынуждены_'
'вынос'
'вынесен'
'вын'
'выми_'
'выл'
'выйти_'
'вызов_'
'вызван'
'выделяемых_'
'выдава'
'выд'
'выгоды_'
'выгляд'
'вывод_'
'выбора_'
'выбира'
'вшего_'
'входящими_'
'ву'
'всяко'
'встретил'
'ври'
'временны'
'временное_'
'временного_'
'врагов_'
'вполне_'
'вперед_'
'восьм'
'воспрепятствовать_'
'воспр'
'воспользова'
'воспитания_'
'восемь_'
'вос'
'вопросе_'
'воп'
'волю_'
'вольн'
'вокат'
'войск_'
'войне_'
'вой'
'возросло_'
'возрастов_'
'возобновленной_'
'возникл'
'возникающие_'
'возможностям'
'возможн'
'возвращения_'
'возвращени'
'возврат'
'военнослужащих_'
'военнослужащим'
'военно'
'водород'
'водах_'
'вовлечение_'
'вных_'
'вный_'
'вны'
'внутреннем'
'внутренне_'
'внешнюю_'
'внесл'
'внедрению_'
'влиянием_'
'властей_'
'влажности_'
'владе'
'включен'
'вклад'
'вирус'
'виновных_'
'вина_'
'визы_'
'визита_'
'видо'
'видеок'
'видами_'
'взрыв'
'взноса'
'взаимосвязи_'
'взаимопомощи_'
'взаимоотношений_'
'взаимозависимости_'
'взаимо'
'взаимн'
'ветeр_'
'весо'
'веса_'
'вес_'
'верхне'
'верх'
'верс'
'вероисповедани'
'вернуть_'
'веке_'
'вей'
'ведутся_'
'ведомств'
'ведение_'
'вдо'
'ввод'
'введ'
'вашим_'
'ваши_'
'варианты_'
'ванн'
'вании_'
'вани'
'валютно'
'валюте_'
'валово'
'вало'
'вак'
'важными_'
'важности_'
'важнейше'
'важ'
'ваемо'
'бытов'
'быстрой_'
'быстрого_'
'быстрее_'
'бывших_'
'бумаг_'
'букв'
'будуще'
'брифинг'
'брать'
'борьбой_'
'борьба_'
'больш'
'больны'
'бол'
'боевых_'
'боево'
'бод'
'блокад'
'блок'
'бло'
'ближе_'
'благоприятн'
'благоп'
'биотехнологи'
'биологически'
'бина'
'били'
'билеты_'
'бизнеса_'
'бизнес_'
'библиотек'
'бесс'
'беспристрастно'
'бесед'
'берет'
'берегу_'
'бере'
'белый_'
'белорусск'
'бело'
'безработицы_'
'безо'
'беженца'
'бежен'
'бб'
'барьер'
'бара'
'банковско'
'банковски'
'банд'
'балло'
'баланс_'
'базовых_'
'баз'
'ачал'
'ац'
'афа'
'атри'
'атмосфере_'
'атл'
'атели_'
'ат'
'астр'
'ассоциаций_'
'ассигнований_'
'ас_'
'арх'
'артр'
'аро'
'арно'
'арн'
'армии_'
'арм'
'арестов'
'ареста_'
'аре_'
'аргумент'
'ар_'
'апреле_'
'аппаратуры_'
'апп'
'апелляционны'
'аны_'
'ано_'
'анных_'
'анно'
'аническ'
'ане'
'андийск'
'английском_'
'английского_'
'английский_'
'аналогичных_'
'анализир'
'американски'
'американск'
'амен'
'альный_'
'альн'
'ались_'
'али_'
'акции_'
'активные_'
'активны'
'активную_'
'активного_'
'активн'
'актив'
'актах_'
'актами_'
'акта_'
'акт_'
'аков'
'ака_'
'ай'
'аива'
'азиатско'
'адн'
'администратор'
'административную_'
'административной_'
'адекватно'
'адвокатом_'
'адвокатов_'
'адвоката'
'агрессии_'
'агр'
'аги'
'агентства_'
'авторитет'
'автономн'
'автомобиль_'
'автоматическо'
'аварий'
'абсолютно_'
'абл'
'Января_'
'Юрисконсульт'
'Юни'
'Южный_'
'ЮНС'
'ЮНОПС_'
'ЮНИ'
'Ю_'
'Эфиопии_'
'Эль_'
'Экс'
'Экономический_'
'Эква'
'Эд'
'ЭСКЗА_'
'ЭС'
'ЭКО'
'ЭКА_'
'Ь_'
'ЫЕ_'
'Ще'
'ЩИ'
'Шу'
'Шестьдесят_'
'Шер'
'Чу'
'Члены_'
'Чешская_'
'Чет'
'Черногория_'
'Част'
'ЧЕ'
'Церковь_'
'Центра_'
'Цели_'
'Целев'
'Цвет'
'ЦРДТ_'
'Ц_'
'Хор'
'Хан_'
'Фотографии_'
'Флор'
'Финансовы'
'Фал'
'Факультативному_'
'Фактически'
'ФИ'
'ФАО_'
'ФА'
'Уэст'
'Учитывая_'
'Устойчивое_'
'Университет'
'Улучшение_'
'Украине_'
'Уд'
'Увеличение_'
'УЧ'
'УР'
'УК_'
'УГ'
'Тюр'
'Ты_'
'Три_'
'Три'
'Транс'
'Тол'
'Тихо'
'Тимора_'
'Тен'
'Температура_'
'Теле'
'Тар'
'Таиланд_'
'ТО_'
'ТЕА'
'ТЕ'
'ТВ'
'Судану_'
'Структур'
'Стратегии_'
'Стр'
'Сторонам_'
'Сте'
'Стан'
'Ст'
'Срок'
'Среда_'
'Сред'
'Справочника_'
'Специальные_'
'Специальн'
'Союза_'
'Союз_'
'Социальный_'
'Сотрудничество_'
'Соединённых_'
'Соглашение_'
'Советск'
'Совете_'
'Сове'
'Сов'
'Смотри_'
'Словакии_'
'Следующ'
'Системы_'
'Серж'
'Сер'
'Семинар_'
'Секци'
'Секретариату_'
'Секретар'
'Сек'
'Сев'
'Сар'
'Сан'
'Сальвадор'
'СС_'
'СОДЕРЖАНИЕ_'
'СОВЕТА_'
'СКО'
'СВ'
'Ры'
'Руководящие_'
'Руководяще'
'Руководство_'
'Руководстве_'
'Руковод'
'Руанда_'
'Рост'
'Роберт'
'Римск'
'Рим'
'Рико_'
'Рекомендация_'
'Резюме_'
'Рез'
'Региональные_'
'Распр'
'Рам'
'Разработка_'
'Разр'
'Раздел_'
'РУ'
'РД'
'РАБОТ'
'Пуэрто_'
'Пут'
'Профессиональн'
'Прокур'
'Проект'
'Продовольственной_'
'Прод'
'Проведен'
'Принцип'
'Примечание_'
'Пример'
'Приднестров'
'Прест'
'Президент'
'Прежде_'
'Представители_'
'Предполагается_'
'Предложение_'
'Предл'
'Предварительная_'
'Правлени'
'Правилами_'
'Правила_'
'Пото'
'Постоянный_'
'Постоянно'
'Постановлени'
'Пост'
'Последние_'
'Порт'
'Поправк'
'Попр'
'Поль'
'Политика_'
'Поле'
'Показа'
'Подробн'
'Подписан'
'Подобн'
'Подготовительно'
'Повышение_'
'Пик'
'Петр'
'Петербурга_'
'Перво'
'Первая_'
'Пе'
'Пан'
'Пакте_'
'ПРИ'
'ПОВЕСТКИ_'
'Отдел'
'Ответы_'
'Острова'
'Остров'
'Осло_'
'Орган_'
'Орган'
'Опыт'
'Операции_'
'Ол'
'Оказание_'
'Од'
'Объем_'
'Объединенная_'
'Обще'
'Образование_'
'Обра'
'Обо'
'Обмен_'
'Область_'
'ОРГАНИЗАЦИЯ_'
'ОРГАНИЗАЦИИ_'
'ОГО_'
'ОВ'
'ОБ'
'Новый_'
'Но'
'Ника'
'Ник'
'Нидерландов_'
'Нигерия_'
'Несколько_'
'Непал_'
'Непал'
'Неп'
'Нел'
'Неиз'
'Начиная_'
'Национальн'
'Наряду_'
'Нар'
'Название_'
'Наз'
'НЦ'
'НП'
'НОЙ_'
'НО_'
'ННЫ'
'НДС_'
'НГ_'
'НАЦИ'
'Мур'
'Моск'
'Монте'
'Мон'
'Мини'
'Механизм'
'Мех'
'Мето'
'Мер'
'Мен'
'Мексике_'
'Мек'
'Международным_'
'Международные_'
'Международную_'
'Мат'
'Мальта_'
'Максим'
'Маг'
'Мавритани'
'МУ'
'МПО'
'МООНСЛ_'
'МООНДРК_'
'МЕР'
'МАГАТЭ_'
'Люксембург'
'Люб'
'Лукашенко_'
'Лиц'
'Лин'
'Ливан_'
'Лешти_'
'Латин'
'Латвия_'
'Лаосской_'
'Ланке_'
'Ланк'
'ЛЕ_'
'ЛА'
'Кыргызс'
'Кух'
'Кувейте_'
'Крист'
'Крас'
'Корр_'
'Королевства_'
'Кор'
'Конт'
'Кондиционер_'
'Комплек'
'Комиссию_'
'Кол'
'Кои'
'Код'
'Китайской_'
'Китае_'
'Ке'
'Касс'
'Кари'
'Канцелярия_'
'Камбодж'
'Как'
'Казахстане_'
'Каждый_'
'КПР_'
'КОН'
'КОМ'
'КВ'
'Йо'
'Июнь_'
'Итого_'
'Ислам'
'Иск'
'Ир'
'Иос'
'Иордании_'
'Иордани'
'Ио'
'Инф'
'Интернету_'
'Интер'
'Институ'
'Инди'
'Имя_'
'Иисус_'
'Израилю_'
'Израиле'
'Иерусалим'
'Иегов'
'Ие'
'ИЯ_'
'ИТ_'
'ИС_'
'ИП'
'ИКОВ_'
'ИЕ_'
'Значительн'
'Зе'
'Заявление_'
'Заявлени'
'Западной_'
'Заир'
'ЗМ'
'ЗИЗЛХ_'
'ЗАСЕДАНИ'
'Живо'
'Жи'
'Же'
'Еще_'
'Европейско'
'Европ'
'Евро_'
'Евразийско'
'ЕТ'
'ЕК'
'ЕЙ'
'ЕД'
'Дост'
'Дополнительные_'
'Дополнительн'
'Дома'
'Должн'
'Договор_'
'Директив'
'Джо'
'Джибути_'
'Дер'
'Демократическая_'
'Дело_'
'Дек'
'Действи'
'Девят'
'Двор'
'Движения_'
'Два_'
'Далее_'
'Даби_'
'ДОКЛАД_'
'Гуам'
'Группу_'
'Гри'
'Греци'
'Гренландии_'
'Гранд_'
'Государственного_'
'Государств'
'Господ'
'Гос'
'Гондурас'
'Год_'
'Глобального_'
'Главного_'
'Главн'
'Герцеговина_'
'Георги'
'Ген'
'Гватемала_'
'Гватемал'
'Гал'
'ГОС'
'ГОДА_'
'ГОВ'
'ГО'
'ГМ_'
'ГА'
'Вьетнам_'
'Высоки'
'Выз'
'Вторая_'
'Встреч'
'Всемирный_'
'Всем_'
'Вр'
'Вопросы_'
'Возможн'
'Вместо_'
'Вир'
'Вет'
'Вене'
'Велико'
'Великих_'
'Вели'
'Вел'
'Вей'
'Ввиду_'
'Введение_'
'Важно_'
'Важн'
'ВТ'
'ВСООНЛ_'
'ВС'
'ВН'
'ВЛЕНИ'
'Бур'
'Босния_'
'Бонн'
'Больш'
'Боливия_'
'Боливарианск'
'Бол'
'Богу_'
'Ближнем_'
'Ближне'
'Бла'
'Бир'
'Бес'
'Бени'
'Бен'
'Без_'
'Без'
'Бахрейн'
'Бат'
'Барселон'
'Банк_'
'Бан'
'Бай'
'БЕЗОПАСНОСТИ_'
'БАПОР_'
'Африканский_'
'Афганистан_'
'Афганистан'
'Астан'
'Ассоциация_'
'Ассо'
'Ассигнования_'
'Ас'
'Архив_'
'Аре'
'Ант'
'Ангол'
'Алматы_'
'Али'
'Алекс'
'Актив'
'Ак'
'Ази'
'Азербайджан'
'Административного_'
'Агентство_'
'Абд'
'АС'
'АН_'
'АМИСОМ_'
'АД'
'ī'
'í_'
'én'
'ä_'
'Ø'
'Ð¾Ð½'
'ÐºÐ¾Ð½ÐºÑ_'
'ÐµÐ'
'Ð²Ñ_'
'Ð²Ð_'
'Å'
'», - _'
'ºC_'
'¶_'
'¦ _'
'zn'
'zk'
'zer'
'zar'
'za'
'yv'
'yu'
'you'
'yn_'
'ym'
'yev'
'yer_'
'yed_'
'yd'
'yc'
'ya'
'xu'
'ws'
'wr'
'worst_'
'worry_'
'workplan'
'word'
'wol'
'wn'
'withstand'
'withdrawal_'
'wit'
'wire'
'windows_'
'window_'
'wife_'
'widely_'
'wheel'
'whe'
'whatever_'
'wh0cd'
'welfare_'
'weekly_'
'wee'
'wedding'
'waters_'
'waste'
'was'
'wars_'
'ware_'
'wants_'
'wan'
'waiti'
'wages_'
'vr'
'vor'
'vo_'
'visiting_'
'visi'
'virtue_'
'virtual'
'violating_'
'violated_'
'violate_'
'vio'
'villa'
'vii_'
'victory_'
'viat'
'ves'
'verse_'
'verify_'
'verbale_'
'venture_'
'vent'
'vel'
'vegeta'
've'
'variation'
'varia'
'valid_'
'ux'
'ution_'
'ut_'
'usual_'
'ust_'
'ust'
'usi'
'use'
'us'
'urs_'
'urgency_'
'ured_'
'uploads_'
'upgrad'
'unus'
'universal'
'unity_'
'unf'
'undermine'
'underlined_'
'unde'
'uncon'
'unchanged_'
'unb'
'unan'
'ums'
'umn'
'ult'
'ull'
'uit_'
'uise'
'ught_'
'ue'
'uds'
'ude'
'ud_'
'uchi'
'uce'
'ube'
'ub'
'ually_'
'ual'
'u041'
'tz_'
'tyre'
'typical_'
'tyle'
'twi'
'twel'
'turb'
'tunnel'
'tual_'
'tru'
'trip'
'tribes_'
'treat'
'transmission_'
'translate'
'transfers_'
'transboundary_'
'tradition'
'tow'
'tournament_'
'tort'
'too'
'ton'
'tissue_'
'tip'
'tious_'
'till_'
'tile_'
'til'
'tif'
'tics_'
'tica'
'thro'
'threats_'
'threaten'
'thorough_'
'thin'
'theory_'
'tha_'
'texts_'
'tended_'
'tend'
'tee'
'tedly_'
'technological_'
'technic'
'talent'
'tain'
'tag'
'synthesis_'
'sy_'
'swift'
'sv'
'sustained_'
'suspended_'
'sus'
'surround'
'surprise'
'surf'
'summit'
'suitable_'
'suit'
'suggesti'
'suffer_'
'sue_'
'successor_'
'subsidi'
'subsequently_'
'subjects_'
'studio'
'struggl'
'structures_'
'structured_'
'stronger_'
'stresses_'
'story_'
'store'
'stopp'
'stol'
'stocks_'
'stic_'
'sten'
'sted_'
'stations_'
'station_'
'stateless_'
'start'
'stars_'
'star_'
'stan'
'stamps_'
'stad'
'ssions_'
'ssa'
'sq'
'spring_'
'sports_'
'spheres_'
'spending_'
'speed'
'special'
'sp'
'sovereign_'
'soul_'
'song_'
'someone_'
'solid_'
'soli'
'socket_'
'sn'
'smo'
'smile'
'sman'
'slow_'
'sl'
'skill_'
'ska_'
'sk'
'sized_'
'situated_'
'sister'
'sion'
'sincere'
'simultaneously_'
'simplif'
'sim_'
'sim'
'signature_'
'signals_'
'sif'
'showing_'
'short'
'shops_'
'shopping_'
'shift'
'sheet_'
'sharp'
'shareholders_'
'shar'
'sh'
'sey'
'sex'
'severely_'
'settlements_'
'set'
'serving_'
'serves_'
'serva'
'serv'
'sentenced_'
'sens'
'sen_'
'seized_'
'seg'
'secret_'
'seat_'
'seal'
'screening_'
'screen_'
'sco'
'scien'
'scheme_'
'scenario'
'sce'
'savings_'
'saving_'
'satisfied_'
'sat_'
'sant'
'sand'
'salo'
'salary_'
'sai'
'rush'
'ruling_'
'rubles_'
'rti'
'rtain'
'rows_'
'rou'
'rost'
'ror'
'ropo'
'ron_'
'rol'
'robbery_'
'rma'
'rly_'
'riot'
'ring'
'rine'
'ries_'
'rich'
'rical_'
'ric_'
'revoked_'
'revi'
'reverse_'
'reven'
'reve'
'retention_'
'retar'
'retain'
'retail_'
'resumed_'
'resume_'
'resulted_'
'restricted_'
'restrict'
'restor'
'restaurants_'
'responding_'
'respiratory_'
'respects_'
'resp'
'resort_'
'resistance_'
'reserve_'
'rese'
'representing_'
'replies_'
'repa'
'rep'
'reno'
'renewable_'
'renew'
'render_'
'rence_'
'remote_'
'remind'
'remi'
'remember_'
'reme'
'relia'
'relevance_'
'releases_'
'released_'
'relate'
'reint'
'reinforce_'
'rein'
'reimburse'
'rei'
'regulating_'
'regulated_'
'regarded_'
'refuse'
'refus'
'refu'
'reform'
'reflecting_'
'reflecti'
'reduc'
'reds'
'recording_'
'reconstruct'
'reconciliation_'
'recognizes_'
'recipient_'
'reci'
'recept'
'recei'
'reat'
'rear'
'realis'
'reaffirming_'
'reads_'
'rch'
'raw_'
'rati'
'rare'
'rant'
'ranging_'
'ram'
'ral'
'rain'
'raf'
'radioactive_'
'radiation_'
'rack_'
'racism_'
'race_'
'quer'
'quarter'
'quantitative_'
'py'
'pushed_'
'pursui'
'pursued_'
'publi'
'ptions_'
'provo'
'protest_'
'protect'
'prote'
'prosecutors_'
'proportional'
'promotes_'
'promoted_'
'promis'
'projections_'
'projected_'
'profound_'
'profiles_'
'profession'
'prof'
'produce'
'procla'
'pro_'
'princ'
'primarily_'
'preventing_'
'preserve_'
'presentations_'
'present'
'prescri'
'pres'
'predict'
'precise_'
'precipitation_'
'practically_'
'pp'
'postponed_'
'postal_'
'post'
'possibly_'
'possibilities_'
'posi'
'pose'
'ports_'
'pon'
'politics_'
'plus_'
'plu'
'plot'
'pleased_'
'plays_'
'platform_'
'plastic_'
'plant_'
'plane_'
'pipe'
'pick'
'phrase_'
'phones_'
'philosoph'
'phi'
'pher'
'petition'
'pes'
'perpetrator'
'permission_'
'perhaps_'
'penal'
'ped_'
'ped'
'pec'
'pe_'
'patients_'
'path'
'pate'
'passe'
'partial_'
'parameters_'
'panels_'
'pai'
'oz'
'ox_'
'overcast_'
'ove'
'outline_'
'ously_'
'ourselves_'
'our'
'oth'
'osit'
'osi'
'orrow_'
'orr'
'ories_'
'organizers_'
'ordinate_'
'orders_'
'orchestra_'
'oral_'
'oppress'
'opposi'
'operative_'
'opera'
'openi'
'open'
'opa'
'oon_'
'ong'
'one'
'omo'
'olo'
'olat'
'ol_'
'oil'
'og_'
'og'
'offering_'
'oduce'
'oce'
'obstacles_'
'obst'
'observance_'
'observ'
'obs'
'objection_'
'nz'
'nutrient_'
'ntain'
'nta_'
'nsi'
'np'
'noting_'
'notifications_'
'nothing_'
'northern_'
'norma'
'norm_'
'nominate'
'nominal_'
'noise_'
'nnial_'
'nn'
'nice_'
'nic'
'ngst'
'nf'
'newspapers_'
'neu'
'ner'
'negotiating_'
'negotiable_'
'neglect_'
'near'
'nding_'
'ndi'
'nda_'
'nationwide_'
'nati'
'narrow'
'nar'
'nac'
'mutatis_'
'mutandis_'
'municipalities_'
'mpe'
'movie_'
'motor'
'mortality_'
'morning_'
'moratorium_'
'monuments_'
'modul'
'modify_'
'modified_'
'moderniz'
'mode_'
'mode'
'mod'
'mobility_'
'mo_'
'mitte'
'miser'
'miratech_'
'minority_'
'minor_'
'minerals_'
'mind'
'min'
'milli'
'mille'
'milk_'
'militia_'
'miles'
'migrants_'
'migrant_'
'mie'
'methodologies_'
'messages_'
'merely_'
'mer_'
'mention_'
'menc'
'men'
'memorandum_'
'medicine_'
'medica'
'mbu'
'mbo'
'mber'
'mati'
'maternity_'
'matching_'
'match_'
'married_'
'mar_'
'manufacturers_'
'manufacturer_'
'manufactur'
'managerial_'
'manage'
'mana'
'malware_'
'maintains_'
'maintaining_'
'main'
'mail'
'magazine_'
'mag'
'm2_'
'lve'
'lv'
'lunch_'
'lowest_'
'low'
'losi'
'lose'
'los'
'looks_'
'longitud'
'logo_'
'loca'
'loads_'
'loading_'
'lls_'
'lling_'
'lled_'
'lla'
'lived_'
'litigation_'
'liti'
'literacy_'
'line'
'limits_'
'limiting_'
'lim'
'light'
'liga'
'lig'
'lifting_'
'lift_'
'lie_'
'liais'
'liability_'
'lia'
'li_'
'lessons_'
'less'
'lending_'
'lend'
'len'
'lek'
'legitimacy_'
'legi'
'leaving_'
'lder'
'lc'
'lb'
'latest_'
'lated_'
'lar'
'landlocked_'
'lan_'
'lan'
'lad'
'label'
'kov'
'kom'
'know'
'km'
'kl'
'kits_'
'kit'
'kil'
'kidnap'
'kers_'
'ker'
'kel_'
'keepers_'
'juvenile_'
'jur'
'judg'
'jpg_'
'jpeg_'
'journ'
'jo_'
'jo'
'ject'
'ić_'
'izing_'
'ize'
'ix_'
'ives_'
'iu'
'itic'
'ited_'
'istic_'
'isti'
'iste'
'ist'
'issuance_'
'iso'
'isi'
'isc'
'irregular_'
'iron_'
'iri'
'ired_'
'invites_'
'investigated_'
'inventi'
'inv'
'intolerance_'
'inti'
'interventions_'
'interv'
'interesting_'
'interaction_'
'inten'
'integrate_'
'insufficient_'
'insu'
'instruct'
'institute'
'instalment_'
'installed_'
'install'
'insta'
'inspections_'
'insert'
'ins'
'inmates_'
'injustice_'
'injured_'
'injur'
'ining_'
'ini'
'inheritance_'
'inhabit'
'informs_'
'info_'
'influenced_'
'infection_'
'infected_'
'inf'
'industries_'
'individually_'
'indirect'
'indicating_'
'ind'
'increasingly_'
'incorporating_'
'incom'
'inception_'
'inappropriate_'
'inadmissib'
'improve'
'impression_'
'imposition_'
'impose_'
'impetus_'
'impede_'
'impa'
'immuni'
'imin'
'ime'
'imate_'
'images_'
'im_'
'ilo'
'illness_'
'illitera'
'ill'
'iki'
'ik'
'ign'
'ify'
'ific'
'ier'
'identifying_'
'iden'
'ideas_'
'ideal_'
'icit'
'iat'
'iah_'
'iOS_'
'husband_'
'hur'
'hundred_'
'human'
'hourly_'
'hosti'
'hospitals_'
'hospital_'
'horizontal_'
'hope'
'hood_'
'hone'
'homeland_'
'home'
'holds_'
'hm'
'hk'
'hing_'
'high'
'hid'
'hf'
'hes'
'helicopter_'
'hel'
'hectares_'
'heav'
'heart'
'hc'
'hazard_'
'hazard'
'has'
'hardship'
'happened_'
'happen'
'hag'
'had'
'guard'
'grown_'
'greet'
'greatest_'
'grass_'
'gras'
'graphy_'
'graphic_'
'graphi'
'gradually_'
'gor'
'gone_'
'gon_'
'gn_'
'girlgamescity_'
'gin'
'giene_'
'gge'
'gest'
'geospatial_'
'geological_'
'generating_'
'generated_'
'generate_'
'gend'
'genc'
'gem'
'gathering_'
'gant'
'game3a_'
'gall'
'gained_'
'gain'
'ga_'
'fy'
'fundamental'
'fuels_'
'fuelling_'
'fth_'
'frequently_'
'freight_'
'fre'
'frames_'
'fr_'
'foundation_'
'fou'
'foster'
'forums_'
'format'
'formally_'
'ford_'
'foot_'
'foot'
'foods_'
'font_'
'float'
'fl'
'fits_'
'fit_'
'firm'
'firearms_'
'fine_'
'finalize'
'films_'
'fill'
'filing_'
'fifteen'
'fied_'
'fi_'
'ffs_'
'ferr'
'feel'
'feeding_'
'feed_'
'feasibility_'
'fear'
'favorable_'
'fas'
'farbe_'
'false_'
'faith_'
'fair'
'fail_'
'facility_'
'ey'
'extract'
'extend'
'exporter'
'explore_'
'explor'
'explicitly_'
'expense_'
'expedit'
'expanded_'
'expand_'
'exists_'
'executions_'
'executing_'
'exclusive_'
'exclusion_'
'exclude_'
'exchanges_'
'exception_'
'exce'
'ex'
'evolv'
'evil_'
'evi'
'eve'
'ev_'
'establishes_'
'esta'
'ese'
'ert_'
'ers'
'ered_'
'erba'
'erat'
'epos'
'environmentally_'
'entrusted_'
'entrepreneurship_'
'entity_'
'entire_'
'enta'
'enrol'
'enl'
'enhancement_'
'english'
'energies_'
'enem'
'endu'
'ends_'
'endeavour_'
'ende'
'endanger_'
'encourages_'
'encompass'
'ena_'
'empower_'
'emphasizes_'
'emphasized_'
'emphasis_'
'emp'
'emotional_'
'eman'
'elled_'
'ella_'
'eliminate_'
'eligible_'
'eli'
'electro'
'electricity_'
'elderly_'
'elaborati'
'ej'
'eing_'
'ein'
'ege'
'ef'
'eer'
'ede'
'ecosystem_'
'economically_'
'ece'
'eastern_'
'east_'
'eas'
'ead_'
'e2'
'dé'
'dz'
'ds'
'dry'
'drive'
'drinking_'
'drink_'
'drilling_'
'drawn_'
'doub'
'documentary_'
'dn'
'dm'
'dl'
'dk'
'division_'
'diversification_'
'div'
'dite'
'distinguish'
'displayimage'
'diso'
'disk'
'dish'
'discre'
'disco'
'disb'
'disappearance_'
'disagree'
'disaggregated_'
'disabled_'
'disability_'
'directions_'
'din'
'dimension_'
'digit'
'dict'
'diameter_'
'dging_'
'devote'
'devis'
'dev'
'detained_'
'detail_'
'desirable_'
'designing_'
'design'
'desi'
'deserve_'
'description_'
'desconocido_'
'deposition_'
'denied_'
'deni'
'demands_'
'delivered_'
'deli'
'delay_'
'degrees_'
'defining_'
'deficit_'
'defer_'
'defa'
'deemed_'
'decree_'
'declared_'
'decides_'
'debated_'
'dde'
'dating_'
'databases_'
'das_'
'dark_'
'damages_'
'dam_'
'dai'
'cycles_'
'custody_'
'curriculum_'
'cup'
'cum'
'cultivation_'
'cul'
'cu'
'ctu'
'critic'
'cri'
'creative_'
'creat'
'cr'
'covers_'
'cove'
'couple_'
'couple'
'coup'
'counti'
'counter'
'correspond'
'corr'
'corpora'
'cooperative_'
'conviction'
'convicted_'
'converted_'
'conventional_'
'convening_'
'convenient'
'conv'
'contributes_'
'contraven'
'contradictions_'
'contractors_'
'continu'
'continent_'
'contemporary_'
'contain'
'cont'
'consultants_'
'consult_'
'constitutes_'
'consiste'
'conserv'
'conse'
'conjunction_'
'congr'
'confirmation_'
'conditioned_'
'condition'
'conclude_'
'conce'
'conc'
'comput'
'compulsory_'
'compromise'
'comprises_'
'compress'
'compound'
'composit'
'complexity_'
'completeness_'
'complemented_'
'complainant_'
'compl'
'compil'
'competitiveness_'
'competencies_'
'compete'
'compatible_'
'comparison_'
'comparable_'
'commodities_'
'committees_'
'commissions_'
'commercial'
'commerce_'
'commended_'
'combating_'
'comb'
'com'
'color_'
'collect'
'colla'
'col'
'coercive_'
'coach'
'cm'
'cluster_'
'clothes_'
'closure_'
'closing_'
'cler'
'clearance_'
'clea'
'clause_'
'classification_'
'class'
'clari'
'cit'
'cis'
'circled_'
'cie'
'cib'
'cht'
'choosing_'
'ching_'
'chin'
'ches_'
'chemicals_'
'check'
'cheap_'
'chea'
'charged_'
'chap_'
'chambers_'
'chair_'
'chain'
'certificates_'
'centers_'
'census'
'cell_'
'celebration_'
'cco_'
'cc'
'cated_'
'cast'
'cas_'
'cart'
'cars_'
'carries_'
'carrier_'
'cargo_'
'carefully_'
'care'
'car'
'capture'
'capable_'
'candidate_'
'campaigns_'
'camp_'
'cally_'
'calculation'
'calculated_'
'caf'
'ca'
'buying_'
'buy'
'button_'
'businessm'
'bun'
'bulk_'
'bul'
'bug'
'budgetary_'
'bt'
'broker'
'broaden_'
'broad'
'brief'
'brid'
'breaking_'
'breakfast_'
'box'
'bow'
'borders_'
'books_'
'bon'
'block_'
'bit_'
'bird'
'binding_'
'bin'
'billions_'
'bie'
'bib'
'best'
'beneficiaries_'
'belong'
'beings_'
'bb'
'banking_'
'ballot'
'bai'
'ba_'
'b0'
'ax'
'avoid'
'avatar_'
'aux'
'aus'
'audit'
'attractions_'
'attract'
'attending_'
'attain'
'attach'
'ative_'
'ational_'
'atic'
'ater'
'assy_'
'assured_'
'assure_'
'assumptions_'
'assumed_'
'assum'
'assigned_'
'assi'
'assembl'
'aspir'
'aspect_'
'ash_'
'asce'
'artis'
'arsen'
'ars'
'arriv'
'arre'
'arra'
'arme'
'arians_'
'arg'
'architecture_'
'apportionment_'
'appo'
'append'
'appa'
'ape'
'any'
'anta'
'anov'
'ano_'
'annum_'
'announce'
'ang_'
'anes'
'ane_'
'ande'
'ancy_'
'ancient_'
'ance'
'analysed_'
'amm'
'amine_'
'ame'
'alternatives_'
'alt'
'allocati'
'allocated_'
'allegations_'
'aligned_'
'aliens_'
'alg'
'alert_'
'album_'
'alarm_'
'ala'
'ak_'
'ail'
'aign_'
'aid'
'ah'
'agr'
'agg'
'afternoon_'
'afr'
'affor'
'affecting_'
'ael_'
'advis'
'advertise'
'advers'
'advancing_'
'admissibility_'
'administrati'
'adjust'
'adhe'
'addict'
'act'
'acquiring_'
'acle'
'acknowledging_'
'acknowledge'
'ack_'
'acid_'
'aci'
'accurate_'
'accessible_'
'aca'
'abuse'
'absolutely_'
'abo'
'a2_'
'][/_'
'],'
'\\"'
'\'
'['
'Zo'
'Ze'
'Zap'
'Yugoslav_'
'Yu'
'Xi'
'XVII'
'XT'
'XP_'
'XL'
'XI_'
'Workers_'
'Word'
'Without_'
'Wild'
'White_'
'Whi'
'Wen'
'Wea'
'Wat'
'Waste'
'Wan'
'WW'
'WFP_'
'WE'
'Volunteer'
'Virginia_'
'Vir'
'Violation'
'Viet_'
'Verification_'
'Ven'
'Veg'
'Val'
'VIS'
'VI'
'VE_'
'VEN'
'Ut'
'Using_'
'Use'
'Uruguay_'
'Universi'
'Unibep_'
'USSR_'
'UR_'
'UNITA'
'UNIFEM_'
'UNI'
'UNESCO_'
'UNA'
'UL'
'Type_'
'Tu'
'Trump'
'Tribunals_'
'Treat'
'Transmitted_'
'Town_'
'Tom'
'Tokyo_'
'Tog'
'Timor_'
'Times_'
'Thr'
'Thir'
'Thi'
'Text'
'Tenth_'
'Tat'
'Target_'
'Tamil_'
'TP'
'TF'
'TD_'
'Systems_'
'Sv'
'Sus'
'Survey_'
'Sum'
'Subprogramme_'
'Studies_'
'Strip_'
'Stresses_'
'Strengthen_'
'Stre'
'Still_'
'Steel_'
'Stan'
'Sport_'
'Spirit_'
'Spi'
'Specialized_'
'Sp'
'Sound'
'Son'
'Slovakia_'
'Sl'
'Size_'
'Sit'
'Sig'
'Sie'
'Sib'
'Show_'
'Sett'
'Set_'
'Server_'
'Serious_'
'Sen'
'SecretaryGeneral_'
'Second'
'Sec'
'Sea_'
'Sargsyan_'
'Sandwich_'
'Sala'
'Saint_'
'Sai'
'Saha'
'Saf'
'SP_'
'SPA'
'SO'
'SL'
'SCA'
'Rus'
'Royal_'
'Round_'
'Rou'
'Ros'
'Roman_'
'Riv'
'Right_'
'Rice_'
'Ric'
'Revis'
'Restr'
'Respons'
'Reso'
'Requirements_'
'Repr'
'Registr'
'Reg'
'Refugees_'
'Referendum_'
'Recovery_'
'Recommend'
'Reb'
'Ram'
'Raf'
'Rac'
'RT_'
'RS_'
'RM'
'RIGHTS_'
'RD_'
'RD'
'Que'
'Pursuant_'
'Punishment_'
'Publi'
'Pu'
'Provi'
'Prot'
'Proposed_'
'Property_'
'Prohibitions_'
'Prohibition_'
'Problem_'
'Prin'
'Prev'
'Prepare'
'Premi'
'Practices_'
'Practice_'
'Pos'
'Pop'
'Ple'
'Play_'
'Plant'
'Pic'
'Pharmac'
'Pet'
'Personnel_'
'Persistent_'
'Pers'
'Pent'
'Penal_'
'Peace'
'Pea'
'Payment_'
'Pas'
'Particularly_'
'Panama_'
'PS_'
'PRESIDENT_'
'PP'
'POL'
'PN'
'PE'
'Outer_'
'Organize'
'Organization'
'Organic_'
'Ora'
'Options_'
'Open'
'Once_'
'On'
'Ombudsman_'
'Oma'
'Ol'
'Officers_'
'Occupied_'
'Occ'
'Object'
'OL'
'OF'
'OC'
'OB'
'Nu'
'Nova'
'Notification_'
'Notes_'
'Northern_'
'Nevertheless_'
'Net_'
'Nepal_'
'Natural_'
'Nati'
'Namibia_'
'Nam_'
'Nagorno_'
'Nad'
'NZ'
'NT'
'NPT_'
'NCE_'
'NAT'
'Muslim_'
'Museum_'
'Muni'
'Multi_'
'Muh'
'Mou'
'Monte'
'Modern_'
'Mode_'
'Mir'
'Mini'
'Mines_'
'Mil'
'Mik'
'Microsoft_'
'Metal'
'Met'
'Mes'
'Merc'
'Mer'
'Mediterranean_'
'MediaMax_'
'Mechanism_'
'Mc'
'Marrakech_'
'Mark'
'Marc'
'Map'
'Manual_'
'Manager_'
'Mala'
'Mail'
'Mac'
'MS_'
'MME'
'MF'
'MEETING'
'MC'
'MAR'
'M23_'
'Los_'
'Liechtenstein_'
'Liberal_'
'Legislati'
'Leg'
'Leader'
'Lea'
'Laun'
'Lang'
'Lab'
'LE'
'Kun'
'Kl'
'Kin'
'Khan'
'Key_'
'Kazakh_'
'Kash'
'KWD_'
'KA'
'Just_'
'Jur'
'Jun'
'Juggernaut_'
'José_'
'Joshua_'
'Ji'
'Janeiro_'
'Jamaica_'
'Iri'
'Ir'
'Io'
'Interior_'
'Intergovernmental_'
'Inst'
'Inspector'
'Iniciado_'
'Improve'
'Imp'
'Ig'
'Ic'
'INS'
'INF'
'IND'
'IM'
'IES_'
'IE'
'IDE'
'ICE'
'ICCD_'
'Hous'
'Hostel_'
'Hol'
'Higher_'
'Her_'
'Her'
'Helsinki_'
'Hell'
'Having_'
'Hama'
'Ham'
'Haitian'
'HR'
'HOL'
'HER'
'H2'
'Guyana_'
'Guidelines_'
'Guid'
'Guatemala_'
'Gran'
'Gom'
'Gold_'
'Gibraltar_'
'Ghana_'
'Gh'
'Geographic'
'Generally_'
'Gate_'
'Garrosh_'
'GS'
'GRSP'
'GRA'
'GN'
'GM'
'GI'
'GGE_'
'GC_'
'Fund'
'Fruits_'
'Fri'
'Framework_'
'Forty_'
'Form'
'Flo'
'Fixed_'
'Fit'
'Fish_'
'Firm'
'Finnish_'
'Film_'
'Fil'
'Fight_'
'Fer'
'Fau'
'Fatah_'
'Fallimento_'
'Fact'
'FT'
'FS'
'FM'
'FILA_'
'FC_'
'FC'
'FAC'
'Extraordinary_'
'Expressing_'
'Express_'
'Exchange_'
'Excellent_'
'Excellency_'
'Everything_'
'Event'
'Eva'
'Euro_'
'Ethics_'
'Estimate'
'Establishment_'
'Establish'
'Equi'
'Encuentro_'
'Employment_'
'Emp'
'Emb'
'Electronic_'
'Electric'
'Election_'
'Effective'
'Edit'
'Early_'
'Ea'
'EXPO_'
'EPR_'
'EP'
'EMENT'
'ECO'
'Dutch_'
'Down_'
'Dominican_'
'Dom'
'Documentation_'
'Doc'
'Distr_'
'Discover'
'Disabilities_'
'Die'
'Did_'
'Dialog'
'Detail'
'Degr'
'Dee'
'Decision_'
'Day'
'Dark_'
'Dal'
'DV'
'DE_'
'DEA'
'DC'
'Custom'
'Current'
'Cru'
'Croatian_'
'Crime'
'Creati'
'Count'
'Corr'
'Cor'
'Conventional_'
'Contract'
'Continu'
'Contact_'
'Consider'
'Confi'
'Condition'
'Compa'
'Commander_'
'Coll'
'Climate_'
'Clear'
'Clar'
'Cla'
'Circu'
'Chr'
'Choose_'
'Cho'
'Charles'
'Chamb'
'Challenge'
'Category_'
'Catal'
'Card_'
'Car_'
'Cape_'
'Cambodia_'
'Call'
'Cable_'
'CS_'
'CST_'
'CONVENTION_'
'COM_'
'COMMITTEE_'
'COM'
'CO'
'CF'
'CDM_'
'CDATA_'
'CCW_'
'C2'
'Bus'
'Building'
'Budget_'
'Brun'
'Brow'
'British_'
'Break'
'Brazilian_'
'Braz'
'Bowl'
'Both_'
'Boo'
'Bonn_'
'Bon'
'Bolivia_'
'Bol'
'Bissau_'
'Bie'
'Bes'
'BelTA_'
'Before_'
'Bea'
'Bathroom'
'Barb'
'Banks_'
'Ban'
'Bali'
'BU'
'BTA_'
'BL'
'Ay'
'Aut'
'Auditors_'
'Att'
'At'
'Ast'
'Articles_'
'Arrangements_'
'Arch'
'Approximately_'
'Appro'
'Apostle_'
'Apartment'
'Apart'
'Anti'
'Anna'
'Ang'
'Analy'
'Almaty_'
'All'
'Albanian_'
'Ak'
'Adviser_'
'Adopt'
'Adolescents_'
'Addendum_'
'Act'
'Account'
'Accordingly_'
'Acce'
'Acc'
'About_'
'ATION_'
'ASEAN_'
'ART'
'AO'
'ALL_'
'AK'
'AI_'
'AG'
'AD_'
'ACH'
'ACC'
'AC'
'@'
'? '
'?'
'>>,'
'="'
'= _'
'<<'
'< _'
';'
'::'
': <_'
'999_'
'95'
'92'
'912_'
'880'
'766'
'730'
'721'
'683'
'617'
'606'
'5TO'
'5T'
'580'
'540'
'452_'
'446'
'416_'
'3x_'
'3G_'
'393_'
'391'
'383'
'378_'
'346'
'338'
'311_'
'310_'
'304_'
'303_'
'300'
'269_'
'258_'
'254'
'252_'
'251_'
'250'
'241_'
'234'
'228'
'227_'
'217_'
'213_'
'21'
'203'
'1st_'
'198_'
'1982_'
'1979_'
'1977_'
'1976_'
'1974_'
'1962_'
'1960_'
'195_'
'1958_'
'1946_'
'193_'
'193'
'190_'
'1900_'
'1888_'
'187'
'181_'
'174_'
'172'
'171_'
'162_'
'160'
'159_'
'159'
'157'
'152_'
'1514_'
'1500_'
'149_'
'147_'
'144_'
'136_'
'135'
'134_'
'1325_'
'128_'
'123'
'121_'
'11th_'
'113_'
'112'
'1072'
'106'
'099'
'086'
'073_'
'07'
'/#_'
'.; _'
'.:'
'.-'
'.)._'
'.)'
'. “_'
'- "_'
', – _'
', «_'
', $_'
'++'
'+ _'
'*++'
'*#'
'* '
'). '
')), _'
')" _'
') – _'
'','
'' '
'%) _'
'";_'
'";"_'
'":"\\_'
'")._'
' –_'
' `_'
' ['
' > _'
' <![_'
' ;'
' :_'
' ..'
' *'
' % _'
'크'
'스'
'림_'
'라'
'가'
'黑暗'
'€ '
'•'
'‘_'
'ёт_'
'ёс'
'ё_'
'яющих'
'яющие'
'яющи'
'ящего'
'ятн'
'ятиями_'
'ята'
'ясны'
'яны'
'яния_'
'янием_'
'яние_'
'январь_'
'ям'
'яло'
'яли'
'яков_'
'яй'
'язык'
'яза'
'ядо'
'ядерному_'
'ядерн'
'яд_'
'ягча'
'яга'
'явны'
'явно'
'являющейся_'
'явлений_'
'явление_'
'явл'
'явился_'
'явилось_'
'ющуюся_'
'ющими'
'юще'
'ющая_'
'ючен'
'ютны'
'юсь_'
'юрис'
'юридического_'
'юридическим'
'юридически'
'юри_'
'юри'
'юнош'
'юн'
'юл'
'южном_'
'южн'
'юда_'
'югославской_'
'югославская_'
'юбиле'
'эффициент'
'эффективную_'
'эффективному_'
'эфир'
'этнические_'
'этническ'
'этаже_'
'эта'
'эс'
'эр_'
'эпоху_'
'эпидеми'
'эп'
'энергию_'
'энергети'
'эн_'
'эмитента_'
'эмисси'
'эмбарго_'
'элементом_'
'электроснабжени'
'электрос'
'электронная_'
'электромагнитн'
'электром'
'электро'
'электричество'
'электрической_'
'электри'
'экстренны'
'экстремизм'
'экстре'
'экстра'
'экспортны'
'экспортного_'
'экспорт_'
'эксплуатир'
'эксплуатационн'
'эксперты_'
'экспертных_'
'экспертизы_'
'экспертами_'
'эксперта'
'экспериментальных_'
'экспериментально'
'эксперимент'
'экскурси'
'экрана'
'экономику_'
'экономике'
'экономии_'
'экон'
'эколого_'
'экологическо'
'экологическая_'
'эко'
'экв'
'эй_'
'эй'
'эв'
'ьями_'
'ьял'
'ьяк'
'ьте'
'ьском_'
'ьского_'
'ьский_'
'ьская_'
'ьск'
'ьон'
'ьо_'
'ьную_'
'ьниц'
'ьне'
'ьма'
'ьм'
'ько_'
'ько'
'ьк'
'ьи'
'ьзо'
'ьз'
'ьез'
'ьев_'
'ьев'
'ьбу_'
'ышлен'
'ыча'
'ыч'
'ых'
'ыто'
'ып'
'ым'
'ыд'
'ываются_'
'ывают_'
'ывател'
'ывания_'
'ъекци'
'ъезд'
'ъе'
'ъ'
'щу_'
'щу'
'щно'
'щину_'
'щими'
'щим_'
'щико'
'щики_'
'щик'
'щенны'
'щем'
'ще_'
'щающи'
'щани'
'шу_'
'штрафо'
'штраф'
'штин'
'штатов_'
'штатно'
'штата_'
'штаба'
'шт_'
'шп'
'шов'
'шно'
'шнего_'
'шл'
'школу_'
'школе_'
'школа'
'шков'
'шкалой_'
'шител'
'широкомасштабн'
'широком_'
'широко'
'широ'
'шире'
'шины_'
'шими_'
'шим'
'шеч'
'шестое_'
'шеств'
'шенны'
'шение_'
'шем_'
'шел'
'шей'
'шедш'
'швей'
'шведск'
'шах'
'шать'
'шагом_'
'шаг_'
'шаг'
'чь_'
'чувство'
'чувства_'
'чувств'
'чу_'
'чтени'
'чте'
'чрезмерно_'
'чрезвычайную_'
'чре'
'чо'
'чными_'
'чным_'
'чной_'
'членства_'
'член'
'чком_'
'чка_'
'читать_'
'чистой_'
'чистка'
'чист'
'чил'
'чико'
'чики_'
'чиками_'
'чика_'
'чиво_'
'чиво'
'четыре'
'четы'
'четкое_'
'четкий_'
'четкие_'
'четверты'
'четверт'
'честны'
'честно'
'чественн'
'ческо'
'ческим_'
'чернокож'
'чернобыльско'
'черно'
'черед'
'чему_'
'чемпиона'
'человечество_'
'человечеств'
'человеческого_'
'человеком_'
'чел'
'чая_'
'частях_'
'частны'
'частн'
'час'
'чар'
'чани'
'чал'
'чай'
'чаем'
'цы'
'цу_'
'цов_'
'цистерн'
'цир'
'ционного_'
'циональн'
'цин'
'цикло'
'ций_'
'циированн'
'циент'
'цивилизациями_'
'цивилизаци'
'циальн'
'церкви_'
'церк'
'цепи'
'цену_'
'центрально'
'централиз'
'центр'
'ценой_'
'ценные_'
'ценностя'
'ценного_'
'ценн'
'ценит'
'цени'
'цена'
'целостности_'
'целостно'
'целого_'
'цело'
'целесообразность_'
'целесообразно_'
'целена'
'цей'
'цев'
'цах_'
'царс'
'ца'
'худшем_'
'художник'
'художественн'
'хстан'
'хронических_'
'хрон'
'хранени'
'хран'
'хотелось_'
'хос'
'хороши'
'хор'
'холодн'
'холодильник'
'холи'
'холдинг'
'хозяйстве'
'хозяйств_'
'хозяйств'
'хозя'
'ходящи'
'ходьбы_'
'ходы_'
'ходств'
'ходн'
'хм'
'хле'
'хлад'
'хк'
'хищ'
'хих_'
'хит'
'хир'
'хии_'
'хв'
'хас'
'характерн'
'характеристика'
'характеризуется_'
'характеризу'
'хар'
'хамме'
'хал'
'ффа'
'фур'
'функционирую'
'функциональны'
'функ'
'фун'
'фри'
'французском_'
'форумом_'
'форум'
'формулиров'
'формиру'
'форми'
'форматы_'
'формат_'
'формам'
'форм'
'фори'
'фор_'
'фоно'
'фондо'
'фонд'
'флота_'
'флага'
'флаг'
'фл'
'фицирова'
'фит'
'фирм'
'финансы_'
'финансово_'
'финансируемых_'
'финансируемого_'
'финансировать'
'финансировал'
'фильтр'
'философии_'
'фили'
'фил'
'фиксирова'
'фикации_'
'фикаци'
'физические_'
'физическ'
'физики_'
'фет'
'фестивале_'
'фестивал'
'ферен'
'фера'
'фер_'
'фел'
'фейс'
'федеральны'
'федера'
'февраль'
'фе_'
'фармацевти'
'фар'
'фамили'
'факультативно'
'факты_'
'фактором_'
'фактора_'
'фактических_'
'фактически'
'уясь_'
'уязвимом_'
'ующим_'
'ующее_'
'уэл'
'уэ'
'ущих_'
'уща'
'ушени'
'уша'
'учёт'
'учрежденно'
'учреждае'
'учитываются_'
'учитывал'
'учитывает_'
'учителей_'
'учет'
'учесть_'
'учен'
'учебном_'
'учебно'
'учебник'
'учебн'
'учеб'
'участков_'
'участка'
'участк'
'участвующими_'
'участвующи'
'участвовали_'
'участв'
'уци'
'ухудш'
'уход_'
'уход'
'утств'
'утраты_'
'утра_'
'утечк'
'утверждены_'
'утвержденным'
'утвержденные_'
'утвердил_'
'усь'
'усыновлен'
'усы'
'усугубля'
'устройствами_'
'устройств_'
'устранению_'
'устойчивых_'
'устойчивое_'
'устный_'
'устного_'
'установлены_'
'установленным_'
'установленного_'
'установленно'
'установке_'
'установил_'
'установил'
'усовершенствованн'
'услыша'
'услугу_'
'условием_'
'усло'
'ускорит'
'ускоренн'
'ускорения_'
'уско'
'уск'
'усилить_'
'усилива'
'усилению_'
'урожая_'
'уровни_'
'ури'
'урги'
'упрощения_'
'упрощению_'
'упрощ'
'упрочени'
'управлением_'
'управлен'
'упр'
'употреб'
'упорядочени'
'упомянуты'
'уполномоченных_'
'уполномочен'
'упла'
'упл'
'упал'
'упаковки_'
'уничтожи'
'уничтожению_'
'уничтож'
'унифицированн'
'унификации_'
'уникально'
'уника'
'унижающ'
'университетов_'
'универсальны'
'универсальност'
'унес'
'умно'
'умер_'
'уменьшит'
'уме'
'уля'
'ульт'
'улучшени'
'улучш'
'улировани'
'уле_'
'укреплен'
'украшени'
'украденн'
'уко'
'уклон'
'указываются_'
'указывал'
'указаны_'
'указанный_'
'указан'
'указа'
'уйте'
'уй'
'узна'
'ужи'
'ужас'
'уемо'
'уем_'
'уе'
'удостовер'
'удовлетворить_'
'удобрени'
'удили_'
'удивл'
'уди'
'уделя'
'уделено_'
'уделение'
'уде'
'удастся_'
'удаленных_'
'удаления_'
'удавалось_'
'угрозой_'
'угрожа'
'уголок_'
'уголовным_'
'уголовному_'
'уголовной_'
'уголовно_'
'угол'
'угодно_'
'углубленны'
'угле'
'угал'
'увязке_'
'уверены_'
'уверен'
'увенчал'
'увеличилась_'
'увеличивает'
'уведомлений_'
'уведомлени'
'уважительн'
'уважаем'
'уваж'
'ува'
'убит'
'уби'
'убежище_'
'убеждений_'
'убеди'
'уация'
'тяжест'
'тяжелым_'
'тяжелы'
'тяжело'
'тюремному_'
'тысяч'
'тщательно'
'тую'
'тут_'
'турнире_'
'турнир'
'турецки'
'туберкулез'
'тти'
'тте'
'тск'
'тря'
'трудоспособно'
'трудовы'
'трудны'
'трудност'
'трудно'
'трудн'
'трубо'
'тропически'
'трехсторонн'
'третьих_'
'третьем'
'треть'
'третий_'
'третейск'
'трет'
'трен'
'тремя_'
'трек'
'тревог'
'требуются_'
'требуемы'
'требуемо'
'требованием_'
'требова'
'трас'
'транспортны'
'транспортное_'
'транспортн'
'трансграничн'
'транзита_'
'традиционных_'
'травмы_'
'травмат'
'тр'
'тоя'
'точност'
'точно'
'точнее_'
'точке_'
'точе'
'точ'
'тос'
'ториальной_'
'торговыми_'
'торговой_'
'торговля_'
'торга'
'тор_'
'топ'
'толкования_'
'толкование'
'толе'
'тока_'
'тои'
'тоже_'
'тографи'
'товар'
'тным_'
'тный_'
'тности_'
'тного_'
'тно_'
'тм'
'тка_'
'тия_'
'тичн'
'тихоокеанско'
'тихий_'
'тите_'
'типы_'
'типово'
'типов'
'тина_'
'тил_'
'тий'
'тие'
'тивная_'
'тив'
'течении_'
'течени'
'технологически'
'техническому_'
'техническом_'
'техническим_'
'технический_'
'техника_'
'тета'
'тет'
'тестировани'
'тесном_'
'террористической_'
'террористическо'
'территория'
'территориально'
'термина_'
'терапии_'
'терап'
'тер_'
'теоретическ'
'тенн'
'тенденция'
'тенденций_'
'темы_'
'темпы_'
'темпов_'
'температуре_'
'температурах_'
'температура_'
'темпами_'
'тематическ'
'тельными_'
'тельный_'
'тельные_'
'тельны'
'тельной_'
'тели_'
'телефонно'
'телесны'
'телес'
'телем_'
'тележк'
'телевизи'
'телевидени'
'текущим'
'текущей_'
'тексте_'
'тег'
'тебя_'
'театра'
'тву'
'творчества_'
'творческ'
'твом_'
'твие'
'твердой_'
'тва'
'тация'
'таци'
'таун'
'тать_'
'тати'
'тарифа'
'тариф'
'танск'
'танов'
'таможенных_'
'там'
'такти'
'таком_'
'таковым'
'таков'
'таджик'
'тав'
'табак'
'сящ'
'сячн'
'ся'
'сырьевы'
'сыр'
'сыграть_'
'сыграли_'
'сыграл'
'съем'
'считаю_'
'считаем_'
'счетчик'
'сцеп'
'схема_'
'сформулированы_'
'сформулированно'
'сфо'
'существующ'
'существовать_'
'существованию_'
'существова'
'существенным_'
'суточных_'
'супруга_'
'супруг'
'сумме_'
'сумма'
'сумм'
'сул'
'суж'
'судя_'
'судьями_'
'судья'
'судь'
'судна_'
'суди'
'субъектов_'
'субсидир'
'субсидии_'
'субс'
'субрегиональными_'
'субрегиональные_'
'субрегиональн'
'субботу_'
'стя'
'ступени_'
'ступ'
'студент'
'стски'
'структурн'
'строй_'
'строительстве_'
'строительств'
'строител'
'строит'
'строе'
'стри'
'стремятся_'
'стремление'
'стремиться_'
'стремительно'
'стремил'
'стре'
'страхование_'
'страха_'
'страх'
'стратегиях_'
'стратегиями_'
'стратегическом'
'стратегией_'
'страновы'
'страновой_'
'странов'
'страницы_'
'страницу_'
'страл'
'страдания'
'стоящи'
'стоящ'
'стоят'
'стоя'
'сточных_'
'стойк'
'стов_'
'стны'
'стной_'
'стимулиру'
'стимулирования_'
'стено'
'стекла_'
'стек'
'сте'
'ствуя_'
'ствующ'
'ствова'
'стви'
'ственные_'
'ственность_'
'стве_'
'статьях_'
'статут'
'статистической_'
'статистический_'
'статистика_'
'статисти'
'стат'
'старше_'
'старт_'
'старинн'
'станут_'
'становил'
'стания_'
'стандарту_'
'стандартно'
'стандартизаци'
'стаж'
'ставшей_'
'ставл'
'стави'
'стабильность_'
'стабилизации_'
'ссылку_'
'ссылке_'
'ссылк'
'ссылаться_'
'ссыла'
'ссуд'
'сск'
'сси'
'сса'
'сс_'
'срочны'
'сроку_'
'средний_'
'сред'
'сравнит'
'сравнении_'
'сравн'
'сра'
'спутников'
'спутник'
'спустя_'
'спу'
'спросил_'
'спрос'
'справки_'
'справедливы'
'способствовали_'
'способств'
'способные_'
'способны_'
'способно'
'способна'
'спортсмено'
'спортивны'
'спортивн'
'спокойстви'
'спло'
'спла'
'списки_'
'списка_'
'специфи'
'специально'
'специалистами_'
'специализированных_'
'специализированными_'
'специализированным_'
'специализир'
'спец'
'спектром'
'спаси'
'спасени'
'спасатель'
'спал'
'сочл'
'соч'
'социо'
'социальными_'
'социальную_'
'социальная_'
'социали'
'сохраняющ'
'сохранят'
'сохраняе'
'сохраня'
'сотрудничаем_'
'сотрудник_'
'состязани'
'состоящи'
'состоявшихся_'
'состоявшиеся_'
'составляю'
'составлять'
'составлял'
'составить_'
'составит_'
'составили_'
'составила_'
'сослаться_'
'соревновани'
'сопротивление_'
'сопровождени'
'сопредседател'
'сопоставимы'
'сопоставимо'
'соперни'
'соответствующем'
'соот'
'сооружения'
'сооружени'
'сообщи'
'сообществ'
'сообщениям_'
'сообразным'
'соображениям'
'сооб'
'сомнения_'
'сомнени'
'солнца_'
'солид'
'сокращением_'
'сократил'
'создаются_'
'созданием_'
'создана_'
'созв'
'соедин'
'содержащую'
'содержащимися_'
'содержащий_'
'содержащие_'
'содержащи'
'содержащее'
'содержанием_'
'содержал'
'содействующе'
'содейств'
'соглаш'
'согласу'
'согласовать_'
'согласованные_'
'согласованност'
'согласна_'
'совсем_'
'современном_'
'современного_'
'современно'
'совпадает_'
'совокупны'
'совокупно'
'совместные_'
'совместн'
'совместимо'
'совещани'
'советы_'
'совету_'
'советом_'
'совести_'
'соверши'
'совершенствовании_'
'совершенствова'
'совершенные_'
'совершени'
'совершаемых_'
'сов_'
'собственностью_'
'собственность_'
'собранных_'
'собрание_'
'собрани'
'собрались_'
'собо'
'соблюдаю'
'соблю'
'сношения'
'сной_'
'снова_'
'снизить_'
'снизил'
'сниз'
'снижени'
'снижает'
'сниж'
'сне'
'снабжен'
'сна'
'сн'
'смягчению_'
'смягч'
'смысле_'
'сможем_'
'смогли_'
'смешанн'
'смерть'
'смертны'
'смертно'
'смерте'
'смени'
'смаз'
'см'
'слышать_'
'слыш'
'случая'
'служи'
'служени'
'служебны'
'служебно'
'службами_'
'службам_'
'служба_'
'служащи'
'слоя'
'сложны'
'сложивше'
'сложи'
'слово'
'следующую_'
'следующему_'
'следственн'
'следователь'
'следовало_'
'следова'
'слабы'
'слаб'
'скромны'
'скорректировать_'
'скорости_'
'скорейшего_'
'скор'
'скоп'
'скоординированно'
'складыва'
'склад'
'скидк'
'скан'
'сказывается_'
'сказан'
'систематическ'
'системам'
'сирот_'
'сирийски'
'синхронн'
'симпозиум'
'сильны'
'сильно_'
'сило'
'сидень'
'сид'
'сигнала'
'сетевы'
'сетево'
'сесси'
'серьезными_'
'серьезным_'
'серьезную_'
'серьезной_'
'серьезное_'
'сертификаци'
'серт'
'серия_'
'середине_'
'сердце'
'сервис'
'сени'
'семьях_'
'семья'
'семью_'
'семинаре_'
'семейны'
'сельхоз'
'сельскохозяйственного_'
'сельском'
'сель'
'селект'
'селе'
'секци'
'секторам'
'сектор'
'сексуальным'
'сексуальную_'
'секретн'
'секретариату_'
'секрет'
'сезона_'
'сезон'
'сегодняшни'
'сегодняшн'
'сегмент'
'сег'
'северок'
'северо_'
'север'
'сдерживани'
'сделок_'
'сделк'
'сделанном_'
'сделанное_'
'сделан_'
'сделали_'
'сделает'
'сдвиг'
'сдачи_'
'сдать_'
'сда'
'сд'
'связью_'
'связыва'
'связанно'
'свя'
'свойства_'
'свойств'
'своевременност'
'своевременного_'
'сводн'
'свободой_'
'свободный'
'свободны'
'свободно_'
'свобод'
'свидетелями_'
'свидетельства_'
'свидетел'
'сви'
'сведениям'
'сведений_'
'св'
'сбытовой_'
'сбором_'
'сборов_'
'сбо'
'сбережени'
'сбалансированн'
'санитар'
'саму'
'самоопределение_'
'самооб'
'саммит'
'самим'
'сами_'
'самая_'
'салон_'
'сайты_'
'сайтов_'
'сайта_'
'сайт'
'рё'
'ряю'
'ряж'
'ряду_'
'рядо'
'рь'
'рыночны'
'рыночной_'
'рынками_'
'рыва'
'рыболовства_'
'рш'
'руют_'
'ручн'
'русском_'
'русски'
'русс'
'русл'
'рус'
'руп'
'руководящий_'
'руководящего_'
'руководящ'
'руководит'
'руковод'
'руки_'
'руирован'
'рудни'
'руд'
'рубежом_'
'рубеж'
'рто'
'ртимент_'
'рст'
'рско'
'рс'
'рре'
'рочн'
'роченн'
'россиян'
'российско'
'российски'
'роск'
'рос_'
'ропо'
'ром'
'роль'
'розничной_'
'розничная_'
'роз'
'рождении_'
'рождение_'
'рожд'
'рож'
'рое'
'родо'
'родителям_'
'родител'
'род'
'рога'
'ровск'
'роводит'
'ровн'
'рованные_'
'рованны'
'рования_'
'рование_'
'ровани'
'роби'
'рных_'
'рный_'
'рную_'
'рни'
'рн'
'рмал'
'рл'
'рият'
'рих'
'рите'
'рисунк'
'рирова'
'ринг'
'рикой_'
'рик'
'рий_'
'ризорн'
'рид'
'рив'
'риб'
'ржи'
'решительн'
'решила_'
'решен'
'решающ'
'речн'
'рец'
'реформирова'
'реформ_'
'ресторано'
'ресторана'
'ресторан_'
'рест'
'республиканской_'
'репутаци'
'репродуктивны'
'репр'
'репл'
'репатриаци'
'рени'
'рель'
'религия'
'религиозными_'
'религи'
'рекомендует'
'рекомендовать_'
'рекомендовано_'
'рекомендованно'
'рекомендациям_'
'рекоменд'
'рейтинг'
'результативности_'
'результатами_'
'результат'
'резолюция'
'резкое_'
'резки_'
'резиденци'
'рези'
'режимом_'
'реестр_'
'реестр'
'редителе'
'редакци'
'редактирова'
'регулярно'
'регулирующие_'
'регулируют'
'регулирует_'
'регулиру'
'регулированию_'
'регламент'
'регистрацию_'
'регистрационны'
'регистра_'
'регистр'
'регионо'
'региональн'
'рега'
'революции_'
'ребенку_'
'реальные_'
'реальност'
'реализуются_'
'реализуе'
'реализовыва'
'реализация_'
'реализацию_'
'реакт'
'реагирова'
'реаг'
'рди'
'рбан'
'рах_'
'рать'
'ратов_'
'ратифицированны'
'ратифицировал'
'ратифицирова'
'ратификаци'
'расширя'
'расширил'
'расширенно'
'расчеты_'
'расч'
'расц'
'расходованный_'
'расходова'
'расходам'
'расход'
'растущее_'
'растуще'
'растр'
'растени'
'рассчитыва'
'рассчитанн'
'рассчитан'
'расстро'
'расстояни'
'расстановк'
'рассмотри'
'рассмотренны'
'рассмотрев_'
'рассматривал'
'рассматриваемого_'
'рассматриваем'
'рассматрива'
'расследованиям_'
'расследование_'
'рассл'
'рассказывать_'
'расселен'
'распространяются_'
'распространи'
'распространенно'
'распредели'
'распределенны'
'распределения_'
'распределением_'
'распредел'
'распр'
'распоряжени'
'распоряди'
'расположены_'
'расположенный_'
'расположенны'
'расположении_'
'расположение'
'расположена_'
'располагает_'
'распис'
'раскрытия_'
'раск'
'расизм'
'ранений_'
'рамочных_'
'рамочной_'
'рамочн'
'рали_'
'рала'
'рал'
'районы_'
'районны'
'район_'
'район'
'раива'
'раи'
'разъяснений_'
'разъяснен'
'разъясн'
'разъ'
'разу'
'разрыва'
'разрыв'
'разрушит'
'разреши'
'разрешенн'
'разрешается_'
'разработанной_'
'разработан_'
'разработало_'
'разработала_'
'разрабатываются_'
'разрабатывать_'
'разрабатывается_'
'разрабатывае'
'разовы'
'разнообразие'
'разн'
'размещения_'
'размещении_'
'разместить'
'размером_'
'размер'
'разме'
'различн'
'различи'
'раздельно'
'разгра'
'разго'
'развод'
'развлечени'
'разбр'
'разбо'
'разбирательство_'
'разби'
'разбав'
'рае'
'радость'
'ради_'
'ради'
'рада_'
'равнос'
'равноправн'
'равного_'
'равно_'
'равни'
'равн'
'равлени'
'равл'
'равит'
'равенству_'
'рав'
'рабс'
'рабочую_'
'работодателей_'
'работникам'
'работающими_'
'пятств'
'пятнадцат'
'пятилетни'
'пяти'
'пь'
'пы_'
'путешественники_'
'путешеств'
'пустын'
'пусти'
'пуск'
'пур'
'публичных_'
'публиковать'
'публикаци'
'публик'
'пти'
'психотропны'
'психологи'
'психо'
'психическо'
'психиатри'
'псих'
'прямых_'
'прямы'
'прямого_'
'проявляют_'
'проявление'
'проявлен'
'проявить'
'проя'
'прошлого_'
'проше'
'прочн'
'процентной_'
'процента'
'процент_'
'процент'
'процедурами_'
'процедура'
'процедур'
'прохождения_'
'проходить_'
'проходившей_'
'проходи'
'профессиональным'
'профессионального_'
'профессионалов_'
'профессионал'
'протя'
'протокол_'
'противоречивы'
'противоречат_'
'противопо'
'протест'
'протекциони'
'просьбами_'
'просьба_'
'пространственн'
'пространств'
'проституцией_'
'прости'
'проспект'
'просмотра_'
'проработ'
'пропускают'
'пропорциональн'
'пропи'
'проникновени'
'промы'
'промежуточны'
'пролетари'
'прокуроро'
'прокурора_'
'прокуратуре_'
'прокур'
'пройти_'
'проинформировал'
'проинформирова'
'производят_'
'производя'
'производством_'
'производственные_'
'производственного_'
'производственно'
'производить_'
'производим'
'производил'
'произво'
'произве'
'произ'
'проиг'
'прозрачн'
'проз'
'проживающи'
'проживания_'
'проектн'
'проек'
'продуманн'
'продукта_'
'продолжить_'
'продолжительностью_'
'продолжени'
'продолжающиеся_'
'продолжаются_'
'продолжаться_'
'продолжали_'
'продолжал_'
'продовольстви'
'продовольственны'
'продовольственную_'
'продлит'
'продлен'
'продемонстрировал_'
'проделанн'
'продвижени'
'продажа_'
'прогресс'
'программным_'
'прогнозов_'
'прогнозируе'
'прогнозирова'
'провокаци'
'провозглашения_'
'провозгласил'
'проводились_'
'проводилась_'
'провода'
'прово'
'провинциях_'
'проверяе'
'проверя'
'проверке_'
'провели_'
'проведенны'
'проведенно'
'прова'
'проблематике_'
'проанализировать_'
'приятны'
'приятно_'
'прише'
'причини'
'прич'
'приходил'
'приходи'
'присущ'
'присутствующи'
'присутствовать_'
'присутствовал'
'присутстви'
'приступило_'
'приступили_'
'приступил_'
'приступи'
'прист'
'присоединивши'
'присоединения_'
'прислу'
'присвоен'
'присва'
'природоохранного_'
'природо'
'природно'
'природ'
'приравн'
'приостанов'
'приоритеты_'
'приоритетными_'
'приоритетн'
'приобретать_'
'приобретае'
'приобрета'
'приобрели_'
'принятыми_'
'приняты'
'принятом'
'принятое_'
'принятию_'
'принятием_'
'принципом_'
'принудительного_'
'прину'
'приносит_'
'принимающих_'
'принадлежащ'
'примирен'
'примечани'
'примеры_'
'примеро'
'примерн'
'пример_'
'применяе'
'применимост'
'приложит'
'приложения'
'приложен'
'прилегающ'
'прилагать'
'прил'
'прикрепля'
'прикладн'
'прик'
'прийти_'
'призов'
'признательностью_'
'признательн'
'признано_'
'признана_'
'призванно'
'призвал_'
'приз'
'прием_'
'придет_'
'придержива'
'придае'
'прид'
'приготов'
'приговоры_'
'пригласи'
'приг'
'приводя'
'приводить_'
'привод'
'привлеч'
'привлекаются_'
'приветств'
'привел'
'приведенн'
'привед'
'прибыл'
'прибрежны'
'прибли'
'прибега'
'претензия'
'претензи'
'преступность_'
'преступнико'
'преступник'
'преступления'
'преследу'
'прес'
'прер'
'препятствова'
'препятств'
'препровождающую_'
'препровождающ'
'преподавател'
'преподава'
'препарат'
'преп'
'преодолени'
'преобразований_'
'преобразование_'
'прения'
'премьер'
'прекращению_'
'прекращ'
'прекрасн'
'прек'
'преи'
'президентск'
'президентом_'
'президент'
'презентации_'
'прежне'
'преж'
'преем'
'предыдущим'
'предъявляемы'
'предъявлени'
'предъявлен'
'предшествующ'
'предусмотренным_'
'предусматривающего_'
'предусматриваю'
'предупреждать_'
'предупреди'
'предстоящее_'
'предстоя'
'представляемы'
'представленных_'
'представленн'
'представл'
'представительств_'
'представительниц'
'представит_'
'предсказуемы'
'председательством_'
'предприятие_'
'предприняты_'
'предпринимательск'
'предпри'
'предпоч'
'предпос'
'предполож'
'предполагаю'
'предполагаемой_'
'предполагаемого_'
'предписанн'
'предписаниям_'
'предписаний_'
'предотвращение'
'предотврати'
'предоставляемых_'
'предоставляемо'
'предоставляем'
'предоставлены_'
'предоставлена_'
'предоставит_'
'предоставило_'
'предостав'
'предост'
'предназначенных_'
'предназначенный_'
'предназначенные_'
'предназначен_'
'предметов_'
'предмет_'
'предложены_'
'предложенный_'
'предложенн'
'предложениях_'
'предлож'
'предлагалось_'
'предлагаемый_'
'предлагаемые_'
'предлагаемое_'
'предлагаем_'
'преддвери'
'предварительных_'
'предварительную_'
'предварительная_'
'преда'
'превышаю'
'превыша'
'превы'
'превращается_'
'превентивных_'
'пребыва'
'преамбулы_'
'практическим_'
'практические_'
'практическ'
'практикумы_'
'практикум_'
'практику'
'практико'
'правопреем'
'правонарушителей_'
'правонарушител'
'правонарушения_'
'правонарушений_'
'правом'
'правозащитно'
'правовую_'
'правовое_'
'правовая_'
'правно'
'правление'
'правл'
'правительственн'
'правилах_'
'прав'
'пр_'
'ппи'
'ппер_'
'пп'
'пояснени'
'поэтапно'
'пош'
'почтов'
'почта_'
'поче'
'почв'
'похож'
'похо'
'пох'
'потребуются_'
'потребует_'
'потребовало'
'потребностям_'
'потребляе'
'потреблении_'
'потребление'
'потра'
'потока_'
'поток_'
'поток'
'потерял'
'потерп'
'потере'
'потенциало'
'потенциал'
'посыл'
'посу'
'поступления'
'поступлений_'
'поступаю'
'поступа'
'построи'
'построени'
'пострадавш'
'пострада'
'постоянный_'
'постоянную_'
'постоянн'
'посто'
'постконфликтн'
'постановления_'
'постановлений_'
'постановлени'
'постанов'
'поставить_'
'поставил_'
'посредников_'
'посольства_'
'посол_'
'пособия_'
'посо'
'послу'
'последующим'
'последующий_'
'последствиями_'
'последствиям_'
'последовательны'
'последовательност'
'послед'
'после'
'посланник'
'посла_'
'посещений_'
'посещение_'
'посетители_'
'посетит'
'посетил_'
'поселения_'
'поселений_'
'посел'
'посвященное_'
'посвященн'
'посвящен'
'посвяти'
'посадк'
'порядк'
'поручению_'
'поручени'
'портфеля_'
'портовы'
'порте'
'порта'
'порт_'
'порожд'
'породы_'
'порог'
'поражен'
'попыток_'
'попытку_'
'попыт'
'популяр'
'попробовать_'
'попро'
'поправка'
'пополнения_'
'пополн'
'попечител'
'поощряю'
'поняти'
'понят'
'понрави'
'понимать_'
'понижени'
'понесенны'
'понедельника_'
'поне'
'помогут_'
'помогают_'
'помогать_'
'помо'
'помнить_'
'помести'
'поме'
'пом'
'пользующи'
'пользователя_'
'пользователь_'
'пользование_'
'пользовались_'
'пользова'
'получит'
'полученны'
'полученную_'
'полученной_'
'полученн'
'получаю'
'получа'
'полос'
'положить_'
'положительные_'
'положи'
'половину_'
'половине_'
'половин'
'полов_'
'полов'
'поло'
'полным_'
'полный_'
'полномочиями_'
'полномасштабны'
'полн'
'полиция_'
'полицией_'
'полицейско'
'политическом'
'политикой_'
'полити'
'полевых_'
'полевы'
'полево'
'поле_'
'полагаю'
'полагает_'
'полага'
'покушени'
'покрытие'
'покрыва'
'покр'
'поколений_'
'покой'
'поклон'
'покину'
'показывают_'
'показывает_'
'показат'
'показало_'
'показала_'
'показал'
'показ'
'поисках_'
'поиска'
'поиск_'
'поис'
'пои'
'позитивны'
'поздрави'
'позд'
'позволят_'
'позволя'
'позвол'
'пожи'
'пожертвовани'
'пожела'
'пожаров_'
'пожа'
'пое'
'подъёмн'
'подъема'
'подчеркнуть_'
'подчеркнута_'
'подчеркивается_'
'подчеркиваем_'
'подчеркива'
'подч'
'подходящ'
'подходят_'
'подходу_'
'подходит_'
'подходам_'
'подход'
'подтвержденн'
'подтверждение_'
'подтверждаю'
'подтверждается_'
'подтвержд'
'подтвердить_'
'подстрекательство_'
'подростка'
'подрост'
'подробно'
'подробн'
'подразумева'
'подписать_'
'подп'
'подозреваемых_'
'подо'
'подлинны'
'подлинно'
'подлежащи'
'подлеж'
'подкуп'
'подкрепл'
'подз'
'поддерживаю'
'поддержать_'
'поддержа'
'подде'
'поддаю'
'подготовлены_'
'подготовленные_'
'подготовлен'
'подготовительны'
'подготовительно'
'подгот'
'подверженн'
'подвергали'
'подвер'
'подач'
'подан'
'подавляюще'
'подавать'
'подав'
'погруз'
'пого'
'погашен'
'пог'
'повышении_'
'повышает'
'повыша'
'повы'
'повреждени'
'повод'
'повлия'
'повле'
'повинн'
'повестке_'
'пов'
'побо'
'побл'
'пный_'
'плёнк'
'плюс'
'площад'
'плот'
'плом_'
'пленарно'
'платы_'
'плату_'
'платежны'
'платежи_'
'платежеспособности_'
'платеж'
'плате'
'пластин'
'пласт'
'планом'
'планировал'
'планете_'
'планах_'
'планам_'
'плакат'
'плавател'
'пк'
'пищев'
'пищ'
'пич'
'пита'
'письменном_'
'письме_'
'пись_'
'пиров'
'пил'
'пийск'
'пеш'
'песен_'
'перспективных_'
'перспективе_'
'перспектив'
'персональны'
'персонал'
'периоды_'
'периодических_'
'периодически'
'периоде_'
'перечне'
'перечисленных_'
'перечисленные_'
'перечислен'
'переходно'
'пересчет'
'перестройк'
'пересмотр_'
'пересматрива'
'переселения_'
'переподготовк'
'переписи_'
'перео'
'перенос'
'перенести_'
'перен'
'перемещени'
'перекрест'
'переключ'
'перек'
'перейти_'
'пережив'
'пережи'
'перееха'
'передо'
'передви'
'передачу_'
'переданы_'
'передает_'
'передаваемы'
'перед'
'перегру'
'переворота_'
'перевозке_'
'перевозка'
'перевози'
'переводчик'
'переводов_'
'переве'
'перев'
'переб'
'первостепенно'
'первоначальной_'
'первично'
'пенсионных_'
'пенсион'
'пенси'
'пенитенциарных_'
'пенитенциарным'
'пенитенциарной_'
'пек'
'педагог'
'патриоти'
'пасно'
'пару'
'партнерств'
'партнерам_'
'партнера_'
'партнер'
'партия_'
'партий_'
'пароля_'
'паро'
'парламентских_'
'парламент'
'параллельно'
'пап'
'пани'
'панел'
'пан'
'памят'
'палестинским_'
'палаты_'
'палат'
'пазо'
'падени'
'павильон'
'оят'
'ощущается_'
'ощутим'
'ошибочн'
'ошибок_'
'ошибки_'
'ош'
'очным'
'очный_'
'очной_'
'очкам'
'очк'
'очист'
'очередные_'
'очередно'
'очен'
'очевидным_'
'оценит'
'оценили_'
'оцениваю'
'оцени'
'оцен'
'охраной_'
'охранн'
'охот'
'охвачен'
'охватываем'
'охвати'
'охарактеризова'
'оформлен'
'официальном_'
'офицер'
'офисов_'
'офис'
'оты'
'отчит'
'отчислени'
'отчетов_'
'отчета_'
'отча'
'отч'
'отцо'
'отца_'
'отход'
'оттуда_'
'отсутствуют'
'отслеживать_'
'отсле'
'отры'
'отрез'
'отрасля'
'отраслей_'
'отразить_'
'отражающих_'
'отражающ'
'отпуск_'
'отпус'
'отправлени'
'отношени'
'относительн'
'отно'
'отмывания_'
'отмечаю'
'отмети'
'отменить_'
'отме'
'отложения'
'отличным'
'отличается_'
'отли'
'открытыми_'
'открыты'
'открыти'
'открыта'
'открываю'
'открыва'
'откры'
'откровенн'
'отки_'
'отказывают'
[...]
