'<pad>_'
'<EOS>_'
', _'
'._'
'the_'
'de_'
'of_'
''_'
'and_'
'la_'
'to_'
'et_'
'a_'
'l_'
'_'
'des_'
'’_'
'les_'
'in_'
'à_'
'le_'
'd_'
's_'
'-_'
'en_'
'du_'
'is_'
'that_'
'for_'
'que_'
'on_'
'un_'
'une_'
' (_'
'pour_'
'est_'
'dans_'
'The_'
'qui_'
'with_'
'be_'
'sur_'
'au_'
') _'
'as_'
'par_'
'by_'
'are_'
'/_'
'e_'
'. _'
'it_'
'or_'
'this_'
'plus_'
'not_'
'ce_'
'have_'
'pas_'
'aux_'
'il_'
'ne_'
'qu_'
'an_'
'from_'
'I_'
'will_'
'at_'
'n_'
'which_'
'sont_'
'has_'
'ou_'
'Le_'
'ont_'
' _'
'1_'
'was_'
'se_'
'nous_'
'y_'
'its_'
'avec_'
'we_'
'es_'
'2_'
'Les_'
'La_'
'their_'
': _'
'être_'
'all_'
'; _'
' - _'
' – _'
'pays_'
'été_'
'Commission_'
'you_'
'ing_'
'L_'
'A_'
'can_'
'r_'
'also_'
'In_'
'more_'
'would_'
'been_'
'vous_'
'but_'
't_'
'cette_'
',_'
'3_'
'ces_'
'ed_'
'son_'
'Il_'
'Europe_'
'other_'
'leur_'
')._'
'European_'
'should_'
'Canada_'
'5_'
'), _'
'er_'
'comme_'
'4_'
'autres_'
'(_'
'fait_'
'non_'
'C_'
'they_'
'information_'
'nt_'
'one_'
'It_'
'were_'
'Union_'
'ses_'
'countries_'
'c_'
'mais_'
'international_'
'This_'
'• _'
'services_'
'?_'
'En_'
'our_'
'new_'
'elle_'
'entre_'
'Nations_'
'même_'
'' _'
'tout_'
'must_'
'peut_'
'only_'
'than_'
'si_'
'States_'
'who_'
'such_'
';_'
'sa_'
'these_'
'no_'
'faire_'
' "_'
'there_'
'time_'
'je_'
'Mr_'
'your_'
'We_'
'aussi_'
'out_'
'6_'
'if_'
'S_'
'United_'
'any_'
'développement_'
'do_'
'leurs_'
'about_'
':_'
'é_'
'7_'
' : _'
'had_'
'États_'
'bien_'
'ils_'
'Council_'
'politique_'
'so_'
'important_'
'M_'
'into_'
'également_'
'question_'
'may_'
'up_'
'tous_'
'public_'
'work_'
' “_'
'rapport_'
'report_'
'President_'
'people_'
'part_'
'Conseil_'
'Nous_'
'national_'
'his_'
'between_'
'deux_'
'droits_'
'some_'
'us_'
'when_'
'well_'
'use_'
'point_'
'0_'
'need_'
'ainsi_'
'under_'
'10_'
'very_'
'% _'
'support_'
'situation_'
'ment_'
'like_'
'world_'
'sans_'
'européenne_'
'development_'
'8_'
'ons_'
'place_'
'membres_'
'those_'
'made_'
'Je_'
'programme_'
'm_'
'rights_'
'economic_'
'them_'
'year_'
'contre_'
'o_'
'doit_'
'9_'
'most_'
'" _'
'Committee_'
'years_'
'social_'
'two_'
'très_'
'és_'
'policy_'
'many_'
'ant_'
'sécurité_'
'what_'
'D_'
'protection_'
'dont_'
'first_'
'travail_'
'2000_'
'country_'
'over_'
'me_'
'ent_'
'possible_'
'But_'
'i_'
'2002_'
'service_'
'Dans_'
'soit_'
'political_'
'2003_'
'2001_'
'cas_'
'long_'
'où_'
'including_'
'now_'
'était_'
'take_'
'he_'
'human_'
'General_'
'system_'
'make_'
'votre_'
'sous_'
'notre_'
'against_'
'action_'
'monde_'
'E_'
'could_'
'ation_'
'US_'
'session_'
'through_'
'ly_'
'government_'
'ée_'
'droit_'
'questions_'
'Convention_'
'2004_'
'autre_'
'because_'
'being_'
'ng_'
'where_'
'application_'
'financial_'
'article_'
'programmes_'
'Président_'
'000_'
'Member_'
')_'
'économique_'
'toutes_'
'way_'
'al_'
'peuvent_'
'santé_'
'personnes_'
' _'
'15_'
'On_'
'EU_'
'efforts_'
'nos_'
'my_'
'avoir_'
'Pour_'
'partie_'
'moins_'
'encore_'
'politiques_'
'parties_'
'able_'
'2005_'
'right_'
'mesures_'
'As_'
'après_'
'China_'
're_'
'système_'
'institutions_'
'If_'
'conditions_'
'z_'
'gouvernement_'
'cadre_'
'ans_'
'health_'
'cours_'
'compte_'
'20_'
'within_'
'Parliament_'
'both_'
'even_'
'doivent_'
'nombre_'
'population_'
'global_'
'same_'
'plan_'
'order_'
'temps_'
'sera_'
'Ce_'
'Unis_'
'Mais_'
'toute_'
'after_'
'30_'
'” _'
'afin_'
'For_'
'matière_'
'avons_'
'Si_'
'12_'
'ées_'
'used_'
'cet_'
'number_'
'jour_'
'2006_'
'how_'
'enfants_'
'process_'
'hotel_'
'Monsieur_'
'production_'
'market_'
' $_'
'elles_'
'ait_'
'11_'
'fois_'
'niveau_'
'mise_'
'much_'
'marché_'
'International_'
'années_'
'projet_'
'homme_'
'issues_'
'b_'
'budget_'
'Comité_'
' , _'
'respect_'
'vue_'
'avant_'
'women_'
'change_'
'site_'
'lui_'
'provide_'
'position_'
'just_'
'donc_'
'security_'
'There_'
'Hotel_'
'without_'
'cela_'
'Unies_'
'De_'
'2007_'
'concernant_'
'vie_'
'good_'
'Parlement_'
'ressources_'
'internationale_'
'hôtel_'
'g_'
'before_'
'général_'
'level_'
'Un_'
'exemple_'
'activités_'
'notamment_'
'future_'
'own_'
'does_'
'high_'
'B_'
'ci_'
'!_'
' « _'
'resolution_'
'hui_'
'during_'
'j_'
'h_'
'P_'
' ._'
'À_'
'recherche_'
'produits_'
'measures_'
'État_'
'see_'
'manière_'
'each_'
'R_'
'résolution_'
'continue_'
'age_'
'per_'
'large_'
'grande_'
'base_'
'available_'
'law_'
'based_'
'lieu_'
'ai_'
'- _'
'while_'
'shall_'
'issue_'
'children_'
'car_'
'demande_'
'avait_'
'x_'
'importance_'
'femmes_'
'européen_'
'three_'
'processus_'
'te_'
'end_'
'gestion_'
'set_'
'activities_'
'members_'
'ion_'
'areas_'
'certains_'
'access_'
'Chine_'
'still_'
'peu_'
'No_'
'ers_'
'fin_'
'depuis_'
'Une_'
'Cette_'
'secteur_'
'1999_'
'area_'
'relations_'
'données_'
'case_'
'25_'
'tant_'
'fact_'
'view_'
'ensure_'
'croissance_'
'certain_'
'date_'
'160_'
'p_'
'Canadian_'
'term_'
'ceux_'
'groupe_'
'resources_'
'J_'
'taux_'
'nouveau_'
'générale_'
'lors_'
'last_'
'coopération_'
'13_'
'community_'
'année_'
'State_'
'tion_'
'pourrait_'
'k_'
'déjà_'
'00_'
'then_'
'millions_'
'faut_'
'14_'
'particular_'
'example_'
'To_'
'total_'
'further_'
'toujours_'
'growth_'
'aide_'
'vote_'
'trade_'
'ensemble_'
'decision_'
'ra_'
'f_'
'aujourd_'
'am_'
'’ _'
've_'
'dire_'
'accord_'
'24_'
'. _'
'today_'
'since_'
'means_'
'chaque_'
'prendre_'
'meeting_'
'face_'
'seulement_'
'mesure_'
'selon_'
'said_'
'prix_'
'less_'
'data_'
'assistance_'
'17_'
'attention_'
'problèmes_'
'problème_'
'period_'
'Government_'
'2008_'
'type_'
'role_'
'America_'
'power_'
' ?_'
'terme_'
'provided_'
'main_'
'implementation_'
'devrait_'
'research_'
'policies_'
'alors_'
'Group_'
'France_'
'Assemblée_'
'www_'
'million_'
'help_'
'vers_'
'rôle_'
'organisations_'
'entreprises_'
'accès_'
'économie_'
'18_'
'too_'
'points_'
'paix_'
'informations_'
'document_'
'administration_'
'Ces_'
'therefore_'
'free_'
'dollars_'
'Office_'
'ts_'
'local_'
'course_'
'New_'
'needs_'
'participation_'
'nature_'
'ions_'
'utilisation_'
'particulier_'
'force_'
'moment_'
'effet_'
'cooperation_'
'UE_'
'given_'
'façon_'
'current_'
'cannot_'
'following_'
'centre_'
'T_'
'taken_'
'major_'
'That_'
'Internet_'
'mettre_'
'life_'
'trois_'
'state_'
'management_'
'day_'
'savoir_'
'objectifs_'
'ni_'
'interest_'
'result_'
'mondiale_'
'laquelle_'
'affaires_'
'sector_'
'nouvelle_'
'different_'
'région_'
'They_'
'second_'
'ies_'
'50_'
'page_'
' % _'
'grand_'
'domaine_'
'effective_'
'Secretary_'
'Assembly_'
'21_'
'plusieurs_'
'find_'
'premier_'
'business_'
'pouvoir_'
'great_'
'euro_'
'environnement_'
'rs_'
'forces_'
'education_'
'concerne_'
' » _'
'résultats_'
'room_'
'related_'
'raison_'
'legal_'
'full_'
'World_'
'directive_'
'com_'
'transport_'
'période_'
'citoyens_'
'basis_'
'Au_'
'whether_'
'serait_'
'necessary_'
'already_'
'décision_'
'common_'
'Programme_'
'personnel_'
'cause_'
'nouvelles_'
'documents_'
'account_'
'Iran_'
'economy_'
'devons_'
'regional_'
'qualité_'
'control_'
'working_'
'société_'
'première_'
'next_'
'ez_'
'F_'
'Commissioner_'
'mois_'
'However_'
'voir_'
'violence_'
'peace_'
'capital_'
'Par_'
'risk_'
'regard_'
'président_'
'ement_'
'developing_'
'&_'
'every_'
'dit_'
'Vous_'
'Des_'
'At_'
'16_'
'étaient_'
'know_'
'few_'
'better_'
'become_'
'back_'
' | _'
'proposal_'
'beaucoup_'
'Health_'
'military_'
'sein_'
'justice_'
'best_'
'among_'
'want_'
'These_'
'problem_'
'impact_'
'another_'
'actions_'
'ordre_'
'note_'
'far_'
'jusqu_'
'group_'
'u_'
'rate_'
'ici_'
'Article_'
'products_'
'loi_'
'initiative_'
'nuclear_'
'increase_'
'her_'
'œuvre_'
'small_'
'problems_'
'contrôle_'
'assurer_'
'Development_'
' :_'
'soient_'
'required_'
'region_'
'quality_'
'include_'
'clear_'
'N_'
'., _'
'say_'
'however_'
'debate_'
'1998_'
'terms_'
'suite_'
'particularly_'
'eux_'
'visant_'
'special_'
'besoin_'
'believe_'
'section_'
'did_'
'ble_'
'agreement_'
'2009_'
'war_'
'adopted_'
'égard_'
'ques_'
'energy_'
'crisis_'
'solution_'
'progress_'
'culture_'
'Organisation_'
'22_'
'quelques_'
'private_'
'down_'
'O_'
'..._'
'recent_'
'proposition_'
'guerre_'
'You_'
' _'
'groups_'
'compris_'
'What_'
'rules_'
'personne_'
'ns_'
'general_'
'Service_'
'Elle_'
'why_'
'specific_'
'nouveaux_'
'mon_'
'might_'
'chambres_'
'cent_'
'G_'
'All_'
'present_'
'initiatives_'
'Africa_'
'100_'
' [_'
'zone_'
'water_'
'staff_'
'soutien_'
'nécessaire_'
'go_'
'ge_'
'sommes_'
'paragraphe_'
'intérêt_'
'DE_'
'past_'
'nombreux_'
'give_'
'Iraq_'
'Centre_'
'nom_'
'making_'
'formation_'
'emploi_'
'état_'
'ur_'
'pendant_'
'groupes_'
'held_'
'come_'
'celui_'
'capacity_'
'And_'
'training_'
'form_'
'décembre_'
'draft_'
'ca_'
'présent_'
'foreign_'
'eu_'
'seront_'
'real_'
'project_'
'mis_'
'here_'
'cases_'
'value_'
'costs_'
'version_'
'projets_'
'key_'
'ie_'
'get_'
'ville_'
'line_'
'parce_'
'ments_'
'food_'
'around_'
'With_'
'Minister_'
'Act_'
' : _'
'program_'
'outre_'
'fonds_'
'communication_'
'air_'
'American_'
'évaluation_'
'sujet_'
'création_'
'technologies_'
'souvent_'
'him_'
'Etats_'
'relevant_'
'ministre_'
'National_'
'19_'
'tax_'
'opinion_'
'crise_'
'hope_'
'celle_'
'approach_'
'ux_'
'23_'
'put_'
'dialogue_'
'citizens_'
'Republic_'
'using_'
'subject_'
'direction_'
'address_'
'31_'
'December_'
'ry_'
'proposed_'
'French_'
'vos_'
'tes_'
'publique_'
'cost_'
'organizations_'
'developed_'
'When_'
'Rights_'
'He_'
'valeur_'
'third_'
'th_'
'risque_'
'promotion_'
'contribution_'
'city_'
'called_'
'systems_'
'results_'
'police_'
'obligations_'
'avis_'
'authorities_'
'40_'
'rooms_'
'party_'
'aient_'
'systèmes_'
'review_'
'renseignements_'
'needed_'
'dispositions_'
'care_'
'Afrique_'
' '_'
'économiques_'
'voudrais_'
'sociale_'
'mieux_'
'marchés_'
'experts_'
'commission_'
'bon_'
'agenda_'
'Ontario_'
'Community_'
'titre_'
'suis_'
'reste_'
'open_'
'Amérique_'
'étant_'
'éducation_'
'several_'
'requirements_'
'family_'
'examen_'
'established_'
'Security_'
'Bureau_'
'27_'
'rates_'
'projects_'
'others_'
'matter_'
'least_'
'environment_'
'agit_'
'Secrétaire_'
'Human_'
'reports_'
'provides_'
'often_'
'greater_'
'six_'
'member_'
'due_'
'discrimination_'
'building_'
'June_'
' & _'
'trop_'
'objectif_'
'mission_'
'devraient_'
'Germany_'
'moyen_'
'appropriate_'
'again_'
'levels_'
'forme_'
'above_'
'60_'
'"_'
'présente_'
'minutes_'
'lorsque_'
'Ils_'
'taking_'
'paragraph_'
'lutte_'
'coordination_'
'communauté_'
'ailleurs_'
'Japan_'
'établissement_'
'various_'
'upon_'
'pris_'
'ma_'
'individual_'
'environmental_'
'débat_'
'dernier_'
'changes_'
'Mme_'
'short_'
'rather_'
'II_'
'society_'
'organisation_'
'nécessaires_'
'font_'
'commerce_'
'améliorer_'
'Cela_'
'stratégie_'
'off_'
'leaders_'
'especially_'
'chez_'
'central_'
'28_'
' '
'règlement_'
'field_'
'existe_'
'avaient_'
'1997_'
'think_'
'investment_'
'intérêts_'
'income_'
'done_'
'ayant_'
'] _'
'\u_'
'Conference_'
'unique_'
'plupart_'
'moyens_'
'itself_'
'instruments_'
'fully_'
'create_'
'aucun_'
'September_'
'Et_'
'Board_'
'29_'
'26_'
'together_'
'relatives_'
'rapporteur_'
'progrès_'
'markets_'
'framework_'
'dépenses_'
'debt_'
'aspects_'
'Services_'
'industry_'
'five_'
'concerned_'
' « _'
'énergie_'
'travaux_'
'technology_'
'states_'
'là_'
'eur_'
'donné_'
'besoins_'
'Groupe_'
'sites_'
'responsibility_'
'organismes_'
'occasion_'
'experience_'
'addition_'
'U_'
'Bush_'
' ; _'
'tel_'
'nationale_'
'legislation_'
'land_'
'clients_'
'Web_'
'va_'
'renforcer_'
'performance_'
'maintenant_'
'low_'
'internationales_'
'ic_'
'fiscal_'
'avez_'
'aider_'
'list_'
'yet_'
'person_'
'permet_'
'simple_'
'importante_'
'having_'
'financement_'
'durable_'
'views_'
'utiliser_'
'old_'
'offre_'
'ligne_'
'eau_'
'démocratie_'
'davantage_'
'capacité_'
'République_'
'technical_'
'pourraient_'
'pourquoi_'
'obtenir_'
'included_'
'governments_'
'fonction_'
'exercice_'
'décisions_'
'cultural_'
'aucune_'
'Israel_'
'plutôt_'
'offers_'
'objet_'
'nombreuses_'
'found_'
'civil_'
'bonne_'
'East_'
'relative_'
'provisions_'
'avenir_'
'Y_'
') (_'
'opportunity_'
'months_'
'http_'
' — _'
'once_'
'led_'
'certaines_'
'Russia_'
'March_'
'techniques_'
'strategy_'
'price_'
'increased_'
'final_'
'etc_'
'://_'
'risques_'
'positive_'
'permettre_'
'deuxième_'
' > _'
'status_'
'st_'
'safety_'
'plans_'
'natural_'
'direct_'
'amount_'
'additional_'
'1996_'
'1990_'
'man_'
'jeunes_'
'ire_'
'immigration_'
'early_'
'test_'
'structure_'
'standards_'
'decisions_'
'May_'
'.”_'
'Ã_'
'urs_'
'types_'
'régime_'
'poverty_'
'intérieur_'
'ient_'
'considered_'
'House_'
'Court_'
' / _'
'�_'
'towards_'
'solutions_'
'propose_'
'jours_'
'existing_'
'behalf_'
'ations_'
'V_'
'October_'
'&#_'
'termes_'
'strong_'
'significant_'
'responsible_'
'really_'
'dernière_'
'always_'
'accordance_'
'participants_'
'office_'
'différents_'
'conflict_'
'child_'
'aid_'
'ways_'
'sens_'
'règles_'
'quand_'
'procédure_'
'pouvez_'
'partir_'
'mes_'
'away_'
'South_'
' «_'
'tels_'
'responsabilité_'
'reform_'
'personal_'
'ous_'
'money_'
'liste_'
'interests_'
'bar_'
'"._'
'ère_'
'vertu_'
'source_'
'received_'
'normes_'
'montant_'
'mondial_'
'look_'
'el_'
'approche_'
'anti_'
'adoption_'
'across_'
'Comme_'
'Bank_'
'sources_'
'share_'
'financière_'
'discussion_'
'dernières_'
'commercial_'
'billion_'
'1995_'
'serious_'
'programs_'
'home_'
'gouvernements_'
'forward_'
'efficace_'
'donner_'
'companies_'
'celles_'
'benefits_'
'achieve_'
'Russie_'
'proposals_'
'pay_'
'nationales_'
'effort_'
'déclaration_'
'collaboration_'
'amendments_'
'allow_'
'So_'
'One_'
'ONU_'
'workers_'
'trouve_'
'terrorisme_'
'longer_'
'juin_'
'engagement_'
'domaines_'
'develop_'
'days_'
'conformément_'
'commitment_'
'First_'
'until_'
'semble_'
'rule_'
'rapports_'
'little_'
'likely_'
'involved_'
'famille_'
'close_'
'Treaty_'
'An_'
' !_'
'whole_'
'something_'
'pauvreté_'
'nbsp_'
'four_'
'domestic_'
'court_'
'autorités_'
'prise_'
'principles_'
'persons_'
'offer_'
'mer_'
'liberté_'
'lead_'
'knowledge_'
'employment_'
'choix_'
'changement_'
'Obama_'
'Department_'
'Constitution_'
'2010_'
'wish_'
'régions_'
'restaurant_'
'request_'
'propre_'
'dirigeants_'
'difficult_'
'tions_'
'single_'
'rapidement_'
'particulièrement_'
'juillet_'
'hommes_'
'goods_'
'entreprise_'
'either_'
'Allemagne_'
'55_'
'propositions_'
'principe_'
'hand_'
'européens_'
'contributions_'
'call_'
'aurait_'
'annual_'
'té_'
'former_'
'banks_'
'[_'
'Special_'
'Nord_'
'ves_'
'traitement_'
'table_'
'potential_'
'permis_'
'nationaux_'
'met_'
'improve_'
'funding_'
'discussions_'
'construction_'
'comment_'
'co_'
'balance_'
'éléments_'
' - _'
'terrorism_'
'name_'
'concerns_'
'chose_'
'autant_'
'actuelle_'
'Tribunal_'
'November_'
'Information_'
'though_'
'sustainable_'
'réduire_'
'industrie_'
'Public_'
'thus_'
'quatre_'
'providing_'
'property_'
'practice_'
'play_'
'pense_'
'moi_'
'location_'
'influence_'
'exchange_'
'effect_'
'distribution_'
'bring_'
'agreements_'
'W_'
'Our_'
'India_'
'By_'
'times_'
'start_'
'septembre_'
'près_'
'nécessité_'
'novembre_'
'mai_'
'faveur_'
'era_'
'democracy_'
'charge_'
'banques_'
'armes_'
'UN_'
'July_'
'rendre_'
'remain_'
'recommendations_'
'possibilité_'
'oil_'
'octobre_'
'heures_'
'commun_'
'cinq_'
'Economic_'
'April_'
'étude_'
'texte_'
'suivi_'
'stay_'
'response_'
'res_'
'poor_'
'opposition_'
'mêmes_'
'modern_'
'located_'
'increasing_'
'funds_'
'environ_'
'auprès_'
'Social_'
'Parties_'
'Loi_'
'treatment_'
'she_'
'self_'
'reduce_'
'centrale_'
'Division_'
'British_'
'Afghanistan_'
'ted_'
'opérations_'
'makes_'
'législation_'
'lorsqu_'
'expected_'
'agencies_'
'_'
'zones_'
'voie_'
'ting_'
'standard_'
'parmi_'
'ité_'
'instrument_'
'infrastructure_'
'going_'
'fundamental_'
'disposition_'
'consultations_'
'Party_'
'Moreover_'
'young_'
'tenu_'
'study_'
'réunion_'
'regarding_'
'promouvoir_'
'prises_'
'grâce_'
'concerning_'
'climate_'
'changements_'
'below_'
'Chinese_'
'études_'
'_'
'um_'
'transition_'
'similar_'
'quant_'
'pratiques_'
'nations_'
'keep_'
'jamais_'
'intention_'
'inflation_'
'deal_'
'articles_'
'Research_'
'Fund_'
'/ _'
'sure_'
'sorte_'
'remains_'
'pratique_'
'men_'
'ls_'
'image_'
'hours_'
'grandes_'
'fournir_'
'focus_'
'efficacité_'
'début_'
'consider_'
'augmentation_'
'applications_'
'agriculture_'
'activité_'
'active_'
'Indeed_'
'H_'
'Asia_'
'success_'
'rural_'
'origine_'
'living_'
'lequel_'
'language_'
'janvier_'
'ires_'
'intégration_'
'devant_'
'dette_'
'constitue_'
'concern_'
'X_'
'.  _'
'themselves_'
'side_'
'réduction_'
'objectives_'
'membre_'
'limited_'
'known_'
'crime_'
'consultation_'
'agreed_'
'actuellement_'
'Organization_'
'90_'
'80_'
'vigueur_'
'ty_'
'technique_'
'regulation_'
'procedures_'
'post_'
'mars_'
'item_'
'half_'
'financières_'
'demand_'
'art_'
'Some_'
'African_'
'prices_'
'official_'
'minimum_'
'milliards_'
'history_'
'exploitation_'
'democratic_'
'company_'
'challenges_'
'Sud_'
'January_'
'After_'
'submitted_'
'return_'
'privé_'
'passé_'
'ness_'
'importants_'
'hard_'
'consensus_'
'clearly_'
'centres_'
'Affairs_'
'répondre_'
'range_'
'promote_'
'produit_'
'negotiations_'
'meet_'
'intervention_'
'ier_'
'financiers_'
'enough_'
'communities_'
'absence_'
'45_'
'words_'
'weapons_'
'seule_'
'niveaux_'
'ity_'
'innovation_'
'ings_'
'frais_'
'fins_'
'economies_'
'Plan_'
'Conférence_'
'", _'
'simply_'
'representatives_'
'principal_'
'light_'
'lack_'
'growing_'
'ever_'
'créer_'
'coûts_'
'56_'
'valeurs_'
'surtout_'
'soins_'
'rien_'
'représentants_'
'relation_'
'populations_'
'parents_'
'fs_'
'double_'
'context_'
'assessment_'
'ar_'
'almost_'
'West_'
'Asie_'
'trouver_'
'traité_'
'telles_'
'sociétés_'
'regions_'
'principes_'
'petit_'
'permanent_'
'left_'
'fort_'
'facilities_'
'enfant_'
'bank_'
'Report_'
'vision_'
'text_'
'telle_'
'step_'
'seul_'
'seen_'
'require_'
'os_'
'operations_'
'never_'
'near_'
'meilleure_'
'mandat_'
'eurs_'
'crimes_'
'aura_'
'alternative_'
'Ukraine_'
'Mrs_'
'établir_'
'représentant_'
'prevent_'
'nes_'
'internal_'
'evidence_'
'essential_'
'défense_'
'apply_'
'ago_'
'Pakistan_'
'Members_'
'Fonds_'
'Director_'
'Bien_'
'); _'
'train_'
'toutefois_'
'suivant_'
'ors_'
'démocratique_'
'directly_'
'commune_'
'civile_'
'agree_'
'adopté_'
'accords_'
'Turkey_'
'Program_'
'Israël_'
'Agency_'
' ..._'
'©_'
'travailleurs_'
'réponse_'
'reason_'
'parts_'
'nts_'
'exigences_'
'excellent_'
'contexte_'
'chambre_'
'century_'
'along_'
'Paris_'
'Association_'
'web_'
'strategic_'
'recently_'
'quelque_'
'purpose_'
'procedure_'
'outside_'
'histoire_'
'garantir_'
'faible_'
'election_'
'effects_'
'différentes_'
'currently_'
'contact_'
'While_'
'North_'
'élections_'
'thank_'
'surveillance_'
'statement_'
'options_'
'oeuvre_'
'model_'
'militaire_'
'idée_'
'basic_'
'Tout_'
'Section_'
'Code_'
'values_'
'top_'
'soutenir_'
'situations_'
'sense_'
'representative_'
'pu_'
'product_'
'prepared_'
'modèle_'
'internationaux_'
'freedom_'
'ex_'
'effets_'
'communautaire_'
'argent_'
'administrative_'
'Western_'
'Mission_'
'Kosovo_'
'  _'
'throughout_'
'secteurs_'
'revenu_'
'expressed_'
'competition_'
'bodies_'
'atteindre_'
'How_'
'Gouvernement_'
'English_'
'élaboration_'
'v_'
'took_'
'run_'
'requires_'
'obligation_'
'joint_'
'corruption_'
'condition_'
'bureau_'
'appui_'
'spécial_'
'space_'
'siècle_'
'school_'
'ront_'
'reported_'
'priority_'
'preuve_'
'option_'
'matters_'
'majorité_'
'gentlemen_'
'design_'
'clairement_'
'avril_'
'applicable_'
'HIV_'
'01_'
'welcome_'
'supported_'
'réseau_'
'lois_'
'juridique_'
'investissement_'
'financier_'
'emplois_'
'directement_'
'code_'
'ate_'
'Banque_'
'stability_'
'sanctions_'
'récemment_'
'recommandations_'
'receive_'
'quite_'
'publiques_'
'prévention_'
'previous_'
'pouvons_'
'org_'
'higher_'
'haut_'
'grands_'
'event_'
'euros_'
'communications_'
'chance_'
'Non_'
'Japon_'
'Inde_'
'Cour_'
'ure_'
'things_'
'réforme_'
'rapide_'
'négociations_'
'nce_'
'includes_'
'establishment_'
'equipment_'
'dès_'
'analysis_'
'York_'
'Saint_'
'Central_'
'élevé_'
'séance_'
'quelle_'
'principaux_'
'phase_'
'majority_'
'live_'
'follow_'
'elections_'
'doing_'
'demander_'
'conséquences_'
'conclusions_'
'=_'
'57_'
'): _'
'week_'
'victimes_'
'turn_'
'rise_'
'propres_'
'opportunities_'
'leadership_'
'kind_'
'gender_'
'déclaré_'
'disponibles_'
'destruction_'
'created_'
'consideration_'
'concurrence_'
'complete_'
'approved_'
'ants_'
'technologie_'
'stabilité_'
'spending_'
'publics_'
'planning_'
'partenaires_'
'paid_'
'maximum_'
'material_'
'ir_'
'existence_'
'establish_'
'credit_'
'Institute_'
'Action_'
'02_'
'whose_'
'sociaux_'
'seems_'
'protéger_'
'protect_'
'propriété_'
'organization_'
'investissements_'
'expérience_'
'content_'
'conclusion_'
'concept_'
'addressed_'
'act_'
'Palestinian_'
'Other_'
'“_'
'wide_'
'vu_'
'reasons_'
'province_'
'principle_'
'peuple_'
'meetings_'
'km_'
'juste_'
'implement_'
'coming_'
'ch_'
'capacités_'
'analyse_'
'américain_'
'amélioration_'
'activity_'
'according_'
'University_'
'TV_'
'Cependant_'
'Agreement_'
'provision_'
'importe_'
'federal_'
'essentiel_'
'difficile_'
'designed_'
'demandes_'
'contained_'
'budgétaire_'
'avantages_'
'anglais_'
'américaine_'
'ability_'
'Working_'
'Italy_'
'Irak_'
'Commissaire_'
'200_'
'1994_'
' % _'
'true_'
'traditional_'
'stable_'
'show_'
'réformes_'
'parti_'
'message_'
'lot_'
'loin_'
'individuals_'
'feel_'
'consommateurs_'
'bles_'
'appel_'
'Policy_'
'ES_'
'◦ _'
'« _'
'via_'
'tenir_'
'ten_'
'structures_'
'risks_'
'rait_'
'propos_'
'procédures_'
'noted_'
'net_'
'nation_'
'month_'
'media_'
'libre_'
'later_'
'industrial_'
'doute_'
'côté_'
'crucial_'
'conflit_'
'carried_'
'abord_'
'High_'
'éviter_'
'supply_'
'succès_'
'référence_'
'présidence_'
'increasingly_'
'gens_'
'external_'
'encourage_'
'death_'
'coût_'
'committed_'
'although_'
'adhésion_'
'X'
'Women_'
'Korea_'
'German_'
'February_'
'Depuis_'
'35_'
',” _'
'+_'
'volonté_'
'visit_'
'union_'
'ton_'
'successful_'
'practices_'
'mean_'
'manque_'
'leading_'
'enseignement_'
'délégation_'
'build_'
'biens_'
'AIDS_'
'500_'
'violations_'
'uniquement_'
'sociales_'
'objective_'
'na_'
'move_'
'mode_'
'ia_'
'heart_'
'factors_'
'entrée_'
'dispose_'
'delegation_'
'crédit_'
'connection_'
'committee_'
'associated_'
'assets_'
'ance_'
'agricultural_'
'Ministère_'
'K_'
'Cet_'
'Avec_'
'station_'
'résultat_'
'revenus_'
'requested_'
'regulations_'
'regime_'
'presented_'
'mal_'
'ling_'
'ladies_'
'integration_'
'institution_'
'importantes_'
'events_'
'estime_'
'drug_'
'confiance_'
'causes_'
'Of_'
'Finally_'
'understanding_'
'transports_'
'reference_'
'passer_'
'partners_'
'mandate_'
'liés_'
'labour_'
'jeu_'
'images_'
'guide_'
'game_'
'divers_'
'continued_'
'conséquent_'
'breakfast_'
'assurance_'
'apporter_'
'M'
'Arab_'
'70_'
'émissions_'
'échange_'
'» _'
'uses_'
'tandis_'
'raisons_'
'pêche_'
'présenté_'
'proposé_'
'pauvres_'
'ministère_'
'humanitarian_'
'gouvernementales_'
'employés_'
'dollar_'
'distance_'
'difficultés_'
'decided_'
'conférence_'
'conflits_'
'collègues_'
'board_'
'benefit_'
'aware_'
'Premier_'
'Notre_'
'1er_'
'style_'
'strengthen_'
'science_'
'original_'
'nucléaire_'
'jobs_'
'exécution_'
'consommation_'
'bas_'
'ask_'
'agents_'
'actuel_'
'Toutefois_'
'Since_'
'Management_'
'EUR_'
'32_'
' ‘_'
'échelle_'
'ue_'
'troisième_'
'taxes_'
'restrictions_'
'rest_'
'publication_'
'perspective_'
'monitoring_'
'milieu_'
'job_'
'impossible_'
'français_'
'finance_'
'fight_'
'cycle_'
'appliquer_'
'août_'
'Rapporteur_'
'Law_'
'Business_'
'58_'
'vis_'
'takes_'
'réalité_'
'renforcement_'
'reduction_'
'reach_'
'officials_'
'ner_'
'ique_'
'hold_'
'guidelines_'
'gc_'
'février_'
'annexe_'
'achieved_'
'Room_'
'Or_'
'1992_'
' $ _'
'understand_'
'responsables_'
'représente_'
'record_'
'quel_'
'présence_'
'permettant_'
'participer_'
'internet_'
'gas_'
'espace_'
'disponible_'
'comes_'
'circumstances_'
'Middle_'
'Israeli_'
'Après_'
'75_'
' », _'
'économies_'
'w_'
'votes_'
'users_'
'try_'
'torture_'
'studies_'
'steps_'
'réalisation_'
'provincial_'
'perhaps_'
'monétaire_'
'meilleur_'
'lower_'
'll_'
'evaluation_'
'contribute_'
'affected_'
'Such_'
'Note_'
'Justice_'
'GDP_'
'33_'
'works_'
'tiers_'
'ter_'
'team_'
'sent_'
'rich_'
'reporting_'
'puisse_'
'locaux_'
'ine_'
'idea_'
'ges_'
'européennes_'
'esprit_'
'eaux_'
'décidé_'
'dix_'
'critères_'
'chinois_'
'cependant_'
'body_'
'authority_'
'asked_'
'arrangements_'
'amendement_'
'allowed_'
'accept_'
'Madame_'
'III_'
'August_'
'sud_'
'stated_'
'reçu_'
'referred_'
'recours_'
'purposes_'
'processes_'
'pied_'
'indeed_'
'forms_'
'documentation_'
'creation_'
'comprehensive_'
'candidats_'
'border_'
'actually_'
'War_'
'USA_'
'Tous_'
'Many_'
'John_'
'Financial_'
'CN_'
'36_'
' . _'
'veut_'
'resolutions_'
'présenter_'
'produced_'
'offrir_'
'm'
'issued_'
'independent_'
'guarantee_'
'femme_'
'expression_'
'export_'
'développer_'
'dessus_'
'demandé_'
'choses_'
'américains_'
'added_'
'Turquie_'
'Trade_'
'Inc_'
'Forum_'
'34_'
' » _'
'sûr_'
'simplement_'
'régional_'
'red_'
'payment_'
'nothing_'
'mind_'
'lesquels_'
'laws_'
'huge_'
'extent_'
'equal_'
'convention_'
'consequences_'
'conference_'
'carte_'
'canadienne_'
'canadien_'
'THE_'
'Spain_'
'Selon_'
'Russian_'
'From_'
'During_'
'03_'
'terrain_'
'stage_'
'semaine_'
'réunions_'
'route_'
'reached_'
'porte_'
'patients_'
'network_'
'let_'
'juridiques_'
'highly_'
'examiner_'
'donne_'
'comprendre_'
'claims_'
'big_'
'beyond_'
'applied_'
'ables_'
'V'
'Rapport_'
'Québec_'
'Enfin_'
'utilisateurs_'
'salle_'
'presque_'
'poste_'
'militaires_'
'indiqué_'
'improved_'
'enjoy_'
'enable_'
'diverses_'
'contenu_'
'compétences_'
'class_'
'chef_'
'challenge_'
'average_'
'agir_'
'Windows_'
'Protocol_'
'Orient_'
'Now_'
'Although_'
'Air_'
'Ainsi_'
'youth_'
'vrai_'
'transfer_'
'threat_'
'situé_'
'relating_'
'pression_'
'possibility_'
'operation_'
'monetary_'
'mentioned_'
'largest_'
'initial_'
'farmers_'
'easy_'
'déterminer_'
'directives_'
'derniers_'
'critical_'
'contract_'
'continuer_'
'compliance_'
'biais_'
'amendements_'
'aire_'
'Add_'
'59_'
'49_'
'user_'
'travers_'
'travel_'
'tard_'
'série_'
'students_'
'size_'
'signifie_'
'shown_'
'primary_'
'pressure_'
'pages_'
'overall_'
'moyenne_'
'mechanisms_'
'jouer_'
'introduction_'
'file_'
'favour_'
'everything_'
'employees_'
'efficaces_'
'ds_'
'devenir_'
'connaissances_'
'comfortable_'
'beginning_'
'ale_'
'L'
'Force_'
'* _'
'évolution_'
'urgence_'
'suit_'
'schools_'
'relatif_'
'priorities_'
'ouverture_'
'online_'
'offices_'
'modifications_'
'langue_'
'house_'
'heure_'
'ground_'
'fut_'
'désormais_'
'don_'
'combat_'
'ally_'
'St_'
'Regional_'
'Est_'
'Congo_'
'égalité_'
'âge_'
'vraiment_'
'usage_'
'supplémentaires_'
'substances_'
'strategies_'
'statut_'
'soon_'
'scale_'
'reforms_'
'reality_'
'press_'
'outcome_'
'méthodes_'
'methods_'
'longtemps_'
'liées_'
'licence_'
'frontières_'
'forte_'
'exception_'
'entitled_'
'entire_'
'emissions_'
'da_'
'créé_'
'creating_'
'contains_'
'comprend_'
'compensation_'
'choose_'
'charges_'
'chacun_'
'carry_'
'aimed_'
'ad_'
'acceptable_'
'OF_'
'Foreign_'
'Déclaration_'
'51_'
' »._'
'véritable_'
'venir_'
'tour_'
'stop_'
'statistiques_'
'statements_'
'ss_'
'setting_'
'seraient_'
'positions_'
'package_'
'nord_'
'missions_'
'liens_'
'legislative_'
'identified_'
'ian_'
'families_'
'faciliter_'
'extremely_'
'entendu_'
'ensuite_'
'der_'
'convient_'
'commerciaux_'
'became_'
'awareness_'
'VIH_'
'Secretariat_'
'Même_'
'1'
'ères_'
'voix_'
'utilisé_'
'ues_'
'territoire_'
'suivre_'
'satisfaction_'
'resource_'
'puissance_'
'puis_'
'portant_'
'parvenir_'
'notes_'
'médias_'
'maintien_'
'maintenir_'
'locales_'
'identify_'
'goals_'
'ging_'
'faisant_'
'défis_'
'durée_'
'continues_'
'comptes_'
'came_'
'appear_'
'Prime_'
'équipe_'
'voted_'
'vital_'
'shows_'
'scope_'
'remercier_'
'probablement_'
'nucléaires_'
'nor_'
'menace_'
'materials_'
'mail_'
'lignes_'
'insurance_'
'fall_'
'enlargement_'
'elements_'
'dû_'
'defined_'
'cy_'
'criminal_'
'consumption_'
'constitution_'
'complex_'
'communautés_'
'comité_'
'chargé_'
'actes_'
'Summit_'
'Presidency_'
'My_'
'More_'
'Canadiens_'
'@_'
'54_'
'39_'
'–_'
't'
'régionaux_'
'road_'
'relationship_'
'prévu_'
'priorité_'
'physical_'
'peuples_'
'massive_'
'maintain_'
'lives_'
'implemented_'
'humains_'
'goal_'
'failed_'
'départ_'
'disease_'
'continent_'
'consumers_'
'confidence_'
'completed_'
'calls_'
'brought_'
'assez_'
'armée_'
'ancien_'
'acts_'
'Most_'
'Directive_'
'Certains_'
'Administration_'
'1991_'
'06_'
'étrangère_'
'stratégique_'
'species_'
'sound_'
'résoudre_'
'ratification_'
'presse_'
'mécanismes_'
'manner_'
'leave_'
'ke_'
'fonctions_'
'figure_'
'features_'
'enquête_'
'details_'
'despite_'
'currency_'
'constituent_'
'computer_'
'commissaire_'
'claim_'
'WP_'
'Plus_'
'Ottawa_'
'Governments_'
'Global_'
'Food_'
'City_'
'300_'
'. - _'
' -- _'
'établissements_'
'écrit_'
'skills_'
'series_'
'scientific_'
'réglementation_'
'recognition_'
'profit_'
'priorités_'
'prevention_'
'prend_'
'politics_'
'planification_'
'places_'
'peine_'
'passe_'
'ism_'
'institutional_'
'improving_'
'governmental_'
'gaz_'
'financing_'
'efficient_'
'effectively_'
'earlier_'
'conduct_'
'auteur_'
'attitude_'
'arms_'
'answer_'
'Portugal_'
'Latin_'
'Ireland_'
'His_'
'Even_'
'Environment_'
'Dr_'
'Date_'
'AC_'
'1993_'
'05_'
' :_'
'ures_'
'undertaken_'
'scientifiques_'
'sation_'
'satellite_'
'réserve_'
'régionales_'
'relativement_'
'read_'
'pétrole_'
'petites_'
'medical_'
'maladies_'
'loss_'
'leader_'
'iques_'
'hausse_'
'genre_'
'format_'
'emerging_'
'durant_'
'cover_'
'clean_'
'clair_'
'choice_'
'certainly_'
'book_'
'beautiful_'
'amendment_'
'add_'
'accepted_'
'Table_'
'Royaume_'
'Q'
'Project_'
'Elles_'
'ET_'
'Cuba_'
'99_'
'43_'
'étrangères_'
'étrangers_'
'unemployment_'
'transparence_'
'thing_'
'tendance_'
'strengthening_'
'soumis_'
'serve_'
'sectors_'
'responsable_'
'regular_'
'radio_'
'pollution_'
'payer_'
'mort_'
'links_'
'late_'
'languages_'
'invite_'
'intended_'
'installations_'
'ii_'
'généralement_'
'governance_'
'ful_'
'fond_'
'failure_'
'espère_'
'ens_'
'damage_'
'classe_'
'chômage_'
'began_'
'adopter_'
'U'
'Kingdom_'
'Initiative_'
'Grande_'
'Agence_'
'42_'
'37_'
'1980_'
'évaluer_'
'établi_'
'élément_'
'ze_'
'travailler_'
'town_'
'suivants_'
'relatifs_'
'produce_'
'pose_'
'plein_'
'petits_'
'peoples_'
'payments_'
'news_'
'limit_'
'ive_'
'industries_'
'index_'
'identification_'
'humaines_'
'globale_'
'gain_'
'expert_'
'directeur_'
'ding_'
'differences_'
'contient_'
'collective_'
'campagne_'
'bad_'
'adequate_'
'accepter_'
'Uni_'
'Under_'
'Santé_'
'S'
'PIB_'
'Ministry_'
'LA_'
'Gaza_'
'Federal_'
'Egypt_'
'Aboriginal_'
'04_'
'”._'
'”, _'
'époque_'
'ying_'
'whom_'
'vont_'
'virus_'
'victims_'
'useful_'
'tools_'
'software_'
'réaliser_'
'reviews_'
'quickly_'
'powers_'
'ouverte_'
'méthode_'
'movement_'
'marchandises_'
'maladie_'
'lesquelles_'
'ks_'
'humaine_'
'giving_'
'film_'
'facteurs_'
'entier_'
'ensuring_'
'criteria_'
'crises_'
'conséquence_'
'caractère_'
'animal_'
'Today_'
'Point_'
'Espagne_'
'C'
' " _'
'vente_'
'ries_'
'recognized_'
'prochaine_'
'médicaments_'
'moral_'
'largement_'
'interventions_'
'interne_'
'historical_'
'friendly_'
'formes_'
'expansion_'
'entry_'
'déclarations_'
'dimension_'
'determine_'
'decline_'
'cœur_'
'contrat_'
'consumer_'
'aim_'
'accessible_'
'Sous_'
'Safety_'
'Please_'
'Madam_'
'Etat_'
'Charter_'
'Chairman_'
'Brazil_'
'2'
'– _'
'É'
'variety_'
'trait_'
'totale_'
'stocks_'
'seem_'
'puissent_'
'principalement_'
'parler_'
'paper_'
'obstacles_'
'night_'
'integrated_'
'immediately_'
'fonctionnement_'
'fonctionnaires_'
'facilitate_'
'extension_'
'exercise_'
'envers_'
'encourager_'
'duty_'
'devait_'
'competitive_'
'caused_'
'capable_'
'ated_'
'allows_'
'advance_'
'adopt_'
'Protection_'
'N'
'Moyen_'
'Mexico_'
'I'
'EC_'
'Directeur_'
'Declaration_'
'tradition_'
'substance_'
'started_'
'speak_'
'search_'
'restaurants_'
'reflect_'
'published_'
'professional_'
'procès_'
'principales_'
'postes_'
'pension_'
'particulière_'
'parle_'
'moitié_'
'link_'
'grave_'
'familles_'
'facile_'
'everyone_'
'disarmament_'
'danger_'
'cultures_'
'communes_'
'comments_'
'closed_'
'climatique_'
'campaign_'
'cal_'
'association_'
'ard_'
'accent_'
'Second_'
'Lorsque_'
'Comment_'
'. - (_'
') '
'événements_'
'website_'
'vient_'
'territory_'
'servir_'
'possibilités_'
'pleinement_'
'mass_'
'limits_'
'join_'
'faits_'
'delivery_'
'default_'
'conservation_'
'certaine_'
'cancer_'
'begin_'
'autorité_'
'ante_'
'adresse_'
'UNESCO_'
'Règlement_'
'Présidente_'
'Part_'
'Mesdames_'
'Let_'
'K'
'Communauté_'
';&#_'
'). _'
'étranger_'
' ?_'
'weeks_'
'vise_'
'urgent_'
'télévision_'
'traiter_'
'taille_'
'séjour_'
'sport_'
'safe_'
'prêts_'
'practical_'
'pourra_'
'participate_'
'n'
'mines_'
'incidence_'
'impression_'
'illegal_'
'function_'
'fondamentaux_'
'fear_'
'efficiency_'
'définition_'
'core_'
'conscience_'
'conception_'
'completely_'
'client_'
'avoid_'
'armed_'
'anything_'
'Sur_'
'Rome_'
'Ms_'
'Messieurs_'
'Italie_'
'Each_'
'Accord_'
'ème_'
'wrong_'
'utilisés_'
'transmission_'
'transactions_'
'supporting_'
'stratégies_'
'sexual_'
'semaines_'
'seeking_'
'régionale_'
'réception_'
'responsabilités_'
'release_'
'regulatory_'
'recommended_'
'prévoit_'
'prior_'
'petite_'
'parfois_'
'multi_'
'mots_'
'menu_'
'membership_'
'medium_'
'longue_'
'infrastructures_'
'informed_'
'indicated_'
'implementing_'
'elected_'
'délai_'
'discussed_'
'developments_'
'decade_'
'cs_'
'cross_'
'aspect_'
'announced_'
'agricole_'
'advantage_'
'accroître_'
'Son_'
'Regulation_'
'R'
'FAO_'
'Executive_'
'Description_'
'According_'
': (_'
'800_'
'44_'
'élargissement_'
'´_'
'veiller_'
'vehicle_'
'thought_'
'tenue_'
'target_'
'spécifiques_'
'souhaite_'
'sommet_'
'sea_'
'relatively_'
'records_'
'provinces_'
'port_'
'placed_'
'partnership_'
'operating_'
'ma'
'installation_'
'housing_'
'followed_'
'fair_'
'exports_'
'exist_'
'ethnic_'
'effectiveness_'
'determined_'
'described_'
'decades_'
'associations_'
'adoptée_'
'accueil_'
'Regulations_'
'People_'
'P'
'Lisbon_'
'God_'
'Education_'
'EN_'
'CE_'
'Booking_'
'Al_'
'95_'
'48_'
'étoiles_'
'écoles_'
'èrent_'
'yeux_'
'terre_'
'task_'
'surface_'
'sort_'
'served_'
'ser_'
'secrétariat_'
'retour_'
'religion_'
'probably_'
'premières_'
'opinions_'
'mouvement_'
'mondialisation_'
'modification_'
'interested_'
'inter_'
'ideas_'
'haute_'
'files_'
'eurozone_'
'engagements_'
'emergency_'
'customers_'
'contribuer_'
'consiste_'
'commerciales_'
'collection_'
'bus_'
'agent_'
'Islamic_'
'Institut_'
'D'
'52_'
'1989_'
'%._'
'électronique_'
'tribunal_'
'telephone_'
'ta_'
'stress_'
'stock_'
'signed_'
'sida_'
'rendu_'
'reduced_'
'reconnaissance_'
'please_'
'perspectives_'
'partis_'
'ongoing_'
'occupation_'
'ni'
'music_'
'moderne_'
'measure_'
'malgré_'
'lien_'
'guests_'
'ga_'
'finances_'
'faite_'
'easily_'
'difference_'
'detailed_'
'degree_'
'cut_'
'conseil_'
'compter_'
'commissions_'
'chefs_'
'check_'
'alimentaire_'
']_'
'Yet_'
'Rooms_'
'Irlande_'
'Hamas_'
'George_'
'96_'
'47_'
'38_'
'."_'
', '
'word_'
'walk_'
'voulons_'
'violation_'
'v'
'utile_'
'transparency_'
'toward_'
'tient_'
'tiens_'
'terres_'
'submit_'
'situated_'
'sign_'
'ship_'
'seek_'
'saying_'
'ready_'
'race_'
'publications_'
'pre_'
'popular_'
'permettent_'
'parking_'
'ordinateur_'
'normal_'
'mises_'
'ministres_'
'matériel_'
'indispensable_'
'firms_'
'famous_'
'express_'
'députés_'
'delà_'
'contraire_'
'continuing_'
'consistent_'
'communautaires_'
'chapitre_'
'card_'
'argument_'
'approval_'
'alone_'
'achieving_'
'Poland_'
'ON_'
'H'
'Furthermore_'
'Canadians_'
'Asian_'
'Américains_'
'400_'
'07_'
'... _'
', "_'
'élaborer_'
'zed_'
'véhicules_'
'voting_'
'tête_'
'totalement_'
'tic_'
'terrorist_'
'supports_'
'subventions_'
'star_'
'règlements_'
'respecter_'
'proper_'
'promoting_'
'presence_'
'pouvait_'
'offered_'
'naturelles_'
'modifier_'
'method_'
'logiciel_'
'lle_'
'historique_'
'garde_'
'fédérale_'
'déjeuner_'
'draw_'
'conducted_'
'compromis_'
'bed_'
'autochtones_'
'auront_'
'San_'
'Microsoft_'
'Italian_'
'Haut_'
'Greece_'
'E'
'Democratic_'
'  _'
'written_'
'volume_'
'transfert_'
'réfugiés_'
'recovery_'
'recevoir_'
'quoi_'
'précisément_'
'proximité_'
'professionnels_'
'produire_'
'president_'
'pourrez_'
'planned_'
'ping_'
'p'
'operational_'
'observations_'
'nte_'
'lly_'
'lines_'
'langues_'
'judicial_'
'j'
'items_'
'individus_'
'granted_'
'forced_'
'fisheries_'
'extérieur_'
'equality_'
'enhance_'
'eligible_'
'contain_'
'considère_'
'commencer_'
'catégorie_'
'becoming_'
'alinéa_'
'advice_'
'accession_'
'Spanish_'
'Great_'
'CD_'
'Alors_'
'writing_'
'stand_'
'sharing_'
'sex_'
'scientifique_'
'sale_'
'rising_'
'reducing_'
'recherches_'
'poursuivre_'
'opening_'
'mobile_'
'looking_'
'lettre_'
'lancer_'
'instance_'
'increases_'
'immigrants_'
'garantie_'
'fédéral_'
'empêcher_'
'dessous_'
'decide_'
'dealing_'
'corps_'
'consolidation_'
'commitments_'
'commencé_'
'ck_'
'circulation_'
'chances_'
'capitaux_'
'auquel_'
'augmenter_'
'arrive_'
'approbation_'
'animaux_'
'ajouter_'
'ages_'
'advanced_'
'achat_'
'Y'
'Washington_'
'Vice_'
'TION_'
'Pourtant_'
'Paul_'
'Jean_'
'Japanese_'
'Debian_'
'Ceci_'
'Annex_'
'Alberta_'
'Advisory_'
'65_'
'," _'
' = _'
'zation_'
'w'
'vulnerable_'
'voté_'
'universal_'
'trust_'
'trafic_'
'told_'
'ties_'
'terroristes_'
'supplémentaire_'
'suivante_'
'souligner_'
'résolutions_'
'réalisés_'
'respond_'
'refugees_'
'procéder_'
'pouvoirs_'
'potentiel_'
'personnels_'
'orientation_'
'organisme_'
'observer_'
'nice_'
'mécanisme_'
'musique_'
'ms_'
'meilleurs_'
'limites_'
'lieux_'
'identity_'
'id_'
'head_'
'generally_'
'fuel_'
'forum_'
'fera_'
'f'
'exprimer_'
'exportations_'
'expertise_'
'ements_'
'electronic_'
'drive_'
'difficulties_'
'del_'
'crois_'
'conseils_'
'communiquer_'
'cinquante_'
'catégories_'
'budgétaires_'
'budgets_'
'baisse_'
'avantage_'
'UNICEF_'
'T'
'Review_'
'Representative_'
'MA'
'J'
'Is_'
'Framework_'
'Avant_'
'Aujourd_'
'$_'
'étape_'
'xi'
'worldwide_'
'voisins_'
'video_'
'unies_'
'trouvent_'
'supérieur_'
'suffisamment_'
'sub_'
'structural_'
'stronger_'
'shared_'
'secretariat_'
'rester_'
'reading_'
'raised_'
'networks_'
'multilateral_'
'montre_'
'lutter_'
'learning_'
'largely_'
'introduced_'
'immediate_'
'iers_'
'idées_'
'hour_'
'he'
'gouvernance_'
'goes_'
'g'
'fichiers_'
'enterprises_'
'délégations_'
'déficit_'
'dossier_'
'di_'
'cra'
'corporate_'
'considerable_'
'connaissance_'
'compromise_'
'composition_'
'competitiveness_'
'commentaires_'
'clé_'
'chemin_'
'borders_'
'architecture_'
'appelle_'
'appeal_'
'ahead_'
'accident_'
'Panel_'
'PC_'
'Not_'
'Meeting_'
'LE_'
'Hi'
'Go'
'Europeans_'
'DES_'
'Corée_'
'B'
'Also_'
');_'
'échanges_'
'x'
'won_'
'visite_'
'unless_'
'unité_'
'traitements_'
'tirer_'
'temporary_'
'survey_'
'suivantes_'
'speed_'
'sometimes_'
'separate_'
'sentiment_'
'requests_'
'reprise_'
'recettes_'
'probable_'
'privée_'
'perte_'
'percent_'
'partout_'
'partenariat_'
'partage_'
'organized_'
'obtained_'
'neither_'
'minorités_'
'matières_'
'maison_'
'letter_'
'ist_'
'invited_'
'historic_'
'hands_'
'front_'
'feature_'
'extrêmement_'
'expect_'
'examine_'
'enter_'
'enfin_'
'dossiers_'
'diversity_'
'departments_'
'd'
'cuisine_'
'copy_'
'conventions_'
'compared_'
'choisir_'
'businesses_'
'attendre_'
'appears_'
'ais_'
'actuelles_'
'actifs_'
'accorder_'
'Two_'
'Traité_'
'Toronto_'
'System_'
'Street_'
'She_'
'O'
'Nouvelle_'
'London_'
'Lisbonne_'
'Its_'
'Guide_'
'Children_'
'Alliance_'
'46_'
' : « _'
'équilibre_'
'élevés_'
'worked_'
'villes_'
'tribunaux_'
'sujets_'
'suggested_'
'siège_'
'seven_'
'sales_'
'responsibilities_'
'prison_'
'pourtant_'
'pleased_'
'players_'
'pièces_'
'parole_'
'offering_'
'manage_'
'latest_'
'larger_'
'k'
'instead_'
'innovative_'
'friends_'
'figures_'
'entièrement_'
'enquêtes_'
'ended_'
'définir_'
'discuss_'
'definition_'
'deep_'
'continuent_'
'consultatif_'
'closely_'
'candidate_'
'behind_'
'attacks_'
'arabe_'
'annex_'
'aller_'
'aires_'
'WIPO_'
'OMC_'
'G'
'Forces_'
'FMI_'
'F'
'Dieu_'
'Corporation_'
'Argentina_'
'Amendment_'
'A'
'--_'
' »._'
'treaty_'
'susceptibles_'
'substantial_'
'starting_'
'sing_'
'sait_'
'réponses_'
'représentent_'
'reasonable_'
'rapid_'
'pursuant_'
'producteurs_'
'photo_'
'organes_'
'mark_'
'linked_'
'limite_'
'helped_'
'follows_'
'facilement_'
'expenditures_'
'daily_'
'compétitivité_'
'carbon_'
'canadiennes_'
'bonnes_'
'appuyer_'
'als_'
'aliments_'
'agissant_'
'agency_'
'acteurs_'
'abuse_'
'\\_'
'W'
'Université_'
'Palestine_'
'Only_'
'NGOs_'
'LA'
'CI'
'Brésil_'
'53_'
'5'
'1872_'
', “_'
'êtes_'
'veulent_'
'tâche_'
'tool_'
'thousands_'
'tell_'
'tableau_'
'stakeholders_'
'spéciale_'
'spread_'
'soi_'
'sessions_'
'semblent_'
'récente_'
'rend_'
'relief_'
'reconstruction_'
'quot_'
'présentation_'
'provenant_'
'prochain_'
'proceedings_'
'paiement_'
'otherwise_'
'organisé_'
'ol_'
'meilleures_'
'mauvais_'
'limiter_'
'involving_'
'impôt_'
'implications_'
'ideal_'
'gros_'
'gains_'
'fifty_'
'fast_'
'ey_'
'eront_'
'elsewhere_'
'défi_'
'doubt_'
'discours_'
'devront_'
'considéré_'
'connu_'
'conclure_'
'conclu_'
'compétence_'
'cities_'
'certainement_'
'center_'
'cation_'
'bureaux_'
'britannique_'
'amis_'
'alliance_'
'Timor_'
'Support_'
'Strategy_'
'Saddam_'
'Ri'
'Q_'
'PC'
'Millennium_'
'Inter'
'Industry_'
'Document_'
'David_'
'Columbia_'
'Americans_'
'Agriculture_'
'09_'
'08_'
'0'
' -_'
'utilisées_'
'twenty_'
'trying_'
'stratégiques_'
'speaking_'
'southern_'
's'
'réalisé_'
'règle_'
'ring_'
'rice_'
'revised_'
'religious_'
'released_'
'publié_'
'pro'
'politicians_'
'permettra_'
'nouvel_'
'nearly_'
'ministères_'
'intellectuelle_'
'indépendance_'
'identité_'
'fund_'
'fortement_'
'flux_'
'faites_'
'establishing_'
'employee_'
'educational_'
'diseases_'
'deficit_'
'controls_'
'contacts_'
'conduit_'
'chercheurs_'
'cher_'
'caractéristiques_'
'atmosphere_'
'ary_'
'annoncé_'
'Therefore_'
'Romania_'
'PA'
'OR_'
'Netherlands_'
'Mar'
'Mac'
'LE'
'Control_'
'Church_'
'Christian_'
'Berlin_'
'1988_'
') - _'
'voluntary_'
'vingt_'
'urban_'
'transparent_'
'targets_'
'suggest_'
'spirit_'
'réseaux_'
'round_'
'registered_'
'reconnaître_'
'recommande_'
'recognize_'
'purchase_'
'properly_'
'preparation_'
'officers_'
'notion_'
'mètres_'
'migrants_'
'managed_'
'maintenance_'
'ko'
'judiciaire_'
'inspection_'
'improvement_'
'helpful_'
'formal_'
'forest_'
'fish_'
'fer_'
'faudra_'
'facing_'
'enregistrement_'
'ence_'
'e'
'diplomatic_'
'determination_'
'destination_'
'demands_'
'contribué_'
'connaître_'
'confirmed_'
'comportement_'
'changed_'
'built_'
'auxquels_'
'autour_'
'auraient_'
'allowing_'
'agricoles_'
'affaire_'
'Quand_'
'Protocole_'
'Ministers_'
'Membres_'
'Malgré_'
'La'
'Kyoto_'
'Grand_'
'Authority_'
'AND_'
'? _'
'étapes_'
'village_'
'vaste_'
'update_'
'traditions_'
'testing_'
'solidarité_'
'sides_'
'secure_'
'savings_'
'réserves_'
'reconnu_'
'prêt_'
'principale_'
'presidential_'
'planète_'
'phone_'
'pertes_'
'perfect_'
'pa'
'obstacle_'
'negative_'
'mutual_'
'morning_'
'mm_'
'mental_'
'marque_'
'manifestations_'
'investments_'
'interdiction_'
'inside_'
'imposed_'
'himself_'
'grow_'
'gave_'
'fondamentales_'
'fire_'
'favorable_'
'faudrait_'
'extensive_'
'exposition_'
'erait_'
'equipped_'
'employer_'
'ely_'
'eight_'
'défaut_'
'donateurs_'
'diversité_'
'disaster_'
'digital_'
'ded_'
'contracts_'
'clés_'
'bilateral_'
'bases_'
'attempt_'
'approvisionnement_'
'applies_'
'alternatives_'
'actual_'
'Voici_'
'Use_'
'Sea_'
'Over_'
'OECD_'
'Muslim_'
'Mexique_'
'Here_'
'Federation_'
'97_'
'41_'
'150_'
''._'
'équipements_'
'énergétique_'
'éliminer_'
'école_'
'zing_'
'welcomed_'
'wealth_'
'utilisateur_'
'tonnes_'
'territoires_'
'sol_'
'sme_'
'sion_'
'sensitive_'
'selected_'
'sciences_'
'revolution_'
'rendement_'
'remained_'
'registration_'
'quatrième_'
'préserver_'
'précédent_'
'profiter_'
'proche_'
'pool_'
'pass_'
'parliamentary_'
'parlementaire_'
'para_'
'numbers_'
'namely_'
'modèles_'
'mobilité_'
'migration_'
'messages_'
'losses_'
'looks_'
'listed_'
'lement_'
'le'
'lancé_'
'labor_'
'interprétation_'
'humanitaire_'
'humain_'
'habitants_'
'fondée_'
'factor_'
'exclusion_'
'espoir_'
'développés_'
'drugs_'
'contrast_'
'considérer_'
'considération_'
'claire_'
'champ_'
'canadiens_'
'camp_'
'broad_'
'bois_'
'banque_'
'assist_'
'alimentaires_'
'addressing_'
'accéder_'
'accommodation_'
'Saskatchewan_'
'Resources_'
'RI'
'Quebec_'
'Que_'
'Pacific_'
'Ouest_'
'NO'
'Ministre_'
'LES_'
'Indian_'
'Genève_'
'Geneva_'
'Britain_'
'étudiants_'
'widely_'
'waste_'
'vol_'
've'
'unable_'
'trial_'
'traite_'
'traffic_'
'tourisme_'
'thinking_'
'thanks_'
'statistics_'
'specifically_'
'send_'
'puisque_'
'préoccupations_'
'prospects_'
'proportion_'
'powerful_'
'pourcentage_'
'poser_'
'outils_'
'oral_'
'ones_'
'ny_'
'multiples_'
'mechanism_'
'lost_'
'kept_'
'investigation_'
'intellectual_'
'informal_'
'indigenous_'
'indicators_'
'impose_'
'ial_'
'hors_'
'fourth_'
'fishing_'
'favoriser_'
'faith_'
'estimates_'
'espèces_'
'distinction_'
'declaration_'
'conflicts_'
'collectivités_'
'catastrophes_'
'candidates_'
'bord_'
'ban_'
'aéroport_'
'availability_'
'associés_'
'approuvé_'
'américaines_'
'adjoint_'
'Z'
'Why_'
'Third_'
'Sierra_'
'Restaurant_'
'OMPI_'
'Néanmoins_'
'Montréal_'
'Mo'
'Lo'
'IT_'
'Hôtel_'
'FA'
'Costa_'
'Both_'
'Be'
'Another_'
'Al'
'98_'
'77_'
'600_'
'équitable_'
'z'
'y'
'téléphone_'
'thereby_'
'sufficient_'
'ste_'
'specified_'
'sought_'
'signature_'
'régler_'
'requirement_'
'rent_'
'regards_'
'refer_'
'reception_'
'rapporteurs_'
'quarter_'
'prévues_'
'préparer_'
'professionnelle_'
'prochaines_'
'primarily_'
'photos_'
'particuliers_'
'paragraphs_'
'origin_'
'numerous_'
'names_'
'monnaie_'
'mentionné_'
'mener_'
'machine_'
'libertés_'
'lay_'
'latine_'
'ka_'
'jeux_'
'indique_'
'independence_'
'inclusion_'
'imposer_'
'imports_'
'host_'
'graves_'
'gives_'
'fournit_'
'focused_'
'flow_'
'floor_'
'experiences_'
'easier_'
'dynamique_'
'drogues_'
'différence_'
'devoir_'
'defence_'
'conferences_'
'complète_'
'classes_'
'che_'
'charged_'
'changing_'
'bancaire_'
'attend_'
'atteint_'
'ating_'
'assess_'
'appointed_'
'appelé_'
'annuel_'
'album_'
'accounts_'
'accounting_'
'WTO_'
'Total_'
'River_'
'Pacte_'
'PNUD_'
'Once_'
'Nos_'
'NEW_'
'Ko'
'Direction_'
'Cooperation_'
'Civil_'
'Chief_'
'Can_'
'Bo'
'Belarus_'
'AR'
'ça_'
'wood_'
'win_'
'weapon_'
'vérification_'
'vice_'
'te'
'requis_'
'reflected_'
'prévenir_'
'préparation_'
'privés_'
'previously_'
'portée_'
'porter_'
'pleine_'
'patient_'
'partner_'
'opened_'
'nuit_'
'notice_'
'nd_'
'navires_'
'mo'
'minute_'
'mid_'
'mettant_'
'mention_'
'marine_'
'lumière_'
'learn_'
'kg_'
'isme_'
'intermédiaire_'
'gérer_'
'guest_'
'gamme_'
'fruits_'
'fighting_'
'ess_'
'erreur_'
'else_'
'diffusion_'
'department_'
'crédits_'
'coalition_'
'centrales_'
'bonds_'
'bathroom_'
'banking_'
'b'
'arguments_'
'adaptation_'
'acte_'
'absolutely_'
'Unfortunately_'
'Transport_'
'See_'
'Sans_'
'Pays_'
'Le'
'In'
'HA'
'Grèce_'
'Finance_'
'Data_'
'DA'
'Chaque_'
'CD'
'CC'
'Bretagne_'
'Australia_'
'Amnesty_'
'93_'
'85_'
'613_'
'250_'
'états_'
'wa'
'voire_'
'u'
'treated_'
'traités_'
'titres_'
'tests_'
'territorial_'
'summit_'
'spéciales_'
'souligné_'
'seuls_'
'sept_'
'save_'
'réduit_'
'running_'
'rie_'
'returned_'
'resolve_'
'rappeler_'
'raise_'
'protected_'
'productivity_'
'privées_'
'patrimoine_'
'passage_'
'occur_'
'numéro_'
'montrer_'
'models_'
'love_'
'loans_'
'l'
'internes_'
'i'
'html_'
'highest_'
'générales_'
'globalization_'
'futures_'
'forêts_'
'fit_'
'firm_'
'explique_'
'expectations_'
'exercer_'
'exclusive_'
'essentiellement_'
'entendre_'
'endroit_'
'drawn_'
'devra_'
'desire_'
'demeure_'
'database_'
'da'
'culturel_'
'covered_'
'coup_'
'containing_'
'ck'
'civils_'
'centaines_'
'c'
'bénéficier_'
'buy_'
'analyses_'
'amounts_'
'affect_'
'actif_'
'accrue_'
'a'
'Your_'
'Work_'
'RO'
'Official_'
'Northern_'
'Madrid_'
'Labour_'
'ED_'
'ECB_'
'Despite_'
'Covenant_'
'Cor'
'Budget_'
'Any_'
'64_'
'3'
'2011_'
') _'
'%, _'
' ( _'
'échec_'
'® _'
'ya_'
'wanted_'
'versions_'
'una'
'trafficking_'
'sports_'
'solidarity_'
'si'
'says_'
'révision_'
'resulting_'
'responses_'
'reserves_'
'remercie_'
'recommandation_'
'rd_'
'protecting_'
'processing_'
'ports_'
'populaire_'
'peux_'
'parc_'
'ouvert_'
'outil_'
'obvious_'
'notification_'
'motion_'
'monitor_'
'modified_'
'mi_'
'map_'
'maintained_'
'li'
'lecture_'
'journée_'
'ization_'
'involvement_'
'installed_'
'impôts_'
'ide_'
'grounds_'
'getting_'
'finally_'
'fail_'
'faces_'
'extra_'
'extend_'
'excessive_'
'examiné_'
'engage_'
'enforcement_'
'donnée_'
'division_'
'district_'
'devient_'
'detail_'
'demonstrated_'
'dated_'
'dangerous_'
'croire_'
'correct_'
'contrats_'
'concluded_'
'combined_'
'ceci_'
'capitale_'
'bénéfices_'
'buffet_'
'budgetary_'
'beach_'
'ates_'
'asile_'
'ales_'
'UK_'
'Toutes_'
'Thus_'
'Those_'
'Te'
'Ta'
'Society_'
'Per'
'ME'
'Last_'
'Hong_'
'Home_'
'Given_'
'Do'
'Day_'
'Criminal_'
'Co'
'Charte_'
'CA'
'Bruxelles_'
'Because_'
';: _'
'73_'
'31'
'24h_'
'24'
'2013_'
' ; _'
'wi'
'vivre_'
'vely_'
'ture_'
'track_'
'supervision_'
'standing_'
'severe_'
'savons_'
'sauf_'
'régimes_'
'réels_'
'rue_'
'ro_'
'riches_'
'restent_'
'rejected_'
'quement_'
'pro_'
'prime_'
'path_'
'packages_'
'ot_'
'né_'
'neuf_'
'mot_'
'milliers_'
'middle_'
'menaces_'
'maintaining_'
'lit_'
'ler_'
'lands_'
'laid_'
'keeping_'
'investors_'
'investisseurs_'
'intervenants_'
'ill_'
'ien_'
'idéal_'
'holding_'
'h'
'félicite_'
'fiscale_'
'finding_'
'financer_'
'finalement_'
'expliquer_'
'expenses_'
'détention_'
'déchets_'
'débats_'
'device_'
'ction_'
'critique_'
'concentration_'
'components_'
'complexe_'
'complet_'
'character_'
'cash_'
'audit_'
'attaques_'
'assure_'
'apprentissage_'
'alimentation_'
'achievement_'
'Z_'
'Switzerland_'
'Secrétariat_'
'SO'
'RE_'
'RE'
'Pologne_'
'Pendant_'
'Park_'
'Palestiniens_'
'Media_'
'Lake_'
'Kong_'
'Ja'
'IV_'
'IP_'
'Guinea_'
'Family_'
'Département_'
'Christ_'
'Child_'
': “_'
': "_'
'92_'
'7'
'66_'
'61_'
'.._'
') : _'
' » (_'
'worth_'
'went_'
'welfare_'
'véhicule_'
'viable_'
'vehicles_'
'units_'
'under'
'transformation_'
'trading_'
'thème_'
'textes_'
'taxation_'
'sé'
'sts_'
'stations_'
'sse_'
'spent_'
'sortie_'
'solide_'
'ski_'
'sets_'
'réellement_'
'russe_'
'r'
'quartier_'
'pénale_'
'préalable_'
'prepare_'
'pre'
'pouvant_'
'possibles_'
'physique_'
'penser_'
'peaceful_'
'partly_'
'participé_'
'paiements_'
'owned_'
'outcomes_'
'occasions_'
'mérite_'
'mémoire_'
'mé'
'moteur_'
'modes_'
'modalités_'
'mis'
'mini_'
'locale_'
'livre_'
'ley_'
'ki_'
'intervenir_'
'instructions_'
'instamment_'
'ino'
'indicate_'
'happened_'
'génération_'
'girls_'
'gauche_'
'games_'
'fine_'
'filles_'
'fichier_'
'feu_'
'fabrication_'
'extraordinaire_'
'extended_'
'experienced_'
'estimated_'
'essentiels_'
'essais_'
'entered_'
'encouraging_'
'disposer_'
'die_'
'devrions_'
'critiques_'
'constater_'
'congratulate_'
'comprennent_'
'category_'
'bringing_'
'bo'
'bear_'
'balanced_'
'attack_'
'asylum_'
'arrêt_'
'approximately_'
'appareils_'
'anciens_'
'aims_'
'affairs_'
'Venezuela_'
'UNDP_'
'Sweden_'
'Site_'
'SP'
'Rwanda_'
'Rule_'
'Plusieurs_'
'Pacifique_'
'PDF_'
'OTAN_'
'Notes_'
'Nigeria_'
'Nice_'
'NE'
'NATO_'
'Mediterranean_'
'Manitoba_'
'Leone_'
'Kenya_'
'IMF_'
'IC'
'Grâce_'
'DU_'
'Czech_'
'Company_'
'COM_'
'CEE_'
'Brunswick_'
'Austria_'
'Atlantic_'
'Airport_'
'; (_'
'20'
'.-_'
' «&#_'
'élèves_'
'  _'
'widespread_'
'wants_'
'vitesse_'
'vidéo_'
'tâches_'
'tensions_'
'sélection_'
'supplies_'
'suggestions_'
'sses_'
'spend_'
'showing_'
'seriously_'
'représentation_'
'recommendation_'
'quotas_'
'progresser_'
'premiers_'
'precisely_'
'pointed_'
'palestinien_'
'owing_'
'ourselves_'
'operate_'
'obtenu_'
'obligatoire_'
'ning_'
'ng'
'moving_'
'ministers_'
'marketing_'
'majeure_'
'ized_'
'intégrer_'
'introduce_'
'imposition_'
'impacts_'
'im_'
'iii_'
'hip_'
'harmonisation_'
'guarantees_'
'genuine_'
'faibles_'
'explain_'
'environnementale_'
'désarmement_'
'dépôt_'
'droite_'
'différences_'
'devices_'
'devez_'
'devenu_'
'delivered_'
'defense_'
'contrary_'
'considérablement_'
'considérable_'
'conforme_'
'comply_'
'comfort_'
'climat_'
'classification_'
'civilian_'
'characteristics_'
'changer_'
'candidat_'
'bly_'
'blement_'
'bi'
'autorisation_'
'approaches_'
'applique_'
'animals_'
'aircraft_'
'adoptées_'
'acquisition_'
'accidents_'
'Where_'
'Tax_'
'TRANS_'
'TA'
'Se'
'SI'
'Royal_'
'Parti_'
'PCT_'
'ON'
'News_'
'Nevertheless_'
'Martin_'
'Ki'
'Islam_'
'Instead_'
'GA'
'Further_'
'Foundation_'
'Environmental_'
'Eastern_'
'EN'
'EI'
'Do_'
'Democrats_'
'Del'
'DI'
'Colombia_'
'Clinton_'
'CO'
'Belgium_'
'Beijing_'
'Based_'
'Agenda_'
'AP'
'68_'
'50'
'. _'
')(_'
'… _'
'élimination_'
'écran_'
'woman_'
'whatever_'
'weight_'
'véritablement_'
'voyage_'
'violent_'
'vast_'
'vacances_'
'utilisée_'
'truth_'
'trends_'
'tive_'
'territories_'
'taxe_'
'tabled_'
'summary_'
'strongly_'
'specialized_'
'south_'
'somme_'
'sensibilisation_'
'sections_'
'secrétaire_'
'salles_'
'régulièrement_'
'réduite_'
'revenue_'
'researchers_'
'radical_'
'prestations_'
'plant_'
'nomination_'
'movements_'
'minorities_'
'mené_'
'mainly_'
'launched_'
'ka'
'juge_'
'involves_'
'inscrit_'
'infection_'
'indicateurs_'
'incentives_'
'ical_'
'heureux_'
'généraux_'
'functions_'
'fondamentale_'
'fields_'
'entirely_'
'employé_'
'emphasis_'
'dépend_'
'défendre_'
'download_'
'dimensions_'
'description_'
'counter_'
'correspond_'
'contenant_'
'conférences_'
'component_'
'compagnies_'
'commerciale_'
'clause_'
'chacune_'
'catastrophe_'
'carbone_'
'bar'
'avancés_'
'authorized_'
'applicables_'
'anti'
'activement_'
'TO_'
'School_'
'RA'
'Ne'
'Lors_'
'Just_'
'Joint_'
'IS_'
'Hussein_'
'He'
'Google_'
'Che'
'Brussels_'
'Bas_'
'AT'
'86_'
'30'
'120_'
'11'
'élection_'
'za'
'visible_'
'utilise_'
'ut_'
'undertake_'
'trouverez_'
'troops_'
'threats_'
'susceptible_'
'successfully_'
'street_'
'story_'
'stade_'
'signé_'
'significantly_'
'sh_'
'servi_'
'salaires_'
'root_'
'rons_'
'respective_'
'requête_'
'represent_'
'recession_'
'raising_'
'raient_'
'quiet_'
'provisoire_'
'prove_'
'prolifération_'
'profits_'
'prestation_'
'plenary_'
'played_'
'on'
'observation_'
'négociation_'
'néanmoins_'
'nent_'
'merely_'
'meaning_'
'maritime_'
'limitée_'
'learned_'
'laisser_'
'ko_'
'je'
'iti'
'invasion_'
'intérieure_'
'intitulé_'
'interface_'
'inform_'
'improvements_'
'identifier_'
'historiques_'
'heard_'
'gone_'
'ft_'
'fixed_'
'fees_'
'familiale_'
'facteur_'
'exportation_'
'ets_'
'ethniques_'
'espagnol_'
'environnementaux_'
'effectuer_'
'dy_'
'directe_'
'detention_'
'deliver_'
'culturels_'
'courts_'
'consulter_'
'constitute_'
'confusion_'
'conduite_'
'concours_'
'compatible_'
'committees_'
'comités_'
'colleagues_'
'club_'
'circonstances_'
'camps_'
'cadres_'
'burden_'
'brevets_'
'break_'
'born_'
'binding_'
'author_'
'arrivée_'
'ar'
'appropriée_'
'annuelle_'
'ana'
'amended_'
'accepté_'
'Vancouver_'
'VI_'
'Suède_'
'Soviet_'
'Source_'
'Saudi_'
'Ro'
'QUE_'
'PI'
'Occident_'
'ONG_'
'Network_'
'Implementation_'
'Gi'
'Following_'
'FE'
'Er'
'De'
'Chamber_'
'Aux_'
'Am'
'ATION_'
'AD'
'A5_'
'700_'
'2012_'
'1987_'
', (_'
'%_'
'� _'
'équipement_'
'»._'
'ys_'
'unit_'
'underlying_'
'tôt_'
'television_'
'targeted_'
'talk_'
'summer_'
'souhaitez_'
'sin'
'sexes_'
'settlement_'
'server_'
'secret_'
'seconde_'
'sauna_'
'rurales_'
'ri'
'residence_'
'relever_'
'ps_'
'prospérité_'
'prosperity_'
'productivité_'
'poids_'
'playing_'
'plainte_'
'paragraphes_'
'our'
'onal_'
'offrant_'
'officielle_'
'obtain_'
'ob'
'nement_'
'montré_'
'modernes_'
'marche_'
'malheureusement_'
'logiciels_'
'lists_'
'lie_'
'legitimate_'
'killed_'
'ives_'
'io_'
'intergovernmental_'
'inter'
'implique_'
'iez_'
'ht'
'ger_'
'generation_'
'fruit_'
'frontière_'
'ffe'
'felt_'
'explained_'
'expenditure_'
'except_'
'en'
'el'
'effectivement_'
'détail_'
'décider_'
'dynamic_'
'dispute_'
'destinées_'
'den_'
'correctement_'
'construire_'
'connexion_'
'conformité_'
'concrete_'
'command_'
'cohesion_'
'cherche_'
'becomes_'
'avancées_'
'avance_'
'auteurs_'
'arts_'
'appreciation_'
'antes_'
'allemand_'
'adultes_'
'actively_'
'White_'
'Time_'
'Summary_'
'Science_'
'SU'
'Roumanie_'
'Red_'
'Quant_'
'Page_'
'PHP_'
'OCDE_'
'Nouveau_'
'Ni'
'Mu'
'Mi'
'Jo'
'IN'
'Fax_'
'FI'
'Européens_'
'Energy_'
'El_'
'Développement_'
'Decision_'
'Congress_'
'Communications_'
'Chambre_'
'Bar_'
'Balkans_'
'BA'
'Argentine_'
'63_'
'29'
'25'
'2015_'
'16'
'. (_'
'. '
' ('
'étroite_'
' '
'vivent_'
'visiteurs_'
'ving_'
'van_'
'unlikely_'
'university_'
'uni'
'understood_'
'tu_'
'tried_'
'teurs_'
'sé_'
'suppression_'
'suffit_'
'substantive_'
'su'
'stes_'
'souligne_'
'smoking_'
'shopping_'
'senior_'
'sed_'
'réussi_'
'réel_'
'réaction_'
'rou'
'represented_'
'remplir_'
'rapidly_'
'présentée_'
'protocole_'
'proliferation_'
'pourront_'
'possède_'
'possession_'
'picture_'
'permettrait_'
'parlementaires_'
'offrent_'
'noms_'
'mal'
'lé'
'logical_'
'lié_'
'laisse_'
'king_'
'ise_'
'installer_'
'indépendant_'
'indiquer_'
'importation_'
'honorable_'
'grant_'
'futur_'
'funded_'
'functioning_'
'française_'
'for'
'findings_'
'fil_'
'farm_'
'exemption_'
'erreurs_'
'entrer_'
'encouraged_'
'electoral_'
'détails_'
'démocratiques_'
'découvrir_'
'décennies_'
'dehors_'
'dangereux_'
'convaincu_'
'contrôler_'
'contributed_'
'constructive_'
'commande_'
'choisi_'
'chers_'
'bra'
'blood_'
'bilité_'
'avions_'
'atteinte_'
'acquis_'
'To'
'Sudan_'
'Rock_'
'Political_'
'Police_'
'Pe'
'Order_'
'NA'
'Monday_'
'Manager_'
'MO'
'Ku'
'IN_'
'Her'
'Good_'
'Fédération_'
'El'
'Draft_'
'Cyprus_'
'Congrès_'
'Compte_'
'Common_'
'CS'
'Blair_'
'Ba'
'BCE_'
'Afin_'
'Affaires_'
';» _'
'6'
'4'
'38'
'1960_'
'193'
'.'
''
'émission_'
'ène_'
'», _'
'° _'
'zo'
'ya'
'weak_'
'vues_'
'voters_'
'up'
'sérieux_'
'suggests_'
'subsequent_'
'subsection_'
'square_'
'soft_'
'showed_'
'se'
'récession_'
'rt_'
'revenues_'
'remise_'
'relève_'
'regret_'
'refugee_'
'reflects_'
'receiving_'
'pénal_'
'professionals_'
'producers_'
'presidency_'
'poursuite_'
'plants_'
'permit_'
'participating_'
'outstanding_'
'output_'
'o'
'nti'
'nine_'
'naturel_'
'minority_'
'manufacturing_'
'managers_'
'logement_'
'liaison_'
'jeune_'
'investigations_'
'interaction_'
'intelligence_'
'ine'
'inclure_'
'ille_'
'helping_'
'hear_'
'happen_'
'ha_'
'gri'
'fumeurs_'
'foundation_'
'flexible_'
'figurent_'
'fellow_'
'executive_'
'et'
'enti'
'enormous_'
'effectués_'
'décrit_'
'dois_'
'distributed_'
'dettes_'
'den'
'define_'
'deficits_'
'corporations_'
'considérables_'
'conclude_'
'commence_'
'cohésion_'
'closer_'
'chimiques_'
'cartes_'
'carrying_'
'buildings_'
'bro'
'bientôt_'
'believes_'
'automatically_'
'augmenté_'
'atmosphère_'
'approprié_'
'anyone_'
'annonce_'
'ambiance_'
'allocation_'
'actuels_'
'acheter_'
'Zimbabwe_'
'Za'
'Youth_'
'Sustainable_'
'Sa'
'Ru'
'Ra'
'Provincial_'
'Pro'
'Permanent_'
'Palestinians_'
'PH'
'PE'
'Na'
'NC'
'Michael_'
'Malheureusement_'
'Linux_'
'Har'
'Guest_'
'Guatemala_'
'Greek_'
'GR'
'Facilities_'
'ER_'
'EM'
'EC'
'Due_'
'Doha_'
'DS_'
'Colombie_'
'Check_'
'Center_'
'CO2_'
'Bulgaria_'
'Athlétisme_'
'An'
'Amsterdam_'
';'
'79_'
'69_'
'27'
'" (_'
'! _'
'évidence_'
'Église_'
'yourself_'
'uvre_'
'utilisant_'
'truly_'
'tomorrow_'
'ter'
'tend_'
'teaching_'
'soldats_'
'sla'
'simples_'
'signal_'
'select_'
'saw_'
'réussite_'
'répondu_'
'remote_'
'recommend_'
'reaching_'
'questionnaire_'
'qualified_'
'proposée_'
'productive_'
'producing_'
'plénière_'
'permanente_'
'per'
'pensions_'
'peacekeeping_'
'passed_'
'pace_'
'orientations_'
'organisée_'
'organiser_'
'opposed_'
'ol'
'ménages_'
'me'
'lose_'
'liability_'
'lasting_'
'invitation_'
'intégré_'
'ins_'
'importations_'
'ility_'
'ic'
'hydro'
'households_'
'hi'
'helps_'
'féliciter_'
'fresh_'
'fourni_'
'formulation_'
'foi_'
'father_'
'exemples_'
'euse_'
'entretien_'
'entend_'
'engager_'
'encontre_'
'elimination_'
'ele'
'effectué_'
'dor'
'disposent_'
'displaced_'
'depends_'
'demonstrate_'
'degré_'
'dedicated_'
'culturelle_'
'coverage_'
'courant_'
'connexes_'
'configuration_'
'communs_'
'combination_'
'chi'
'ch'
'career_'
'cally_'
'bit_'
'ber_'
'background_'
'ba_'
'auparavant_'
'adressée_'
'abus_'
'absolument_'
'aborder_'
'Ya'
'Water_'
'Voir_'
'Uni'
'Treasury_'
'Their_'
'Sommet_'
'Rules_'
'Robert_'
'Représentant_'
'RS_'
'Portuguese_'
'Out'
'OC'
'Nova_'
'NI'
'Mon_'
'Luxembourg_'
'Lorsqu_'
'Iraqi_'
'Free_'
'Da'
'CP'
'Best_'
'Bar'
'Administrative_'
'AM'
'AC'
': '
'94_'
'72_'
'71_'
'44'
'23'
'1970_'
','
''
'í'
'étendre_'
'électeurs_'
'Égypte_'
'write_'
'wishes_'
'vo'
'ver_'
'tés_'
'tor'
'timely_'
'sta'
'speech_'
'soutient_'
'soutenu_'
'souhaitent_'
'societies_'
'signe_'
'shi'
'sentence_'
'selection_'
'sant_'
'résidence_'
'reproduction_'
'representing_'
'rencontre_'
'remember_'
'remaining_'
'raw_'
'ratio_'
'quantité_'
'q_'
'pursue_'
'présentés_'
'préciser_'
'proved_'
'progressive_'
'professionnelles_'
'prioritaires_'
'pensons_'
'pe_'
'partenariats_'
'overcome_'
'older_'
'observateurs_'
'nces_'
'navigation_'
'modifié_'
'livres_'
'ld_'
'jou'
'ition_'
'islamique_'
'ir'
'interim_'
'interesting_'
'interdit_'
'inte'
'informer_'
'immédiatement_'
'household_'
'hot_'
'hopes_'
'homes_'
'hearing_'
'greatest_'
'ght_'
'garanties_'
'gap_'
'functional_'
'formulaire_'
'favorables_'
'falls_'
'facility_'
'exposé_'
'ers'
'equivalent_'
'equally_'
'enregistré_'
'element_'
'electricity_'
'démarche_'
'délais_'
'dignity_'
'difficiles_'
'depend_'
'delay_'
'croissante_'
'correspondant_'
'convinced_'
'convergence_'
'constitutional_'
'consent_'
'comparaison_'
'coffre_'
'coeur_'
'chercher_'
'chaîne_'
'cable_'
'bé'
'be'
'avancer_'
'assurances_'
'arising_'
'appareil_'
'administratives_'
'accueille_'
'accountability_'
'accise_'
'Year_'
'Veuillez_'
'Ve'
'Training_'
'Ti'
'Then_'
'Syrie_'
'Sur'
'Su'
'Ste'
'Secondly_'
'Réunion_'
'RÉ'
'Putin_'
'Parmi_'
'PA_'
'Ltd_'
'Limited_'
'Lebanon_'
'Indonesia_'
'IP'
'Ha'
'Green_'
'Ghana_'
'Finland_'
'Fi_'
'Fi'
'Every_'
'EADS_'
'Deuxièmement_'
'Countries_'
'Commentaires_'
'Certaines_'
'Car_'
'Ca'
'CP_'
'Before_'
'Barack_'
'Bangladesh_'
'Application_'
';; _'
'88_'
'83_'
'67_'
'62_'
'43'
'28'
'15'
'110_'
'électricité_'
'ä'
' », _'
'worse_'
'wo'
'whereas_'
'waiting_'
'wage_'
'vérifier_'
'vulnérables_'
'veux_'
'updated_'
'ultimately_'
'trouvé_'
'tri'
'trend_'
'transit_'
'traditionnels_'
'tra'
'tor_'
'ti_'
'tendances_'
'teams_'
'tasks_'
'suites_'
'suffering_'
'submission_'
'sti'
'sse'
'spécifique_'
'silence_'
'serving_'
'sert_'
'sen_'
'révolution_'
'répression_'
'rémunération_'
'revanche_'
'reserve_'
'remplacer_'
'register_'
'recommandé_'
'ration_'
'putting_'
'puisqu_'
'précis_'
'profile_'
'pressions_'
'prennent_'
'peur_'
'perdu_'
'parent_'
'ouvre_'
'organe_'
'ordinary_'
'opération_'
'operators_'
'og'
'offres_'
'ntes_'
'nda'
'musulmans_'
'mostly_'
'mortgage_'
'modernisation_'
'menée_'
'marked_'
'machines_'
'lire_'
'lessons_'
'ku'
'japonais_'
'ium_'
'iste_'
'intégrée_'
'innovations_'
'ing'
'ines_'
'indemnité_'
'incidents_'
'humanity_'
'healthy_'
'hand'
'gue_'
'gratuitement_'
'got_'
'forget_'
'fonctionne_'
'flexibility_'
'fermement_'
'facts_'
'faced_'
'existantes_'
'examined_'
'ents_'
'entente_'
'ee'
'ed'
'décennie_'
'drinking_'
'door_'
'died_'
'destiné_'
'demain_'
'dead_'
'cuts_'
'courses_'
'copies_'
'contribue_'
'continuera_'
'constituer_'
'consommateur_'
'considering_'
'concentrations_'
'comporte_'
'commercialisation_'
'combattre_'
'collègue_'
'collapse_'
'clubs_'
'climatiques_'
'click_'
'cité_'
'cible_'
'chosen_'
'chair_'
'capture_'
'campaigns_'
'calling_'
'bou'
'belief_'
'behavior_'
'bain_'
'attached_'
'assume_'
'asking_'
'arabes_'
'applicant_'
'appeared_'
'app'
'ances_'
'ambitious_'
'aides_'
'adolescents_'
'absolute_'
'abroad_'
']._'
'Without_'
'Wi_'
'Voilà_'
'Turkish_'
'Technology_'
'TE_'
'Star_'
'Sta'
'Sen'
'Sarkozy_'
'Re'
'Professor_'
'Peace_'
'Pa'
'OR'
'Nobel_'
'Merkel_'
'Lord_'
'Legal_'
'Journal_'
'Island_'
'Interactive_'
'IR'
'IM'
'IF'
'Guidelines_'
'Guerre_'
'Dès_'
'Di'
'DO'
'Cu'
'Burundi_'
'Breakfast_'
'Branch_'
'Annexe_'
'Adoption_'
'Access_'
'?'
'95'
'81_'
'10'
'‑_'
'évidemment_'
'épargne_'
'zero_'
'ze'
'warm_'
'voiture_'
'visée_'
'vaut_'
'valuable_'
'universités_'
'unités_'
'turned_'
'tur'
'tourism_'
'touchant_'
'tentative_'
'technological_'
'ster_'
'statistique_'
'statistical_'
'spoke_'
'socio_'
'so'
'smaller_'
'sm_'
'shape_'
'servi'
'ser'
'san'
'rose_'
'returns_'
'retraite_'
'religions_'
'rel'
'rejoindre_'
'regimes_'
'reflète_'
'referendum_'
'recommends_'
'q'
'prévue_'
'prévisions_'
'précise_'
'proposées_'
'promises_'
'po'
'plaisir_'
'permitted_'
'periods_'
'perdre_'
'paying_'
'passagers_'
'participant_'
'ouvrir_'
'out'
'ory_'
'ord'
'observed_'
'norme_'
'ne'
'mp'
'mouvements_'
'montrent_'
'mondiales_'
'mine_'
'mg_'
'légitimité_'
'length_'
'las_'
'joué_'
'intentions_'
'instances_'
'indication_'
'hu'
'ho'
'har'
'gs_'
'gold_'
'go'
'geographical_'
'gare_'
'freedoms_'
'formed_'
'flows_'
'flight_'
'films_'
'fi'
'fan_'
'exposure_'
'existent_'
'excellence_'
'examples_'
'ette_'
'essence_'
'era'
'environnementales_'
'email_'
'els_'
'eliminate_'
'efficacement_'
'dri'
'disasters_'
'designated_'
'customs_'
'criminalité_'
'couple_'
'corresponding_'
'considérée_'
'considers_'
'confirmé_'
'confirm_'
'concentrer_'
'complexes_'
'collectivité_'
'cinquième_'
'cho'
'chiffres_'
'certification_'
'capabilities_'
'cap'
'calcul_'
'bio'
'bal'
'attirer_'
'attaquer_'
'ateurs_'
'arrested_'
'arrangement_'
'armées_'
'argued_'
'appliqué_'
'appliquent_'
'appartenant_'
'ancienne_'
'amp_'
'admission_'
'Yugoslavia_'
'Ver'
'Technical_'
'Sé'
'Supreme_'
'Strasbourg_'
'So'
'Ser'
'Roma_'
'Question_'
'Products_'
'Prague_'
'Port_'
'Pi'
'Partnership_'
'PD'
'Or'
'Ol'
'Officer_'
'Nor_'
'Mal'
'Macedonia_'
'Like_'
'Life_'
'Li'
'LO'
'LI'
'Kuwait_'
'Ka'
'IS'
'ID_'
'Gor'
'Gen'
'Earth_'
'Droits_'
'Customs_'
'Co_'
'Chapter_'
'CE'
'Australie_'
'As'
'Arabia_'
'AN_'
'82_'
'49'
'34'
'33'
'21'
'191'
'.  _'
'” (_'
'—_'
'ón_'
'êtres_'
'ê'
'éthique_'
'électorale_'
'â'
'za_'
'vivant_'
'vite_'
'visés_'
'usually_'
'ur'
'une'
'unacceptable_'
'tte_'
'tru'
'troubles_'
'travaillent_'
'travaille_'
'transportation_'
'tourist_'
'terrasse_'
'tellement_'
'supérieure_'
'suitable_'
'soumettre_'
'sixth_'
'shower_'
'sho'
'shift_'
'serveur_'
'secondary_'
'scène_'
'répartition_'
'réelle_'
'rez_'
'reviewed_'
'reprises_'
'represents_'
'ren'
'rappelle_'
'proof_'
'positif_'
'poly'
'player_'
'pit'
'performances_'
'ownership_'
'officiels_'
'officielles_'
'nourriture_'
'mountain_'
'mment_'
'minister_'
'milliard_'
'menées_'
'makers_'
'mains_'
'lu'
'liée_'
'listes_'
'lies_'
'licences_'
'libéralisation_'
'liberal_'
'levée_'
'ky_'
'kr_'
'knows_'
'involve_'
'install_'
'input_'
'ingly_'
'industriel_'
'humanitaires_'
'hoc_'
'green_'
'garder_'
'friend_'
'fr_'
'fournis_'
'ferme_'
'expand_'
'existants_'
'entrepris_'
'effectuée_'
'economics_'
'duties_'
'du'
'destinés_'
'demandent_'
'célèbre_'
'culturelles_'
'contributing_'
'concernés_'
'commis_'
'collecte_'
'codes_'
'cing_'
'che'
'bénéficiaires_'
'ba'
'aérien_'
'attentes_'
'assumed_'
'assessed_'
'arrears_'
'appropriées_'
'an'
'airport_'
'aine_'
'acquérir_'
'accueillir_'
'accordée_'
'acceptance_'
'abandon_'
'Unit_'
'Un'
'Trans'
'Staff_'
'Serbie_'
'Sa_'
'SA'
'Road_'
'RC'
'Paper_'
'PT_'
'Old_'
'OS'
'Number_'
'My'
'Moldova_'
'ID'
'Gra'
'Fisheries_'
'Express_'
'ER'
'EP'
'Contact_'
'Club_'
'Car'
'CM'
'CAR'
'Bay_'
'BI'
'ACP_'
'; '
'8'
'74_'
'40'
'32'
'22'
'*_'
'('
' . . _'
' '
'workshops_'
'wing_'
'walking_'
'vérité_'
'voyageurs_'
'voter_'
'vir'
'villages_'
'victoire_'
'veuillez_'
'utiles_'
'undertaking_'
'ttes_'
'tro'
'traduction_'
'traditionnelles_'
'tested_'
'technologiques_'
'tarif_'
'tangible_'
'talks_'
'tal_'
'sustainability_'
'suicide_'
'su_'
'ss'
'spéciaux_'
'située_'
'shares_'
'sexe_'
'servent_'
'screen_'
'scheduled_'
'saving_'
'satisfaire_'
'sang_'
'récentes_'
'routes_'
'revenir_'
'retirement_'
'replace_'
'remédier_'
'rang_'
'présentées_'
'pré'
'programming_'
'prisonniers_'
'prisoners_'
'presentation_'
'posts_'
'post'
'pire_'
'pi'
'pertinentes_'
'penalty_'
'partager_'
'park_'
'ouest_'
'obtenus_'
'observe_'
'northern_'
'north_'
'noise_'
'negotiating_'
'naissance_'
'multiple_'
'mauvaise_'
'marriage_'
'majeur_'
'lt_'
'li_'
'ker_'
'ja'
'istes_'
'isation_'
'invest_'
'informatique_'
'indications_'
'incidences_'
'immobilier_'
'humanité_'
'honneur_'
'holds_'
'heads_'
'heading_'
'habitat_'
'ha'
'guidance_'
'guaranteed_'
'genetic_'
'generate_'
'fragile_'
'fournisseurs_'
'foot_'
'ff_'
'fasse_'
'extrême_'
'estimations_'
'er'
'envoyer_'
'engagés_'
'emp'
'east_'
'déployés_'
'démocrates_'
'dumping_'
'dou'
'donor_'
'disponibilité_'
'disant_'
'dig'
'devenue_'
'determining_'
'depending_'
'dealt_'
'dates_'
'dar'
'crée_'
'courage_'
'cop'
'coopérer_'
'conviction_'
'conserver_'
'confortable_'
'composé_'
'categories_'
'cast_'
'cabinet_'
'bri'
'bre'
'bound_'
'books_'
'bons_'
'believed_'
'barriers_'
'ay_'
'attaque_'
'associé_'
'asset_'
'armés_'
'ara'
'appuie_'
'appels_'
'ah_'
'africains_'
'affirmé_'
'affectation_'
'administrations_'
'adjustment_'
'actors_'
'acquired_'
'Yo'
'Within_'
'WG_'
'Tri'
'Taiwan_'
'Sub_'
'Status_'
'Ses_'
'Scientific_'
'ST_'
'Rica_'
'Questions_'
'Prince_'
'Philippines_'
'Peter_'
'Open_'
'OSCE_'
'OL'
'Norway_'
'NG_'
'Museum_'
'Ma'
'Lin'
'Kim_'
'Ji'
'Je'
'Ir'
'Hezbollah_'
'Fe'
'Exchange_'
'Euro_'
'Enterprise_'
'Employment_'
'Ei'
'EA_'
'Dan'
'Côte_'
'Contracting_'
'Commerce_'
'Cold_'
'Caribbean_'
'CF'
'C5_'
'Bio'
'Ben'
'Archives_'
'Angola_'
'91_'
'89_'
'54'
'39'
'04'
' &_'
'îles_'
'évident_'
'établis_'
'équipes_'
'énorme_'
'édition_'
'É_'
'· _'
'west_'
'wars_'
'wages_'
'voyages_'
'urg_'
'uns_'
'und_'
'uncertainty_'
'ul'
'témoins_'
'topics_'
'tly_'
'terrorists_'
'tables_'
'surprising_'
'surplus_'
'supprimer_'
'substantially_'
'stu'
'storage_'
'stake_'
'sou'
'sized_'
'sixième_'
'sitting_'
'sis_'
'signs_'
'ships_'
'sharp_'
'ret'
'representation_'
'renewed_'
'remove_'
'remettre_'
'relance_'
'regularly_'
'présents_'
'protocol_'
'proposer_'
'preventing_'
'pra'
'pouvaient_'
'potentially_'
'portion_'
'percentage_'
'payable_'
'patent_'
'parfaitement_'
'palestinienne_'
'pacifique_'
'organised_'
'oo'
'om_'
'oli'
'officer_'
'numérique_'
'ns'
'médicaux_'
'moved_'
'mondiaux_'
'mobility_'
'match_'
'mar'
'mai'
'législatif_'
'lt'
'lots_'
'logique_'
'limitations_'
'limitation_'
'lar'
'ja_'
'is'
'investir_'
'instruction_'
'injury_'
'ienne_'
'ice_'
'générations_'
'gen'
'fying_'
'frequently_'
'fourniture_'
'forth_'
'fondamental_'
'fishermen_'
'ferroviaire_'
'fans_'
'faisons_'
'extérieure_'
'expériences_'
'exprimé_'
'explore_'
'exists_'
'exige_'
'exceptional_'
'examination_'
'eventually_'
'ethical_'
'estiment_'
'estimate_'
'essentielle_'
'essai_'
'envisager_'
'enabling_'
'détenus_'
'déficits_'
'déclin_'
'doesn_'
'diverse_'
'dispositif_'
'directrices_'
'des'
'declared_'
'datée_'
'courriel_'
'couleur_'
'conversion_'
'contrôles_'
'consacré_'
'comprenant_'
'complaints_'
'comparable_'
'combien_'
'choices_'
'chemical_'
'bout_'
'belle_'
'ban'
'auxquelles_'
'aspirations_'
'arrêter_'
'appointment_'
'anc'
'ampleur_'
'ali'
'agréable_'
'agences_'
'africaine_'
'administratif_'
'adapter_'
'ace'
'ab'
'Yu'
'YORK_'
'Vo'
'UNCTAD_'
'UN'
'Toute_'
'Taliban_'
'TH'
'Server_'
'Serbia_'
'Scotia_'
'SC_'
'SA_'
'RC_'
'Private_'
'Pourquoi_'
'Partie_'
'NT_'
'NE_'
'Mou'
'Londres_'
'Ivoire_'
'Internal_'
'Int'
'GE'
'Front_'
'FR_'
'Du'
'Deux_'
'Delegation_'
'Dal'
'DC_'
'Culture_'
'Com'
'Chi'
'Care_'
'CT'
'Bre'
'Bill_'
'Bel'
'Assistance_'
'Ar'
'AS_'
'AL_'
'62'
'2020_'
'.)_'
') _'
') [_'
'''
'$ _'
' >_'
' ... _'
''
'о'
'а'
'événement_'
'éri'
'érer_'
'élevée_'
'échéant_'
'á'
'yer_'
'worst_'
'welcomes_'
'water'
'warning_'
'volontaire_'
'visiter_'
'viennent_'
'vert_'
'utilisent_'
'transaction_'
'tit'
'th'
'teur_'
'technologique_'
'survival_'
'subsidies_'
'struggle_'
'ssi'
'spacious_'
'sensible_'
'seminars_'
'salon_'
'sais_'
'sa'
'récents_'
'riche_'
'retirer_'
'restricted_'
'remboursement_'
'reconnus_'
'rare_'
'railway_'
'ra'
'quo_'
'quels_'
'publicly_'
'publicité_'
'présentes_'
'préoccupation_'
'précédemment_'
'provisional_'
'policymakers_'
'placé_'
'pilote_'
'personnelles_'
'perform_'
'participated_'
'parlé_'
'parlement_'
'oppose_'
'oni'
'officiel_'
'occupied_'
'noter_'
'normally_'
'médecins_'
'mineurs_'
'matin_'
'master_'
'masse_'
'marques_'
'listing_'
'la'
'ki'
'jurisdiction_'
'joined_'
'ize_'
'ira_'
'intéressés_'
'introduire_'
'introducing_'
'informé_'
'infections_'
'incurred_'
'illness_'
'ia'
'huit_'
'heritage_'
'hed_'
'heavy_'
'gu'
'grown_'
'gre'
'gouvernementaux_'
'globalisation_'
'geo'
'gar'
'gagner_'
'fraude_'
'fou'
'football_'
'figurant_'
'fifth_'
'exécutif_'
'exceptions_'
'espérons_'
'error_'
'entraîner_'
'entities_'
'engineering_'
'employers_'
'effectuées_'
'ec'
'dépit_'
'duration_'
'divisions_'
'directed_'
'difficulté_'
'diagnostic_'
'deco'
'cot'
'constant_'
'confrontés_'
'confrontation_'
'concrètes_'
'concert_'
'con_'
'completion_'
'competence_'
'combating_'
'clinical_'
'climatisation_'
'chauffage_'
'chargée_'
'cha'
'ced_'
'calendrier_'
'bénéficie_'
'bridge_'
'bottom_'
'block_'
'biggest_'
'battle_'
'basée_'
'autrement_'
'automatiquement_'
'attente_'
'arrival_'
'argue_'
'appreciate_'
'alia_'
'advisory_'
'accroissement_'
'accomplis_'
'accessibles_'
'Ze'
'Yukon_'
'UT'
'Tu'
'Tibet_'
'Three_'
'Ten'
'TS_'
'Syrian_'
'Station_'
'Sri_'
'Société_'
'Small_'
'Situé_'
'Sha'
'ST'
'Revenue_'
'Qu_'
'Power_'
'OMS_'
'Nombre_'
'No'
'Mer'
'Mc'
'Mat'
'Man'
'Luc'
'Lou'
'Library_'
'King_'
'Iranian_'
'Indonésie_'
'IT'
'Guilty_'
'Governing_'
'Financing_'
'Fed_'
'Entre_'
'Défense_'
'Drug_'
'Deputy_'
'DE'
'Constitutional_'
'Communication_'
'Case_'
'CO_'
'CN'
'CH'
'Bosnie_'
'Bi'
'BU'
'Aussi_'
'Appendix_'
'Ali'
'AL'
'52'
'200'
'1982_'
'14'
'#_'
' � _'
'île_'
'étudier_'
'é'
'âgées_'
'ye'
'workplace_'
'white_'
'wait_'
'voulu_'
'visits_'
'vieux_'
'vieille_'
'valid_'
'vac'
'tu'
'troupes_'
'treaties_'
'tre_'
'transmettre_'
'transfers_'
'traditionnelle_'
'topic_'
'tique_'
'tim'
'ters_'
'terrible_'
'terrace_'
'teachers_'
'surrounding_'
'supplied_'
'sub'
'strengthened_'
'stands_'
'st'
'ssement_'
'souveraineté_'
'souhaiterais_'
'sons_'
'someone_'
'soir_'
'sexuelle_'
'sensibles_'
'seeing_'
'sco'
'sample_'
'réchauffement_'
'ré'
'ry'
'rightly_'
'revient_'
'retrait_'
'resulted_'
'respondents_'
'rer_'
'représenter_'
'replaced_'
'rem'
'reliable_'
'refused_'
'recrutement_'
'reconciliation_'
'rea'
'raisonnable_'
'qui'
'quelconque_'
'puissant_'
'pu'
'présentent_'
'précieux_'
'promise_'
'proceed_'
'printemps_'
'preparing_'
'preliminary_'
'precise_'
'possibly_'
'pleasant_'
'platform_'
'pertinents_'
'pending_'
'peines_'
'passant_'
'partnerships_'
'parliament_'
'offence_'
'ocean_'
'occurred_'
'neuvième_'
'narrow_'
'mère_'
'myself_'
'moyennes_'
'mortality_'
'moments_'
'min_'
'micro'
'mettent_'
'metres_'
'mentale_'
'meant_'
'managing_'
'lits_'
'launch_'
'landscape_'
'ked_'
'judge_'
'ju'
'ite_'
'iri'
'interpretation_'
'industrielle_'
'illégale_'
'iens_'
'htm_'
'holder_'
'highlighted_'
'hauts_'
'handicapés_'
'génétique_'
'grants_'
'founded_'
'foster_'
'fixé_'
'fiscaux_'
'financed_'
'finale_'
'fill_'
'feeling_'
'fe'
'farming_'
'extreme_'
'expense_'
'exactly_'
'ery_'
'entreprendre_'
'engaged_'
'ends_'
'enables_'
'emplacement_'
'ef'
'dép'
'dro'
'drawing_'
'donnent_'
'disabilities_'
'directions_'
'diplomatique_'
'didn_'
'derived_'
'der'
'depth_'
'dependent_'
'demi_'
'croissant_'
'cro'
'criticism_'
'covering_'
'cooperate_'
'controlled_'
'consentement_'
'conformes_'
'clos_'
'ches_'
'centuries_'
'carefully_'
'ca'
'bu'
'broader_'
'box_'
'boost_'
'black_'
'biennal_'
'attitudes_'
'apprendre_'
'anniversaire_'
'angle_'
'ama'
'al'
'advantages_'
'adults_'
'adoptés_'
'Ye'
'War'
'Val'
'Tur'
'Tra'
'Thank_'
'Tel_'
'Sécurité_'
'Syria_'
'Swiss_'
'Suisse_'
'Stratégie_'
'SS'
'SR_'
'Results_'
'Rappelant_'
'Prodi_'
'Pre'
'Persons_'
'Pen'
'PS_'
'PS'
'PPE_'
'On'
'OP'
'Mé'
'Muslims_'
'Mon'
'Market_'
'MD'
'Line_'
'Liban_'
'Jordan_'
'Inn_'
'IC_'
'Heritage_'
'HE'
'GO'
'Friday_'
'Fo'
'Figure_'
'Et'
'En'
'Dis'
'Dia'
'DP'
'Clients_'
'Chypre_'
'Chair_'
'Ceux_'
'CIHR_'
'Bra'
'Barroso_'
'Autres_'
'Art_'
'Are_'
'Algeria_'
'Ai'
'Ad'
'Ac'
'AS'
'900_'
'51'
'46'
'212_'
'130_'
'13'
'105_'
'03'
', « _'
'):_'
'"'
' (_'
'…'
'е'
'éventuellement_'
'étroitement_'
'éra'
'équité_'
'élu_'
'è'
'á_'
'© _'
'window_'
'wider_'
'wall_'
'voit_'
'voice_'
'visa_'
'vin_'
'via'
'urged_'
'upper_'
'trente_'
'trans'
'tours_'
'to'
'tenter_'
'tenant_'
'tchèque_'
'tan'
'séjourner_'
'subsequently_'
'stimulus_'
'ssa'
'spécialement_'
'soutenue_'
'sky_'
'similaires_'
'significance_'
'seeks_'
'scolaire_'
'saisir_'
'répond_'
'ro'
'ri_'
'restructuring_'
'restriction_'
'resolved_'
'relevance_'
'relationships_'
'rejet'
'refers_'
'rail_'
'radio'
'racism_'
'périodes_'
'pé'
'pure_'
'présidents_'
'promised_'
'print_'
'presents_'
'prescriptions_'
'pr'
'pou'
'portent_'
'politically_'
'plage_'
'placement_'
'pin'
'phénomène_'
'physiques_'
'personnelle_'
'perception_'
'pensent_'
'pe'
'participent_'
'paramètres_'
'over'
'originally_'
'oriented_'
'observers_'
'nommé_'
'newly_'
'negotiated_'
'ncy_'
'municipal_'
'motifs_'
'modifiée_'
'mod'
'mit'
'minimal_'
'metal_'
'memory_'
'mat'
'load_'
'les'
'legitimacy_'
'latter_'
'lancement_'
'lam'
'kilomètres_'
'juges_'
'judges_'
'journaux_'
'joueurs_'
'ière_'
'italien_'
'internally_'
'inscrire_'
'ini'
'infractions_'
'ina'
'import_'
'imagine_'
'ically_'
'ible_'
'happy_'
'happens_'
'gon'
'gla'
'ge'
'garden_'
'fulfil_'
'fraud_'
'ford_'
'fo'
'filing_'
'ff'
'female_'
'eyes_'
'exploiter_'
'explanation_'
'expanded_'
'excess_'
'evaluate_'
'ev_'
'envoyé_'
'enjeux_'
'eni'
'enhancing_'
'enhanced_'
'enfance_'
'eighth_'
'economists_'
'déploiement_'
'définitive_'
'défini_'
'déclarer_'
'drop_'
'drogue_'
'distinct_'
'directeurs_'
'difficulty_'
'deployment_'
'deeply_'
'deemed_'
'decrease_'
'debates_'
'copyright_'
'coordinated_'
'continuous_'
'constitué_'
'consists_'
'considérés_'
'concernées_'
'con'
'complètement_'
'communiste_'
'combinaison_'
'chute_'
'certificate_'
'cal'
'blo'
'bis_'
'birth_'
'biologique_'
'bility_'
'biennium_'
'bars_'
'bains_'
'audio_'
'au'
'attended_'
'ato'
'ateur_'
'assisté_'
'artists_'
'apporte_'
'appliquée_'
'allons_'
'allocated_'
'aime_'
'agriculteurs_'
'adresser_'
'ade_'
'accompli_'
'aba'
'Travel_'
'Tele'
'TPS_'
'Stability_'
'Soudan_'
'Smoking_'
'Slovenia_'
'Shi'
'RES_'
'Projet_'
'Procedure_'
'Pact_'
'PP'
'PME_'
'Op'
'Montreal_'
'Monitoring_'
'Millénaire_'
'Irish_'
'Holy_'
'Ho'
'Gre'
'Georgia_'
'GI'
'Fin'
'Européenne_'
'Ed'
'Du_'
'Drugs_'
'Deuxième_'
'Conformément_'
'Conditions_'
'Click_'
'Charles_'
'Box_'
'Beau'
'BO'
'BE'
'BC_'
'Aucune_'
'Ag'
'Additional_'
'AP_'
'AB'
'90'
'47'
'45'
'37'
'1985_'
'129_'
')'
' ▪ _'
' %._'
'  _'
'л'
'ía_'
'établies_'
'élus_'
'élaboré_'
'écart_'
'western_'
'waters_'
'vé'
'visées_'
'visited_'
'virtually_'
'vi'
'verbal_'
'valoir_'
'vaccins_'
'universities_'
'universelle_'
'ul_'
'typical_'
'turning_'
'tures_'
'tt'
'totalité_'
'terminer_'
'temperature_'
'tab'
'suffisant_'
'suffered_'
'strict_'
'strength_'
'spring_'
'sovereignty_'
'sovereign_'
'soumises_'
'sortir_'
'somewhat_'
'soil_'
'sit'
'simplification_'
'seventh_'
'savent_'
'résultant_'
'résistance_'
'résidents_'
'réside_'
'réparation_'
'réglementations_'
'réglementaire_'
'récent_'
'rythme_'
'ruling_'
'retard_'
'retain_'
'restore_'
'repas_'
'remarks_'
'religieuses_'
'recorded_'
'reaction_'
'rds_'
'ram'
'rai_'
'quick_'
'puts_'
'pursuing_'
'prévoir_'
'providers_'
'preuves_'
'piscine_'
'pen'
'pdf_'
'paquet_'
'panel_'
'pan'
'pal'
'pain_'
'owner_'
'organise_'
'opa'
'ong_'
'oir_'
'offerts_'
'occuper_'
'occupe_'
'nés_'
'nu'
'neighbouring_'
'ned_'
'necessarily_'
'naturally_'
'médecine_'
'micro_'
'marks_'
'manufacturers_'
'mac'
'luxury_'
'lobby_'
'lin_'
'leisure_'
'leaving_'
'ken'
'justifier_'
'justification_'
'ji'
'invention_'
'internationally_'
'infraction_'
'indicates_'
'inclus_'
'in'
'immense_'
'ign'
'ich_'
'ians_'
'hoped_'
'head'
'harm_'
'gradually_'
'governing_'
'generated_'
'furniture_'
'fort'
'fondé_'
'fonctionner_'
'focusing_'
'flexibilité_'
'fla'
'fabricants_'
'expulsion_'
'exit_'
'exempt_'
'exclusively_'
'ethnique_'
'espérer_'
'esc'
'ere_'
'environments_'
'entre'
'entités_'
'entering_'
'engagé_'
'enabled_'
'employed_'
'eb'
'ea_'
'désa'
'déclare_'
'duquel_'
'ds'
'drivers_'
'dommages_'
'discharge_'
'disability_'
'diminution_'
'dignité_'
'différent_'
'dh'
'derrière_'
'demanding_'
'delegations_'
'dea'
'cutting_'
'customer_'
'conventional_'
'convaincre_'
'contribuent_'
'contents_'
'connected_'
'conciliation_'
'compréhension_'
'compagnie_'
'command'
'combine_'
'com'
'col'
'citizen_'
'ci'
'chief_'
'cars_'
'carrière_'
'cad'
'boom_'
'bo_'
'ber'
'beings_'
'bearing_'
'bande_'
'ave'
'automobile_'
'attempts_'
'ative_'
'appoint_'
'apparent_'
'annually_'
'ana_'
'advertising_'
'adi'
'adds_'
'acting_'
'accélérer_'
'accurate_'
'We'
'Very_'
'VO'
'VI'
'UNHCR_'
'Task_'
'TO'
'TI'
'Storage_'
'Statistics_'
'Statement_'
'Space_'
'Spa_'
'SE_'
'Ré'
'Reserve_'
'Requests_'
'Promotion_'
'Press_'
'Première_'
'Port'
'Os'
'Olympic_'
'OS_'
'OA'
'Net_'
'NRC_'
'Myanmar_'
'Morocco_'
'Merci_'
'List_'
'Libya_'
'Language_'
'Land'
'Jusqu_'
'James_'
'Jacques_'
'Investment_'
'ILO_'
'Hu'
'Head_'
'Having_'
'Fondation_'
'Evaluation_'
'Euro'
'Esta'
'Donc_'
'Desk_'
'Design_'
'Deposit_'
'Defence_'
'DVD_'
'Corporate_'
'Caraïbes_'
'Area_'
'AN'
'AI'
'84_'
'80'
'78_'
'76'
'71'
'68'
'57'
'1986_'
'17'
'.) _'
' «&_'
' /_'
'œuvres_'
'énormes_'
'énergétiques_'
'éli'
'électroniques_'
'échantillon_'
'Étant_'
'zi'
'yes_'
'workshop_'
'willing_'
'websites_'
'watch_'
'vouloir_'
'voies_'
'visas_'
'violences_'
'variables_'
'var'
'unions_'
'ules_'
'ud'
'u0027'
'touche_'
'totally_'
'titulaire_'
'theory_'
'tentatives_'
'tension_'
'talking_'
'tabac_'
'séminaire_'
'systématiquement_'
'sur'
'sun'
'sum_'
'succeed_'
'student_'
'sto'
'ssion_'
'spécialistes_'
'spo'
'speakers_'
'spa_'
'soin_'
'soi'
'signaler_'
'sell_'
'seat_'
'scolaires_'
'scheme_'
'salaire_'
'runs_'
'rr'
'roads_'
'risquent_'
'ris'
'rie'
'resistance_'
'reservation_'
'renouvelables_'
'relax_'
'refuse_'
'reconnaît_'
'ras'
'raciale_'
'que'
'père_'
'présentant_'
'propriétaire_'
'proposes_'
'privacy_'
'plaintes_'
'pièce_'
'partisans_'
'organizational_'
'ores_'
'opposite_'
'opportunités_'
'op_'
'ology_'
'oire_'
'nta'
'noté_'
'norms_'
'nez_'
'nette_'
'nets_'
'nc'
'nationals_'
'multi'
'mother_'
'morts_'
'morale_'
'monthly_'
'montants_'
'mono'
'moindre_'
'ming_'
'min'
'miles_'
'matériaux_'
'mant'
'maisons_'
'mailman_'
'législatives_'
'lo_'
'lla'
'linguistic_'
'lets_'
'lending_'
'land'
'jouent_'
'jardin_'
'iv_'
'island_'
'io'
'intéressant_'
'integrity_'
'insufficient_'
'initiated_'
'inequality_'
'indépendante_'
'ig'
'hundred_'
'houses_'
'honour_'
'hit_'
'hen'
'hautes_'
'gov_'
'gouvernementale_'
'golf_'
'gi'
'fédéraux_'
'futurs_'
'furent_'
'fication_'
'fax_'
'familiales_'
'falling_'
'extérieures_'
'extradition_'
'exploration_'
'exploit_'
'expensive_'
'evening_'
'estimé_'
'essentially_'
'espèce_'
'ens'
'endo'
'employeurs_'
'eli'
'déterminé_'
'dés'
'définit_'
'driven_'
'dose_'
'do'
'dly_'
'display_'
'de'
'dd'
'cycles_'
'couverture_'
'correction_'
'cor'
'conçu_'
'constitutes_'
'connaissent_'
'conjointement_'
'confort_'
'confirmation_'
'compléter_'
'competent_'
'comparison_'
'commit_'
'coffee_'
'coal_'
'clarify_'
'claimed_'
'cis'
'chu'
'chinoise_'
'cher'
'cheap_'
'char'
'capables_'
'camera_'
'calme_'
'bénéficient_'
'bilatéraux_'
'behaviour_'
'awarded_'
'aviation_'
'assumer_'
'assigned_'
'as'
'arriver_'
'arise_'
'apporté_'
'appartient_'
'anniversary_'
'améliorations_'
'alo'
'allant_'
'airports_'
'ain'
'affecting_'
'adverse_'
'admissible_'
'adjustments_'
'achievements_'
'] [_'
'Whether_'
'Wall_'
'Votre_'
'Uruguay_'
'UNECE_'
'UE'
'Terre_'
'Suite_'
'Square_'
'Sim'
'She'
'Rep'
'Reform_'
'Quel_'
'Publications_'
'Prix_'
'Prevention_'
'Plaza_'
'Place_'
'PRO'
'OI'
'Nuclear_'
'Ne_'
'NT'
'NEPAD_'
'ND'
'Monetary_'
'Mali_'
'Mala'
'Ma_'
'MS'
'Live_'
'Lithuania_'
'Lanka_'
'KE'
'José_'
'Insurance_'
'Headquarters_'
'Habitat_'
'HO'
'Guests_'
'Ger'
'GP'
'GH'
'Ex'
'Em'
'EA'
'Dutch_'
'Documents_'
'Disarmament_'
'Directorate_'
'Denmark_'
'Croatia_'
'Country_'
'Class_'
'Ci'
'Chinois_'
'Chile_'
'Char'
'Certes_'
'CANADA_'
'Ber'
'Ben_'
'Band'
'Autriche_'
'Arabie_'
'99'
'1974_'
'192'
'190'
'/'
'...._'
'))._'
'''_'
'" '
' ) _'
''
'ö'
'ï'
'évaluations_'
'équivalent_'
'»'
'zéro_'
'ym'
'yesterday_'
'witness_'
'verification_'
'venu_'
'vendre_'
'ura'
'université_'
'universitaires_'
'unity_'
'unfortunately_'
'undermine_'
'uli'
'twice_'
'travellers_'
'travaillé_'
'transferts_'
'tom'
'tol'
'thèmes_'
'ta'
'suffisante_'
'suffer_'
'subsidiary_'
'stressed_'
'speaker_'
'soviétique_'
'solely_'
'sions_'
'significative_'
'sh'
'sea'
'scientists_'
'savez_'
'sal'
'répercussions_'
'rédaction_'
'rh'
'repose_'
'remplacement_'
'religieux_'
'refuser_'
'recourir_'
'recall_'
'ratified_'
'qualifiés_'
'qua'
'pur'
'prévus_'
'programmation_'
'profondément_'
'processed_'
'proc'
'prescribed_'
'prenant_'
'pratiquement_'
'positifs_'
'plays_'
'placer_'
'piece_'
'permits_'
'passée_'
'passengers_'
'particulières_'
'paquets_'
'owners_'
'outlined_'
'oublier_'
'ote'
'os'
'ordinaires_'
'ons'
'occidental_'
'obviously_'
'né'
'non'
'new'
'neu'
'naturellement_'
'nationality_'
'mus'
'mu'
'monuments_'
'mol'
'ministérielle_'
'minibar_'
'matériels_'
'lue'
'lowest_'
'lou'
'logistique_'
'lla_'
'lim'
'legally_'
'leaves_'
'jurisdictions_'
'journalists_'
'journalistes_'
'joue_'
'jeunesse_'
'ières_'
'it'
'isolation_'
'invités_'
'indiquent_'
'incorporated_'
'incompatible_'
'incapacité_'
'illes_'
'honourable_'
'holders_'
'hardly_'
'handling_'
'gé'
'furnished_'
'ft'
'fournisseur_'
'fournie_'
'foot'
'fondées_'
'flo'
'fle'
'financé_'
'fat'
'facultatif_'
'facto_'
'exactement_'
'everywhere_'
'essayer_'
'equity_'
'entrepreneurs_'
'entity_'
'eng'
'encourages_'
'déterminée_'
'démo'
'disputes_'
'discussing_'
'directs_'
'diminué_'
'diff'
'di'
'devaient_'
'destroy_'
'dangers_'
'crédibilité_'
'credibility_'
'creative_'
'courte_'
'counter'
'corporation_'
'contraintes_'
'constraints_'
'constaté_'
'consolider_'
'considèrent_'
'condamné_'
'complémentaires_'
'commandes_'
'collected_'
'co'
'cm_'
'cles_'
'chapter_'
'chap_'
'chan'
'certes_'
'can'
'bâtiments_'
'brings_'
'borne_'
'bilan_'
'berg_'
'beds_'
'attractions_'
'ati'
'ateliers_'
'assessments_'
'assa'
'asiatique_'
'asi'
'army_'
'appropriés_'
'ap'
'answers_'
'ancient_'
'aménagement_'
'alliés_'
'allies_'
'alcohol_'
'ain_'
'ae'
'adopte_'
'Yes_'
'Winnipeg_'
'WC_'
'Vietnam_'
'Tunisia_'
'Terr'
'TE'
'Star'
'Sin'
'Se_'
'Schengen_'
'Sau'
'Sar'
'SF'
'Rotary_'
'Region_'
'Recalling_'
'RT'
'RR'
'RI_'
'Qui_'
'Post'
'Para'
'Par'
'PM'
'Natural_'
'Nat'
'Musée_'
'Mozambique_'
'Mad'
'MP_'
'ME_'
'MENT_'
'Leur_'
'Lettre_'
'LC'
'Kar'
'Intergovernmental_'
'Index_'
'IE'
'Hungary_'
'Géorgie_'
'Guinée_'
'Growth_'
'GST_'
'Fu'
'Find_'
'Eu'
'Environnement_'
'Developing_'
'Desjardins_'
'DU'
'Crime_'
'Cre'
'Cour'
'Coordination_'
'Col'
'Cit'
'Cha'
'Ce'
'Capital_'
'CL'
'CB'
'Bulgarie_'
'Bu'
'Black_'
'Bal'
'Aucun_'
'Assistant_'
'Ambassadeur_'
'About_'
'87'
'76_'
'61'
'36'
'1979_'
'1950_'
'), (_'
') : _'
'' '
'%) _'
' –_'
' ;_'
'�'
'  _'
'р'
'н'
'и'
'éventail_'
'établie_'
'énergies_'
'âgés_'
' (_'
'yr'
'wonderful_'
'warming_'
'ware_'
'wake_'
'vols_'
'voitures_'
'visiting_'
'visent_'
'victory_'
'vez_'
'ventes_'
'vais_'
'télé'
'tobacco_'
'théorie_'
'temporaire_'
'swi'
'supérieurs_'
'streets_'
'store_'
'stone_'
'stockage_'
'stars_'
'stages_'
'solve_'
'solides_'
'slightly_'
'similaire_'
'seules_'
'seemed_'
'résulte_'
'réflexion_'
'réagir_'
'rta'
'ros'
'river_'
'reçoit_'
'returning_'
'ressource_'
'ressort_'
'respectively_'
'requérant_'
'requiring_'
'requiert_'
'requesting_'
'removed_'
'remind_'
'reject_'
'regulated_'
're'
'rai'
'pêcheurs_'
'push_'
'pursued_'
'ption_'
'prête_'
'prés'
'protégés_'
'promoted_'
'profession_'
'producer_'
'pri'
'pressures_'
'poursuit_'
'pos'
'ple'
'patterns_'
'partenaire_'
'parlements_'
'para'
'papier_'
'oui_'
'ought_'
'organs_'
'ordinateurs_'
'ordinaire_'
'or'
'opérationnel_'
'opportunité_'
'ona'
'ologie_'
'objets_'
'object_'
'négatif_'
'notably_'
'no'
'na'
'mountains_'
'mou'
'mer'
'medicine_'
'meat_'
'maximale_'
'mariage_'
'magnifique_'
'ly'
'lundi_'
'longues_'
'limité_'
'lecteur_'
'lac_'
'laboratoire_'
'lab'
'killing_'
'ker'
'kar'
'journal_'
'ji_'
'jan'
'iz'
'ito'
'ists_'
'ises_'
'isa'
'institutionnels_'
'inquiète_'
'industriels_'
'indu'
'incluant_'
'importantly_'
'impl'
'ime_'
'ignorance_'
'ib'
'hotels_'
'hier_'
'hi_'
'hes_'
'hat'
'happening_'
'ham_'
'guère_'
'gra'
'gg'
'generations_'
'gan_'
'gan'
'ga'
'franc_'
'formule_'
'fixe_'
'finds_'
'fils_'
'filed_'
'feuille_'
'exposés_'
'exposed_'
'eva'
'ert'
'erie_'
'enjoyed_'
'empire_'
'ell_'
'earth_'
'détection_'
'déposé_'
'dépasse_'
'démographique_'
'décès_'
'découlant_'
'durables_'
'driving_'
'dons_'
'discovered_'
'discipline_'
'diplomacy_'
'diminuer_'
'dia'
'devenus_'
'destroyed_'
'democracies_'
'currencies_'
'ct_'
'cri'
'covers_'
'cou'
'correctly_'
'corner_'
'constantly_'
'connus_'
'connaît_'
'conjunction_'
'confronté_'
'confirmer_'
'colour_'
'coastal_'
'cli'
'claimant_'
'civilians_'
'citoyenneté_'
'cells_'
'cards_'
'carburant_'
'cana'
'café_'
'bur'
'boissons_'
'biologiques_'
'begun_'
'avion_'
'autonomie_'
'ase'
'art'
'appropriations_'
'approches_'
'apportées_'
'appeler_'
'apparition_'
'ano_'
'ani'
'amend_'
'alt'
'alleged_'
'ajoutée_'
'aimerais_'
'admissibles_'
'accru_'
'accordingly_'
'accompanied_'
'accepte_'
'aa'
'Yougoslavie_'
'Will_'
'Who_'
'Version_'
'Times_'
'Thursday_'
'Th'
'Tan'
'Tal'
'TIR_'
'Sho'
'Several_'
'Salle_'
'Sala'
'SD'
'Rob'
'Rio_'
'Rien_'
'Records_'
'Rather_'
'Qua'
'Pres'
'Pin'
'Pierre_'
'Pat'
'Palais_'
'Optional_'
'OT'
'OIT_'
'Nicolas_'
'Net'
'Nairobi_'
'Mus'
'Medical_'
'MC'
'Lu'
'Ju'
'Islands_'
'Industrial_'
'Income_'
'ISO_'
'IONS_'
'ING_'
'Hol'
'HP_'
'HI'
'Gro'
'Gh'
'Garden_'
'Games_'
'Funds_'
'Fundamental_'
'Franc'
'Form_'
'Finances_'
'Festival_'
'ET'
'EE'
'Digital_'
'Des'
'Danemark_'
'Cra'
'Cop'
'Conf'
'Communities_'
'Commissariat_'
'Centres_'
'Bou'
'Avis_'
'Among_'
'AG'
'AA'
'>'
'98'
'86'
'77'
'69'
'55'
'53'
'48'
'41'
'350_'
'26'
'1990s_'
'08'
'01'
'+'
' − _'
' : (_'
' - _'
''
''
'• '
'”_'
'т'
'ü'
'éta'
'équipées_'
'élevées_'
'électro'
'électoral_'
'élargir_'
'écrite_'
'Écosse_'
'¨_'
' ;_'
'work'
'we'
'war'
'vité_'
'videos_'
'veto_'
'veri'
'vement_'
'vaccination_'
'undoubtedly_'
'trip_'
'trials_'
'trains_'
'traduit_'
'traditionnel_'
'tourner_'
'ths_'
'the'
'tar'
'tain'
'sérieusement_'
'systematic_'
'syndicats_'
'suspected_'
'surprise_'
'supporters_'
'sufficiently_'
'subs'
'stupéfiants_'
'ster'
'ste'
'stabilisation_'
'ssions_'
'spe'
'soutiennent_'
'soumise_'
'sor'
'situés_'
'situe_'
'sinon_'
'shops_'
'septième_'
'sentiments_'
'sen'
'season_'
'révisé_'
'rétablissement_'
'réglementaires_'
'rues_'
'rs'
'rp'
'roots_'
'roles_'
'reçues_'
'rest'
'residents_'
'resident_'
'remarques_'
'refus_'
'recognised_'
'realistic_'
'rce'
'rating_'
'rati'
'ract'
'racial_'
'quotidienne_'
'quelles_'
'quasi_'
'quantities_'
'pti'
'précédente_'
'provenance_'
'prot'
'prospect_'
'proposés_'
'produisent_'
'primaire_'
'pretty_'
'preserve_'
'preparatory_'
'prefer_'
'prec'
'pourrons_'
'port'
'politiciens_'
'pointe_'
'po_'
'plats_'
'plane_'
'pie'
'periodic_'
'peri'
'performed_'
'passenger_'
'pairs_'
'ou'
'osi'
'ore_'
'ome'
'ole'
'offert_'
'octroi_'
'occurring_'
'occidentale_'
'oa'
'nse'
'none_'
'ninth_'
'métro_'
'm²_'
'mor'
'moderate_'
'mma'
'man'
'mad'
'légitime_'
'lon'
'logy_'
'lived_'
'lin'
'license_'
'lc'
'judiciary_'
'jointly_'
'izing_'
'ish_'
'irs_'
'intergouvernementales_'
'intense_'
'intend_'
'int_'
'instant_'
'inquiétudes_'
'initiale_'
'inevitable_'
'indemnisation_'
'implies_'
'impa'
'ignore_'
'if'
'idi'
'identifying_'
'humans_'
'hing_'
'hin'
'han_'
'géographique_'
'gratitude_'
'granting_'
'gli'
'gift_'
'gh_'
'ged_'
'gathered_'
'fy_'
'fra'
'faux_'
'fa'
'eye_'
'explicitly_'
'existant_'
'exigence_'
'exclusivement_'
'excellente_'
'eta'
'estimation_'
'es'
'ero'
'environmentally_'
'enterprise_'
'ent'
'enregistrés_'
'ending_'
'employeur_'
'elo'
'ela'
'ek_'
'economically_'
'ea'
'détermination_'
'désigné_'
'député_'
'démocraties_'
'drinks_'
'dre_'
'dominant_'
'domicile_'
'divorce_'
'districts_'
'dissemination_'
'disposal_'
'dis'
'devises_'
'devise_'
'desirable_'
'definitions_'
'cru'
'credits_'
'couples_'
'continental_'
'constate_'
'confidentialité_'
'concernent_'
'concepts_'
'compos'
'commissaires_'
'cold_'
'coast_'
'clo'
'clientèle_'
'civiles_'
'circuit_'
'chrétiens_'
'channels_'
'campagnes_'
'bulletin_'
'brevet_'
'bour'
'bea'
'bb'
'bath_'
'bateaux_'
'bataille_'
'axée_'
'award_'
'avancée_'
'augmente_'
'audience_'
'auberge_'
'ast'
'appartements_'
'ano'
'annulation_'
'amp'
'amongst_'
'ambition_'
'ambi'
'ale'
'ak_'
'ai'
'affects_'
'adopting_'
'administered_'
'adding_'
'acquitter_'
'acid_'
'accordé_'
'accomplir_'
'ac_'
'Zi'
'Wii_'
'Village_'
'USB_'
'US'
'Trois_'
'Tre'
'Tour_'
'Top_'
'Through_'
'Thomas_'
'Team_'
'Tableau_'
'TELUS_'
'TA_'
'Sun_'
'Sou'
'Singapore_'
'Search_'
'SS_'
'SMEs_'
'Rou'
'Risk_'
'Richard_'
'Pérou_'
'Pu'
'Province_'
'Property_'
'Professional_'
'Process_'
'Pra'
'Play'
'Ph'
'Permettez_'
'Pay'
'Pas_'
'Part'
'POUR_'
'PN'
'Oui_'
'Off'
'OD'
'Multi'
'Mor'
'Mont'
'Maroc_'
'Mahmoud_'
'MS_'
'MP'
'MI'
'Lula_'
'Location_'
'Local_'
'Lar'
'Lab'
'Kha'
'Keynes_'
'Joseph_'
'Johannesburg_'
'Indi'
'IL'
'IG'
'IA'
'Hour_'
'Hel'
'Gestion_'
'Geo'
'Ga'
'GU'
'GN'
'GE_'
'Experts_'
'Enjoy_'
'Edition_'
'ES'
'ED'
'Cultural_'
'Copyright_'
'Chávez_'
'Chili_'
'Change_'
'Casino_'
'Canadiennes_'
'Can'
'CI_'
'Building_'
'Bro'
'Bosnia_'
'Beach_'
'Be_'
'Ban'
'BL'
'Ayant_'
'Arts_'
'Arr'
'Arm'
'Appeal_'
'Annual_'
'Afghan_'
'Accordingly_'
'AU_'
'ASEAN_'
'94'
'91'
'87_'
'75'
'67'
'65'
'63'
'59'
'56'
'35'
'1981_'
'189'
'180_'
'103_'
'..." _'
'.&_'
'', _'
'!'
' » '
' + _'
' "..._'
''
''
'”'
'’._'
'éva'
'éti'
'étais_'
'émergents_'
'église_'
'égi'
'éb'
'ènes_'
'« _'
' »'
'yn'
'yl_'
'ye_'
'yd'
'xy'
'ws_'
'wrote_'
'voulez_'
'voici_'
'vide_'
'viande_'
'vent_'
'vendredi_'
'venant_'
'valable_'
'urgency_'
'ure'
'uns'
'unprecedented_'
'unlike_'
'unilateral_'
'unification_'
'underway_'
'un'
'uk'
'trouvant_'
'treat_'
'tragedy_'
'tors_'
'tone_'
'tolérance_'
'thé'
'texts_'
'textile_'
'terror_'
'tea'
'tap'
'talent_'
'tackle_'
'systemic_'
'symbol_'
'survie_'
'surely_'
'suprême_'
'super'
'subjects_'
'strike_'
'stories_'
'stic_'
'stagnation_'
'sson_'
'sso'
'soutiens_'
'signes_'
'sheets_'
'she'
'sensibiliser_'
'sement_'
'sel'
'schemes_'
'sanitaires_'
'safeguard_'
'révélé_'
'réservation_'
'rédigé_'
'ré_'
'règne_'
'rum_'
'rm'
'retrouve_'
'retained_'
'resort_'
'reproductive_'
'reply_'
'renovated_'
'renforcé_'
'remarquer_'
'relancer_'
'ree'
'rece'
'rares_'
'quitter_'
'qualifications_'
'purchased_'
'puissances_'
'préservation_'
'préparatoire_'
'précision_'
'prostitution_'
'profondes_'
'profonde_'
'profil_'
'professionnel_'
'proches_'
'primaires_'
'pricing_'
'prescription_'
'possibilities_'
'portefeuille_'
'poorest_'
'pli'
'plate_'
'pilotes_'
'pierre_'
'phones_'
'pha'
'persistent_'
'permettront_'
'pencher_'
'par'
'ora'
'optional_'
'onto_'
'officiellement_'
'offences_'
'objects_'
'objection_'
'nécessairement_'
'negotiate_'
'nearby_'
'naturelle_'
'moteurs_'
'missiles_'
'militants_'
'mi'
'men'
'mari'
'marge_'
'manufacture_'
'macroeconomic_'
'légale_'
'log'
'lles_'
'liquidity_'
'library_'
'lettres_'
'leads_'
'lancée_'
'laissé_'
'jugement_'
'judiciaires_'
'jo'
'ite'
'iso'
'inégalités_'
'intérieures_'
'intégrés_'
'intern'
'integral_'
'inspections_'
'inscription_'
'inférieur_'
'individuels_'
'incon'
'imported_'
'imaginer_'
'ignored_'
'ie'
'ication_'
'hôte_'
'hébergement_'
'hyper'
'hundreds_'
'hospitals_'
'hospital_'
'hoo'
'hon'
'hauteur_'
'handed_'
'géo'
'guilty_'
'greenhouse_'
'grateful_'
'grain_'
'gna'
'glo'
'gestionnaires_'
'ger'
'garantit_'
'fé'
'fréquence_'
'freely_'
'fre'
'frame_'
'fournissent_'
'forests_'
'fleet_'
'fixer_'
'fiscales_'
'fiabilité_'
'fell_'
'feed_'
'fee_'
'favor_'
'fairly_'
'facilitation_'
'extra'
'export'
'expanding_'
'excédent_'
'exceed_'
'evolution_'
'ett'
'erg'
'entière_'
'ennes_'
'endroits_'
'endorse_'
'emprisonnement_'
'emphasise_'
'emerged_'
'ein'
'edge_'
'démontré_'
'définies_'
'déc'
'débattre_'
'dé'
'douche_'
'donors_'
'donnant_'
'don'
'dizaines_'
'dites_'
'disk_'
'disa'
'différends_'
'dic'
'destinée_'
'designs_'
'demandeurs_'
'defend_'
'defeat_'
'deaths_'
'côte_'
'créée_'
'créant_'
'creates_'
'cre'
'couleurs_'
'cosy_'
'constante_'
'consolidate_'
'considérées_'
'consequence_'
'conseiller_'
'conf'
'conduire_'
'concrets_'
'compétents_'
'comprises_'
'complicated_'
'competitors_'
'compare_'
'colleague_'
'coherent_'
'citoyen_'
'citizenship_'
'cies_'
'checks_'
'chargés_'
'charbon_'
'changé_'
'chain_'
'broadly_'
'bon'
'blanc_'
'bit'
'bis'
'bill_'
'bil'
'bedrooms_'
'automobiles_'
'authors_'
'atténuer_'
'attentats_'
'ath'
'atelier_'
'arrière_'
'arrived_'
'appelée_'
'apparaît_'
'ane_'
'ajoute_'
'ais'
'aid'
'agré'
'agissait_'
'afford_'
'admis_'
'acknowledged_'
'accept'
'Win'
'West'
'Wa'
'Video_'
'VA'
'Trésor_'
'TVH_'
'Survey_'
'Super'
'Slovakia_'
'Skype_'
'Should_'
'Senior_'
'Self_'
'Sciences_'
'Salvador_'
'SC'
'Reports_'
'Ren'
'Relations_'
'Recherche_'
'Quelle_'
'Puis_'
'Ps_'
'Programs_'
'Product_'
'Premièrement_'
'Pla'
'Peru_'
'Patrimoine_'
'Patent_'
'Past'
'Parliamentary_'
'PU'
'PL_'
'Numéro_'
'Newfoundland_'
'Name_'
'Med'
'Meanwhile_'
'Make_'
'MAR'
'Libye_'
'Letter_'
'Len'
'Languages_'
'Kazakhstan_'
'KI'
'Journée_'
'Jewish_'
'Hon'
'Han'
'Hague_'
'HST_'
'GL'
'Funding_'
'Firstly_'
'Film_'
'Ethiopia_'
'EE_'
'Durant_'
'Donald_'
'Does_'
'DS'
'DP_'
'Competition_'
'Catholic_'
'CF_'
'Bus'
'Bur'
'Budgetary_'
'Bru'
'Bir'
'Assessment_'
'Articles_'
'Anti_'
'Anti'
'Angleterre_'
'And'
'Ale'
'AF'
';?_'
'97'
'9'
'85'
'82'
'78'
'74'
'60'
'360_'
'205_'
'1978_'
'1373_'
'115_'
'05'
') – _'
' »'
' ] _'
''
' '
'’'
'с'
'ï_'
'étiquetage_'
'éné'
'émis_'
'ém'
'élève_'
'économistes_'
'échantillons_'
'â_'
'°_'
'{_'
'zz'
'zar'
'yl'
'withdrawal_'
'withdraw_'
'winning_'
'wind_'
'wave_'
'voient_'
'vit_'
'vin'
'varied_'
'validation_'
'usual_'
'uri'
'uranium_'
'ult'
'ule_'
'té'
'tue'
'trou'
'tou'
'tons_'
'tolerance_'
'tle_'
'tis'
'tifs_'
'tic'
'thirty_'
'thirds_'
'tenus_'
'taxi_'
'tarifs_'
'séparation_'
'séminaires_'
'sée_'
'symptômes_'
'swimming_'
'sustained_'
'survive_'
'suppose_'
'super_'
'suggéré_'
'suggestion_'
'succession_'
'subvention_'
'subsidiarité_'
'subir_'
'stra'
'stance_'
'solde_'
'sold_'
'sol'
'sna'
'sle'
'skin_'
'ski'
'signing_'
'signalé_'
'shortly_'
'serves_'
'serre_'
'segment_'
'secondaire_'
'seats_'
'scrutin_'
'schedule_'
'sc_'
'saisi_'
'résumé_'
'réductions_'
'réalisations_'
'rices_'
'rg'
'reçoivent_'
'revêt_'
'reviewing_'
'revealed_'
'ressortissants_'
'responded_'
'respected_'
'repeat_'
'rend'
'regardless_'
'reg'
'realize_'
'rapides_'
'rant_'
'range'
'rance_'
'ralentissement_'
'ral_'
'rable_'
'quota_'
'quit'
'quantités_'
'préjudice_'
'précises_'
'provider_'
'prouvé_'
'profound_'
'printed_'
'pour'
'portable_'
'pon'
'planet_'
'pick_'
'phrase_'
'phases_'
'permission_'
'ped_'
'parliaments_'
'paras_'
'pacte_'
'oxy'
'ova'
'ote_'
'op'
'ont'
'ong'
'one'
'ond'
'ok'
'oi'
'occurrence_'
'obliged_'
'nted_'
'nn'
'nit'
'nie_'
'nettoyage_'
'ner'
'nde'
'named_'
'méta'
'montagne_'
'modest_'
'mid'
'metro_'
'mere_'
'meets_'
'measured_'
'meal_'
'mati'
'mani'
'mandatory_'
'malaria_'
'lor'
'looked_'
'loisirs_'
'll'
'lis'
'likelihood_'
'liberalisation_'
'leçons_'
'lawyers_'
'late'
'lat'
'kt'
'knew_'
'kin_'
'ke'
'justify_'
'justified_'
'judgment_'
'ités_'
'ities_'
'isse'
'israélienne_'
'isi'
'ional_'
'invested_'
'inu'
'intégrité_'
'intimidation_'
'intensive_'
'inhabitants_'
'informés_'
'indépendants_'
'indiquant_'
'incident_'
'inca'
'impressive_'
'illicit_'
'il'
'ig_'
'ida'
'hy'
'hunger_'
'holiday_'
'highlight_'
'her'
'headed_'
'han'
'gross_'
'gratuit_'
'gouverneur_'
'gne_'
'foyers_'
'forums_'
'fortes_'
'formulées_'
'fonctionnalités_'
'flag_'
'finished_'
'filled_'
'fat_'
'familiar_'
'faisait_'
'faim_'
'fails_'
'ext'
'exporter_'
'exiger_'
'exchanges_'
'examining_'
'estate_'
'ered_'
'ere'
'envergure_'
'entraîné_'
'enseignants_'
'ene'
'ences_'
'emphasized_'
'ema'
'een_'
'eco'
'détaillées_'
'déplacement_'
'dél'
'dre'
'doutes_'
'doctrine_'
'dispositifs_'
'displayed_'
'disparition_'
'dirigeant_'
'din'
'dial_'
'describe_'
'dep'
'decides_'
'dece'
'dat'
'damaging_'
'crop_'
'critère_'
'couvrir_'
'contenus_'
'considerations_'
'conjointe_'
'conducting_'
'computers_'
'comportements_'
'compete_'
'combler_'
'colonies_'
'classique_'
'claires_'
'cla'
'civilisation_'
'citer_'
'certainty_'
'cellules_'
'cell_'
'ce'
'cations_'
'catch_'
'bénéfice_'
'buts_'
'brutal_'
'booking_'
'blue_'
'ble'
'blame_'
'biological_'
'bet'
'belles_'
'beauty_'
'awa'
'autorisé_'
'automatic_'
'auspices_'
'aurez_'
'assessing_'
'ascenseur_'
'arrest_'
'approve_'
'apport_'
'applying_'
'appartenance_'
'apartment_'
'annuels_'
'and'
'amour_'
'ambitieux_'
'allemande_'
'aggregate_'
'agence_'
'aged_'
'ach'
'accorde_'
'accompagné_'
'acceptation_'
'abuses_'
'`_'
'Xbox_'
'Well_'
'WHO_'
'WA'
'Vienne_'
'Vi'
'Until_'
'Type_'
'Tro'
'Tony_'
'Tha'
'TP'
'T4'
'Sul'
'Sub'
'Studies_'
'Stu'
'Standard_'
'Solana_'
'Similarly_'
'Senate_'
'Seigneur_'
'Sch'
'SE'
'Roman_'
'Resolution_'
'Red'
'Rece'
'RP_'
'RP'
'RES'
'Quality_'
'Qatar_'
'Prot'
'Proc'
'Poutine_'
'Population_'
'Po'
'PE_'
'Outre_'
'Out_'
'Ombudsman_'
'NA_'
'Movement_'
'Minutes_'
'Mil'
'Micro'
'Mexican_'
'Me'
'Main_'
'Mah'
'MHz_'
'MB_'
'Long_'
'Located_'
'Lei'
'Land_'
'Kremlin_'
'Kirk_'
'Kat'
'Item_'
'Introduction_'
'Ibid_'
'ION_'
'IO'
'IBM_'
'Hau'
'Hand'
'Get_'
'For'
'Fifth_'
'FS'
'FOR_'
'FC_'
'Examen_'
'Ensuite_'
'Empire_'
'EX'
'Discrimination_'
'Directors_'
'DC'
'DA_'
'Consumer_'
'Conduct_'
'Compliance_'
'College_'
'Cho'
'Chan'
'Cap'
'Camp'
'Cabinet_'
'CON'
'CEO_'
'CAN_'
'Budapest_'
'Blue_'
'Bell_'
'BM'
'Autre_'
'Audit_'
'Algérie_'
'Albania_'
'Ala'
'Air'
'AA_'
'> _'
':'
'963_'
'89'
'84'
'81'
'1984_'
'1967_'
'125_'
'1000_'
'100'
'.  _'
'.  _'
'-'
''
'év'
'étage_'
'ési'
'épreuve_'
'écouter_'
'È'
'«_'
'~_'
'yt'
'yo'
'wise_'
'whereby_'
'welcoming_'
'wal'
'voulait_'
'visitors_'
'visites_'
'vies_'
'victim_'
'vessels_'
'veness_'
'ven'
'vas'
'utilité_'
'ussi'
'undertakings_'
'und'
'trouble_'
'trillion_'
'tree_'
'transp'
'touchés_'
'tori'
'title_'
'tis_'
'tiques_'
'tiennent_'
'tiendra_'
'ti'
'tent'
'tendant_'
'tea_'
'taught_'
'sés_'
'séances_'
'surmonter_'
'surgi'
'striking_'
'strai'
'stopped_'
'ssant_'
'spaces_'
'souci_'
'sortes_'
'sondages_'
'son'
'sols_'
'socialiste_'
'slow_'
'sli'
'sive_'
'simultanément_'
'short'
'sexuels_'
'sensitivity_'
'segments_'
'seconds_'
'secondaires_'
'scénarios_'
'screening_'
'score_'
'sca'
'sam'
'saison_'
'saine_'
'réunir_'
'réjouis_'
'régulation_'
'réduisant_'
'réci'
'ru'
'rre'
'roughly_'
'rivière_'
'rid_'
'richesse_'
'revue_'
'revision_'
'restructuration_'
'respectivement_'
'reservations_'
'requises_'
'remo'
'remarque_'
'remarquable_'
'relates_'
'rejection_'
'reductions_'
'recruitment_'
'recon'
'reasonably_'
'readily_'
'ranging_'
'ran_'
'quent_'
'quat'
'pursuit_'
'purely_'
'purchasing_'
'purchases_'
'punishment_'
'pt'
'psycho'
'présidentielle_'
'préliminaire_'
'prohibited_'
'progressivement_'
'procédé_'
'pressing_'
'prenantes_'
'preferred_'
'power'
'poursuites_'
'positives_'
'pol'
'poissons_'
'pleasure_'
'play'
'pilot_'
'photo'
'perceived_'
'pensée_'
'pel_'
'pay'
'pauvre_'
'passing_'
'partition_'
'ound'
'onc'
'ok_'
'odi'
'objections_'
'nutrition_'
'numériques_'
'nna'
'nic'
'naturels_'
'médicale_'
'multinational_'
'motif_'
'mos'
'module_'
'mobiliser_'
'mistake_'
'ministerial_'
'milieux_'
'meters_'
'mem'
'measurement_'
'mas'
'manifest'
'lés_'
'légèrement_'
'luxe_'
'livraison_'
'lité_'
'listen_'
'lisation_'
'liquidités_'
'libération_'
'libres_'
'lev'
'lesson_'
'lea'
'lation_'
'lan'
'lac'
'kl'
'kit_'
'journey_'
'iser_'
'ior'
'investi'
'intéressées_'
'interdire_'
'intensité_'
'integrate_'
'institutionnelle_'
'instability_'
'insister_'
'initially_'
'infringement_'
'individually_'
'incombe_'
'inclusive_'
'incertitude_'
'incentive_'
'inadequate_'
'inacceptable_'
'importer_'
'impliqués_'
'impasse_'
'imm'
'ight_'
'ifs_'
'ied_'
'hôpital_'
'hor'
'hood_'
'hiver_'
'has'
'handicapées_'
'hair_'
'h00_'
'guerres_'
'graphique_'
'grade_'
'gne'
'gin'
'generating_'
'gard'
'fun_'
'fri'
'frequency_'
'foundations_'
'fortune_'
'formé_'
'forestry_'
'foods_'
'fixés_'
'firstly_'
'ffi'
'ferr'
'fate_'
'faillite_'
'extérieurs_'
'explosion_'
'exemplaire_'
'excuse_'
'excluded_'
'exciting_'
'evident_'
'essentielles_'
'ess'
'eraient_'
'entrave'
'enta'
'enf'
'endorsed_'
'ena'
'emission_'
'em_'
'electro'
'ei'
'ee_'
'ecological_'
'eastern_'
'earned_'
'dûment_'
'détaillée_'
'déséquilibres_'
'désir_'
'dépendance_'
'dég'
'driver_'
'doubles_'
'douanes_'
'dominated_'
'dm'
'discuter_'
'disclosure_'
'disc'
'disabled_'
'dis_'
'différente_'
'devoted_'
'devo'
'def'
'deb'
'deals_'
'dark_'
'cui'
'cting_'
'cti'
'créés_'
'crossing_'
'croit_'
'credible_'
'court'
'courante_'
'cour_'
'counselling_'
'cote_'
'corr'
'converti'
'convenu_'
'contribuable_'
'contradiction_'
'continué_'
'contemporary_'
'considerably_'
'consacrée_'
'connections_'
'conformity_'
'commencement_'
'comm'
'clauses_'
'classified_'
'clarification_'
'church_'
'cessation_'
'cere'
'cer'
'causé_'
'causing_'
'cargo_'
'capitalisme_'
'camp'
'buying_'
'bud'
'bref_'
'br'
'boat_'
'bla'
'bin'
'belonging_'
'bel'
'avais_'
'auto_'
'austerity_'
'aurons_'
'attract_'
'attendant_'
'ate'
'at'
'assister_'
'assign'
'assemblée_'
'array_'
'arde'
'approfondie_'
'appren'
'appliquées_'
'apparently_'
'annoncer_'
'am'
'allowance_'
'allo'
'alliances_'
'alité_'
'ajouté_'
'air'
'affirmer_'
'ado_'
'adapted_'
'acknowledge_'
'aci'
'accusé_'
'academic_'
'abandoned_'
']'
'Zu'
'XXIe_'
'XI'
'Works_'
'Wi'
'Wednesday_'
'WH'
'WE'
'Vienna_'
'VAT_'
'UNEP_'
'Travail_'
'Tor'
'Thaïlande_'
'Terrorism_'
'TF'
'Système_'
'Syn'
'Symantec_'
'Study_'
'Spirit_'
'Southern_'
'Sir_'
'Series_'
'Sector_'
'Sales_'
'Sal'
'SM'
'SL'
'Round_'
'Right_'
'Rev_'
'Ressources_'
'Recent_'
'Rate_'
'RU'
'RSS_'
'RD'
'Proactive_'
'Prie_'
'Premières_'
'Paragraphe_'
'PSE_'
'PRE'
'PR'
'PES'
'PER'
'Ou'
'Original_'
'Opportunities_'
'Online_'
'Oil_'
'Nor'
'Next_'
'Nation_'
'NPT_'
'NO_'
'Mugabe_'
'Mos'
'Mondiale_'
'Mel'
'Measures_'
'Mari'
'Map'
'MONUC_'
'MM'
'Lé'
'Lan'
'Ky'
'Ke'
'Jesus_'
'Jerusalem_'
'Inter_'
'Ing'
'INTER'
'Herzégovine_'
'Help_'
'Heads_'
'Gentoo_'
'Ge'
'Gaulle_'
'GRA'
'Full_'
'Fran'
'Fra'
'Forest_'
'Flo'
'Fer'
'FR'
'FC'
'Eng'
'END'
'District_'
'Disclosure_'
'Der'
'Democracy_'
'Decides_'
'DO_'
'Copenhague_'
'Copenhagen_'
'Comp'
'Communist_'
'Chu'
'CHA'
'CA_'
'Burma_'
'Botswana_'
'Bon'
'Berlusconi_'
'Bene'
'Base_'
'Bas'
'Barcelone_'
'BS'
'B5_'
'Az'
'App'
'Ann'
'Analysis_'
'Ah'
'Abbas_'
'AV'
'ASFC_'
'AF_'
'72'
'201_'
'1983_'
'1973_'
'1930_'
'170_'
'109_'
'02'
'() _'
'%'
' €_'
' -, _'
' '
''
'ó'
'équilibrée_'
'éo'
'énoncés_'
'électriques_'
'» (_'
'|_'
'yst'
'you'
'xa'
'writer_'
'workforce_'
'wood'
'wished_'
'whi'
'wherever_'
'wer'
'vou'
'volet_'
'volatile_'
'vo_'
'vity_'
'vis'
'vi_'
'vet'
'vert'
'versus_'
'vastes_'
'vary_'
'vai'
'va'
'utilization_'
'ut'
'urge_'
'unto_'
'unnecessary_'
'united_'
'uniques_'
'unb'
'ub'
'télécommunications_'
'typically_'
'twentieth_'
'twelve_'
'transmitted_'
'trailer_'
'tr'
'tirés_'
'tiré_'
'timing_'
'timetable_'
'tif_'
'tie_'
'threatened_'
'termina'
'tele'
'tati'
'tas'
'systématique_'
'swe'
'suspension_'
'suppliers_'
'sul'
'sucre_'
'successes_'
'succeeded_'
'stuff_'
'structurels_'
'structurelles_'
'stri'
'stores_'
'stood_'
'stimuler_'
'spot_'
'spoken_'
'spiritual_'
'spi'
'speeches_'
'soulevées_'
'solid_'
'sole_'
'soldiers_'
'solaire_'
'smi'
'sie'
'sd'
'scénario_'
'script_'
'sch_'
'sauvegarde_'
'saurait_'
'satisfait_'
'satisfactory_'
'salary_'
'rétablir_'
'réputation_'
'réconciliation_'
'réa'
'rub'
'row_'
'roll_'
'rock_'
'rl'
'rien'
'reve'
'retrouver_'
'restrictive_'
'resta'
'ress'
'repeatedly_'
'renewal_'
'rendant_'
'rena'
'remis_'
'remarkable_'
'rely_'
'registres_'
'registre_'
'regarded_'
'recueillir_'
'rechercher_'
'receipt_'
'ratifier_'
'racisme_'
'quin'
'périodiques_'
'pull_'
'puissants_'
'publiés_'
'préoccupé_'
'préc'
'protocoles_'
'protests_'
'propriétaires_'
'preparations_'
'pregnant_'
'pourrions_'
'posted_'
'posed_'
'por'
'ple_'
'plantes_'
'phi'
'ph_'
'pers_'
'pers'
'permettez_'
'ped'
'password_'
'parvenus_'
'pari'
'parfait_'
'ouvrage_'
'ot'
'ose_'
'orm'
'orientale_'
'ori'
'organisées_'
'ordered_'
'orateurs_'
'opposants_'
'ola'
'occidentaux_'
'négocier_'
'nécessite_'
'nt'
'normalement_'
'nge_'
'nevertheless_'
'nettement_'
'nel_'
'neighbors_'
'negotiation_'
'necessity_'
'médical_'
'mène_'
'mur'
'mp_'
'moves_'
'modeste_'
'mobilisation_'
'mix_'
'missing_'
'missile_'
'minorité_'
'minor_'
'med_'
'meaningful_'
'marqué_'
'manuel_'
'manager_'
'mainstreaming_'
'losing_'
'locally_'
'liquid_'
'limitées_'
'lift_'
'let'
'lem'
'laissant_'
'ladite_'
'label_'
'kinds_'
'kha'
'japonaise_'
'ish'
'irré'
'iranien_'
'inviter_'
'intitulée_'
'interference_'
'instaurer_'
'install'
'insist_'
'individuelles_'
'incorporate_'
'impunité_'
'illa'
'ignorer_'
'ideology_'
'ics_'
'ica'
'hôtels_'
'héritage_'
'hr'
'hostels_'
'hol'
'hc_'
'harmful_'
'hall_'
'gro'
'gratuite_'
'gran'
'gle'
'gh'
'gene'
'gaps_'
'fu'
'free'
'forthcoming_'
'formula_'
'fore'
'focuses_'
'flights_'
'fix_'
'fier_'
'fiables_'
'feuilles_'
'fermeture_'
'faster_'
'far'
'fal'
'faiblesse_'
'facilitating_'
'exprime_'
'expliqué_'
'expe'
'exceptionnelle_'
'exceptionnel_'
'everyday_'
'est'
'escape_'
'ep'
'eo'
'envisage_'
'enthousiasme_'
'enseignements_'
'engine_'
'encourageant_'
'embargo_'
'ek'
'eat_'
'détruire_'
'détaillé_'
'département_'
'définitions_'
'découverte_'
'déb'
'dr'
'doter_'
'dos_'
'doors_'
'donn'
'dji'
'dit'
'disque_'
'disco'
'devienne_'
'detection_'
'demeurent_'
'demandons_'
'defining_'
'decorated_'
'decisive_'
'debts_'
'cross'
'crew_'
'coup'
'costly_'
'corriger_'
'cope_'
'coordinating_'
'coordinate_'
'conçus_'
'convenient_'
'contribuables_'
'constamment_'
'considérations_'
'concurrentiel_'
'complexité_'
'complement_'
'competing_'
'communicate_'
'commencent_'
'cohérence_'
'cine'
'cin'
'ching_'
'charming_'
'chal'
'cessé_'
'cel'
'cease_'
'caus'
'cas'
'carrier_'
'caractères_'
'cant'
'cam'
'calendar_'
'bénéficiaire_'
'bâtiment_'
'busy_'
'brief_'
'bran'
'bor'
'bin_'
'billions_'
'bid_'
'bee'
'beauté_'
'bateau_'
'ball_'
'aéronefs_'
'aériennes_'
'axe_'
'autoroute_'
'autorisée_'
'autorise_'
'attendent_'
'ats_'
'ata'
'assorti'
'asiatiques_'
'ash'
'arrivé_'
'arbitrary_'
'appuyant_'
'apprécier_'
'appris_'
'appearance_'
'apart_'
'anciennes_'
'ample_'
'ame'
'allégations_'
'allu'
'allegations_'
'alla'
'alike_'
'ajustements_'
'ag'
'adulte_'
'adult_'
'adapt_'
'actualité_'
'acides_'
'achèvement_'
'achats_'
'accumulation_'
'accounted_'
'accountable_'
'abolition_'
'ably_'
'abandonner_'
'Zo'
'Woods_'
'Wo'
'WI'
'Vol'
'Va'
'Using_'
'Unlike_'
'Universal_'
'UR'
'UND'
'Tokyo_'
'Thi'
'Thailand_'
'Territory_'
'Territories_'
'Tch'
'Swedish_'
'Sunday_'
'Sun'
'Spi'
'Smith_'
'Session_'
'Senegal_'
'Schedule_'
'Sara'
'Sand'
'Resource_'
'Res'
'Read_'
'Radio_'
'Rad'
'RS'
'RD_'
'Quelles_'
'Queen_'
'Privacy_'
'Planning_'
'Peut_'
'Perhaps_'
'PO'
'PM_'
'PLA'
'PAR'
'PAC_'
'Ouganda_'
'Ordre_'
'Operations_'
'OG'
'Nom_'
'Music_'
'Monaco_'
'Military_'
'Mid'
'Merc'
'Mark_'
'Malta_'
'Malaysia_'
'MA_'
'Leste_'
'Koweït_'
'Ker'
'Infrastructure_'
'Informations_'
'Hor'
'Hongrie_'
'Herzegovina_'
'Hen'
'Gui'
'Goals_'
'Gender_'
'G8_'
'Fro'
'Four_'
'Final_'
'Fa'
'Extra'
'Eritrea_'
'Election_'
'Egyptian_'
'Edit'
'ENT_'
'EF'
'Dublin_'
'Disc'
'Die'
'Darfur_'
'Dar'
'DM'
'DIS'
'Croatie_'
'Consult'
'Choice_'
'Chirac_'
'Chapitre_'
'Ch'
'Cas'
'Californie_'
'CS_'
'CR'
'COP_'
'COD_'
'CAMBRIDGE_'
'Brown_'
'Britannique_'
'Brazilian_'
'Belgique_'
'Azerbaijan_'
'Atlantique_'
'Ash'
'Armenia_'
'Ap'
'Annan_'
'Angela_'
'Ana'
'Amendments_'
'Ahmadinejad_'
'Agricultural_'
'Accueil_'
'70'
'64'
'1976_'
'1968_'
'194'
'18'
'12'
'114_'
'102_'
'00'
'.” _'
'.&#_'
' `_'
' ("_'
' %) _'
'▪ _'
'™ _'
'ôt_'
'ô'
'établit_'
'écrire_'
'éclair'
'éci'
'échelon_'
'ès_'
'Équipe_'
'worthy_'
'wis'
'winter_'
'wine_'
'willingness_'
'weekly_'
'vulnerability_'
'voyage'
'von_'
'volontaires_'
'vivement_'
'vieillissement_'
'vic'
'vend'
'variation_'
'uté'
'utilisez_'
'uta'
'usine_'
'uro'
'urgently_'
'uo'
'unp'
'uniform_'
'ung_'
'unanimité_'
'um'
'uis'
'uer_'
'ue'
'uch'
'télécharger_'
'ty'
'translation_'
'transferred_'
'trans_'
'tow'
'touch_'
'tin'
'tie'
'threatening_'
'thorough_'
'tet'
'tenté_'
'tennis_'
'ten'
'telecommunications_'
'taire_'
'syn'
'suspect_'
'supplement_'
'superior_'
'sun_'
'suivent_'
'sui'
'studio_'
'stag'
'spécialisés_'
'spécialisées_'
'sphere_'
'souplesse_'
'soleil_'
'sme'
'siècles_'
'sion'
'sexuelles_'
'servant_'
'serons_'
'sensibilité_'
'seminar_'
'semi_'
'selling_'
'sees_'
'secured_'
'secours_'
'scenario_'
'sauver_'
'satisfied_'
'saoudite_'
'sand'
'salariés_'
'salaries_'
'sac'
'sab'
'réussir_'
'réserv'
'régissant_'
'réalis'
'rubrique_'
'rop'
'rian_'
'ria_'
'reçus_'
'retire_'
'restoration_'
'respectifs_'
'requise_'
'repair_'
'rep'
'renouvellement_'
'rendus_'
'rendez_'
'rendent_'
'rencontres_'
'removal_'
'relevé_'
'releases_'
'relaxation_'
'rejeté_'
'rejet_'
'refusé_'
'recording_'
'recognizes_'
'rd'
'rch'
'ray_'
'rats_'
'rational_'
'ratifié_'
'rat'
'ras_'
'rapprochement_'
'rage_'
'radiation_'
'raci'
'quarante_'
'quantitative_'
'quai'
'pétrolières_'
'périphériques_'
'pushed_'
'pul'
'publiée_'
'préférable_'
'prédi'
'précédentes_'
'prudence_'
'provoquer_'
'proud_'
'proph'
'properties_'
'profite_'
'procédés_'
'procurement_'
'privatisation_'
'pregnancy_'
'precious_'
'pp'
'potable_'
'posé_'
'porc'
'poisson_'
'plafond_'
'pictures_'
'pet'
'personnellement_'
'performing_'
'perce'
'partially_'
'parallel_'
'pa_'
'overview_'
'oversight_'
'ov_'
'ost'
'orienter_'
'organic_'
'orat'
'opportun_'
'omi'
'occupy_'
'occupa'
'obtention_'
'oblige_'
'nov'
'notified_'
'noir_'
'nis'
'ngs_'
'nf'
'nau'
'nationalism_'
'nati'
'nal_'
'mutually_'
'museum_'
'munitions_'
'multitude_'
'motor_'
'moto'
'monétaires_'
'montée_'
'momentum_'
'mo_'
'mn'
'ministry_'
'mesurer_'
'male_'
'mala'
'lus'
'lp'
'loo'
'lle'
'lite'
'lif'
'lf_'
'lau'
'lake_'
'lacunes_'
'labelling_'
'kw'
'kilometres_'
'kes_'
'joueur_'
'ié'
'ison_'
'isolated_'
'islamistes_'
'ise'
'ip_'
'iné'
'invité_'
'investigate_'
'intégrante_'
'intra'
'intergouvernementale_'
'interactive_'
'instabilité_'
'insolvency_'
'inquiétude_'
'inputs_'
'inn'
'injured_'
'ini_'
'inherent_'
'inférieure_'
'info_'
'infer'
'industrialisés_'
'indienne_'
'inad'
'immédiat_'
'immigrant_'
'imb'
'ima'
'ilité_'
'ile_'
'ici'
'hus'
'home'
'heavily_'
'headquarters_'
'hall'
'h30_'
'gènes_'
'gène_'
'guaranteeing_'
'governed_'
'gio'
'gets_'
'gestionnaire_'
'gel_'
'frères_'
'froide_'
'four'
'founding_'
'fitness_'
'firmly_'
'fied_'
'fibres_'
'feront_'
'fashion_'
'fare_'
'fan'
'familial_'
'fallen_'
'exécuter_'
'extending_'
'expressions_'
'expressing_'
'expresses_'
'expos'
'existait_'
'exhaustive_'
'examens_'
'ex'
'estimons_'
'entraîne_'
'entité_'
'ennemis_'
'employ'
'emerge_'
'emballage_'
'ell'
'effondrement_'
'eff'
'ease_'
'déterminant_'
'déposée_'
'dépenser_'
'dépens'
'dépasser_'
'définis_'
'décideurs_'
'décide_'
'duc'
'dramatically_'
'dramatic_'
'douze_'
'domination_'
'dle'
'divided_'
'disposons_'
'discretion_'
'diriger_'
'directes_'
'dinner_'
'dictatorship_'
'df'
'detainees_'
'det'
'deployed_'
'denied_'
'dee'
'declining_'
'dec'
'côtés_'
'cy'
'cul'
'créanciers_'
'count'
'counsel_'
'coordonner_'
'controlling_'
'contest_'
'contamination_'
'consultative_'
'consolidated_'
'consistant_'
'connue_'
'conjoint_'
'cong'
'confortables_'
'confi'
'condemned_'
'condamnés_'
'comprise_'
'compilation_'
'commandant_'
'color_'
'collaborer_'
'cite_'
'circle_'
'chronic_'
'choc_'
'cheveux_'
'chemicals_'
'chat_'
'charme_'
'cer_'
'cea'
'cc'
'capacities_'
'bénéficié_'
'bruit_'
'britanniques_'
'boys_'
'bow'
'bouton_'
'boutique_'
'bonus_'
'boards_'
'blocks_'
'blessures_'
'biodiversity_'
'bid'
'bibliothèque_'
'bes_'
'beau_'
'basé_'
'barre'
'band_'
'bab'
'aye'
'ax'
'awards_'
'aw'
'avère_'
'auté_'
'autorisés_'
'autoriser_'
'auto'
'augmentant_'
'atténuation_'
'attribution_'
'atteints_'
'assi'
'arti'
'archives_'
'aquaculture_'
'apparemment_'
'appar'
'anywhere_'
'antérieure_'
'amples_'
'ami'
'ambitions_'
'allowances_'
'ala'
'aj'
'aident_'
'age'
'advised_'
'adressées_'
'adjacent_'
'adj'
'addresses_'
'acquire_'
'accused_'
'accusations_'
'accus'
'Zélande_'
'William_'
'Wikitravel_'
'Wei'
'WS'
'Ville_'
'Var'
'Van_'
'Valley_'
'VER'
'VE'
'USD_'
'UNI'
'Tunisie_'
'Transfer_'
'Town_'
'Tou'
'Together_'
'Thirdly_'
'Technologies_'
'TB_'
'Systems_'
'Socialist_'
'Situation_'
'Sco'
'Sca'
'Saturday_'
'Sat'
'Sant'
'SUR_'
'Réserve_'
'Réseau_'
'Rh'
'Revolution_'
'Rein'
'Reduc'
'Rec'
'Real'
'ROM_'
'Provide_'
'Prize_'
'Post_'
'Polish_'
'Player_'
'Plans_'
'Pir'
'Pap'
'Palace_'
'PT'
'PAR_'
'OM'
'Not'
'Norvège_'
'Netanyahu_'
'Namibia_'
'Mur'
'Mubarak_'
'Min'
'Mas'
'Mary_'
'Marine_'
'Mao_'
'Malawi_'
'Mai'
'Mac_'
'MP3_'
'Likewise_'
'Lea'
'Latvia_'
'Lastly_'
'Lam'
'Labrador_'
'Kra'
'Ken'
'Kara'
'Kam'
'Institutions_'
'Inspection_'
'Informal_'
'Independent_'
'Inc'
'IRSC_'
'Her_'
'Hat'
'Halifax_'
'HTML_'
'HCR_'
'Gulf_'
'Gua'
'Glo'
'Gestionnaire_'
'Gate'
'GT'
'Fort'
'Forms_'
'Fle'
'Finnish_'
'Finlande_'
'FT'
'Euros'
'Europ'
'Estonia_'
'Ele'
'Egypte_'
'EP_'
'ENT'
'EL'
'Dor'
'Den'
'Demande_'
'Dec'
'Currency_'
'Crown_'
'Content_'
'Cliquez_'
'Climate_'
'Chef_'
'Chairperson_'
'CONS'
'CNUCED_'
'Bulletin_'
'Br'
'Border_'
'Book_'
'Barcelona_'
'BR'
'Autorité_'
'Autochtones_'
'Auditors_'
'At'
'Ari'
'Appro'
'Anne_'
'Ambassador_'
'Alt'
'Ak'
'AE'
'A3'
'='
';&_'
'66'
'42'
'240_'
'201'
'1945_'
'186'
'125'
'06'
'%), _'
'! '
' - '
' * _'
' )._'
' %, _'
' '
'éventuelle_'
'éro'
'ération_'
'épidémie_'
'énoncées_'
'én'
'émergence_'
'ément_'
'élevage_'
'édi'
'écosystèmes_'
'éco'
'éch'
'ão_'
'ât'
'Ê'
'zu'
'yu'
'yp'
'wishing_'
'wireless_'
'weakness_'
'warned_'
'walls_'
'wa_'
'vor'
'voi'
'viewed_'
'vidéos_'
'victime_'
'vesti'
'vera'
'ved_'
'variable_'
'val'
'us'
'unt'
'uno'
'universitaire_'
'universel_'
'unfair_'
'una_'
'ultimate_'
'ui'
'uf'
'ud_'
'ua'
'tz_'
'tum'
'tte'
'trouvera_'
'triggered_'
'trees_'
'treatments_'
'trea'
'transmit_'
'transform_'
'transatlantic_'
'tram'
'trained_'
'towns_'
'tourists_'
'touristiques_'
'touchées_'
'totales_'
'toire_'
'thoroughly_'
'therapy_'
'tha'
'tent_'
'tch_'
'tation_'
'tari'
'tanks_'
'tam'
'tali'
'sûreté_'
'sûre_'
'surveiller_'
'supposed_'
'superb_'
'suffisantes_'
'subi_'
'stro'
'strain_'
'sten'
'spécifi'
'sportives_'
'sponsors_'
'specialists_'
'souvien'
'sour'
'soulevé_'
'soucie'
'sondage_'
'solarium_'
'slowly_'
'slow'
'signification_'
'signals_'
'shot_'
'sheet_'
'shed_'
'sending_'
'sei'
'seekers_'
'seed_'
'sectoral_'
'sect'
'sec'
'seal'
'sco_'
'schéma_'
'scar'
'sauvetage_'
'sau'
'satisf'
'sar'
'sake_'
'révèle_'
'répondent_'
'régulière_'
'régi'
'réform'
'réfléchi'
'réclamations_'
'rse'
'roc'
'rk'
'rigid_'
'rig'
'reveal_'
'retail_'
'restored_'
'restera_'
'resolving_'
'resc'
'repeated_'
'renforçant_'
'renewable_'
'rendue_'
'rencontrer_'
'rembourser_'
'religieuse_'
'reliability_'
'reform'
'referring_'
'ref'
'reconnaissent_'
'reco'
'receives_'
'ramp'
'raisonnables_'
'rain_'
'quiconque_'
'quantity_'
'pér'
'purement_'
'publier_'
'pt_'
'prém'
'précédents_'
'proven_'
'prouver_'
'protest_'
'procure'
'problématique_'
'preventive_'
'premi'
'poursuivi_'
'potentiels_'
'potentiellement_'
'possèdent_'
'portes_'
'pop_'
'polio_'
'pis'
'pillar_'
'phenomenon_'
'ph'
'pesticides_'
'perfectly_'
'pent'
'pension'
'penalties_'
'pc'
'payé_'
'passion_'
'partial_'
'partagent_'
'parrain'
'parcours_'
'parameters_'
'packaging_'
'ow_'
'ov'
'outbreak_'
'ous'
'oui'
'oris'
'organis'
'oo_'
'ological_'
'oiseaux_'
'oh'
'officieuses_'
'observé_'
'noyau_'
'not'
'nos'
'normalisation_'
'nominal_'
'noc'
'nk'
'nge'
'ndr'
'nazi'
'nar'
'nal'
'naire_'
'nai'
'nage_'
'musulman_'
'mour'
'motivation_'
'mortalité_'
'modéré'
'mining_'
'millénaire_'
'merci_'
'medicines_'
'maîtrise_'
'mauvaises_'
'massage_'
'massacre_'
'mart'
'manières_'
'mandates_'
'main'
'lée_'
'lé_'
'lu_'
'logic_'
'logements_'
'lo'
'linguistique_'
'liberty_'
'lib'
'lect'
'laundering_'
'lance_'
'lait_'
'laboratoires_'
'ks'
'jugé_'
'joining_'
'jeter_'
'ivo'
'itu'
'iron_'
'ious_'
'inégalité_'
'invent'
'intervien'
'intensifier_'
'integrating_'
'instauration_'
'instar_'
'injuries_'
'indirect_'
'indicating_'
'inde'
'incorporation_'
'incitation_'
'immigrés_'
'imbalances_'
'ier'
'iel_'
'identique_'
'ias'
'ian'
'hé'
'huitième_'
'hs_'
'hou'
'hostel_'
'hospitality_'
'hospitali'
'hop'
'hire_'
'here'
'hautement_'
'hai'
'habituellement_'
'géré_'
'géographiques_'
'génétiques_'
'génie_'
'guides_'
'gou'
'genocide_'
'gem'
'garçons_'
'gained_'
'fér'
'félicitons_'
'fréquemment_'
'frequent_'
'fournies_'
'forty_'
'formulée_'
'formats_'
'forestières_'
'foremost_'
'fluctuations_'
'fini'
'financées_'
'fewer_'
'fardeau_'
'fantas'
'ez'
'extraction_'
'expose_'
'explicitement_'
'explicit_'
'expiration_'
'exemplaires_'
'excluding_'
'exc'
'exact_'
'ew_'
'espaces_'
'erons_'
'ering_'
'erg_'
'ept'
'eon'
'ense'
'enne_'
'engage'
'enb'
'emi'
'eliminating_'
'ej'
'educated_'
'ecu'
'dépense_'
'dépendent_'
'dé_'
'dus_'
'drink_'
'dream_'
'doubts_'
'doté_'
'discriminatory_'
'discover_'
'directrice_'
'différend_'
'dict'
'dge_'
'devrons_'
'devi'
'detected_'
'detained_'
'destinations_'
'desk_'
'desired_'
'descriptions_'
'depression_'
'deposits_'
'demo'
'declarations_'
'debtor_'
'cte'
'criminels_'
'criminals_'
'couvert_'
'courrier_'
'coups_'
'correspondent_'
'copie_'
'cooperative_'
'convincing_'
'convictions_'
'continueront_'
'consultants_'
'console_'
'consistently_'
'consacrer_'
'congé_'
'conformer_'
'concessions_'
'compétente_'
'complaint_'
'compenser_'
'communiqué_'
'commodity_'
'come'
'combustibles_'
'combattants_'
'colon'
'collect_'
'coin_'
'cohérente_'
'coe'
'closure_'
'closing_'
'cle'
'cke'
'cit'
'chin'
'chaud'
'challenging_'
'centers_'
'cement_'
'cell'
'catholique_'
'cara'
'car'
'bureaucratic_'
'bull'
'bugs_'
'bru'
'broken_'
'broadcasting_'
'brand_'
'boot_'
'bond_'
'bomb'
'boli'
'blis'
'beaches_'
'batt'
'basi'
'barre_'
'baisser_'
'ay'
'avoiding_'
'avancé_'
'austérité_'
'attending_'
'att'
'assure'
'arr'
'arm'
'appuy'
'appro'
'appreciated_'
'appeals_'
'apo'
'anonym'
'anno'
'analyser_'
'alle'
'alis'
'align'
'alcool_'
'ajustement_'
'agro'
'aggressive_'
'afficher_'
'af'
'adjusted_'
'ade'
'ad'
'acute_'
'actives_'
'accuracy_'
'accueilli_'
'accro'
'acco'
'absolue_'
'Yugoslav_'
'Young_'
'Welcome_'
'Vis'
'Vie'
'Verheugen_'
'Vatican_'
'User_'
'Up'
'Unit'
'UNIDO_'
'Ts'
'Tourism_'
'Tour'
'Tom'
'TRA'
'TER'
'Statut_'
'Stan'
'Spr'
'Sport_'
'Spa'
'Singapour_'
'Sche'
'San'
'Sam'
'SQL_'
'Rural_'
'Ros'
'Romney_'
'Ris'
'Response_'
'Release_'
'Refugees_'
'Recommandation_'
'Ram'
'RG'
'Quoi_'
'Qui'
'Quels_'
'Pré'
'Près_'
'Progress_'
'Prof'
'Pos'
'Porta'
'Points_'
'Photocopying_'
'Phase_'
'Personal_'
'Peoples_'
'Pension_'
'Pass'
'Participation_'
'Paragraph_'
'Pack_'
'Overview_'
'Ocean_'
'Oc'
'OU'
'OB'
'NP'
'NH'
'Mot'
'Moo'
'Mobili'
'Mental_'
'Memorandum_'
'Mei'
'Mark'
'Marie_'
'Mag'
'Made'
'MPO_'
'MD_'
'MB'
'MAN'
'Luggage_'
'Los_'
'Lor'
'Link'
'Learning_'
'LS'
'LDCs_'
'Kon'
'Kit'
'Key_'
'Kad'
'KA'
'Jou'
'JA'
'It'
'Indigenous_'
'Imm'
'Ill'
'IMP'
'Hotels_'
'Hostelsclub_'
'Helsinki_'
'Heating_'
'Have_'
'HP'
'HC'
'Général_'
'Gordon_'
'GMOs_'
'Fun'
'Father_'
'FF'
'England_'
'Elimination_'
'EU'
'EL_'
'DÉ'
'Dell_'
'Daw'
'DFO_'
'Cross_'
'Corr'
'Corps_'
'Contract_'
'Consultations_'
'Coast_'
'Coalition_'
'Cinquième_'
'Cambodia_'
'Calderón_'
'Cadre_'
'CU'
'CRI'
'CM_'
'CC_'
'Burkina_'
'Bot'
'Bissau_'
'Beaucoup_'
'Barr'
'Bangkok_'
'Back'
'BP'
'Ath'
'Ass'
'Arthur_'
'Art'
'Arch'
'Apple_'
'Alle'
'Address_'
'Activités_'
'ASS'
'ARC_'
'AM_'
'AK'
'AGE'
'92'
'79'
'750_'
'235_'
'1st_'
'1977_'
'1972_'
'195'
'187'
'179'
'122'
'101_'
'...'
'+ _'
'*'
''' _'
'  _'
' [[_'
' ['
' : "_'
' '
'— _'
'ür'
'ût'
'ú'
'évolutions_'
'étal'
'établissant_'
'équipé_'
'éni'
'émergentes_'
'émanant_'
'égale_'
'édu'
'échange'
'än'
'ÉR'
'®'
'zh'
'zan'
'yla'
'yan_'
'worker_'
'wl'
'wisdom_'
'wines_'
'wheel'
'wer_'
'weather_'
'weaknesses_'
'ward_'
'véritables_'
'vre_'
'vr'
'volunteers_'
'voilà_'
'virtual_'
'vins_'
'villa'
'vil'
'verte_'
'venue_'
'variété_'
'variations_'
'vapeur_'
'vant'
'ué'
'urre'
'urbaine_'
'upgrade_'
'unsustainable_'
'unsu'
'unlimited_'
'unilatérale'
'unde'
'ultra_'
'ultra'
'ude'
'uci'
'uc'
'turn'
'tub'
'tt_'
'trices_'
'tre'
'translate_'
'transitional_'
'transformer_'
'tranche_'
'toxiques_'
'toxic_'
'touristique_'
'toll_'
'tm'
'tire'
'théâtre_'
'thématiques_'
'ther_'
'theme_'
'thematic_'
'territoriale_'
'tera'
'tendent_'
'temporaires_'
'tch'
'tar_'
'tage_'
'sépar'
'syndrome_'
'sy'
'sustain_'
'supérieures_'
'supplément_'
'suppl'
'sugar_'
'suddenly_'
'successor_'
'stipule_'
'stick_'
'stand'
'spécialisée_'
'spots_'
'spin'
'specify_'
'spatiales_'
'souten'
'souhaitons_'
'souffrances_'
'socially_'
'signer_'
'sie_'
'shipping_'
'shame_'
'sg'
'serveurs_'
'serv'
'separation_'
'semblable_'
'sem'
'sel_'
'salu'
'sail'
'sai'
'sad'
'révisée_'
'réuni_'
'résid'
'répondants_'
'réelles_'
'récupérer_'
'réalisée_'
'royal_'
'rot'
'roof'
'ronde_'
'rod'
'rme'
'ring'
'richesses_'
'revi'
'revers'
'retiré'
'retards_'
'restrict_'
'responding_'
'reserved_'
'représentés_'
'rentabilité_'
'renforcée_'
'renforce_'
'remuneration_'
'remedy_'
'remedies_'
'relèvent_'
'relie'
'relaxing_'
'refusal_'
'reflecting_'
'rede'
'recover_'
'recognise_'
'reassur'
'rear'
'realities_'
'rde'
'rb'
'ration'
'rarement_'
'rarely_'
'rapportant_'
'rad'
'quest_'
'quart_'
'pêches_'
'publiées_'
'publiquement_'
'publi'
'prévalence_'
'préférences_'
'provoqué_'
'protégées_'
'prosecution_'
'propagation_'
'prononcer_'
'prominent_'
'prisons_'
'prevailing_'
'presenting_'
'premièrement_'
'precedence_'
'ppe'
'pourparlers_'
'posent_'
'porté_'
'portugais_'
'populaires_'
'point'
'plages_'
'placés_'
'pla'
'pl'
'pipeline_'
'pert'
'personally_'
'persist'
'peer_'
'pea'
'paysage_'
'paroles_'
'pare'
'pack_'
'oya'
'oy'
'outreach_'
'outer_'
'oul'
'oti'
'orthodox'
'opérationnels_'
'opposer_'
'operated_'
'officiers_'
'oe'
'occupent_'
'occup'
'oca'
'obligatoires_'
'num'
'nul_'
'nowadays_'
'nou'
'notable_'
'nie'
'net'
'nda_'
'nch'
'nce'
'navette_'
'nationalist_'
'nat'
'mènent_'
'municipalities_'
'mpo'
'modernization_'
'mmer'
'mixed_'
'ministériel_'
'mini'
'mina'
'migrations_'
'methodology_'
'meter_'
'mentionner_'
'mechanical_'
'meals_'
'maybe_'
'marines_'
'manipul'
'manifestement_'
'mandats_'
'majeures_'
'magnificent_'
'magic_'
'législative_'
'love'
'locked_'
'locations_'
'local'
'loan_'
'ller_'
'lise'
'linking_'
'liked_'
'lier_'
'libérer_'
'librement_'
'libellé_'
'liable_'
'liabilities_'
'lendemain_'
'legacy_'
'lee'
'lai'
'lag'
'kill_'
'kers_'
'iu'
'ita'
'israéliennes_'
'israélien_'
'irement_'
'ira'
'ip'
'invisible_'
'inverse_'
'interview_'
'interven'
'int'
'installé_'
'insist'
'inquiry_'
'innocent_'
'injection_'
'influenza_'
'infected_'
'indé'
'individuel_'
'indirectly_'
'incomes_'
'inclut_'
'inciter_'
'ina_'
'impunity_'
'illicite_'
'illi'
'ili'
'ignor'
'ieu'
'hérit'
'hydrog'
'hr_'
'house'
'het_'
'hemi'
'hectares_'
'hard'
'harassment_'
'hal'
'génocide_'
'guéri'
'grandement_'
'gn'
'globe_'
'glass_'
'gest'
'gers_'
'gera'
'gat'
'gagné_'
'fête_'
'fulfilled_'
'fréquente'
'frustration_'
'frein_'
'fought_'
'formuler_'
'forming_'
'forment_'
'fondations_'
'fonctionnent_'
'flood'
'fixation_'
'fier'
'fid'
'fi_'
'fest'
'fen'
'fe_'
'favorisant_'
'fau'
'farms_'
'factur'
'faction_'
'fabricant_'
'externe_'
'exported_'
'experimental_'
'exister_'
'exhibit'
'execution_'
'exclusi'
'exceeding_'
'examinées_'
'examinée_'
'ew'
'evaluations_'
'ete'
'estima'
'esses_'
'esse'
'ero_'
'equitable_'
'entertainment_'
'ensures_'
'enshrined_'
'engagée_'
'engaging_'
'enchant'
'enc'
'eme'
'emba'
'elegant_'
'edition_'
'eating_'
'ean_'
'développées_'
'dépôts_'
'dépression_'
'démocrate_'
'démi'
'délivrance_'
'découvert_'
'décisionnel_'
'dure'
'dues_'
'dry_'
'drew_'
'drafting_'
'dra'
'dot'
'dominance_'
'dom'
'diss'
'directors_'
'director_'
'dip'
'dil'
'deter'
'descend'
'deposit_'
'deposit'
'delivering_'
'decreased_'
'declare_'
'db'
'dangereuses_'
'damages_'
'dam_'
'cum'
'ctor'
'crédible_'
'craintes_'
'cr'
'cow'
'cove'
'couvre_'
'courants_'
'contradict'
'continu'
'consult_'
'constitutionnel_'
'conservé'
'conque'
'congrès_'
'confront'
'confortablement_'
'concludes_'
'conce'
'conc'
'comptable_'
'composée_'
'composed_'
'compose_'
'composantes_'
'complémentaire_'
'complexity_'
'completing_'
'complementary_'
'complain'
'compl'
'comparer_'
'commander_'
'commandement_'
'combustion_'
'colonial_'
'coi'
'cod'
'cliniques_'
'cle_'
'cker_'
'cited_'
'cigarettes_'
'cien'
'cibles_'
'chet'
'cherchent_'
'chel'
'characters_'
'channel_'
'champs_'
'cf_'
'certificats_'
'cat'
'care'
'cardi'
'canada_'
'cali'
'calculation_'
'bul'
'briefly_'
'boutiques_'
'bourses_'
'boi'
'blow'
'blessé'
'bless'
'biotechnologie_'
'bes'
'beneficiaries_'
'ben'
'begins_'
'bath'
'barrières_'
'balances_'
'baie_'
'bagagerie_'
'badly_'
'back'
'avancement_'
'auberges_'
'attentivement_'
'attempting_'
'attempted_'
'attache'
'ast_'
'assurant_'
'associées_'
'asso'
'asp'
'artistes_'
'are'
'architectural_'
'arbres_'
'arb'
'approuver_'
'appropriately_'
'appr'
'apportent_'
'appellant_'
'apartments_'
'ange'
'alg'
'agisse_'
'aging_'
'agi'
'affectées_'
'adéquate_'
'advocates_'
'advances_'
'ado'
'admit_'
'administrateurs_'
'adequately_'
'adapt'
'activists_'
'actionnaires_'
'acti'
'accréditation_'
'accomplish_'
'abe'
']]'
'XXX'
'XP_'
'Would_'
'Wiki'
'WIN'
'View_'
'View'
'VE_'
'Understanding_'
'Uganda_'
'UPS_'
'UNITAR_'
'UNC'
'UD'
'Tun'
'Tuesday_'
'Transportation_'
'Torture_'
'Tim'
'TV'
'TS'
'TR'
'TPSGC_'
'TC_'
'Sydney_'
'Supplément_'
'Strategic_'
'Stephen_'
'Statute_'
'Statements_'
'Standards_'
'Spring_'
'Speed_'
'Sor'
'Son'
'Somalie_'
'Somalia_'
'Sol'
'Soci'
'Slovénie_'
'Six_'
'Sec'
'Sea'
'Scr'
'Schröder_'
'STO'
'STA'
'SR'
'SN'
'SI_'
'SH'
'Rép'
'Récemment_'
'Ross'
'Ret'
'Resort_'
'Regi'
'Reference_'
'Reco'
'RAI'
'Quelques_'
'Qu'
'Prev'
'Postes_'
'Physic'
'Performance_'
'Pas'
'Participants_'
'Panama_'
'Pala'
'PP_'
'PNUE_'
'Offences_'
'ORT'
'OLAF_'
'Nu'
'Nik'
'Nepal_'
'Nature_'
'Méditerranée_'
'Much_'
'Morsi_'
'Mill'
'Men'
'Medicine_'
'Medi'
'Mea'
'Marin'
'MT'
'MDGs_'
'Liste_'
'Limit'
'Liechtenstein_'
'Liberia_'
'Leg'
'Lat'
'Ladies_'
'LCD_'
'Kofi_'
'Kn'
'KL'
'Jun'
'Java_'
'Jamaica_'
'JE'
'Istanbul_'
'Israéliens_'
'Islamist_'
'Inuit_'
'Industries_'
'Imp'
'IST'
'IF_'
'History_'
'Histoire_'
'Haïti_'
'Hal'
'Haiti_'
'Hab'
'HS'
'HR_'
'HD'
'Gé'
'Gri'
'Golden_'
'Gar'
'Free'
'Français_'
'Francophone_'
'Former_'
'Format_'
'Florence_'
'Five_'
'Fit'
'Faso_'
'Far'
'FIN'
'Ev'
'Engineering_'
'End_'
'Emp'
'Economics_'
'ECO'
'Décide_'
'Don_'
'Documentation_'
'Disp'
'Det'
'Dep'
'Dea'
'Darfour_'
'Danish_'
'Cy'
'Customer_'
'Cur'
'Credit_'
'Core_'
'Contra'
'Consequently_'
'Clos'
'Cli'
'Cau'
'Castro_'
'Cape_'
'CRP_'
'COMP'
'CG'
'CEP'
'CAP_'
'CAL'
'Britanniques_'
'Bolkestein_'
'Berg'
'Beh'
'Ban_'
'BC'
'Australian_'
'Aur'
'Applications_'
'Applaudissements_'
'Ant'
'Airlines_'
'Airbus_'
'Aid_'
'Age_'
'Activities_'
'Aba'
'Ab'
'ALE'
'ACT_'
'? '
'83'
'73'
'204_'
'1949_'
'132'
'130'
'107_'
'0s_'
'07'
' : «'
''
'в'
'č'
'ć_'
'êt'
'évidente_'
'évalués_'
'évacuation_'
'étr'
'étique_'
'étend'
'énoncé_'
'élites_'
'électrique_'
'élargie_'
'égo'
'égal_'
'édit'
'écologique_'
'échecs_'
'écarts_'
'ète_'
'´ _'
'zy_'
'zy'
'xte'
'xe_'
'wife_'
'whilst_'
'whatsoever_'
'well'
'wear_'
'végéta'
'vulnérabilité_'
'vraie_'
'vot'
'voices_'
'visibles_'
'versé_'
'vern'
'venture_'
'vendeur_'
'ven_'
'varient_'
'varia'
'validity_'
'vague_'
'urbains_'
'upt'
'updates_'
'unwi'
'unstable_'
'unfa'
'unes_'
'unemployed_'
'uncertain_'
'unanimously_'
'ule'
'typ'
'tto'
'tted_'
'ts'
'tron'
'trips_'
'tril'
'tres_'
'transporteurs_'
'transf'
'ton'
'tolera'
'tives_'
'tiny_'
'time'
'tid'
'tics_'
'tia'
'thousand_'
'thon_'
'thereof_'
'termine'
'tendency_'
'temporarily_'
'tech_'
'teacher_'
'tat'
'tast'
'tariff_'
'targeting_'
'tal'
'sûrs_'
'sérieuses_'
'sèche_'
'symptoms_'
'symbole_'
'switch_'
'surveys_'
'sure'
'suiv'
'substitution_'
'subsidy_'
'submissions_'
'stre'
'stored_'
'stock'
'stayed_'
'statute_'
'squa'
'souvenir_'
'souscrit_'
'sound'
'som'
'soirée_'
'soci'
'smart_'
'sma'
'sleep_'
'sk_'
'sit_'
'sir'
'simul'
'signaux_'
'sights_'
'sic'
'shel'
'shareholders_'
'seuil_'
'settlements_'
'servants_'
'senti'
'semblait_'
'securities_'
'secondly_'
'scene_'
'scandal'
'sat_'
'saluer_'
'salue_'
'sala'
'sacrifi'
'sacr'
'réso'
'références_'
'référen'
'réformer_'
'réclamation_'
'réalités_'
'réalisa'
'rÃ_'
'rus'
'rurale_'
'rt'
'routine_'
'round'
'rouge_'
'rooted_'
'ron_'
'ron'
'roi_'
'rog'
'risky_'
'rip'
'rica'
'retourne'
'retombées_'
'retailers_'
'restauration_'
'ressenti'
'resse'
'respectés_'
'respectent_'
'respectant_'
'reside'
'représenté_'
'repro'
'repos_'
'rencontré_'
'remov'
'reliance_'
'rela'
'regulators_'
'regulate_'
'regrette_'
'reflètent_'
'reduces_'
'redi'
'recouvrement_'
'recom'
'rec'
'reas'
'realization_'
'readiness_'
'rci'
'rationnelle_'
'rappelé_'
'rais_'
'question'
'quer_'
'pte'
'psychologique_'
'préparé_'
'préoccupe'
'préférence_'
'préa'
'provinciaux_'
'protéines_'
'propriétés_'
'proposons_'
'prolongée_'
'projected_'
'prohibition_'
'progressé_'
'profondeur_'
'professeur_'
'productions_'
'procurer_'
'proclaim'
'proceeding_'
'prié_'
'prim'
'prendra_'
'prejudice_'
'predict_'
'ppo'
'pot'
'posée_'
'possess_'
'portfolio_'
'polonais_'
'polluants_'
'politiquement_'
'policiers_'
'pola'
'poche'
'pioneer'
'pig'
'pieds_'
'picturesque_'
'pertinent_'
'persiste'
'patents_'
'passive_'
'passion'
'pass'
'partisan_'
'parfaite_'
'parcs_'
'paraît_'
'parallèle_'
'papers_'
'oï'
'ozone_'
'ows_'
'ouvertes_'
'ots_'
'ort'
'orphelins_'
'ore'
'ordonnance_'
'orders_'
'optique_'
'optimal_'
'opposé_'
'ope'
'onie'
'oms_'
'ombre_'
'odo'
'océans_'
'oct'
'oco'
'occurs_'
'née_'
'ny'
'numéros_'
'nulle_'
'nua'
'normale_'
'nor'
'nonetheless_'
'nique'
'nia_'
'nia'
'newspaper_'
'newsletter_'
'neighbours_'
'nci'
'nb'
'nac'
'mélange_'
'médi'
'médecin_'
'myst'
'mutuelle_'
'musical_'
'murder_'
'municipalités_'
'multinationales_'
'movie_'
'motiv'
'mont_'
'monopoly_'
'mon'
'modules_'
'mistakes_'
'minimize_'
'mine'
'milk_'
'midi_'
'mic'
'met'
'mes'
'merc'
'menus_'
'mentionnées_'
'mentaux_'
'mel'
'mber'
'maternelle_'
'match'
'mas_'
'mar_'
'manufacturer_'
'manual_'
'malaise_'
'majeurs_'
'maintenu_'
'magn'
'magi'
'machinery_'
'législations_'
'lovely_'
'longueur_'
'loc'
'loading_'
'lli'
'lk'
'liti'
'liquid'
'liques_'
'libéré'
'libéraux_'
'liberalization_'
'lia'
'lent_'
'len_'
'len'
'lei'
'leg'
'lecteurs_'
'lde'
'ld'
'law'
'lar_'
'laissez_'
'lade'
'kitchen_'
'keyword_'
'ken_'
'kat'
'jury_'
'iy'
'ito_'
'ist'
'irre'
'iqu'
'inventory_'
'inutiles_'
'intérimaire_'
'intran'
'intolerance_'
'interpret'
'interior_'
'interactions_'
'insult'
'insulaires_'
'insuffisant_'
'inspiration_'
'insisté_'
'inscrits_'
'init'
'infra'
'industrielles_'
'industrialized_'
'incapable_'
'imposée_'
'impartial_'
'immédiate_'
'immobiliers_'
'imi'
'illé'
'illustre'
'illusion_'
'ille'
'ik'
'ij'
'ieux_'
'idrc_'
'ides_'
'icul'
'hôtes_'
'hôpitaux_'
'hér'
'hè'
'hunt'
'hum'
'hp'
'hot'
'horaires_'
'hn'
'hme'
'hit'
'hidden_'
'hence_'
'hei'
'heating_'
'handle_'
'gérés_'
'guiding_'
'gui'
'gua'
'grew_'
'greatly_'
'gravité_'
'goût_'
'gouvernemental_'
'gor'
'gni'
'globally_'
'globali'
'girl_'
'ght'
'gge'
'generous_'
'gen_'
'gel'
'gau'
'félicit'
'fédérales_'
'fusion_'
'fun'
'ful'
'fran'
'fr'
'fossiles_'
'formulated_'
'fondés_'
'flotte_'
'fix'
'fires_'
'filter_'
'fermé_'
'ferait_'
'females_'
'feeding_'
'favorite_'
'extraordinary_'
'explains_'
'exigeant'
'exercent_'
'exerce_'
'excursions_'
'exclure_'
'exceptionnels_'
'evaluating_'
'eut'
'esta'
'essaie'
'espion'
'erne'
'eries_'
'eradication_'
'equi'
'envisage'
'environnemental_'
'envie_'
'entrepren'
'entend'
'entail_'
'enrichment_'
'enrichi'
'enra'
'ennemi_'
'enlarged_'
'englobe_'
'enforce_'
'ende'
'encourage'
'encl'
'ena_'
'elderly_'
'ege'
'effectif_'
'edi'
'ede'
'ear'
'développé_'
'désignés_'
'défi'
'défenseurs_'
'défaite_'
'déf'
'décret_'
'débit_'
'dÃ_'
'dy'
'dur_'
'dur'
'dui'
'dual_'
'dropped_'
'dreams_'
'draw'
'drag'
'doute'
'documented_'
'divide_'
'divergences_'
'distribué_'
'distinguer_'
'distingue_'
'disparu_'
'dismissed_'
'discut'
'disappeared_'
'diplomatiques_'
'diplomatie_'
'digne_'
'desperate_'
'deserve_'
'describes_'
'deprived_'
'departmental_'
'dent_'
'denrées_'
'denial_'
'demographic_'
'demandant_'
'dema'
'dele'
'deeper_'
'dal'
'cula'
'ct'
'crops_'
'creditors_'
'craignent_'
'cour'
'coupable_'
'count_'
'correspond'
'conviendrait_'
'convened_'
'contrôlée_'
'contract'
'continuation_'
'conti'
'contenir_'
'conta'
'consume'
'construi'
'constructif_'
'constituée_'
'constat'
'consommé'
'conservative_'
'connecting_'
'confidentiality_'
'concluding_'
'concerted_'
'concernée_'
'compren'
'complainant_'
'communiqués_'
'coloni'
'collaborative_'
'coh'
'coefficient_'
'classiques_'
'classement_'
'clarity_'
'civilisations_'
'cita'
'cili'
'chronique_'
'chocolat_'
'chlor'
'chaos_'
'certified_'
'ceremony_'
'cente'
'carries_'
'capability_'
'cac'
'button_'
'bulk_'
'bs_'
'brut_'
'broke_'
'brain_'
'bourse_'
'borrowing_'
'bold_'
'bol'
'blé_'
'blood'
'birds_'
'biodiversité_'
'billets_'
'bienfaisance_'
'benefited_'
'belge_'
'battery_'
'bass'
'base'
'bas'
'bandes_'
'band'
'ballot_'
'balcony_'
'aéroports_'
'avocat_'
'aval'
'autonomes_'
'automatique_'
'autodétermination_'
'augmentent_'
'attractive_'
'atteintes_'
'associer_'
'ass_'
'aru'
'artistic_'
'arrêté_'
'aro'
'arme_'
'ard'
'aquatic_'
'appelons_'
'appelant_'
'appartement_'
'any'
'antérieures_'
'animation_'
'amn'
'ami_'
'amenities_'
'amba'
'alter_'
'allocations_'
'allemandes_'
'allait_'
'albeit_'
'ak'
'airs'
'ah'
'aggression_'
'afternoon_'
'affirmation_'
'aff'
'advocate_'
'administrer_'
'administratifs_'
'adjust_'
'ada'
'acted_'
'ace_'
'accusés_'
'accusation_'
'accompagn'
'absorbe'
'Zh'
'Zealand_'
'XX_'
'Wilson_'
'WA_'
'Vu_'
'Vit'
'Violence_'
'Vic'
'Ven'
'VII_'
'Up_'
'Unless_'
'URL_'
'UP'
'UC'
'Téléphone_'
'TÉ'
'Trop'
'Troisièmement_'
'Trent'
'Tip_'
'Test_'
'Ter'
'Tampere_'
'TY_'
'TL'
'TC'
'T1'
'Subject_'
'Spending_'
'Soi'
'Ski'
'Ship'
'Shanghai_'
'Set_'
'Sahara_'
'Sad'
'SIDA_'
'SG'
'SCT_'
'Roth'
'Roc'
'Return_'
'Resp'
'Repr'
'Ref'
'Recommendations_'
'Recommendation_'
'Real_'
'Reagan_'
'Rat'
'Raf'
'Rac'
'Qaeda_'
'QUI'
'Proliferation_'
'Produits_'
'Presidents_'
'Pou'
'Por'
'Pop'
'Politique_'
'Pl'
'PR_'
'Objectifs_'
'OK_'
'Notice_'
'Niger_'
'News'
'New'
'NCE_'
'Musharraf_'
'Moscow_'
'Monte'
'Model_'
'Mode'
'Mise_'
'Ministerial_'
'Milosevic_'
'Michel_'
'Met'
'Meli'
'May'
'Mass'
'Marshall_'
'Man_'
'Malte_'
'Malaisie_'
'Making_'
'Maastricht_'
'MIS'
'MEPs_'
'Loc'
'Livre_'
'Leader_'
'Laundry_'
'Lakes_'
'LU'
'LS_'
'Korean_'
'Kan'
'Juli'
'Jane'
'Jac'
'Integration_'
'Info'
'Inf'
'Indiens_'
'ISP'
'INS'
'IM_'
'IL_'
'ICA'
'Hu_'
'Hospital_'
'Horaires_'
'Heureusement_'
'Hall'
'Hai'
'HR'
'Gue'
'Grant'
'Governor_'
'Germans_'
'Gazette_'
'Game_'
'GUE_'
'GC_'
'Fuji'
'Fla'
'Fifty_'
'Fau'
'Fat'
'Fan'
'FO'
'FA_'
'Export_'
'Export'
'Eva'
'Europol_'
'End'
'Encore_'
'Enc'
'Employees_'
'Employe'
'Elevator_'
'Eglise_'
'Educational_'
'Edmonton_'
'Ecuador_'
'ESC'
'Droit_'
'Down'
'Domini'
'Disabled_'
'Develop'
'Daniel_'
'DRAS_'
'DR'
'DG_'
'Cup_'
'Cuban_'
'Cro'
'Coordinator_'
'Conventions_'
'Contents_'
'Conte'
'Consideration_'
'Conservation_'
'Confi'
'Concernant_'
'Con'
'Complete_'
'Commonwealth_'
'Commissioners_'
'Coa'
'Classification_'
'Certificat'
'Cari'
'Capacity_'
'Cam'
'California_'
'Cal'
'COR'
'COMM'
'CK'
'CIT'
'CIP'
'CAN'
'Buc'
'Brig'
'Brie'
'Boo'
'Bla'
'Birmanie_'
'Between_'
'Bah'
'Back_'
'BER'
'BB'
'Auto'
'Aut'
'Austrian_'
'Au'
'Asse'
'Army_'
'Année_'
'Alg'
'Ade'
'Ad_'
'AUX_'
'AT_'
'AO'
'AIR_'
':] _'
': $_'
'96'
'211_'
'210_'
'1975_'
'19'
'169_'
'154'
'149'
'128'
'106_'
'/ '
'* '
') :_'
'$'
' <_'
' : '
'€™_'
'€_'
'…_'
'” – _'
'š'
'ôle'
'ë_'
'évoqué_'
'évite'
'épo'
'épa'
'émi'
'élan_'
'élaborés_'
'éla'
'éga'
'éducatif_'
'écologiques_'
'éclairage_'
'échoué_'
'Ét'
'ÉC'
' -, _'
'zen_'
'ysi'
'yield_'
'ycl'
'yc'
'worried_'
'wonder_'
'wn_'
'wildlife_'
'wi_'
'wei'
'weekend_'
'web'
'watching_'
'wasn_'
'voyons_'
'voulaient_'
'vol'
'vois_'
'vision'
'visibility_'
'violated_'
'verra_'
'verd'
'veille_'
'veille'
'valu'
'vall'
'vagues_'
'utility_'
'uste'
'usr_'
'usc'
'urne'
'upcoming_'
'unre'
'uncon'
'ums_'
'ulé'
'ula'
'ug'
'ual_'
'tw'
'tut'
'tude_'
'tter_'
'troop_'
'trie'
'transnational_'
'traitées_'
'traces_'
'trac'
'touchent_'
'tos'
'tombé'
'throw'
'thro'
'threshold_'
'tho'
'tern'
'terminate_'
'tentent_'
'températures_'
'temperatures_'
'tec'
'taxpayers_'
'taste_'
'tan_'
'tac'
'symbols_'
'sy_'
'suspicious_'
'surrounded_'
'surge_'
'supplier_'
'supplementary_'
'superbe_'
'sum'
'suivie_'
'suggère_'
'subparagraph_'
'strip'
'strictly_'
'straight_'
'stor'
'steel_'
'steady_'
'stan'
'stables_'
'stabilis'
'ssé'
'ssent_'
'spécialités_'
'spirituel'
'spill'
'spectacular_'
'spare_'
'spa'
'soyons_'
'sonne'
'solving_'
'sièges_'
'sition_'
'sing'
'sin_'
'silver_'
'signifi'
'side'
'shortcomings_'
'sharply_'
'sha'
'settled_'
'sensor'
'seize_'
'sch'
'sce'
'scan_'
'samples_'
'saisie_'
'sain'
'safeguards_'
'rôles_'
'rêve'
'révolutionnaire_'
'réviser_'
'réunis_'
'résidant_'
'rés'
'répét'
'républicain'
'référendum_'
'réexamen_'
'réciproque'
'réalisées_'
'rum'
'rulers_'
'ruled_'
'rted_'
'rov'
'romantic_'
'roi'
'rne'
'ride_'
'rich'
'ria'
'revo'
'retrouvent_'
'retenues_'
'resumed_'
'responsive_'
'respecte_'
'respect'
'renseignement_'
'rema'
'relate_'
'rejette_'
'reintegration_'
'rehabilitation_'
'refo'
'reflection_'
'redé'
'recou'
'reconnue_'
'reconnaiss'
'recognizing_'
'reactions_'
'rapprocher_'
'raf'
'rab'
'quotidien_'
'quitte'
'qualités_'
'qualifié_'
'périodique_'
'péri'
'pât'
'pur_'
'préventive_'
'présidente_'
'préparés_'
'proximity_'
'provinciale_'
'prov'
'protest'
'protect'
'promesses_'
'profond_'
'professions_'
'prof'
'produites_'
'produces_'
'prochains_'
'proactive_'
'prié'
'privileged_'
'priest'
'press'
'preserving_'
'precedent_'
'ppi'
'pouss'
'poses_'
'porno_'
'poll_'
'pluri'
'plu'
'plenty_'
'placée_'
'place'
'pil'
'pic'
'physi'
'philosophie_'
'phil'
'pharmacie'
'pes'
'pertinente_'
'pertinence_'
'perpetrators_'
'permanents_'
'perm'
'pente'
'peau_'
'pattern_'
'patrioti'
'patri'
'passés_'
'passées_'
'passes_'
'partagée_'
'parlent_'
'parité_'
'pan_'
'painful_'
'pack'
'owe'
'overs'
'overr'
'outdoor_'
'ours_'
'ourg_'
'oud'
'ota'
'orient'
'ora_'
'opérationnelle_'
'opt_'
'oppression_'
'opi'
'oph'
'operative_'
'operates_'
'oon_'
'onné_'
'onne'
'onna'
'omm'
'ois_'
'oid'
'officially_'
'offerte_'
'offensive_'
'od'
'occupé_'
'occupational_'
'obst'
'obscur'
'obs'
'nun'
'noto'
'nomi'
'nom'
'noi'
'nobody_'
'nite'
'nin'
'nien'
'neuro'
'nels_'
'nelle_'
'nding_'
'navigateur_'
'nationalité_'
'méditerranéenne_'
'my'
'mut'
'museums_'
'mur_'
'multip'
'ms'
'mouth_'
'mot'
'moreover_'
'mora'
'monopole_'
'monitored_'
'modify_'
'modifiant_'
'mm'
'mixte_'
'mix'
'mist'
'midst_'
'meta'
'menant_'
'measuring_'
'massif_'
'marking_'
'maritimes_'
'marin_'
'mara'
'manifesté_'
'manifeste_'
'mana'
'mali'
'magazine_'
'magasins_'
'macro_'
'légal_'
'lun'
'lst'
'ls'
'lop'
'logo_'
'log_'
'lling_'
'llement_'
'lip'
'linguistiques_'
'line'
'like'
'life'
'lb'
'latitude_'
'laissent_'
'kh'
'keys_'
'keen_'
'jor'
'ject'
'ième_'
'iva'
'ith'
'istic_'
'isolement_'
'ised_'
'invitons_'
'invites_'
'invalidité_'
'invalid'
'intérim_'
'introduit_'
'intro'
'interviews_'
'interromp'
'intera'
'intensity_'
'intensification_'
'intends_'
'insécurité_'
'insur'
'insuffisante_'
'insuffisance_'
'insu'
'institutionnel_'
'institut'
'installés_'
'inspire_'
'inscrites_'
'inhal'
'inhabit'
'informa'
'inform'
'infant_'
'iner_'
'indépendamment_'
'individuelle_'
'indien_'
'indi'
'indemnités_'
'incont'
'incom'
'inco'
'inclu'
'incite_'
'incitations_'
'incarn'
'inc'
'inability_'
'imposées_'
'imposing_'
'imposent_'
'import'
'imperative_'
'im'
'illicites_'
'ik_'
'ih'
'ifie'
'identifi'
'iba'
'hém'
'hypothèse_'
'hypo'
'human'
'honnête'
'hly_'
'hir'
'hia'
'height_'
'heat_'
'harmonisé'
'hange'
'hang'
'habituel'
'habitude_'
'habitant_'
'générer_'
'généra'
'gun_'
'gue'
'gs'
'gru'
'grav'
'gratuit'
'grass_'
'grad'
'gr'
'gouverne'
'gori'
'gol'
'gno'
'genres_'
'genes_'
'gener'
'garde'
'gal'
'gaining_'
'fui'
'frappé_'
'fraction_'
'fournissant_'
'forêt_'
'forma'
'forcé_'
'flow'
'floors_'
'festivals_'
'fenêtre_'
'feedback_'
'fatigue_'
'fallu_'
'fallait_'
'fa_'
'extremism_'
'externes_'
'exprimées_'
'exprimée_'
'exploitations_'
'explicite_'
'explication_'
'excès_'
'exclue'
'eu'
'esp'
'epi'
'envoi_'
'entrées_'
'ensured_'
'enforced_'
'eness_'
'endettement_'
'endeavour_'
'encouragement_'
'emic'
'electric_'
'effr'
'effectifs_'
'edited_'
'economist_'
'earn_'
'ean'
'détriment_'
'détaillés_'
'désin'
'désigne_'
'déposer_'
'déposant_'
'déployer_'
'déplacées_'
'déplacements_'
'délits_'
'délibérément_'
'dégradation_'
'décrites_'
'décr'
'découlent_'
'débuté_'
'dwell'
'dure_'
'dront_'
'drain'
'dra_'
'douleur_'
'douce_'
'dommage_'
'doctor_'
'divine_'
'diversification_'
'disturbing_'
'distribute_'
'distribuer_'
'distinctive_'
'dist'
'dishes_'
'disent_'
'discriminatoire_'
'discovery_'
'disciplinary_'
'dirige_'
'dirig'
'directory_'
'dining_'
'diffusé_'
'differ_'
'dies_'
'diagnosis_'
'deviennent_'
'developers_'
'deu'
'detect_'
'dess'
'desquelles_'
'dependence_'
'deny_'
'demonstrations_'
'delighted_'
'delete_'
'degradation_'
'definitely_'
'declined_'
'deadline_'
'dance'
'dai'
'cure_'
'cur'
'cto'
'créent_'
'crois'
'croient_'
'council_'
'correspondants_'
'corrected_'
'coordonnées_'
'coordonnée_'
'convi'
'convey'
'conven'
'contraception_'
'continu_'
'contextual_'
'contemporain_'
'containment_'
'consulté_'
'consulted_'
'consula'
'construit_'
'constitutionnelle_'
'consid'
'conserve_'
'confirm'
'confidentiel'
'conditioning_'
'concerné_'
'compétentes_'
'comptent_'
'composés_'
'comportant_'
'compile'
'comparative_'
'compara'
'commises_'
'comfortably_'
'colère_'
'collectif_'
'coherence_'
'cluster_'
'cler'
'clean'
'cités_'
'cites_'
'choisi'
'chen'
'chemins_'
'check'
'chau'
'charity_'
'charit'
'chargées_'
'charge'
'chant_'
'chaleur_'
'chairs_'
'cesse_'
'certificates_'
'certificat_'
'cercle_'
'cepti'
'cellule_'
'caution_'
'cati'
'careful_'
'caractéristique_'
'capitals_'
'cano'
'calm_'
'by'
'but'
'burg_'
'bun'
'bubble_'
'breach_'
'bre_'
'boundaries_'
'boucl'
'bord'
'blend'
'bel_'
'battre_'
'banquiers_'
'balcon_'
'bak'
'bail_'
'backs_'
'backed_'
'aï'
'axés_'
'avoided_'
'autrefois_'
'autorisées_'
'autonome_'
'audition'
'attendons_'
'attachement_'
'atlantique_'
'atis'
'assumption_'
'assembly_'
'assainissement_'
'aside_'
'ars_'
'arrive'
'arranged_'
'arit'
'aris'
'argues_'
'archive_'
'apportés_'
'apportée_'
'applicants_'
'appellent_'
'appel'
'aper'
'anticipated_'
'ant'
'annulé_'
'annuler_'
'ani_'
'ane'
'améliorée_'
'amo'
'altogether_'
'altitude_'
'alongside_'
'alism_'
'ala_'
'aise_'
'ail'
'agrees_'
'affordable_'
'affiche'
'affi'
'affectés_'
'affecté_'
'affecter_'
'ae_'
'advise_'
'admitted_'
'administrateur_'
'adapté_'
'ada_'
'accé'
'accompli'
'accommodate_'
'acceptent_'
'absurde_'
'absent_'
'abs'
'abrog'
'aboutir_'
'abortion_'
'abordé_'
'aboli'
'abatt'
'ab_'
'] '
'Wr'
'Workshop_'
'Will'
'Whi'
'Welfare_'
'Weapons_'
'Was'
'Wan'
'WW'
'WKH_'
'WD_'
'Voyage'
'Volume_'
'Villa_'
'VA_'
'Us_'
'Under'
'UNRWA_'
'UNFPA_'
'UA'
'Téléc'
'Ty'
'Tru'
'Trip'
'Treaties_'
'Thu'
'Thanks_'
'Test'
'Terrace_'
'Termin'
'Tar'
'Tak'
'TI_'
'Swi'
'Sunni_'
'Subsection_'
'Structural_'
'Str'
'Stone'
'Steering_'
'Start_'
'Standing_'
'Sp'
'Sony_'
'Soc'
'Sl'
'Siège_'
'Sites_'
'Sil'
'Signature_'
'Shu'
'Sharon_'
'Sh'
'Seuls_'
'Seminar_'
'Securities_'
'Scott_'
'Scot'
'Santa_'
'SW'
'STE'
'STAT'
'SIN'
'S0'
'Région_'
'Rouge_'
'Rosa'
'Retr'
'Rest'
'Responsible_'
'Republican_'
'Reporting_'
'Rental_'
'Registry_'
'Registration_'
'Recognizing_'
'Rand'
'RO_'
'RA_'
'Que'
'Qa'
'Publi'
'Prov'
'Proche_'
'Pro_'
'Priority_'
'Pri'
'Power'
'Poor_'
'Pont'
'Poly'
'Pic'
'Phil'
'Personne_'
'Pan'
'PI_'
'PIC_'
'Ow'
'Ord'
'Oh'
'Ob'
'OL_'
'Né'
'Noël_'
'Nokia_'
'Nikon_'
'Nicaragua_'
'Newspapers_'
'Neither_'
'Nam_'
'NR'
'Moscou_'
'Morgan_'
'Montenegro_'
'Mod'
'Mis'
'Mir'
'Mau'
'Marc_'
'Mara'
'Manuel_'
'Major_'
'MM_'
'MC_'
'Ly'
'Lud'
'Licence_'
'Lia'
'Lee_'
'Lebanese_'
'Large_'
'Lac'
'LT_'
'LTD_'
'LT'
'LQ'
'LP'
'LM'
'LLE'
'LG'
'K1A_'
'Justification_'
'Juan_'
'Javier_'
'JU'
'JP'
'Iv'
'Issues_'
'Inv'
'Internationale_'
'Innovation_'
'Industrie_'
'IX_'
'IR_'
'IRU_'
'IND'
'ICT_'
'ICC_'
'IA_'
'How'
'Hou'
'Hold'
'Hitler_'
'Henry_'
'Hear'
'Hea'
'Haye_'
'Hara'
'Hamilton_'
'Hall_'
'Grenad'
'Green'
'Greater_'
'Grands_'
'Goods_'
'Golf_'
'Gold'
'Gat'
'GS'
'Fé'
'Front'
'Fourth_'
'Fou'
'Flash_'
'Finalement_'
'File'
'Faites_'
'FDI_'
'FD'
'Expert_'
'Expe'
'Esp'
'Esc'
'Es'
'Electronic_'
'Economy_'
'Eco'
'Eb'
'EV'
'EST_'
'EG'
'Dur'
'Departmental_'
'DPJ_'
'DAT'
'Cré'
'Cot'
'Cost'
'Coopération_'
'Consultation_'
'Cons'
'Compagnie_'
'Committees_'
'Commercial_'
'Clo'
'Chancellor_'
'Chacun_'
'Certain_'
'Cent'
'Castle_'
'Carte'
'Cart'
'Card_'
'Cannes_'
'Cameron_'
'Call_'
'CRTC_'
'COM'
'CNRC_'
'CHE'
'CER'
'CAS'
'Budgets_'
'Broad'
'Bridge_'
'Brid'
'Bretton_'
'Brand'
'Brad'
'Bos'
'Bolivia_'
'Boe'
'Big_'
'Ball'
'BY_'
'BAS'
'Award_'
'Aviation_'
'Arafat_'
'Ang'
'Ami'
'Allah_'
'Aide_'
'Actuellement_'
'Academy_'
'ARE'
'ALE_'
'AD_'
'ADR_'
': «_'
'215'
'208_'
'1966_'
'1948_'
'152_'
'140_'
'139'
'137_'
'136'
'134'
'117_'
'112_'
'002'
', «_'
', [_'
'))'
' �_'
' ”'
' *_'
' #_'
' "'
' ! _'
''
''
''
'ﬁc'
'€'
'” '
'’, _'
'к'
'з'
'ŕ_'
'ôt'
'éventuelles_'
'éventualité_'
'évalué_'
'étudie'
'étrange_'
'éth'
'éris'
'équilibré_'
'équ'
'épisode_'
'énormément_'
'émis'
'émettre_'
'éma'
'élé'
'ég'
'éd'
'écras'
'écr'
'écos'
'éclate'
'écl'
'èle'
'çon_'
'ço'
'çant_'
'ç'
'Îles_'
'Éthiopie_'
'}'
'zoo'
'zb'
'yle_'
'yea'
'xenophobia_'
'xe'
'wild_'
'widen'
'wholly_'
'wellness_'
'weigh'
'wea'
'washe'
'warrant_'
'wai'
'vé_'
'vs_'
'vra'
'voya'
'vole'
'vocational_'
'viva'
'viruses_'
'viole'
'vingtième_'
'vicinity_'
'veu'
'verify_'
'verba'
'vel'
'varying_'
'varieties_'
'variant'
'valide'
'vacation_'
'utter'
'utmost_'
'utilisa'
'usly_'
'usa'
'ury_'
'urges_'
'urgente_'
'ups'
'upgrading_'
'unn'
'unm'
'unfor'
'unf'
'uma'
'ulo'
'ull'
'uire_'
'uel_'
'ude_'
'télévis'
'tués_'
'turque_'
'turcs_'
'tuo'
'tuberculose_'
'tter'
'tta'
'tsunami_'
'truct'
'tro_'
'tric'
'travelling_'
'transposition_'
'transporté'
'transmis_'
'translated_'
'transcend'
'tranquille_'
'tran'
'traits_'
'traduire_'
'trace_'
'touristes_'
'tour'
'tough_'
'tortured_'
'tombe'
'toi'
'tirées_'
'till'
'til'
'tight'
'tied_'
'tib'
'thérapie_'
'théorique'
'thi'
'themes_'
'thal'
'terreur_'
'term'
'teneur_'
'tene'
'température_'
'tempt'
'tape'
'tant'
'tail'
'tactique_'
'tactics_'
'tackling_'
'séparés_'
'sz'
'synergies_'
'swa'
'suspendu'
'suspended_'
'suspend_'
'surroundings_'
'surprised_'
'summ'
'subsidiarity_'
'styles_'
'styl'
'structur'
'strikes_'
'strictes_'
'strengths_'
'strat'
'stran'
'storm_'
'stin'
'stimulant'
'stepp'
'stem_'
'sted_'
'statu'
'state'
'starts_'
'stal_'
'ssai'
'sq'
'spécifiquement_'
'spécialiste_'
'split_'
'spectr'
'specifications_'
'souris_'
'soup'
'soumission_'
'soulève'
'soul_'
'sorry_'
'sophisticated_'
'song_'
'some'
'soli'
'sold'
'socialistes_'
'snow_'
'singer_'
'simultaneously_'
'shuttle_'
'sexy_'
'sew'
'settings_'
'serez_'
'separately_'
'separated_'
'sentir_'
'selective_'
'seized_'
'scrap'
'scores_'
'scenarios_'
'scandale'
'savoirs_'
'satisfy_'
'satisfaits_'
'satellites_'
'sampling_'
'sad_'
'rêve_'
'réé'
'rétro'
'résult'
'résolu_'
'réservé_'
'référ'
'réactions_'
'russes_'
'rth'
'routier_'
'roman'
'rn_'
'rmin'
'ritu'
'rist'
'rise'
'rique_'
'rin'
'ric'
'rhétorique_'
'rhetoric_'
'reverse_'
'retenus_'
'resté'
'ressemble_'
'responsabilisation_'
'respects_'
'respecting_'
'resist_'
'resi'
'reputation_'
'représentait_'
'repression_'
'reprendre_'
'repren'
'reportedly_'
'renowned_'
'renouvelable_'
'renou'
'renminbi_'
'rele'
'registra'
'regarder_'
'regard'
'redistribution_'
'recycling_'
'recul_'
'recourse_'
'recherch'
'recalled_'
'realized_'
'realise_'
'read'
'rc'
'rated_'
'randonnée_'
'rain'
'rag'
'qués_'
'quelqu_'
'quarters_'
'quan'
'qualifiée_'
'qa'
'pénétr'
'py_'
'put'
'ptu'
'psychologi'
'prévoyant_'
'présumé'
'présidentielles_'
'prépare_'
'préf'
'proxy_'
'provinciales_'
'protein'
'prop'
'promotes_'
'promising_'
'promesse_'
'prome'
'projet'
'progression_'
'progressi'
'programm'
'produite_'
'privatization_'
'primauté_'
'prie_'
'prestataires_'
'presse'
'pren'
'preferences_'
'pratiqu'
'potent'
'posséder_'
'posi'
'portions_'
'portait_'
'polit'
'poli'
'poe'
'pleas'
'platforms_'
'plastique_'
'plain'
'placements_'
'pier'
'pieces_'
'pid'
'perçoivent_'
'pertaining_'
'permitting_'
'permettraient_'
'permanence_'
'performant'
'pensez_'
'pend'
'pel'
'pee'
'peak_'
'paye_'
'patience_'
'path'
'parviennent_'
'parvenu_'
'partiellement_'
'participe_'
'parity_'
'pair_'
'ovi'
'overwhelming_'
'outr'
'outputs_'
'ously_'
'oua'
'orph'
'orn'
'ories_'
'organ_'
'org'
'opérer_'
'opérationnelles_'
'opt'
'opera'
'opens_'
'onde'
'om'
'oligarch'
'oldest_'
'oka'
'ois'
'ogy_'
'og_'
'offset_'
'of'
'oci'
'oc'
'obten'
'obtaining_'
'observateur_'
'négative_'
'néerlandais_'
'nz'
'nst'
'nsi'
'noti'
'nommer_'
'nominations_'
'ngi'
'ney'
'ners_'
'neige_'
'nd'
'nag'
'méth'
'mètre_'
'multilatérales_'
'moul'
'mortgages_'
'mood_'
'mont'
'mond_'
'mobilize_'
'mit_'
'micros'
'mettra_'
'merits_'
'mentionnés_'
'mentionn'
'mental'
'mediat'
'mec'
'mba'
'maturité_'
'maternal_'
'massive'
'marins_'
'manu'
'manquer'
'mann_'
'mang'
'managerial_'
'malf'
'légitimes_'
'légaux_'
'lur'
'loy'
'lounge_'
'los_'
'literature_'
'limiting_'
'licite'
'libér'
'liberalis'
'leçon_'
'lent'
'lend_'
'legali'
'leak'
'lave_'
'lava'
'lav'
'launching_'
'lant_'
'langage_'
'lande'
'lance'
'lacking_'
'kids_'
'key'
'just'
'juridiquement_'
'juridiction_'
'judgement_'
'joindre_'
'jo_'
'jeudi_'
'jail'
'ive'
'ites_'
'isti'
'issus_'
'issa'
'isonn'
'islands_'
'islam_'
'irrigation_'
'iraniens_'
'intéressé_'
'intéressent_'
'intéressante_'
'intègre_'
'inti'
'interse'
'interpreted_'
'interinstitution'
'intergouvernemental_'
'institutionnelles_'
'instantly_'
'inspired_'
'inspecteurs_'
'inondations_'
'ink'
'injuste_'
'inhibit'
'inge'
'inevitably_'
'iness_'
'iner'
'indispensables_'
'indirectement_'
'indigènes_'
'indicative_'
'indicateur_'
'index'
'ind'
'inci'
'incendi'
'imput'
'impressionnant'
'imposé_'
'impliquent_'
'implication_'
'impe'
'immunité_'
'immunity_'
'imagination_'
'illégal_'
'ila'
'igne'
'igna'
'ieuses_'
'idéologique_'
'ide'
'iant_'
'hyper_'
'hro'
'hostile_'
'hosted_'
'horizontal_'
'horizon_'
'honest_'
'homog'
'homel'
'hom'
'heurte'
'health'
'hazardous_'
'ham'
'guin'
'grossi'
'graphic_'
'gos'
'gma'
'glace'
'gien'
'geno'
'gee'
'gall'
'gale'
'functionality_'
'fuels_'
'french_'
'footing_'
'fondateurs_'
'fond'
'fonctionnalité_'
'fold_'
'focal_'
'fluid_'
'flu'
'flash_'
'flag'
'fis'
'financés_'
'financ'
'fig'
'fiducie_'
'fia'
'festival_'
'fermer_'
'ferm'
'fect'
'feasible_'
'façons_'
'fast'
'fassent_'
'famine_'
'faisaient_'
'fais_'
'faille_'
'fad'
'extract_'
'exposées_'
'exporters_'
'explor'
'exigent_'
'exig'
'exh'
'exemptions_'
'executives_'
'examine'
'evil_'
'everybody_'
'eti'
'eth'
'este'
'essor_'
'essaye'
'ese_'
'ert_'
'episode_'
'eous_'
'envoie_'
'envisagées_'
'environs_'
'entrusted_'
'entrance_'
'entra'
'entertain'
'ententes_'
'ente'
'entamer_'
'enr'
'enl'
'ening_'
'engagées_'
'enemies_'
'ene_'
'endur'
'enci'
'ence'
'emploie_'
'emit'
'emergencies_'
'ement'
'embo'
'elli'
'eligibility_'
'elect_'
'eit'
'ega'
'editor_'
'ech'
'eate'
'earnings_'
'eant_'
'développeurs_'
'dév'
'détérior'
'détruit_'
'détente_'
'désaccord_'
'déposés_'
'dépistage_'
'dépasse'
'démontrer_'
'démocratisation_'
'démarrage_'
'démarches_'
'définitif_'
'définiss'
'définie_'
'décri'
'découp'
'déce'
'débo'
'débatt'
'dum'
'dozens_'
'dotées_'
'doses_'
'dol'
'dle_'
'divisé'
'div'
'dits_'
'dispers'
'disparités_'
'disappear_'
'dirigé_'
'diet_'
'dictature_'
'diar'
'diamond_'
'diam'
'devastating_'
'dest'
'depart'
'delayed_'
'defines_'
'defi'
'deci'
'das_'
'dan'
'dam'
'cél'
'cyber'
'cus'
'cultivation_'
'cult'
'cuis'
'cubain'
'créées_'
'créati'
'cry'
'croître_'
'creditor_'
'crainte_'
'coûte_'
'coupables_'
'cost'
'cos'
'corrompu'
'corrections_'
'cord'
'convert_'
'contributes_'
'contrairement_'
'contra'
'contiennent_'
'contextuelle_'
'contaminé'
'contacter_'
'consultant_'
'constructed_'
'constitu'
'conscients_'
'consacre_'
'conjointes_'
'confront_'
'confine'
'confier_'
'confident_'
'condemn_'
'concept'
'concentrate_'
'compétition_'
'comput'
'comptabilité_'
'compréhensible_'
'compounds_'
'compatibles_'
'compar'
'communique'
'commercial'
'commentaire_'
'commend_'
'commend'
'combining_'
'column_'
'college_'
'coerci'
'cocktail_'
'coc'
'clothing_'
'clock_'
'cliquez_'
'clinique_'
'clicking_'
'classic_'
'clandestine_'
'clairs_'
'circ'
'cie'
'cid'
'cia'
'ché_'
'château_'
'cht'
'chr'
'choisisse'
'chen_'
'charmant'
'challenged_'
'chaleureuse_'
'cesser_'
'certifié'
'centr'
'cen'
'cei'
'cca'
'cap_'
'cancellation_'
'cancel'
'calibre_'
'calculated_'
'caisses_'
'cache_'
'cache'
'cab'
'burn_'
'build'
'brûl'
'brun'
'brothers_'
'bres_'
'breeding_'
'branche_'
'branch_'
'bomb_'
'blind_'
'blind'
'bird_'
'biomé'
'bilatéral_'
'bigger_'
'bien'
'bicycle'
'bi_'
'belong_'
'bed'
'bassin_'
'basse_'
'bankers_'
'bands_'
'bancaires_'
'bags_'
'aéro'
'axé_'
'avoirs_'
'avenue_'
'autoris'
'authentic_'
'augmentations_'
'augment'
'atteste'
'atte'
'ator_'
'assuré_'
'assured_'
'assu'
'assassinat_'
'asp_'
'asks_'
'asc'
'arose_'
'armements_'
'arm_'
'aries_'
'ari'
'apt'
'apprécie'
'approximate_'
'approuve_'
'approch'
'applaud'
'apparente_'
'apparatus_'
'apparaissent_'
'ante'
'annonce'
'ang'
'anal'
'amé'
'amitié_'
'amin'
'amener_'
'amazing_'
'amateurs_'
'alphabétisation_'
'allegedly_'
'alive_'
'ality_'
'alien_'
'ald_'
'aigu'
'aidé_'
'aftermath_'
'africain_'
'affirme_'
'affirm'
'affiliée_'
'affiche_'
'affection'
'affect'
'aer'
'adéquates_'
'advancing_'
'adv'
'adopt'
'admettre_'
'add'
'adaptés_'
'acu'
'actua'
'acknowledges_'
'acier_'
'acheteur_'
'accru'
'accordent_'
'accomplished_'
'accompagnés_'
'accompagnée_'
'accessoires_'
'ac'
'abri_'
'abr'
'abolish'
'abo'
'ablement_'
'abandon'
'], _'
'] . . _'
'YH'
'XVII'
'XML_'
'Word_'
'Watch_'
'Wat'
'Vé'
'Vista_'
'Visit_'
'Vin'
'Vil'
'Victoria_'
'Verts_'
'VAL'
'Uzbekistan_'
'Um'
'USS'
'UM'
'ULA'
'UL'
'Té'
'Twi'
'Turn'
'Très_'
'Trust_'
'Troisième_'
'Trinit'
'Trib'
'Trek_'
'Treatment_'
'Trac'
'Torre'
'Tim_'
'Tho'
'Terms_'
'Term_'
'Telephone_'
'Tea'
'Target'
'Tanzania_'
'Tajikistan_'
'Tai'
'TW'
'TUR'
'TU'
'TRE'
'TOU'
'TIC_'
'TER_'
'TEC'
'Sy'
'Sup'
'Subcommittee_'
'Ster'
'Spo'
'Sol_'
'Shari'
'Share_'
'Sev'
'Sel'
'See'
'Saskatoon_'
'Santos_'
'Saharan_'
'SP_'
'SIS_'
'SG_'
'SCO'
'SAN'
'SADC_'
'Résumé_'
'Résultats_'
'Rose'
'Roman'
'Rich'
'Revised_'
'Reve'
'Regions_'
'Refugee_'
'RM'
'RIC'
'Pros'
'Projets_'
'Projects_'
'Procedures_'
'Priv'
'Pricing_'
'Prec'
'Plat'
'Peri'
'Pere'
'Patr'
'Parent'
'Parallèlement_'
'Pal'
'PMA_'
'Od'
'OH'
'OGM_'
'Nothing_'
'Nero_'
'National'
'Nar'
'NS'
'NOR'
'NL_'
'NGL_'
'MySQL_'
'Mol'
'Mira'
'Miami_'
'Mesures_'
'Markets_'
'Marketing_'
'Marina_'
'Marco_'
'Mani'
'MINU'
'MIN'
'MIL'
'Lyon_'
'Louis_'
'Liu_'
'Libéria_'
'Libyan_'
'Liberal_'
'Level_'
'Lav'
'Laeken_'
'Laden_'
'Lac_'
'LV'
'LONDON_'
'LL'
'LIN'
'LD'
'Kur'
'Knowledge_'
'Kho'
'Kh'
'Jésus_'
'Jos'
'Jones_'
'Jews_'
'Jeux_'
'Jen'
'Jan_'
'JO'
'Israelis_'
'Ironing_'
'Intelligence_'
'Integrated_'
'Institutes_'
'Ins'
'Individuals_'
'Impr'
'Id'
'ITI'
'ITE'
'IMA'
'IGC_'
'Hy'
'Hostel_'
'Host'
'Honourable_'
'Hay'
'Has_'
'Has'
'Harvard_'
'Had_'
'Governance_'
'Golfe_'
'Gil'
'Gal'
'Gabon_'
'GA_'
'Friendly_'
'Fri'
'Fr'
'Forestry_'
'Fol'
'Fish_'
'Financement_'
'Fiji_'
'Field_'
'Fatah_'
'Fal'
'Fair_'
'FORM'
'FM_'
'FI_'
'Exe'
'Excise_'
'Excellency_'
'Ever_'
'Events_'
'Eurostat_'
'Essa'
'Es_'
'Equal_'
'Edward_'
'EO'
'ECE_'
'Dép'
'Dém'
'Décision_'
'Duc'
'Dry_'
'Dre'
'Dra'
'Don'
'Dj'
'Distribution_'
'Disney_'
'Discipline_'
'Direct_'
'Dev'
'Database_'
'DIN'
'DG'
'DF'
'DB'
'DANS_'
'Cé'
'Currently_'
'Cru'
'Cres'
'Court'
'Cou'
'Corr_'
'Consider_'
'Concern'
'Conce'
'Comments_'
'Comm'
'Clean_'
'Cin'
'Choose_'
'Centr'
'Catherine_'
'Carlo'
'Cara'
'Canon_'
'Cameroon_'
'CUL'
'CTION_'
'CBSA_'
'CAD_'
'Bug'
'Boston_'
'Bond'
'Bon_'
'Bol'
'Boa'
'Bil'
'Bhutan_'
'Bern'
'Belle'
'Bay'
'Baltique_'
'Bai'
'Bad'
'Available_'
'Assad_'
'Arms_'
'Arc'
'Arabes_'
'Ara'
'Ama'
'Alte'
'Alli'
'All'
'Alcohol_'
'Albert_'
'Active_'
'Acting_'
'Acc'
'Abdul'
'ASE'
'ARI'
'APP'
'AIEA_'
'; - _'
'58'
'199'
'181'
'123_'
'120'
'118_'
'000'
'.»'
'.(_'
'- (_'
'))_'
'& _'
'# _'
'") _'
' ?'
' . . . _'
' - $_'
' ($_'
' %'
' $, _'
' $'
' # _'
' !'
''
''
' '
'−_'
'………'
'и_'
'ó_'
'ña'
'évoquer_'
'évolué_'
'étonnant_'
'étions_'
'étendue_'
'éré_'
'éradiquer_'
'équipée_'
'équilibr'
'épi'
'épargn'
'élégante'
'élo'
'élabor'
'éduqu'
'écrivai'
'économiquement_'
'écologi'
'éclairée'
'éa'
'è_'
'çons_'
'är'
'ß'
'Évaluation_'
'Éc'
'¿_'
' – _'
'| _'
'zn'
'zi_'
'zer'
'zen'
'yé'
'yri'
'yon'
'yle'
'yen_'
'yde_'
'yan'
'xu'
'xo'
'wrong'
'worsen'
'worry_'
'worries_'
'wording_'
'withdrawn_'
'with'
'wid'
'wic'
'whole'
'who'
'whenever_'
'wee'
'warnings_'
'warm'
'warfare_'
'wan'
'walks_'
'vérifi'
'vulnérable_'
'vul'
'vu'
'vraisemblablement_'
'voyager_'
'voter'
'vota'
'volunteer'
'volumes_'
'voisinage_'
'vocal'
'vitale_'
'vita'
'visé_'
'visual'
'visit'
'viens_'
'vie'
'vic_'
'vessel_'
'vertical_'
'versements_'
'versement_'
'vers'
'ver'
'venus_'
'venai'
'variées_'
'van'
'vaccin_'
'vacant_'
'vable_'
'ution'
'uti'
'ute_'
'uss'
'ups_'
'unresolved_'
'unpre'
'universe_'
'univers_'
'uniforme_'
'underscore'
'underground_'
'uncom'
'ume_'
'ught'
'uen'
'uement_'
'uelle_'
'uel'
'ued_'
'turns_'
'tuberculosis_'
'tting_'
'triumph'
'trimestre_'
'trick'
'travers'
'traumati'
'transparente_'
'transmises_'
'transmet'
'translati'
'transférer_'
'transformed_'
'transformat'
'transferring_'
'traitent_'
'traders_'
'trade'
'toxicoman'
'tory_'
'tortur'
'top'
'tomber_'
'tk'
'titulaires_'
'tira'
'tir_'
'tighten'
'tif'
'thu'
'throw_'
'threatens_'
'ther'
'textiles_'
'terrains_'
'termination_'
'tenues_'
'tends_'
'temp'
'tells_'
'teen'
'techno'
'tche'
'taxable_'
'tas_'
'tary_'
'tarifaires_'
'tard'
'talked_'
'talents_'
'tailored_'
'syrienne_'
'syrien'
'symp'
'suspects_'
'sus'
'surviv'
'surr'
'surprisingly_'
'surpr'
'surpluses_'
'surge'
'supermar'
'sup'
'summits_'
'suffisants_'
'subse'
'subscribe_'
'sté'
'string_'
'stresses_'
'stream_'
'str'
'ston'
'stipulate'
'stimulate_'
'stick'
'star'
'sque'
'spr'
'spouse_'
'sponsored_'
'spectrum_'
'spectre_'
'speciali'
'spacieuses_'
'sp'
'soum'
'soulève_'
'souhaitable_'
'souhait_'
'souffert_'
'sollicit'
'soigneusement_'
'soc'
'smooth_'
'slowdown_'
'slip'
'sl'
'simplifie'
'sign'
'sight_'
'sick_'
'sia'
'shop_'
'shooting_'
'shifts_'
'shee'
'shal'
'severely_'
'seurs_'
'servicing_'
'sequence_'
'sentier'
'semestre_'
'sembler'
'semblables_'
'sels_'
'securing_'
'secular_'
'secrets_'
'seasonal_'
'scr'
'sc'
'sava'
'sauvegarder_'
'satur'
'sanitaire_'
'sand_'
'salva'
'salons_'
'sah'
'safely_'
'safeguarding_'
'réunit_'
'rét'
'résolue_'
'résident_'
'réservés_'
'répéter_'
'répondant_'
'répertoire_'
'répartis_'
'réjoui'
'réf'
'rée_'
'récolte_'
'réclame_'
'réciprocité_'
'réc'
'réaliste_'
'réaffirm'
'rvi'
'rve'
'rti'
'royale_'
'row'
'routière_'
'rously_'
'rol'
'road'
'rn'
'rma'
'rival_'
'rion'
'rib'
'rgi'
'rgani'
'revêt'
'retrouv'
'retraites_'
'rete'
'resum'
'resu'
'restoring_'
'restitu'
'repris_'
'repo'
'repe'
'repair'
'reo'
'rentable_'
'renouvel'
'renonc'
'renew'
'rendra'
'rendered_'
'remplis'
'remonte_'
'rejoint_'
'reinforcing_'
'reinforced_'
'rega'
'refund'
'refr'
'recyclage_'
'recueillies_'
'recommen'
'recommandé'
'recommandons_'
'receva'
'recensement_'
'react_'
'ratios_'
'rassembler_'
'rar'
'rappel'
'ramener_'
'raj'
'quête_'
'quote_'
'quent'
'quasiment_'
'quart'
'qualify_'
'pétrolière_'
'pénurie_'
'pushing_'
'publishing_'
'publish_'
'ptions_'
'ps'
'prévoient_'
'préval'
'prév'
'prétendre_'
'prétend_'
'préparée'
'préoccupée_'
'prédire_'
'précis'
'préca'
'provoke'
'protectionism_'
'prospère_'
'proposent_'
'propo'
'propag'
'promotions_'
'promotional_'
'promis_'
'projections_'
'projection_'
'profoundly_'
'procède_'
'probabilité_'
'probability_'
'privilégiée_'
'privilégie'
'privati'
'prevail'
'presentations_'
'preceding_'
'pousse_'
'posées_'
'postal_'
'posséd'
'portray'
'populist_'
'poorer_'
'pollu'
'polls_'
'poke'
'plum'
'plug'
'plas'
'plant'
'plaisan'
'plafon'
'pié'
'pistes_'
'piano_'
'pi_'
'physicians_'
'photographe'
'phoni'
'pho'
'pes_'
'persuade'
'personali'
'pect'
'peacefully_'
'peace'
'patron'
'pati'
'passif_'
'parven'
'particles_'
'parental_'
'parallèlement_'
'pap'
'panac'
'paludisme_'
'palestiniens_'
'paint'
'pacifiques_'
'oversee'
'overlap_'
'outlook_'
'outl'
'ourne'
'oue'
'ose'
'orit'
'originating_'
'ordres_'
'orateur_'
'optimism_'
'optim'
'opium_'
'ood_'
'ony_'
'onis'
'omp'
'oma'
'olympique'
'oint'
'oin'
'oge'
'offenders_'
'off'
'ode'
'océan_'
'ocr'
'och'
'occupés_'
'occidentales_'
'oc_'
'oblige'
'nza'
'nutritionnel'
'nutriti'
'nuis'
'nue'
'ntin'
'notifi'
'note'
'normalisé'
'normali'
'nod'
'nne_'
'nne'
'nn_'
'nineteenth_'
'night'
'neighbor'
'neg'
'nea'
'nds_'
'nder_'
'nded_'
'nche'
'naï'
'nav'
'natal_'
'nant_'
'nalité_'
'nage'
'médicales_'
'médiateur_'
'mé_'
'myth'
'mutuellement_'
'musée_'
'murs_'
'murder'
'multiplie'
'multilatéral_'
'motivations_'
'mothers_'
'mort'
'monter_'
'montagnes_'
'mona'
'modestes_'
'modernité_'
'modernis'
'mitigation_'
'mirror'
'mique'
'mineral_'
'minds_'
'mille_'
'mille'
'mile_'
'migrate'
'migra'
'microbi'
'mettr'
'messager'
'mess'
'merger_'
'ment'
'mens'
'menacent_'
'medieval_'
'meantime_'
'mbu'
'mbo'
'mb'
'mation_'
'matches_'
'mask'
'margin_'
'marchand'
'malades_'
'macroéconomiques_'
'législatifs_'
'légales_'
'lâ'
'luxurious_'
'lut'
'lumineu'
'luc'
'lourde_'
'lourd_'
'lon_'
'logistic'
'logi'
'lock'
'llo'
'littéra'
'list'
'lisme_'
'lis_'
'lion'
'lio'
'limit'
'lig'
'licensed_'
'letters_'
'lentement_'
'lements_'
'learn'
'lations_'
'lah_'
'lage_'
'ku_'
'kne'
'km'
'kind'
'kin'
'kilometers_'
'kid'
'keywords_'
'ket_'
'justifié_'
'justifie_'
'jun'
'judicieux_'
'jouit_'
'joli'
'joie_'
'iés_'
'itions_'
'ition'
'itin'
'isse_'
'israélo_'
'israéliens_'
'irres'
'irlandais_'
'iries_'
'iors_'
'inévitable_'
'invoqué'
'investisse'
'investigated_'
'inverse'
'inutile_'
'intérieurs_'
'intéresser_'
'intersection_'
'interrogé'
'interm'
'intensify_'
'intensi'
'instrumenta'
'instituts_'
'ino_'
'injustice_'
'inis'
'inférieurs_'
'informée_'
'influencer_'
'influen'
'inf'
'ines'
'inequalities_'
'ined_'
'induced_'
'indo'
'individu_'
'indifféren'
'indict'
'indicator_'
'inappropriate_'
'imply_'
'implied_'
'implant'
'imper'
'immuno'
'ime'
'illégales_'
'iles_'
'igen'
'ification_'
'ies'
'idéale_'
'ideological_'
'identifié_'
'id'
'ico'
'hétéro'
'héros_'
'hyp'
'husband_'
'honor'
'ho_'
'hm'
'histori'
'highlights_'
'hierarch'
'hide_'
'herbe'
'hement_'
'hell_'
'hel'
'hazard_'
'hau'
'hast'
'harmony_'
'harmonie_'
'harge'
'harcèlement_'
'haine_'
'habitats_'
'habita'
'généralisée_'
'gère_'
'gym_'
'gula'
'grid_'
'gren'
'green'
'grass'
'gras_'
'graphie_'
'gramm'
'gner_'
'glad_'
'gho'
'ggi'
'get'
'geographic_'
'geni'
'gathering_'
'gate_'
'gate'
'gas'
'gardien'
'gameplay_'
'fur_'
'fumeur_'
'fum'
'freeze_'
'francophones_'
'franchise_'
'frameworks_'
'forwarded_'
'formidable_'
'forge_'
'foresti'
'foll'
'foli'
'fol'
'fit'
'fiscalité_'
'fired_'
'finir_'
'fina'
'fille_'
'fil'
'figurer_'
'fighter'
'fiction_'
'fer'
'favourable_'
'faute_'
'fault_'
'fashion'
'fall'
'faithful_'
'failures_'
'factory_'
'exécute'
'extrait'
'extends_'
'exprimés_'
'expressly_'
'expositions_'
'exploitants_'
'explications_'
'expir'
'exempt'
'excessif_'
'exag'
'exact'
'even'
'eter_'
'esi'
'escalade_'
'eras'
'envisaged_'
'envelop'
'envahi'
'entré_'
'entretenu_'
'entretenir_'
'entrent_'
'entremise_'
'entraver_'
'entour'
'ensui'
'enregistrements_'
'enjoys_'
'engra'
'englob'
'enemy_'
'endless_'
'ender_'
'encouragé_'
'empti'
'empower'
'empo'
'emploient_'
'emphasize_'
'emo'
'emm'
'embe'
'elite_'
'elie'
'eg'
'efficiently_'
'efficience_'
'ecti'
'ecosystems_'
'ecl'
'easi'
'détr'
'détien'
'déterminés_'
'détaillants_'
'déséquilibre_'
'désign'
'déré'
'dépr'
'dépo'
'dépendant'
'dépenda'
'dépassé_'
'déme'
'démarr'
'délit_'
'dédo'
'découle_'
'décor_'
'déclenché'
'déclarée_'
'décid'
'début'
'dress'
'drafted_'
'downturn_'
'doua'
'dotée_'
'dop'
'donations_'
'donation_'
'distribués_'
'distract'
'distances_'
'dissidents_'
'disposant_'
'diso'
'disciplines_'
'disappoint'
'disadvantaged_'
'dire'
'dim'
'diffuser_'
'did'
'deva'
'deteriorat'
'desktop_'
'demonstration_'
'delta_'
'deliver'
'deli'
'databases_'
'damaged_'
'célébrer_'
'cées_'
'câble_'
'cz'
'cyclical_'
'cyber_'
'cus_'
'cue'
'cu'
'ctions_'
'créat'
'crus'
'critiqué'
'critics_'
'cris'
'cree'
'coûter'
'countryside_'
'counterparts_'
'coul'
'coté_'
'cotton_'
'corde'
'cooperating_'
'cooking_'
'converge'
'contrôlé_'
'contreba'
'contracting_'
'contr'
'continually_'
'contingents_'
'contaminated_'
'containers_'
'consulting_'
'consult'
'conso'
'consi'
'conserva'
'conscient_'
'connect_'
'congratulat'
'confidential_'
'conditioned_'
'cond'
'concret_'
'conclut_'
'compétent_'
'compulsory_'
'comptant_'
'compr'
'composante_'
'comportent_'
'compli'
'compact_'
'communistes_'
'communisme_'
'communion_'
'communica'
'commits_'
'commercialis'
'combines_'
'combina'
'combatt'
'colo'
'colli'
'collect'
'coins_'
'clôture_'
'clé'
'clinics_'
'cleaning_'
'clar'
'clai'
'ción_'
'circula'
'cir'
'cion'
'cinéma_'
'cides_'
'chuté_'
'chute'
'chrom'
'choosing_'
'chirurgi'
'chiffre_'
'chia'
'charis'
'chante'
'champion'
'chairman_'
'cellula'
'cease'
'cd'
'cateur_'
'cate'
'catastrophi'
'catalogue_'
'casse'
'casi'
'cartridge_'
'carpet'
'caractérisé'
'capteur'
'capt'
'capitalis'
'cale_'
'calculs_'
'cai'
'bus'
'bureaucratique_'
'bureaucracy_'
'bulle_'
'bubbles_'
'branches_'
'boîtes_'
'bout'
'bot_'
'book'
'bonn'
'bombs_'
'boasts_'
'bloquer_'
'bloc_'
'bleu'
'blanchiment_'
'bio_'
'bia'
'bers_'
'bau'
'basées_'
'banned_'
'ballo'
'bala'
'baissé_'
'bailout_'
'bail'
'bag'
'az'
'avi'
'ava'
'autonomy_'
'automne_'
'automatisé'
'autoc'
'aut'
'audiences_'
'attracted_'
'attendance_'
'attend'
'attaqu'
'atom'
'ath_'
'assuming_'
'assisted_'
'ase_'
'arrêtée'
'arrestation_'
'arrange_'
'arin'
'arche'
'arab'
'aqua'
'aptitude_'
'appuient_'
'apprécié_'
'appréci'
'approfondir_'
'apprais'
'appos'
'appelés_'
'appauvri'
'apparu_'
'aph'
'ané'
'antir'
'antid'
'answered_'
'anne'
'anim'
'angulaire_'
'ande'
'anda_'
'anda'
'améliorant_'
'amen'
'ambassade_'
'aka_'
'ait'
'airline'
'agressi'
'ageing_'
'afi'
'afghan_'
'affr'
'affirmative_'
'affaiblir_'
'adr'
'adoptant_'
'additionnels_'
'adaptée_'
'accumule'
'accrues_'
'accreditation_'
'accordées_'
'accompagne_'
'acce'
'aca'
'absurd'
'absorption_'
'\\'
'[ _'
'YS'
'XXI'
'XX'
'Writ'
'Wor'
'Wolf'
'Wis'
'WiFi_'
'Where'
'Wen'
'Week'
'Website_'
'Way'
'Water'
'WP'
'Vladimir_'
'Via_'
'Vend'
'Vehicle_'
'Van'
'Value_'
'VIII_'
'VH'
'VEL'
'Ut'
'Use'
'Us'
'Uribe_'
'Upon_'
'Ult'
'UX_'
'UH'
'Turkmenistan_'
'Tul'
'Trouver_'
'Tom_'
'Tir'
'Though_'
'Ther'
'Text'
'Tat'
'Take_'
'TN'
'TIONS_'
'TCI_'
'TAL'
'Sénégal_'
'São_'
'Supplement_'
'Supp'
'Super_'
'Stre'
'Stra'
'Stea'
'St'
'Spe'
'Sound_'
'Soleil_'
'Sky'
'Situated_'
'Short_'
'Settlement'
'Set'
'Serge'
'Sainte_'
'Safe'
'SYST'
'SER'
'SCI'
'SAT'
'SAR'
'Résolution_'
'Rui'
'Roosevelt_'
'Ron'
'Revi'
'Reserv'
'Rei'
'RY_'
'REG'
'RAL_'
'Quali'
'Pér'
'Py'
'Pur'
'Pul'
'Prév'
'Prosecutor_'
'Prom'
'Programmes_'
'Produ'
'Principal'
'Previous_'
'Premi'
'Pot'
'Porte'
'Pool_'
'Polit'
'Policies_'
'Plu'
'Ple'
'Plasma_'
'Pil'
'Photo'
'Phone_'
'Pent'
'Peacekeeping_'
'Paul'
'Parks_'
'Park'
'PWGSC_'
'PRST_'
'PROVI'
'PROP'
'POL'
'PF'
'PAS_'
'Over'
'Others_'
'Oslo_'
'Organis'
'Organ'
'Oceans_'
'OU_'
'OP_'
'ONUDI_'
'OE'
'Nunavut_'
'Nov'
'Nou'
'Noting_'
'Norman'
'Nonetheless_'
'Need'
'Near'
'Nazi_'
'Natura_'
'Nag'
'NOTE_'
'NOTA'
'NGO_'
'Mét'
'Munich_'
'Mouvement_'
'Morales_'
'Monténégro_'
'Mont_'
'Monde_'
'Mitchell_'
'Mini'
'Mind'
'Mille'
'Mike_'
'Method'
'McL'
'Mb'
'Mauritius_'
'Materi'
'Mass_'
'Mano'
'Maj'
'Main'
'Magi'
'Magazine_'
'MR'
'MAT'
'Lyn'
'Lun'
'Lum'
'Lituanie_'
'Lis'
'Lim'
'Legislative_'
'League_'
'Lama'
'Kr'
'Kou'
'Kin'
'Khan_'
'Khamenei_'
'Kerry_'
'Kas'
'Issue_'
'Is'
'Investi'
'Interim_'
'Institutional_'
'Install'
'Inn'
'Initiatives_'
'Ibis_'
'IU'
'INST'
'IDB_'
'ICI'
'IAEA_'
'Hyper'
'Hydro'
'Hop'
'Hom'
'High'
'Herb'
'Hamb'
'HOM'
'Général'
'Gus'
'Gru'
'Gran_'
'Grad'
'Gou'
'Gold_'
'Golan_'
'Gee'
'Gallery_'
'GRE'
'GRC_'
'GM_'
'GM'
'Freedom_'
'Franklin_'
'Francis_'
'Fort_'
'Fix'
'Fis'
'Fire_'
'Feature'
'Fall'
'Fait'
'Fact'
'FU'
'FS_'
'FM'
'FL'
'Expo'
'Explorer_'
'Experience_'
'Expenditures_'
'Exc'
'Evi'
'Everything_'
'Ethics_'
'Estimates_'
'Este'
'Eri'
'Equi'
'Equality_'
'Ep'
'Entr'
'Enquête_'
'Eli'
'Eg'
'Ecol'
'Ec'
'ESS'
'EMENT_'
'EG_'
'EEC_'
'Défini'
'Dy'
'Dura'
'Dou'
'Dos'
'Dialogue_'
'Deng_'
'Decade_'
'Damas'
'DT'
'DOCUMENT'
'DL'
'DELHI_'
'Cycl'
'Cry'
'County_'
'Composite_'
'Compar'
'Compa'
'Color'
'Colo'
'Coc'
'Cleaning_'
'Claude_'
'Cla'
'Cl'
'Cirque_'
'Cinquante_'
'Churchill_'
'Christ'
'Chris_'
'Chemi'
'Charge_'
'Champ'
'Ces'
'Cav'
'Cath'
'Calgary_'
'Cairo_'
'CW'
'CONF_'
'CIC'
'CHI'
'CAT'
'Bâle_'
'By'
'But'
'Burn'
'Burg'
'Bun'
'Bs_'
'Bri'
'Bour'
'Bolivie_'
'Blu'
'Benin_'
'Belgrade_'
'Belgian_'
'Basel_'
'Baltic_'
'BT_'
'BN'
'BEI'
'Ay'
'Aw'
'Ava'
'Autrement_'
'Attach'
'Assi'
'Aru'
'Arctic_'
'Archi'
'Arb'
'Arabs_'
'Applause_'
'Anna_'
'Angel'
'Ande'
'Analy'
'Alternative_'
'Alpes_'
'Almost_'
'Alla'
'Ali_'
'Alexandr'
'Albanian_'
'Agencies_'
'Aff'
'Advi'
'Adobe_'
'Administrator_'
'Activ'
'Acad'
'Abdel'
'Abd'
'AU'
'ATTENDU_'
'AR_'
': '_'
'93'
'88'
'500'
'300'
'230_'
'2050_'
'19th_'
'1980s_'
'188'
'178_'
'165_'
'161'
'134_'
'126'
'121'
'119_'
'113_'
'108_'
'104_'
'020'
'014'
'011'
'001_'
'----'
',&'
', '_'
', $_'
'** _'
'); '
')  _'
'% (_'
'!!_'
' € _'
' °_'
' :'
' +_'
' )'
' («'
' ", _'
' !!!_'
''
'ﬁ'
'− _'
'  [ _'
'“(_'
'‘_'
'у'
'м'
'д'
'œ'
'ôme_'
'ôm'
'évènements_'
'évoluer_'
'évité'
'évi'
'étiques_'
'étend_'
'étatiques_'
'ésent'
'érit'
'érien'
'érielle_'
'érence'
'ér'
'époux_'
'épid'
'émique_'
'émergeant'
'électorales_'
'élargi_'
'éi'
'égide_'
'éfi'
'éde'
'écoute_'
'écoul'
'èques_'
'èque_'
'ège'
'çai'
'Élect'
'Él'
'§'
'   '
'}}'
'} '
'yy'
'yuan_'
'yse'
'ys'
'yi'
'ybo'
'yard_'
'yant'
'yad'
'xt'
'writers_'
'wm'
'witnessed_'
'winds'
'win'
'weight'
'vérifie'
'votreliste_'
'volontairement_'
'voisin_'
'vocation_'
'vivons_'
'vitamin_'
'vit'
'visuel'
'visual_'
'virtuelle'
'virtue_'
'viol'
'vier'
'vide'
'vid'
'vested_'
'verti'
'versées_'
'verifi'
'ventilation_'
'veni'
'veillant_'
'veg'
'vant_'
'validité_'
'vain_'
'vaga'
'vaccines_'
'ution_'
'utilize'
'ute'
'usness_'
'usement_'
'use'
'urgents_'
'urban'
'urbain_'
'urb'
'uphold_'
'updating_'
'unwilling_'
'unh'
'unfo'
'understandable_'
'underpin'
'undeniable_'
'unchanged_'
'ume'
'umb'
'ultérieur'
'ular'
'uil'
'uge'
'uez_'
'ueux_'
'udi'
'uce'
'ube'
'uali'
'u0027s_'
'téléphon'
'tué_'
'tus_'
'turc_'
'tuer_'
'tud'
'ttle'
'trésorerie_'
'tré'
'troph'
'tromp'
'triste'
'trip'
'trich'
'trib'
'tria'
'tremendous_'
'traçabilité_'
'travailleur_'
'travaillant_'
'transporter_'
'transmi'
'transitoire_'
'trail_'
'trademark_'
'trace'
'toxic'
'touchée_'
'tli'
'titu'
'tisse'
'tirent_'
'tip'
'threaten_'
'thr'
'thir'
'thinks_'
'thin_'
'there'
'tester_'
'test'
'terroriste_'
'territoriales_'
'terr'
'terminée_'
'terminé_'
'tered_'
'tenth_'
'taxpayer_'
'tank'
'sévères_'
'sérieuse_'
'séparément_'
'sécuritaire_'
'synthèse_'
'syndicat_'
'sym'
'sv'
'suédois_'
'suspend'
'suscité_'
'suscit'
'surv'
'surpris_'
'surfaces_'
'surf'
'supprimé_'
'suppr'
'supervisory_'
'sulf'
'suivi'
'suffi'
'subt'
'substanti'
'subsistance_'
'subsidia'
'subregional_'
'subjected_'
'stylish_'
'sty_'
'stunning_'
'studying_'
'studied_'
'stringent_'
'streaming_'
'stipul'
'stimulat'
'stif'
'stic'
'stee'
'steadily_'
'stating_'
'start'
'standardized_'
'stabiliz'
'ssez_'
'spécifications_'
'sporti'
'sponsor_'
'spokes'
'spite_'
'specialist_'
'special'
'spark'
'spacieu'
'sov'
'souveraine_'
'soutenant_'
'souple_'
'soulever_'
'souhaité_'
'souhaité'
'souhaiter_'
'souhaitai'
'souhait'
'souffrent_'
'sorti'
'sommets_'
'sombre_'
'solar_'
'smokers_'
'smallest_'
'slot'
'sky'
'sk'
'situent_'
'sist'
'sional_'
'sincèrement_'
'simplicit'
'sili'
'significatif_'
'signalé'
'signale'
'sig'
'sif'
'sier'
'shri'
'shr'
'shortage_'
'shore_'
'shocks_'
'shock_'
'shing_'
'shin'
'shelter_'
'shak'
'shadow_'
'shad'
'sexuel_'
'sexu'
'serbe_'
'sentences_'
'sentenced_'
'senta'
'sends_'
'seme'
'seeds_'
'sec_'
'searching_'
'scu'
'scrutin'
'sche'
'sceptic'
'scen'
'saved_'
'sav'
'sat'
'sanitation_'
'sanction_'
'samedi_'
'sais'
'safer_'
'sacrifice_'
'sable_'
'réveil'
'rétroacti'
'résume'
'résister_'
'résist'
'rés_'
'répondr'
'réparti'
'réinsertion_'
'réhabilitation_'
'réguliers_'
'régulier_'
'régie'
'réfléchir_'
'réduits_'
'récupération_'
'récu'
'réclam'
'run'
'ru_'
'rte'
'rout'
'rouges_'
'rocket'
'robust_'
'rly_'
'riz_'
'riz'
'rité'
'ris_'
'rier_'
'ride'
'ridd'
'richer_'
'rial_'
'revol'
'reviendrait_'
'revendications_'
'retro'
'retraités_'
'retourner_'
'retou'
'retire'
'rethink'
'retenue_'
'restructure'
'restreindre_'
'resteront_'
'respectées_'
'rese'
'res'
'représentera'
'reproduced_'
'repr'
'repatriation_'
'rentr'
'rent'
'renf'
'remporte'
'remplacé'
'remerciements_'
'remarqué_'
'reiterated_'
'reinforce_'
'reimbursement_'
'rei'
'regrettable_'
'regrett'
'refusing_'
'refuge_'
'refinance'
'references_'
'referen'
'reel_'
'recueille_'
'rectifi'
'recruté'
'recreation'
'recover'
'recons'
'reconnues_'
'reconnaissant_'
'recommander_'
'recevra_'
'receiv'
'rebelles_'
'rdi'
'ray'
'ravage'
'rationaliser_'
'rall'
'raisonnablement_'
'railways_'
'rail'
'radar_'
'ract_'
'quotidienne'
'quoted_'
'quons_'
'quinze_'
'quie'
'quet_'
'questionnaires_'
'quer'
'qualitative_'
'qualifier_'
'qualification_'
'pêche'
'pénalités_'
'pénales_'
'pée'
'pèlerin'
'puis'
'publishe'
'pto'
'psychiatri'
'prête'
'préten'
'présentera_'
'prépara'
'préjudiciables_'
'préjudic'
'préférer'
'précaution_'
'préalables_'
'prostitu'
'prosecut'
'proposing_'
'proportions_'
'proportion'
'promulgué'
'promptly_'
'prolonge'
'profiles_'
'profess'
'productif_'
'producteur_'
'prize_'
'privil'
'priver_'
'preservation_'
'prescribe_'
'prer'
'prep'
'prena'
'premium_'
'prefer'
'predi'
'precision_'
'practic'
'pp_'
'potassium_'
'postpone'
'possédant_'
'possess'
'position'
'portage_'
'pont_'
'ponctu'
'pommes_'
'pollutants_'
'polis'
'pole'
'poison'
'pod'
'pléni'
'plo'
'pledged_'
'plateforme_'
'plat'
'plantation'
'planifi'
'placing_'
'pixels_'
'pira'
'pipelines_'
'pin_'
'pill'
'piles_'
'pile'
'php'
'phobi'
'phe'
'phased_'
'perçu_'
'perturb'
'personnalité_'
'permette_'
'permettait_'
'permanently_'
'periphery_'
'perfectionnement_'
'perdent_'
'penche'
'peint'
'payée_'
'pation_'
'paths_'
'passports_'
'passport_'
'passa'
'partielle_'
'parti'
'partag'
'paro'
'parlons_'
'parle'
'paraître_'
'panoramic_'
'pani'
'pane'
'palais_'
'paisible_'
'pai'
'pag'
'ow'
'overseas_'
'overlook'
'ouvriers_'
'ouvrages_'
'outs_'
'ousi'
'oul_'
'oth_'
'ost_'
'ort_'
'origins_'
'origines_'
'oriental_'
'orienta'
'organisés_'
'organisms_'
'organi'
'order'
'optical_'
'opti'
'opr'
'opponents_'
'ophone'
'operator_'
'onnée'
'onist'
'onese'
'omo'
'omission_'
'ome_'
'ologi'
'olla'
'olate_'
'ogi'
'offici'
'oeuvres_'
'odd'
'oceans_'
'oce'
'occupying_'
'occupant_'
'obligés_'
'obligé_'
'obligat'
'obli'
'oba'
'néo'
'négocia'
'négatives_'
'nécessiter'
'néa'
'ntl'
'novel_'
'novat'
'nouve'
'nota'
'normales_'
'norm_'
'nog'
'nm'
'nitrogen_'
'nic_'
'ngu'
'ngs'
'nger_'
'newspapers_'
'nerve'
'nen_'
'nell'
'nee'
'neck'
'ndi'
'nde_'
'navigat'
'navigable'
'nano'
'nab'
'métaux_'
'mutati'
'multipli'
'multilatéraux_'
'multilatéralisme_'
'multilateralism_'
'multiculturel'
'mul'
'mout'
'mous'
'mounted_'
'motivé_'
'moratoire_'
'montrant_'
'montage_'
'monast'
'modélisation_'
'modifiés_'
'moderni'
'moderat'
'model'
'modalities_'
'mobilis'
'mobiles_'
'mixtes_'
'misunderstanding'
'miss_'
'miser'
'minist'
'minimi'
'minimales_'
'milli'
'mile'
'mie'
'mettons_'
'mette_'
'mets_'
'merge'
'menacés_'
'menacé_'
'menacer_'
'memorandum_'
'melt'
'medication'
'measur'
'mea'
'masses_'
'masque'
'marketplace_'
'mark'
'marginal_'
'maps_'
'manipulation_'
'manger_'
'mandated_'
'mam'
'maltrait'
'malnutrition_'
'males_'
'magnitude_'
'magazines_'
'magasin_'
'légères_'
'légère_'
'lég'
'lve'
'lunch_'
'lum'
'looming_'
'longe'
'localiz'
'lled_'
'litigation_'
'linkages_'
'lining_'
'ling'
'lign'
'lights_'
'lighting_'
'light'
'lieutenant'
'licensing_'
'liberal'
'lia_'
'leu'
'lette'
'lett'
'lers_'
'lente_'
'leng'
'lene'
'lender'
'leather_'
'leas'
'lawful'
'landing_'
'laiss'
'laire_'
'lain'
'kto'
'kovsk'
'kon'
'kma'
'kilo'
'kie'
'ket'
'kel'
'justement_'
'jugée_'
'juger_'
'journaliste_'
'jouets_'
'joua'
'jon_'
'join'
'jets_'
'jeopard'
'jacent'
'ix_'
'ival'
'iv'
'itan'
'itai'
'ission'
'isses_'
'issement_'
'isolée'
'irlandaise_'
'ire'
'irat'
'iraquien'
'iranienne'
'irakiens_'
'ips'
'ion'
'invol'
'inviting_'
'invi'
'investi_'
'intégralement_'
'interv'
'interop'
'intermédiaires_'
'intermediate_'
'interdépendan'
'interc'
'intent_'
'intend'
'insuffisant'
'institutionnalis'
'institu'
'instaur'
'inspir'
'insolvabilité_'
'insens'
'insect'
'inscri'
'insa'
'inqui'
'innocent'
'inner_'
'inhumains_'
'inh'
'infringe'
'informe'
'informatiques_'
'informati'
'influenced_'
'infi'
'infest'
'infectieuses_'
'ineffective_'
'individuellement_'
'indice_'
'independently_'
'incumbent_'
'incorpor'
'inconsistent_'
'incendies_'
'imprisonment_'
'impliquant_'
'impede'
'impar'
'immuni'
'immune_'
'imminent_'
'ima_'
'ily_'
'illustrat'
'illu'
'iller_'
'igu'
'ific'
'ifa'
'iennes_'
'idéologie_'
'identifies_'
'identical_'
'ict'
'icate'
'ican'
'ica_'
'iat'
'héroï'
'hypothè'
'hyperlien_'
'hygiène_'
'hy_'
'huile_'
'hs'
'hri'
'hosting_'
'homologues_'
'holisti'
'hma'
'his'
'hinder'
'herself_'
'herein_'
'hedge_'
'hebdomadaire'
'hasard_'
'harvest_'
'hani'
'handled_'
'habitu'
'hab'
'gên'
'génér'
'géno'
'gy_'
'gw'
'guise_'
'gues'
'guerri'
'groupe'
'grief'
'gratuits_'
'graphique'
'grandeur_'
'grains_'
'gradual_'
'governor_'
'govern_'
'gourm'
'god'
'gnan'
'glyc'
'glor'
'globales_'
'giga'
'gie'
'geri'
'geopolitical_'
'genuinely_'
'general'
'gati'
'gari'
'gardens_'
'garanti_'
'gam'
'galleries_'
'gage_'
'fête'
'fusil'
'fur'
'fundamentally_'
'fréquent'
'fronts_'
'frie'
'frein'
'frames_'
'fossé_'
'fortun'
'forts_'
'formulé_'
'formerly_'
'formally_'
'forecasts_'
'forecast_'
'forecast'
'foodstuffs_'
'font'
'fondation_'
'fondamentalement_'
'flying_'
'fluor'
'fli'
'fleuve_'
'flamm'
'fixée_'
'fixes_'
'film'
'filiales_'
'figura'
'fic'
'feux_'
'ferai'
'fears_'
'fd'
'favour'
'favorisé'
'favorise_'
'favorise'
'fausse_'
'fastest_'
'fame'
'falsifi'
'false_'
'fais'
'facilite_'
'fabrique'
'fabric_'
'fab'
'eys_'
'ey'
'extrémistes_'
'extrajudicia'
'extr'
'extinction_'
'extensions_'
'expérimenté'
'exportateurs_'
'expansion'
'exonér'
'exhausti'
'exercises_'
'exer'
'exempte'
'executed_'
'excessive'
'exceeded_'
'exceed'
'examinés_'
'exacerbate'
'ev'
'euses_'
'eusement_'
'euro'
'eté_'
'estimer_'
'espagnole_'
'escompté'
'erra'
'erosion_'
'eric_'
'eric'
'erc'
'erate'
'epidemic_'
'envisagé_'
'envi'
'enveloppe_'
'env'
'entries_'
'entrevue_'
'entrepreneur_'
'entraînent_'
'entraînement_'
'ential_'
'enth'
'ente_'
'entamé_'
'ensi'
'enrichissement_'
'enregistrées_'
'enor'
'enn'
'enjoyment_'
'enjoying_'
'english_'
'engineer'
'engendré'
'engagent_'
'encountered_'
'enceintes_'
'enact'
'empêche_'
'emprunte'
'empris'
'emotional_'
'emergence_'
'embra'
'embarrass'
'em'
'ein_'
'eig'
'eh_'
'ego'
'efforcer_'
'effectue_'
'effect'
'educate_'
'ec_'
'dévoil'
'développements_'
'déterminées_'
'déte'
'désiré'
'désactiv'
'dés_'
'déroulé'
'déroul'
'dérogation'
'dérivés_'
'déplo'
'déplacer_'
'déplacent_'
'départements_'
'dégagé'
'défende'
'décédé'
'décrire_'
'découvertes_'
'déclarés_'
'décisive_'
'débute'
'débiteur_'
'débattu_'
'débarrass'
'durer'
'duct'
'dt_'
'drought_'
'douz'
'doux_'
'douanier'
'douane_'
'dos'
'doom'
'domine'
'dominate_'
'dome'
'doctors_'
'dock'
'distributions_'
'distinctes_'
'disproportionate'
'disposé_'
'displacement_'
'disp'
'dismissal_'
'discount_'
'disagree_'
'disadvantage_'
'diabète_'
'devrez_'
'devote_'
'deviendra_'
'developer_'
'devaluation_'
'deuxièmement_'
'deterioration_'
'destroying_'
'desp'
'departure_'
'dental_'
'densité_'
'dens'
'demonstrating_'
'demonstrates_'
'demi'
'demandée_'
'demanded_'
'dell'
'delegates_'
'defensive_'
'defenders_'
'defen'
'decree'
'decentraliz'
'debating_'
'dealings_'
'ddi'
'danois'
'céréales_'
'cée_'
'cyclique'
'cute'
'cut'
'custom_'
'custody_'
'curriculum_'
'cun'
'cumulati'
'cultivate'
'crypt'
'cruel'
'cruciale_'
'croyan'
'crowd'
'critiqu'
'crib'
'creativity_'
'crati'
'crates_'
'coutume'
'courte'
'coupe_'
'correspondance_'
'copie'
'cool'
'conçue_'
'conviennent_'
'convena'
'contrôlés_'
'contre'
'contrainte_'
'contraction_'
'contractante'
'continuously_'
'contextes_'
'context'
'conteste'
'contenues_'
'content'
'constrained_'
'constitutionnelles_'
'constitution'
'constatation'
'consist_'
'conservateur_'
'conseille'
'conse'
'consciente_'
'consacrés_'
'consacrées_'
'connect'
'connaissez_'
'congés_'
'conform'
'conflict'
'confié'
'confer'
'concurrent'
'compress'
'compositeur'
'composants_'
'compliqué'
'compa'
'comp'
'communist_'
'communiquées_'
'commodities_'
'commenta'
'comme'
'combustible_'
'combl'
'combin'
'collecting_'
'coll'
'coca'
'clon'
'cliquer_'
'clearer_'
'cked_'
'cime'
'ciblée_'
'chol'
'chocs_'
'chim'
'childhood_'
'chi_'
'cherché_'
'cheese_'
'ched_'
'chauffe'
'chas'
'charter_'
'charte_'
'chair'
'cessent_'
'cesse'
'cerveau_'
'certitude_'
'cco'
'cav'
'caught_'
'cateurs_'
'catalyst_'
'cataly'
'cat_'
'carn'
'cardiovascula'
'caméra_'
'camping_'
'calculé_'
'cafés_'
'cafe'
'bénévol'
'bâ'
'buy'
'butt'
'burst_'
'bureaucratie_'
'bs'
'brutalité'
'brother_'
'briefing_'
'bree'
'breaking_'
'break'
'boîte_'
'boursi'
'bought_'
'bot'
'booked_'
'bone_'
'bond'
'bombarde'
'blog'
'blic'
'bli'
'birth'
'biotechnology_'
'bills_'
'bill'
'bilatérale_'
'bienvenue_'
'bic'
'bert_'
'beneficial_'
'belongs_'
'beliefs_'
'basti'
'basically_'
'banqu'
'banni'
'bai'
'bagages_'
'azo'
'ax_'
'avérée'
'avérer_'
'avè'
'avocats_'
'avertissement_'
'aventure_'
'aven'
'avantageu'
'autochtone_'
'auti'
'authorization_'
'aur'
'augmentera_'
'audited_'
'attribue_'
'attracti'
'attire'
'atti'
'attentat_'
'attacked_'
'attache_'
'attach_'
'atout'
'atif_'
'ata_'
'aster'
'asserti'
'asa'
'articul'
'arte'
'arsenal_'
'arra'
'arn'
'arménien'
'armement_'
'arma'
'argi'
'aren_'
'appréciation_'
'approuvées_'
'approuvée_'
'apportant_'
'appointments_'
'appli'
'appear'
'appe'
'appartiennent_'
'apparaître_'
'apparaitra_'
'aperçu_'
'ao_'
'ao'
'anthrop'
'antenn'
'ans'
'announce_'
'annoncée_'
'annexed_'
'ann'
'anger_'
'anga'
'analytical_'
'amélioré_'
'amène'
'ampli'
'amme'
'ament_'
'amending_'
'amende_'
'amb'
'alter'
'allé'
'allouée'
'allocat'
'allie'
'allaient_'
'alk'
'alimenter_'
'alc'
'ajout'
'aiss'
'aison_'
'ains_'
'aining_'
'aima'
'aim'
'aidant_'
'agression_'
'aggravé'
'aga'
'afghane'
'affronte'
'afflu'
'affichage_'
'affaibli_'
'advocated_'
'advocacy_'
'advise'
'advi'
'adressé_'
'adhérer_'
'additionnel_'
'activate'
'acr'
'acquisitions_'
'acquise_'
'acid'
'achemin'
'accuse'
'accurately_'
'accueilli'
'accordés_'
'accompanying_'
'accessibilité_'
'acceptée_'
'accepting_'
'accelerat'
'abouti_'
'abord'
'abilité_'
'abi'
'abb'
'ZI'
'You'
'Yemen_'
'YOU_'
'Xiao'
'XI_'
'XII'
'Windsor_'
'Wen_'
'Welcomes_'
'Web'
'Wea'
'Waste_'
'Wag'
'WO'
'Vu'
'Vot'
'Villa'
'Victor_'
'Vers'
'Vac'
'VIS'
'VIP_'
'VENT'
'Utilisateur_'
'Utilis'
'Unix_'
'Une'
'USA'
'UI'
'Télécopieur_'
'Tunis'
'Trial_'
'Transf'
'Tradi'
'Tool'
'Tol'
'Title_'
'Theatre_'
'Text_'
'Texas_'
'Temp'
'Taxes_'
'Tant_'
'Tandis_'
'Tadjikistan_'
'Tab'
'TOPIC_'
'TM'
'TIN'
'TAT_'
'Sus'
'Surveillance_'
'Supply_'
'Summ'
'Suivant_'
'Stock'
'Sto'
'Still_'
'Statistical_'
'Stat'
'Spock_'
'Specific_'
'Solution'
'Solidarity_'
'Smart'
'Situ'
'Sign'
'Sid'
'Share'
'Senator_'
'Selection_'
'Select_'
'Scotland_'
'Schum'
'Samoa_'
'Sah'
'SV_'
'SOU'
'SEA'
'SCR'
'SB'
'Réservez_'
'Réf'
'Réa'
'Roo'
'Roms_'
'Rod'
'Roche'
'Ric'
'Requirements_'
'Republicans_'
'Renforce'
'Rena'
'Rem'
'Related_'
'Regarding_'
'Recon'
'Recommandations_'
'Reader_'
'Rational'
'Ran'
'Rai'
'RM_'
'RIS'
'RELATI'
'REC'
'Quatre_'
'Quar'
'Qaddafi_'
'QUES_'
'Pun'
'Puerto_'
'Présidence_'
'Préc'
'Production_'
'Procurement_'
'Print_'
'Prepare'
'Prejudice_'
'Position_'
'Politic'
'Plant'
'Ped'
'Pea'
'Pai'
'PRES'
'POS'
'POR'
'PB'
'PARA'
'Outlook_'
'Oua'
'Ora'
'Offices_'
'Obviously_'
'Observ'
'Objet_'
'Oa'
'OMD_'
'Num'
'Noti'
'Non'
'Nom'
'Nintendo_'
'Nick'
'Neu'
'Nau'
'Nata'
'Nass'
'Nancy_'
'NTI'
'NS_'
'NOT_'
'NON_'
'NL'
'NI_'
'NF'
'MÉ'
'Mul'
'Mous'
'Motor_'
'Moni'
'Minist'
'Miles_'
'Methods_'
'Men_'
'Mem'
'Me_'
'McCain_'
'Max_'
'Master_'
'Maria_'
'Mandat'
'Manag'
'Maint'
'Macédoine_'
'MENT'
'Loss'
'Loi'
'Ligue_'
'Light'
'Liens_'
'License'
'Libert'
'Lib'
'Lev'
'Leurs_'
'Less'
'Les'
'Left_'
'Lead'
'Latine_'
'Lag'
'Kru'
'Kl'
'Kenne'
'Keep_'
'KH'
'KD'
'KB_'
'Juni'
'Jud'
'Jordanie_'
'Jonathan_'
'Johnson_'
'Jeu'
'JavaScript_'
'Jama'
'Jack_'
'Iraqis_'
'Invites_'
'Investigation_'
'Investigat'
'Intel'
'Indicators_'
'Indians_'
'Impact_'
'Immigration_'
'Image'
'Ici_'
'ITU'
'INI_'
'INE'
'INC_'
'IH'
'IES_'
'IB'
'Hôtels_'
'Humanitarian_'
'Hollande_'
'Holiday_'
'Hoc_'
'Hillary_'
'Hil'
'Highl'
'Hence_'
'Haa'
'HD_'
'Guantánamo_'
'Gu'
'Groups_'
'Gouverneur_'
'Goth'
'Gla'
'Gift_'
'Gerhard_'
'Genetic'
'Gau'
'Gas_'
'Gas'
'Gand'
'Galle'
'GRP'
'GPS_'
'GNU_'
'GEF_'
'GCA_'
'G2'
'Future_'
'Fraser_'
'Franco_'
'Francisco_'
'Fourni'
'Fortunately_'
'Forests_'
'Font'
'Fli'
'Fiscal_'
'Fire'
'Fil'
'Fai'
'Facility_'
'FOR'
'FH'
'Exp'
'Eta'
'Estonie_'
'Esprit_'
'Erik'
'Erdo'
'Erasmus_'
'Entre'
'Emirates_'
'Emergency_'
'Effecti'
'Eden_'
'Ecos'
'EM_'
'Dét'
'Dés'
'Dél'
'Durban_'
'Dru'
'Dr'
'Double_'
'Doo'
'Dom'
'Doctor'
'Dha'
'Determin'
'Dem'
'Delivery_'
'Deal'
'Daily_'
'DW'
'DNA_'
'DER'
'DEP'
'Crisis_'
'Cover'
'Courriel_'
'Corrections_'
'Corp_'
'Continental_'
'Conseiller_'
'Cond'
'Conclusions_'
'Compos'
'Como'
'Communi'
'Combat'
'Collection_'
'Codes_'
'Close_'
'Citizens_'
'Christians_'
'Chicago_'
'Chat'
'Chart'
'Change'
'Chai'
'Chacune_'
'Carri'
'Cap_'
'Calls_'
'Cale'
'Caisse_'
'Cad'
'CV'
'CPU_'
'COP'
'CGSB_'
'CCA'
'CAM'
'Bélarus_'
'Bé'
'Bundes'
'Bui'
'Brun'
'Brothers_'
'Bref_'
'Break'
'Bras'
'Bourse_'
'Bor'
'Bli'
'Black'
'Bet'
'Berne_'
'Bear_'
'Barbuda_'
'Banquet_'
'Baghdad_'
'BT'
'BE_'
'Avi'
'Aus'
'Associate'
'Arrivée_'
'Arménie_'
'Armed_'
'Arabic_'
'Aqua'
'Appli'
'Antigua_'
'Angeles_'
'André_'
'Andre'
'Andal'
'Ancien'
'Americas_'
'Amb'
'Alps_'
'Alf'
'Alex'
'Alban'
'Alb'
'Airways_'
'Ahmedinejad_'
'Against_'
'Af'
'Aero'
'Administrat'
'Add'
'Acts_'
'Accounting_'
'Accountability_'
'Accords_'
'Abe'
'AUT'
'ASU'
'ART'
'ANT_'
'ALDE_'
'AH'
'ADN_'
'ADM_'
'ACI'
';»._'
'920'
'604_'
'4th_'
'2nd_'
'220_'
'21st_'
'207_'
'206_'
'203'
'202'
'1971_'
'1969_'
'1965_'
'1962_'
'196'
'166_'
'157_'
'151_'
'142_'
'141'
'140'
'135_'
'124'
'111_'
'040'
'007'
'/.'
'. »_'
'./_'
'.- _'
'.). _'
'. “_'
'. – _'
') ; _'
'( '
''''
'")._'
'  '
' © _'
' -'
' ''
' $._'
' '
''
''
' '
' '
'ﬁn'
'•'
'”) _'
'ь'
'те'
'б'
'Ž'
'œuvr'
'üh'
'ûre'
'û'
'ît'
'í_'
'êque_'
'étudiant_'
'étri'
'étonna'
'étis'
'étendues_'
'éte'
'épuisé'
'éprouve'
'épr'
'épouse_'
'énie'
'éloigne'
'élever_'
'égyptien'
'éen_'
'éditions_'
'éditeur'
'écrit'
'écout'
'économiste_'
'échéance_'
'ètes_'
'ça'
'âgé_'
'Év'
'Étude'
'ÉTA'
'ÈRE_'
'{'
'zzle'
'zon'
'zo_'
'zl'
'zième_'
'zio'
'zin'
'zes_'
'yée'
'yé_'
'ythm'
'yield'
'yez_'
'yarn'
'xénophobie_'
'xon'
'xie'
'wr'
'world'
'winners_'
'windows_'
'wie'
'wheat_'
'wet'
'weaker_'
'weakened_'
'waves_'
'wat'
'wastes_'
'was'
'wards_'
'ward'
'vêtements_'
'vulnerabilities_'
'volont'
'volets_'
'voisine'
'voil'
'vive'
'vital'
'visualis'
'visibilité_'
'virtuel_'
'violé'
'vif'
'viewing_'
'vici'
'vibrant_'
'vian'
'viability_'
'ves'
'verser_'
'versa_'
'verre_'
'verr'
'vention'
'veno'
'venez_'
'vendus_'
'vein'
'vegetables_'
'vecteur'
'vau'
'varié'
'varie_'
'valoris'
'valley_'
'vaccine_'
'uth'
'uter'
'ust'
'usion'
'usi'
'urbanis'
'upward_'
'unusual_'
'untr'
'unta'
'unse'
'unr'
'unified_'
'ung'
'unexp'
'undermining_'
'underlined_'
'underline_'
'underdevelop'
'unce'
'unanimous_'
'unanime_'
'uler_'
'ulent'
'ui_'
'ucia'
'uc_'
'témoin_'
'téléphonique_'
'téléchargement_'
'tyran'
'typi'
'tunnels_'
'tuni'
'truc'
'tropica'
'trompeuse'
'tromper_'
'triple_'
'tribute_'
'trem'
'treating_'
'travaill'
'traumatisme'
'trap'
'transnationale'
'transmitting_'
'transi'
'transfront'
'transformé'
'trajet'
'tragic_'
'tract'
'tracking_'
'tra_'
'tournée_'
'touri'
'touche'
'totalitarian'
'tort_'
'torn'
'too'
'toilet_'
'toilet'
'toi_'
'tog'
'toe'
'toc'
'titles_'
'tissus_'
'tiss'
'tips_'
'tional_'
'tina'
'tin_'
'tiel_'
'ticket_'
'tici'
'thématique_'
'thre'
'thermal_'
'theatre_'
'terro'
'terrestres_'
'terminal_'
'tente_'
'tender'
'tend'
'technically_'
'teach_'
'tardive'
'tall'
'taine_'
'tai'
'tag'
'tach'
'tabl'
'sév'
'séries_'
'sénateur'
'sécu'
'synth'
'sympathy_'
'swing'
'suspicion_'
'survien'
'surve'
'surprend'
'surprenant_'
'surpass'
'surcharge_'
'supposedly_'
'supporter_'
'supporte'
'supervisor'
'superviseur'
'summari'
'suited_'
'suggér'
'suggesting_'
'sue'
'sudden_'
'successeur_'
'substitut'
'substitu'
'substantielle_'
'substantiel_'
'subsiste'
'subsidiaire_'
'studios_'
'struggling_'
'streamlin'
'stre_'
'stops_'
'stipulated_'
'stigma'
'stereo'
'stature_'
'statique'
'stat'
'stakeholder_'
'stabilize_'
'ssl'
'ssion'
'ssed_'
'ssant'
'ssan'
'ssa_'
'spring'
'spous'
'spectateurs_'
'specific'
'specially_'
'spam'
'souterrain'
'sounds_'
'soumissionnaire'
'souhaiterait_'
'souffre_'
'soudanais_'
'sortant_'
'sooner_'
'solo_'
'soixante_'
'sofa'
'soa'
'snow'
'smuggl'
'smooth'
'slopes_'
'slide_'
'slave'
'ske'
'ska'
'sizes_'
'sixty_'
'situées_'
'sincere_'
'simplist'
'simplifié_'
'simplifier_'
'signée_'
'signatures_'
'shut_'
'shortages_'
'shipments_'
'shipment_'
'shaped_'
'shap'
'sha_'
'sex'
'seuils_'
'setu'
'servers_'
'sensation_'
'sens'
'semences_'
'seiz'
'see'
'secu'
'sect_'
'secrète'
'secretary_'
'secou'
'seas_'
'script'
'scholars_'
'savant'
'sauve'
'sauvages_'
'sateur'
'sape'
'sap'
'salmon_'
'saisonni'
'sain_'
'sacré'
'réévalu'
'révélat'
'révis'
'réutilis'
'réussit'
'réussie_'
'rétabli'
'résidentiel'
'réservée_'
'répétée'
'répète_'
'réputé_'
'réper'
'réparties_'
'rémunér'
'régulateurs_'
'régn'
'réglée'
'régl'
'réflex'
'réduirait_'
'rédigée'
'réclamer_'
'réadaptation_'
'réacteur'
'rvo'
'rus_'
'ruct'
'rounds_'
'ropi'
'roni'
'rondes_'
'roms_'
'rom'
'rolle'
'roit_'
'rivers_'
'rivaux_'
'riva'
'riv'
'riti'
'rit'
'riques_'
'rio_'
'rina'
'rim'
'rigueur_'
'rigour'
'rge'
'rg_'
'reward_'
'revolutionary_'
'rever'
'reu'
'retired_'
'retarder_'
'retain'
'restructur'
'restraint_'
'restaurer_'
'restation_'
'ressi'
'ressembl'
'respecté_'
'respectueu'
'resilient_'
'reset'
'rescue_'
'rer'
'requi'
'représentées_'
'représentative'
'représentations_'
'représenta'
'représent'
'reproduit'
'reporté'
'replies_'
'replacing_'
'replacement_'
'repar'
'renvoyer_'
'renvoi_'
'rente_'
'renforcé'
'rende'
'rencontrés_'
'rencontrées_'
'remplacé_'
'reminds_'
'reminder_'
'remet'
'relocation_'
'rejects_'
'rejecting_'
'reinforce'
'rein'
'reimburse'
'regulating_'
'regroupement_'
'regroup'
'regain_'
'refusa'
'reflété'
'refine'
'refi'
'redéfini'
'redo'
'redes'
'red'
'recycl'
'recurr'
'recueilli'
'rect'
'reclassifi'
'recipients_'
'reci'
'rechange_'
'recevr'
'recense'
'rebuil'
'rebels_'
'reaffirm_'
'reaffirm'
'rcul'
'rationnel'
'rationalis'
'ratify_'
'rassemblé'
'rapproche'
'rap'
'rant'
'rank'
'random_'
'ranc'
'ralenti'
'raff'
'racine_'
'qué_'
'quitté_'
'queu'
'quen'
'quarterly_'
'quar'
'quanti'
'qualities_'
'qualitati'
'qi'
'périphérie_'
'péril_'
'pé_'
'punished_'
'punish'
'pull'
'puits_'
'puissante_'
'psychologique'
'psychiatric_'
'prévisible_'
'préventives_'
'prétendent_'
'préside_'
'présente'
'présentait_'
'prél'
'précéd'
'précoce_'
'précisé'
'précieuse_'
'pré_'
'prudent_'
'provoque_'
'provisoires_'
'proves_'
'prouv'
'protégée_'
'protégé_'
'protège_'
'prototyp'
'protectionnisme_'
'prospect'
'prorog'
'proposant_'
'proportionnelle'
'propice_'
'prope'
'propagande_'
'promoteur'
'prohibiting_'
'prohibit_'
'proge'
'profond'
'profité_'
'professor'
'produisa'
'produi'
'proceeds_'
'procedural_'
'prière_'
'printing_'
'principally_'
'prevented_'
'present'
'prescrit'
'prenne_'
'premises_'
'prediction'
'predicted_'
'predica'
'prede'
'preceded_'
'precaution'
'preach'
'pray'
'pped_'
'pousser_'
'poursuivie'
'poule'
'potato_'
'posting_'
'poster_'
'portugaise_'
'portrait_'
'portera_'
'porn_'
'populist'
'popularité_'
'poorly_'
'pond'
'pointe'
'pocket'
'pneu'
'plunge'
'plong'
'plates_'
'plateau_'
'plastic_'
'plan'
'pires_'
'pine'
'pillars_'
'pia'
'photographie_'
'photocopies_'
'phili'
'pher'
'phenomena_'
'phen'
'pharmaceutiques_'
'pharmaceutique_'
'pharmaceutical_'
'phant'
'petition'
'pest'
'pervers'
'persuadé'
'persistant'
'persecution_'
'perpétu'
'perpétré'
'permis'
'perfection'
'perdu'
'pensait_'
'pei'
'payés_'
'payroll_'
'past'
'passionné'
'passere'
'passeport_'
'parvient_'
'particula'
'participatory_'
'parte_'
'partagés_'
'partageons_'
'parta'
'parfum'
'parcel'
'parameter_'
'paralys'
'parallèles_'
'paradi'
'papiers_'
'panne'
'panique_'
'panels_'
'pH_'
'overt'
'overly_'
'outset_'
'outs'
'outrage'
'outlin'
'oublié_'
'oublie'
'oubli'
'oth'
'osoph'
'osité_'
'osit'
'orth'
'originale_'
'origina'
'oria'
'organizing_'
'ordina'
'orc'
'orally_'
'opé'
'optimisme_'
'openly_'
'onward'
'onset_'
'omin'
'oit'
'oires_'
'offs'
'officier_'
'offertes_'
'offens'
'ods_'
'odal'
'ock_'
'oche'
'occasionnel'
'obtient_'
'obtenues_'
'objecti'
'oan'
'négocié_'
'négociable'
'négligeable_'
'néglige'
'négatifs_'
'néfastes_'
'nçant_'
'nç'
'nw'
'numér'
'nu_'
'ntra'
'ntly_'
'nth'
'nte'
'nourrir_'
'nourri'
'notions_'
'notify_'
'notices_'
'northe'
'nonc'
'nommés_'
'nol'
'noire_'
'nnes'
'nment'
'nism'
'niche'
'nian_'
'nho'
'neutral_'
'networking_'
'nettoy'
'ndu'
'ndre_'
'navire_'
'navigu'
'nautique'
'nationali'
'natal'
'nat_'
'nas'
'nant'
'nami'
'mêl'
'més_'
'méritent_'
'mémora'
'mécontentement_'
'mécon'
'mécani'
'mères_'
'mèner'
'mutilation'
'muta'
'musées_'
'multipart'
'multiculturalisme_'
'moyennant_'
'mouse_'
'motivée'
'morales_'
'monte'
'monitors_'
'modula'
'modif'
'modem_'
'moc'
'mobilization_'
'mn_'
'mixture_'
'misleading_'
'miscon'
'minéra'
'minière'
'ministries_'
'minimale_'
'minima'
'mill'
'milita'
'migrato'
'migrant_'
'mig'
'meurtre_'
'meublé'
'metric'
'methodologi'
'mete'
'messi'
'merveilleu'
'mera'
'mentionne_'
'mente_'
'mentaire'
'mend'
'menacée'
'memor'
'medi'
'mb_'
'maître_'
'maximise'
'matur'
'mathématique'
'material'
'masters_'
'marr'
'marquée_'
'marqua'
'marijuana_'
'margin'
'marg'
'march'
'manuels_'
'manifeste'
'mane'
'mandat'
'manche'
'manages_'
'malheur'
'maintient_'
'maintes_'
'mainstream_'
'mail'
'magnifiques_'
'magistrats_'
'm3_'
'légalité_'
'légal'
'lées_'
'luttes_'
'lude'
'lubri'
'lti'
'lse'
'lous'
'lord'
'loose_'
'longitude_'
'logie'
'logg'
'lodge'
'lobbying_'
'literacy_'
'liter'
'lini'
'lifting_'
'lien'
'liees_'
'libéralis'
'libéral_'
'libraries_'
'lg'
'leverage_'
'less'
'legislat'
'lean'
'lds_'
'laïc'
'layer_'
'lati'
'lasted_'
'last'
'largeur_'
'lang_'
'lan_'
'lament'
'lak'
'lad'
'labor'
'labels_'
'label'
'kov_'
'kk'
'kit'
'kis'
'kb'
'kan_'
'juv'
'justificati'
'juifs_'
'jugements_'
'jt'
'joy'
'journalis'
'jouir_'
'jk'
'jet_'
'jazz_'
'ivi'
'itr'
'italienne_'
'itali'
'isés_'
'isé_'
'istan'
'issuing_'
'isolé_'
'isoler_'
'isn_'
'isla'
'ision_'
'irrégularité'
'ironi'
'ired_'
'irakien_'
'ipa'
'iously_'
'ionn'
'ioni'
'iona'
'inévitablement_'
'invitée'
'invita'
'investor_'
'investing_'
'investigating_'
'inver'
'inventions_'
'intéresse_'
'intégral_'
'intrins'
'intimate'
'intestin'
'intervene_'
'intervalle'
'interpréter_'
'interprétations_'
'interprète_'
'intent'
'insé'
'institute_'
'instable_'
'inspiré_'
'inspectors_'
'insonorisées_'
'insolv'
'insol'
'insiste_'
'insi'
'inscriv'
'inquiét'
'inland_'
'inject'
'inhuman'
'ingénieurs_'
'ingredients_'
'inférieures_'
'informel'
'influences_'
'influ'
'inflig'
'infecti'
'infa'
'inefficac'
'indésirables_'
'indépendantes_'
'indisc'
'indirect'
'indiquées_'
'indiquée_'
'indebted_'
'incursion'
'incroyable'
'incr'
'incomplet'
'incomp'
'incluent_'
'incité'
'incita'
'inces'
'incertitudes_'
'ince'
'inal'
'inaction_'
'impératif_'
'impu'
'improves_'
'imprim'
'impression'
'impre'
'impossib'
'imposes_'
'impetus_'
'imperial_'
'impartial'
'imp'
'immi'
'illustration'
'illegally_'
'ile'
'ika_'
'ignoré_'
'iga'
'iff'
'iew'
'ieth_'
'ielle'
'idéalement_'
'iding_'
'identit'
'identiques_'
'identifiés_'
'ident'
'icien'
'ibilit'
'iar'
'hél'
'hys'
'hur'
'humble'
'hub'
'hosts_'
'hos'
'holy_'
'hil'
'hike'
'high'
'hib'
'heurt'
'hesita'
'hes'
'heroi'
'heri'
'hereby_'
'hema'
'help'
'heel'
'heaven'
'heated_'
'hearts_'
'hd'
'haus'
'hate_'
'harmonization_'
'harmoniser_'
'harmonised_'
'hardware_'
'happi'
'hanc'
'hamper'
'halt_'
'hairdryer_'
'habit'
'gés_'
'gé_'
'gy'
'guideline_'
'guards_'
'guardian'
'guard_'
'gt_'
'grève_'
'group'
'grounde'
'grossesse_'
'grosses_'
'grip_'
'grill'
'gre_'
'gravity_'
'gravement_'
'graphics_'
'grand'
'graduates_'
'graduate_'
'gradu'
'graci'
'gorge'
'gon_'
'gm'
'glu'
'gis'
'giant_'
'ghts_'
'ghte'
'gear_'
'gation_'
'gastronomi'
'gasoline_'
'gai'
'gagne_'
'gab'
'fut'
'fus'
'furthermore_'
'fumer_'
'fue'
'frustr'
'frontier_'
'frig'
'freshwater_'
'freight_'
'françaises_'
'franchi'
'fragment'
'foyer_'
'fournitures_'
'fostering_'
'fossil_'
'formés_'
'formule'
'formelle_'
'formati'
'foreigners_'
'forefront_'
'forcée'
'forcing_'
'fonder_'
'fondement_'
'fonde_'
'fondateur_'
'fonda'
'fonctionnaire_'
'focalis'
'flou'
'flee'
'flat_'
'flamb'
'fixa'
'fishery_'
'fire'
'finish'
'finest_'
'financements_'
'filling_'
'file'
'filament'
'figur'
'fidèles_'
'fici'
'ffle'
'fenêtres_'
'femelles_'
'feet_'
'feed'
'federa'
'featuring_'
'featured_'
'fatal_'
'fasci'
'farmer_'
'fanati'
'facilité_'
'facilitera'
'facilitates_'
'facilitate'
'fabriqué'
'exécutions_'
'exécuti'
'exu'
'extrêmes_'
'extrémisme_'
'extraordinaires_'
'extract'
'extensi'
'expédition_'
'expuls'
'expressément_'
'explosive_'
'exploited_'
'explaining_'
'expire'
'existenti'
'existed_'
'exist'
'exil'
'exige'
'exerçant_'
'exerted_'
'exercé_'
'exercised_'
'exercices_'
'executions_'
'execut'
'excédentaire'
'exclus_'
'exclude_'
'excite'
'examina'
'evi'
'euv'
'europ'
'eur'
'eto'
'ethics_'
'estr'
'estin'
'esti'
'ester'
'establishes_'
'ession'
'esqu'
'espe'
'espa'
'ese'
'esclavage_'
'esa'
'erv'
'err'
'ermi'
'eres'
'erb'
'eradicate_'
'equal'
'eo_'
'envo'
'envisagée_'
'entrant'
'entrai'
'ently_'
'ention_'
'enthusiasm_'
'enters_'
'enseigne_'
'enrichir_'
'enquêteurs_'
'enir_'
'enhancement_'
'engines_'
'endorse'
'encr'
'encourageant'
'encounter_'
[...]
