'<pad>'
'<EOS>'
', _'
'_'
'._'
'a_'
'і_'
'в_'
'у_'
'se_'
'v_'
'y_'
'а_'
'je_'
'na_'
'. _'
'и_'
'u_'
'i_'
'e_'
'з_'
'-_'
'на_'
' (_'
's_'
'що_'
'не_'
'o_'
'í_'
'та_'
': _'
'для_'
'?_'
'to_'
'я_'
'pro_'
'до_'
' - _'
'é_'
'й_'
't_'
'є_'
'm_'
'z_'
'k_'
'že_'
''_'
'ou_'
'ї_'
'ю_'
'ти_'
'á_'
'ми_'
'х_'
'nebo_'
'ів_'
'це_'
'як_'
'do_'
') _'
'м_'
'е_'
'1_'
'em_'
':_'
'о_'
'ch_'
've_'
'за_'
'ý_'
'jsou_'
'або_'
'ě_'
'2_'
'ů_'
'si_'
'ze_'
'их_'
'ий_'
'від_'
'l_'
'ho_'
'A_'
'ви_'
'jako_'
'про_'
')_'
'3_'
'V_'
' – _'
'У_'
'го_'
'za_'
'які_'
'5_'
' "_'
'ом_'
'ní_'
'ale_'
',_'
'ою_'
'co_'
'щоб_'
'te_'
'ni_'
'jsem_'
'ých_'
'"_'
'ого_'
'!_'
'4_'
'které_'
'ь_'
'po_'
'od_'
'by_'
'ce_'
'також_'
'mi_'
'ne_'
'jak_'
'ky_'
'li_'
'те_'
'му_'
'aby_'
'може_'
'він_'
'ні_'
'it_'
'být_'
'але_'
'ють_'
'tak_'
'- _'
'6_'
'Я_'
'10_'
'ки_'
'ли_'
'чи_'
'І_'
'тому_'
'Це_'
'/_'
'ої_'
'його_'
'ці_'
' «_'
'me_'
'jeho_'
'бути_'
'ии_'
'ci_'
'ého_'
'uje_'
')._'
'ами_'
'n_'
'7_'
'..._'
' / _'
'0_'
'час_'
'byl_'
'вони_'
'bude_'
'так_'
'ji_'
'at_'
'якщо_'
'них_'
'8_'
'по_'
'ych_'
'" _'
'ka_'
'ть_'
'la_'
'může_'
'буде_'
'), _'
'(_'
'S_'
' — _'
'можна_'
'Jak_'
'; _'
'ння_'
'того_'
'им_'
'Як_'
'коли_'
'Ви_'
'ється_'
'було_'
'ся_'
'než_'
'В_'
'ku_'
'který_'
'bylo_'
'’_'
'ня_'
'має_'
'дуже_'
'také_'
'ка_'
'ým_'
'ek_'
'року_'
'більше_'
'd_'
'ах_'
'r_'
'ж_'
'velmi_'
'jen_'
'цього_'
';_'
'9_'
'все_'
'jsme_'
'ím_'
'Ми_'
'А_'
'ání_'
'jejich_'
'років_'
'можуть_'
'яка_'
'ovat_'
'ла_'
'ій_'
'який_'
'Якщо_'
'mohou_'
'To_'
'roce_'
'byla_'
'Je_'
'тільки_'
'ться_'
'будь_'
'під_'
'pokud_'
'let_'
'když_'
'jste_'
'вам_'
'má_'
'їх_'
'ість_'
'mu_'
'ніж_'
'své_'
'із_'
'був_'
'ích_'
'Pokud_'
'вати_'
'ок_'
'ити_'
'jí_'
'через_'
'життя_'
'вас_'
'on_'
'eni_'
'I_'
'багато_'
'ty_'
'il_'
' „_'
'к_'
'З_'
'ani_'
'% _'
'т_'
' \u _'
'вже_'
'kteří_'
'ому_'
'více_'
'«_'
'ost_'
'ktere_'
'Na_'
'20_'
'ke_'
'12_'
'її_'
'ще_'
'році_'
'після_'
'ny_'
'není_'
'která_'
'ech_'
'bez_'
'00_'
'C_'
'тися_'
'зі_'
'„_'
'вона_'
'то_'
'ими_'
'né_'
'Ale_'
'при_'
'На_'
'можете_'
'ové_'
'більш_'
'Він_'
'сть_'
'Але_'
'мо_'
'před_'
'ку_'
'б_'
'mezi_'
'себе_'
'ně_'
'h_'
'? _'
'E_'
'15_'
'нас_'
'де_'
'al_'
'Co_'
'були_'
'30_'
'р_'
'один_'
'vám_'
'була_'
'kde_'
'ний_'
'всі_'
'er_'
'c_'
'лише_'
'ém_'
'lo_'
'ení_'
'інших_'
'день_'
'en_'
'сті_'
'ення_'
'tom_'
'při_'
'"._'
'повинні_'
'11_'
'цьому_'
'Для_'
'ům_'
'eho_'
'toho_'
'g_'
'byt_'
'byly_'
' _'
' , _'
' '
'навіть_'
'» _'
'ються_'
'мене_'
'вся_'
'pouze_'
'ості_'
'н_'
'Не_'
'ma_'
'с_'
'йте_'
'im_'
'потрібно_'
'vás_'
'T_'
'100_'
'můžete_'
'další_'
'иого_'
'без_'
'x_'
'увати_'
'tu_'
'tento_'
'nich_'
'den_'
'Pro_'
'тут_'
'roku_'
'ti_'
'ování_'
'D_'
'єю_'
'ця_'
'Що_'
'protože_'
'mají_'
'США_'
'tyto_'
'až_'
'tomu_'
'st_'
'podle_'
'pak_'
'будуть_'
'této_'
'oblasti_'
'jeden_'
'com_'
'завжди_'
'допомогою_'
'K_'
'яких_'
'хто_'
'п_'
'оі_'
'всіх_'
'ам_'
'ym_'
'všechny_'
'50_'
'osti_'
'ly_'
'світу_'
'informace_'
'ємо_'
'ční_'
'16_'
'ючи_'
'цей_'
'роботи_'
'зробити_'
'»._'
'ktery_'
'cí_'
'ті_'
'протягом_'
'ách_'
'de_'
'M_'
'18_'
'просто_'
'tohoto_'
'budou_'
'O_'
'іі_'
'люди_'
'už_'
'nás_'
'le_'
'el_'
'25_'
'між_'
'in_'
' ..._'
'інші_'
'іи_'
'ta_'
'p_'
'kdy_'
'мають_'
'д_'
'ný_'
'ami_'
'“ _'
'різних_'
'людини_'
'um_'
'tomto_'
'000_'
'людей_'
'ější_'
'ými_'
'tím_'
'b_'
'свою_'
'tam_'
'kdo_'
'13_'
'іть_'
'цих_'
'лися_'
'svou_'
'nic_'
'es_'
'використання_'
'rok_'
'mít_'
'muze_'
'.._'
'іх_'
'цю_'
'ування_'
'світі_'
'нам_'
'За_'
'zemi_'
'us_'
'ještě_'
'an_'
'24_'
'ло_'
'ися_'
'даних_'
'take_'
'чином_'
'часу_'
'ного_'
'но_'
'немає_'
'Вони_'
'ují_'
'proti_'
'of_'
'lidi_'
' [_'
'ять_'
'мені_'
'здоров_'
'Чи_'
'ální_'
'první_'
'kdyz_'
'i'
'ace_'
'M'
'г_'
'lidí_'
'az_'
'R_'
'ніколи_'
'зв_'
'вання_'
'ями_'
'саме_'
'деякі_'
'těchto_'
'musí_'
'mnoho_'
'L_'
'40_'
'14_'
'…_'
'зараз_'
'використовувати_'
'všech_'
'ním_'
'lidé_'
'D'
'17_'
'ях_'
'рік_'
'наприклад_'
'Вона_'
'často_'
'již_'
'dnes_'
'bych_'
'яку_'
'тим_'
'там_'
'таких_'
'об_'
'ну_'
'можливість_'
'zde_'
'nez_'
'neni_'
'mě_'
'B_'
'2019_'
'програми_'
'ing_'
'ete_'
'U_'
'ія_'
'ься_'
'часто_'
'š_'
'ící_'
'však_'
'vaše_'
'uji_'
'tedy_'
'2018_'
'2017_'
' % _'
'яке_'
'ш_'
'управління_'
'тих_'
'такі_'
'vice_'
'program_'
'něco_'
'nou_'
'ich_'
'dva_'
'."_'
'чому_'
'світ_'
'нього_'
'ати_'
'Після_'
'І'
'život_'
'nám_'
'my_'
'dobu_'
'T'
'G'
' ._'
'інформацію_'
'ите_'
'или_'
'ší_'
'světě_'
'sve_'
'lze_'
'Windows_'
': "_'
'! _'
'щодо_'
'пов_'
'навчання_'
'мати_'
'У'
'Так_'
'ž_'
'stále_'
'programu_'
'ktera_'
'ili_'
'během_'
'ям_'
'щось_'
'пам_'
'кілька_'
'комп_'
'společnosti_'
'ie_'
'Z_'
'Tento_'
'P_'
'ім_'
'єте_'
'ує_'
'сьогодні_'
'кількість_'
'ému_'
'»_'
'zařízení_'
'stejně_'
'budete_'
'aci_'
'Z'
'K'
'B'
'рішення_'
'лікування_'
'ків_'
'vy_'
'sti_'
'ra_'
'ove_'
'ali_'
'Y_'
'2016_'
'", _'
'питання_'
'кою_'
'знову_'
'відео_'
'ních_'
'nikdy_'
'ila_'
'L'
'ним_'
'добре_'
'Е'
'tato_'
'pod_'
'jsi_'
'hry_'
'et_'
'd'
'V'
'рі'
'одного_'
'же_'
'випадку_'
'vam_'
'ru_'
'místo_'
'asi_'
'свого_'
'перед_'
'ові_'
'ни_'
'ені_'
'До_'
'Всі_'
'života_'
'případě_'
'ných_'
'nové_'
'byste_'
'21_'
' & _'
'“_'
'якості_'
'нічого_'
'місце_'
'знаходиться_'
'В'
'vat_'
'pomoci_'
'kterou_'
'The_'
'Po_'
'... _'
' “_'
'чі_'
'свій_'
'свої_'
'необхідно_'
'ер_'
'ень_'
'дітей_'
'А'
'va_'
'služby_'
'ské_'
'proto_'
'opravdu_'
'no_'
'X_'
'N_'
'23_'
'якого_'
'ням_'
'можливо_'
'ем_'
'дослідження_'
'веб_'
'Коли_'
'řekl_'
'ění_'
'tuto_'
'svého_'
'možné_'
'jte_'
'jde_'
'dy_'
'H'
'G_'
'19_'
'– _'
'сь_'
'системи_'
'ними_'
'краще_'
'ваш_'
'би_'
'Тому_'
'člověk_'
'či_'
'íte_'
'ám_'
'tady_'
'kteri_'
'ena_'
'e'
'dne_'
'dispozici_'
'N'
'2015_'
'якии_'
'своїх_'
'ра_'
'наших_'
'ymi_'
'y'
'třeba_'
'pri_'
'ovani_'
'nejsou_'
'jim_'
'jednou_'
'chcete_'
'2014_'
'чого_'
'сказав_'
'робити_'
'проти_'
'лі_'
'волосся_'
'Однак_'
'Є_'
'íme_'
'zdarma_'
'vas_'
'naše_'
'kou_'
'j_'
'emi_'
'což_'
']_'
'80_'
'“._'
'слід_'
'над_'
'багатьох_'
'Також_'
'С_'
'Н'
'včetně_'
'vlastní_'
'práce_'
'ový_'
'její_'
'da_'
'ala_'
'Když_'
'F_'
'28_'
'22_'
'раз_'
'понад_'
'означає_'
'наші_'
'людина_'
'зі'
'два_'
'С'
'různých_'
'rychle_'
'nout_'
'ice_'
'hodin_'
'eme_'
'byli_'
'[_'
'.“_'
'сім_'
'студентів_'
'собі_'
'розвитку_'
'ної_'
'ив_'
'ві_'
'бізнес_'
'И_'
'zda_'
'ova_'
'letech_'
'kolem_'
'Jeho_'
'I'
'Google_'
'70_'
'ців_'
'нии_'
'všechno_'
'vody_'
'tě_'
'svůj_'
'sebe_'
'ná_'
'nu_'
'našich_'
'muzete_'
'f_'
'době_'
'and_'
'Za_'
'шкіри_'
'цієї_'
'рівень_'
'отримати_'
'знання_'
'Про_'
'При_'
'toto_'
'ry_'
'prvni_'
'protoze_'
'pred_'
'peníze_'
'měl_'
'dobře_'
'\u_'
'Tak_'
'R'
'P'
'C'
'27_'
'ції_'
'треба_'
'пропонує_'
'поки_'
'ні'
'ласка_'
'л_'
'кар_'
'двох_'
'дає_'
'дані_'
'галузі_'
'всьому_'
'ва_'
'Ця_'
'К'
'řešení_'
'čas_'
'w_'
'ten_'
'mnoha_'
'každý_'
'ejte_'
'W'
'USA_'
'45_'
'2013_'
'ії_'
'якому_'
'швидко_'
'ують_'
'три_'
'той_'
'роки_'
'разом_'
'можемо_'
'дозволяє_'
'země_'
'uz_'
'ující_'
'tři_'
'takže_'
'společnost_'
'ových_'
'ová_'
'ovou_'
'out_'
'nim_'
'ng_'
'nejlepší_'
'například_'
'nad_'
'měli_'
'moc_'
'kem_'
'jiné_'
'ici_'
'abyste_'
'O'
'H_'
' + _'
'хочете_'
'роботу_'
'права_'
'компанії_'
'ко_'
'значення_'
'Крім_'
'řízení_'
'znamená_'
'svým_'
're_'
'm'
'dvou_'
'dokonce_'
'data_'
'X'
'Pri'
'60_'
'істю_'
'яти_'
'ська_'
'продуктів_'
'проблеми_'
'працює_'
'потім_'
'послуги_'
'ось_'
'області_'
'нові_'
'міста_'
'ить_'
'досить_'
'ваші_'
'Ці_'
'ň_'
'č_'
'án_'
'vé_'
'obvykle_'
'k'
'já_'
'jednoho_'
'is_'
'dní_'
'] _'
'Toto_'
'Tato_'
'J'
'2011_'
'2010_'
', - _'
'• _'
'їм_'
'ігри_'
'ту_'
'стати_'
'собою_'
'початку_'
'освіти_'
'найбільш_'
'ма_'
'забезпечення_'
'днів_'
'дні_'
'годин_'
'відповідно_'
'ації_'
'Ти_'
'П'
'О_'
'tí_'
'té_'
'tim_'
'prostředí_'
'poskytuje_'
'některé_'
'mezinárodní_'
'ed_'
'am_'
'Já_'
'26_'
'0'
'ч_'
'ція_'
'ські_'
'слова_'
'особливо_'
'місяців_'
'мови_'
'менше_'
'знаю_'
'ець_'
'досліджень_'
'вашого_'
'близько_'
'ає_'
'Х_'
'Будь_'
'vše_'
'stát_'
'spolu_'
'přístup_'
'pomocí_'
'nost_'
'nabízí_'
'máte_'
'mnohem_'
'maji_'
'ků_'
'f'
'S'
'La'
'2020_'
'. '
'іншого_'
'інформації_'
'цим_'
'тя_'
'таке_'
'сти_'
'секс_'
'своє_'
'повинен_'
'ова_'
'лося_'
'ку'
'гі'
'вши_'
'безпеки_'
'Чому_'
'О'
'М_'
'ěte_'
'vždy_'
'všichni_'
'vsechny_'
'udělat_'
'systém_'
'strany_'
'sobě_'
'ske_'
'si'
'přes_'
'dalsi_'
'c'
'Vý'
'Ve_'
'VPN_'
'Star'
'Proč_'
'Podle_'
'Le'
'E'
'90_'
'35_'
'2012_'
'числі_'
'ується_'
'уть_'
'робить_'
'повністю_'
'он_'
'нових_'
'місці_'
'місто_'
'країн_'
'зовсім_'
'жінок_'
'ею_'
'далі_'
'ваших_'
'Щоб_'
'Ді'
'Г'
'Вам_'
'ženy_'
'údaje_'
'ího_'
'», _'
'věci_'
'teď_'
'systému_'
's'
'práci_'
'proč_'
'pi'
'oval_'
'nejen_'
'naší_'
'nas_'
'n'
'mm_'
'jedna_'
'děti_'
'du_'
'budeme_'
'alni_'
'Takže_'
'Od_'
'4'
'29_'
'ін_'
'цій_'
'цеи_'
'студенти_'
'рівні_'
'програма_'
'працювати_'
'право_'
'повідомлення_'
'нами_'
'клієнтів_'
'дня_'
'бізнесу_'
'бо_'
'Я'
'Ко'
'ť_'
'čí_'
'získat_'
'zcela_'
'yn'
'us'
'the_'
'th_'
'te'
'svých_'
'ran'
'ostatní_'
'osobní_'
'online_'
'nyní_'
'nimi_'
'minut_'
'line_'
'ké_'
'jící_'
'ja_'
'funkce_'
'cích_'
'al'
'ají_'
'ací_'
'ach_'
'Se'
'Chcete_'
'A'
' » _'
'–_'
'існує_'
'якої_'
'ше_'
'чоловік_'
'частина_'
'участь_'
'статті_'
'різні_'
'програм_'
'по'
'оскільки_'
'онлайн_'
'нні_'
'нашого_'
'наш_'
'навколо_'
'можу_'
'кожного_'
'зміни_'
'захисту_'
'захворювання_'
'за'
'досвід_'
'дві_'
'всього_'
'вав_'
'ання_'
'Його_'
'Все_'
'Є'
'zdraví_'
'váš_'
'vidět_'
'stránky_'
'skupiny_'
'různé_'
'prostřednictvím_'
'problémy_'
'or_'
'možnost_'
'množství_'
'jedním_'
'hu_'
'dělat_'
'dost_'
'de'
'celé_'
'ar'
'W_'
'U'
'Tyto_'
'Ta'
'2000_'
'у'
'тіла_'
'тоді_'
'серед_'
'своєму_'
'результати_'
'раніше_'
'разів_'
'разі_'
'ових_'
'ню_'
'но'
'неї_'
'користувача_'
'компанія_'
'кожен_'
'ка'
'ер'
'відбувається_'
'вами_'
'НА'
'Мо'
'át'
'ány_'
'vání_'
'v'
'téměř_'
'ten'
'ský_'
'použití_'
'pomoc_'
'ovi_'
'někdy_'
'nez'
'města_'
'eno_'
'energie_'
'dostat_'
'doby_'
'b'
'aplikace_'
'Sa'
'Ro'
'RO'
'Při_'
'Můžete_'
'Je'
'J_'
'Ha'
'F'
': „_'
' ... _'
' -_'
'іншими_'
'ць_'
'ту'
'тись_'
'та'
'спосіб_'
'ри_'
'овий_'
'нь_'
'най'
'му'
'м'
'ись_'
'знайти_'
'завдяки_'
'житті_'
'ена_'
'дійсно_'
'допомогти_'
'дати_'
'да_'
'води_'
'Росії_'
'Інтернет_'
'Š'
'člověka_'
'up_'
'ujeme_'
'svět_'
'schopnosti_'
'počet_'
'par'
'organizace_'
'onemocnění_'
'lide_'
'kov'
'jeste_'
'j'
'ite_'
'hlavní_'
'ene_'
'en'
'důležité_'
'Y'
'University_'
'Ruska_'
'Q'
'Pod'
'Ne'
'Co'
'Bo'
'Android_'
'9'
'42_'
'300_'
'08_'
'іше_'
'яким_'
'язку_'
'часом_'
'то'
'теж_'
'сі_'
'створення_'
'ру'
'проблем_'
'правило_'
'полягає_'
'одна_'
'обличчя_'
'ль_'
'легко_'
'ле'
'ки'
'ик_'
'и'
'з'
'ей_'
'вий_'
'Цей_'
'То'
'Сьогодні_'
'Су'
'Програма_'
'Ж'
'ří_'
'ární_'
'znalosti_'
'změny_'
'zi_'
'ze'
'ven'
'velké_'
'typu_'
'technologie_'
'snadno_'
'práva_'
'pod'
'pocit_'
'obchodní_'
'ního_'
'mohl_'
'moci_'
'ii_'
'er'
'dat_'
'cookie_'
'celý_'
'bychom_'
'bo'
'bi'
'NE'
'Jsou_'
'EU_'
'Al'
': «_'
'3'
'2'
'шкіру_'
'ши_'
'трохи_'
'ти'
'створити_'
'повинна_'
'па'
'одним_'
'ов_'
'назад_'
'нав'
'місті_'
'мі'
'лі'
'людеи_'
'купити_'
'зрозуміти_'
'знати_'
'деяких_'
'гроші_'
'ація_'
'Ю'
'Ч'
'Т'
'Ре'
'З'
'žen_'
'ře_'
'ít_'
'ujte_'
'těla_'
'to'
'sám_'
'světa_'
'státy_'
'ství_'
'sami_'
'při'
'ostí_'
'on'
'období_'
'několik_'
'ného_'
'nasi_'
'nas'
'můžeme_'
'měla_'
'musíte_'
'ko'
'jít_'
'jej_'
'h'
'da'
'cni_'
'cena_'
'ce'
'TNT_'
'Ob'
'Fa'
'Do_'
'Am'
'6'
'200_'
'1000_'
'). _'
'іння_'
'якими_'
'ю'
'щодня_'
'ші_'
'чоловіків_'
'ун'
'ували_'
'тан'
'таким_'
'ських_'
'ст_'
'система_'
'під'
'продукти_'
'питань_'
'охорони_'
'осіб_'
'основі_'
'о'
'новий_'
'насправді_'
'міжнародного_'
'менш_'
'майже_'
'лася_'
'зображення_'
'застосування_'
'зав'
'ж'
'ено_'
'ді_'
'ду_'
'га_'
'включає_'
'включаючи_'
'будете_'
'ба'
'автомобілів_'
'Тепер_'
'Ру'
'М'
'До'
'životě_'
'é'
'zne'
'zarizeni_'
'x'
'w'
'větší_'
'umožňuje_'
'tví_'
'trochu_'
'trhu_'
'svém_'
'svete_'
'sto'
'stejne_'
'spolecnosti_'
'ska_'
'právo_'
'poslední_'
'ona_'
'několika_'
'nosti_'
'nemůže_'
'méně_'
'my'
'mohli_'
'ko_'
'ily_'
'ic_'
'hodně_'
'ho'
'he'
'eny_'
'ec_'
'dvě_'
'dni_'
'dlouho_'
'ceny_'
'barvy_'
'SE_'
'První_'
'Od'
'NA_'
'Man'
'Ku'
'Kdo_'
'Každý_'
'Du'
'De'
'37_'
'33_'
'05_'
'єри_'
'єм_'
'що'
'шн'
'частини_'
'це'
'хочу_'
'фа'
'усіх_'
'усього_'
'три'
'ського_'
'ський_'
'су'
'скільки_'
'сили_'
'рівня_'
'пі'
'перший_'
'отримання_'
'ося_'
'оро'
'ор_'
'одну_'
'обов_'
'ною_'
'нд'
'місця_'
'могли_'
'маємо_'
'ла'
'курс_'
'крові_'
'країни_'
'країнах_'
'ини_'
'допомагає_'
'дер'
'групи_'
'ву'
'великих_'
'вашу_'
'варто_'
'важливо_'
'ан_'
'ав_'
'Ю_'
'Х'
'Пере'
'НА_'
'Ма'
'Лі'
'Е_'
'Деякі_'
'Ба'
'ři_'
'času_'
'Í_'
'Í'
'yo'
'www_'
'vůbec_'
'vědět_'
'vá_'
'so'
'služeb_'
'sil_'
'příliš_'
'pracovat_'
'pal'
'p'
'oz'
'ového_'
'ovy_'
'ode'
'název_'
'nem'
'mit_'
'lepší_'
'le'
'ká_'
'ja'
'emu_'
'dovednosti_'
'domu_'
'deti_'
'cké_'
'cen'
'as'
'ad'
'TA'
'So'
'Roz'
'Ri'
'Li'
'Car'
'Bar'
'34_'
'31_'
'24'
'14'
'07_'
' ​​_'
'ір'
'яд'
'ює_'
'ювати_'
'шу'
'центр_'
'фі'
'увагу_'
'тепер_'
'стю_'
'рі_'
'політики_'
'полі'
'повітря_'
'останні_'
'овані_'
'нс'
'ник_'
'наи'
'містить_'
'міжнародних_'
'можливості_'
'метою_'
'км_'
'казино_'
'ила_'
'ики_'
'жінки_'
'жа'
'енні_'
'ди_'
'де'
'відповідь_'
'випадках_'
'вибір_'
'вали_'
'боку_'
'без'
'бачити_'
'Ш'
'ЦІ'
'Т_'
'Р'
'Ле'
'Ла'
'Д_'
'Д'
'čí'
'áním_'
'» (_'
'zemí_'
'vý'
'ví_'
'video_'
'vašich_'
'vašeho_'
'tvi_'
'treba_'
'tohle_'
'teto_'
'techto_'
'stvi_'
'studie_'
'stavu_'
'ro'
'rn'
'ram'
'pu'
'proces_'
'pozornost_'
'později_'
'pot'
'některých_'
'někdo_'
'nevy'
'největší_'
'nebude_'
'mimo_'
'mi'
'koupit_'
'in'
'ia_'
'g'
'dítě_'
'design_'
'dalších_'
'cílem_'
'coz_'
'TV_'
'Su'
'RI'
'PO'
'On_'
'No_'
'Mar'
'Ki'
'Ga'
'Dnes_'
'Da'
'2007_'
'. - _'
'," _'
' : _'
' '_'
'” _'
'— _'
'ї'
'інформація_'
'ігор_'
'є'
'язані_'
'я'
'шлях_'
'чні_'
'харчування_'
'х'
'трьох_'
'стосується_'
'со'
'сказати_'
'свіи_'
'розуміння_'
'рен'
'причини_'
'ор'
'око'
'обладнання_'
'надає_'
'льні_'
'й'
'ина_'
'заяв'
'діяльності_'
'допоможе_'
'вище_'
'використовується_'
'будинку_'
'ася_'
'ані_'
'анти'
'Про'
'Об'
'Не'
'Наприклад_'
'И'
'Га'
'Ви'
'ВИ'
'Багато_'
'ЄС_'
'ími_'
'át_'
'způsob_'
'zas'
'vsech_'
'vlastnosti_'
'vase_'
'ti'
't'
'století_'
'ská_'
'sem_'
'sebou_'
'se'
'roky_'
'ován_'
'om_'
'og'
'od'
'o'
'nt'
'ni'
'nap'
'mám_'
'možná_'
'mne_'
'lní_'
'li'
'lety_'
'jší_'
'iv'
'hi'
'existuje_'
'em'
'dělá_'
'du'
'dolarů_'
'dny_'
'chce_'
'ba_'
'Za'
'Re'
'Ra'
'Pro'
'Jako_'
'IN'
'II_'
'500_'
'5'
'32_'
'16'
'1'
'06_'
'* _'
'", - _'
'ім'
'юр'
'че'
'ча_'
'ч'
'форми_'
'фе'
'тов'
'сі'
'своєї_'
'самі_'
'сайт_'
'послуг_'
'перш_'
'оз'
'обслуговування_'
'ність_'
'нути_'
'наук_'
'моделі_'
'ма'
'літ'
'любов_'
'ль'
'лу'
'кри'
'ков'
'квітів_'
'знаєте_'
'значно_'
'жити_'
'доступ_'
'допомоги_'
'гу'
'гри_'
'автоматично_'
'а'
'Таким_'
'Та_'
'ПРО'
'ПО'
'Отже_'
'На'
'Ка'
'ЗА'
'Де_'
'ž'
'část_'
'čtyři_'
'čin'
'ú'
'áme_'
'zobrazení_'
'vysoce_'
'ul'
'ud'
'těch_'
'tv'
'tri'
'tion_'
'ta'
'sv'
'stal_'
'souladu_'
'souboru_'
'sociální_'
'slova_'
'sky_'
'seznam_'
'sen'
'schopnost_'
'pří'
'pres_'
'osoba_'
'ol'
'ob'
'nových_'
'neza'
'neu'
'nepo'
'nej'
'nam_'
'musi_'
'muset_'
'malé_'
'lu'
'kor'
'jestli_'
'io'
'informací_'
'ické_'
'gi'
'ge_'
'ga'
'ejsi_'
'díky_'
'druhé_'
'ck_'
'cenu_'
'bu'
'behem_'
'ar_'
'Ve'
'SE'
'Před_'
'Mon'
'Mo'
'Mnoho_'
'MBA_'
'Ko'
'="_'
'120_'
'01_'
'/ _'
' > _'
' -- _'
' $_'
'і'
'якість_'
'швидше_'
'хоча_'
'хвилин_'
'ус'
'ті'
'трі'
'теся_'
'тебе_'
'ської_'
'підтримку_'
'пу'
'продукт_'
'програму_'
'приблизно_'
'побачити_'
'новини_'
'нею_'
'настільки_'
'над'
'н'
'момент_'
'мар'
'ля_'
'кінця_'
'кур'
'кор'
'кон'
'итися_'
'иків_'
'забезпечує_'
'ен_'
'ель_'
'е'
'діти_'
'держави_'
'да'
'група_'
'віт'
'вір'
'бан'
'ат'
'ас'
'ап'
'ані'
'ТИ'
'По_'
'Но'
'Ди'
'Від'
'Ар'
'Європі_'
'žádné_'
'říká_'
'ěl'
'části_'
'čení_'
'území_'
'áte_'
'znovu_'
'zi'
'zemích_'
'zejména_'
'z'
'vý_'
'vytvořit_'
'vybrat_'
'vu'
'vr'
'un'
'studium_'
'studenty_'
'ste'
'soubory_'
'ských_'
'sal'
'přírodní_'
'právě_'
'projektu_'
'procent_'
'proc_'
'používá_'
'pon'
'pen'
'ol_'
'ochrany_'
'obsahuje_'
'nych_'
'nutné_'
'novou_'
'no'
'niho_'
'nebyl_'
'milionů_'
'mas'
'lou'
'ká'
'km_'
'každého_'
'kazdy_'
'jednu_'
'is'
'ion_'
'ik_'
'historii_'
'et'
'el'
'dra'
'don'
'cha'
'celém_'
'ab'
'TO'
'SI'
'Rusko_'
'Protože_'
'Naše_'
'Jsem_'
'Jo'
'JA'
'Další_'
'Během_'
'Apple_'
'AN'
'46_'
'3D_'
'03_'
'. -_'
', "_'
'%._'
'історії_'
'інтернет_'
'ьо'
'ь'
'шо'
'ши'
'ц'
'формі_'
'тів_'
'те'
'студентам_'
'став_'
'ска'
'само'
'сам_'
'ро'
'ринку_'
'рам'
'практично_'
'особи_'
'ови'
'ності_'
'нижче_'
'нер'
'населення_'
'навички_'
'мікро'
'мор'
'лю'
'лення_'
'кількості_'
'ками_'
'зо'
'зап'
'зазвичай_'
'жи'
'електро'
'дії_'
'дітеи_'
'ди'
'ги_'
'війни_'
'відомо_'
'во'
'виконання_'
'вибрати_'
'Хто_'
'ТЕ'
'Со'
'РА'
'Р_'
'Па'
'Ні_'
'Мар'
'Кон'
'Зараз_'
'ДО'
'Від_'
'že'
'šel_'
'ře'
'ř_'
'čka_'
'ík_'
'íci_'
'í'
'Á'
'základní_'
'zen_'
'zeme_'
'zatímco_'
'wi'
'we'
'věku_'
'vypadá_'
'vlastni_'
'ved'
'uveden'
'ub'
'tělo_'
'tu'
'svuj_'
'su'
'součástí_'
'skou_'
'rozhodnutí_'
'ri'
're'
'před'
'pár_'
'problém_'
'plně_'
'ovali_'
'ov'
'or'
'op'
'nt_'
'noci_'
'nech'
'nar'
'nad'
'mě'
'máme_'
'misto_'
'me'
'lí'
'lov'
'kurzy_'
'kterém_'
'krát_'
'kon'
'ke'
'jin'
'je'
'hol'
'hle_'
'ha_'
'fe'
'di'
'ců_'
'cu'
'co'
'cky_'
'chtějí_'
'bel'
'ba'
'až'
'aplikaci_'
'anti'
'a'
'Ti'
'Ru'
'Při'
'Pře'
'New_'
'Lo'
'In'
'DO'
'Byl_'
'Business_'
'36_'
'2002_'
'150_'
'+_'
' • _'
'їй_'
'ію_'
'шляхом_'
'чер'
'ча'
'цією_'
'уємо_'
'уже_'
'ував_'
'тор_'
'тобто_'
'тижнів_'
'технології_'
'століття_'
'ство_'
'ст'
'син'
'си_'
'серце_'
'с'
'роль_'
'розвиток_'
'роз'
'рит'
'речі_'
'рамках_'
'підходить_'
'підтримки_'
'проблема_'
'повинно_'
'період_'
'отримав_'
'от'
'оп'
'одне_'
'ову_'
'нів_'
'номер_'
'нн'
'непо'
'на'
'мій_'
'ме'
'машини_'
'команди_'
'код_'
'йому_'
'ич'
'зокрема_'
'зна'
'засоби_'
'ефект_'
'ес'
'еро'
'ен'
'дитина_'
'декількох_'
'д'
'га'
'вдалося_'
'біо'
'більшість_'
'більшості_'
'багато'
'ать_'
'аз'
'України_'
'Росія_'
'Роз'
'Пі'
'Ор'
'НЕ_'
'Ме'
'Завдяки_'
'Ге'
'ští_'
'školy_'
'ě'
'Č'
'án'
'Ú'
'základě_'
'způsobem_'
'zdrojů_'
'zboží_'
'ys'
'vym'
'vse_'
'vlasů_'
'vlasy_'
'vi_'
'van'
'val_'
'uz'
'umění_'
'uch'
'typ_'
'system_'
'stalo_'
'ss_'
'rek'
'proti'
'produkty_'
'pred'
'prace_'
'používat_'
'podporu_'
'ot'
'os_'
'os'
'odborn'
'nem_'
'možnosti_'
'lé'
'ly'
'kvůli_'
'konci_'
'kolik_'
'jiný_'
'jedné_'
'jedno_'
'ity_'
'itu_'
'ist'
'iny_'
'hy_'
'ek'
'ej_'
'del'
'dar'
'dal_'
'cich_'
'cho'
'celkem_'
'casto_'
'be'
'ati'
'at'
'am'
'abychom_'
'Zde_'
'ZA'
'VI'
'VA'
'Sta'
'Sm'
'Pří'
'Proto_'
'Program_'
'Pa'
'Nej'
'Nebo_'
'Ne_'
'Například_'
'Microsoft_'
'MA'
'KO'
'International_'
'IS'
'HD_'
'EN'
'DA'
'CE_'
'Ba'
'AC'
'?"_'
'75_'
'39_'
'38_'
'2008_'
'2005_'
'15'
'., _'
'. (_'
') - _'
'іншим_'
'єр_'
'чотири_'
'ціл'
'хоче_'
'фото'
'умови_'
'умовах_'
'ул'
'тобі_'
'тисяч_'
'твор'
'су_'
'сте'
'словами_'
'само_'
'са_'
'ру_'
'рес'
'ре'
'підтримує_'
'причин_'
'при'
'походження_'
'потрібні_'
'постійно_'
'пост'
'повно'
'переваги_'
'пере'
'пан'
'ованих_'
'ніч_'
'ники_'
'нес'
'необхідні_'
'небудь_'
'мовою_'
'мм_'
'мали_'
'ло'
'ках_'
'йти_'
'ист'
'зобов_'
'змін_'
'здається_'
'залежить_'
'завдання_'
'ет_'
'енням_'
'дитини_'
'гра_'
'говорить_'
'всім_'
'вп'
'вор'
'воно_'
'вих_'
'випадків_'
'використовуються_'
'видів_'
'вда'
'біля_'
'біл'
'будинок_'
'ають_'
'аль'
'ала_'
'аж_'
'аж'
'Які_'
'Щ'
'Ц'
'Се'
'Під_'
'При'
'Ло'
'Да'
'Більше_'
'Б'
'Ал'
'Ž'
'ý'
'zkušenosti_'
'vě'
'vyšší_'
'vys'
'videa_'
'vasi_'
'var'
'ur'
'třetí_'
'tan'
'takové_'
'ského_'
'sex_'
'rozdíl_'
'rav'
'přímo_'
'průběhu_'
'pravidla_'
'prav'
'použít_'
'pou'
'podnikání_'
'peněz_'
'osoby_'
'obsah_'
'obchodu_'
'náš_'
'nový_'
'nac'
'město_'
'model_'
'mezinarodni_'
'ls_'
'lidem_'
'ku'
'ka'
'jiného_'
'ilo_'
'iho_'
'hodnoty_'
'ed'
'eb'
'docela_'
'dobré_'
'dobre_'
'dlouh'
'ci'
'chi'
'celou_'
'bolest_'
'ban'
'av'
'ané_'
'ano_'
'an'
'alespoň_'
'Už_'
'To'
'Před'
'Po'
'Pe'
'Ná'
'Mi'
'ME'
'LE'
'Jen_'
'Jak'
'Ja'
'IC'
'Hu'
'Go'
'Existuje_'
'DI'
'CI'
'99_'
'60'
'51_'
'2009_'
'&_'
' ,_'
' ('
'”_'
'ґ'
'іс'
'іншому_'
'іноді_'
'єш_'
'якій_'
'якомога_'
'ше'
'цієі_'
'ціи_'
'учасників_'
'університету_'
'уд'
'тур'
'точки_'
'тор'
'типу_'
'тиждень_'
'тварин_'
'такий_'
'сфері_'
'становить_'
'стала_'
'списку_'
'см_'
'сер'
'се'
'своєю_'
'розмір_'
'разу_'
'ра'
'починає_'
'пові'
'першого_'
'перше_'
'перед'
'ом'
'ній_'
'ному_'
'ників_'
'не'
'належить_'
'надання_'
'набагато_'
'місяці_'
'містах_'
'мільйонів_'
'мо'
'мистецтва_'
'мало_'
'ли'
'культури_'
'країні_'
'кра'
'контролю_'
'ко'
'кат'
'к'
'йн'
'ині_'
'знаємо_'
'ері'
'дівчина_'
'ден'
'даними_'
'дан'
'відразу_'
'виробництва_'
'використовують_'
'вересня_'
'вважає_'
'вашому_'
'важко_'
'ва'
'безкоштовно_'
'ба_'
'ач'
'акт'
'ад'
'Хоча_'
'РІ'
'ЛО'
'Кожен_'
'КА'
'К_'
'Завантажити_'
'Головна_'
'ВА'
'ši'
'še'
'ří'
'údajů_'
'ín'
'én'
'ává_'
'áv'
'zůstat_'
'znám'
'změnit_'
'zbraně_'
'zat'
'věc_'
'vzdělávání_'
'vlastně_'
'vi'
'ut'
'ura'
'ur_'
'tá'
'tri_'
'ter_'
'ter'
'temer_'
'státu_'
'studentů_'
'studenti_'
'stránek_'
'stroje_'
'stav_'
'stale_'
'společností_'
'sluzby_'
'slu'
'skutečnosti_'
'sit_'
'sel'
'samozřejmě_'
'roli_'
'ro_'
'riziko_'
'r'
'prvním_'
'pru'
'prov'
'programy_'
'produktů_'
'pripade_'
'pres'
'praci_'
'pp'
'pouziti_'
'poskytnout_'
'pos'
'ple'
'pis'
'per'
'ost'
'okamžitě_'
'ohledu_'
'ními_'
'nove_'
'nemá_'
'nemoci_'
'nejvíce_'
'nakonec_'
'místě_'
'muže_'
'mov'
'mlad'
'metody_'
'mb'
'man'
'lu_'
'lt'
'lo'
'len'
'lek'
'kvalitu_'
'kurz_'
'kou'
'kal'
'jo'
'jméno_'
'jiz_'
'jednom_'
'jedno'
'ip'
'ina_'
'hodiny_'
'hlas'
'go'
'fo'
'firmy_'
'ez'
'energii_'
'dětí_'
'dot'
'delat_'
'dav'
'cka_'
'chování_'
'che'
'ch'
'cesta_'
'cem_'
'bá'
'autor'
'atd_'
'as_'
'art'
'are'
'ali'
'akce_'
'ak'
'ad_'
'Zá'
'Zv'
'Spojené_'
'Si'
'SP'
'SA'
'Plus_'
'Pi'
'PA'
'Or'
'NE_'
'Hotel_'
'Ho'
'For'
'Fe'
'Evropy_'
'EC'
'Dr'
'Dom'
'Do'
'Cha'
'Bu'
'Ab'
'AL'
'8'
'55_'
'41_'
'32'
'31'
'197'
'194'
'02_'
'.'
', '
') '
' »_'
' .._'
'іт_'
'інше_'
'ін'
'іг'
'ят'
'юся_'
'ша'
'чотирьох_'
'чи'
'цями_'
'ци'
'хотів_'
'хо'
'фото_'
'файлів_'
'уп'
'уз'
'тра'
'тон'
'татуювання_'
'т'
'січня_'
'стер'
'спілкування_'
'справді_'
'соціальних_'
'середовища_'
'своїм_'
'сайті_'
'рон'
'розс'
'роботі_'
'риб'
'режимі_'
'р'
'проте_'
'приз'
'працюють_'
'правила_'
'пер'
'пар'
'оцінки_'
'однією_'
'об'
'нова_'
'нен'
'нев'
'нашу_'
'нашої_'
'минулого_'
'медіа_'
'медичн'
'магістра_'
'людьми_'
'крім_'
'кращих_'
'користувачів_'
'ком_'
'кан'
'ин_'
'из'
'знаити_'
'заявив_'
'зас'
'запитання_'
'ження_'
'ери_'
'емо_'
'діяльність_'
'дізнатися_'
'дя'
'доступні_'
'доларів_'
'додаток_'
'дизайн_'
'готелі_'
'гон'
'відомий_'
'відносин_'
'вплив_'
'використовує_'
'великі_'
'вартість_'
'бур'
'али_'
'ал'
'ак'
'Фа'
'Ф'
'Та'
'Сі'
'Са'
'Рі'
'РЕ'
'Ні'
'Мі'
'Мені_'
'Люди_'
'КИ_'
'Див'
'Бо'
'Без_'
'Ін'
'Європи_'
'ží_'
'žádný_'
'činnosti_'
'če_'
'čase_'
'č'
'É_'
'zákona_'
'zá'
'zvýšení_'
'způsoby_'
'znamena_'
'zap'
'yt'
'věd'
'věcí_'
'vztahu_'
'vyžaduje_'
'vsak_'
'vin'
'verze_'
'vel'
'vcetne_'
'vani_'
'uv'
'uk'
'udelat_'
'u'
'těžké_'
'ty'
'tro'
'tin'
'tech_'
'tat'
'světové_'
'státní_'
'stylu_'
'sta'
'současné_'
'soubor_'
'smrti_'
'sko_'
'situaci_'
'rád_'
'rt'
'ras'
'pět_'
'prob'
'pro'
'pri'
'používání_'
'pom'
'podpory_'
'pan'
'ou'
'ote'
'osobních_'
'ort'
'odn'
'oci'
'obnov'
'něj_'
'nov'
'nete_'
'nena'
'nen'
'nekolik_'
'neexistuje_'
'neco_'
'ne'
'nce_'
'nastavení_'
'najít_'
'městě_'
'měly_'
'má'
'mor'
'mo'
'mene_'
'meli_'
'mat'
'lidsk'
'lad'
'kt'
'klient'
'kdyby_'
'kar'
'kan'
'jiných_'
'jici_'
'it'
'informaci_'
'ime_'
'ideální_'
'ick'
'hranice_'
'hodn'
'hod'
'hned_'
'gen'
'ft_'
'fotografie_'
'film_'
'eh'
'dí_'
'doma_'
'dobrý_'
'din'
'di_'
'der_'
'cookies_'
'cm_'
'cist'
'cin'
'chci_'
'cestu_'
'ate'
'ant'
'ani'
'Ze'
'Všechny_'
'USD_'
'Ty_'
'Také_'
'TI'
'Sto'
'ST'
'Res'
'Pra'
'PRO'
'OD'
'Některé_'
'Nez'
'Me'
'Kde_'
'GB_'
'Fi'
'ER'
'Di'
'Cor'
'Ben'
'Ar'
'An'
'://_'
'77'
'49_'
'48_'
'30'
'22'
'21'
'2004_'
'2003_'
'17'
'13'
'04_'
'00'
'. "_'
',“ _'
'". _'
'", "_'
'! '
'’ _'
'їжі_'
'історія_'
'історію_'
'іде'
'ід_'
'яті_'
'язок_'
'язаних_'
'чного_'
'чна_'
'ціі_'
'ці'
'ха'
'фер'
'фар'
'уються_'
'ути_'
'усі_'
'уг'
'тро'
'том_'
'такого_'
'стає_'
'ста'
'спів'
'список_'
'ско'
'самого_'
'са'
'ря'
'рол'
'роблять_'
'пір_'
'пізніше_'
'підготовки_'
'процес_'
'право'
'правильно_'
'пацієнтів_'
'пара'
'освіту_'
'оні'
'одному_'
'ового_'
'ово'
'обробки_'
'образ'
'ня'
'нці_'
'нок_'
'нового_'
'нашому_'
'називається_'
'називають_'
'наді'
'мін'
'мова_'
'мк'
'маю_'
'лом_'
'лен'
'л'
'кі'
'кого_'
'кг_'
'ис'
'ил'
'ився_'
'зу'
'зробив_'
'знає_'
'землі_'
'засобів_'
'залишається_'
'заклад'
'жі_'
'ера_'
'ем'
'ей'
'доведеться_'
'дит'
'дек'
'грати_'
'вікна_'
'ві'
'всю_'
'воді'
'вого_'
'вигляді_'
'весь_'
'великий_'
'вважається_'
'в'
'ається_'
'Через_'
'Тут_'
'Тра'
'ТИ_'
'Саме_'
'Ра'
'П_'
'ОБ'
'Му'
'Мал'
'МО'
'Дуже_'
'Її_'
'ІН'
'žena_'
'š'
'ři'
'řen'
'ěr'
'ď_'
'čky_'
'čen'
'úplně_'
'závislosti_'
'zná'
'zna'
'zivot_'
'ziv'
'zen'
'zaměřen'
'zahrad'
'yb'
'xi'
'webu_'
'výzkum_'
'války_'
'vysoké_'
'vyhod'
'vid'
'ver'
'velký_'
'veci_'
'vaší_'
'vaji_'
'va'
'ut_'
'use'
'tímto_'
'ts'
'ton_'
'tetování_'
'ted_'
'systemu_'
'svými_'
'střední_'
'stránkách_'
'straně_'
'stranky_'
'stejné_'
'standardní_'
'srdce_'
'společně_'
'son'
'slovo_'
'san'
'ruce_'
'rsk'
'rod'
'rk'
'ren'
'péče_'
'prostě_'
'programů_'
'problémů_'
'pracovní_'
'pra'
'používají_'
'posledních_'
'pop'
'pomáhá_'
'podporuje_'
'pleť_'
'para'
'pa'
'ovým_'
'ostrov'
'opatření_'
'onu_'
'om'
'oj'
'ník_'
'náv'
'nsk'
'noc_'
'nk'
'nikdo_'
'nep'
'neo'
'nelze_'
'neho_'
'nav'
'mluvit_'
'mel_'
'lépe_'
'les_'
'krok_'
'komunikace_'
'koliv_'
'každé_'
'kart'
'ju'
'jist'
'jedin'
'iz'
'ito'
'internetu_'
'ide'
'id'
'há'
'hy'
'hl'
'her_'
'funguje_'
'filmu_'
'es'
'ep'
'eo'
'eji_'
'děje_'
'dál_'
'dv'
'dro'
'dom'
'div'
'des'
'cov'
'cel'
'bit'
'ber'
'azen'
'auto_'
'americk'
'US_'
'Te'
'Sou'
'SL'
'Rusku_'
'Rad'
'RE'
'Pu'
'Pre'
'PS'
'Nu'
'No'
'Nejlepší_'
'Možná_'
'Jsme_'
'Facebook_'
'Che'
'CO'
'Ber'
'Be'
'800_'
'72_'
'64_'
'52_'
'50'
'2006_'
'195'
'10'
'.... [-]_'
'. [+]_'
'%_'
'" '
' = _'
' . _'
'інфекці'
'ян'
'яз'
'ьої_'
'ьно'
'шу_'
'школа_'
'шен'
'ш'
'чо'
'чим_'
'частині_'
'ціни_'
'цілей_'
'хи'
'фор'
'ф_'
'ус_'
'університетів_'
'уватися_'
'тіло_'
'транс'
'точно_'
'торгівлі_'
'товарів_'
'термін_'
'тво'
'ся'
'суспільства_'
'ступінь_'
'стра'
'стало_'
'спочатку_'
'спор'
'спо'
'си'
'сайту_'
'ряд_'
'розробки_'
'розп'
'род'
'рис'
'пін'
'пів'
'прос'
'проведен'
'пристрої_'
'прис'
'потреби_'
'пос'
'отримувати_'
'од'
'ов'
'оби'
'нням_'
'ни'
'народження_'
'назву_'
'міг_'
'мир'
'мат'
'мав_'
'ля'
'льних_'
'льний_'
'липня_'
'лик'
'курсу_'
'курси_'
'контакт'
'йл'
'иці_'
'иться_'
'ину_'
'ид'
'зне'
'зи'
'згідно_'
'збереження_'
'зберегти_'
'засіб_'
'жінка_'
'жовтня_'
'жит'
'енці'
'ений_'
'ег'
'дон'
'двері_'
'дав_'
'гу_'
'гост'
'говорять_'
'ген'
'ган'
'відчуття_'
'відповідає_'
'відновлення_'
'від'
'вт'
'високо'
'виробництво_'
'використовуючи_'
'викликати_'
'види_'
'виглядає_'
'ви'
'вагітності_'
'буд'
'бер'
'бал'
'б'
'аючи_'
'аст'
'анд'
'алі'
'ака'
'автор'
'ав'
'Тож_'
'Тоді_'
'Пу'
'Проте_'
'Пос'
'Пер'
'Пе'
'Ось_'
'ОР'
'Німеччина_'
'Нью_'
'Навіть_'
'Нав'
'НІ'
'МА'
'Кі'
'Кар'
'Й'
'Ел'
'Ду'
'Ві'
'Вас_'
'Бі'
'Бог_'
'БА'
'ží'
'ším_'
'škod'
'řel'
'řad'
'číslo_'
'čního_'
'úrovni_'
'ír'
'íky_'
'ár'
'álně_'
'ák'
'zájem_'
'zprávy_'
'zpracování_'
'zor'
'zm'
'zk'
'zdrav'
'začít_'
'začátku_'
'zav'
'všem_'
'výzkumu_'
'výsledky_'
'víc_'
'vá'
'vztah_'
'vzhledem_'
'vzdy_'
'vyn'
'vod'
'vo_'
'vede_'
'vaši_'
'utí_'
'ust'
'určen'
'up'
'ule'
'ukazuje_'
'ujete_'
'trval'
'tele_'
'takze_'
'takových_'
'systémy_'
'syn'
'stn'
'stav'
'star'
'snad_'
'sn'
'skvěl'
'situace_'
'sebe'
'schopni_'
'sama_'
'rovn'
'rov'
'rodiny_'
'přirozen'
'přev'
'přesně_'
'pí'
'py_'
'prostor_'
'prom'
'prohl'
'produkt_'
'pov'
'poté_'
'politiky_'
'poli'
'pohled_'
'pleti_'
'pil'
'penize_'
'patří_'
'ovych_'
'organizaci_'
'one'
'och'
'oblečení_'
'oblastí_'
'nn'
'nik'
'ng'
'neustále_'
'neb'
'nc'
'měsíců_'
'mělo_'
'muz'
'mozne_'
'mou'
'mohla_'
'moderní_'
'milionu_'
'mil'
'mer'
'men'
'luv'
'lon'
'll'
'liv'
'lik'
'lid'
'let'
'la'
'kul'
'kterých_'
'kontrol'
'koli_'
'kle'
'kaz'
'jinak_'
'jednání_'
'instituce_'
'ini'
'ing'
'ib'
'hodnocení_'
'finanční_'
'fi'
'ev'
'eu'
'ený_'
'ent_'
'ent'
'eln'
'eli_'
'ele_'
'druhy_'
'dr'
'dokud_'
'dlouhou_'
'dl'
'chat_'
'cesty_'
'ceni_'
'budu_'
'budoucnosti_'
'blok'
'bla'
'bb'
'ation_'
'ara'
'any_'
'ane_'
'and'
'ance_'
'aly_'
'alo'
'ak_'
'ající_'
'ag'
'adresu_'
'Va'
'VE'
'Tu'
'Tri'
'Tam_'
'TE'
'Sv'
'Spo'
'RA'
'Pres'
'Pot'
'Pak_'
'PE'
'Outlook_'
'OSN_'
'OP'
'OB'
'Net'
'Nap'
'NO'
'My_'
'Mu'
'Mont'
'Master_'
'MS'
'Lu'
'Let'
'Kromě_'
'Jeden_'
'Hi'
'Ex'
'Evropě_'
'Díky_'
'Col'
'Cel'
'CN'
'Bude_'
'Bra'
'Bitcoin_'
'Ano_'
'Ac'
'AS'
'@_'
'?'
': '
'58_'
'53_'
'47_'
'44_'
'41'
'39'
'25'
'09_'
'' _'
'#_'
'!"_'
' ... [+]_'
' - '
'… _'
'”._'
'інтер_'
'ємося_'
'єднання_'
'яти'
'якою_'
'яко'
'яг'
'ючись_'
'ього_'
'чний_'
'чита'
'чат'
'центрі_'
'хвороби_'
'фільм_'
'учи'
'уро'
'ур'
'університет_'
'ум'
'уваги_'
'трима'
'тки_'
'тин'
'тижня_'
'тел'
'таку_'
'така_'
'ському_'
'сучасних_'
'став'
'сов'
'смерті_'
'систем_'
'силу_'
'сил_'
'розумі'
'реклам'
'результат_'
'рег'
'радіо'
'підприємства_'
'прямо_'
'пропонують_'
'прода'
'призначення_'
'праці_'
'прав_'
'пошуку_'
'почуття_'
'починається_'
'поведінки_'
'отримаєте_'
'ото'
'основних_'
'опі'
'одно'
'ової_'
'ніхто_'
'нь'
'нт_'
'ника_'
'нення_'
'наибільш_'
'надто_'
'надати_'
'місць_'
'місцевих_'
'мося_'
'млн_'
'мережі_'
'маєте_'
'лін'
'людськ'
'людину_'
'логічн'
'кухні_'
'краіни_'
'конкурент'
'компанією_'
'кнопку_'
'книги_'
'ке'
'квіти_'
'камінь_'
'каже_'
'йт'
'ит_'
'ира'
'иому_'
'ино'
'ина'
'ин'
'иво'
'зустрічі_'
'змінити_'
'здатність_'
'замість_'
'залишатися_'
'залежності_'
'живуть_'
'живо'
'ефекти_'
'ест'
'ені'
'ених_'
'енд'
'ек'
'еи_'
'діа'
'ду'
'друзів_'
'другий_'
'дро'
'дра'
'доступу_'
'довго_'
'до'
'грошей_'
'гормон'
'відда'
'встановити_'
'вода_'
'висот'
'високу_'
'взяти_'
'велику_'
'вар'
'будемо_'
'блі'
'ат_'
'ант'
'ано'
'ак_'
'авто_'
'аб'
'Ь_'
'Цеи_'
'Фі'
'Фе'
'Тим_'
'Те'
'Там_'
'Студенти_'
'СП'
'Ро'
'Під'
'Пре'
'ПРИ'
'ООН_'
'Най'
'НЯ_'
'НИ'
'НІ_'
'Мер'
'ЛИ'
'Ку'
'Ке'
'Квіти_'
'ИН'
'За'
'Життя_'
'Ен'
'ДА'
'Вер'
'Ве'
'Бу'
'Без'
'štěstí_'
'šk'
'ša'
'Ř'
'ň'
'ět'
'ďte_'
'článku_'
'účinky_'
'ø'
'ést_'
'ád'
'°_'
'zí_'
'září_'
'zároveň_'
'zpět_'
'zprav'
'znam'
'zl'
'zit'
'zal'
'yz'
'yk'
'věří_'
'význam_'
'ví'
'vzít_'
'vyz'
'vyp'
'vyb'
'volby_'
'vodu_'
'vo'
'vláda_'
'ven_'
'velikost_'
'vas'
'val'
'uni'
'ult'
'ujici_'
'uh'
'těm_'
'tě'
'tsk'
'trh_'
'tre'
'tor_'
'tisk'
'svet_'
'sveho_'
'sub'
'stí_'
'studentům_'
'stroj'
'stran_'
'stick'
'stala_'
'spoustu_'
'sou'
'sně'
'smlouvy_'
'skutečné_'
'sku_'
'sch'
'samostatn'
'rá'
'rz'
'ruznych_'
'rekl_'
'rea'
'rd_'
'rat_'
'raj'
'ra'
'případech_'
'přináší_'
'především_'
'provádět_'
'prostrednictvim_'
'prostor'
'prosince_'
'projekt_'
'procesu_'
'prezident_'
'pracuje_'
'potřeby_'
'posledni_'
'poprvé_'
'pomůže_'
'poměrně_'
'podmínky_'
'pochopit_'
'pob'
'plaz'
'peč'
'pec'
'otázky_'
'osvětlení_'
'oslav'
'opět_'
'opo'
'omi'
'oku'
'of'
'odst'
'oc'
'objektiv'
'obchod_'
'oba_'
'nění_'
'nějaké_'
'návštěv'
'následující_'
'námi_'
'ny'
'nutí_'
'nut'
'ns_'
'novy_'
'nohy_'
'nev'
'nes'
'nemají_'
'nebyla_'
'nat'
'napriklad_'
'miliony_'
'meta'
'mate_'
'lásky_'
'lni_'
'll_'
'les'
'lec'
'lat'
'ký_'
'kultur'
'kra'
'kot'
'kop'
'jich_'
'jed'
'ivní_'
'ik'
'ij'
'ig'
'ie'
'iPhone_'
'http_'
'hodnot'
'hledá'
'historie_'
'globální_'
'gh'
'for_'
'ením_'
'ec'
'důsledku_'
'dě'
'dává_'
'dve_'
'dol'
'dobe_'
'dit_'
'dest'
'dan'
'cykl'
'ct'
'ck'
'cit'
'chtěl_'
'chemick'
'celkov'
'cat'
'cas_'
'bud'
'bohat'
'bl'
'bez'
'bas'
'ař'
'aze'
'ato'
'atel'
'ate_'
'ari'
'ale'
'aci'
'WEB_'
'Ví'
'Vz'
'Vy'
'Vi'
'Velmi_'
'Velk'
'Vaše_'
'Ukrajina_'
'Software_'
'Rus'
'Per'
'Os'
'OV'
'OU_'
'Nyní_'
'Nikdy_'
'News_'
'Nad'
'Na'
'NATO_'
'Myslím_'
'Min'
'Mil'
'Mat'
'Ma'
'LI'
'Kr'
'Ji'
'Jaké_'
'JE'
'Her'
'Han'
'Fo'
'En'
'EM'
'Ci'
'Cas'
'CE'
'Bylo_'
'Bet'
'AD'
'? '
'54_'
'400_'
'40'
'36'
'35'
'29'
'27'
'1992_'
'): _'
'!'
' #_'
'існують_'
'іза'
'ід'
'іб'
'єру_'
'юється_'
'ютер_'
'ювання_'
'ька_'
'ще'
'ші'
'шов_'
'чоловіка_'
'членів_'
'чин'
'чергу_'
'червня_'
'частіше_'
'цію_'
'цин'
'хочуть_'
'характер_'
'форма_'
'ф'
'уч'
'умов_'
'ука'
'удн'
'ття_'
'тт'
'тру'
'тривалість_'
'тривал'
'тни'
'ське_'
'стрес'
'сторін_'
'сто'
'ства_'
'стають_'
'сталося_'
'сприяє_'
'сон'
'слав'
'симптоми_'
'своі_'
'розроблен'
'рад'
'рав'
'пік'
'процесу_'
'пропонуємо_'
'продукту_'
'проведення_'
'приклад'
'прий'
'пра'
'порт'
'поро'
'пол'
'показати_'
'под'
'план'
'пла'
'перші_'
'першим_'
'п'
'ос'
'організації_'
'організаці'
'оновлення_'
'он'
'озн'
'одночасно_'
'ований_'
'ована_'
'обі'
'обох_'
'неможливо_'
'нашим_'
'наша_'
'напрямку_'
'нак'
'надзвичайно_'
'моя_'
'метал'
'ме_'
'лінії_'
'логі'
'лан'
'лад'
'крас'
'колір_'
'код'
'клі'
'ит'
'ик'
'знають_'
'зможете_'
'захист_'
'зар'
'закон_'
'задоволення_'
'жу'
'живе_'
'же'
'еск'
'ере'
'еп'
'ент'
'енергії_'
'економічн'
'еж'
'ед'
'ді'
'думку_'
'думаю_'
'досягнення_'
'домі'
'добро'
'дис'
'гра'
'гор'
'говорити_'
'газу_'
'віл'
'відчу'
'відомі_'
'відміну_'
'відмовитися_'
'ву_'
'вперше_'
'во_'
'власний_'
'влади_'
'вищ'
'вимагає_'
'виконувати_'
'вживання_'
'версії_'
'велика_'
'вашим_'
'ваше_'
'варіант_'
'вантаж'
'ван'
'валют'
'вал'
'бі'
'бут'
'бор'
'бла'
'березня_'
'безпосередньо_'
'аціі_'
'атися_'
'арт'
'ана_'
'альні_'
'ай'
'адапт'
'ада'
'абсолютно_'
'Ян'
'Ще_'
'Хр'
'Ті'
'Тривалість_'
'ТО'
'ТА_'
'Суд'
'Стра'
'Син'
'Сер'
'Секс_'
'РО'
'Пор'
'Об_'
'Можливо_'
'Людина_'
'Й_'
'Зак'
'ЕР'
'Де'
'Далі_'
'Відео_'
'Бога_'
'Б_'
'Іс'
'Інтернеті_'
'život'
'šení_'
'še_'
'ř'
'Ře'
'ěž'
'ěn'
'čním_'
'čních_'
'čaj_'
'ča'
'účely_'
'íku_'
'áře_'
'áz'
'ávání_'
'ál_'
'áb'
'Á_'
'zákon'
'zákazníků_'
'zy_'
'zt'
'zpusob_'
'zlat'
'zeny_'
'zah'
'zad'
'webové_'
'wa'
'většina_'
'vět'
'výrazně_'
'víte_'
'vz'
'vytváří_'
'vytvorit_'
'vystav'
'vysoko'
'vyroben'
'vn'
'vir'
'viditeln'
'vetsina_'
'verzi_'
'velky_'
'velkou_'
'vaz'
'vaseho_'
'uva'
'unie_'
'umoznuje_'
'um'
'tře'
'těle_'
'tým_'
'tur'
'trans'
'tova'
'tot'
'tor'
'ton'
'tolik_'
'tit'
'tisíc_'
'teplot'
'teorie_'
'telefonu_'
'telefon'
'tel_'
'síly_'
'sílu_'
'sá'
'systémů_'
'stře'
'států_'
'studia_'
'stru'
'stri'
'stoleti_'
'stojí_'
'stejný_'
'st'
'srovnání_'
'sp'
'smyslu_'
'sm'
'sledovat_'
'skutečně_'
'sko'
'sir'
'sever'
'sed'
'rádi_'
'rychl'
'ry'
'ru'
'rozvoje_'
'roze'
'ros'
'role_'
'rodiče_'
'ri_'
'reseni_'
'reakce_'
'rady_'
'předtím_'
'prů'
'proveden'
'produktu_'
'pravděpodobně_'
'pravdu_'
'pr'
'požadavky_'
'potom_'
'port'
'pohodln'
'poda'
'pe'
'pad'
'ována_'
'ovn'
'ove'
'ovatel'
'ované_'
'ovala_'
'otevřen'
'ota'
'ostr'
'osm_'
'ono'
'odstran'
'oddělení_'
'obyvatel_'
'obraz_'
'obr'
'oblastech_'
'něn'
'nější_'
'náklady_'
'nos'
'nezbytn'
'net'
'nektere_'
'nekdy_'
'nejvyšší_'
'nejprve_'
'nechá'
'naši_'
'našem_'
'nase_'
'nalezen'
'mění_'
'měn'
'mí'
'mé_'
'mysli_'
'mužů_'
'mu'
'moznost_'
'moje_'
'mobilní_'
'mn'
'mezinárodních_'
'manželství_'
'lod'
'lit'
'lin'
'letu_'
'letadla_'
'las'
'lan'
'lam'
'kých_'
'ky'
'kur'
'kup'
'kromě_'
'kole'
'každém_'
'kategorie_'
'karty_'
'jídlo_'
'jine_'
'jd'
'jazyk_'
'izo'
'iti'
'inu_'
'ine'
'il'
'ici'
'hu'
'hrat_'
'hot'
'host'
'hor'
'hlavy_'
'ha'
'gy'
'gu'
'gram'
'ga_'
'fin'
'fa'
'ey_'
'existují_'
'est'
'efektivní_'
'eck'
'ea'
'dítěte_'
'dát_'
'dubna_'
'druhou_'
'dor'
'domácí_'
'dobr'
'dob'
'cu_'
'ct_'
'cke_'
'chvíli_'
'chod'
'chceme_'
'cest'
'cely_'
'ca'
'bro'
'bre'
'bli'
'bal'
'automaticky_'
'au'
'ane'
'ana_'
'alo_'
'ac'
'Zemi_'
'YouTube_'
'Vid'
'VO'
'Ukrajině_'
'US'
'Tohle_'
'Ten_'
'TE_'
'Společnost_'
'Sk'
'STR'
'STA'
'Pri_'
'Použití_'
'Pol'
'Par'
'PI'
'Není_'
'NI'
'NC'
'NA'
'Mezinárodní_'
'Mezi_'
'Mas'
'MO'
'MI'
'LT'
'LO'
'Ka'
'KY_'
'Ju'
'Jin'
'JI'
'JE_'
'Indie_'
'IP_'
'IP'
'Hol'
'HO_'
'Gra'
'Design_'
'Chr'
'Chci_'
'Ch'
'Ca'
'Byla_'
'BO'
'BI'
'At'
'Art'
'Ale'
'Ad'
'95_'
'85_'
'52'
'1990_'
'192'
'.)_'
','
'" (_'
'"'
'“, _'
'істин'
'інструменти_'
'ій'
'євро_'
'яс'
'ьте_'
'ькі_'
'ько'
'щу'
'щен'
'шту'
'шпалери_'
'ша_'
'чут'
'чорно'
'чоловіки_'
'чно_'
'че_'
'част'
'хі'
'хочемо_'
'ход'
'хи_'
'хан'
'форму_'
'фахівців_'
'уш'
'уряду_'
'ура'
'умі'
'ук'
'триває_'
'тре'
'травня_'
'тои_'
'телефон_'
'тво_'
'таки_'
'так'
'сум'
'стійкість_'
'стоя'
'сти'
'ств'
'стані_'
'стан_'
'стаді'
'сс'
'співпраці_'
'слово_'
'ситуації_'
'системі_'
'серця_'
'середовище_'
'сезон'
'своїй_'
'сама_'
'рішень_'
'різними_'
'рот'
'роках_'
'розі'
'рк'
'ризик_'
'ри'
'решт'
'ресурсів_'
'результатів_'
'революці'
'ранку_'
'піти_'
'підвищення_'
'пункту_'
'пс'
'проект_'
'програмного_'
'приєдна'
'пристрою_'
'принаймні_'
'прийма'
'прем_'
'прекрасн'
'президент_'
'предметів_'
'починаючи_'
'почина'
'потрібна_'
'порядку_'
'поп'
'пон'
'пити_'
'перших_'
'переда'
'переглядів_'
'пацієнт'
'пат'
'паст'
'парк'
'параметри_'
'очі_'
'організмі_'
'ома'
'олі'
'однак_'
'обл'
'нік'
'ньому_'
'нта'
'ново'
'нове_'
'нку_'
'неза'
'недо'
'наці'
'наскільки_'
'нас'
'нарешті_'
'місцях_'
'мс'
'мп'
'мон'
'медичних_'
'мед'
'мг_'
'мб'
'ман'
'майбутнє_'
'ліз'
'лід'
'льт'
'лл'
'лин'
'лет'
'лег'
'корпораці'
'коротко'
'компаній_'
'кер'
'кваліфікаці'
'кам_'
'йних_'
'ити'
'ир'
'име'
'иж'
'зору_'
'зни'
'знаходяться_'
'зен'
'звичайно_'
'збільшення_'
'зброї_'
'заходів_'
'захисн'
'занадто_'
'залиша'
'закінчення_'
'жен'
'енн'
'ене_'
'експертів_'
'еб'
'діє_'
'досягти_'
'достатньо_'
'досвіду_'
'допомога_'
'догляду_'
'доб'
'дитині_'
'дже'
'деяк'
'декілька_'
'дал'
'гір'
'губ'
'гравців_'
'готові_'
'готелю_'
'голод'
'години_'
'гарн'
'гал'
'віці_'
'віз'
'відкри'
'відео'
'впливу_'
'водо'
'власні_'
'виходить_'
'витрати_'
'виробів_'
'вимоги_'
'використанням_'
'виклада'
'визначити_'
'вен'
'великої_'
'ве'
'ватися_'
'бро'
'бни'
'би'
'багат'
'аш'
'англійськ'
'але'
'автомобіля_'
'Ша'
'Цього_'
'Ци'
'Ха'
'Франції_'
'Тобто_'
'Ти'
'СУ'
'СТА'
'РОЗ'
'Протягом_'
'Пол'
'Новий_'
'Наші_'
'Нап'
'НО'
'Мон'
'Кра'
'Кожна_'
'Китай_'
'Зі'
'Звичайно_'
'Зб'
'ДУ'
'ДІ'
'ГО_'
'Г_'
'Відт'
'Ваш_'
'ВО'
'ВІД'
'Більшість_'
'Ас'
'Аб'
'АН'
'Ісуса_'
'Інді'
'žít_'
'žádná_'
'životní_'
'žit'
'ší'
'škola_'
'škol'
'řidič'
'řadu_'
'čtyř'
'čtvrt'
'čit_'
'ček_'
'če'
'Čern'
'ývá_'
'ús'
'íř'
'íl'
'ém'
'él'
'ána_'
'»'
'zvláštní_'
'zlo'
'zhruba_'
'zena_'
'zem'
'zdravotní_'
'zast'
'zahrnuje_'
'zab'
'yp'
'ym'
'wn'
'war'
'výsledek_'
'vysokou_'
'vysok'
'vyj'
'vych'
'vu_'
'vsichni_'
'vou_'
'vod_'
'vhodné_'
'vhodn'
'vc'
'ud_'
'uce'
'tů_'
'týmu_'
'té'
'turist'
'troj'
'tou_'
'tou'
'telefon_'
'tel'
'tehdy_'
'technologii_'
'techniky_'
'sítě_'
'sí'
'symbol'
'sy_'
'sy'
'sti'
'statu_'
'sta_'
'spravne_'
'spo'
'soud'
'son_'
'sol'
'socialni_'
'sled'
'skutecne_'
'ses'
'sam'
'ráno_'
'rychlost_'
'rozvoj_'
'rozt'
'roz'
'rovno'
'ron'
'rol'
'rok'
'rni'
'rm'
'ris'
'rika'
'rem_'
'rad'
'q'
'příběh_'
'přizpůsob'
'připraven'
'přichází_'
'přibližně_'
'představit_'
'představ'
'pře'
'pán'
'prubehu_'
'prováděn'
'prosím_'
'prodej_'
'priprav'
'pozice_'
'povrchu_'
'povolen'
'povinn'
'pouzit'
'post'
'pora'
'poly'
'pole_'
'pokožku_'
'podniku_'
'plne_'
'pln'
'planet'
'pek'
'pat'
'pas'
'pacientů_'
'ož'
'ováno_'
'ovi'
'osobn'
'opl'
'operace_'
'oko'
'oh'
'odpoved'
'objem_'
'objekt'
'obchodni_'
'někoho_'
'ným_'
'nám'
'nky_'
'nit_'
'nice_'
'nic'
'nest'
'nese_'
'nejs'
'nasich_'
'nachází_'
'můj_'
'měsíce_'
'myslím_'
'mysl'
'modul'
'ml_'
'minulosti_'
'mic'
'liz'
'lidmi_'
'lení_'
'ledna_'
'kv'
'království_'
'kras'
'kontrolu_'
'knihy_'
'klad'
'kami_'
'jíst_'
'jících_'
'jmeno_'
'jev'
'jenom_'
'jeji_'
'jednoduch'
'jasn'
'iště_'
'ič'
'infekce_'
'imi_'
'imi'
'iku_'
'ika_'
'ický_'
'ická_'
'ht'
'hrát_'
'hrad'
'hra'
'hov'
'hn'
'hlediska_'
'hat'
'han'
'go_'
'gar'
'funkc'
'for'
'fon'
'fl'
'fer'
'fakt'
'eš_'
'ete'
'ert'
'era'
'ensk'
'emo'
'ela_'
'ekonomick'
'důvodu_'
'dříve_'
'dále_'
'dulezite_'
'duch'
'dsk'
'druhu_'
'dov'
'dostupn'
'dosažení_'
'dokumentu_'
'do'
'dnů_'
'dnech_'
'dis'
'der'
'denně_'
'del_'
'daleko_'
'dal'
'cítit_'
'cy'
'cr'
'cor'
'cne_'
'cla'
'cislo_'
'cer'
'centrum_'
'by'
'buď_'
'bur'
'budoucnost_'
'bra'
'bou'
'bolesti_'
'bin'
'bezpečnosti_'
'barev_'
'auto'
'auta_'
'atu_'
'ata_'
'ast'
'asi'
'ap'
'aný_'
'americké_'
'aktualizace_'
'aktivní_'
'ako'
'akademick'
'Zp'
'Zav'
'You'
'Wi'
'Vy_'
'Ven'
'Velké_'
'VY'
'Uv'
'Ur'
'Uni'
'Ukrajiny_'
'Takze_'
'TO_'
'Studenti_'
'Se_'
'School_'
'Sch'
'ST_'
'Plat'
'Ph'
'Ot'
'OM'
'Ni'
'Mor'
'Ltd_'
'Kol'
'Kar'
'Intel_'
'III_'
'Fi_'
'Evropsk'
'Ele'
'El'
'Dě'
'Datum_'
'Dal'
'Copyright_'
'Chi'
'CA'
'Bůh_'
'Bre'
'Boha_'
'Bi'
'Bal'
'? - _'
'56_'
'55'
'1995_'
'189'
'188'
'187'
'184'
'12'
'11'
'+ _'
')'
' +_'
' ( _'
' $ _'
' "'
'💐 _'
'—_'
'їл'
'їжу_'
'їд'
'іться_'
'іст'
'іс_'
'іп'
'інший_'
'іка'
'ів'
'єтеся_'
'єн'
'яється_'
'ята'
'язково_'
'язки_'
'юють_'
'ютера_'
'юридичн'
'ьні_'
'ьм'
'щастя_'
'шл'
'школі_'
'школи_'
'шанс_'
'чудово_'
'чної_'
'чне_'
'чисто'
'число_'
'честь_'
'чення_'
'чека'
'частиною_'
'чай'
'ціна_'
'цер'
'цев'
'ха_'
'фінансових_'
'функціонування_'
'формування_'
'участі_'
'успіху_'
'ура_'
'ум_'
'удар'
'ува'
'тон_'
'тичн'
'технічно'
'технологій_'
'тест'
'тверд'
'такими_'
'таблетки_'
'сір'
'сусід'
'стіл_'
'стро'
'стратегі'
'сторінці_'
'статт'
'стане_'
'стали_'
'стал'
'справи_'
'справа_'
'спостеріга'
'спортивн'
'скористатися_'
'складається_'
'склада'
'сильно_'
'серед'
'сам'
'рів_'
'руху_'
'руха'
'росту_'
'роп'
'розподіл'
'розк'
'розвивати_'
'розв'
'робочого_'
'рні'
'речовини_'
'рет'
'рем'
'рекомендується_'
'реакці'
'рд'
'ракет'
'рази_'
'ради'
'підхід_'
'підтримувати_'
'південно'
'пункт'
'проектів_'
'програмі_'
'програм'
'проводиться_'
'проблему_'
'причина_'
'пристроїв_'
'природн'
'прин'
'призначен'
'призводить_'
'початок_'
'почати_'
'почав_'
'потрібен_'
'поставити_'
'посилання_'
'порушення_'
'попередні'
'помер_'
'покоління_'
'показник'
'подобається_'
'плі'
'плюс_'
'плани_'
'план_'
'пис'
'пил'
'пи'
'періоду_'
'першу_'
'перес'
'перевірити_'
'перевір'
'патологі'
'парті'
'оц'
'отримали_'
'от_'
'основні_'
'орі'
'ори_'
'організму_'
'операційн'
'опа'
'омі'
'оль'
'оки'
'ок'
'оду'
'ові'
'ову'
'овни'
'овано_'
'обміну_'
'носі'
'нос'
'нової_'
'нк'
'низько'
'нет'
'необхідності_'
'незалежно_'
'нг_'
'науков'
'напад'
'навантаження_'
'місі'
'місячн'
'місяць_'
'міст'
'музе'
'мол'
'мозку_'
'мит'
'мис'
'ми'
'мент'
'мен'
'матеріали_'
'матері_'
'мас'
'ліні'
'людям_'
'людині_'
'любові_'
'лон'
'лись_'
'купу'
'кот'
'контролювати_'
'компаніі_'
'колі'
'кожна_'
'квартир'
'йтеся_'
'йська_'
'йна_'
'йки_'
'иш'
'ис_'
'ило'
'ика_'
'иг'
'зу_'
'зон'
'зображень_'
'знач'
'знаходи'
'зміню'
'зменшити_'
'злочин'
'зин'
'здатні_'
'зг'
'збро'
'зб'
'заходи_'
'заход'
'захворювань_'
'замін'
'зал'
'зад'
'заго'
'загально'
'забезпечують_'
'жу_'
'жертв'
'жаль_'
'еч'
'ефективно_'
'ет'
'еся_'
'ерів_'
'епі'
'ео'
'електронн'
'експорт'
'ез'
'ев'
'діл'
'душі_'
'доставки_'
'дор'
'дол'
'документа'
'дозволяють_'
'дода'
'дихання_'
'дик'
'дизайну_'
'джерела_'
'дешев'
'двома_'
'дасть_'
'грудня_'
'гот'
'ге'
'гаранті'
'гар'
'віта'
'відстані_'
'відповідальність_'
'відпові'
'відкрити'
'встав'
'волог'
'воду_'
'вогн'
'вночі_'
'влад'
'вит'
'вис'
'використовуємо_'
'визнання_'
'взагалі_'
'версія_'
'вер'
'ве_'
'вдома_'
'вд'
'ванням_'
'вала_'
'бу'
'бра'
'бол'
'бачили_'
'батько_'
'бар_'
'ацію_'
'арі'
'ари'
'ар_'
'анс'
'ана'
'ало'
'ала'
'ал_'
'аку'
'аг'
'Японська_'
'Як'
'Чим_'
'ЦЕ'
'Хар'
'Фар'
'Ус'
'ТЬ_'
'ТУ'
'ТА'
'СТ'
'Роб'
'Прин'
'Потім_'
'Пот'
'Пар'
'ПЕРЕ'
'ПІ'
'Оп'
'ОС'
'Ну_'
'Нов'
'Немає_'
'НАТО_'
'Міжнародний_'
'Мат'
'Марі'
'Лу'
'Ли'
'Зо'
'Дон'
'День_'
'ГО'
'Вір'
'Воно_'
'Вод'
'Ана'
'Адже_'
'Їх_'
'Ї_'
'Ї'
'Існує_'
'žo'
'žk'
'ť'
'št'
'šen'
'řešit_'
'ření_'
'ějším_'
'Če'
'účelem_'
'úroveň_'
'ózy_'
'ó'
'áva'
'ás'
'áno_'
'záznam'
'zvukov'
'ztrat'
'zpusobem_'
'zov'
'známý_'
'zlepšení_'
'zit_'
'zení_'
'zb'
'začne_'
'zan'
'zam'
'založen'
'zakon'
'zaklade_'
'zak'
'zajištění_'
'zada'
'zach'
'yš'
'všechna_'
'vývoj_'
'výrobce_'
'výrob'
'výjimkou_'
'vzd'
'vyrob'
'vypl'
'vynikající_'
'vyl'
'vstup'
'voj'
'vodou_'
'vlády_'
'vliv_'
'vl'
'viz_'
'vit'
'vis'
'vet'
'velká_'
'vec_'
've'
'už'
'uš'
'určité_'
'ume'
'ula'
'uct'
'tříd'
'těhotenství_'
'týdnů_'
'trest'
'totiž_'
'tní_'
'tni_'
'tiv'
'tez'
'teploty_'
'tem_'
'telo_'
'takový_'
'takovou_'
'takov'
'tab'
'svobodn'
'sveta_'
'svem_'
'svatb'
'stv'
'studovat_'
'strav'
'stol'
'stejn'
'stat'
'stanoven'
'spá'
'spokojen'
'spe'
'sov'
'sni'
'snadn'
'smysl_'
'sma'
'sli'
'skupina_'
'skupin'
'skryt'
'sk'
'site_'
'silné_'
'shod'
'setkání_'
'samo'
'rámci_'
'ruzne_'
'ruské_'
'rukou_'
'rozum'
'rovněž_'
'rom'
'rodinn'
'rky_'
'rizeni_'
'rekord'
'rec'
'rd'
'rc'
'qui'
'připojení_'
'přijmout_'
'přes'
'ps'
'právní_'
'provoz'
'prostredi_'
'projev'
'primo_'
'praxe_'
'ppe'
'počítače_'
'považován'
'pouziva_'
'postaven'
'poskytnut'
'politika_'
'politick'
'pol'
'podstat'
'podp'
'podnikani_'
'podnik'
'podmínek_'
'po'
'pn'
'plod'
'platn'
'pit'
'pc'
'ovoce_'
'osob_'
'osmi_'
'ory_'
'oru_'
'ori'
'organizací_'
'ony_'
'ons_'
'one_'
'oli'
'ole'
'odo'
'odi'
'oce_'
'oboru_'
'obecn'
'obe'
'obd'
'nějak'
'nástroje_'
'nádhern'
'nyni_'
'nor'
'net_'
'nerv'
'nejméně_'
'nejlepsi_'
'nehod'
'nedo'
'nechat_'
'nebudou_'
'nd_'
'nd'
'nasta'
'např_'
'napad'
'nan'
'najdete_'
'myslí_'
'mr'
'modely_'
'modelu_'
'mm'
'minut'
'ministerstv'
'miliard_'
'mezinárodního_'
'mar'
'man_'
'mame_'
'malý_'
'mal'
'léčbu_'
'limit'
'lepsi_'
'led_'
'led'
'lač'
'l'
'káv'
'kvet'
'kurzu_'
'kterým_'
'ks_'
'krá'
'krve_'
'kredit'
'kovi'
'kost'
'konz'
'kontaktovat_'
'kom'
'každou_'
'jmen'
'ji'
'jemn'
'jednotlivc'
'jednoduché_'
'jakož_'
'jakou_'
'jako'
'iv_'
'ita_'
'ir'
'inženýrství_'
'ina'
'if'
'icky_'
'hr'
'hotel_'
'hodin'
'hod_'
'hlavně_'
'gn'
'geo'
'generace_'
'gan'
'ff'
'experiment'
'ers'
'ero'
'ens'
'energetick'
'ell'
'ef'
'dívka_'
'díl'
'dy'
'duše_'
'drev'
'dop'
'dil'
'denní_'
'dam'
'cí'
'cloveka_'
'clen'
'cký_'
'chu'
'cent'
'casu_'
'car'
'bul'
'bratr'
'bor'
'boji_'
'bní_'
'blo'
'bet'
'be_'
'bar'
'bank'
'ať_'
'ační_'
'ač'
'aut'
'aniž_'
'aktivity_'
'aji_'
'absolvent'
'\u _'
'Země_'
'Ya'
'World_'
'Web'
'Všichni_'
'Více_'
'Váš_'
'Vás_'
'Vá'
'Vzd'
'Van'
'Tru'
'Tre'
'Tady_'
'Ta_'
'TU'
'TRA'
'Sy'
'Ste'
'Spi'
'Sen'
'Samsung_'
'STE'
'Ry'
'Rob'
'Přes'
'Prosím_'
'Poslední_'
'Play_'
'Play'
'Paříž'
'PP'
'Ol'
'Ok'
'OR'
'Někdy_'
'Má_'
'Mal'
'LLM_'
'Kv'
'Kra'
'Kolik_'
'Kdyz_'
'Jestliže_'
'Ja_'
'IM'
'IE'
'Home_'
'Hea'
'He'
'HO'
'HD'
'HA'
'Ev'
'Em'
'Duch'
'Dan'
'DR'
'Cu'
'Cont'
'Con'
'Bri'
'Bez_'
'BY'
'And'
'Aby_'
'AP'
'@ _'
'7'
'57_'
'53'
'44'
'43_'
'34'
'1994_'
'1945_'
'180_'
'160_'
'123'
'.[_'
'('
'їв_'
'іш'
'іти_'
'іо'
'інформаціі_'
'інф'
'інг'
'іна_'
'імені_'
'іл'
'ік_'
'іж'
'ідеї_'
'ідеально_'
'іан'
'єра_'
'яться_'
'як'
'являється_'
'ют'
'юрист'
'ьт'
'ьому_'
'ште'
'шляху_'
'швидко'
'швидк'
'шах'
'чі'
'чки_'
'чени'
'чекає_'
'чекати_'
'частину_'
'чарівн'
'цін_'
'цілком_'
'цид'
'ц_'
'хтось_'
'хотіли_'
'хл'
'функції_'
'фу'
'фон'
'уючи_'
'усьому_'
'успішно'
'уряд_'
'університет'
'уні'
'уля'
'уйте_'
'увазі_'
'ув_'
'уб'
'тури_'
'тренування_'
'тл'
'тип_'
'тик'
'тестостерону_'
'ськии_'
'сх'
'сфери_'
'супер'
'стін'
'стрі'
'сторони_'
'столу_'
'стандарт'
'стан'
'спі'
'споживання_'
'спожива'
'сор'
'сні_'
'слів_'
'служби_'
'сли'
'ску'
'складу_'
'сині'
'сил'
'сенс'
'сел'
'світла_'
'санкці'
'сад'
'рідко_'
'рух_'
'руках_'
'рос'
'розміщення_'
'розлад'
'розділ'
'робоч'
'робота_'
'робот'
'ринок_'
'рим'
'речей_'
'ремонт_'
'релігі'
'результаті_'
'реа'
'рг'
'рас'
'ран'
'район'
'підр'
'підпис'
'підл'
'підключен'
'підк'
'підв'
'процесі_'
'професі'
'простіше_'
'промов'
'проекту_'
'продовжувати_'
'продовжити_'
'про'
'приємн'
'пристрій_'
'прист'
'придбати_'
'прибут'
'премі'
'працю'
'почали_'
'посад'
'поради_'
'пора'
'пор'
'помилки_'
'поза_'
'події_'
'пода'
'пляж'
'пи_'
'печінки_'
'першо'
'перет'
'передачі_'
'перегляд'
'перевагу_'
'партнер'
'ош'
'очей_'
'отримують_'
'особистості_'
'основно'
'ону_'
'ознак'
'одо'
'обіця'
'нт'
'ноі_'
'номер'
'нов'
'нест'
'непри'
'незважаючи_'
'наше_'
'народ'
'назва_'
'містять_'
'мі_'
'моїх_'
'моє_'
'моменту_'
'можливи'
'моделювання_'
'модель_'
'мог'
'мов'
'методів_'
'межах_'
'матеріал_'
'марк'
'малю'
'маленьки'
'магазин_'
'лікаря_'
'лів_'
'люби'
'листопада_'
'лас'
'кінці_'
'кін'
'кт'
'кс'
'країна_'
'краін_'
'кос'
'коро'
'контроль_'
'контексті_'
'комісі'
'комі'
'кожну_'
'кожному_'
'кови'
'класу_'
'класично'
'камери_'
'йні_'
'йно'
'йдеться_'
'йде_'
'итеся_'
'ита'
'инг'
'ика'
'ива'
'зроби'
'зовнішні'
'знаєш_'
'знань_'
'знайшли_'
'знав_'
'змо'
'зд'
'зван'
'збира'
'зації_'
'заці'
'заряд'
'запо'
'запита'
'запах_'
'замовлення_'
'зам'
'зада'
'завантаження_'
'жіноч'
'жі'
'жир'
'жив_'
'жені_'
'еті'
'ерт'
'енергі'
'емоці'
'елі'
'елементів_'
'економічного_'
'економіки_'
'досі_'
'дослідник'
'дорог'
'документів_'
'додаткові_'
'додатково'
'дно'
'дитину_'
'дивовижн'
'джу'
'дають_'
'дат'
'даний_'
'гран'
'горі'
'голос'
'гаряч'
'віс'
'вік_'
'відр'
'відпочинку_'
'відповідальності_'
'відома_'
'відновлен'
'відкрито'
'відвідувачів_'
'вулиці_'
'вс'
'впливає_'
'вол'
'вно_'
'високим_'
'випи'
'виникнення_'
'виникає_'
'вин'
'вимір'
'визначення_'
'визнан'
'видалення_'
'весн'
'вел'
'вважають_'
'вашої_'
'вашоі_'
'ваша_'
'бін'
'буває_'
'бува'
'бу_'
'боротьби_'
'бо'
'бет'
'бе'
'банку_'
'базов'
'ах'
'ау'
'ати'
'аромат'
'аний_'
'анг'
'аналізу_'
'аналіз_'
'американський_'
'альни'
'айте_'
'аи'
'адже_'
'Читати_'
'Ча'
'Христа_'
'Фо'
'Усі_'
'Україні_'
'Україна_'
'Тре'
'То_'
'Такі_'
'ТАК'
'Сто'
'СІ'
'Рад'
'Прод'
'Пом'
'ПОВ'
'Окрім_'
'ОТ'
'НО_'
'Може_'
'Ми'
'Мас'
'Марк'
'Мак'
'Л_'
'Кін'
'Кор'
'Компанія_'
'Кер'
'КУ_'
'КО'
'Землі_'
'Зв'
'Загальн'
'Зав'
'Заб'
'ЗНА'
'ЗІ'
'ЕС'
'ЕН'
'Гру'
'Гра'
'Господ'
'Головн'
'ВІ'
'Бра'
'Бар'
'Ант'
'Ан'
'Ак'
'Ав'
'АЛ'
'ІТ'
'žn'
'žení_'
'ůž'
'ův_'
'šťastn'
'ště_'
'šlo_'
'říct_'
'řetěz'
'řekla_'
'řej'
'ňuje_'
'ňov'
'ět_'
'ěl_'
'čn'
'člen'
'činí_'
'či'
'óza_'
'ód'
'ís'
'ída'
'ér_'
'áři_'
'· _'
'zí'
'zvyšuje_'
'zuje_'
'zr'
'zp'
'zo'
'zmen'
'zkoušk'
'zivota_'
'zil'
'zdá_'
'zdroje_'
'zdroj_'
'zbraní_'
'zač'
'zauj'
'zatím_'
'zakaz'
'za'
'ysle'
'yl'
'webových_'
'webov'
'výz'
'výh'
'vítězství_'
'vím_'
'více'
'vztahy_'
'vyt'
'vyr'
'vy'
'vsk'
'vse'
'voln'
'vol'
'voda_'
'vní_'
'vka_'
'vetsi_'
'ventil'
'venku_'
'vedení_'
'vac'
'uživatelů_'
'učení_'
'uzn'
'uplne_'
'umístěn'
'ulo'
'uli'
'ul_'
'ukázat_'
'ukončení_'
'uj_'
'uj'
'uhl'
'udržet_'
'ude'
'uda'
'těn'
'tí'
'trp'
'tra'
'tl'
'tim'
'text_'
'test_'
'terapie_'
'tela_'
'technologií_'
'technick'
'tar'
'tag'
'such'
'střel'
'státní'
'studii_'
'student'
'strategie_'
'strana_'
'stovky_'
'stov'
'sten'
'start_'
'stanice_'
'stane_'
'spolehliv'
'spojení_'
'souborů_'
'software_'
'snadné_'
'sle'
'sin'
'sh'
'sf'
'seznam'
'sexuální_'
'sestav'
'sc'
'sb'
'sat'
'sa'
'rž'
'rán'
'ruš'
'rr'
'rozv'
'rozp'
'rozhod'
'rozdělen'
'rodič'
'ric'
'ret'
'reklam'
'ref'
'rece'
'raž'
'ramci_'
'radu_'
'radn'
'přišel_'
'připraveni_'
'předmět'
'pád'
'pul'
'pt'
'prvního_'
'prvky_'
'provést_'
'prot'
'proj'
'prohlášení_'
'prod'
'procesy_'
'problemy_'
'problemu_'
'pristup_'
'princip'
'prim'
'prilis_'
'pre'
'pravni_'
'pravidel_'
'použity_'
'potřebné_'
'potřeb'
'potreb'
'porad'
'politické_'
'pokoje_'
'poh'
'plyn'
'plus_'
'plo'
'plnou_'
'platí_'
'platit_'
'pl'
'pak'
'ovány_'
'ovu_'
'ovaný_'
'ouz'
'ouc'
'otec_'
'otc'
'ot_'
'ostatních_'
'organiz'
'ok'
'oho'
'ods'
'odpo'
'odkaz'
'odk'
'obět'
'oblast_'
'objednávky_'
'nů_'
'něte_'
'národní_'
'ná'
'nová_'
'normální_'
'nim'
'nie_'
'nici_'
'neš'
'nes_'
'nepře'
'neob'
'neměl_'
'nemoc_'
'nejv'
'nejb'
'navstev'
'naopak_'
'nalez'
'nakup'
'najit_'
'nadále_'
'místní_'
'místa_'
'mír'
'málo_'
'mál'
'muž_'
'mus_'
'mrtv'
'mp'
'mon'
'mohu_'
'mobil'
'mnozstvi_'
'mist'
'mikro'
'mezi'
'mesta_'
'med'
'maz'
'mapu_'
'mamink'
'malou_'
'lí_'
'léky_'
'logick'
'lne'
'lk'
'linky_'
'lidské_'
'lic'
'lem_'
'leky_'
'leh'
'leg'
'ld'
'lak'
'kým_'
'kyt'
'května_'
'květinov'
'kultury_'
'kulturní_'
'kryt'
'krvi_'
'kruh'
'krajin'
'kové_'
'kore'
'kontra'
'koncept'
'konce_'
'kol'
'knih_'
'kne'
'kli'
'kla'
'kin'
'ker_'
'kce_'
'kas'
'kariéru_'
'kap'
'kanál'
'kamen'
'jinými_'
'jinou_'
'jednotky_'
'jdou_'
'jak'
'ivo'
'ita'
'ise'
'int'
'informac'
'inf'
'im'
'ida'
'ic'
'hvezd'
'hromad'
'hra_'
'hotel'
'hork'
'hlubok'
'hle'
'hlavni_'
'hal'
'grad'
'fyzické_'
'funkční_'
'eš'
'eti'
'ené_'
'ená_'
'elektronick'
'elektrick'
'ele'
'eko'
'ede'
'důvod_'
'dům_'
'dív'
'dvěma_'
'dvou'
'dvoj'
'dus'
'dur_'
'drah'
'dosáhnout_'
'dosud_'
'dopad'
'domů_'
'dodavatel'
'dod'
'dobry_'
'dite_'
'detail'
'den'
'deb'
'dali_'
'cyklu_'
'cti'
'clovek_'
'cke'
'cil'
'chyt'
'chyby_'
'chteji_'
'chr'
'cestou_'
'celého_'
'celem_'
'cast_'
'cas'
'bíl'
'budoucí_'
'bri'
'bran'
'bon'
'ble_'
'bio'
'bakteri'
'avi'
'ave'
'asn'
'aro'
'aná'
'ah'
'af'
'ado'
'act_'
'['
'Zm'
'Zi'
'Zab'
'We'
'Vo'
'Vin'
'Video_'
'Vide'
'VS'
'VN'
'VA_'
'Ukraine_'
'Uk'
'Tv'
'Tele'
'Str'
'Sony_'
'Skupina_'
'Sam'
'SN'
'SMS_'
'SK'
'SC'
'Pred'
'Pr'
'Porn'
'Pop'
'Pom'
'Pan'
'POD'
'PL'
'Online_'
'On'
'OL'
'Nový_'
'Nejd'
'Navíc_'
'Nav'
'NI_'
'Mí'
'Máme_'
'Mag'
'MU'
'MP'
'MA_'
'Lit'
'Lidé_'
'Les'
'LA'
'Kou'
'Kon'
'Kom'
'Každá_'
'Jste_'
'Jedno'
'Inter'
'Informace_'
'Hor'
'Hl'
'HE'
'Fu'
'Evrope_'
'ES'
'Div'
'DO_'
'Czech_'
'Cla'
'City_'
'Cin'
'Bur'
'Bud'
'Bon'
'Bol'
'BA_'
'BA'
'Av'
'Auto'
'As'
'AT_'
'AK'
'AB'
'< _'
'94_'
'93_'
'85'
'69_'
'37'
'250_'
'1996_'
'1986_'
'196'
'190'
'02'
'01'
'/'
', – _'
');_'
') — _'
'їсти_'
'ією_'
'іших_'
'іншу_'
'інтерес_'
'інноваційн'
'інакше_'
'іл_'
'іку'
'ідн'
'івни'
'івн'
'єр'
'ємно'
'єктів_'
'єкти_'
'євре'
'яє_'
'ятати_'
'яр'
'яви'
'яв'
'юються_'
'ючі_'
'ючо'
'юс'
'юн'
'ьов'
'ьних_'
'щороку_'
'щення_'
'ща_'
'шукати_'
'шта'
'шкільн'
'чудов'
'чка_'
'чих_'
'читання_'
'чист'
'чен'
'частот'
'цінн'
'цікаво_'
'цтво_'
'цем_'
'ху_'
'хороший_'
'ходити_'
'хе'
'хвилинах_'
'хвил'
'хат'
'футбол'
'функція_'
'фотографії_'
'форт'
'формул'
'форм_'
'фл'
'файли_'
'ут'
'усіма_'
'уст'
'успішно_'
'ульт'
'уальн'
'тяг'
'ть'
'тривалого_'
'трет'
'травм'
'тр'
'ток'
'тку_'
'тисячі_'
'тиску_'
'тиме_'
'тил'
'техніки_'
'території_'
'тера'
'тер_'
'теми_'
'телефон'
'текст_'
'текст'
'тек'
'театр'
'танц'
'сів_'
'сух'
'суди'
'ступеня_'
'сту'
'сторінка_'
'статистичн'
'старо'
'ста_'
'співробітників_'
'спробу'
'справ'
'соціально'
'соціальн'
'сором'
'сни'
'сма'
'слов'
'складов'
'скан'
'сина_'
'серії_'
'сервер'
'світло_'
'своїми_'
'своіх_'
'ряд'
'руки_'
'рт'
'російських_'
'ром_'
'розташований_'
'розповісти_'
'розповіда'
'розмов'
'розб'
'рм'
'ризик'
'рел'
'рекомендован'
'рекомендаці'
'ре_'
'рат'
'прочита'
'проти'
'проп'
'промисловості_'
'пром'
'прод'
'проводять_'
'провести_'
'прич'
'природ'
'принцип'
'приклад_'
'приймає_'
'приймати_'
'приинят'
'препарату_'
'представників_'
'представля'
'правов'
'правил_'
'пошти_'
'поширення_'
'почува'
'потребує_'
'постіино_'
'послідовн'
'порівняння_'
'поняття_'
'політичн'
'покриття_'
'показали_'
'пок'
'поділ'
'повідомляє_'
'поверх'
'пове'
'пов'
'пет'
'персональн'
'персоналу_'
'переп'
'певні_'
'пап'
'падіння_'
'очн'
'оціню'
'охорон'
'ох'
'отримала_'
'отрима'
'орн'
'оригінальн'
'ора_'
'оні_'
'онт'
'онлаин_'
'олов'
'оло'
'оку'
'одяг_'
'оде'
'огляд_'
'овин'
'ове_'
'оборони_'
'обо'
'нічни'
'німецьк'
'нями_'
'ньо'
'ночі_'
'ноги_'
'нову_'
'новин'
'новии_'
'нню_'
'необхідни'
'нена'
'неви'
'невелик'
'нашій_'
'наукових_'
'науки_'
'настро'
'наслідки_'
'народн'
'нар'
'нап'
'намагається_'
'наказ'
'найд'
'найближч'
'назвою_'
'наві'
'наб'
'міт'
'місяця_'
'міст_'
'міс'
'мір'
'міністр'
'мільярд'
'мої_'
'мос'
'моря_'
'молодо'
'молекул'
'мого_'
'мл'
'минуло'
'метод_'
'менеджер'
'машина_'
'матеріалів_'
'маленьк'
'маи'
'ліч'
'лінг'
'лікар'
'лист'
'ливи'
'лесбі'
'лена_'
'лей'
'лав'
'кількох_'
'курсів_'
'ктор'
'кращо'
'коштує_'
'костюм'
'користь_'
'концентраці'
'конфлікту_'
'континент'
'конт'
'конс'
'комунікаці'
'команда_'
'коло'
'колег'
'кола'
'когось_'
'кн'
'кл'
'карт'
'кап'
'канал'
'кадр'
'йс'
'йн_'
'ймовірно_'
'йд'
'ищ'
'иця_'
'ио'
'ида'
'иві'
'зустріча'
'зрозуміло_'
'зовнішньо'
'знищ'
'зниження_'
'змушує_'
'зможуть_'
'здатна_'
'звід'
'звернутися_'
'збільшити_'
'збуд'
'зач'
'застосовува'
'запропонувати_'
'запису_'
'запис_'
'зан'
'зазна'
'жно'
'жахлив'
'жан'
'еш_'
'еш'
'ерс'
'ера'
'ену_'
'елементи_'
'експ'
'екс_'
'еді'
'діі_'
'дір'
'дів_'
'душ'
'дух'
'друге_'
'допомогу_'
'додати_'
'договір_'
'дог'
'дово'
'довго'
'дов'
'дивн'
'дж'
'дещо_'
'держава_'
'дава'
'гру_'
'графік'
'грав'
'ги'
'гео'
'вірус'
'віку_'
'віини_'
'відчувати_'
'відст'
'відповідати_'
'відмінн'
'відкрити_'
'відбулося_'
'втр'
'вої_'
'вов'
'внутрішньо'
'вниз_'
'вни'
'внесок_'
'вмі'
'вм'
'включен'
'вирішення_'
'вирі'
'вип'
'вими'
'виконав'
'виключно_'
'видалити_'
'виготовлення_'
'вигод'
'виглядати_'
'вивчення_'
'виб'
'вет'
'величезн'
'варіанти_'
'вак'
'важливе_'
'більш'
'бі_'
'будівництва_'
'буду_'
'бронювання_'
'бри'
'боротися_'
'бомб'
'блог'
'безумовно_'
'батька_'
'бажання_'
'аці'
'аромат_'
'армії_'
'ард'
'анськ'
'англіиськ'
'анал'
'амент'
'альний_'
'алу'
'активно_'
'ай_'
'адресу_'
'ад_'
'автомобіль_'
'Шо'
'ШИ'
'ЧИ'
'Фр'
'Фор'
'Уп'
'Тор'
'Створ'
'Ста'
'Серед_'
'СПО'
'СН'
'СА'
'Рос'
'Ри'
'Республіка_'
'РФ_'
'РС'
'РИ'
'Підлітки_'
'Південно'
'Поп'
'Пон'
'Поз'
'Под'
'Пара'
'ПЕ'
'От'
'Один_'
'ОН'
'ОГО_'
'Нові_'
'Наи'
'Міл'
'МІ'
'Лю'
'Лондон'
'ЛЮ'
'Л'
'Кількість_'
'Куб'
'Крим'
'Кращ'
'Коро'
'Ком'
'Кол'
'Кам'
'КА_'
'Иого_'
'ИМ'
'ИИ_'
'Зр'
'Зна'
'Зар'
'Закон'
'ЗО'
'ЗА_'
'Електро'
'Др'
'Джо'
'Дан'
'ДЕ'
'Гу'
'Ген'
'Гар'
'ГА'
'Біблі'
'Буд'
'Бел'
'Безкоштовн'
'Ат'
'Авто'
'Італії_'
'Історія_'
'Інші_'
'ži'
'žen'
'ů'
'šle'
'škole_'
'šest_'
'řím'
'říká'
'ŘE'
'ěř'
'ějších_'
'ěj'
'čně_'
'členů_'
'čku_'
'čist'
'čel'
'Čína_'
'Člověk_'
'ýz'
'ýk'
'úřad'
'účet_'
'úvěr'
'ústav'
'ón'
'íš_'
'íz'
'ím'
'év'
'álu_'
'Úč'
'É'
'zřejmě_'
'závěr'
'závisí_'
'zz'
'zvě'
'zveřejněn'
'zral'
'zprávu_'
'znaky_'
'zmeny_'
'ziskat_'
'zisk'
'zer'
'zeni_'
'zde'
'začíná_'
'zaver'
'zastav'
'zasl'
'zase_'
'zajímavé_'
'zace_'
'ye'
'xe'
'vůči_'
'vědy_'
'výše_'
'výkonn'
'výběr_'
'vámi_'
'vzpom'
'vzniku_'
'vyzkumu_'
'vyv'
'vyho'
'vyhla'
'vydal'
'vybaveni_'
'vybaven'
'vubec_'
'vlád'
'vlastni'
'video'
'veškeré_'
'večer_'
'vez'
'veri'
'velk'
'velik'
'vedeck'
'vecer'
'vari'
'vané_'
'vají_'
'uživatel'
'učit_'
'uved'
'uti'
'ustanovení_'
'usta'
'usn'
'uri'
'uprav'
'univerzity_'
'ukol'
'ue'
'udaju_'
'uceni_'
'těsn'
'tón'
'témat'
'typy_'
'tvrdí_'
'tup'
'ts_'
'top'
'tom'
'tní'
'tmav'
'tlačítko_'
'tlak_'
'titul_'
'titul'
'tické_'
'tick'
'th'
'text'
'teri'
'telé_'
'tek_'
'tah'
'síť_'
'světla_'
'svym_'
'svych_'
'svobod'
'super'
'stál'
'stá'
'stup'
'studentum_'
'stu'
'stránka_'
'stran'
'stra'
'stl'
'ster_'
'stažení_'
'stan'
'ss'
'spánku_'
'správně_'
'spr'
'společensk'
'spolecne_'
'spi'
'speciální_'
'spal'
'soutěž'
'soud_'
'soli'
'snížit_'
'sním'
'sny_'
'snazi'
'smer'
'služba_'
'slov_'
'slev'
'slab'
'skoro_'
'skoly_'
'sklen'
'sklad'
'ska'
'siln'
'seznamu_'
'setka'
'serveru_'
'sedmi_'
'sedm'
'schopn'
'sau'
'sar'
'sam_'
'sa_'
'rý'
'rt_'
'rozvíjet_'
'rozs'
'rozhovoru_'
'rozh'
'rozd'
'rou'
'rostlin_'
'rostlin'
'rokem_'
'rizika_'
'rim'
'rid'
'res'
'rep'
'raz'
'rati'
'rac'
'přípravk'
'příležitosti_'
'příležitost_'
'příklad'
'přátelé_'
'přip'
'přidán'
'převážně_'
'překlad'
'přek'
'pá'
'pta'
'psychologick'
'psycholog'
'ps_'
'prázdn'
'provozu_'
'provoz_'
'prostředky_'
'prost'
'propojen'
'prop'
'pripadech_'
'pripad'
'priklad'
'prek'
'praxi_'
'pracovních_'
'poř'
'počasí_'
'poč'
'pozd'
'pova'
'použit'
'pouzivat_'
'pouzivan'
'potřebovat_'
'potřeba_'
'postupy_'
'postav'
'polsk'
'pokus'
'pokročil'
'poj'
'pohybu_'
'pohod'
'podobné_'
'plný_'
'platform'
'pel'
'patr'
'partner'
'očí_'
'oči'
'ově_'
'ovana_'
'ovaly_'
'oto'
'ostn'
'osobni_'
'osob'
'osm'
'oro'
'organ'
'opravdov'
'ope'
'opat'
'opa'
'oná'
'oni_'
'ome'
'ologick'
'okamzite_'
'oficialni'
'odstranit_'
'odpověď_'
'odní'
'odm'
'odhad'
'oce'
'obsahu_'
'obsah'
'obrovsk'
'obo'
'objeven'
'něk'
'nějaký_'
'nízk'
'nábo'
'nutn'
'nte'
'norma'
'nič'
'nizk'
'niz'
'nit'
'nezna'
'neví'
'nesouhlas'
'neroz'
'ner'
'nepod'
'nemůžete_'
'nemusí_'
'nemohou_'
'nemocn'
'nemeck'
'nejdříve_'
'nedosta'
'neci'
'nebylo_'
'nde'
'nač'
'navíc_'
'napsal_'
'nam'
'nak'
'nah'
'míru_'
'myslenk'
'muži_'
'muzeme_'
'musíme_'
'motor'
'most'
'moment'
'mohlo_'
'mod'
'miste_'
'milova'
'mesicu_'
'menší_'
'ment'
'melo_'
'mela_'
'matky_'
'mask'
'marketingu_'
'mari'
'male_'
'mailovou_'
'magnetick'
'lů_'
'léčby_'
'lék'
'lé_'
'lova'
'lost'
'ln'
'list'
'levn'
'lev'
'leto'
'ler_'
'lep'
'ledn'
'lab'
'kych_'
'kvalitní_'
'kvalit'
'kro'
'kri'
'kontakt'
'konal'
'komunit'
'komplex_'
'kn'
'kc'
'kategorii_'
'kat_'
'kat'
'kanál_'
'kamarád'
'jíc'
'jim'
'jidl'
'jehož_'
'jedná_'
'jediný_'
'jakmile_'
'ite'
'italsk'
'instalace_'
'imp'
'ih'
'ido'
'ich'
'ia'
'iOS_'
'hrac'
'hotely_'
'hotelu_'
'hospodářsk'
'hormon'
'hone_'
'hledat_'
'hlad'
'has'
'ham'
'gy_'
'grafick'
'gr'
'gno'
'formě_'
'formul'
'form'
'fitness_'
'filmy_'
'fal'
'faktory_'
'eče'
'ez_'
'ex_'
'ex'
'eso'
'esl'
'erov'
'erie_'
'ere'
'era_'
'ence_'
'ej'
'efekt_'
'ee'
'edn'
'eden'
'dětské_'
'dá_'
'dveře_'
'duvod_'
'ds_'
'druhe_'
'druh_'
'dokument_'
'doktor'
'dohody_'
'dohod'
'doh'
'doda'
'dobrovoln'
'doba_'
'dno'
'dlouhodob'
'dia'
'designu_'
'davk'
'cítí_'
'cím_'
'cílů_'
'cte'
'con'
'cny_'
'citi'
'chorob'
'chlad'
'chl'
'casti_'
'bě'
'byt'
'brán'
'bot'
'bojovat_'
'boje_'
'boh'
'bo_'
'bn'
'baterie_'
'azi'
'az'
'ava'
'automatick'
'autobus'
'are_'
'architektur'
'ape'
'ann'
'amp'
'aktiv'
'akci_'
'adu_'
'adapt'
'ací'
'abych_'
'absolutn'
']._'
'] '
']'
'Zr'
'Zo'
'Zna'
'Zn'
'Yorku_'
'Xiaomi_'
'Wa'
'Vše_'
'Většina_'
'Val'
'Um'
'Tur'
'Tro'
'Trans'
'Tr'
'Top_'
'Th'
'Teddy_'
'TR'
'Sun'
'Stri'
'Stran'
'Stal'
'Sp'
'Sn'
'Sea'
'Republic_'
'RU'
'RT'
'RS'
'RP'
'RN'
'Pě'
'Pá'
'Prost'
'Pos'
'Poh'
'Photo'
'PRO_'
'PC_'
'Out'
'Ode'
'Obl'
'Německu_'
'NÍ_'
'Nic'
'Nev'
'Nepo'
'Neni_'
'Nem'
'Nejv'
'Nas'
'ND'
'Můj_'
'Mám_'
'My'
'Motorola_'
'Mod'
'Mini'
'Micro'
'ME_'
'Lev'
'LL'
'Kategorie_'
'KTER'
'KA'
'Jedním_'
'Ir'
'In_'
'IR'
'IF'
'HU'
'GI'
'Francii_'
'Franc'
'Fr'
'Evropské_'
'Er'
'EUR_'
'ET'
'EP'
'Dá'
'Dobře_'
'Dobr'
'Dis'
'Det'
'DS'
'Cí'
'Chan'
'Cer'
'Cen'
'Ce'
'Cap'
'Can'
'CEN'
'Bul'
'Boj'
'Anti'
'AR'
'98_'
'96_'
'95'
'92_'
'86_'
'82'
'73'
'66'
'63'
'62'
'600_'
'59_'
'57'
'43'
'1980_'
'101'
'- '
',.'
'*'
'):_'
'%, _'
'") _'
' …_'
'…'
'іч'
'іці'
'іхн'
'ітн'
'істи_'
'іра'
'ір_'
'іон'
'інт'
'інструментів_'
'інструмент_'
'іно'
'індустрі'
'індивідуальни'
'імпері'
'ільн'
'іли_'
'ізо'
'ізн'
'ізму_'
'іва'
'єт'
'єм'
'єкт_'
'єдну'
'європейськ'
'єв'
'яє'
'ясн'
'ярн'
'янс'
'яно'
'якіи_'
'яки'
'яка'
'язатися_'
'яж'
'юк'
'юз'
'ьні'
'ьна_'
'ьких_'
'ьки'
'ы'
'ща'
'щ_'
'шся_'
'шкірі_'
'шкір'
'шир'
'шим_'
'шення_'
'шев'
'чить_'
'чись_'
'чимало_'
'червони'
'частин'
'ціон'
'цифр'
'цит'
'хіт'
'художник'
'хрест'
'фінансов'
'фільми_'
'філософ'
'фізичні_'
'фф'
'фр'
'фонд'
'фарби_'
'фактор'
'факт_'
'учен'
'уча'
'ух'
'утн'
'ута'
'установ'
'усе_'
'упо'
'упи'
'улюблен'
'удо'
'уди'
'угоди_'
'туп'
'тун'
'туди_'
'третій_'
'трап'
'традиці'
'торі'
'товари_'
'тиш'
'тити_'
'типи_'
'тивн'
'технічних_'
'тет'
'терп'
'тер'
'тему_'
'тем'
'телефону_'
'телевізор'
'теле'
'тв'
'тат'
'тар'
'січ'
'сход'
'сучасн'
'супереч'
'сукні_'
'студії_'
'стру'
'стратегічн'
'стосуються_'
'стосунки_'
'стоп'
'столиці_'
'стис'
'стин'
'стиль_'
'стил'
'стей_'
'створює_'
'старш'
'станці'
'співробітники_'
'спро'
'сприяти_'
'справжні'
'спорту_'
'спон'
'спокійн'
'сподіва'
'спеціальних_'
'спе'
'спа'
'сорт'
'сок'
'сно'
'сму'
'слід'
'служба_'
'служ'
'сл'
'складно'
'ситуацію_'
'симптомів_'
'середньому_'
'сервіс_'
'сем'
'світови'
'світло'
'свободу_'
'свобод'
'св'
'сан'
'саиті_'
'річ_'
'руч'
'рут'
'рус'
'рук_'
'руд'
'рослини_'
'розширення_'
'розташован'
'розпові'
'розвивається_'
'розваг'
'робіт_'
'роб'
'ро_'
'рил'
'рик'
'ризику_'
'рив'
'ресторан'
'республік'
'рва'
'рахунок_'
'рахунку_'
'піс'
'підход'
'підтверджує_'
'підт'
'підручник_'
'підвищує_'
'птах'
'психічн'
'психологі'
'прі'
'процедур'
'профіль_'
'професійно'
'прост'
'промислово'
'проживання_'
'проекти_'
'продажу_'
'продаж_'
'прог'
'проводити_'
'приї'
'причиною_'
'приходить_'
'присутні'
'пристро'
'присвячен'
'прим'
'призвести_'
'прид'
'приготування_'
'препарат_'
'пре'
'працівників_'
'праце'
'практичн'
'правильн'
'пр'
'пошт'
'пошкоджен'
'поширен'
'потрібн'
'поток'
'пором'
'поміч'
'поля'
'половин'
'поло'
'поле_'
'позитивн'
'позбутися_'
'поза'
'пожеж'
'подару'
'поговори'
'погано_'
'повідомлень_'
'повідоми'
'повернутися_'
'повернення_'
'плю'
'плит'
'пит'
'перша_'
'персональних_'
'переста'
'перемог'
'перей'
'переве'
'переваг'
'пен'
'певних_'
'пе'
'пас'
'парламент'
'параметр'
'очи'
'охоплю'
'оформлення_'
'отримує_'
'осте'
'особ'
'осе'
'осві'
'організм_'
'органу_'
'органи_'
'опла'
'операці'
'оно'
'ологія_'
'окремих_'
'однієї_'
'однаков'
'оди'
'овн'
'обставин_'
'обст'
'обмін'
'обмеження_'
'обмежен'
'ніши'
'ніи_'
'нут'
'нули_'
'нул'
'нув_'
'ном_'
'новими_'
'нки_'
'ника'
'низьк'
'неі_'
'нещодавно_'
'необхідно'
'нез'
'національних_'
'нафти_'
'натисніть_'
'наступні_'
'насолоджуватися_'
'народжу'
'народ_'
'нан'
'найкраще_'
'найкращ'
'наз'
'надан'
'нада'
'наго'
'навколишнього_'
'набр'
'міш'
'міськ'
'міи_'
'мою_'
'мотив'
'моральн'
'молоді_'
'модел'
'мно'
'мл_'
'мислення_'
'метрів_'
'методи_'
'мет'
'менши'
'межами_'
'меж'
'машину_'
'маркетингу_'
'мані'
'мала_'
'майбутні'
'май'
'лінію_'
'людських_'
'лу_'
'лов'
'ливі_'
'ле_'
'лат'
'лабораторі'
'кінець_'
'кімнаті_'
'курорт'
'крок_'
'краса_'
'кр'
'коротк'
'корол'
'корисно'
'корисним_'
'корисн'
'конфлікт'
'контрол'
'консультаці'
'компаніи_'
'комп'
'кольоров'
'кольор'
'колектив'
'коле'
'кожної_'
'кові_'
'ключ'
'клуб'
'кла'
'кислоти_'
'кислот'
'керівництв'
'кач'
'карті_'
'карту_'
'картк'
'каз'
'кажучи_'
'йські_'
'йсько'
'йної_'
'йний_'
'ични'
'ип'
'иного_'
'ино_'
'изм'
'ив'
'зірк'
'зібран'
'зустрі'
'зупинити_'
'зупин'
'зубн'
'зроблен'
'зра'
'зміцн'
'змі'
'змуси'
'змогу_'
'зм_'
'зло'
'зли'
'зил'
'зе'
'зда'
'згор'
'згодом_'
'звіт'
'звук'
'зворотн'
'зве'
'звани'
'зберігання_'
'застосовувати_'
'засновник'
'загрозу_'
'завтра_'
'заборон'
'забезпечити_'
'журналіст'
'жодного_'
'жо'
'життє'
'жив'
'жет'
'еться_'
'ете_'
'ести_'
'ели'
'електронної_'
'електронних_'
'еле'
'екран'
'екз'
'еди'
'діє'
'дізна'
'дськ'
'дрібн'
'друзями_'
'другого_'
'доступний_'
'доступна_'
'дорівнює_'
'допоможуть_'
'дозволить_'
'дозволити_'
'добр'
'дк'
'дин'
'джа'
'дерев_'
'двигун'
'дам'
'гін'
'груп_'
'громадянськ'
'гре'
'граф'
'готу'
'готель_'
'господар'
'гос'
'голову_'
'год'
'го'
'глобальн'
'гл'
'гер'
'гв'
'гарни'
'галь'
'гад'
'вічно'
'вітамін'
'віртуальн'
'вільно'
'відчуваєте_'
'відчуває'
'відтінк'
'відрізняється_'
'відпочи'
'відповісти_'
'відповідн'
'відповідають_'
'відповідально'
'відн'
'відкрива'
'віддан'
'вугле'
'всій_'
'вро'
'вра'
'вос'
'воді_'
'водою_'
'водн'
'вно'
'внес'
'вн'
'влі'
'влен'
'включають_'
'вк'
'виявлення_'
'вирішили_'
'вирішен'
'виробників_'
'вираз'
'випускник'
'випробува'
'виправ'
'вим'
'вил'
'використан'
'виклика'
'визнача'
'вида'
'вид_'
'вигідн'
'взаємоді'
'вечора_'
'весілля_'
'весел'
'великии_'
'введен'
'вати'
'вантажів'
'вано'
'валюти_'
'важливі_'
'біт'
'бій'
'бізнес'
'біг'
'брат'
'бонус'
'благо'
'безпеці_'
'аємо_'
'атр'
'аспект'
'ас_'
'ар'
'американсько'
'актор_'
'ага'
'авто'
'аби_'
'Який_'
'ЬН'
'Ь'
'Шу'
'Шт'
'Швидк'
'Чу'
'Ціл'
'Філ'
'ФІ'
'Тур'
'Сте'
'Спів'
'Сп'
'Союзу_'
'Скільки_'
'Ска'
'Свят'
'Сво'
'Само'
'СЯ_'
'Різн'
'Рим'
'Причин'
'Прис'
'Прав'
'Поч'
'Поста'
'Показ'
'Пок'
'Поб'
'По'
'Перший_'
'Перед_'
'Переглядів_'
'Пам_'
'Пал'
'ПА'
'Отрима'
'Отож_'
'Останні_'
'Останні'
'Оскільки_'
'Он'
'Огляд_'
'Обидва_'
'ОВ'
'Німеччини_'
'Немо'
'Незважаючи_'
'Насправді_'
'Нас'
'Нам_'
'Найкращ'
'Над'
'НИХ_'
'Н_'
'Міс'
'Москві_'
'Мор'
'Мол'
'Можна_'
'Ман'
'МУ_'
'ЛІ'
'Комп'
'Кен'
'Категорія_'
'ИС'
'Знай'
'Зах'
'Зас'
'Дн'
'Дже'
'Дв'
'Дата_'
'ДО_'
'ДИ_'
'Гі'
'Гор'
'Вільн'
'Віз'
'Ву'
'Вр'
'Во'
'Виберіть_'
'Виб'
'Великобританії_'
'Ваша_'
'Вар'
'ВЕ'
'Біл'
'Близько'
'Бер'
'БО'
'БЛ'
'БІ'
'Ам'
'Акт'
'Австралі'
'АВ'
'Іспанія_'
'ІВ'
'ЄТЬСЯ_'
'žije_'
'ůsta'
'šn'
'šli_'
'šaty_'
'Španělsk'
'řád'
'ěni'
'ěna_'
'ěh'
'ěd'
'ďa'
'ď'
'čísla_'
'čím_'
'částí_'
'článek_'
'čet'
'časopis'
'Číně_'
'Článek_'
'Červen'
'Často_'
'ýn'
'úst'
'úspěchu_'
'úspěch_'
'úkol'
'íčk'
'ít'
'írá'
'íd'
'ících_'
'íce_'
'áš_'
'áč'
'átor_'
'árn'
'áni_'
'álním_'
'álního_'
'ál'
'», '
'« _'
'zůstává_'
'zón'
'závažn'
'západ'
'základ_'
'zvýšit_'
'zvyk'
'zvláště_'
'zvan'
'zv'
'zuj'
'zu'
'zte_'
'způsoben'
'zpo'
'zlepš'
'zkuste_'
'zkou'
'ziskal'
'zin'
'zhorš'
'zho'
'zejmena_'
'zdravi_'
'zd'
'zbavit_'
'zba'
'začn'
'začal_'
'zaveden'
'zastavit_'
'zapa'
'zamer'
'zakladni_'
'zajistí_'
'zajimav'
'zahraniční_'
'ys_'
'ya'
'web_'
'vůně_'
'všeho_'
'věčn'
'věd_'
'výuk'
'výroby_'
'výhodn'
'výhod'
'východní_'
'vých_'
'vít'
'vír'
'vztahů_'
'vzr'
'vzhled_'
'vzdělávací_'
'vyš'
'vyzv'
'využít_'
'vytvoření_'
'vysvetl'
'vyrobeny_'
'vypu'
'vyko'
'vyhnout_'
'vrátit_'
'vp'
'vozu_'
'vozidla_'
'vodn'
'vlast'
'vlak'
'vlad'
'viz'
'videt_'
'vic_'
'vic'
'velke_'
'velikosti_'
'vedl_'
'vat'
'vali_'
'vag'
'uvedené_'
'určitě_'
'ure'
'upevn'
'upa'
'univerzita_'
'und'
'umi'
'ulici_'
'ukrajinské_'
'uko'
'ug'
'udrz'
'ucinky_'
'uci_'
'ual'
'týden_'
'tý_'
'téma_'
'tvrd'
'tvoří_'
'tvar'
'tureck'
'tuj'
'tt'
'trvat_'
'treti_'
'too'
'tomuto_'
'tok'
'tlaku_'
'tk'
'timto_'
'til'
'tic'
'the'
'textu_'
'test'
'telné_'
'teenager'
'tas'
'tam'
'taky_'
'takove_'
'tak'
'tabulk'
'systemy_'
'svoji_'
'svit'
'svet'
'sval'
'stí'
'stává_'
'sty_'
'stva_'
'stupn'
'stupeň_'
'stud'
'stred'
'strach_'
'stin'
'stejnou_'
'spíše_'
'spust'
'správné_'
'správn'
'spravedliv'
'spotřeb'
'spolupráci_'
'spolk'
'společenství_'
'spolecnost_'
'spolecn'
'spoj'
'splněn'
'specializovan'
'sovětsk'
'soudu_'
'soucasti_'
'soucasn'
'snaží_'
'smluvní_'
'sledování_'
'sladk'
'sl'
'skych_'
'skvele_'
'skutečnost_'
'skutecnosti_'
'skute'
'skr'
'skal'
'silou_'
'signal'
'sh_'
'sdíle'
'sd'
'scen'
'růst_'
'rv'
'ruku_'
'rukama_'
'rte'
'rs_'
'rozsir'
'rova'
'rop'
'rodina_'
'rizik'
'rit_'
'rit'
'rg'
'režim_'
'republika_'
'rel'
'rdi'
'rch'
'ral'
'radost_'
'radio'
'radi'
'rad_'
'půd'
'přítomnost_'
'přístupu_'
'případů_'
'přím'
'přišli_'
'přitom_'
'přist'
'přijat'
'představuje_'
'pě'
'píše_'
'pyr'
'pu_'
'průmyslu_'
'práv_'
'prvních_'
'proz'
'prostredky_'
'prostoru_'
'proste_'
'projekt'
'prodejn'
'procesor'
'pripraven'
'prev'
'predmet'
'pravidelně_'
'pravda_'
'praktické_'
'prakticky_'
'pořádku_'
'počátku_'
'počtu_'
'pozv'
'pozdeji_'
'povrch'
'pove'
'považován_'
'pouzivani_'
'potřebuje_'
'postup_'
'postoj'
'posle'
'posl'
'porn'
'por'
'populární_'
'popularit'
'polož'
'polo'
'pokoj_'
'pokoj'
'poko'
'pok'
'pohřb'
'pohlaví_'
'podá'
'podob'
'podniky_'
'podnik_'
'podminek_'
'ploch'
'platb'
'plast'
'placen'
'pla'
'pir'
'perspektiv'
'pe_'
'patent'
'past'
'papír'
'pane_'
'pacienta_'
'pacient'
'oř'
'oči_'
'ozi'
'ováním_'
'ovní_'
'ovaných_'
'ovany_'
'ovanou_'
'ovan'
'ovací_'
'ov_'
'otázka_'
'oty_'
'otu_'
'otevře'
'otevren'
'ostatni_'
'orn'
'opti'
'opis'
'opi'
'opakovan'
'oo'
'oni'
'omo'
'oln'
'ola'
'ohledem_'
'oe'
'odstranění_'
'odkazy_'
'odděl'
'ocni'
'oci_'
'ochranu_'
'ochran'
'obrazu_'
'objemu_'
'obal'
'oa'
'ník'
'níci_'
'ném_'
'nástroj_'
'nápad_'
'nákup'
'nst'
'ns'
'noční_'
'novin'
'nova_'
'niv'
'nick'
'nevz'
'nesm'
'nepot'
'neop'
'nemel'
'nejlépe_'
'nejlepších_'
'nejc'
'nedostatek_'
'ned'
'nebudete_'
'nb'
'naš'
'nazyva'
'navrh'
'naučit_'
'nasled'
'narození_'
'narodil_'
'naprosto_'
'nabídka_'
'na'
'měsíc_'
'městsk'
'měst'
'měrn'
'mý'
'mín'
'muslim'
'multi'
'mpi'
'moře_'
'moznosti_'
'motiv'
'mot'
'mně_'
'mluv'
'mk'
'mit'
'mista_'
'mir'
'min_'
'min'
'metr'
'mesto_'
'mest'
'mel'
'media'
'materiálů_'
'mast'
'maly_'
'mali'
'majitel'
'ma'
'lá'
'lsk'
'ls'
'love'
'logi'
'log'
'lit_'
'list_'
'lini'
'lim'
'lf'
'letiště_'
'lem'
'legend'
'ledov'
'lea'
'lav'
'laci_'
'lac'
'kého_'
'kách_'
'kyseliny_'
'kus'
'kurzů_'
'kult'
'kry'
'krize_'
'kr'
'kořen'
'ková'
'kova'
'kosmick'
'konkrétní_'
'konferenci_'
'kone'
'koncert'
'komunikovat_'
'komplex'
'komor'
'kombinace_'
'kolen'
'kok'
'kniha_'
'kmen'
'klu'
'klasick'
'ki'
'karier'
'kari'
'kamer'
'jsk'
'jo_'
'jn'
'jména_'
'jm'
'jit_'
'jestliže_'
'jekt'
'jednoduše_'
'jaké_'
'ive_'
'itu'
'iteln'
'istick'
'iro'
'inte'
'inov'
'inkoust'
'ine_'
'ies_'
'ident'
'icka_'
'hydro'
'hum'
'hrozn'
'hračky_'
'hranici_'
'hraje_'
'hosti'
'hodnotu_'
'hodnocen'
'hodne_'
'hleda'
'hlav'
'hlas_'
'hezk'
'hav'
'gro'
'gran'
'graf'
'gin'
'ge'
'gal'
'funkci_'
'fu'
'fro'
'fr'
'fotografii_'
'foto'
'fort'
'fonty_'
'firma_'
'firem_'
'filmov'
'ev_'
'ety_'
'eta'
'esn'
'ern'
'epi'
'enz'
'enu'
'emi'
'ejsich_'
'ejn'
'eg'
'efekt'
'edic'
'edi'
'ect'
'ecn'
'důvodů_'
'důležitá_'
'dů'
'děl'
'dí'
'déle_'
'dávk'
'dáv'
'dárky_'
'dvakrát_'
'dvacet_'
'duvodu_'
'dum_'
'držet_'
'druhý_'
'druhá_'
'dri'
'došlo_'
'dovol'
'dotazy_'
'dosáhl'
'dostanete_'
'domy_'
'dodává_'
'dochází_'
'dlo_'
'disk'
'diky_'
'digitální'
'die'
'dic'
'deset_'
'dele'
'dava_'
'církve_'
'cvičení_'
'cukr'
'ctyri_'
'cova'
'cká_'
'cilem_'
'cil_'
'cie'
'chy'
'chutn'
'chtěli_'
'chtít_'
'chro'
'cholesterolu_'
'cestě_'
'cerven'
'celá_'
'cc'
'ca_'
'bílé_'
'buňky_'
'buněk_'
'budoucnu_'
'brz'
'bol'
'blízkosti_'
'bk'
'berg_'
'ben'
'bavln'
'bat'
'barva_'
'aš'
'aty_'
'atick'
'arsk'
'anc'
'analýz'
'analyz'
'ana'
'ame_'
'alkoholu_'
'alit'
'aktivit'
'akt'
'ail'
'agentur'
'ae'
'adres'
'adl'
'acen'
'`_'
'Zobrazit_'
'Zlat'
'Zb'
'Zap'
'Zak'
'ZN'
'Wil'
'Webov'
'Vzhledem_'
'Vyp'
'Vyh'
'Vsechny_'
'Ved'
'Vas_'
'VI_'
'Ut'
'Us'
'Up'
'Un'
'UV'
'UN'
'UM'
'Turecko_'
'Ti_'
'Ten'
'Tem'
'Tak'
'TN'
'Studi'
'Stejn'
'Stav'
'Son'
'Sna'
'Slunce_'
'Sli'
'Shi'
'Sex'
'Science_'
'Sc'
'Sat'
'Sant'
'SU'
'SS'
'Průměrná_'
'Prav'
'Počet_'
'Pozor'
'Pou'
'Pok'
'Podívejte_'
'Pen'
'PRA'
'Oh'
'Of'
'OS_'
'Norsk'
'Nokia_'
'Nobelov'
'Nicméně_'
'Nep'
'Naz'
'Nabí'
'NU'
'Musíte_'
'Model'
'Mlad'
'Men'
'Media_'
'Med'
'Mad'
'Mac_'
'ML'
'Live_'
'Lea'
'LN'
'LED_'
'LA_'
'Krome_'
'Koh_'
'Knih'
'Kat'
'KE_'
'KA_'
'Juli'
'Jejich_'
'Jan'
'Jaký_'
'Inte'
'Indi'
'Ind'
'IV_'
'IT'
'IN_'
'IK'
'Hav'
'Har'
'Hack_'
'Gui'
'FOR'
'FA'
'Excel_'
'Euro'
'Egypt'
'Ed'
'EX'
'Dokonce_'
'Dne'
'DVD_'
'DVB_'
'DL'
'DC_'
'Comp'
'College_'
'Chu'
'Centr'
'CS'
'Bro'
'Bohu_'
'Bod'
'Black_'
'Bill'
'BU'
'Ať_'
'Asie_'
'App_'
'App'
'Ap'
'Ang'
'Americk'
'Ak'
'Air'
'Af'
'AV'
'?" _'
': “_'
':'
'71_'
'70'
'68_'
'65_'
'56'
'46'
'33'
'300'
'23'
'2001_'
'183'
'100'
'... '
'.. _'
'.) _'
',, _'
') (_'
'%)'
'%'
'$ _'
'",'
'" - _'
' »'
' ['
' :'
' * _'
'→ _'
'”, _'
'їти'
'їс'
'ішн'
'іши'
'ічні_'
'ічно'
'іта'
'історіі_'
'іншої_'
'інша_'
'інтерфейс'
'інтер'
'індивід'
'імператор'
'імена_'
'іль'
'іла'
'ікон'
'іи'
'ідеальни'
'ібн'
'єння_'
'єкт'
'яц'
'ял'
'язів_'
'язков'
'язана_'
'язан'
'ющ'
'ючих_'
'юван'
'ьован'
'ьний_'
'ьк'
'ьб'
'щільн'
'щі'
'щаслив'
'шість_'
'шні'
'шляхів_'
'шлунк'
'шкіра_'
'ших_'
'шии_'
'шести_'
'шан'
'чітк'
'чу'
'чно'
'чним_'
'чк'
'читати_'
'чисти'
'численні_'
'чий_'
'червон'
'чемпіон'
'часів_'
'чар'
'ціну_'
'цін'
'цілому_'
'цікави'
'цтв'
'центру_'
'центром_'
'центр'
'хірург'
'хімі'
'хід_'
'хува'
'хт'
'хоч_'
'хорошо'
'ходи'
'хов'
'хлопчиків_'
'хворі'
'хвороб_'
'харчов'
'характеру_'
'фірми_'
'фін'
'фільмів_'
'функціі_'
'функцію_'
'формува'
'форматі_'
'формат'
'федера'
'фал'
'фактичн'
'файл_'
'уявити_'
'уюч'
'уто'
'ути'
'усн'
'усвідомлю'
'упр'
'уж'
'уде'
'уван'
'тісн'
'тій_'
'тю_'
'треті'
'трен'
'транспортн'
'точни'
'точ'
'тори_'
'торгов'
'товар'
'тично'
'тижні_'
'технік'
'тері'
'територі'
'теоретичн'
'тенденці'
'тва_'
'там'
'такої_'
'такому_'
'тав'
'сід'
'сюрприз'
'сучасного_'
'сухо'
'суті_'
'сувор'
'стійк'
'стри'
'стражда'
'стосовно_'
'столітті_'
'стични'
'стимулює_'
'стероїди_'
'стату'
'старих_'
'стану_'
'стандартни'
'спіл'
'справ_'
'способів_'
'способи_'
'спові'
'спин'
'спи'
'спец'
'спал'
'сп'
'союз'
'смі'
'служити_'
'скри'
'складних_'
'складн'
'склад'
'скла'
'сказали_'
'систем'
'сир'
'сертифікаці'
'серпня_'
'серйозн'
'середовищі_'
'семестр'
'світ'
'своєі_'
'сайтів_'
'рін'
'рідн'
'рідк'
'рум'
'руку_'
'рукою_'
'рти'
'російсько'
'росіиськ'
'рост'
'рослин_'
'розум_'
'розслідування_'
'розроб'
'розмір'
'розка'
'розг'
'родин'
'робітник'
'роби'
'рни'
'рин'
'речовин_'
'рецепт'
'реформ'
'рекомендуємо_'
'рез'
'регіону_'
'рати_'
'раб'
'піра'
'піл'
'піклуватися_'
'підприємств'
'підліток_'
'підлітк'
'психологічн'
'психо'
'прям'
'прояв'
'процеси_'
'протест'
'прот'
'простору_'
'просто'
'пророк'
'пропозиції_'
'пропозицію_'
'пропозиці'
'прокат'
'прок'
'проект'
'продовж'
'провідн'
'природні_'
'природного_'
'принес'
'приміщення_'
'прилад'
'прикр'
'прийняття_'
'прийнят'
'приві'
'презентаці'
'поізд'
'поясн'
'почу'
'початков'
'потрапити_'
'потрапи'
'поточно'
'постійн'
'постачальника_'
'посил'
'популярність_'
'помі'
'політика_'
'поліпшити_'
'поля_'
'положення_'
'покуп'
'показує_'
'позначен'
'поз'
'поділитися_'
'подібні_'
'подивитися_'
'подвійн'
'подан'
'повільно_'
'поверта'
'повернувся_'
'побачення_'
'пн'
'площі_'
'пло'
'платформи_'
'плати_'
'письмов'
'писати_'
'пив'
'перспектив'
'перемогти_'
'передбачає_'
'передбача'
'передач'
'перебуває_'
'перебування_'
'пацієнта_'
'пароль_'
'пали'
'па_'
'очк'
'очима_'
'отримуєте_'
'отже_'
'останніх_'
'останній_'
'ост'
'особисти'
'особист'
'особа_'
'оси'
'освітлення_'
'орієнтован'
'органічн'
'організацій_'
'органів_'
'опи'
'ону'
'онн'
'она_'
'оми'
'олю'
'ола'
'одружи'
'одиниц'
'одж'
'оголошен'
'овим_'
'обу'
'обс'
'обробл'
'ніш'
'ніт'
'ніко'
'ніби_'
'нях_'
'нува'
'норма'
'норм'
'новому_'
'неправильн'
'необхідн'
'необ'
'нема_'
'нед'
'неа'
'національно'
'народився_'
'нара'
'напр'
'напевно_'
'нанесіть_'
'намага'
'нал'
'найбільших_'
'наим'
'наид'
'надмірно'
'надзвичайн'
'навчально'
'навча'
'набува'
'місцево'
'мінни'
'міне'
'мульти'
'мрії_'
'мпі'
'мом_'
'можливостей_'
'моди_'
'мов_'
'мобільного_'
'мобільн'
'мистецтв_'
'мету_'
'мета'
'мережу_'
'мер'
'мент_'
'медикамент'
'машин_'
'матиме'
'матеріалу_'
'маст'
'мали'
'мал_'
'максимально'
'майбутньому_'
'магнітн'
'лінія_'
'лікарів_'
'лік'
'ляє_'
'ляці'
'лян'
'людиною_'
'лю_'
'льного_'
'льно_'
'льна_'
'льн'
'лиц'
'лист_'
'лим'
'ливість_'
'ливі'
'ливим_'
'лекці'
'лежа'
'лед'
'кімнати_'
'кіл'
'кції_'
'купувати_'
'кро'
'крем'
'країну_'
'краінах_'
'кращим_'
'кращий_'
'кохан'
'користуватися_'
'коп'
'конкретних_'
'композиці'
'комплект'
'комплексн'
'комерці'
'кольору_'
'колишньо'
'книжк'
'клітин_'
'класн'
'ква'
'кафе_'
'картин'
'карт_'
'канал_'
'кана'
'камера_'
'камер'
'кал'
'кажуть_'
'йно_'
'йма'
'йк'
'йдуть_'
'иха'
'ист_'
'ину'
'иму'
'ику_'
'икан'
'изаці'
'иб'
'зірки_'
'зя'
'зріл'
'зростання_'
'зосереджен'
'зор'
'зн'
'зможе_'
'зл'
'зерн'
'земля'
'зелени'
'згод'
'звуку_'
'зву'
'звичайни'
'збі'
'захищає_'
'захища'
'захистити_'
'зати_'
'зат'
'застосуванн'
'заснован'
'запусти'
'запис'
'запал'
'заощад'
'замовити_'
'залишилися_'
'залишаються_'
'закону_'
'закони_'
'зако'
'зайняти'
'займатися_'
'заима'
'зазначив_'
'загроз'
'загинули_'
'загального_'
'загальни'
'заг'
'завод'
'забруднення_'
'жін'
'жува'
'жодн'
'жн'
'жа_'
'ефектів_'
'етн'
'етичн'
'ети'
'ета'
'ес_'
'ерта'
'ери'
'ент_'
'енс'
'енню_'
'емі'
'експлуатаці'
'експеримент'
'еволюці'
'евн'
'еви'
'дія'
'ділянки_'
'ділов'
'дій_'
'дівчата_'
'думки_'
'думка_'
'дружина_'
'дотриму'
'досягнут'
'доступно'
'доступних_'
'доставля'
'дослідницьк'
'дорослих_'
'допомага'
'домашні'
'дом_'
'докладн'
'доки_'
'додому_'
'дни'
'дн'
'диплом'
'дизаин'
'дивлячись_'
'див_'
'дзеркал'
'джерел_'
'дес'
'державно'
'демократі'
'дем'
'двоє_'
'дв'
'давно_'
'гів'
'гс'
'грунт'
'громадськ'
'графі'
'грам'
'градусів_'
'готує_'
'город'
'голь'
'головою_'
'головн'
'голов'
'году'
'глибок'
'гла'
'гет'
'гармоні'
'ганськ'
'газ'
'г'
'вісім_'
'віст'
'військово'
'відсутн'
'відстань_'
'відсоток_'
'відпуст'
'відповідних_'
'відомих_'
'відом'
'відносини_'
'відновити_'
'відгуки_'
'відбулася_'
'вчен'
'входить_'
'вст'
'вправ'
'вперед_'
'впевнені_'
'ворог'
'вори'
'внутрішніх_'
'внутрішні'
'вмісту_'
'власну_'
'власно'
'власник'
'вл'
'вкра'
'вклад'
'вказан'
'вка'
'вищо'
'вич'
'витрат_'
'високої_'
'виробник_'
'випускників_'
'випа'
'вимог_'
'визначає_'
'вигра'
'виготовлен'
'вибух'
'взяли_'
'взяв_'
'верхні'
'верх'
'величезну_'
'великого_'
'великим_'
'вед'
'вгору_'
'введення_'
'ват'
'ванн'
'валися_'
'важливим_'
'вад'
'ваги_'
'ваг'
'біль_'
'біло'
'біженців_'
'бід'
'будівництво_'
'борт'
'боро'
'бов'
'бн'
'бло'
'близьк'
'безпечн'
'безп'
'безліч_'
'бачив_'
'бач'
'батьків_'
'батьки_'
'батаре'
'баланс_'
'баз'
'ац'
'афі'
'аудитор'
'аті'
'атор'
'атк'
'ате'
'аспірант'
'арк'
'арабськ'
'ара'
'ано_'
'ане'
'аліз'
'алі_'
'алю'
'ально'
'альбому_'
'алкоголю_'
'акул'
'активність_'
'активності_'
'академічни'
'аеропорту_'
'агресивн'
'аві'
'автоматичн'
'ави'
'ава'
'Яки'
'ЯК_'
'ЩО_'
'Шан'
'Че'
'Час_'
'Церкви_'
'Хіба_'
'Христо'
'Хол'
'Хо'
'Хе'
'Франц'
'Фер'
'Університет_'
'Університет'
'Угод'
'Тільки_'
'Ту'
'Тер'
'Так'
'ТІ'
'Спо'
'Сміх_'
'См'
'Сен'
'Світ'
'Сві'
'Сар'
'СЛ'
'Росіі_'
'Розмір_'
'Республіки_'
'Ради_'
'Прик'
'Почина'
'Пороми_'
'Попередн'
'Польщі_'
'Показати_'
'Пи'
'Перша_'
'Парижі_'
'Пан'
'Пак'
'ПК_'
'Ос'
'Ол'
'Од'
'ОЮ_'
'Німеччині_'
'Німецьк'
'Ново'
'Неп'
'Нев'
'Наша_'
'Національн'
'Найб'
'Мін'
'Міжнародна_'
'Мод'
'Мене_'
'Мен'
'Максимальн'
'МН'
'МИ_'
'МЕН'
'Лен'
'ЛЕН'
'ЛА'
'Кілька_'
'Кул'
'Конституці'
'Комісі'
'Канаді_'
'Кал'
'Йо'
'ИВ'
'Згідно_'
'ЗС_'
'ЗН'
'Жа'
'Ек'
'Ед'
'Дов'
'Добре_'
'Джон_'
'Джи'
'Джер'
'Давайте_'
'Гро'
'ГІ'
'Вік'
'Відповід'
'Всесвітн'
'Вс'
'Вип'
'Вин'
'Використовуйте_'
'Вид'
'Вже_'
'Веб_'
'Ва'
'ВС'
'Біли'
'Бон'
'Божо'
'Бо_'
'Барселоні_'
'БЕ'
'Анг'
'Аль_'
'Ад'
'Або_'
'Італія_'
'Ісус_'
'Іноді_'
'Інд'
'živé_'
'žil'
'žijí_'
'žid'
'Žena_'
'ůst'
'ůd'
'šv'
'štění_'
'ště'
'štít'
'špatné_'
'špatn'
'školení_'
'ši_'
'Ši'
'říkal'
'říkají_'
'řídí_'
'říd'
'říc'
'řet'
'ňte_'
'ěný'
'ěné_'
'ěme_'
'ěli_'
'částic'
'čern'
'čem_'
'ček'
'Česk'
'ČI'
'účtu_'
'útvar'
'út'
'úprav'
'údaj'
'ív'
'ítk'
'íta'
'ílá'
'áže'
'áž_'
'áš'
'átní'
'áp'
'ály_'
'álních_'
'ák_'
'áh'
'», – _'
'»)'
'závisl'
'závi'
'zásob'
'zásad'
'záp'
'zám'
'zákony_'
'zvětš'
'zvys'
'zvykl'
'zvolen'
'zvol'
'zvlád'
'zusta'
'způsobuje_'
'způsobit_'
'způsobil'
'zpětn'
'zpráv'
'zpracovani_'
'zpet_'
'zobrazeni_'
'zní_'
'známo_'
'zni'
'značn'
'znalost'
'zmenit_'
'zločin'
'zkušenost'
'zkouma'
'zko'
'země'
'zelenin'
'zel_'
'zbozi_'
'zbo'
'začalo_'
'začala_'
'zaz'
'zavod'
'zatimco_'
'zasad'
'zari'
'zar'
'zapoj'
'zaplatit_'
'zaměřuje_'
'zalozen'
'zakáz'
'zaklad'
'zaj'
'zadne_'
'zacit_'
'zabil'
'zabav'
'zabalen'
'yr'
'yc'
'wood'
'vůdc'
'většině_'
'většinou_'
'věnovat_'
'vědomí_'
'vědeck'
'výrobky_'
'výrobc'
'výroba_'
'výrazn'
'výměn'
'výjimečn'
'výhody_'
'východ'
'vítěz'
'víme_'
'válka_'
'válce_'
'vál'
'vzit_'
'vzal'
'vyvo'
'využívat_'
'vyuziva'
'vytváření_'
'vytvořen'
'vysled'
'vykon'
'vyber_'
'vybavení_'
'vsechno_'
'vrt'
'vrcholu_'
'vozidel_'
'voz'
'vor'
'von'
'volný_'
'volné'
'voli'
'vojensk'
'vodo'
'vlo'
'vln'
'vlhk'
'vlasu_'
'vlastních_'
'vky_'
'vitamin'
'ves'
'vek_'
'vd'
'vatel'
'vak'
'vad'
'užívat_'
'učitel'
'uzi'
'uzemi_'
'uze'
'uvádě'
'uvedeno_'
'uto'
'uti_'
'uta'
'usti'
'usm'
'usk'
'urč'
'urcit'
'urcen'
'upe'
'univerz'
'un_'
'umo'
'ukrajinsk'
'ukazal'
'události_'
'ude_'
'udalosti_'
'udaje_'
'ucí'
'uc'
'ubo'
'tři'
'třetím_'
'tř'
'týdne'
'tý'
'tát'
'tzv_'
'type'
'trá'
'trvá_'
'trpí_'
'trend'
'tn'
'tla'
'tky_'
'tivn'
'tiskov'
'tisic_'
'tisic'
'til_'
'textov'
'testova'
'tepeln'
'takt'
'tajemství_'
'sídl'
'systémem_'
'symptom'
'svá'
'svoje_'
'sve'
'svaz'
'sum'
'stě'
'styl_'
'stránku_'
'stro'
'stranu_'
'stat_'
'starší_'
'staré_'
'starost'
'staro'
'stano'
'stanic'
'standard'
'stali_'
'srpna_'
'srdci_'
'sr'
'správce_'
'sprch'
'sprav'
'spl'
'spektr'
'specialni'
'specializac'
'specialist'
'spat'
'spa'
'současně_'
'souvislosti_'
'soused'
'soukromý'
'soukromí_'
'soukrom'
'soudní_'
'soch'
'sno'
'sniz'
'sne'
'snaz'
'směn'
'smus_'
'sme'
'službu_'
'služb'
'slunce_'
'slun'
'složit'
'sloužit_'
'slav'
'ském_'
'sk_'
'sit'
'sho'
'shi'
'seri'
'sen_'
'segment'
'sedm_'
'seda'
'sebev'
'různ'
'rů_'
'ráv'
'rál'
'rychlosti_'
'rust'
'rusk'
'rus'
'rty_'
'rs'
'rp'
'roč'
'rozšiř'
'rozvíje'
'rozm'
'rozhoduj'
'rozb'
'rot'
'rol_'
'rodinu_'
'rma'
'ril_'
'rict_'
'rezerv'
'revoluce_'
'reproduk'
'reform'
'rb'
'ramen'
'rak'
'qua'
'q_'
'původu_'
'původ'
'příští_'
'příští'
'příznaky_'
'příz'
'příprav'
'přinesl'
'přijímat_'
'přijde_'
'přidat_'
'přeč'
'přeprav'
'přep'
'přem'
'přeh'
'představi'
'přední_'
'pít_'
'péči_'
'pát'
'pus'
'publikac'
'práv'
'prv'
'prs'
'proved'
'prote'
'proná'
'proměn'
'profesionální_'
'profes'
'prodej'
'problému_'
'priv'
'prip'
'prijm'
'prida'
'priblizne_'
'pribeh'
'prezident'
'presne_'
'pren'
'predstavuje_'
'preds'
'predp'
'pravni'
'pravideln'
'prave_'
'pracov'
'požad'
'poš'
'pozor_'
'pozici_'
'pouzit_'
'pouh'
'potřebujete_'
'potreby_'
'potravin_'
'postavy_'
'poskytování_'
'poskytovat_'
'poruš'
'porozumě'
'poro'
'poprve_'
'poplatky_'
'pondělí_'
'poloh'
'pokračovat_'
'poháněn'
'pohr'
'pohledu_'
'podr'
'podpora_'
'podn'
'podlah'
'pode'
'pocitac'
'poch'
'pocet_'
'poc'
'plu'
'plic'
'place'
'pk'
'pivo'
'pin'
'pij'
'pet'
'peri'
'perfektn'
'per_'
'patri_'
'parku_'
'parfém'
'padne_'
'pad_'
'pa_'
'oč'
'ozen'
'ovocn'
'ovaci_'
'ous_'
'otázku_'
'otázk'
'otr'
'oti'
'otevřít_'
'otazky_'
'otazk'
'osobnosti_'
'organizova'
'ore_'
'oprávněn'
'opr'
'opet_'
'operační'
'omezen'
'omen'
'olo'
'oli_'
'okolnosti_'
'okno_'
'oi'
'oficiálně_'
'ofi'
'odpočinku_'
'odpad'
'odp'
'odje'
'odej'
'ochraně_'
'obě_'
'obyvatel'
'oby'
'obu'
'obtížné_'
'obt'
'obs'
'obrazovky_'
'obrazov'
'obou_'
'oblíben'
'obla'
'objevily_'
'objevil_'
'objevi'
'obil'
'obdobi_'
'obchod'
'obcan'
'něl'
'nás'
'národní'
'náp'
'námořní'
'náhrad'
'náhodou_'
'nád'
'nutne_'
'nul'
'nu'
'nti'
'novych_'
'nou'
'not'
'noh'
'nka_'
'nižší_'
'nis'
'ning_'
'nichž_'
'neč'
'nezá'
'neve'
'neus'
'nervov'
'ner_'
'nepro'
'nemusíte_'
'nemusi_'
'nemohl_'
'nemohl'
'nema_'
'nel'
'nekterych_'
'nekon'
'nejz'
'nejvetsi'
'nejr'
'nejlepsich_'
'nejkr'
'nejake_'
'negativní_'
'neděl'
'nebezpečn'
'našimi_'
'našeho_'
'nastroj'
'narod'
'napr_'
'napo'
'napln'
'naleznete_'
'nal'
'naje'
'najd'
'nahl'
'nada'
'nachazi_'
'nabízíme_'
'nab'
'mů'
'mód'
'mírn'
'musel_'
'muj_'
'msk'
'možno'
'mozn'
'mozku_'
'moderni'
'modelů_'
'model'
'mobilních_'
'mluvi'
'minul'
'minimálně_'
'mimořádn'
'mimo'
'mg_'
'mezinarodni'
'metrů_'
'medicín'
'med_'
'mati'
'materiál_'
'manžel'
'manažer'
'malých_'
'mak'
'mail_'
'mai'
'mag'
'lý_'
'léčiv'
'léčba_'
'léč'
'lékaře_'
'lv'
'lor'
'lm'
'lle'
'listopadu_'
'lines_'
'lh'
'leti'
'ld_'
'kůže_'
'kři'
'kód_'
'kám_'
'kvalitni_'
'kuj'
'krátk'
'kreati'
'krat_'
'koz'
'kopi'
'kontroly_'
'kontaktu_'
'konečn'
'konec_'
'komunikaci_'
'kome'
'kombinaci_'
'koleg'
'kg_'
'kej'
'kazde_'
'kapitol'
'kandidát'
'kampan'
'jícího_'
'jádr'
'jmenov'
'jistě_'
'jen'
'jem'
'jednim_'
'jednani_'
'jedinečné_'
'jedinečn'
'japonsk'
'jakým_'
'jakékoli_'
'jaké'
'jaká_'
'jakekoli_'
'jaderné_'
'ička_'
'ií_'
'izovan'
'iza'
'ivé_'
'ive'
'itě_'
'itá'
'ist_'
'ismus_'
'iná'
'inu'
'insk'
'ins'
'inky_'
'ila'
'ight'
'ideln'
'icí'
'icke_'
'ian_'
'hvězd'
'hust'
'hráče_'
'hráč_'
'hro'
'hou'
'hop'
'hnu'
'hnout_'
'hne'
'hmotnost_'
'hmot'
'hli'
'hlad_'
'hern'
'harmoni'
'had'
'gu_'
'grafi'
'gon'
'ght'
'ger_'
'ger'
'fázi_'
'fotograf'
'formát'
'forma_'
'forem_'
'fla'
'fic'
'fen'
'exo'
'evropsk'
'eviden'
'eva'
'eri'
'enk'
'eng'
'els'
'ekt'
'ekonomiky_'
'ekologick'
'ein'
'edo'
'ech'
'důstojn'
'důležitý'
'dělá'
'dělají_'
'dědictví_'
'dusevni'
'duk'
'drát'
'drog'
'drobn'
'doz'
'dovedností_'
'dostan'
'dostali_'
'dos'
'dopravy_'
'doprav'
'dopis'
'domova_'
'dokumenty_'
'dohod_'
'dobrá_'
'dobrou_'
'dobro'
'dnešní_'
'dne'
'desk'
'design'
'deseti_'
'dem'
'dek'
'defin'
'dd'
'dcer'
'dc'
'cukrov'
'ctvrt'
'comp'
'comm'
'cko'
'chv'
'chrání_'
'chronick'
'chod_'
'chn'
'chlazen'
'chlapec_'
'chlap'
'chan'
'cha_'
'cení_'
'cens'
'celkový_'
'běžné'
'běžn'
'bys_'
'bydl'
'bs'
'box_'
'bod'
'bil'
'bezpečnostní_'
'bateri'
'bari'
'bar_'
'azov'
'azi_'
'ava_'
'automobilů_'
'aste'
'ast_'
'asijsk'
'arni'
'armáda_'
'arabsk'
'apo'
'aplik'
'apart'
'aně'
'anální_'
'anim'
'anglické'
'ang'
'amo'
'amin'
'ame'
'all'
'ago'
'ada_'
'ada'
'ach'
'abe'
'Zatímco_'
'ZEN'
'Yobt_'
'XI'
'Work'
'Wo'
'Wi_'
'Whi'
'West'
'War'
'Vyv'
'Vyb'
'Vlastn'
'Via'
'Ub'
'UT'
'UP'
'UL'
'UK_'
'UC'
'TĚ'
'Typ_'
'Tu_'
'Time_'
'Teď_'
'Technology_'
'Technick'
'Tan'
'Take_'
'TS_'
'TH'
'System_'
'Super'
'Stát'
'St'
'Spojených_'
'Spojenych_'
'Sil'
'Sho'
'Sha'
'Sed'
'Samozřejmě_'
'Sal'
'SY'
'SD_'
'Rusk'
'Rose'
'Rod'
'Rep'
'Red_'
'Red'
'Rakousko_'
'ROZ'
'Přij'
'Prvni_'
'Prov'
'Prom'
'Prof'
'Proc_'
'Poz'
'Pov'
'Posl'
'Pomocí_'
'Poj'
'Pl'
'PRI'
'Ote'
'Opravdu_'
'Oni_'
'One_'
'Om'
'Oficiální_'
'Obvykle_'
'OST'
'ON_'
'Ně'
'Nás'
'Nik'
'New'
'Nes'
'Nedo'
'Ned'
'Naši_'
'Nast'
'Nan'
'NY_'
'Měst'
'Má'
'Mus'
'Mos'
'Moje_'
'Mn'
'Ml'
'Maďarsk'
'Market'
'Management_'
'Ma_'
'MC'
'MB'
'Lot'
'Line_'
'Len'
'Latest_'
'Lat'
'Kyjev'
'Kub'
'Kter'
'Kos'
'Kong'
'Komise_'
'Kl'
'Ken'
'Kate'
'Kap'
'KT'
'KR'
'Jose'
'John_'
'Ježíš_'
'Jen'
'Jedná_'
'Jedn'
'Jedin'
'Japonsk'
'Jakou_'
'JS'
'Instagram_'
'IB'
'Hlavní_'
'HTML_'
'HS'
'Gua'
'Gu'
'Gi'
'Francouzsk'
'Forex_'
'Fl'
'Film'
'FI'
'Evropa_'
'Eu'
'EU'
'EN_'
'EL'
'ED'
'EB'
'EA'
'Dub'
'Dra'
'Doc'
'Doba_'
'Dn'
'Dlouh'
'Del'
'Dalsi_'
'DE'
'DC'
'Cur'
'Cina_'
'Char'
'Cat'
'CT'
'CR'
'CO_'
'CH'
'Bě'
'Británie_'
'Brit'
'Bos'
'Bay_'
'Bat'
'Bab'
'BR'
'BC'
'Analy'
'Američan'
'Ahoj_'
'AT'
'AG'
'> _'
'91'
'900_'
'84_'
'83'
'78_'
'74_'
'69'
'67_'
'66_'
'3000_'
'20'
'1999_'
'1998_'
'198'
'1970_'
'191'
'18'
'153'
'120'
'117'
'108'
'08'
'03'
'...._'
'... [-]_'
'.)'
'+'
'))'
'& _'
'! - _'
' € _'
' © _'
' £ _'
' \\ _'
' [+]_'
' -'
' ("_'
'Ґ'
'їхні_'
'їхнього_'
'їзди_'
'ія'
'іші_'
'ічни'
'ічна_'
'іт'
'істів_'
'існування_'
'існ'
'іо_'
'інформ'
'інтересів_'
'інтереси_'
'інтенсивно'
'інтелекту'
'інструкці'
'іноземних_'
'інн'
'інженері'
'інженер'
'інді'
'ілі'
'ійськ'
'іжни'
'ідні'
'ідея_'
'ідеальн'
'єнт'
'єкцій'
'єднан'
'єдино'
'єдини'
'єдина_'
'європейських_'
'яч_'
'яток_'
'ясува'
'яні_'
'ян_'
'яли_'
'якісни'
'якісн'
'якось_'
'язане_'
'ядерно'
'явн'
'юсь_'
'ья'
'ьськ'
'ьови'
'ької_'
'ький_'
'щин'
'шука'
'што'
'штат'
'штаб'
'шок_'
'шкірою_'
'шкода_'
'широкий_'
'широк'
'ширин'
'шар'
'чітко_'
'чу_'
'чорни'
'чоловіч'
'чок_'
'чних_'
'чнии_'
'чесн'
'червоно'
'часно_'
'часн'
'ціною_'
'ціли'
'ційн'
'цьк'
'цифр_'
'цими_'
'циліндр'
'цикл_'
'цивілізаці'
'цивільн'
'цел'
'хід'
'християнськ'
'хр'
'хочеться_'
'хотіла_'
'хорош'
'хмар'
'хвороб'
'хар'
'хай'
'фінансови'
'фільм'
'фізично'
'фізичн'
'фу_'
'форум'
'форм'
'фол'
'фокус'
'флористів_'
'фле'
'фахівці_'
'фахівця'
'фас'
'факультет_'
'факт'
'учасник'
'уум'
'утворює'
'утворення_'
'усти'
'установки_'
'управлін'
'упаков'
'унікальний_'
'улюблені_'
'укра'
'уко'
'уза'
'уда'
'угоду_'
'увальник'
'уби'
'тіл'
'тів'
'тян'
'тя'
'турист'
'тура_'
'тування_'
'туалет'
'тті'
'тривати'
'трав'
'тою_'
'тора_'
'ток_'
'товари'
'тні_'
'тка_'
'тк'
'тимуть_'
'тика_'
'технічні_'
'теро'
'термо'
'територіі_'
'тепл'
'температура_'
'темп'
'темні'
'темн'
'творчо'
'тварини_'
'таємн'
'тату'
'такти'
'сьогоднішній_'
'ськ'
'сь'
'схожі_'
'сфер'
'супроводжува'
'суп'
'суд_'
'сува'
'стільки_'
'стійки'
'страхування_'
'страхов'
'страх_'
'стоять_'
'сторін'
'сторону_'
'сто_'
'створювати_'
'стаття_'
'стате'
'стандартн'
'сталі_'
'спільноти_'
'справля'
'справжньо'
'сподоба'
'сповн'
'спла'
'спеціалізаці'
'спеціальні_'
'спальн'
'спад'
'соціальні_'
'сот'
'сон_'
'со_'
'сніг'
'смілив'
'смерть_'
'слух'
'служи'
'слот'
'сло'
'сла'
'скрізь_'
'скороти'
'скор'
'скон'
'складають'
'ски_'
'скарг'
'сказала_'
'сит'
'символ'
'сим'
'силіконов'
'сильн'
'сила_'
'сиді'
'сестр'
'сертифікат_'
'серйозним'
'сериозн'
'сен'
'секунд'
'сексуальн'
'світової_'
'свіжо'
'свідом'
'своім'
'свин'
'самос'
'сами'
'саит_'
'саит'
'річний_'
'різно'
'різн'
'рівнем_'
'ріа'
'рятува'
'руками_'
'рт_'
'рс'
'рото'
'росіисько'
'ром'
'ролі_'
'розчин'
'розч'
'розташовании_'
'розробці_'
'розроблена_'
'розпізна'
'розповсюдж'
'розмістити_'
'розм'
'родн'
'робочих_'
'робочий_'
'робимо_'
'рну'
'рних_'
'рече'
'ресурсами_'
'ресор'
'рекорд'
'рек'
'регіона'
'регулювання_'
'реалізаці'
'раціон'
'раці'
'рахунк'
'рах'
'раф'
'раст'
'районі_'
'раз'
'радіс'
'підприємств_'
'підписку_'
'підписки_'
'підда'
'підвищени'
'пігмент'
'північно'
'півночі_'
'півд'
'пш'
'пустел'
'пункт_'
'прочитати_'
'процесів_'
'процвіта'
'проходить_'
'проход'
'профіл'
'професійни'
'професійн'
'протокол'
'простор'
'проси'
'пропонуються_'
'пропону'
'проміж'
'прожива'
'прож'
'продукції_'
'програмою_'
'проводяться_'
'проводи'
'прова'
'пробі'
'причину_'
'пристрас'
'прискор'
'природних_'
'природний_'
'приносить_'
'прийнято_'
'прийняти_'
'признача'
'придатн'
'приб'
'прет'
'препарати_'
'президент'
'представлені_'
'практики_'
'поїзд'
'поєднання_'
'появ'
'пошук'
'поширю'
'почне'
'початково'
'почала_'
'поход'
'пох'
'потребують_'
'потреб_'
'потр'
'пото'
'пот'
'постр'
'поруши'
'порт_'
'попит'
'попередн'
'помилк'
'полярн'
'полю'
'поли'
'покупку_'
'покла'
'покл'
'показник_'
'показан'
'показ'
'позиці'
'пози'
'поживн'
'подіі_'
'подібних_'
'подивимося_'
'податков'
'подарунк'
'погрожу'
'повітрян'
'повторю'
'повтор'
'повс'
'повне_'
'поверхні_'
'побічних_'
'побу'
'пле'
'платити_'
'пластик'
'планування_'
'планува'
'пл'
'пес'
'першої_'
'першому_'
'першии_'
'перехо'
'перер'
'перенос'
'перен'
'перем'
'перек'
'переи'
'пережива'
'передн'
'переговорів_'
'переглянути_'
'перевищує_'
'пек'
'пасажир'
'партнерств'
'паралельн'
'пані'
'пальців_'
'пальц'
'пакет'
'пад'
'оі'
'оче'
'оці'
'оха'
'офіці'
'офіс_'
'офіс'
'отримані_'
'отриман'
'отичн'
'оте'
'ота_'
'острів_'
'останнім_'
'оста'
'осп'
'особлив'
'особисто_'
'основи_'
'оск'
'освіта_'
'орт'
'орськ'
'ором_'
'оре'
'організація_'
'оптиміз'
'опо'
'опини'
'операції_'
'онов'
'онер'
'оне'
'онал'
'оме'
'ологічн'
'оле'
'ол_'
'окс'
'окр'
'ознайом'
'ози'
'оза'
'одній_'
'одні_'
'одн'
'один'
'огірк'
'оголошення_'
'овувати_'
'овні_'
'овл'
'обсяг'
'обрани'
'обра'
'областях_'
'оа'
'ніяких_'
'ніяк'
'ньк'
'нсу'
'нм_'
'нка_'
'нервов'
'неприємни'
'необхідних_'
'нейтрал'
'неймовірн'
'неи'
'негативни'
'небезпе'
'неба'
'наче_'
'національни'
'нах_'
'наука_'
'натисну'
'наступного_'
'наступне_'
'наступ'
'наста'
'насо'
'наслід'
'народів_'
'напів'
'наповн'
'написан'
'написав_'
'належ'
'налаштування_'
'найменш'
'найм'
'найкращі_'
'найв'
'найбільш'
'наикращи'
'назвати_'
'навчитися_'
'навчит'
'навичок_'
'наве'
'набу'
'місцем_'
'мість_'
'міні_'
'міні'
'міна'
'мільйон'
'муть_'
'музичн'
'мрі'
'мона'
'молочн'
'можливе_'
'мод'
'мовами_'
'мобільни'
'мобіл'
'мистецтво_'
'механізм_'
'мете'
'мета_'
'мертв'
'менеджменту_'
'мел'
'масштаб'
'масаж'
'маршрут'
'манд'
'ман_'
'мальн'
'мал'
'майстр'
'маиже_'
'магазини_'
'літні'
'літер'
'літ_'
'лісо'
'ліків_'
'лікарських_'
'ліка'
'ляються_'
'люва'
'люблять_'
'льник'
'лось_'
'лос'
'лом'
'лові'
'лені_'
'легко'
'легені'
'ламп'
'ладн'
'кінч'
'кі_'
'кці'
'кут'
'купи'
'кулі'
'культурно'
'культурних_'
'культур'
'кул'
'куди_'
'кувати_'
'ктивн'
'кс_'
'круп'
'кров_'
'кризи_'
'криз'
'кошти_'
'кош'
'корпус'
'корен'
'координа'
'конфіденційності_'
'контролем_'
'контрацеп'
'конструкці'
'конкурс'
'кондиціонер'
'конверт'
'компроміс'
'комплекс_'
'компе'
'команді_'
'команд'
'коло_'
'книгу_'
'кни'
'клітин'
'ключ_'
'класифік'
'клад'
'кину'
'ким_'
'керування_'
'квіткови'
'квадрат'
'кашл'
'кард'
'кара'
'кар'
'кампус'
'календар'
'кав'
'кабін'
'ично'
'ичн'
'иц'
'иту'
'иськи'
'инии_'
'инг_'
'иду'
'иде'
'иви'
'зуб'
'зростає_'
'зроста'
'зрозумів_'
'зро'
'зразк'
'зони_'
'зон_'
'знижу'
'значни'
'значить_'
'змінн'
'змінил'
'зми'
'зла'
'зк'
'зим'
'зи_'
'здійсн'
'здіисню'
'здорово'
'здорови'
'здоров'
'зд_'
'згада'
'зволож'
'звич'
'зви'
'зберігається_'
'зберігати_'
'зберіга'
'захоплююч'
'захоплення_'
'захопл'
'зато'
'застосовується_'
'засобами_'
'зароб'
'зареєстр'
'запрошен'
'запобігає_'
'запланован'
'замінити_'
'замі'
'замов'
'залишиться_'
'закінчується_'
'закінч'
'закр'
'заклика'
'задн'
'завод_'
'завершення_'
'заве'
'завантажува'
'завантажити_'
'забезпеч'
'жорстк'
'жов'
'жня_'
'жник'
'життєви'
'жиру_'
'живи'
'жива'
'жено'
'женн'
'ефективності_'
'ефективно'
'ето'
'етк'
'етично'
'етап'
'есі'
'есл'
'ером_'
'епох'
'еного_'
'енергетичн'
'емон'
'емн'
'еля_'
'електронноі_'
'ел_'
'ел'
'експериментальн'
'екс'
'ека'
'еин'
'еи'
'еден'
'ево'
'діяти_'
'дія_'
'дістатися_'
'діо'
'дін'
'дівчат_'
'діва'
'діабет'
'дцят'
'думаєте_'
'думає_'
'дум'
'дрі'
'друж'
'дот'
'досяга'
'доста'
'дослідженням'
'досконал'
'дос'
'дорі'
'дороги_'
'допомагають_'
'допом'
'дон_'
'дому_'
'домо'
'домашніх_'
'домашнього_'
'домашн'
'документи_'
'документ_'
'документ'
'доказів_'
'доз'
'додав_'
'дові'
'доведен'
'дова'
'добу_'
'дм'
'дитяч'
'дитиною_'
'диспле'
'директор_'
'дина'
'дизаину_'
'диви'
'див'
'джерелом_'
'деякий_'
'дешевше_'
'детал'
'держав_'
'дент'
'дев_'
'двадцят'
'дару'
'далеко_'
'давньо'
'гурт'
'гуманітарн'
'гріх_'
'грі_'
'груд'
'громад'
'гр'
'готовий_'
'готов'
'горд'
'гом'
'голови_'
'гол'
'годину_'
'говорив_'
'гн'
'глибоко_'
'гин'
'герої'
'геро'
'гені'
'гей'
'гас'
'гарантувати_'
'газет'
'вірусу_'
'вірою_'
'вірит'
'він'
'вій'
'відігра'
'відход'
'відтворення_'
'відсутність_'
'відсутності_'
'відрізняються_'
'відправля'
'відправлення_'
'відповідності_'
'відомо'
'відомим_'
'відмінності_'
'відкриття_'
'відгук'
'відвідува'
'відвідати_'
'відбудеться_'
'відбува'
'вчит'
'вчин'
'входять_'
'втрат'
'встановлю'
'встановлення_'
'впоратися_'
'впливають_'
'воєнн'
'вою'
'волос'
'вні_'
'вміє_'
'вміст_'
'власних_'
'власн'
'влада_'
'вказує_'
'вка_'
'виявит'
'виявили_'
'виходу_'
'вису'
'вистача'
'високо_'
'високих_'
'високий_'
'висока_'
'вирішити_'
'вирішив_'
'виражен'
'випл'
'виник'
'вимог'
'виконує_'
'визначен'
'визна'
'виділя'
'виділ'
'виду_'
'видим'
'видан'
'видал'
'вивчити_'
'вивчен'
'виборі'
'вибору_'
'вибори_'
'взаємодію'
'вз'
'вечер'
'верт'
'версіі_'
'версі'
'велосипед'
'велике_'
'вважаю_'
'вважати_'
'вважа'
'вби'
'вб'
'варі'
'варт'
'ванну_'
'важлив'
'важких_'
'більшу_'
'бюджет_'
'бус'
'букет'
'букв'
'будівля'
'будівельни'
'брокер'
'брал'
'бр'
'бою'
'боротьбі_'
'болі'
'благод'
'безкоштовні_'
'бачимо_'
'бачення_'
'бара'
'базується_'
'бажан'
'бажа'
'аю'
'ату_'
'атичн'
'атак'
'асо'
'архів'
'арх'
'арни'
'аре'
'апо'
'ань_'
'антитіл'
'антибіотик'
'анов'
'анн'
'анку_'
'аних_'
'англійською_'
'англ_'
'анальний_'
'ан'
'американських_'
'ального_'
'алкогольн'
'акції_'
'акці'
'активні'
'акредитован'
'ако'
'аи_'
'адн'
'агентств'
'агент'
'автомобілі_'
'автоматиз'
'автобус'
'абі'
'абс'
'Японії_'
'Япон'
'Якби_'
'ЯТ'
'ЯК'
'Щор'
'Штат'
'Шве'
'Чехії_'
'Червони'
'Частина_'
'ЧУ'
'Ціни_'
'Фре'
'Франція_'
'Умов'
'Украіни_'
'УН'
'Тип'
'Те_'
'Таке'
'ТР'
'Сх'
'Ступінь_'
'Сторон'
'Спор'
'Сполучених_'
'Спе'
'Сонячн'
'Слу'
'Сл'
'Система_'
'Сим'
'Сан_'
'СР'
'СО'
'СИ'
'Росією_'
'Розк'
'РУ_'
'РТ'
'Просто_'
'Прост'
'Пров'
'Пош'
'Польща_'
'Поді'
'Пода'
'Плат'
'Перш_'
'Перш'
'Переглянути_'
'Перева'
'Пас'
'ПУ'
'ПРА'
'ПИ'
'Офіційн'
'Олімпі'
'Олександр'
'Оз'
'Обл'
'ОП'
'ОМ'
'Ніколи_'
'Нідерланд'
'Новии_'
'Нова_'
'Необхідно_'
'Незалежно_'
'Наш_'
'Науков'
'Натисніть_'
'Найв'
'НЬ'
'Мікро'
'Мої_'
'Май'
'МЕ'
'Лікування_'
'Лікар'
'ЛЬ'
'ЛЕ'
'Кри'
'Коре'
'Конвенції_'
'Конвенці'
'Коментарі_'
'Колір_'
'Китаї_'
'Ки'
'Кан'
'КЛАД'
'Йому_'
'Зро'
'Зв_'
'Запит'
'Замі'
'Завжди_'
'ЗИ'
'Жовт'
'Ер'
'Діти_'
'Дух'
'Доро'
'Донбас'
'Дода'
'Джа'
'Держав'
'Деп'
'Делі_'
'ДН'
'ДЛЯ_'
'ДИ'
'Група_'
'Головни'
'Генеральн'
'ГЕ'
'Відом'
'Втім_'
'Вп'
'Воло'
'Велико'
'Велика_'
'Велик'
'Вв'
'Вал'
'Важ'
'Ваг'
'Бр'
'Бла'
'Бл'
'Безпе'
'Бе'
'Бажа'
'Баг'
'БУ'
'Америки_'
'Американськ'
'Аль'
'АТ'
'АР'
'АЛЬН'
'АК'
'Ірланд'
'Іран'
'Іраку_'
'Інши'
'Інш'
'Інформація_'
'Із_'
'Ігри_'
'ІМ'
'ІД'
'Євро'
'žáda'
'žá'
'žu'
'žt'
'žnost'
'žl'
'životn'
'živ'
'žený'
'ůže'
'ůstal'
'ůl'
'Ů'
'ťov'
'šťáv'
'šího_'
'štin'
'šest'
'ŠÍ_'
'Ško'
'řív'
'řát'
'řádn'
'řte_'
'řské_'
'řit_'
'řešen'
'řez'
'řekn'
'řekli_'
'řady_'
'Ří'
'ňovat_'
'ěz'
'ěs'
'ěrn'
'ější'
'ěji_'
'ěje_'
'Ě'
'čít'
'číst_'
'čínské_'
'čná_'
'čno'
'čiš'
'činnost_'
'čini'
'červen'
'čerstv'
'černá_'
'čas'
'Čí'
'Část'
'ýt_'
'ýc'
'ýb'
'účinn'
'účinek_'
'účastni'
'úč'
'úvahu_'
'útok'
'úspěšně_'
'úspěšn'
'úpln'
'úmysl'
'úd'
'ö'
'ór'
'ízen'
'íná'
'íne'
'íka_'
'ík'
'éře_'
'éč'
'éz'
'ét'
'ér'
'áž'
'ář_'
'áčk'
'ávk'
'ávají_'
'átor'
'átk'
'ám'
'áhn'
'ácí_'
'áci_'
'áce'
'Ý_'
'ÝCH_'
'Úmluvy_'
'» '
'zůstal'
'získal_'
'zásadní_'
'zás'
'zápas'
'záměr'
'základn'
'zákazníky_'
'zvířata_'
'zvyseni_'
'zubů_'
'ztratil_'
'zs'
'zrcadl'
'zranen'
'způsobů_'
'zpráva_'
'zpravidla_'
'zpracova'
'zovat_'
'zodpovědn'
'zobrazit_'
'známk'
'znov'
'znic'
'změna_'
'změn_'
'zmi'
'zleps'
'zky_'
'zkušeností_'
'zkusi'
'zkr'
'zjistit_'
'zjednoduš'
'zivot'
'ziskan'
'zhubnout_'
'zh'
'zemř'
'zeměděls'
'zemrel'
'zdá'
'zdv'
'zdroju_'
'zdi_'
'zbra'
'zbav'
'zařízení'
'začátek_'
'zaznam'
'zaru'
'zaplacen'
'zanech'
'zane'
'zalozena_'
'zahrnu'
'zahaj'
'zado'
'zadny_'
'zabýva'
'zabránit_'
'zabij'
'yti'
'yst'
'ysl'
'ylo'
'ya_'
'xHamster_'
'webove_'
'vůl'
'všemi_'
'věk_'
'věděl_'
'vědců_'
'výši'
'významný'
'výt'
'výstav'
'výrobu_'
'výrobků_'
'výkonu_'
'výběru_'
'vést_'
'vého_'
'vážně_'
'ván'
'vzn'
'vzdálen'
'vzdal'
'vyž'
'vyšetř'
'vyvolat_'
'vyvola'
'využití_'
'vyu'
'vytvoren'
'vytvare'
'vysvětlení_'
'vystup'
'vysoký_'
'vysledku_'
'vyskyt'
'vypn'
'vypadat_'
'vyle'
'vyjádř'
'vyhr'
'vyhn'
'vyh'
'vyd'
'vych_'
'vyberte_'
'vs'
'vrh'
'vozů_'
'vnímá'
'vní'
'vnu'
'vnitřní_'
'vnit'
'vni_'
'vlák'
'vlož'
'vliv'
'vlastním_'
'vlastnictví_'
'vlastnic'
'vlastne_'
'vič'
'vit_'
'vil'
'vik'
'vidíte_'
'videl'
'vhodný'
'veřejný'
'veřejné_'
'veřejnosti_'
'veřejn'
'vetsin'
'vets'
'vest'
'vere'
'velkých_'
'velice_'
'vedl'
'vedet_'
'veden'
'vazb'
'varova'
'vale'
'vah'
'vBET_'
'užív'
'uživatele_'
'učí'
'učin'
'uče'
'uč'
'uzavřen'
'uza'
'uvědom'
'uvá'
'uvolněn'
'uver'
'uvedl_'
'utr'
'utn'
'usil'
'určitý'
'uro'
'urn'
'urcite_'
'upřímn'
'upu_'
'uplatn'
'univerzit'
'unik'
'umír'
'umy'
'umožní_'
'umozni_'
'uložen'
'ukonč'
'ukaz'
'uka_'
'uk_'
'ující'
'uje'
'uhlí'
'uf'
'udělal_'
'ucet_'
'ubytov'
'ubl'
'tří_'
'těmito_'
'těl'
'týd'
'tál'
'typick'
'tymu_'
'tydn'
'tyden'
'tváře'
'tvář'
'tvorb'
'tva_'
'tul'
'tuh'
'trva'
'trh'
'trendy_'
'tras'
'trag'
'tr'
'tová'
'touto_'
'tori'
'tne'
'tm'
'tka'
'tiš'
'tivní_'
'tisíce_'
'ting_'
'tid'
'tich'
'tice_'
'tho'
'tesi'
'tera'
'teprve_'
'teplé_'
'teoretick'
'telů_'
'teln'
'technik'
'tec'
'tav'
'tal_'
'tal'
'takto_'
'taková_'
'takhle_'
'tajn'
'tablet'
'sán'
'systém'
'syndrom'
'světlo_'
'světe'
'svět'
'svíčk'
'svému_'
'svobody_'
'svo'
'sved'
'svat'
'sun'
'subjektů_'
'středu_'
'sté'
'státech_'
'styl'
'studio'
'studijní'
'studen'
'stu_'
'stránce_'
'strá'
'stromu_'
'strom_'
'straš'
'strategii_'
'stranou_'
'strank'
'stoup'
'stop_'
'stik'
'ster'
'ste_'
'stazeni_'
'stave'
'staty_'
'statni_'
'stara'
'stanovi'
'staly_'
'stah'
'ssi'
'ssa'
'spotreb'
'sportovní_'
'sportovni_'
'spor'
'spojeny_'
'spojeni_'
'spojen'
'spodní_'
'spln'
'specifick'
'spad'
'současn'
'sour'
'som'
'sociálních_'
'snížen'
'snu_'
'směrem_'
'smysl'
'sms_'
'slovni'
'sloup'
'slon'
'slo'
'slep'
'sla'
'sky'
'skvělý_'
'skutk'
'skem_'
'ske'
'sjednoc'
'sim_'
'silu_'
'silný_'
'she'
'sestr'
'server_'
'server'
'sení_'
'semin'
'sekund_'
'sedět_'
'sec'
'sebevražd'
'sdel'
'scén'
'schopen_'
'saz'
'samé'
'samozrejme_'
'samotn'
'samostatně_'
'sah'
'rze'
'rysy_'
'ryb'
'rtu'
'rske_'
'rozvo'
'rozvinu'
'rozsah'
'rozměr'
'rozme'
'rozli'
'rozhodova'
'rozhodnout_'
'romantick'
'roje'
'rodině_'
'rock'
'rl'
'rin'
'ril'
'rie'
'rh'
'rgi'
'reálném_'
'reáln'
'rezi'
'rezervace_'
'rete'
'rese'
'rela'
'rej'
'realit'
'reaguje_'
'reagovat_'
'rden'
'raň'
'rat'
'rakovin'
'raketov'
'rada_'
'que_'
'působí_'
'půdy_'
'příčin'
'příznaků_'
'přítomn'
'přístup'
'přístroj_'
'příslušný'
'příslušn'
'přírodních_'
'přípravu_'
'případ_'
'případ'
'příjem_'
'přátels'
'přání_'
'přizna'
'připom'
'přinést_'
'přijít_'
'přijal'
'přihl'
'převod'
'přet'
'přesvědčen'
'přesto_'
'přestal'
'přest'
'přenosu_'
'překvapen'
'předv'
'přece_'
'př'
'pěkn'
'písma_'
'pásm'
'pásk'
'py'
'pusobi'
'psa_'
'průměrn'
'prvnim_'
'prvnich_'
'proud'
'protokol'
'prosim_'
'prok'
'prohlaseni_'
'program'
'profil'
'profesn'
'profesionalni_'
'produkt'
'produkce_'
'procház'
'problem_'
'prin'
'pric'
'prezidenta_'
'prezi'
'prest'
'predpoklad'
'pravé'
'pravo_'
'prava_'
'praktický'
'praktick'
'prach'
'požár'
'požád'
'počk'
'pozor'
'poznám'
'pozna'
'pozi'
'pozadavky_'
'pozada'
'povědomí_'
'pově'
'povíd'
'povrch_'
'povazovan'
'povah'
'použiteln'
'potvrzen'
'potvrdil'
'potraviny_'
'potrav'
'potka'
'potenciální_'
'potencial'
'pote_'
'postupu'
'postavit_'
'postavil'
'poslouch'
'poskytl'
'pose'
'poruchy_'
'poruch'
'poru'
'pomáhají_'
'pomohl'
'pomalu_'
'politik'
'pole'
'pokryt'
'pokra'
'pokr'
'pokles_'
'pokl'
'pojisteni_'
'pohon'
'podv'
'podporovat_'
'podporo'
'podpis'
'podobn'
'podnikatel'
'podm'
'podiv'
'podepsal'
'pochopení_'
'plán_'
'plynov'
'pli'
'plav'
'plan'
'pise'
'pic'
'pevn'
'pes_'
'pedi'
'peci_'
'partnery_'
'parlamentu_'
'par_'
'pap'
'panelu_'
'pane'
'ožen'
'oří'
'očekáva'
'ozo'
'ozn'
'ovými_'
'ovo_'
'ovní'
'ovni'
'ovlivn'
'over'
'oveho_'
'ovaná_'
'ovan_'
'ovalo_'
'ova'
'our'
'oud'
'otázek_'
'otrav'
'oth'
'otev'
'osv'
'ostatním_'
'osobnich_'
'oso'
'oslov'
'oru'
'orod'
'orgán'
'orem_'
'ord'
'optim'
'opravy_'
'oprav'
'ont'
'ons'
'ond'
'omn'
'oma'
'olu'
'olej_'
'olej'
'okr'
'okamžik'
'ohrom'
'ohl'
'oha'
'odve'
'odr'
'odpovědn'
'odpovědi_'
'odpor'
'odmítn'
'odhodl'
'odborník'
'odborné_'
'oda'
'obrany_'
'obran'
'obor'
'oble'
'objeví_'
'objednávku_'
'objednáv'
'objedna'
'obchodním_'
'obchodních_'
'obchode'
'něčí'
'němž_'
'něm_'
'něm'
'někteří_'
'nějakého_'
'něho_'
'nízké_'
'názvem_'
'návrhy_'
'návrh'
'nástrojů_'
'nást'
'následn'
'národ'
'nápoj'
'nákladů_'
'nym_'
'nuje_'
'nto'
'nového_'
'nove'
'nost'
'normalni_'
'non_'
'nom'
'nku_'
'nika'
'nik_'
'nické_'
'nezp'
'neznamená_'
'nezm'
'nezbytné_'
'nevím_'
'neutr'
'neum'
'nespo'
'nepříjemný'
'nepřátel'
'nepři'
'nepri'
'nepre'
'neprav'
'neod'
'neměl'
'nemuze_'
'nekolika_'
'neko'
'nek'
'nejvý'
'nejvy'
'nejvetsi_'
'nejne'
'nejlep'
'nejhorší'
'nejak'
'neh'
'nedávno_'
'nedos'
'nedavn'
'neboť_'
'nebezpečí_'
'nda'
'nazor'
'navštívit_'
'navr'
'nava'
'nastaveni_'
'napětí_'
'naps'
'napr'
'naplněn'
'nano'
'nali'
'najednou_'
'nainstalovat_'
'nahoru_'
'nadn'
'nacháze'
'nabíd'
'měsíční_'
'měsících_'
'měsícem_'
'měste'
'místech_'
'míst_'
'máš_'
'myšlenky_'
'myslim_'
'muž'
'musim'
'mun'
'mto_'
'mrak'
'moř'
'moudrost'
'motivace_'
'mos'
'more_'
'mono'
'mokr'
'mohly_'
'mnou_'
'mnoho'
'mlek'
'mist_'
'mise_'
'miluji_'
'milión'
'mes'
'menu_'
'mem_'
'mely_'
'medi'
'mechanism'
'materiálu_'
'materialu_'
'matematick'
'maso_'
'manzel'
'manazer'
'management_'
'mam'
'malá_'
'make_'
'léků_'
'lékařem_'
'lát'
'ládá'
'lokalit'
'lok'
'logické_'
'lní'
'liší_'
'liv_'
'lisi_'
'lis'
'lip'
'ling'
'lidstvo_'
'lidských_'
'licenc'
'leží_'
'leteck'
'letadlo_'
'lel'
'lehk'
'lecb'
'lc'
'lati'
'last'
'lar'
'křes'
'kř'
'kém_'
'kysl'
'kvetiny_'
'kvalita_'
'kva'
'kut'
'kure'
'kum_'
'kulturni'
'kti'
'kterému_'
'kterého_'
'které'
'ktery'
'ks'
'krém'
'krokem_'
'krok'
'krev'
'kres'
'kraj'
'kove_'
'kousek_'
'koupil'
'koule_'
'kosti_'
'kontrolovat_'
'kontextu_'
'kons'
'kono'
'konflikt'
'konf'
'komponent'
'komplikace_'
'kolo_'
'kojen'
'kod'
'knize_'
'klíč'
'klá'
'klubu_'
'klo'
'klinick'
'klidn'
'klicov'
'klas'
'klade'
'kla_'
'ket'
'ker'
'ken'
'kdykoliv_'
'kdy'
'kde'
'každým_'
'kazdem_'
'kava'
'kampus'
'kam_'
'kalori'
'kabel'
'jší'
'jov'
'jiným_'
'jiná_'
'jez_'
'její'
'jednotliv'
'jater_'
'ičky_'
'ize'
'izace_'
'itý'
'itsk'
'itid'
'itelné_'
'itel'
'isti'
'ista'
'ismu_'
'isi'
'ira'
'ion'
'io_'
'inzenyr'
'investor'
'investice_'
'intenzivn'
'instalaci_'
'instal'
'inovativní'
'inovac'
'inova'
'inen'
'imu_'
'ilu'
'ile'
'iky_'
'ika'
'idi'
'identifikova'
'id_'
'ictví'
'ice'
'ian'
'ial'
'hád'
'huj'
'hudbu_'
'hráčů_'
'hrozb'
'hoře'
'hovor'
'horní'
'hon'
'hodnota_'
'hodina'
'hlub'
'hlavním_'
'hlave_'
'hladiny_'
'hladinu_'
'heslo_'
'herec'
'hepatitid'
'hel'
'hard'
'har'
'haj'
'hadice_'
'hac'
'gre'
'gov'
'gor'
'globalni_'
'gli'
'get'
'geni'
'genera'
'gan_'
'gam'
'fyzik'
'fyzicky'
'fungovat_'
'fre'
'francouzsk'
'fran'
'fra'
'fotbal'
'formatu_'
'format'
'formac'
'fondu_'
'filmů_'
'fakulty_'
'fa_'
'existovat_'
'evropské_'
'eur'
'eu_'
'ets'
'etr'
'eto'
'esk'
'esa'
'ery_'
'ers_'
'ere_'
'erc'
'enim_'
'eni'
'ene'
'enci_'
'ena'
'email'
'elsk'
'elo_'
'ejší'
'ega'
'efektivně'
'edno'
'eda'
'echn'
'důvěr'
'dět'
'dělal_'
'délka_'
'dé'
'dán'
'dám'
'dynamick'
'dvema_'
'drž'
'drz'
'druhém_'
'druhe'
'druh'
'drive_'
'dozv'
'dová'
'doty'
'dostáva'
'dostala_'
'dostal_'
'dosa'
'doprov'
'dopravu_'
'dopad_'
'domě_'
'domácí'
'domov_'
'domov'
'dome'
'dolaru_'
'dokončení_'
'dokonč'
'dokonale_'
'dokaz'
'dodáv'
'dodrz'
'dobrého_'
'dnešní'
'dm'
'dluh'
'dlouhé_'
'dle_'
'dla'
'divk'
'distribu'
'ding_'
'dif'
'diet'
'diagnostik'
'dev'
'detek'
'demokracie_'
'dela_'
'dejte_'
'dec'
'dba'
'day_'
'datum_'
'dane_'
'dale_'
'cítil'
'cího_'
'cz_'
'cus_'
'ctví_'
'cou'
'cos'
'cne'
'clo'
'ckým'
'cizí_'
'civilizace_'
'cis'
'cir'
'cháp'
'chybí_'
'chyba_'
'chyb'
'chtel_'
'chov'
'choroba'
'chodi'
'chno'
'chladn'
'chem'
'cestování_'
'cestova'
'centru_'
'centra_'
'centr'
'cenn'
'celeho_'
'cele_'
'ceka'
'cca_'
'case_'
'can'
'caj'
'býval'
'bí'
'bán'
'bytu_'
'bus'
'bru'
'bron'
'britsk'
'book'
'bonusy_'
'bolestiv'
'boj'
'bni'
'blíž'
'bit_'
'bic'
'bezpečné_'
'bezp'
'beze_'
'bere'
'ber_'
'bea'
'banky_'
'banka_'
'balení_'
'ay'
'atmosfér'
'atk'
'atel_'
'aspekty_'
'arn'
'armád'
'architekt'
'app'
'aplikovan'
'aplikací_'
'antibiotik'
'anta'
'ant_'
'anglictin'
'analýza_'
'analytick'
'anal'
'alu_'
'aliz'
'alis'
'ala'
'aku_'
'aj'
'agent'
'admin'
'adi'
'acni_'
'ac_'
'\\'
'Západ'
'Základní_'
'Zen'
'Zem'
'Zdrav'
'Zač'
'Zas'
'ZV'
'ZE_'
'Yu'
'Wh'
'Wat'
'Wal'
'Vše'
'Víte_'
'Vyz'
'Vysok'
'Vyd'
'Vst'
'Vra'
'Vr'
'Vol'
'Voda'
'Vl'
'Vis'
'View'
'Veri'
'Velká_'
'Velikost_'
'Var'
'Valent'
'Uz'
'Upl'
'Umí'
'Ukrajinu_'
'Ud'
'Uci'
'URL_'
'UH'
'Typ'
'Tube'
'Tor'
'Ton'
'Tom_'
'Tom'
'Tis'
'Thajsk'
'Takov'
'TV'
'TR_'
'TM'
'TI_'
'Sýrie_'
'Sá'
'Syn'
'Studie'
'Strana_'
'Stra'
'Sti'
'Stat'
'Spole'
'Spojene_'
'Spojen'
'Spe'
'Soubor'
'Snap'
'Slov'
'Skype_'
'Sko'
'Sing'
'She'
'Sh'
'Sel'
'Scr'
'Sar'
'Samo'
'SO'
'SM'
'SI_'
'SEAT_'
'SA_'
'S2_'
'Rov'
'Ros'
'Roll'
'Riz'
'Rev'
'Reg'
'Rec'
'ROC'
'RF_'
'Připrav'
'Protoze_'
'Poř'
'Poté_'
'Port'
'Popis_'
'Pon'
'Pomoc'
'Polsku_'
'Polsk'
'Podm'
'Pla'
'Pin'
'Pil'
'Phil'
'Petro'
'Patr'
'Pat'
'Park_'
'Pal'
'PR'
'Oz'
'Ov'
'Ost'
'Oprav'
'Opera'
'Op'
'Office_'
'OS'
'Německo_'
'NĚ'
'Název_'
'Nové_'
'Nikdo_'
'Nezapomeňte_'
'Neo'
'Nemá'
'Nemeck'
'Nejprve_'
'Nejlepsi_'
'Nechc'
'Narozen'
'Name_'
'Naj'
'NT'
'NS'
'Měl_'
'Mě'
'Místo_'
'Mysl'
'Muž_'
'Musíme_'
'Music_'
'Musi'
'Multi'
'Moz'
'Mov'
'Mnozí_'
'Mit'
'Mist'
'Mess'
'Medic'
'Mc'
'May'
'Materiál'
'Master'
'Mars'
'Mame_'
'Mají_'
'Magist'
'MS_'
'Link'
'Lim'
'Leon'
'Lan'
'Krista_'
'Komple'
'Ke'
'Kdy_'
'Kazdy_'
'Kaza'
'Kam'
'Kal'
'Johnson_'
'John'
'Jel'
'Jednou_'
'Jedna_'
'Jd'
'Java'
'Jas'
'Japonsko_'
'Jan_'
'Izrael'
'Ivan'
'Itálii_'
'Italia'
'Irsk'
'Internet_'
'Insta'
'Inc_'
'Imp'
'IV'
'IS_'
'ISO_'
'INT'
'ID'
'Hy'
'Hrá'
'Hledá'
'Hlavn'
'HL'
'Gol'
'Gla'
'Gam'
'GT'
'GS'
'GH'
'GA'
'Fun'
'Foto'
'Fil'
'Far'
'FSX_'
'FE'
'FC_'
'Extr'
'Ep'
'Energ'
'Elektro'
'EV'
'ELE'
'Děti_'
'Druh'
'Dost'
'Dos'
'Dop'
'Dobrý_'
'Dia'
'Des'
'Den_'
'Den'
'Day'
'Dat'
'DU'
'DN_'
'DN'
'DE_'
'Com'
'Chla'
'Chceme_'
'Ces'
'Center_'
'Cast'
'Cal'
'CH_'
'CC'
'Bělorusk'
'Buh_'
'Bru'
'Británii_'
'Britsk'
'Boží_'
'Blo'
'Bl'
'Bez'
'Bel'
'Barcelona_'
'BS'
'BL'
'BE'
'Avšak_'
'Australie_'
'Ass'
'Ari'
'Arab'
'Aplikace_'
'Aplik'
'Anal'
'Amerik'
'Americe_'
'Al_'
'Ag'
'Adam'
'AI'
'ACE_'
'99'
'92'
'81'
'65'
'61'
'59'
'58'
'49'
'28'
'26'
'250'
'240_'
'1993_'
'1987_'
'1984_'
'1979_'
'1918_'
'186'
'180'
'160'
'130'
'110_'
'102'
'09'
'...'
'. ... ['
', (_'
') .'
'# _'
'")'
' →_'
' ° _'
' $'
' # _'
' " _'
'�'
'← _'
'… [+] _'
'„'
'”'
'“ (_'
'“ '
'‘ _'
'їн'
'їд_'
'ішо'
'іц'
'іту'
'іти'
'італійськ'
'італі'
'істотн'
'іспит'
'існуюч'
'існувати_'
'існи'
'ірно_'
'іпо'
'ініці'
'інформаційн'
'інформаці'
'інтернет'
'інтерв_'
'інтенсивн'
'інтегр'
'інсти'
'інозем'
'інно'
'інк'
'інженерн'
'індикатор'
'індивідуально'
'інгредієнти_'
'інг_'
'інвестицій'
'інвалід'
'іна'
'ільш'
'іин'
'ізм_'
'із'
'іжн'
'іді'
'іду'
'ідентифіку'
'іденти'
'ігр'
'івськ'
'іат'
'єс'
'єрн'
'єкта'
'єднаних_'
'єдн'
'європеиськ'
'яю'
'ятницю_'
'ятає'
'яст'
'япон'
'яни'
'яна_'
'язу'
'язків_'
'язи_'
'ягнути'
'яга'
'являються_'
'яв_'
'яблу'
'юю'
'ючого_'
'юч'
'ютерів_'
'ютері_'
'ютерн'
'юридичних_'
'юні'
'юди_'
'юд'
'ювальн'
'юб'
'ьф'
'ьної_'
'ькі'
'ького_'
'щу_'
'щод'
'щит'
'щик'
'щенн'
'шоу_'
'шник'
'шланг'
'школ'
'шкоди_'
'шки_'
'шка'
'шись_'
'широко_'
'широки'
'ший_'
'швидкість_'
'шве'
'шахт'
'шампун'
'чів_'
'чуттєв'
'чутливі'
'чудови'
'чуд'
'чорн'
'чні'
'чни'
'членства_'
'члени_'
'член_'
'член'
'чити_'
'чистот'
'чинн'
'чик'
'чив'
'четверто'
'червні_'
'чені_'
'чаю'
'частк'
'чаин'
'цінність_'
'цінності_'
'цінностей_'
'цінно'
'цільн'
'ціин'
'цях_'
'цько'
'цук'
'цо'
'цифрових_'
'цип'
'цз'
'цар'
'хів_'
'худ'
'хронічни'
'християн'
'хор'
'хн'
'хлопця'
'хвори'
'характерн'
'характеристик'
'хаи'
'фіка'
'фізики_'
'функцій_'
'функціи_'
'французьки'
'фран'
'фраз'
'фотографіі_'
'фон_'
'фо'
'флорист_'
'феном'
'факту'
'факторів_'
'фактично_'
'факс'
'файлу_'
'фаили_'
'фаил_'
'фа_'
'уявля'
'ушен'
'утт'
'утриму'
'усім_'
'усунути_'
'успіх_'
'ускладнен'
'уск'
'усвідомлення_'
'ури_'
'урахуванням_'
'уражен'
'упов'
'упереджен'
'упаковк'
'унікальним'
'уникнути_'
'ума'
'улярн'
'ультат'
'ульс'
'ули_'
'українсько'
'уите_'
'узгоджен'
'увімкн'
'увійш'
'уві'
'увач'
'убл'
'тін'
'тям_'
'тяжк'
'тютюн'
'тує_'
'турнір'
'туристичн'
'турбу'
'ттям'
'тс'
'трій'
'труднощ'
'тримати_'
'транспортних_'
'транспо'
'траг'
'тощо_'
'точніст'
'точно'
'точка'
'топо'
'том'
'тови'
'товариства_'
'тно'
'тко'
'тканин'
'тисяч'
'тимчасово_'
'тим'
'тец'
'технічн'
'термін'
'територія'
'тера_'
'тепло'
'теорії_'
'теорію_'
'тен'
'температур'
'тема_'
'телебачення_'
'тексту_'
'твої'
'твердо'
'таємниц'
'тариф'
'талі'
'тальн'
'такі'
'таи'
'таж'
'сін'
'сімейн'
'сільського'
'сьогоднішн'
'сцен'
'східно'
'схож'
'сховищ'
'схвал'
'сучасні_'
'сучасної_'
'сут'
'супутников'
'супроводжує'
'супровод'
'сумісн'
'сумніва'
'судн'
'суб_'
'суб'
'стін_'
'сті'
'стями_'
'стя'
'студент'
'струм'
'структуру_'
'структур'
'стриб'
'стороні_'
'сторонні_'
'стимул'
'стилі_'
'стилю_'
'стик'
'стеи_'
'стежити_'
'створюють_'
'створю'
'створена_'
'старі'
'станції_'
'станом_'
'становлять_'
'станови'
'станеться_'
'стабільн'
'спільні'
'спільни'
'співачк'
'співа'
'сприйма'
'справу_'
'справжн'
'справах_'
'спостереження_'
'способ'
'спортсмен'
'спок'
'спожи'
'спогад'
'сплат'
'спл'
'спиртн'
'спеціалізован'
'специфічн'
'соці'
'сотні_'
'сонячн'
'сонце'
'солдат'
'сні'
'сне'
'сн'
'смо'
'смертн'
'слі'
'службов'
'слабк'
'скороч'
'скоро_'
'складні_'
'складно_'
'склад_'
'скл'
'скасувати_'
'скар'
'ск_'
'ситуація_'
'ситуаці'
'систему_'
'сирійськ'
'сиро'
'синг'
'символі'
'силою_'
'сигнал'
'серіі_'
'сертифікат'
'серпні_'
'середні'
'середнього_'
'середньо'
'сенс_'
'секунд_'
'сектор'
'сексуально'
'сексу'
'секретн'
'се_'
'світи'
'своє'
'свободи_'
'сар'
'самостійно_'
'самоо'
'самому_'
'самих_'
'самий_'
'сала'
'сайти_'
'річни'
'річк'
'різноманітні_'
'різноманітни'
'різко_'
'рідкісни'
'рідини_'
'рів'
'ряду_'
'рш'
'рх'
'руктур'
'рука_'
'рук'
'рублів_'
'рто'
'рота_'
'росіян_'
'рон_'
'розш'
'розумієте_'
'розумію_'
'розуміти_'
'розумни'
'розумн'
'розташування_'
'розріз'
'розроби'
'розпоч'
'розміщені_'
'розмірі_'
'розмовля'
'розклад'
'розділі_'
'розділи'
'розгор'
'розглядається_'
'розгляд'
'розвинен'
'розва'
'рож'
'роду_'
'родини_'
'рно'
'рна'
'ричн'
'ринк'
'рид'
'риг'
'реєстраці'
'реч'
'ресурси_'
'ресторані'
'реп'
'рекламно'
'рекламни'
'рейтинг'
'рейс_'
'режиму_'
'редак'
'регіоні_'
'регіональни'
'рев'
'реальному_'
'реального_'
'рац'
'рал'
'рако'
'радіо_'
'радикал'
'пішов_'
'пішли_'
'піш'
'пізн'
'підій'
'підібра'
'підтриму'
'підтримка_'
'підтверджен'
'підсумк'
'підставі_'
'підстав'
'підприєм'
'підозр'
'підніма'
'підлітков'
'підлоги_'
'підкресли'
'підкл'
'підві'
'північн'
'південь_'
'пут'
'пуль'
'пружн'
'проц'
'проходи'
'професіонал'
'проф'
'протилежн'
'просування_'
'простір_'
'прости'
'пропуска'
'пропо'
'промислови'
'прол'
'пройти_'
'продуктивн'
'продовжує_'
'продажів_'
'прогресу'
'програмах_'
'прогноз'
'проб'
'приєднання_'
'прихильн'
'прит'
'пристос'
'принципів_'
'принц'
'прил'
'прикрас'
'прийшов_'
'приима'
'прии'
'призначені_'
'призвел'
'придбан'
'приватно'
'приватн'
'привабливи'
'прест'
'препаратів_'
'президента_'
'представи'
'працівни'
'працюємо_'
'працювали_'
'прапор'
'практични'
'практика_'
'практи'
'прагне'
'правда_'
'поїздк'
'поштов'
'пош'
'початківців_'
'поча'
'поч'
'потужні'
'потужни'
'потенці'
'посі'
'посуд'
'постійни'
'пості'
'поступ'
'поспіш'
'послугами_'
'послу'
'посилю'
'посила'
'посаду_'
'порівнянн'
'порядок_'
'порці'
'популярно'
'популярних_'
'популярни'
'попрос'
'попередньо_'
'попередньо'
'понеділок_'
'помнож'
'політик'
'поліпшення_'
'польот'
'положенн'
'половина_'
'покращу'
'покаж'
'позиції_'
'позитивни'
'поет'
'подія_'
'поділяють'
'подібни'
'подума'
'подр'
'подорожі_'
'подорожу'
'подальш'
'погоди'
'погляд_'
'погляд'
'погани'
'поган'
'пог'
'повідомленні_'
'повна_'
'повертається_'
'повертаю'
'повернути_'
'пован'
'побічні_'
'побудува'
'поблизу_'
'плодів_'
'племен'
'плати'
'плата_'
'плат'
'пласти'
'плану_'
'плану'
'плава'
'пише_'
'питанням'
'письменни'
'період'
'перш'
'перешкоджа'
'перетворюється_'
'перерва'
'перерахован'
'перемі'
'переми'
'переконан'
'передов'
'перегляда'
'перег'
'перевезення_'
'перев'
'перебувають_'
'перв'
'пед'
'певн'
'партія_'
'палива_'
'пакет_'
'очікуван'
'очо'
'очищення_'
'очищ'
'очеи_'
'оча'
'оцінка_'
'охо'
'оф'
'оту_'
'отримували_'
'отримає_'
'оти'
'остаточно'
'особливості_'
'особистого_'
'основу_'
'основному_'
'освітн'
'оря'
'ори'
'оренд'
'орд'
'організован'
'орган_'
'опти'
'описан'
'оператора_'
'оператор_'
'опер'
'опат'
'онс'
'онат'
'олод'
'окі'
'округ'
'окрем'
'ожн'
'оді_'
'одягу_'
'одя'
'оголо'
'ого'
'ог'
'овськ'
'ово_'
'овлення_'
'ови_'
'овані'
'ованої_'
'овано'
'ова'
'обід'
'обіг'
'обробк'
'обран'
'обліковий_'
'обидва_'
'оберіть_'
'оберта'
'обговорити_'
'обго'
'оба'
'нічим_'
'ніть_'
'німецько'
'нян'
'нула_'
'нормам'
'нормальн'
'новим_'
'нова'
'нко'
'ницьк'
'нит'
'ником_'
'нещас'
'нетр'
'нерв'
'неп'
'нео'
'неможлив'
'немовля_'
'нел'
'нейро'
'незначн'
'незалежно'
'незалежни'
'незалежн'
'неділ'
'негативн'
'нега'
'невда'
'небезпечни'
'наявність_'
'наявн'
'нащ'
'нашіи_'
'національн'
'нафт'
'науково'
'натуральни'
'нат'
'наступних_'
'настан'
'насолоджу'
'насичен'
'насильств'
'насел'
'нарі'
'народо'
'напрямк'
'направл'
'напол'
'намір_'
'намір'
'належно'
'найчастіше_'
'найн'
'найвищи'
'наикращ'
'наибільш'
'назива'
'назавжди_'
'надійн'
'надсила'
'надається_'
'надалі_'
'нагород'
'навчальн'
'навколишні'
'набір_'
'місії_'
'міститься_'
'містечк'
'мірі_'
'мільйони_'
'мільион'
'міжнародні_'
'міжнародної_'
'міжнародно_'
'міжнародно'
'міжнародна_'
'між'
'мід'
'міграці'
'музику_'
'музики_'
'мудрість_'
'мотоцикл'
'мось_'
'морі_'
'морсько'
'море'
'моно'
'моменти_'
'молодих_'
'молоди'
'молод'
'мозок_'
'мові_'
'мовн'
'мовлення_'
'мні'
'мна'
'млрд_'
'миш'
'мил'
'метод'
'мети_'
'мереже'
'меню_'
'медицині_'
'має'
'мато'
'математик'
'масово'
'маск'
'маркетинг'
'мап'
'мам'
'маленькі_'
'макіяж'
'максимальн'
'майстер_'
'майбутнього_'
'магазина'
'мабуть_'
'ліцензі'
'літр'
'літак_'
'ліст'
'ліс_'
'лікарні_'
'лів'
'лятор'
'ляр'
'лютого_'
'люд'
'люблю_'
'любител'
'люб'
'льп'
'льнии_'
'лух'
'лс'
'лот'
'лок'
'ллі'
'листів_'
'листа_'
'лиз'
'ливості_'
'ливе_'
'лети'
'ленн'
'лени'
'легш'
'легенда'
'лась_'
'лади'
'кінцево'
'кіно_'
'кімнату_'
'кіль'
'кілометр'
'культ'
'куль'
'кування_'
'кти'
'ксі'
'кругл'
'кру'
'критичн'
'критик'
'кредит'
'креати'
'краіна_'
'кращі_'
'кращого_'
'красиво'
'крап'
'крад'
'коштів_'
'короб'
'користування_'
'корисні_'
'корисний_'
'кори'
'кораблі'
'кора'
'копіювання_'
'конкретного_'
'конкретно'
'конкретни'
'комплекс'
'компетенці'
'компанію_'
'компактн'
'комбін'
'коледж_'
'кожній_'
'кожні_'
'кових_'
'книга'
'клімат'
'ключові_'
'кло'
'кли'
'кле'
'клас'
'клавіш'
'кишен'
'киш'
'кита'
'керівництво_'
'керувати_'
'кер_'
'кел'
'квітня_'
'квиток_'
'кви'
'кваліфікован'
'кв'
'категорії_'
'катало'
'картопл'
'капітал'
'каналі'
'каналу_'
'кампані'
'камен'
'кам'
'казал'
'кад'
'кави_'
'йш'
'йного_'
'йдер'
'ище'
'иф'
'итись_'
'ите'
'исти'
'иска'
'иса'
'иом'
'иних_'
'ине'
'инами_'
'имо'
'или'
'илас'
'иди'
'иден'
'ивни'
'зігра'
'зустріти_'
'зусиль_'
'зручно'
'зрос'
'зроблено_'
'зробили_'
'зово'
'зовні'
'зован'
'зов'
'зно'
'знизи'
'знижк'
'значні_'
'значні'
'знаменито'
'знак_'
'знак'
'знайом'
'знайдете_'
'знайден'
'знаиде'
'зміна_'
'змін'
'зму_'
'зморшок_'
'зможемо_'
'змов'
'зменшує'
'злив'
'зити_'
'зер'
'зелені_'
'здо'
'згу'
'зві'
'звод'
'звичн'
'звичаин'
'зверта'
'звернути_'
'зверну'
'збільшен'
'зброєю_'
'збор'
'збережен'
'заявили_'
'заш'
'західно'
'захо'
'захищен'
'захищати_'
'зах'
'зате'
'засідання_'
'заста'
'засн'
'зарплат'
'заробіт'
'запропону'
'запропоновано'
'запит'
'заперечу'
'запас'
'замисл'
'залишити_'
'залиш'
'залежно_'
'залеж'
'зал_'
'закінчен'
'заку'
'закрит'
'займає_'
'заинят'
'заи'
'зазнача'
'заздалегідь_'
'задума'
'загальні'
'завоюва'
'завершен'
'завда'
'зава'
'заборонен'
'забо'
'жіть_'
'жінкам'
'жче_'
'жорсток'
'жовт'
'жні'
'жна_'
'життям_'
'жителів_'
'жителі_'
'жил'
'жер'
'жат'
'жал'
'ец'
'ефекту_'
'ефективність_'
'ефективні'
'ету_'
'естр'
'есен'
'ерти'
'ереж'
'ерг'
'ерат'
'ено'
'ени_'
'енергетик'
'ельни'
'елемент'
'ела_'
'екто'
'екстра'
'економічних_'
'екологічн'
'екологі'
'еко'
'езі'
'езпеч'
'едення_'
'еві_'
'діял'
'дію'
'дітям_'
'дітьми_'
'діть_'
'діисно_'
'дівчинк'
'діагноз_'
'дя_'
'дюйм'
'дь'
'духовн'
'дурн'
'думати_'
'думав_'
'друго'
'доч'
'досяг'
'доступни'
'доставк'
'досвідчен'
'досвідом_'
'дорозі_'
'дорогоцінн'
'допомогл'
'домін'
'долі'
'долар_'
'док'
'дозволил'
'дозволен'
'дозвол'
'додатків_'
'довіря'
'довіру_'
'довіри'
'довше_'
'доводиться_'
'довелося_'
'дове'
'довгостроков'
'довг'
'дл'
'дко'
'дитин'
'дисциплін'
'директор'
'дизайнер'
'дивитися_'
'джерело_'
'дж_'
'деякими_'
'детальн'
'десять_'
'десяти'
'десят'
'державни'
'депресії_'
'депозит'
'демі'
'декоративн'
'дво'
'даю'
'дах_'
'даному_'
'дали_'
'давн'
'гірше_'
'гіперт'
'гідн'
'гул'
'громадян_'
'громадських_'
'гро'
'гри'
'готелів_'
'гори_'
'голос_'
'головно'
'голк'
'годин'
'говорили_'
'говорил'
'говори'
'гов'
'гне'
'глобальної_'
'глоб'
'глибоки'
'геометр'
'гати_'
'гарантує_'
'гаранту'
'гант'
'галуз'
'газов'
'гада'
'вічн'
'вірусн'
'вірни'
'віри_'
'вільний_'
'військових_'
'віиськово'
'віиськ'
'віді'
'відш'
'відчутт'
'відчува'
'відхил'
'відтінку_'
'відсотків_'
'відрізня'
'відре'
'відповіді_'
'відповідні_'
'відношенн'
'відновлює'
'відмінний_'
'відмовля'
'відмови'
'відкл'
'відзна'
'відділу_'
'відвіду'
'відвіда'
'відб'
'вів'
'вчо'
'вчитися_'
'вч'
'вці_'
'вул'
'втрачає'
'втрач'
'втратили_'
'втоми'
'вськ'
'вступив_'
'встановлені_'
'встановлени'
'встанов'
'всередині_'
'все'
'враз'
'враження_'
'впродовж_'
'вправи_'
'впли'
'впал'
'воі_'
'ворогів_'
'воро'
'володі'
'водя'
'вня'
'вню'
'внаслідок_'
'влаштува'
'властивості_'
'властив'
'власни'
'вко'
'виявляється_'
'виявил'
'виходи'
'витрача'
'виступа'
'виступ'
'вист'
'високого_'
'виру'
'вирощува'
'виробничи'
'виробнич'
'виробника'
'випуск'
'випадки_'
'виноград'
'виникають_'
'вини_'
'винах'
'вимагають_'
'вимага'
'використовуєте_'
'використанні_'
'виконанні_'
'викликал'
'викид'
'вик'
'вийшл'
'вийти_'
'вии_'
'вижи'
'видаля'
'видав'
'вигляд'
'виве'
'вибач'
'взаємо'
'взаємн'
'вересні_'
'величезний_'
'велико'
'веде'
'вдосконалення_'
'вдається_'
'вві'
'ввечері_'
'вве'
'ваєт'
'ваш'
'вач_'
'вані_'
'ванні'
'вани'
'валі'
'валют_'
'ваз'
'важко'
'важ'
'вагітність_'
'вався_'
'біологічн'
'бібліотеки_'
'біблі'
'бюджету_'
'бун'
'буль'
'будучи_'
'бренду_'
'брати_'
'бракує_'
'бої'
'боя'
'борту_'
'борг'
'болю_'
'бод'
'бля'
'блондинк'
'битв'
'бит'
'беруть_'
'бен'
'безпо'
'бачу_'
'банківськ'
'банк'
'бакалавра_'
'бай'
'багати'
'бабус'
'аї'
'аф'
'аут'
'аудіо_'
'аторі'
'атор_'
'атим'
'атив'
'атаку'
'артеріальн'
'аро'
'арг'
'арбітр'
'ао'
'анті'
'антн'
'ансі'
'англіиськоі_'
'аналогічн'
'амов'
'амо'
'американські_'
'ам'
'ально_'
'альн'
'альбом_'
'алкогол'
'алергії_'
'аксесуари_'
'акс'
'акр'
'азіатськ'
'азов'
'адреса_'
'ади'
'агу'
'аго'
'автор_'
'авк'
'аборт'
'Японі'
'Яко'
'Юр'
'ЮТЬ_'
'Швеці'
'ШЕ_'
'Чудов'
'Чорн'
'Чо'
'Часто_'
'ЧО'
'Це'
'Хочете_'
'Хоч'
'Хан'
'Філь'
'Форм'
'Федераці'
'ФЕ'
'Тро'
'Тон'
'Технічн'
'Тем'
'Тан'
'Таки'
'ТО_'
'ТБ_'
'ТІ_'
'Сходу_'
'Сті'
'Створення_'
'Стаття_'
'Стат'
'Старо'
'Стандарт'
'Ст'
'Спіл'
'Справ'
'Спеціальн'
'Спа'
'Сн'
'Слов'
'Сирі'
'Сил'
'Середн'
'Серб'
'Світов'
'Сам_'
'СТР'
'СК'
'Рішення_'
'Рівень_'
'Росію_'
'Росі'
'Розроб'
'Розм'
'Рес'
'РН'
'Північно'
'Пів'
'Путін'
'Протокол'
'Пром'
'Програми_'
'Програм'
'Приєдн'
'Привіт_'
'Президент_'
'Праг'
'Пр'
'Порт'
'Політ'
'Покращ'
'Подорож'
'Подив'
'Повідомлення_'
'Пові'
'Плю'
'Пла'
'Пл'
'Питання_'
'Перше_'
'Пен'
'Пала'
'Оф'
'Остр'
'Оста'
'Особливо'
'Особист'
'Основн'
'Освіт'
'Ом'
'Ок'
'Одним_'
'Одн'
'ОЖ'
'ОЇ_'
'Ни'
'Нес'
'Нед'
'Наше_'
'Нат'
'Нарешті_'
'Нар'
'Напе'
'Налаштування_'
'Наді'
'НЯ'
'НУ_'
'НН'
'НЕ'
'Місцев'
'Міжнароднии_'
'Муз'
'Мож'
'Мел'
'Мама_'
'Мало'
'Макс'
'Майстер_'
'Ліс'
'Лист'
'Лесбіянка_'
'Лесбі'
'ЛЯ'
'ЛО_'
'ЛА_'
'Курс_'
'Кур'
'Кріс'
'Кро'
'Крас'
'Корея_'
'Конф'
'Комі'
'Кому'
'Коле'
'Клієнт'
'Кле'
'Кла'
'Києв'
'Китаю_'
'Кита'
'Квит'
'Кас'
'Канад'
'Кана'
'КОН'
'КОМ'
'Йорк'
'ИХ_'
'Зу'
'Зріла_'
'Зни'
'Зміни'
'Зло'
'Земля_'
'Зелен'
'Зе'
'Здається_'
'Зд'
'Звід'
'Звичаино_'
'Замов'
'Залиш'
'Заг'
'Жу'
'Жит'
'Жив'
'Же'
'ЖЕН'
'Еле'
'Ев'
'ЕК'
'Дівчина_'
'Думаю_'
'Дуб'
'Друга_'
'Друг'
'Дост'
'Дослідження_'
'Домашн'
'Долар_'
'Договір'
'Дог'
'Джон'
'Дар'
'ДР'
'Гітлер'
'Гуанчжоу_'
'Греції_'
'Готелі_'
'Гот'
'Гон'
'Голо'
'Гол'
'Го'
'Він'
'Візьміть_'
'Відкрит'
'Всі'
'Всього_'
'Використову'
'Викл'
'Вибір_'
'Великобританіі_'
'Вважа'
'Ваші_'
'Ваши'
'ВНИ'
'Білявка_'
'Біло'
'Брю'
'Бре'
'Болгарі'
'Би'
'Берлін'
'Батько_'
'Батьк'
'Барселон'
'Банг'
'Анал_'
'Америці_'
'Ама'
'Ай'
'Азії_'
'Австралії_'
'АТИ_'
'АМ'
'Іспанії_'
'Іспанськ'
'Ір'
'Інтер'
'Інструмент'
'Імп'
'Іг'
'Івана_'
'ІСТ'
'ІЗ'
'Єрусалим'
'Єгипт'
'Європеиськ'
'Європа_'
'žádost'
'žádné'
'životního_'
'žens'
'ženou_'
'želez'
'žel'
'Žen'
'ůz'
'Ů_'
'ťte_'
'ťa'
'šťastně'
'šť_'
'šť'
'šíř'
'šá'
'štěn'
'špinav'
'špatně_'
'šl'
'širší'
'široko'
'šet'
'šesti_'
'šance_'
'Švýcarsk'
'Šp'
'Ša'
'říš'
'řízen'
'řídit_'
'řuj'
'řství_'
'řk'
'řil'
'řečeno_'
'řeky_'
'ředu_'
'ředn'
'ředitel'
'řadě_'
'Řekn'
'Řecko_'
'ňské'
'ňk'
'ěn_'
'ělo'
'ěle'
'ěla'
'ěk_'
'ěho'
'ědomí_'
'částe'
'čár'
'čt'
'čný_'
'čné_'
'články_'
'člensk'
'členem_'
'čko'
'čk'
'čištění_'
'česk'
'čerpa'
'čer'
'čejn'
'čat'
'čast'
'časov'
'Číny_'
'Čt'
'Čo'
'Čl'
'ýšl'
'ývají'
'ü'
'úžasné'
'účinnost'
'účink'
'účetní_'
'účel'
'účast_'
'úplné_'
'úm'
'úlo'
'údržba_'
'íže'
'ítá'
'íti'
'íst_'
'írov'
'ína_'
'ímá'
'íb'
'éria_'
'éh'
'ářsk'
'ář'
'ázk'
'átky_'
'áti'
'áte'
'ánu_'
'áni'
'áln'
'álem_'
'ále'
'ála_'
'áje'
'áhl'
'ádá_'
'ád_'
'ácn'
'ác'
'Ý'
'Úvodní_'
'Ús'
'Írán'
'» - _'
'® _'
'zřídka_'
'zřejm'
'získáte_'
'získá'
'získali_'
'získal'
'zé'
'zážit'
'závod'
'závazk'
'zásady_'
'záruk'
'zápor'
'zápas_'
'zákonů_'
'zákazník'
'zákaznick'
'zájmu_'
'zájm'
'záchran'
'zy'
'zvýšené_'
'zvý'
'zvířat_'
'zvuky_'
'zvuk_'
'zvláštn'
'zvl'
'zubní_'
'zub'
'ztráta_'
'ztrát'
'ztracen'
'zranění_'
'zrak'
'zpátky_'
'zpusobi'
'zpev'
'zobrazuj'
'zobrazen'
'znu'
'značky_'
'značk'
'znat_'
'znamy'
'znamení_'
'zn'
'změnil'
'změn'
'zmin'
'zkusen'
'zkrac'
'zkoumán'
'zjiš'
'zjistili_'
'zjist'
'zje'
'zivotni'
'zite'
'zim'
'zie_'
'zet'
'zeptal_'
'zept'
'zene'
'zemřel'
'zelený'
'zelené_'
'zelen'
'zel'
'zek_'
'zdů'
'zdroj'
'zdravo'
'zbytk'
'zby'
'začali_'
'zaznamenal'
'zavaz'
'zatížení_'
'zastáv'
'zastavení_'
'zasah'
'zaregistrov'
'zare'
'zapo'
'zaplat'
'zapadni_'
'zaměř'
'zaměstnání_'
'zaměstn'
'zamysle'
'založena_'
'zakaznik'
'zajímá_'
'zajímavý'
'zajistit_'
'zajist'
'zajem_'
'zahájil'
'zahranicni'
'zadní'
'zachyc'
'zacal_'
'yer_'
'yce'
'yan'
'xy'
'xu'
'xis'
'xik'
'xa'
'work'
'wor'
'wo'
'win'
'wh'
'wer_'
'well_'
'vždycky_'
'všeobecn'
'všec'
'věř'
'větš'
'věnuj'
'vědom'
'vě_'
'výživ'
'výzkumných_'
'vývoz'
'vývoje_'
'výslovn'
'výr'
'výpo'
'výd'
'výbor'
'víno_'
'vína_'
'vány_'
'válečn'
'vzork'
'vzor'
'vznikla_'
'vznikl'
'vznik_'
'vzk'
'vzduchu_'
'vzdu'
'vyř'
'vyznamne_'
'vyzkumnych_'
'vyzkoušet_'
'vyzkouse'
'vyzad'
'vyvr'
'vyviji_'
'využívání_'
'vytvoril'
'vyta'
'vysílání_'
'vysí'
'vysvětli'
'vysoká_'
'vyslan'
'vyroby_'
'vyrobni'
'vyrobky_'
'vypra'
'vypada'
'vykl'
'vyk'
'vyhrál'
'vyhra'
'vyhledávání_'
'vyděla'
'vydela'
'vychod'
'vybudovat_'
'vybr'
'vtip'
'vstupu_'
'vstupenky_'
'vstoupit_'
'vst'
'vrátil'
'vrstv'
'vratit_'
'vov'
'vost_'
'volne'
'voleb'
'volbou_'
'volba_'
'vojenské_'
'vodě_'
'vodot'
'vnější_'
'vníma'
'vnitrni_'
'vnat'
'vlastním'
'vlastností_'
'vlastnost_'
'vlasov'
'vlakem_'
'vku'
'vitamín'
'vise'
'virtuální'
'videu_'
'vhodne_'
'vezme'
'veskere_'
'velkolep'
'vedoucí_'
'vedou_'
'vaším_'
'vařen'
'vazby_'
'valky_'
'valk'
'užitečný'
'užitečn'
'ušn'
'uše'
'uzivatele_'
'uzivatel'
'uzite'
'uzdrav'
'uve'
'uter'
'ute'
'ustr'
'uspokoj'
'určit_'
'určit'
'určen_'
'urychl'
'uru_'
'urovni_'
'upn'
'uo'
'umělec'
'umělc'
'umístění_'
'umozni'
'umist'
'umeni_'
'uloz'
'uli_'
'ukl'
'ujistěte_'
'uděle'
'udy'
'ucini'
'ubn'
'těš'
'tělesn'
'tým'
'týká_'
'týkající_'
'táv'
'tyč'
'tym'
'tyka'
'tvůr'
'tvůj_'
'tuku_'
'tuk'
'tter'
'trž'
'trénink'
'trvání_'
'trva_'
'trubky_'
'tru'
'trpěl'
'trik'
'trid'
'tribu'
'tren'
'transformace_'
'trakt'
'tradice_'
'tra_'
'touhu_'
'touha_'
'top_'
'tonu_'
'tol'
'tné'
'tnam'
'tlacitko_'
'tkán'
'tka_'
'tivni_'
'titule'
'tisíc'
'tipy_'
'tion'
'tina_'
'tika_'
'tický'
'ticky'
'ther'
'tečn'
'tezke_'
'testy_'
'testosteronu_'
'teroristick'
'tero'
'termin'
'term'
'teple'
'tep'
'tenhle_'
'temp'
'temn'
'tels'
'televizní_'
'televizn'
'televizi_'
'technologick'
'technicky'
'tebo'
'tebe_'
'tch_'
'tale'
'takovy_'
'tac'
'sť'
'sítí_'
'syrsk'
'synov'
'syna_'
'syn_'
'symbolizuj'
'swi'
'světu_'
'světový'
'světl'
'svědk'
'svěd'
'svě'
'svymi_'
'svetov'
'svemu_'
'sus'
'sur'
'stří'
'styk'
'stvím_'
'stvoř'
'stupni_'
'studií_'
'studiu_'
'struktury_'
'strukturu_'
'stres_'
'stras'
'stranek_'
'strach'
'str_'
'stoji_'
'stit_'
'steroid'
'stejné'
'stačí_'
'stavební_'
'stava_'
'statistik'
'starověk'
'standard_'
'stahova'
'stadi'
'stabil'
'sro'
'spravn'
'spravedlnost'
'sport'
'spoluprac'
'společnost'
'společn'
'společenské_'
'spokojenost'
'spokojeni_'
'spojenc'
'spodni_'
'spisovatel'
'sperm'
'speciální'
'span'
'soutez'
'soust'
'soukromé'
'souhlasí'
'souh'
'soucasne_'
'soft'
'sobe_'
'snů_'
'snížení_'
'snižuje_'
'snizuj'
'snim'
'sne_'
'snazil_'
'směrnic'
'smysln'
'smu_'
'smrteln'
'smrt_'
'smluv'
'sluch'
'slož'
'sloze'
'slovy_'
'slovn'
'slo_'
'sleduje_'
'sledova'
'skými_'
'skvel'
'skutecnost_'
'skupině_'
'skola'
'sklep'
'sklenici_'
'skeho_'
'sis_'
'silnice_'
'silne_'
'sil'
'shromazd'
'shr'
'sez'
'setr'
'servis_'
'servi'
'semestr'
'semen'
'sem'
'sekc'
'sek_'
'sedadl'
'schůz'
'schválen'
'schuzk'
'sbir'
'sav'
'satelitu_'
'sat_'
'samo_'
'růžov'
'růž'
'různými_'
'rám'
'rá_'
'ryt'
'rys'
'ryba'
'ruských_'
'ruske_'
'ruko'
'ruk'
'ruch'
'ruc'
'rozvije'
'roztomil'
'roztok'
'rozhodnuti_'
'rozhodla_'
'rozhodl_'
'rozdil_'
'rovná'
'roste_'
'roman'
'roma'
'roi'
'roe'
'rodičů_'
'rocn'
'rna'
'rijn'
'ridi'
'rezis'
'rez'
'res_'
'republik'
'reli'
'regula'
'red_'
'red'
'recykl'
'receno_'
'reb'
'realizaci_'
'realita_'
'reali'
'real'
'razn'
'rato'
'rani_'
'rand'
'ral_'
'qu'
'působi'
'působ'
'půjč'
'pů'
'přízniv'
'přít'
'přístupné_'
'případn'
'příjemn'
'příběh'
'přič'
'přispív'
'připravit_'
'přine'
'přijímán'
'přida'
'přesta'
'přemýšle'
'přej'
'předán'
'představují_'
'předsed'
'předs'
'předpis'
'přední'
'předn'
'předmětů_'
'předchozí'
'pěn'
'písn'
'písmo_'
'pás'
'pár'
'psů_'
'psycho'
'průzkum_'
'průměru_'
'právní'
'prve'
'pružn'
'provádě'
'proud_'
'prostřed'
'prosl'
'pros'
'pror'
'propagand'
'prol'
'projevuj'
'projektů_'
'programe'
'profil_'
'prodlouzen'
'prodeje_'
'prodal'
'proda'
'probíhá_'
'probe'
'prit'
'pristup'
'prispe'
'prislusny'
'pripravi'
'principy_'
'prijemn'
'prijem_'
'prezidentsk'
'presvedc'
'prenosn'
'premiér'
'prem'
'prej'
'predv'
'predtim_'
'predpov'
'prechod'
'prec'
'pravomoc'
'pravidl'
'prav_'
'pratele_'
'pratel'
'pras'
'pracovni_'
'požadovan'
'poško'
'pořád'
'počítačov'
'počítači_'
'počítač'
'počít'
'poznat'
'pozitivní_'
'pozitivni_'
'pozad'
'poz'
'povolání_'
'povol'
'povinnost_'
'považuje_'
'používan'
'použijte_'
'potřebn'
'potěšení_'
'potvrzuj'
'potrebuje'
'poti'
'potenciál_'
'posíli'
'postupně_'
'poslednich_'
'poslal_'
'poskytova'
'posk'
'posiluje_'
'posilov'
'portál_'
'porovn'
'porodu_'
'poradenství_'
'porade'
'populace_'
'popu'
'popsán'
'poplatek_'
'popis_'
'pomocn'
'pomer'
'pomal'
'pomaha'
'poloz'
'policie_'
'pokyny_'
'pokusu_'
'pokro'
'pokoz'
'poklad'
'podívat_'
'podív'
'podvod'
'podstatn'
'podobě_'
'podobně_'
'podminky_'
'podk'
'podivn'
'podařilo_'
'podava'
'pocity_'
'pocitu_'
'pocita'
'pochyb'
'pochopi'
'plánu_'
'plá'
'plnění_'
'plné_'
'plno'
'ple_'
'play_'
'plati'
'plastov'
'planetě_'
'pick'
'pho'
'pha'
'pevnost_'
'peněz'
'peni'
'patrn'
'parlament'
'parfem'
'parametry_'
'parametr'
'paprs'
'paměť'
'paměti_'
'pameti_'
'paliv'
'pai'
'padl'
'pacient_'
'oše'
'ozu'
'oxid'
'ovšem_'
'ověřen'
'ovym_'
'ovsk'
'ovláda'
'ovlivň'
'ovač'
'ovaného_'
'ovane_'
'oup'
'oun'
'oucích_'
'otevr'
'osvoboz'
'ostmi_'
'ostech_'
'ostatními_'
'osl'
'orov'
'orgány_'
'organism'
'organick'
'org_'
'ore'
'ora'
'opustil_'
'opu'
'opravit_'
'opatrn'
'opatreni'
'opakov'
'okraj'
'okna_'
'ok_'
'oji'
'oid'
'ohně'
'ohledne_'
'ografie_'
'oficiální'
'off'
'odvetvi'
'odv'
'odu_'
'odt'
'odsta'
'odraz'
'odpuštění_'
'odpov'
'odolnost_'
'odoln'
'odmit'
'odlo'
'odlišné_'
'odil'
'odesl'
'ode_'
'odch'
'ochrann'
'ocen'
'ocelov'
'obě'
'občanů_'
'obvykl'
'obv'
'obtížn'
'obsahují_'
'obrázků_'
'obrázky_'
'obrát'
'obrovské_'
'obraz'
'obnovuje_'
'oblek'
'obklop'
'objevit_'
'objevila_'
'obet'
'obej'
'obecné_'
'obe_'
'obdrz'
'němu_'
'něj'
'níže_'
'ní'
'názor_'
'následujících_'
'násilí_'
'národnost'
'národa_'
'náro'
'nápady_'
'nálad'
'nádrž'
'nádob'
'nác'
'novými_'
'novým_'
'novinář'
'nova'
'nosí'
'nosit_'
'non'
'nohama_'
'nko'
'nitř_'
'nin'
'nil'
'niko'
'nevi'
'neva'
'neuvěřiteln'
'neuv'
'neuro'
'nesta'
'nesp'
'nesna'
'nesmí'
'nesmi'
'nere'
'nepřít'
'nepří'
'neov'
'neobvykl'
'nemo'
'nekom'
'nejste_'
'nejstar'
'nejpr'
'nejpopul'
'nejoblíbenější'
'nejm'
'neje'
'nejdulezitejsi_'
'nejd'
'nej_'
'nedostatky_'
'neda'
'nechte'
'nec'
'nebyly_'
'nebo'
'ndu'
'nazývá'
'nazýva'
'nazvem_'
'nazva'
'navštívil'
'navšt'
'navržen'
'nata'
'nastaven'
'nasem_'
'narodni'
'naro'
'napoj'
'naklada'
'nahrá'
'nahraz'
'naf'
'naději_'
'nabízen'
'nabizi_'
'nabi'
'měřítku_'
'měsí'
'míř'
'musel'
'ms_'
'mp_'
'moč'
'mozk'
'mou_'
'motoru_'
'modrý'
'modrá_'
'modlitb'
'mobilit'
'množ'
'mnoz'
'mlé'
'mluví'
'mluvil_'
'mlade'
'ml'
'mistr_'
'mistn'
'mino'
'mine'
'minc'
'milos'
'milion'
'mick'
'mezinárodn'
'metri'
'metaboli'
'meste_'
'mesic_'
'mesic'
'menšin'
'menstrua'
'mensi'
'menov'
'mechanick'
'mce_'
'mc'
'maximal'
'matu'
'matka_'
'material'
'matematik'
'matek_'
'masa_'
'marketing'
'mark'
'manželk'
'manu'
'mani'
'managementu_'
'mam_'
'malova'
'malb'
'maj'
'magnetické_'
'mad'
'mac'
'lž'
'léčit_'
'léčen'
'léta_'
'lékař_'
'látek_'
'lásku_'
'lásko'
'láska_'
'lá_'
'lyz'
'luxusn'
'los'
'lokální'
'logo_'
'logo'
'lni'
'livý'
'litr'
'liti'
'listi'
'likvidac'
'lie_'
'lidstva_'
'lidske_'
'lick'
'licence_'
'libi'
'lez'
'lex_'
'letý'
'letí_'
'letošní'
'letos'
'letni'
'letad'
'lesk'
'lednu_'
'late'
'laska'
'land_'
'laboratoř'
'kůži_'
'kán'
'květy_'
'květiny_'
'kvuli_'
'kvetin_'
'kvant'
'kvality_'
'kvalifikovan'
'kvalifikac'
'kupo'
'kuchyne_'
'kter'
'krásný'
'krásn'
'krás'
'kroky_'
'kriti'
'krit'
'krevní_'
'kret'
'kresb'
'kre'
'krat'
'krasne'
'kočk'
'kový_'
'kovov'
'kovan'
'koupeln'
'koup'
'kost_'
'kosmo'
'kosmetick'
'kos'
'kopc'
'konzultac'
'kontinent'
'kontakty_'
'kont'
'komplexní_'
'kompletn'
'komp'
'komerční'
'komentáře_'
'komentář'
'kombinova'
'kombin'
'kolo'
'kola'
'koho_'
'kliknut'
'klady_'
'king_'
'kilometr'
'keho_'
'každá_'
'každodenní'
'každ'
'kaš'
'kav'
'kariér'
'kaps'
'kapit'
'kanceláře_'
'kac'
'jóg'
'jízd'
'jídla_'
'já'
'jsich_'
'jne'
'jmenoval'
'jistot'
'jist_'
'jiny_'
'ječ'
'jet'
'jest_'
'jeme_'
'jejím_'
'jejího_'
'jejichž_'
'jeh'
'jednot'
'jedne_'
'jediným_'
'jde'
'jazyka_'
'jat'
'jasné_'
'jas'
'jan'
'jakýkoli'
'jake_'
'jake'
'jaderný'
'izovat_'
'izn'
'izeni_'
'ize_'
'ivě_'
'istu'
'isov'
'ise_'
'ire'
'irat'
'ira_'
'ioná'
'investiční'
'internetových_'
'intern'
'interiér_'
'inter'
'intelektuální'
'intel'
'integrovan'
'instrukc'
'institucí_'
'inspir'
'ino_'
'inn'
'ink'
'informační_'
'infikova'
'indick'
'imunitn'
'ima'
'ilit'
'ili'
'ikova'
'ije_'
'ihned_'
'if_'
'idy_'
'ideologi'
'identit'
'ico'
'ických_'
'iPad_'
'iP'
'hů'
'hřích'
'hydratac'
'hyb'
'hvězdy_'
'hur'
'huan'
'hrál_'
'hru_'
'hrob'
'hrn'
'hraci_'
'hrace'
'hoř'
'hotn'
'hospoda'
'hos'
'home'
'holk'
'hmotnost'
'hma'
'hluboké_'
'hluboko_'
'hlu'
'hloubk'
'hlavu_'
'hlavou_'
'hlavní'
'hlavnim_'
'hlasit'
'hladk'
'hin'
'herc'
'hem'
'harsk'
'hardcore_'
'gur'
'gui'
'grafie_'
'gra'
'global'
'gie_'
'gg'
'geno'
'genní'
'generál'
'gen_'
'gel'
'gat'
'fyziologick'
'fyzickou_'
'funkčn'
'fou'
'fotbalov'
'fol'
'flexibil'
'firm'
'financí_'
'fina'
'filtr'
'fil'
'fikac'
'fialov'
'feti'
'fek'
'federace_'
'fe_'
'fas'
'farm'
'fanta'
'fanouš'
'faktor'
'eční'
'ečn'
'expo'
'exkluzivn'
'etí_'
'etik'
'etick'
'ester'
'erv'
'eru_'
'ersk'
'erin'
'eren'
'ené'
'enou_'
'enn'
'endo'
'end'
'elné_'
'elen'
'elektrický'
'elektrické_'
'ekonomický'
'ejs'
'ejme_'
'eje'
'efektivn'
'ectví_'
'ecne_'
'ebe'
'důvěryhodn'
'důvod'
'důležitou_'
'dřevěn'
'dě_'
'dívky_'
'dílo_'
'dávky_'
'dárek_'
'dvojic'
'dusled'
'držel'
'dráh'
'drá'
'druhů_'
'drat'
'dové'
'dovoleno'
'dovnit'
'dove'
'dova'
'dostává'
'dostatečnou_'
'dostane_'
'dospělý'
'dosp'
'dosah'
'dorazil'
'doprovázen'
'doporučujeme_'
'doporuč'
'dopln'
'dokáž'
'dokument'
'dokonal'
'dok'
'dojde_'
'dodávk'
'doch'
'dní'
'dnu_'
'dni'
'dlouho'
'dla_'
'divadl'
'dist'
'displej'
'disciplin'
'dig'
'diagnóz'
'dge'
'deš'
'devi'
'det'
'desít'
'delší_'
'dekora'
'definova'
'datov'
'databáze_'
'dano'
'dani'
'dalšími_'
'cítím_'
'cítí'
'cílov'
'cíl_'
'cyt'
'cteni_'
'cre'
'cra'
'cnic'
'cn'
'clu'
'ckých_'
'cku_'
'citliv'
'cinsk'
'cinnost_'
'cih'
'chystá'
'chvíle_'
'chuti_'
'chudob'
'chud'
'chtela_'
'chrám'
'choz'
'chm'
'chlo'
'chemie_'
'charakter_'
'cet'
'cestující'
'certifika'
'cern'
'cen_'
'celn'
'cam'
'cal'
'března_'
'bře'
'běže'
'běh'
'bě_'
'bázi_'
'bytosti_'
'bunky_'
'budování_'
'budova'
'budoucí'
'budeš_'
'brýle_'
'brání_'
'brezna_'
'bral'
'bole'
'bojoval'
'bojov'
'body_'
'bodu_'
'blízko_'
'blond'
'bliz'
'biologick'
'bili'
'bile_'
'bi_'
'bezv'
'bezplatn'
'bezpečně_'
'bezpečnost_'
'bezpeč'
'bezpecn'
'bezdrátov'
'bes'
'bedn'
'bd'
'bazi'
'barvu_'
'bam'
'bali'
'balen'
'bak'
'babi'
'ačk'
'azne'
'aza'
'aw'
'avšak_'
'avě'
'avn'
'avan'
'audio_'
'atn'
'atmosfer'
'astronomick'
'asti'
'asijský'
'aru_'
'armad'
'ard'
'architektonick'
'aných_'
'antivirov'
'ansk'
'anonymn'
'ano'
'aniz_'
'angličtiny_'
'angličtin'
'angi'
'anebo_'
'americke_'
'amatér'
'alniho_'
'alkohol'
'alita_'
'aliance_'
'algoritm'
'alespon_'
'alergick'
'alba_'
'akutn'
'aktuální_'
'aktualizovan'
'aktivni_'
'aktivn'
'aktivit_'
'aktiva'
'akc'
'aje'
'ain'
'ai'
'ah_'
'age_'
'adresa_'
'ade'
'ack'
'acet'
'ace'
'absolvovat_'
'absolvov'
'abso'
'Zároveň_'
'Základ'
'ZÁ'
'Zu'
'Zobrazen'
'Změn'
'Zku'
'Zkou'
'Zj'
'Zeny_'
'Zatím_'
'Zar'
'Zakon'
'Zadn'
'Zadejte_'
'Zac'
'ZO'
'York_'
'YCH_'
'Wins'
'Win'
'William_'
'West_'
'Wen'
'Wall'
'WP'
'WA'
'Vždy_'
'Vů'
'Všechno_'
'Výz'
'Výsled'
'Výrob'
'Víš_'
'Vytvo'
'Vyst'
'Vyr'
'Voln'
'Vlo'
'Vit'
'Vim'
'Vice_'
'Ver'
'Vale'
'VIP_'
'VED'
'Uz_'
'Uprav'
'Ultra'
'Ukáza'
'USB_'
'UNI'
'UK'
'Twi'
'Tureck'
'Tren'
'Tool_'
'Time'
'Thi'
'Test'
'Tep'
'Tedy_'
'Tal'
'TY_'
'TEL'
'Sýrii_'
'Sí'
'Swi'
'Svet'
'Sve'
'SunPorno'
'Stále_'
'Studio_'
'String_'
'Street_'
'Stati'
'Standard'
'Stan'
'Stahnout'
'Sport_'
'Sport'
'Spolecnost_'
'Spa'
'Sophie_'
'Slu'
'Slot'
'Sle'
'Sl'
'Skryt'
'Skl'
'Seznam_'
'Seznam'
'Severní_'
'Servi'
'Seri'
'Sem'
'SV'
'STU'
'SSSR_'
'SD'
'Rozhodně_'
'Rozd'
'Roman'
'Rock'
'Rez'
'Rekl'
'Rea'
'Rady_'
'QR_'
'Příl'
'Přihl'
'Přid'
'Přesto'
'Představ'
'Pís'
'Prů'
'Právě_'
'Prá'
'Pru'
'Prohl'
'Product'
'Problém'
'Pris'
'Prince'
'Pracov'
'Poč'
'Postup'
'Porn_'
'Porad'
'Poli'
'Pohlav'
'Podpora_'
'Podmínk'
'Pod_'
'Poc'
'Pln'
'Pet'
'Pavel_'
'Pane_'
'PN'
'PM'
'PHP_'
'Ox'
'Otevřít_'
'Osobn'
'Osm'
'Opti'
'Open'
'Ona_'
'Odpo'
'Oba_'
'OO'
'ONLINE_'
'Náv'
'Národní_'
'Ny'
'Novo'
'Nova_'
'Nord'
'Nin'
'Neví'
'Nest'
'Nesm'
'Nech'
'Nebyl'
'Neb'
'Navzdory_'
'Navr'
'Nat'
'Nase_'
'Narod'
'Nak'
'Nah'
'NU_'
'NIK'
'NIE_'
'NG_'
'NG'
'Můžu_'
'Může_'
'Může'
'Měl'
'Muži_'
'Muzete_'
'Mr'
'Mot'
'Mohl'
'Mobile_'
'Mik'
'Mercedes_'
'Mer'
'Me_'
'Mam_'
'Mala'
'MU_'
'MT'
'MPEG_'
'MM'
'MIN'
'MAT'
'Lí'
'Lékař'
'Luc'
'Lights_'
'Lex'
'Lang'
'LL_'
'LE_'
'LD'
'Kvetiny_'
'Kurz'
'Kry'
'Koupit_'
'Kor'
'Kompa'
'Koment'
'Kha'
'Kdybych_'
'Každo'
'KU_'
'KL'
'Jum'
'Jmen'
'Jiz'
'Ještě_'
'Jestli'
'Japan'
'Jac'
'JP'
'JAK_'
'It'
'Isla'
'Is'
'IZ'
'IT_'
'IST_'
'IM_'
'IL'
'IA'
'Hydra'
'Hr'
'Hou'
'Host'
'Hospodin'
'Hork'
'Hodno'
'Hla'
'Hit'
'Histori'
'Hal'
'HOD'
'HN'
'Gue'
'Gre'
'Grand_'
'Gr'
'Ger'
'Gen'
'GPS_'
'GP'
'GM'
'Fro'
'Free'
'Fre'
'Francie_'
'Form'
'Fla'
'Fina'
'Farm'
'FT'
'FS_'
'FS'
'FR'
'FM_'
'FI_'
'Existují_'
'Evropská_'
'Est'
'Elektrick'
'Electron'
'Eco'
'ES_'
'EL_'
'DÍ'
'Doufám_'
'Dosp'
'Dopo'
'Don'
'Digital'
'Dek'
'Dejte_'
'Dee'
'Dea'
'Db'
'David_'
'DR_'
'Cílem_'
'Cut'
'Cru'
'Cro'
'Crea'
'Count'
'Color'
'Club_'
'Clo'
'Chy'
'Chtěl_'
'Cho'
'Chil'
'Cestování_'
'Centrum_'
'Cena_'
'Celkov'
'Casino_'
'CD'
'By'
'Budete_'
'Bude'
'Brun'
'Brazíli'
'Br'
'Bozi'
'Book'
'Boh'
'Blue'
'Bit'
'Bird'
'Bio'
'Bezpečn'
'Beach_'
'Basi'
'Barceloně_'
'Bac'
'BUD'
'Az'
'Award'
'Austrálii_'
'Audi_'
'Asii_'
'Asi'
'Argentin'
'Archi'
'Ameriky_'
'American_'
'Amazon_'
'Ama'
'Alb'
'Ala'
'Ah_'
'Advanced_'
'Adv'
'AZ'
'AU'
'ATE'
'AE'
'AC_'
'ABC_'
'>_'
'90'
'89_'
'81_'
'80'
'76_'
'74'
'73_'
'72'
'71'
'700_'
'63_'
'62_'
'51'
'47'
'45'
'42'
'4000'
'38'
'365_'
'27500_'
'220'
'203'
'202'
'200'
'1991_'
'1989_'
'1973_'
'1969_'
'1968_'
'1950_'
'1937_'
'1930_'
'193'
'1926_'
'19'
'181'
'1500'
'140'
'132'
'130_'
'125'
'119'
'115'
'114'
'110'
'106'
'1000'
'.-'
'. [-]_'
'-]_'
',” _'
', ​​_'
', , _'
'*_'
''''
'' '
'''
'"> _'
'!)'
'!" _'
' № _'
' €'
' – '
' ?_'
' /_'
' ....'
' ... +_'
' ... '
' .. '
' .'
' ( '
' '% _'
' %'
' "._'
' !!'
'™'
'№ _'
'……'
'”, – _'
'“, „_'
'“)'
'“'
'‘'
'– '
'ґа'
'їхній_'
'їхня_'
'їхню_'
'їхньо'
'їхн'
'їхати_'
'їжею_'
'їда'
'іє'
'ічних_'
'іхні_'
'іу'
'іто'
'ітк'
'ітаці'
'істот'
'історично'
'історичних_'
'іспансько'
'іслам'
'ірні'
'ірк'
'іпл'
'іні'
'інь_'
'інч'
'інформува'
'інформаційні_'
'інформаціини'
'інто'
'інтересах_'
'інтерес'
'інструмента'
'інструкція_'
'інст'
'інс'
'іноземні_'
'індекс'
'інвестиціи'
'інвест'
'інал'
'іміт'
'імов'
'імен'
'іля'
'ілю'
'іли'
'іла_'
'іко'
'ійний_'
'ізоляці'
'ізаці'
'ідеологі'
'ідеи_'
'ідан'
'іграш'
'івки_'
'івка'
'іве'
'єтесь_'
'єрі_'
'єнт_'
'ємни'
'єдин'
'єві'
'єв_'
'яють_'
'ячи_'
'ячи'
'яття'
'ятн'
'ятайте_'
'яскраві'
'яскрав'
'яса_'
'ярмар'
'янсько'
'яння_'
'янк'
'яний_'
'якіс'
'яку'
'якоі_'
'язі_'
'язнен'
'язи'
'яжіться_'
'ядерних_'
'яві'
'являт'
'ює'
'ючий_'
'юча_'
'ютером_'
'ювали_'
'ювал'
'ьці'
'ьський_'
'ьом'
'ьок_'
'ьник'
'ьни'
'ько_'
'ькии_'
'ьз'
'ьг'
'щорічн'
'щонайменше_'
'щоби_'
'щир'
'шукаєте_'
'штов'
'шти'
'штату_'
'шт_'
'шпигу'
'шост'
'шмат'
'шляхи_'
'шлях'
'шла_'
'шкідлив'
'шкоду_'
'шифр'
'шер'
'швидкості_'
'шв'
'шанс'
'шал'
'чя_'
'чч'
'чую'
'чуж'
'чування'
'чува'
'чорнил'
'чол'
'членом_'
'чку_'
'читач'
'читал'
'чит'
'численних_'
'числа_'
'чим'
'чеськ'
'часі_'
'частково_'
'частин_'
'часни'
'часи_'
'чання'
'чаи'
'ціну'
'цілі_'
'цілу'
'цікаві'
'цікав'
'ційно'
'ційний_'
'ця'
'цю'
'цьки'
'цу'
'цифрові_'
'цифрово'
'цифрови'
'цикло'
'цикл'
'цибул'
'центра'
'цент'
'ценз'
'хімічно'
'хімічних_'
'художн'
'хронічн'
'християнств'
'християни'
'храм'
'хороші_'
'хороши'
'холодно'
'холодни'
'холод'
'хол'
'хоке'
'ході_'
'ходьби_'
'хова'
'хм'
'хлор'
'хлопчик'
'хлопці_'
'хлопець_'
'хворого_'
'хвороба_'
'хвилюва'
'хва'
'хв_'
'хаю'
'харчових_'
'характеризу'
'хам'
'хала'
'хал'
'фінансування_'
'фінансово'
'фінал'
'філі'
'фільтр_'
'філософії_'
'філ'
'фіксован'
'фізіологі'
'функціонувати_'
'функціональн'
'функці'
'француз'
'фотографія'
'фотоапарат'
'формальн'
'флот'
'фестиваль_'
'фермер'
'фермент'
'фарбу'
'фактори_'
'уявлення_'
'ую_'
'уще'
'ушк'
'учнів_'
'учні_'
'учасникам'
'утрьох_'
'утр'
'утилі'
'утвор'
'установ_'
'успішни'
'усо'
'усвідом'
'урс'
'уроки_'
'урб'
'ураган'
'управлінні_'
'упні'
'упни'
'унікальну_'
'унс'
'уна_'
'уку'
'українців_'
'уклад'
'уйтес'
'узбережж'
'угод'
'уга_'
'ування'
'уванн'
'увальни'
'увалися_'
'увала_'
'уважн'
'уар'
'уа'
'тієї_'
'тіло'
'тєв'
'тягн'
'тю'
'турецьк'
'тувал'
'туалетн'
'ттю_'
'тривог'
'трива'
'третьому_'
'тренуван'
'тренер'
'трапляється_'
'трансформ'
'транспорту_'
'традиції_'
'торт'
'торо'
'торгово'
'топ_'
'тонки'
'тог'
'товару_'
'ткі'
'тканини_'
'тканина'
'тит'
'тиском_'
'тиск_'
'тир'
'типі'
'тинг'
'тимчасови'
'тижн'
'тив_'
'технологіі_'
'технологічн'
'технологіи_'
'технологі'
'тест_'
'терськ'
'терористичн'
'терапія_'
'терапевт'
'теніс'
'тентн'
'температурою_'
'темно'
'телек'
'тексти'
'тг'
'творчі'
'творчих_'
'тварина'
'тані'
'танов'
'таблеток_'
'сімейно'
'сім'
'сіль'
'сюди_'
'ській_'
'ську_'
'ським_'
'сценарі'
'схильні_'
'схильн'
'схеми_'
'схем'
'сформу'
'сучасні'
'сучасним'
'сутні'
'суспільстві_'
'суспільство_'
'сумі'
'сумнів'
'суль'
'суботу_'
'стіни_'
'стіл'
'стяг'
'сться_'
'студента_'
'стрілк'
'структури_'
'структура'
'строк'
'стрим'
'страш'
'страт'
'страждання_'
'сторінку_'
'стом'
'столо'
'столиц'
'стовп'
'стов'
'стичн'
'стихі'
'стит'
'стимулю'
'стероїд'
'стероід'
'стві_'
'створи'
'створено'
'створенн'
'стверджує_'
'стверджують_'
'стверджува'
'статусу_'
'статистик'
'статево'
'стат'
'стари'
'стануть_'
'стандартам_'
'ставлення_'
'ставки_'
'ставк'
'спільнот'
'спільного_'
'спільно_'
'спільн'
'спілкува'
'співробітництва_'
'співробітник'
'співпрацю_'
'співпрац'
'спрямовани'
'спрямована_'
'спрямован'
'спрост'
'спроб'
'сприя'
'сприи'
'справі_'
'справжня_'
'спостерігали_'
'спортом_'
'спонтанн'
'спокі'
'споживачі'
'спеціалі'
'спеціальн'
'спектр_'
'спати_'
'спасибі_'
'спальні_'
'солодк'
'соло'
'собак_'
'соба'
'сна'
'сміх'
'смачн'
'смартфоні'
'смартфон_'
'слідувати_'
'слуха'
'слати_'
'слабкі'
'скр'
'складі_'
'ске'
'скажу'
'ситуаціях_'
'системою_'
'синдром_'
'син_'
'симп'
'сильніш'
'сильні_'
'сильно'
'сильним'
'сигналів_'
'сесії_'
'серіал'
'серцево_'
'серце'
'серйозні'
'середній_'
'середньої_'
'серверів_'
'сенсі_'
'сектор_'
'секс'
'секретар_'
'секретар'
'сеанс'
'світов'
'свіжі'
'свіж'
'свідчит'
'свідомості_'
'свід'
'свято_'
'свято'
'святк'
'свя'
'самот'
'самогуб'
'сайтах_'
'рішенням_'
'ріш'
'річного_'
'річно'
'річн'
'ріл'
'різном'
'рівняння'
'рівн'
'рюва'
'ршу'
'ручно'
'рукт'
'рту'
'рта'
'рськ'
'російськи'
'російська_'
'рослинн'
'романтичн'
'роман'
'рок_'
'розігр'
'розширити_'
'розчин_'
'розуміє_'
'розумо'
'розу'
'розташ'
'розт'
'розстріл'
'розрахов'
'розпочав'
'розміщен'
'розміру_'
'розкрива'
'розділу_'
'розд'
'розглянути_'
'розглянемо_'
'розглядають'
'розвід'
'розвива'
'розважа'
'розби'
'рожеви'
'рог'
'рова'
'робі'
'роблю_'
'рне'
'рма'
'рки_'
'риф'
'римськ'
'ризико'
'рж'
'реєстр'
'реча'
'репутаці'
'репр'
'реи'
'результатом_'
'резолюці'
'режим_'
'редо'
'редагува'
'ред'
'регіон'
'регулярні'
'регулюють_'
'регулюва'
'ревн'
'реб'
'реальність_'
'реальності_'
'реакція_'
'раю'
'ранн'
'ральн'
'рали_'
'раку_'
'рак'
'рай'
'радянськи'
'піх'
'пісні_'
'пісня_'
'пізно_'
'підійде_'
'підходя'
'підтримува'
'підтверджу'
'підст'
'підсилю'
'підрозділ'
'підприємництва_'
'підпис_'
'підня'
'підлозі_'
'підкреслю'
'підготовлен'
'підготов'
'підводни'
'підбор'
'пур'
'пунктів_'
'публіку'
'пто'
'пти'
'пси'
'пріоритет'
'прямо'
'прями'
'проявляє'
'прощ'
'процесор'
'процес'
'процедура_'
'проходив_'
'професіини'
'прото'
'протеін'
'проте'
'простих_'
'просит'
'проро'
'пропуст'
'пропозиція'
'промислові'
'прокурор'
'прокл'
'пройш'
'проектування_'
'продукці'
'продовження_'
'продав'
'прогрес_'
'програмне_'
'програ'
'прогр'
'провідних_'
'проводили'
'прово'
'пробува'
'проблемн'
'приємно_'
'приєднатися_'
'приходять_'
'прихо'
'притяг'
'присвяти'
'припуска'
'припиня'
'припинення_'
'принципи_'
'приму'
'прилади_'
'прийом'
'приймають'
'прииому_'
'приимати_'
'призначени'
'приготува'
'приго'
'привіта'
'приводу_'
'приводом_'
'привел'
'привед'
'приве'
'приваб'
'прив'
'препарат'
'представника'
'представни'
'представлен'
'предмети_'
'предмет'
'прац'
'практикою_'
'прагнут'
'прагне_'
'правово'
'правилам'
'прави'
'правду_'
'правд'
'прав'
'поєдна'
'пояснює_'
'поясню'
'пошкодження_'
'починаються_'
'починають_'
'поче'
'потік_'
'поту'
'потрапля'
'поточн'
'потенційни'
'поступово_'
'постачальник'
'поставо'
'поставлен'
'поставк'
'постави'
'постав'
'посв'
'порівняно_'
'порівню'
'порі'
'поряд_'
'порушен'
'поруч_'
'порта'
'пором_'
'порожні'
'порожни'
'породи'
'порнозір'
'порад_'
'порад'
'популярні'
'поправк'
'попере'
'помір'
'помил'
'померла_'
'пома'
'пом_'
'пом'
'поліції_'
'поліція_'
'політично'
'політични'
'польськ'
'положень_'
'покі'
'покращити_'
'покращ'
'покр'
'поклада'
'покаран'
'показую'
'показа'
'познайоми'
'позна'
'позитивний_'
'подій_'
'подіи_'
'подібно'
'подібн'
'подумати_'
'подорож'
'подолати_'
'подиви'
'подив'
'подач'
'податк'
'подати_'
'подальшого_'
'погірш'
'погра'
'погод'
'поглян'
'поганий_'
'повірити_'
'повідомил'
'пово'
'повному_'
'повного_'
'повний_'
'повни'
'повн'
'поверхне'
'повернул'
'поверну'
'повернеться_'
'поверне'
'побутов'
'поби'
'побачите_'
'побачил'
'побачив_'
'побач'
'побажання_'
'поб'
'пля'
'плод'
'плеч'
'плен'
'платформ'
'плату_'
'плаття_'
'пластикові_'
'планшет'
'планеті_'
'планети_'
'планета'
'плазм'
'пиша'
'писа'
'печ'
'першою_'
'персональні_'
'персона'
'перс'
'перешкод'
'перехід_'
'переходи'
'перетворен'
'перестає'
'перероб'
'перерви_'
'переможц'
'переконатися_'
'переклад_'
'передава'
'перего'
'перевищ'
'перебу'
'первинно'
'пенсі'
'педа'
'певну_'
'певної_'
'певний_'
'парфуми_'
'партнером_'
'парол'
'пари_'
'папі'
'папер'
'панелі_'
'пане'
'паль'
'пак'
'ощі'
'очікує'
'очікувати_'
'очікува'
'очол'
'очист'
'офіційни'
'отруєн'
'отримує'
'отримано'
'отвор'
'осі'
'острови_'
'острова'
'останню_'
'останньо'
'особу_'
'особливу_'
'особливо'
'особливих_'
'осо'
'осново'
'основн'
'оснащені_'
'осво'
'ос_'
'орів_'
'орит'
'орден'
'організаціі_'
'орган'
'ора'
'опро'
'опра'
'оплати_'
'опису_'
'опису'
'опис'
'операціі_'
'оновлю'
'оновлено_'
'они_'
'она'
'омо'
'ології_'
'ологі'
'олог'
'окупаці'
'окремі_'
'окремо'
'ой'
'ои'
'озит'
'озер'
'озброєн'
'ожив'
'одяг'
'одразу_'
'одно_'
'одержа'
'огі'
'огенн'
'оге'
'овів_'
'овується_'
'овою_'
'овочі'
'овому_'
'овищ'
'ованим_'
'овании_'
'обіцял'
'обід_'
'обро'
'обр'
'обом'
'обмінний_'
'обмежува'
'обмежень_'
'обмежени'
'обм'
'обліку_'
'облікового_'
'обережні'
'обе'
'обд'
'ніякої_'
'ніякого_'
'ніст'
'нім'
'нікого_'
'нє'
'няти_'
'нці'
'ную'
'нути'
'нудот'
'нув'
'нти'
'нте'
'нські'
'носит'
'норми_'
'нормально_'
'нопо'
'номера_'
'новонароджен'
'нован'
'нка'
'нич'
'ниці_'
'ництво_'
'ник'
'низьким_'
'низ'
'нижні'
'нетка'
'неспр'
'неск'
'несе_'
'нержавіючої_'
'непро'
'неприємно'
'непе'
'необхідну_'
'необхідними_'
'нено'
'ненавид'
'неминуч'
'нем'
'незв'
'незалежність_'
'незаконн'
'недостатн'
'недоліки_'
'недолік'
'негативно'
'негативним'
'невідомо'
'невелико'
'невеликих_'
'нева'
'нге'
'нг'
'нашоі_'
'нашою_'
'начи'
'нач'
'нац'
'наукові_'
'науково_'
'наук'
'натхненн'
'нати'
'наступний_'
'настрій_'
'народил'
'наркотик'
'нарко'
'напружен'
'напруг'
'наполегливо'
'написано'
'напис'
'наносьте_'
'намі'
'намагаюся_'
'намагаю'
'нали'
'належним_'
'налаштувати_'
'налашту'
'налаштов'
'накопичен'
'найпопулярніших_'
'найп'
'найкращим'
'найвідоміши'
'найвищ'
'найбільший_'
'найбільше_'
'найбільша_'
'найближчим_'
'наипопулярніш'
'наив'
'наибільши'
'назви_'
'надіслан'
'надійни'
'надіин'
'надсилання_'
'надихн'
'надзвичаино'
'надає'
'надають_'
'надавати_'
'надава'
'наголоси'
'нагляд'
'нагадує_'
'навчил'
'навчають'
'навчатися_'
'навчальні'
'навчальних_'
'навпаки_'
'навколишнє_'
'навичками_'
'нави'
'набору_'
'набли'
'набира'
'міцні'
'міцни'
'міф'
'місцевими_'
'містити_'
'мінім'
'мінн'
'мілі'
'мік'
'міжнародними_'
'міжнародний_'
'міжнародне_'
'мідь_'
'мута'
'мусульманськ'
'мур'
'муні'
'музика_'
'моїм'
'моі'
'моєму_'
'мото'
'море_'
'монтаж'
'молоко'
'молодий_'
'молода'
'молитви_'
'молит'
'мок'
'можливі'
'можеш_'
'модулі'
'модн'
'мову_'
'миро'
'минуле_'
'мило'
'механізм'
'метр'
'метода'
'метаболі'
'мережа_'
'мере'
'мер_'
'менш'
'менд'
'мен_'
'медичної_'
'медицини_'
'меди'
'меблів_'
'меблі_'
'маючи_'
'машині_'
'машин'
'матчі'
'матимуть_'
'мати'
'матеріальн'
'матеріал'
'масу_'
'масов'
'маркетингових_'
'маркетингов'
'мант'
'мама_'
'малюнк'
'малюка_'
'мало'
'малих_'
'максимально_'
'мако'
'мак'
'маибутньому_'
'магістерськ'
'магі'
'мав'
'ліцензію_'
'ліценз'
'ліфт'
'літератури_'
'літаки_'
'ліс'
'ліп'
'ліній'
'ління_'
'лін_'
'ліки_'
'лікарі_'
'лікар_'
'лій'
'ліжк'
'лідерів_'
'лідерств'
'ліг'
'ляться_'
'ляти'
'лят'
'лял'
'люю'
'лютому_'
'людськими_'
'людства_'
'людств'
'любить_'
'любителі'
'любите_'
'льс'
'льноі_'
'льним_'
'лук'
'лотереї_'
'лопат'
'локо'
'локальн'
'лож'
'лог'
'лк'
'лиш'
'лиць'
'лих'
'листопаді_'
'листи_'
'ливо'
'лива_'
'лефону'
'лет_'
'лер'
'лежн'
'лежить_'
'легки'
'латві'
'ланді'
'ланд'
'ламент'
'лазер'
'кіш'
'кість_'
'кіст'
'кінц'
'кімнат'
'кій_'
'кує'
'кую'
'кухн'
'курс'
'купа'
'куп'
'кулінарн'
'культурн'
'культур_'
'кту'
'ктик'
'кт_'
'кси'
'крізь_'
'крол'
'кроко'
'крово'
'кристал'
'крему_'
'крем_'
'кредитн'
'кредити_'
'країнам'
'краіні_'
'красив'
'краля_'
'кошт'
'кохання_'
'котуш'
'котрі_'
'космічн'
'корін'
'коротки'
'корм'
'користувачі_'
'користувачам_'
'користувач'
'кордоні'
'копію'
'копі'
'конце'
'конфі'
'конференці'
'контроль'
'контракт_'
'контент'
'консульс'
'конкурс_'
'коне'
'конди'
'конгрес'
'конвенці'
'комфорт'
'кому_'
'кому'
'компонентів_'
'компонента'
'композитор'
'комерційн'
'коментарі'
'коментар_'
'комбінаці'
'команд_'
'кома'
'кольорі'
'колоніальн'
'колоні'
'коли'
'коледжі'
'кок'
'кожноі_'
'кожним_'
'коду_'
'коду'
'коди_'
'ковт'
'ково'
'кова_'
'кнути'
'кну'
'кнопки_'
'книг_'
'клітини_'
'класичн'
'клапан'
'кк'
'кишков'
'китн'
'кий_'
'кида'
'кет'
'керує'
'квітн'
'квіт'
'квитки_'
'квартал'
'каці'
'като'
'категоріі_'
'картину_'
'карти_'
'кандидатів_'
'каналів_'
'камені'
'калі'
'кальн'
'калорій_'
'казав_'
'каза'
'каво'
'йц'
'йський_'
'йськ'
'йон'
'йом'
'йо'
'йне_'
'ймовірн'
'йме'
'йм'
'йв'
'ия_'
'ичні_'
'ичного_'
'итесь_'
'иськоі_'
'иська_'
'иськ'
'ису'
'исті'
'исти_'
'иста'
'ирі'
'ирн'
'иня'
'инт'
'инні'
'инн'
'инка'
'имі'
'имов'
'ими'
'им'
'илися_'
'иле'
'ил_'
'ико'
'ие_'
'ид_'
'игун'
'иву'
'ивні_'
'ивного_'
'ивних_'
'ивна_'
'иваю'
'зіркові_'
'зьк'
'зустрічав'
'зупиня'
'зупинит'
'зувати_'
'зува'
'зрі'
'зру'
'зростаюч'
'зробить_'
'зради'
'зображен'
'зніма'
'зняти'
'зника'
'значн'
'знаходження_'
'знанням'
'знали'
'знайд'
'знаи'
'знав'
'змінює_'
'змінюються_'
'змінювати_'
'зміну_'
'зміни'
'змушені_'
'зменшення_'
'змага'
'злочинц'
'зимов'
'земно'
'землетрус'
'земл'
'земел'
'здійснює'
'здійснення_'
'зду'
'здив'
'здатності_'
'здатн'
'здава'
'згадува'
'звіту'
'звуча'
'звол'
'звичайні'
'звичайної_'
'звичаини'
'звертати'
'збірн'
'збільшит'
'збільши'
'збитк'
'збирається_'
'збирає_'
'збираюся_'
'зберігаю'
'зберігатися_'
'збер'
'зачат'
'зацікавлені'
'західних_'
'захист'
'захворювання'
'затрима'
'засудж'
'застосову'
'застос'
'заст'
'заснування_'
'засновани'
'заслугову'
'зарахов'
'зара'
'запрос'
'запропонован'
'заповід'
'заповнюва'
'заповнен'
'заповн'
'запл'
'запиту'
'запитань_'
'записів_'
'записан'
'запалення_'
'заохочу'
'заняття_'
'занят'
'занеп'
'заміни_'
'заморо'
'замк'
'залізнични'
'залізниц'
'залізни'
'залучен'
'залози_'
'залишат'
'закохан'
'законн'
'законам'
'закл'
'зайнят'
'зайв'
'заиматися_'
'зазначени'
'зазначен'
'зазвичаи_'
'задач'
'загинуло_'
'загальної_'
'зага'
'завершит'
'завданням_'
'забуд'
'забувайте_'
'забу'
'заборонити_'
'забезпечує'
'заб'
'жінкою_'
'жур'
'жорстки'
'жодної_'
'жодних_'
'жовти'
'жні_'
'жни'
'жк'
'житлов'
'жирні'
'жина_'
'живі'
'жений_'
'жел'
'жев'
'жд'
'жаю'
'жарт'
'жанр'
'ешевши'
'ецьк'
'ефективний_'
'ефективни'
'еф'
'еті_'
'етні'
'етин'
'етик'
'ети_'
'етап_'
'еру'
'ерськ'
'ерна'
'ерн'
'енту'
'ентн'
'ентин'
'енно'
'енни'
'ении_'
'ензі'
'енергію_'
'ена'
'емп'
'емоційн'
'ема'
'еля'
'елю'
'ельн'
'електричного_'
'екстракт'
'експерти_'
'експерт'
'ексклюзивн'
'економ'
'еже'
'егл'
'евт'
'дієта_'
'дію_'
'дінк'
'ділянк'
'дівчаток_'
'дів'
'діапазон'
'діаметр'
'діагностик'
'діаг'
'дякую_'
'дь_'
'дуть_'
'дур'
'дуж'
'друку'
'друзі_'
'дружину_'
'дружиною_'
'друга_'
'друг_'
'дру'
'дре'
'дощ'
'дотримуватися_'
'доти'
'досягає_'
'дослідн'
'дослідженні_'
'дорослі_'
'доросл'
'дорожн'
'доповіді_'
'дом'
'дола'
'докази_'
'доза'
'додає'
'додаткових_'
'додатк'
'додавати_'
'догляд_'
'догляд'
'довжин'
'довел'
'довги'
'добров'
'доби'
'добав'
'днем_'
'дна_'
'диф'
'дитячих_'
'дитинства_'
'дисциплінарн'
'дистанці'
'дист'
'диско'
'динамічн'
'дим'
'дил'
'дивно'
'диван'
'дзвінк'
'дзв'
'дефект'
'десятки_'
'державі_'
'державу_'
'державні'
'денн'
'деклараці'
'деб'
'двічі_'
'двосторонн'
'двор'
'двере'
'дба'
'дата'
'даного_'
'дании_'
'дами_'
'дам_'
'давайте_'
'гірш'
'гідро'
'гучн'
'густ'
'гумо'
'гуман'
'гріх'
'грі'
'групі_'
'групу_'
'групов'
'груди'
'грип'
'гриб'
'грецьк'
'граючи_'
'град'
'гравця_'
'граб'
'готувати_'
'гостри'
'гостр'
'господарств'
'гормонів_'
'гори'
'голі'
'голосува'
'головним_'
'головна_'
'головк'
'голл'
'год_'
'гови'
'гні'
'глі'
'глядачів_'
'глюкоз'
'глобалізаці'
'глобально'
'гепатит_'
'гепатит'
'генетичн'
'генеру'
'гат'
'гаряча_'
'гарні'
'гара'
'гано'
'галузе'
'галере'
'гала'
'вітро'
'віру'
'віком_'
'віков'
'вікно_'
'вікн'
'військові_'
'війська_'
'війна'
'війн'
'віиськов'
'віин'
'візи'
'відчуваю_'
'відчував_'
'відч'
'відтоді_'
'відт'
'відсотк'
'відправлен'
'відправи'
'відповідним'
'відповідей_'
'відповідальни'
'відповіда'
'відп'
'відоми'
'відобража'
'відносяться_'
'відноситься_'
'відноси'
'віднов'
'відм'
'відкриті_'
'відкриває_'
'відкрив'
'відклад'
'відділ'
'віддален'
'відвідувач'
'відва'
'відбитк'
'відби'
'вчителі'
'вчителя'
'вулиц'
'вук'
'вуз'
'втрати_'
'втор'
'всіє'
'всяк'
'вступа'
'встанови'
'врі'
'врятувати_'
'вруч'
'вплинути_'
'вплива'
'впевненість_'
'впевнений_'
'впевнени'
'волокн'
'володіють_'
'вогні_'
'внутрішн'
'внести_'
'вне_'
'вна_'
'вмира'
'властивост'
'власність_'
'власники_'
'вла'
'вки_'
'виявля'
'виявлен'
'виявив'
'вищоі_'
'вихідни'
'виход'
'вих'
'витра'
'виступає_'
'виставк'
'високі_'
'високоякісни'
'високи'
'висновк'
'висн'
'вислови'
'висвітл'
'вирос'
'виробляють'
'вироби_'
'вироб'
'випущен'
'випуска'
'випромінювання_'
'випробування_'
'випадок_'
'винятком_'
'винни'
'вина_'
'вимірюван'
'вилуч'
'викра'
'використовуван'
'використовували_'
'використовува'
'використову'
'виконан'
'викона'
'виключа'
'викликан'
'виклик'
'викладачів_'
'вий'
'визначени'
'визначається_'
'визнач'
'видобут'
'видатн'
'вивчають'
'вивчати_'
'вивча'
'вибухо'
'вибирати_'
'виберіть_'
'взял'
'взуття_'
'взаємопов_'
'взаємодії_'
'вживати_'
'вжива'
'вести_'
'верто'
'вели'
'вдячн'
'вг'
'вають'
'ваю'
'вашій_'
'вашіи_'
'ватн'
'варіант'
'вані'
'вано_'
'ванни'
'ванна_'
'вана_'
'вальн'
'валася_'
'важче_'
'важливо'
'важливими_'
'важливи'
'важким'
'вагі'
'вагою_'
'бічн'
'біологі'
'білі_'
'білка_'
'білих_'
'бікіні_'
'біж'
'бідні'
'бібліотек'
'бург'
'будівлі_'
'будівельн'
'будує'
'будинки_'
'будинка'
'бувають_'
'британськи'
'британськ'
'бренд'
'бре'
'брат_'
'бран'
'брав'
'боре'
'боль'
'бок'
'бойови'
'боб'
'бно_'
'блю'
'блу'
'блоку'
'блок'
'блиск'
'бли'
'благослов'
'бити_'
'бил'
'берег'
'бере_'
'берг'
'бельн'
'бел'
'безу'
'безс'
'безробіття_'
'безпр'
'безпечні'
'безпечним'
'безперервно'
'безпере'
'безм'
'безкоштовним'
'безкоштовн'
'бездо'
'баш'
'бачить_'
'бачите_'
'басейн'
'бас'
'барит'
'бари'
'барв'
'бар'
'бактерій_'
'бактері'
'базу_'
'бази_'
'база'
'багатства_'
'ає'
'ая'
'аю_'
'ачу'
'ача'
'ацет'
'ать'
'атом_'
'атом'
'ато'
'атмосферу_'
'ата'
'ась_'
'астро'
'асоціаці'
'асн'
'архітектурн'
'арськ'
'аромату_'
'арн'
'армію_'
'арбітражу_'
'апе'
'апартамент'
'ану_'
'ане_'
'андро'
'англійської_'
'англ'
'аналі'
'аналогічні_'
'амін'
'амі'
'амбі'
'аліст'
'альтернативн'
'альтернатив'
'альна_'
'аль_'
'алергі'
'актуальн'
'активів_'
'активни'
'активн'
'актив'
'акредитаці'
'азі'
'ажі'
'аеропорт_'
'аеродром'
'адцят'
'адреси_'
'адо'
'аде'
'агро'
'агентства_'
'авіакомпані'
'авіа'
'авторськи'
'автомобільн'
'ався_'
'авно'
'аве'
'аварі'
'ЯМ'
'ЯКИ'
'Щось_'
'ЩЕ'
'Шл'
'Школ'
'Шир'
'Ше'
'ШІ'
'Чорна_'
'Члени_'
'Чита'
'Чис'
'Чехі'
'Чесько'
'Черв'
'ЧНО'
'ЧЕН'
'Ціна_'
'Цікав'
'Церкв'
'ЦЬ'
'Хронічн'
'Хорош'
'Хор'
'ХОД'
'ХО'
'ХІ'
'Фін'
'Функці'
'Франк'
'Фото_'
'Форма'
'Флор'
'Фл'
'Фен_'
'Факти'
'ФЛОРИСТОМ_'
'Ул'
'Украін'
'Уві'
'УП'
'Тури'
'Туреччин'
'Транспо'
'Товари'
'Термін_'
'Тен'
'Темп'
'Тв'
'Тара'
'ТЬ'
'ТОМ'
'ТВ'
'Східної_'
'Східн'
'Супер'
'Статті_'
'Старт'
'Стар'
'Стал'
'Спробуйте_'
'Софі_'
'Сма'
'Слова'
'Сло'
'Скажі'
'Систем'
'Сирії_'
'Символ'
'Сервіс'
'Святого_'
'Сант'
'Сама'
'Сала'
'Сайт'
'СТО'
'СТЕ'
'СТВО'
'СВО'
'Різдв'
'Румунія_'
'Роман'
'Розробник_'
'Розділ'
'Род'
'Робот'
'Рез'
'Ред'
'Раніше_'
'Радіо_'
'Рада_'
'РОВ'
'Підліток_'
'Підгот'
'Північній_'
'Публічний_'
'Прочита'
'Проце'
'Прокат_'
'Прог'
'Прихо'
'Прип'
'Прив'
'Приблизно_'
'Правильн'
'Правила_'
'Пошук_'
'Похо'
'Потрібно_'
'Пості'
'Посл'
'Португал'
'Порад'
'Полі'
'Польськ'
'Поки_'
'Пог'
'Повітрян'
'Поверне'
'Пове'
'Пов'
'Петр'
'Перемо'
'Перек'
'Перегляд_'
'Перевірте_'
'Перев'
'Парламент'
'ПОТР'
'ПОМ'
'ПО_'
'ПВ'
'Отримання_'
'Організації_'
'Організаці'
'Опі'
'Опл'
'Опи'
'Одно'
'Обов_'
'ОМУ_'
'ОДН'
'ОГ'
'Ніко'
'Нь'
'Номер_'
'Новини_'
'Нер'
'Нег'
'Невідом'
'Наступни'
'Наступна_'
'Наст'
'Нама'
'Найбільше_'
'Назва_'
'Нагад'
'НУ'
'НТ'
'НАСТ'
'Місяць_'
'Місце'
'Міністерства_'
'Мій_'
'Міжнародно'
'Між_'
'Москви_'
'Мину'
'Медичн'
'Мед'
'Має'
'Мальт'
'Маи'
'Мад'
'Магіст'
'МВ'
'МАТ'
'МІС'
'Літа'
'Лін'
'Люд'
'Любите'
'Лос_'
'Лит'
'Лип'
'Лег'
'Латин'
'Курс'
'Куп'
'Крихіт'
'Крем'
'Кр'
'Кос'
'Королівс'
'Конт'
'Конгре'
'Комплек'
'Кожн'
'Книг'
'Клі'
'Кл'
'Китаи_'
'Керівни'
'Кві'
'Катало'
'Карт'
'Карло'
'Каз'
'КО_'
'КВІТІВ_'
'Зустрі'
'Золот'
'Зокрема_'
'Знаєте_'
'Знає'
'Знач'
'Зн'
'Змі'
'Звісно_'
'Зви'
'Захо'
'Зате'
'Зат'
'Зазвичай_'
'Заборон'
'ЗПЕ'
'Жінка_'
'Експер'
'Дізнайтеся_'
'Дів'
'Друго'
'Други'
'Дослід'
'Документ'
'Добр'
'Джу'
'Джек'
'Держава_'
'Ден'
'Дел'
'Два_'
'Дані'
'Дани'
'ДОСТАВКУ_'
'ДНК_'
'Греція_'
'Грец'
'Грати_'
'Гра_'
'Готель_'
'Говор'
'Гл'
'Геро'
'Гер'
'Гаряча_'
'Гара'
'ГРА'
'Віта'
'Вінт'
'Відчу'
'Відст'
'Відпочи'
'Відп'
'Відновити_'
'Відн'
'Відкрити_'
'Відгук'
'Відвід'
'Вчені_'
'Вт'
'Вст'
'Всесвіт'
'Вос'
'Вихо'
'Вист'
'Вирі'
'Вир'
'Випуск'
'Використання_'
'Вес'
'Вен'
'Величезн'
'Великої_'
'Великий_'
'Вашого_'
'Вашо'
'Ваше_'
'Ват'
'Вами_'
'Важливо_'
'ВУ'
'ВН'
'ВК'
'ВИКОРИСТ'
'ВЖ'
'ВАН'
'ВІД_'
'Бул'
'Будинок_'
'Був'
'Британії_'
'Британі'
'Бри'
'Бор'
'Бол'
'Боже_'
'Берез'
'Бат'
'Африки_'
'Аргентин'
'Анн'
'Анджелес'
'Аналіз_'
'Аліса_'
'Алл'
'Алжир'
'Автомати'
'Австрі'
'АННЯ_'
'Італі'
'Існую'
'Інф'
'Інтерне'
'Інте'
'Інструкція_'
'Інноваці'
'Ім_'
'Ідеальн'
'ІЧ'
'ІНТЕРНЕТ_'
'ІЛ'
'Європу_'
'Європейського_'
'Європейськ'
'žár'
'žuje_'
'žuj'
'žova'
'žní'
'životním'
'živo'
'žil_'
'žije'
'žet_'
'ženě_'
'ženám_'
'ženu_'
'ženského_'
'žd'
'žal'
'ža'
'Žádn'
'Živ'
'Žije'
'Žid'
'Že'
'ŽI'
'ŽE_'
'ůsob'
'ťan'
'ština_'
'špičkov'
'špe'
'španělštin'
'španělské'
'šp'
'šova'
'šný'
'šla_'
'škálu_'
'škr'
'školní'
'široké_'
'širo'
'šek_'
'šed'
'šampon'
'Št'
'Še'
'řít'
'řík'
'řá'
'řil_'
'řic'
'řed'
'řeb'
'Řím_'
'ňují_'
'ňova'
'ěčn'
'ěv'
'ětí'
'ěsn'
'ěláv'
'ědě'
'Ě_'
'ĚT'
'čítat_'
'čínský'
'čínsk'
'částky_'
'čuje'
'čtení_'
'čte'
'čov'
'čním'
'čistá_'
'čisto'
'čisti'
'čil_'
'čil'
'června_'
'červené_'
'července_'
'čerpadl'
'černé_'
'čens'
'čele'
'čeká_'
'čekal'
'častěji_'
'Čtyři_'
'Čte'
'České_'
'Čas'
'ýř'
'ýv'
'ýl'
'úřední'
'úřady_'
'účinnější'
'účinné'
'účinnost_'
'účes'
'účastníků'
'účastní'
'úzkost'
'územ'
'úvod'
'úvazek_'
'útok_'
'ústřední'
'úspěch'
'únos'
'února_'
'ún'
'úmrtí_'
'ózn'
'óz'
'ón_'
'íž'
'íč'
'ívat_'
'íval'
'ínu_'
'ínky_'
'ínaj'
'íma'
'íků_'
'íha'
'ícími_'
'éry_'
'ážní'
'ášk'
'ášení'
'ázel'
'ázející'
'ázejí_'
'áze'
'átů_'
'átoři_'
'átorů_'
'átek_'
'ásit_'
'árních_'
'ánský'
'ánky_'
'áli'
'álen'
'áda'
'ácení_'
'á'
'», «_'
'» — _'
'­_'
'©_'
'£'
'}'
'{'
'zří'
'získává'
'získávají_'
'získan'
'zích_'
'záření_'
'zázra'
'závislost_'
'zát'
'zástupce_'
'západní_'
'zánět'
'základních_'
'základní'
'základ'
'zákazníkům_'
'zákaz'
'zách'
'zvýšil'
'zvýšen'
'zvláštním'
'zvlastni_'
'zvlast'
'zvi'
'zved'
'zum'
'zuc'
'ztr'
'zrá'
'zrovna_'
'zrejme_'
'zre'
'zraniteln'
'zran'
'zrad'
'způsobu'
'zpusob'
'zpravu_'
'zovan'
'zoufal'
'zotav'
'zoo'
'zon_'
'zohled'
'zodpovedn'
'zod'
'zobrazova'
'zobraz'
'zo_'
'zně'
'zní'
'známé_'
'zničit_'
'zni_'
'zneu'
'značku_'
'znamenaj'
'zname'
'znal'
'znak_'
'znacky_'
'znace'
'změní'
'zmín'
'zmr'
'zmizel'
'zlu'
'zlepšit_'
'zkuše'
'zkontroluj'
'zka_'
'zjištění_'
'zjistí'
'zjistil'
'zivote_'
'ziskate_'
'zimn'
'zime_'
'zili_'
'zij'
'zesil'
'zeno'
'zems'
'zemich_'
'zemi'
'zeln'
'zec'
'zdrojov'
'zdravotnick'
'zdr'
'zdoben'
'zdo'
'zda'
'zař'
'zavá'
'zavislosti_'
'zavi'
'zaved'
'zavad'
'zastup'
'zastr'
'zasob'
'zaseda'
'zari_'
'zara'
'zapotřebí_'
'zapomněl'
'zapomenout_'
'zapom'
'zanechal'
'zaměstnanec_'
'zaměstnanců_'
'zamí'
'zamilova'
'zamereni'
'založi'
'zal_'
'zakázan'
'zakr'
'zakon_'
'zakladatel'
'zajímav'
'zajišťuj'
'zajistuj'
'zajisti'
'zahyn'
'zahrnova'
'zahraničí_'
'zadá'
'zadna_'
'zadat_'
'zacn'
'zachranit_'
'zachovat_'
'zacatku_'
'zacal'
'zac'
'zabývá_'
'zabíje'
'zabranilo_'
'zabra'
'zabezpečen'
'zabe'
'yva'
'yu'
'yto_'
'yto'
'yro'
'yri'
'yne_'
'yme'
'yko'
'yhodn'
'yho_'
'yd'
'ycky_'
'ych'
'xí'
'xxx_'
'xov'
'world_'
'wat'
'wan'
'vším'
'vře'
'věřit_'
'vězení_'
'většinu_'
'věnov'
'věko'
'věc'
'včas'
'významně_'
'významné_'
'význam'
'výzkumn'
'vývoji_'
'vývoj'
'výsled'
'výrobní_'
'vým_'
'výcvik'
'výb'
'víz'
'vítěze'
'vítá'
'vín'
'ván_'
'vále'
'vze'
'vzdělání_'
'vzdelan'
'vyřeši'
'vyčist'
'vyčerp'
'vyč'
'vyvíje'
'vyvá'
'vyvoje'
'vyvin'
'využ'
'vyuk'
'vytvořen_'
'vytvo'
'vytr'
'vysvětl'
'vysto'
'vystaveni_'
'vyst'
'vyssi'
'vysokoskolske'
'vysoke_'
'vyslov'
'vysledky_'
'vysl'
'vyskytují_'
'vyskytuje_'
'vysi_'
'vyrábí_'
'vyrá'
'vyrovna'
'vyrobku_'
'vyro'
'vyrazne'
'vypí'
'vyprávě'
'vypo'
'vypad'
'vynález'
'vylučuje'
'vykr'
'vykona'
'vyhl'
'vydáva'
'vydava'
'vydat_'
'vydan'
'vychov'
'vybraných_'
'vybral'
'vyberete_'
'vuje_'
'vstupn'
'vsim'
'vsem_'
'vrátí_'
'vrás'
'vro'
'vrch'
'vrati'
'vrat'
'vozy_'
'vozidl'
'volej'
'volan'
'vojsk'
'vojenského_'
'vojak'
'vně'
'vnitrostátní'
'vni'
'vloži'
'vlivu_'
'vlajk'
'vlady_'
'vlada_'
'vla'
'vk'
'vitr'
'virus_'
'viděl'
'vidíme_'
'vetr'
'vesmíru_'
'vesker'
'vers'
'verejne'
'velkým_'
'velkém_'
'velkého_'
'velke'
'velka_'
'veku_'
'veg'
'vedouci_'
'vedomi_'
'vedlejší'
'vedle'
'vede'
'vec'
'vce'
'vašem_'
'varu'
'variant'
'vap'
'vaný'
'vano'
'vane'
'vami_'
'vaj'
'vB'
'užívání_'
'užít'
'uživatelsk'
'užitečné_'
'užit'
'uře_'
'uál'
'uzem'
'uzavřené'
'uzavř'
'uvo'
'uvnitř_'
'uvnitr_'
'uvidím'
'uvidí'
'uvid'
'uvedla_'
'uvedeny_'
'utí'
'utoku_'
'utocn'
'uspořádání_'
'uspořáda'
'uspech'
'usi_'
'urá'
'uredni'
'urcit_'
'upí'
'uprchl'
'upozorn'
'upo'
'uploadu_'
'upi'
'unor'
'univerzitě_'
'uměl'
'umě'
'umísti'
'umí_'
'umí'
'umožňují_'
'umbi'
'ultrazvuk'
'ulice'
'ukáž'
'ukázalo_'
'ukry'
'ukr'
'ukonc'
'ukazat'
'uit'
'uhodn'
'udělá'
'udělali_'
'událostí_'
'udržiteln'
'udrž'
'udku_'
'ucinne_'
'ucin'
'uchova'
'ubytování_'
'ubytovani_'
'uba_'
'třicet'
'třetin'
'těžko_'
'těžk'
'těž'
'tělesa_'
'těle'
'těhotn'
'týče_'
'týka'
'týdnu_'
'tóny_'
'tykajici'
'tyhle_'
'tvurc'
'tvrdi'
'tvori_'
'tvor'
'tvar_'
'tuz'
'turnaj'
'ture_'
'tun_'
'tuber'
'tt_'
'tráví'
'trz'
'try'
'trvalo_'
'trop'
'trn'
'trestný'
'trenink'
'trav'
'transform'
'transakce_'
'tramvaj'
'trajekty_'
'tradicn'
'trad'
'tp'
'toxin'
'toxick'
'tován'
'tovo'
'tov'
'touhy_'
'totalitní'
'tost'
'tory_'
'tomi'
'tni'
'tlum'
'tli'
'tit_'
'thi'
'tetovani_'
'testován'
'tes'
'terorist'
'termín_'
'telstv'
'telný'
'televize_'
'teles'
'telefonní_'
'tele'
'tekutin'
'tehotenstvi_'
'technika_'
'technickým'
'technické_'
'techn'
'tea'
'tch'
'tašk'
'tavi'
'tati'
'tari'
'tano'
'tanec_'
'tane'
'takovych_'
'tajemn'
'tahu'
'tace_'
'sí_'
'série_'
'sér'
'system'
'synte'
'sw'
'svědom'
'svr'
'svetove_'
'svetlo_'
'svaté'
'svate'
'surovin_'
'super_'
'sup'
'suché'
'su_'
'středisk'
'střed'
'stěž'
'stěny_'
'stěn'
'stáž'
'stávají_'
'stve'
'stupňů_'
'student_'
'strávi'
'stroj_'
'stresu_'
'stres'
'strel'
'stredn'
'strech'
'stre'
'strategické'
'stova'
'stoprocentn'
'stní_'
'stiv'
'stiskn'
'stipendi'
'stic'
'stez'
'stesti_'
'steri'
'stem'
'stavě'
'stavebn'
'stavb'
'status'
'stati'
'stastn'
'star_'
'standardy_'
'stal'
'staci_'
'srp'
'srovn'
'srdeční'
'spí'
'spánek_'
'spuštěn'
'správy_'
'správu_'
'spravy_'
'spousta_'
'sportovc'
'sportov'
'spoléha'
'spolupráce_'
'spolupracuj'
'společné_'
'společné'
'spole'
'spol'
'spojuje'
'spoji'
'special'
'spatne_'
'související'
'soustředit_'
'soustřed'
'soup'
'soubo'
'softwaru_'
'sociální'
'socio'
'social'
'sob'
'snímků_'
'sníh_'
'snídan'
'sniž'
'snažím'
'směs_'
'směru_'
'směr'
'smí'
'smutn'
'smo'
'smlouv'
'smi'
'smerem_'
'smar'
'slíb'
'slyšel'
'slys'
'sluzeb_'
'sluzba'
'slunecni'
'složen'
'sloz'
'slove'
'slouží'
'sloučenin'
'slou'
'slibuj'
'slib'
'slavn'
'slabo'
'sla_'
'ským_'
'skvělé_'
'skončí_'
'skončil'
'skon'
'skols'
'sklo_'
'skladován'
'sjedn'
'sing'
'simu'
'silnější_'
'silná_'
'silnou_'
'sile'
'shromažďují_'
'sezón'
'sezen'
'sexu'
'setká'
'sestry_'
'sestavi'
'self_'
'sekund'
'sektoru_'
'sekt'
'sekre'
'sej'
'scr'
'schopny_'
'schopna_'
'scho'
'sca'
'sběr'
'sbírk'
'satelitní'
'sankce_'
'samotné_'
'same'
'sak_'
'sage'
'sad'
'sac'
'růstu_'
'ré_'
'ráz'
'rát'
'ráda_'
'rychlý_'
'rychlé_'
'rychlejší_'
'rychleji_'
'rve_'
'rušen'
'ruční_'
'ruč'
'ruzn'
'ruz'
'rutin'
'ruskych_'
'rukt'
'ruj'
'rud'
'rubl'
'rtů_'
'rta'
'rst_'
'ročně_'
'ročník'
'rozvoji_'
'rozumí'
'rozsáhlé'
'rozsah_'
'rozpozn'
'rozpad'
'rozj'
'rozhraní_'
'rozhodnut'
'rozhodli_'
'rozen'
'rozděli'
'rovnováh'
'rovi'
'rove'
'rosto'
'rostlinn'
'rost'
'ros_'
'rodinou_'
'rodin'
'rodice_'
'robot'
'rob'
'rny_'
'rla'
'rkev'
'riz'
'rise_'
'rina_'
'rij'
'ries_'
'rgie_'
'režimu_'
'režim'
'rezo'
'rezervac'
'revoluci_'
'revolu'
'rev'
'restauraci_'
'restaurace_'
'rest'
'respektu'
'resp_'
'republiky_'
'reprezent'
'reni_'
'rem'
'rekonstrukc'
'reklamy_'
'regul'
'regionální'
'regi'
'regenerac'
'reduk'
'redi'
'recept'
'realizov'
'realitu_'
'reakci_'
'rap'
'ranu'
'rakoviny_'
'rakovinu_'
'raket'
'rafin'
'raf'
'raději_'
'radost'
'rado'
'radar'
'půjde'
'přív'
'přítomnosti_'
'přístroj'
'přístav'
'přírodní'
'přírod'
'přímé_'
'příležitostí_'
'příklad_'
'příjme'
'příjemné_'
'příje'
'přátele_'
'přátel_'
'přived'
'přita'
'připravuj'
'připravil'
'připraven_'
'připrav'
'připomína'
'připojit_'
'přijímá_'
'přijd'
'přesu'
'přesn'
'přenos_'
'překvap'
'překona'
'představu'
'představení_'
'předpoklád'
'předpoklad'
'předložen'
'předlož'
'předep'
'předem_'
'přede'
'přec'
'pěš'
'pěti'
'píš'
'písemn'
'píse'
'pís'
'páteř'
'puvodn'
'pusti'
'publiku'
'pták'
'ptá'
'psá'
'psychick'
'psy'
'psaní_'
'průvodc'
'průmyslové'
'průmysl'
'průbě'
'prášk'
'pryč_'
'prvot'
'prvniho_'
'prvků_'
'prvk'
'prumyslu_'
'prumern'
'prst'
'prozkouma'
'provádějí_'
'provádí_'
'provi'
'provest_'
'provedeno_'
'provade'
'protokolu_'
'prosp'
'propust'
'propa'
'promluvi'
'projevi'
'prohlížeč'
'prohlás'
'programova'
'prog'
'profesional'
'produkuj'
'prochází_'
'proch'
'procesů_'
'problemati'
'priznaky_'
'priva'
'pritom'
'prist'
'prisl'
'pris'
'prirod'
'priro'
'pripravu'
'pripomin'
'pripoj'
'princip_'
'princ_'
'primárn'
'prilezitosti_'
'priji'
'prihlas'
'pridat_'
'prichaz'
'prezent'
'prevenci_'
'preven'
'pret'
'prel'
'prekr'
'preklad'
'preh'
'prefer'
'predstavu'
'predstaven'
'prednas'
'predch'
'prazdn'
'pravoslavn'
'pravidlo_'
'pravic'
'pravděpodobností_'
'pravdě'
'pran'
'praktik'
'pradlo_'
'pracuj'
'pracovníky_'
'pracovníci_'
'pracovni'
'pracoval_'
'prac'
'požádat_'
'požaduje_'
'požadavk'
'pořád_'
'pozorován'
'poznal'
'pozn'
'pozdní'
'pověs'
'povinností_'
'povinnosti_'
'povi'
'považují_'
'povahy_'
'používáte_'
'používán'
'pouhých_'
'potřebujeme_'
'potřebuj'
'potěš'
'potíž'
'potenci'
'posun'
'postupne_'
'postupe'
'postup'
'postoj_'
'postižen'
'posti'
'postaven_'
'posta'
'poslední'
'poslanc'
'poskytují_'
'posil'
'poselstv'
'posedl'
'porozumeni_'
'poradc'
'popsan'
'popr'
'popisuje'
'popis'
'ponor'
'ponech'
'pone'
'pond'
'pomysle'
'pomuze_'
'polí'
'položky_'
'polozk'
'politických_'
'policejn'
'pokračuje_'
'pokračov'
'pokracovat_'
'pokožky_'
'pokozky_'
'poker'
'poka'
'pojmenova'
'pojme'
'pojistn'
'pohybuj'
'pohybova'
'pohov'
'pohodlí_'
'pohled'
'pohlavn'
'pohan'
'podíle'
'podíl_'
'podzim'
'pods'
'podporují_'
'podporova'
'podpori'
'podobnou_'
'podmínka'
'podleh'
'podla'
'podepsa'
'pocitac_'
'pochybnost'
'pochopili_'
'pochaz'
'pobytu_'
'pobyt_'
'pneum'
'pm'
'pláž'
'plány_'
'plánuje'
'plošin'
'plom'
'plat'
'planu_'
'planety_'
'plamen'
'piva_'
'piv'
'pití_'
'pil_'
'pie'
'phy'
'phi'
'ph_'
'pečovat'
'pevně_'
'pet_'
'pest'
'pers'
'pepti'
'peněžen'
'penez'
'pece_'
'pd'
'patologi'
'pate'
'partnerství_'
'partners'
'partnerem_'
'part'
'parkov'
'pano'
'pan_'
'pamatuj'
'pamat'
'pam'
'palác'
'palet'
'pac'
'ožn'
'očk'
'oznám'
'oznamil_'
'oznam'
'ozi_'
'ozbrojen'
'ox'
'ow_'
'oví'
'ovna_'
'ovlivnit_'
'ovladan'
'ovc'
'ovací'
'ouž'
'ouv'
'oupil'
'otě'
'otyp'
'otro'
'otoč'
'otevření'
'otevrene_'
'otcem_'
'osud'
'osu'
'ostř'
'ostat'
'osobou_'
'oslab'
'osk'
'osi'
'osa'
'orit'
'original'
'orgánů_'
'orgasm'
'orator'
'ora_'
'opustil'
'operátor'
'operací_'
'open'
'opačn'
'oo_'
'ong'
'onemocneni_'
'onemocn'
'omyl'
'omezený'
'oly'
'ologie_'
'olejo'
'oleje_'
'okruhu_'
'okouzluj'
'okolí_'
'okolo_'
'oken'
'okamziku_'
'okam'
'ohy'
'ohroz'
'ohn'
'ohledně_'
'ohe'
'ody_'
'odvola'
'odvo'
'odva'
'odpovídající_'
'odpovída'
'odmítl'
'odli'
'odl'
'odkud_'
'odhali'
'odeslání'
'odchod'
'odbornik'
'ocit'
'ochotn'
'oceán'
'oceni'
'oca'
'občas'
'občan'
'obz'
'obrazovku_'
'obrazku_'
'obraze'
'obrat'
'oblíbené_'
'obličeje_'
'obličej_'
'obličej'
'obli'
'objevov'
'obez'
'obecně_'
'obecný'
'obdob'
'obdivu'
'obdiv'
'obchodů_'
'obchodování_'
'obc'
'obavy_'
'obav_'
'nů'
'něče'
'něné_'
'německý'
'některý_'
'nějších_'
'nějakou_'
'nými_'
'níž_'
'náše'
'názor'
'návrat_'
'následoval'
'následk'
'nár'
'nápad'
'nále'
'nákupu_'
'nákup_'
'náhl'
'náh'
'náboženství_'
'náboženské_'
'nz'
'nuti_'
'ntu'
'nta'
'nské_'
'nsko_'
'nska_'
'nově_'
'nován'
'novym'
'novo'
'noveho_'
'noti'
'notebook'
'nosn'
'niva'
'nitr'
'nikoli_'
'nikoho_'
'nicméně_'
'nicke_'
'ngu'
'než'
'neřek'
'nezávislost'
'nezávisl'
'nezk'
'neziskov'
'nezd'
'nezas'
'nezapomeňte_'
'nezapomen'
'news'
'new'
'nevěř'
'nevě'
'nevyžaduje_'
'nevyh'
'nevid'
'ness_'
'nesprávn'
'nespravedl'
'nesou'
'nesly'
'nesl'
'nese'
'nero'
'nepřes'
'nepřed'
'nepra'
'nepoužív'
'nepouzi'
'nepla'
'nepat'
'neomezen'
'neobvyklý'
'nenávi'
'nemůžeme_'
'neměli_'
'nemu_'
'nemu'
'nemocnice_'
'nekteri_'
'nejzn'
'nejvic'
'nejsi'
'nejrychlejší_'
'nejo'
'nejmenší'
'nejmen'
'neji'
'nejh'
'nejdůležitější_'
'nejdr'
'nejde'
'nehty_'
'nefung'
'neexistuj'
'nedávn'
'nedá'
'nedostatku_'
'nechtě'
'nechce_'
'nebu'
'nebezpecn'
'nea'
'nci_'
'nci'
'našli_'
'nazv'
'naznač'
'naznacuj'
'navz'
'navrat'
'navic_'
'nastavit_'
'nastav'
'nasim_'
'naraz'
'nanes'
'namo'
'namn'
'name'
'nakupuj'
'nakr'
'nakl'
'najdeme_'
'najde_'
'naj'
'nai'
'nahrazen'
'nahod'
'nadšen'
'nadsen'
'nade'
'nach'
'nabízejí_'
'nabídku_'
'nabyt'
'nabo'
'nabize'
'místnosti_'
'místem_'
'mích'
'mán'
'myšlenku_'
'myšlen'
'myt'
'myslíte_'
'myslite'
'myslel_'
'mysl_'
'muzu_'
'muzi_'
'muzeu'
'mut'
'musite_'
'museli_'
'mum'
'možností_'
'možn'
'mout_'
'moud'
'morsk'
'modr'
'modl'
'modern'
'mocn'
'moc'
'mo_'
'mni'
'mlč'
'mládež'
'mluví_'
'mladí'
'mladé'
'mladistv'
'mistnich_'
'mis'
'mins'
'ministr_'
'minist'
'mini'
'mina'
'milují_'
'miluje_'
'miluj'
'miliardy_'
'mil_'
'mikrof'
'metoda_'
'mesici'
'meric'
'ments_'
'ment_'
'menstruace_'
'meni'
'men_'
'medicin'
'mbar'
'maxi'
'max_'
'matrac'
'matku_'
'mateřsk'
'mate'
'mat_'
'mapě_'
'manažersk'
'malé'
'malo_'
'malo'
'mala_'
'magn'
'magi'
'lň'
'lý'
'líči'
'líb'
'léčebn'
'léčbě_'
'léta'
'láv'
'lám'
'láhv'
'lád'
'lut'
'lup'
'luje'
'lož'
'lové_'
'lová'
'louv'
'lou_'
'lot'
'lodi_'
'lli'
'liš'
'lič'
'lizac'
'livé'
'livo'
'live_'
'listy_'
'ling_'
'lin_'
'lik_'
'light'
'lidské'
'liber'
'lhostejn'
'lezit'
'levné_'
'leté'
'lette'
'letišti_'
'letadle'
'leta_'
'lesk_'
'leněn'
'leno'
'lekars'
'lekare'
'legra'
'lb'
'latn'
'latky_'
'lap'
'lahv'
'lah'
'lace'
'kříž'
'kym'
'květin'
'kvetinov'
'kvetinarstvi_'
'kvalitních_'
'kuze_'
'kum'
'kulturní'
'kula'
'kuchyně_'
'kuchyn'
'ktivn'
'kterem_'
'ktere'
'kte'
'krásy_'
'krásné_'
'krásná_'
'král_'
'krv'
'krut'
'krouž'
'krmi'
'krm'
'krku_'
'kriz'
'kreditní_'
'kovy_'
'kovat_'
'kouř'
'kouzl'
'kousk'
'koupe'
'kotě_'
'korun'
'koo'
'koná_'
'konzervativ'
'konvenc'
'kontrolou_'
'kontext'
'konstrukc'
'konkurence'
'konkur'
'konkrétním_'
'konfliktů_'
'konfliktu_'
'konferencí_'
'kondom'
'konci'
'koncentrac'
'komunita'
'komunist'
'komun'
'komu_'
'kompres'
'kompozi'
'komplikac'
'kompeten'
'kompa'
'komentar'
'koli'
'kod_'
'kno'
'knihovny_'
'knihovn'
'knih'
'klášter'
'klis'
'klip'
'klikn'
'klesa'
'kl_'
'kk'
'kilogram'
'kdysi_'
'kdybych'
'kaze'
'kazdodenni'
'kazdo'
'kazd'
'kaz_'
'kavárn'
'kato'
'kategori'
'katastrof'
'kare'
'karcino'
'kapacit'
'kancel'
'kali'
'kalendář'
'kal_'
'kai'
'kace_'
'kabin'
'jídle_'
'jídl'
'jícím_'
'jí'
'js'
'jp'
'jní'
'jno'
'jménem_'
'jmenovan'
'jme_'
'jizdy_'
'jiném_'
'jinych_'
'jineho_'
'jež_'
'jezer'
'jezdi'
'jezd'
'jevy_'
'jes'
'jenž_'
'jem_'
'jeli'
'jejim'
'jehoz_'
'jednotek_'
'jednoduchý_'
'jediné_'
'jedinecne_'
'jdeme_'
'jazyků_'
'jazyky_'
'jazykov'
'jazy'
'jasně_'
'jasno'
'jarn'
'jaký_'
'jakém_'
'jakéhokoli'
'jaky'
'iž'
'iště'
'ičn'
'ičko'
'ičk'
'iál'
'izac'
'ivte_'
'ivost_'
'ivn'
'ivajici'
'iva_'
'iu_'
'itk'
'itelny'
'itele'
'isté_'
'isten'
'iste_'
'ish_'
'ir_'
'inzer'
'investova'
'inv'
'interpret'
'internetové'
'interakce_'
'instituci'
'instalova'
'inovace_'
'ings_'
'informova'
'informatik'
'informa'
'inform'
'infekční'
'infekc'
'indik'
'indi'
'inde'
'inat'
'impl'
'imagin'
'iln'
'illa_'
'ilky_'
'iká'
'iku'
'ikon'
'ikan'
'ije'
'ifika'
'iew_'
'ien'
'idealni_'
'ics_'
'ichov'
'ica_'
'iat'
'hříšn'
'hře'
'hání_'
'hypot'
'hyper'
'hydratova'
'hvězdičkový'
'humanitn'
'hudební_'
'hub'
'hrá'
'hrud'
'hrub'
'hrdi'
'hrd'
'hranic_'
'hranic'
'hrani'
'hrají_'
'hraj'
'hořk'
'hovoř'
'hova'
'hotovost'
'hotov'
'hospodarske_'
'hors'
'horizont'
'hokoli'
'hof'
'hodnoceni_'
'hodl'
'hm'
'hlo'
'hlin'
'hledají_'
'hlavních_'
'hlavni'
'hlavi'
'historické_'
'historicky'
'hist'
'hing'
'her'
'hem_'
'hd'
'hc'
'hb'
'hazardn'
'han_'
'ham_'
'hai'
'gá'
'gue_'
'gs_'
'grap'
'grafické_'
'grac'
'gova'
'gol'
'gle_'
'gl'
'git'
'gic'
'ght_'
'generaci_'
'gene'
'gard'
'gara'
'game'
'galaxi'
'fází'
'fáze_'
'fyzického_'
'fyz'
'fy_'
'free'
'francouzštin'
'francouzský'
'fotoaparát'
'fotky_'
'fot'
'formátu_'
'formální'
'formulář_'
'formou_'
'ford'
'font_'
'font'
'flo'
'fle'
'fix'
'finančních_'
'financni_'
'financni'
'financ'
'film'
'fili'
'fi_'
'festival_'
'far'
'eň_'
'eň'
'ezen'
'exu'
'extrémní_'
'extr'
'expert'
'exp'
'existoval'
'existenci_'
'exc'
'evropsky'
'evo'
'evn'
'eve'
'euro'
'eur_'
'etu_'
'etnick'
'etn'
'etiky_'
'etické_'
'ethe'
'estr'
'est_'
'ess_'
'ess'
'esi'
'esen'
'ervova'
'erva'
'erl'
'eri_'
'erenční_'
'eo_'
'eně_'
'ených_'
'environmentální'
'enout_'
'eno'
'enky_'
'energií_'
'enec'
'end_'
'enc'
'emoce_'
'emn'
'emat'
'elé_'
'ely_'
'elitní'
'elit'
'elin'
'elimin'
'elektřin'
'elektronické'
'elektro'
'elegan'
'elava'
'elastic'
'ela'
'ekonomik'
'ei'
'efektivni_'
'důkladn'
'dřívější'
'dří'
'dřevo'
'dřeva_'
'dětem_'
'děte_'
'dět_'
'děsi'
'dělo'
'dělení_'
'dělal'
'dějin'
'děj'
'děd'
'dívk'
'dívat_'
'dítětem_'
'délky_'
'dávno_'
'dávají_'
'dál'
'dvakrat_'
'dvac'
'duševní'
'duš'
'dusledku_'
'dul'
'ds'
'druz'
'druhý'
'druhého_'
'dre'
'dramatick'
'drag'
'dočka'
'doufá'
'dou_'
'dotaz'
'dostupné_'
'dostav'
'dostatek_'
'dostatecne_'
'dostal'
'dospěl'
'dosažen'
'dosazen'
'dosahl'
'dopravní_'
'doporučení_'
'dopo'
'doplňky_'
'doplňk'
'doplnk'
'domaci_'
'dolar_'
'dokáže_'
'dokázal'
'dokoncen'
'dokazuje_'
'dohoda_'
'dodava'
'dodat_'
'dobí'
'dobrodruž'
'dně_'
'dna'
'dlouhodobé'
'dle'
'dk'
'divok'
'diviz'
'divi'
'diver'
'ditete'
'dite'
'dit'
'distribuc'
'disku_'
'disku'
'disciplín'
'dik'
'digitalni_'
'diam'
'dial'
'deva'
'destinac'
'deseti'
'dermat'
'dent_'
'dent'
'denni'
'deni'
'dena'
'demonstr'
'demokra'
'dem_'
'delal'
'deg'
'dcera_'
'dce_'
'daňov'
'dava'
'date'
'dalším_'
'další'
'dalsim_'
'dalsich_'
'dalekohled'
'cíle_'
'cviceni_'
'cs_'
'cop'
'cokolad'
'cna_'
'clanku_'
'ckchain_'
'ciálně_'
'cizince'
'civiliz'
'cinu'
'cinnosti_'
'cigaret'
'chází'
'chybn'
'chybi_'
'chy_'
'chvili_'
'chu_'
'chtěl'
'chti'
'chst'
'chrani'
'chovat'
'chovani_'
'chopn'
'chodí'
'chlup'
'chlapc'
'chladicí'
'chirurgick'
'chemik'
'charit'
'charakterizov'
'charakteristik'
'charakteristick'
'cestuj'
'cestovat_'
'ces_'
'certifikát'
'cenov'
'cem'
'celosvětov'
'celos'
'celkové_'
'celi'
'cele'
'cek_'
'caste'
'cast'
'card_'
'cap'
'běžně_'
'bývá_'
'bílá_'
'bí_'
'byva'
'byte'
'bylin'
'but'
'bune'
'buj'
'budově_'
'budovy_'
'budov_'
'bubn'
'bt'
'bráni'
'brzy_'
'bruneta_'
'brou'
'brojen'
'brn'
'brambor'
'bož'
'bour'
'boss_'
'bojí_'
'bohatství'
'board_'
'blíže_'
'blízké'
'blog_'
'blizk'
'bis'
'biot'
'biom'
'biblick'
'bezprost'
'bezpecnost_'
'bezpecnost'
'bezpecne'
'beton'
'benz'
'bazar'
'bavi'
'barvě_'
'barvi'
'barevn'
'barcelon'
'bankov'
'balíčku_'
'bal_'
'bac'
'ažuj'
'azy_'
'azu'
'azn'
'azk'
'azat'
'avo_'
'avo'
'aven'
'av_'
'autorská_'
'audi'
'atu'
'atraktivn'
'atr'
'atoru_'
'atom'
'atik'
'ateln'
'astn'
'aso'
'asistent'
'ash'
'asen'
'ase'
'arni_'
'ark'
'ari_'
'argument'
'archi'
'arch'
'apod_'
'aplikac'
'api'
'apa'
'ao_'
'antikoncep'
'antick'
'ante_'
'ante'
'anou_'
'angličtině_'
'anglick'
'americky'
'amb'
'amat'
'ama'
'alá'
'alternativ'
'alt'
'akumul'
'aku'
'aktualizovat_'
'aktualiz'
'aktu'
'aktivu'
'akredit'
'akné_'
'ající'
'ajs'
'aj_'
'air'
'ahy_'
'ahuj'
'aha'
'agu'
'agresiv'
'agre'
'ady_'
'adv'
'abys_'
'abl'
'abi'
'`'
']]'
'[+]_'
'Získ'
'Zpět_'
'Zobraz'
'Ziska'
'Zemřel'
'Zeme_'
'Ze_'
'Zam'
'Zaj'
'ZU'
'ZI'
'ZENI_'
'YS'
'XXI'
'Word_'
'WordPress_'
'Woo'
'Wel'
'WeTe'
'WI'
'Větš'
'Věd'
'Vě'
'Včera_'
'Výb'
'Vítejte_'
'Vánoc'
'Využijte_'
'Vyu'
'Vytvář'
'Vys'
'Vym'
'Volvo_'
'Volkswagen_'
'Voj'
'Visa_'
'Vil'
'Vie'
'Vic'
'Vet'
'Veli'
'Vel'
'Vegas_'
'Vaš'
'Vase_'
'VYS'
'VB'
'Už'
'Usta'
'Ura'
'Update_'
'Univerzita_'
'Unie_'
'Ul'
'Ukrajinc'
'UA'
'Tři_'
'Těžk'
'Těhotensk'
'Tě'
'Tvů'
'Tun'
'Trvá'
'Trac'
'Tou'
'Tok'
'Tmav'
'Tit'
'Tim_'
'Tim'
'Tich'
'Thin'
'The'
'Text'
'Texas'
'Tes'
'Term'
'Teh'
'Teenagery'
'Teen'
'Technologi'
'Tea'
'Takové'
'TL'
'TED_'
'TEC'
'TA_'
'TAK'
'Svět_'
'Svo'
'Svat'
'Surf'
'Suite_'
'Styl'
'Student'
'Stu'
'Stru'
'Store_'
'Stock'
'Ster'
'Stejně_'
'Spu'
'Spolu'
'Spanelsk'
'Souk'
'Sol'
'Soci'
'Sníž'
'Sni'
'Snaž'
'Smě'
'Smlouv'
'Služb'
'Slovensku_'
'Slou'
'Skr'
'Silver'
'Shar'
'Severo'
'Sev'
'Serv'
'Security_'
'Seb'
'Sca'
'Saint_'
'SS_'
'SSD_'
'SOU'
'SCH'
'S4'
'Rů'
'Ruz'
'Ruské_'
'Roo'
'Robert'
'Restaura'
'Research_'
'Ren'
'Rece'
'Ran'
'Ram'
'Rako'
'RES'
'RD'
'RC'
'RAM'
'RAD'
'Qua'
'Pův'
'Přís'
'Pus'
'Pt'
'Prote'
'Pros'
'Projekt'
'Proj'
'Profes'
'Produkt'
'Prob'
'Prit'
'Pripo'
'Pravid'
'Power_'
'Povol'
'Používá'
'Použí'
'Použi'
'Pouze_'
'Potřebuje'
'Potom_'
'Posledn'
'Porsche_'
'Poro'
'Popul'
'Podobn'
'Place_'
'Pit'
'Phone_'
'Peter'
'Peking'
'Patří_'
'Past'
'Pas'
'Part'
'Pamatuj'
'Pacifi'
'PT'
'PRE'
'POS'
'POR'
'PLAT'
'Ostatní_'
'Origin'
'Ora'
'Open_'
'Opa'
'Ole'
'Odstra'
'Odpově'
'Odborn'
'Ochrana_'
'Obra'
'Obecně_'
'Obchodn'
'Obchod'
'OU'
'OT_'
'OT'
'ON'
'OF'
'Německa_'
'Německ'
'Někteří_'
'Náš_'
'Návštěv'
'Následující_'
'Novin'
'Nov'
'Not'
'Noo'
'Nizozem'
'Nikol'
'Night'
'Next'
'News2Night_'
'Neměl'
'Nektere_'
'Nek'
'Nechte_'
'Nauč'
'Nastav'
'Nasled'
'Nahra'
'NTV_'
'NEM'
'NEBO_'
'NB'
'NAS'
'NAR'
'Máte_'
'Myslíte_'
'Myslí'
'Myslim_'
'Muze'
'Možnost_'
'Moskv'
'Mol'
'Mohou_'
'Moc_'
'Mistr_'
'Ministerstv'
'Mim'
'Miluje'
'Milova'
'Mill'
'Milan'
'Mich'
'Mezinarodni'
'Metod'
'Met'
'Mel'
'Medi'
'Mb'
'Mass'
'Mark'
'Maria'
'Mari'
'Map'
'Mami'
'Mail'
'Mai'
'Madridu_'
'MIL'
'MC_'
'MAN'
'Lét'
'Lov'
'Londýn'
'Logi'
'Lip'
'Light'
'Lidov'
'Lib'
'Lenin'
'Lake_'
'Lab'
'La_'
'LU'
'LP'
'LI_'
'LID'
'Ké'
'Ky'
'Květiny_'
'Květ'
'Krymu_'
'Kristu'
'Krist'
'Kre'
'Korea_'
'Konf'
'Koneckonc'
'Konc'
'Komu'
'Kn'
'Kli'
'Kla'
'King'
'Kim'
'Kee'
'Kdyby'
'Kd'
'Každ'
'Kaz'
'Kas'
'Karl'
'Kanada_'
'Kanad'
'Kan'
'Kam_'
'KP'
'KONT'
'KOLI'
'KOL'
'KLAD'
'KE'
'JÍ'
'Jo_'
'Jmén'
'Jižní_'
'Již'
'Jiho'
'Ježíše_'
'Ježíš'
'Jednoduch'
'Jar'
'Japonsku_'
'Japonc'
'James'
'Jag'
'Jab'
'JSEM_'
'JAKO_'
'Izraeli_'
'Izrael_'
'Iv'
'Islámsk'
'Irá'
'Io'
'Int'
'Institute_'
'Ins'
'Info'
'Indii_'
'IQ'
'IPS'
'IL_'
'IG'
'ID_'
'Huawei_'
'Hra'
'Hot_'
'Hot'
'Hos'
'Hn'
'Hlavním'
'Hlavni_'
'Hip'
'Hil'
'Hel'
'Ham'
'HR'
'HOT'
'Gru'
'Group_'
'Grav'
'Gon'
'Global_'
'Gir'
'George_'
'Genesis_'
'Gener'
'Gear'
'Gat'
'Games_'
'Galaxy_'
'Gal'
'GRO'
'GR'
'GHz_'
'GE'
'Free_'
'Frank'
'Flex'
'Fit'
'Fire'
'Finsk'
'Ferry'
'Feder'
'Fal'
'FO'
'Expres'
'Exchange_'
'Evropu_'
'Evropského_'
'Evropan'
'Et'
'Enterprise'
'Empflix_'
'Ekonomika_'
'Edu'
'ER_'
'EO'
'EM_'
'EH'
'ECH'
'Důvod'
'Děkuji_'
'Dál'
'Dyna'
'Dv'
'Dur'
'Dre'
'Dov'
'Dou'
'Dostal'
'Doporučen'
'Dok'
'Dod'
'Disney'
'Die'
'Davi'
'Dav'
'DP'
'DNI'
'Cítí'
'Ct'
'Cristi'
'Cree'
'Cra'
'Coo'
'Cons'
'Company_'
'Comm'
'Cir'
'Chorvat'
'Chemic'
'Cesta_'
'Cest'
'Celkem_'
'Cash_'
'Canon_'
'Cambridge_'
'Call'
'CZ'
'CU'
'COV'
'CLA'
'CK'
'CER'
'CD_'
'CC_'
'CAS'
'CAD_'
'Byli_'
'Buď'
'Buy'
'Budu_'
'Britanie_'
'Brat'
'Bot'
'Boo'
'Blue_'
'Black'
'Bla'
'Bibli_'
'Beh'
'Bea'
'Bank_'
'Bank'
'Bang'
'Ban'
'BRA'
'BM'
'BBC_'
'Až_'
'Ačkoli'
'Aug'
'Au'
'Atlanti'
'Asa'
'Arm'
'Ani_'
'Ani'
'Anglie_'
'Angel'
'Ane'
'And_'
'Analytics_'
'Alic'
'Alexander_'
'Aktivní_'
'Air_'
'Ai'
'Adr'
'ANI_'
'AM_'
'AM'
'AF'
'A3'
'?”'
'??_'
'?. _'
'?!'
'= _'
'<# } '
'<'
'; '
'91_'
'9001_'
'89'
'88'
'87_'
'84'
'79_'
'78'
'750'
'67'
'650_'
'54'
'512_'
'4G_'
'3d_'
'380'
'330_'
'267'
'221'
'206'
'1997_'
'1982_'
'1964_'
'1960_'
'1958_'
'1957_'
'1947_'
'1940_'
'1938_'
'182'
'177'
'176'
'152'
'150'
'138'
'135'
'122'
'121'
'112_'
'112'
'109_'
'103'
'0x'
'06'
'05'
'04'
'001_'
'0000'
'.”_'
'.–'
'.»_'
'.....'
'.... ['
'.)._'
'." _'
'. ['
')?_'
'$'
'#> '
'!“_'
'!»'
'!"'
' · _'
' °_'
' «'
' | _'
' [...]_'
' ?'
' >_'
' :_'
' /'
' ..."_'
' ) _'
' ) '
' %._'
' %)'
' !'
'﻿'
'● _'
'™ _'
'€ '
'….'
'” '
'‚'
'​'
'ґрунтован'
'ґрунт'
'їхніх_'
'їт'
'їно'
'їна'
'їли_'
'їзди'
'їзд'
'їде'
'ївн'
'ію'
'іще'
'ішою_'
'ішими_'
'ічі_'
'іхав_'
'іх'
'іті_'
'ітр'
'ісі'
'історичні_'
'історичн'
'істор'
'іста'
'іст_'
'іспанськ'
'існувал'
'існо'
'ісламськи'
'ініціатив'
'інші'
'іншою_'
'іншо'
'інці_'
'інформаційних_'
'інформатик'
'іну'
'інтимн'
'інтерфе'
'інтерв'
'інтеграці'
'інструменту_'
'інституці'
'інституті'
'інституту_'
'інок_'
'інні_'
'інновацій_'
'інноваціиних_'
'інноваціи'
'індивідуальн'
'інд'
'інгредієнтів_'
'інгр'
'інвестува'
'інвесторів_'
'інвестиці'
'інвентар'
'імунно'
'імун'
'імпорт'
'імплант'
'імп'
'іми_'
'ілюстраці'
'ільне'
'іканськ'
'іись'
'ізує'
'ізу'
'ізраїль'
'ізра'
'ізован'
'іжі_'
'ідо'
'іди'
'ідеям'
'ідентифікаці'
'ідеал'
'іда'
'ігров'
'іграшки'
'іграшка_'
'івщин'
'івуд'
'івл'
'івк'
'ібі'
'ібни'
'іа'
'єстр'
'єму_'
'ємо'
'ємніс'
'єднува'
'єдине_'
'ячі_'
'ячо'
'яче'
'яч'
'ятор'
'ятник'
'ятни'
'ятк'
'ятаю_'
'яскрави'
'японськи'
'японськ'
'янка_'
'яних_'
'яни_'
'яльні'
'яли'
'якшу'
'яко_'
'якн'
'яки_'
'яй'
'язує'
'язк'
'язань_'
'язано_'
'язання_'
'язани'
'яжні'
'ягу_'
'ягають_'
'являє_'
'явля'
'явлення_'
'явка'
'явище_'
'явища'
'явить'
'явилис'
'явил'
'явився_'
'ява'
'юючи_'
'ючити'
'ючи'
'юц'
'юх'
'юто'
'ютерні'
'юй'
'ювелір'
'юватися_'
'юванн'
'ював'
'юва'
'э'
'ьє'
'ьтр'
'ьто'
'ьсько'
'ьств'
'ьск'
'ьниц'
'ьми_'
'ьма_'
'ьку'
'ьйо'
'ьд'
'щува'
'щоразу_'
'щоденно'
'щиро'
'щеплення_'
'щасти'
'щасливі_'
'щасливо'
'щасливим'
'щад'
'щ'
'шує_'
'шукає_'
'штучни'
'штра'
'штамп'
'шок'
'шого_'
'шов'
'шно_'
'шлюб_'
'шлюб'
'шли_'
'шкіл_'
'шкідливих_'
'шкі'
'шку'
'школу_'
'шкод'
'шка_'
'шиї_'
'широкого_'
'широко'
'шип'
'шин'
'шим'
'шив_'
'швидши'
'швидки'
'швейцарськи'
'швеи'
'шведськи'
'шаф'
'шарі'
'чує'
'чутт'
'чутливо'
'чули_'
'чудовим'
'чудова_'
'чувати_'
'чотири'
'чорний_'
'чорна_'
'чоловічі'
'чоловіком_'
'чоловікам'
'чогось_'
'човн'
'чов'
'чну_'
'чноі_'
'членами_'
'чищення_'
'численн'
'чисел'
'чиновник'
'чино'
'чинності_'
'чини'
'чил'
'чиків_'
'чик_'
'чизнян'
'четверт'
'чест'
'черговий_'
'чергов'
'черг'
'чено_'
'чемпіонат'
'чекають_'
'чев'
'чає'
'чашк'
'частков'
'частка_'
'чани'
'чальник'
'цінами_'
'цілісні'
'цілісно'
'цілях_'
'ціль_'
'цілодобов'
'цілеи_'
'цікавл'
'цікавить_'
'цікавим'
'цікава_'
'цький_'
'цукр'
'цицьки'
'циклу_'
'церкві_'
'церква_'
'центри_'
'центрально'
'центральн'
'цвіт'
'царськ'
'царств'
'ца'
'хів'
'хіба_'
'ху'
'хроніз'
'хро'
'хребт'
'хот'
'хось_'
'хостинг_'
'хорошим_'
'холодні'
'холодильник'
'холестерину_'
'ходять_'
'хні'
'хлопчика'
'хлопце'
'хлопц'
'хлив'
'хит'
'хиж'
'хен'
'хвилю'
'хвилину_'
'харчу'
'хари'
'хардкор'
'характеризується_'
'хав'
'фіц'
'фіт'
'фіс'
'фірм'
'фінансів_'
'фінансового_'
'фільму_'
'фікс'
'фікован'
'фік'
'фізично_'
'фіз'
'фігури_'
'фі_'
'фут'
'функціонально'
'фундамент'
'фун'
'фта'
'фт_'
'фрукті'
'фруктов'
'фрукт'
'фров'
'фро'
'фре'
'фотографі'
'фотографува'
'формують'
'форматів_'
'форма'
'фондо'
'флі'
'флори'
'флакон'
'фи_'
'фестивал'
'феро'
'фел'
'фек'
'федеральн'
'фат'
'фармац'
'фарбов'
'фантастични'
'фантасти'
'фанат'
'фак'
'файл'
'фаилів_'
'фаил'
'фабри'
'уєте'
'уяв'
'ущен'
'ущ'
'учням'
'учн'
'участю_'
'учасником_'
'ухо'
'ухвален'
'уха'
'утися_'
'уте'
'утворенню_'
'утворен'
'ут_'
'усуває_'
'установк'
'установи_'
'уста'
'успішні'
'успішн'
'успіхів_'
'усмі'
'уса_'
'урі'
'урядом_'
'урядов'
'урні'
'ури'
'уре'
'ур_'
'управляє'
'упер'
'унікальні'
'унікально'
'унікальне_'
'уніка'
'універсальни'
'уня'
'унт'
'уника'
'уни_'
'унд'
'уму_'
'умовно_'
'умовам'
'умов'
'умні'
'умент'
'уман'
'улін'
'улюблени'
'уль'
'ула_'
'ула'
'українських_'
'українськ'
'украінсько'
'укла'
'уй'
'узя'
'узе'
'ужн'
'уе'
'удов'
'уди_'
'уджен'
'удач'
'ударів_'
'увесь_'
'уватись_'
'уватиме'
'увально'
'увальн'
'уваж'
'уваг'
'убі'
'уальні'
'тіє'
'тіст'
'тілі_'
'тій'
'тч'
'тую'
'туш'
'турбот'
'тум'
'тувати_'
'трі_'
'трудов'
'трубк'
'труби_'
'труб'
'троянди_'
'троянд'
'троп'
'тримаєт'
'трим'
'тривож'
'тривалий_'
'третіи_'
'третього_'
'тренува'
'тренд'
'тремт'
'трат'
'транспортуванн'
'тракт'
'традиційни'
'традиційн'
'традицій_'
'травн'
'тра_'
'точці_'
'точн'
'торка'
'торгівля_'
'торгу'
'тонк'
'тона'
'толе'
'токсичн'
'товст'
'товариство_'
'тобою_'
'тній_'
'тні'
'тним'
'тне'
'тна_'
'тлі_'
'тланді'
'тичні_'
'тичних_'
'тихо'
'титул_'
'тис_'
'типо'
'тину_'
'тимчасов'
'тимуть'
'тимемо'
'тиме'
'тика'
'тиві'
'тивні'
'тив'
'теч'
'технологія_'
'технологію_'
'технологічні_'
'техн'
'тет_'
'тесь_'
'тестування_'
'тесто'
'терорист'
'тероризму_'
'тероризм'
'терміну_'
'терміни_'
'терапії_'
'теплов'
'теор'
'тео'
'тенденцію_'
'темряв'
'температуру_'
'тель_'
'телефонн'
'телескопі'
'телеканал_'
'телевізійн'
'тектор'
'текстови'
'тег'
'твій_'
'тві'
'творення_'
'твого_'
'тве'
'тваринн'
'таю'
'тац'
'тата'
'тар_'
'танки_'
'танк_'
'тами_'
'талант_'
'талан'
'такоі_'
'табор'
'таблиц'
'табл'
'сіт'
'сімеин'
'сільсько'
'сільськи'
'сьогодення'
'сько'
'ськ_'
'сцена_'
'східн'
'сході_'
'схо'
'схвалення_'
'сформован'
'сфор'
'сферах_'
'сучасно'
'суттєв'
'сусідн'
'суспільно'
'суспіль'
'супутник'
'супротивник'
'суміш_'
'суму_'
'сумо'
'сумнівн'
'суми_'
'сума_'
'сул'
'сук'
'суді'
'суду_'
'судинн'
'судження'
'судді'
'суддя_'
'суд'
'суворим'
'стій'
'стіикі'
'стіик'
'стів_'
'стурбовані'
'ступен'
'стук'
'студентськ'
'студент_'
'стрічки_'
'стріля'
'стре'
'страх'
'стратегічного_'
'страждає_'
'страждають_'
'страви_'
'страв_'
'стосу'
'сторінки_'
'сторонні'
'сторонам'
'сторон'
'столі'
'стки'
'стир'
'стим'
'стика'
'стерн'
'стерео'
'створили_'
'створив_'
'створені_'
'створений_'
'створ'
'статус_'
'стати'
'статеви'
'старі_'
'стартува'
'старт'
'стародавніх_'
'стародавн'
'стара'
'станція_'
'становище_'
'стандарти_'
'стандартами_'
'стандарт_'
'сталь_'
'сталого_'
'стаж'
'ставля'
'ставл'
'ставити'
'ставит'
'стабільні'
'стабільності_'
'стабі'
'ссел'
'сріб'
'спільно'
'спільним'
'співробітництво_'
'співро'
'співпрацюва'
'співві'
'спуска'
'спровоку'
'спробувати_'
'сприят'
'сприяння_'
'спричин'
'сприйнят'
'справедливо'
'справедлив'
'спостерігається_'
'спостерігають'
'спостерігати'
'способом_'
'спортивних_'
'сполуч'
'сподівається_'
'сподіваємос'
'сподіваюся_'
'списк'
'спеціалізується_'
'спеціального_'
'спеціально_'
'спеціально'
'спершу_'
'спектр'
'спас'
'спалах'
'спадщин'
'спадко'
'союзу_'
'союзник'
'соціалізаці'
'соціальна_'
'сортів_'
'сонячних_'
'солі'
'солон'
'сол'
'собаки_'
'собака'
'сніда'
'снення_'
'смішно'
'смішн'
'смерте'
'смерт'
'смак_'
'смак'
'службу_'
'служб_'
'слуг'
'словом_'
'словник'
'слабки'
'скінч'
'скріншот'
'скромн'
'скористайтес'
'скористав'
'скорист'
'скопію'
'склян'
'складніш'
'складність_'
'складним'
'скину'
'ски'
'скачати_'
'сказано'
'скаже'
'сить_'
'ситуаціі_'
'сити_'
'сис'
'сировин'
'сироватк'
'сироват'
'синтетичн'
'сингл_'
'символ_'
'сильний_'
'сик'
'сидіти_'
'сидя'
'сид'
'сигнал_'
'сигарет'
'сечов'
'сет'
'сес'
'серці_'
'серцеви'
'сертифікован'
'серо'
'серйозно'
'середовищем_'
'середині_'
'середин'
'середж'
'сервісів_'
'серв'
'сена'
'сен_'
'семінар'
'селі_'
'селі'
'селищ'
'селекці'
'села'
'секторі'
'сектора_'
'сексуальни'
'секре'
'сег'
'свіч'
'світом_'
'світові'
'світову_'
'світового_'
'світлі_'
'світлових_'
'свіжим'
'свідчення'
'свідч'
'святи'
'свята'
'своіи_'
'свер'
'сб'
'сант'
'самостіин'
'самим'
'саль'
'сал'
'садо'
'рію'
'рішуч'
'рішен'
'річок_'
'річних_'
'різноманітні'
'різноманітн'
'різниця_'
'різниц'
'різдвян'
'різ'
'рівномірн'
'рівноваг'
'рівно'
'рівни'
'рям'
'рядо'
'рушник'
'рухом'
'рухається_'
'рупі'
'рулетк'
'рукав'
'руйн'
'руин'
'руват'
'руб'
'рство'
'рр'
'рою_'
'росіян'
'російські'
'російського_'
'росте_'
'росл'
'ромо'
'роко'
'роками_'
'розширен'
'розчаруван'
'розташована_'
'розслаб'
'розрізняють'
'розряд'
'розробляти_'
'розробля'
'розрив'
'розрахунку_'
'розрахун'
'розпочат'
'розпорядж'
'розповідь_'
'розповідає_'
'розміст'
'розміри_'
'розмі'
'розма'
'розлучення_'
'розлуч'
'розкішни'
'розкрит'
'розкоші_'
'роздр'
'розглянут'
'розгляда'
'розгладж'
'розвинут'
'розвиватися_'
'родич'
'рого'
'рові'
'робіть_'
'робочому_'
'робочии_'
'роботодав'
'робите_'
'робили_'
'рний_'
'рка_'
'риц'
'ринка'
'рив_'
'рибал'
'реєстрації_'
'речовина_'
'рецепти_'
'рец'
'референдум'
'ретельно_'
'ресторани_'
'респ'
'ремонту'
'реліз'
'релігії_'
'реконструкці'
'рекомендує_'
'рекомендують'
'рекламу_'
'рекламн'
'реклама'
'рекві'
'результатам'
'результат'
'резервн'
'резе'
'режи'
'регулятор'
'регулярно_'
'регулярно'
'регуля'
'регулює'
'революційн'
'реалізувати_'
'реаліз'
'реалі'
'реально'
'реальних_'
'реальним'
'реакції_'
'реагу'
'рда'
'рву'
'рвн'
'рає'
'раш'
'ратифік'
'раптом_'
'раптов'
'рант'
'ран_'
'раион'
'раж'
'раді_'
'раді'
'радя'
'радості_'
'радн'
'піє'
'пішло_'
'пішки_'
'піт'
'пісн'
'після'
'пінк'
'пілот'
'підіи'
'піду'
'підтримують'
'підтрима'
'підтвердит'
'підтверджують_'
'підтвердження_'
'підс'
'підручник'
'підпорядк'
'підписан'
'підписали_'
'підпа'
'підні'
'підняти_'
'підм'
'підземн'
'піддон'
'підготу'
'підготовку_'
'підвищую'
'підвищити_'
'підвищена_'
'підвищен'
'підб'
'півостр'
'пч'
'пуст'
'пуск'
'пульт'
'пуд'
'публічн'
'публіці_'
'публік'
'птов'
'пт'
'псован'
'психік'
'прізвище_'
'прої'
'прояви_'
'профілю_'
'професіоналів_'
'професора'
'професор'
'протипоказан'
'против'
'простим'
'простий_'
'проста'
'прор'
'пропуск'
'пропоную'
'пропоновани'
'пропаганди'
'проникнення_'
'проник'
'променів_'
'проко'
'прокида'
'пройшли_'
'пройде_'
'проиш'
'проид'
'прозор'
'проживає'
'проектом_'
'продукціі_'
'продукція_'
'продуктивно'
'продукта'
'продук'
'продовжує'
'продовжую'
'продемонструва'
'продає'
'програмува'
'проголос'
'провінції_'
'провінці'
'провідним'
'провів'
'проводить_'
'проводитис'
'прови'
'пров'
'пробудж'
'проблем'
'проба'
'проаналізу'
'приходи'
'прихову'
'приховани'
'присутність_'
'присутності_'
'присвячена_'
'природі_'
'природо'
'природно_'
'природни'
'припущен'
'припусти'
'приплив'
'припинит'
'припи'
'припа'
'принципа'
'принаимні_'
'приміщен'
'примір'
'приле'
'прико'
'прийшли_'
'прийому_'
'прииня'
'приимає'
'приділя'
'придума'
'придбал'
'придбав_'
'приготувати_'
'приголомш'
'приг'
'привер'
'приватних_'
'привабливо'
'прив_'
'прибул'
'прибира'
'прес_'
'прекрасно_'
'прекрасний_'
'презе'
'представник_'
'представляє_'
'представлено_'
'представлени'
'предмет_'
'працювал'
'працював_'
'практику'
'прагну'
'прагнення_'
'правового_'
'правн'
'правл'
'правильного_'
'правильни'
'ппі'
'поєднує'
'поєдну'
'поєднанні_'
'пояснити_'
'пояснення_'
'пошука'
'поштови'
'пошири'
'почуттям'
'почул'
'почнуть'
'початком_'
'почалося_'
'похова'
'похмур'
'потяг'
'потужності_'
'потреба'
'поточни'
'потенціин'
'потенціал_'
'поте'
'постійного_'
'постраждал'
'постачальників'
'постача'
'постар'
'поставляє'
'посміха'
'послуг'
'посла'
'посилан'
'посеред'
'поселен'
'порівнювати_'
'поря'
'порушує'
'порту'
'порошк'
'пори'
'популярні_'
'популярним_'
'попросит'
'попр'
'попереднього_'
'попередити_'
'попередж'
'поодин'
'поня'
'поне'
'помітн'
'помітити_'
'помир'
'помиля'
'помилков'
'помешкання'
'померл'
'помад'
'поліці'
'політичний_'
'політик_'
'політ'
'поліме'
'полів_'
'полон'
'полегшує'
'полегши'
'полегшення_'
'покупці'
'покупки_'
'покрит'
'поколін'
'покину'
'покаже_'
'позначк'
'позиція_'
'позбав'
'пожертв'
'поді'
'подруга'
'подру'
'подроб'
'подорожувати_'
'подоба'
'подв'
'податку_'
'погол'
'погодил'
'погоджується_'
'погоджуєтесь_'
'погоджу'
'погляду_'
'поглина'
'поглиб'
'поганого_'
'пога'
'повільн'
'повідомляє'
'повідомляю'
'повідомля'
'повідомлення'
'повідом'
'повторно'
'повсякденно'
'повні_'
'повноваж'
'повинне_'
'поверхо'
'повернемо'
'поведінка_'
'поважа'
'повагу_'
'побічн'
'побудовани'
'побудован'
'побо'
'побачи'
'пні'
'пневмо'
'пляшк'
'площа'
'плече'
'плач'
'платн'
'пластикови'
'плані'
'плануєт'
'пишу_'
'печінк'
'печі'
'печер'
'персонал_'
'перо'
'переїха'
'перехрес'
'перетворювач'
'перетворю'
'перетворити_'
'пересува'
'переслідува'
'пересел'
'перерив'
'перенесен'
'перелі'
'перекр'
'перекона'
'переко'
'перекладі'
'перекладу_'
'переклада'
'переза'
'пережил'
'передпла'
'передбачен'
'передає'
'передавати_'
'переговори_'
'перевіря'
'перевірки_'
'перевищувати_'
'перевантажен'
'переважно_'
'переважн'
'переважаю'
'перева'
'перебувал'
'переб'
'пеп'
'пенсіонер'
'пенді'
'педі'
'певного_'
'певно'
'певни'
'патрі'
'пасажирів_'
'парфум'
'партнерами_'
'партнера_'
'паркування'
'парку_'
'пари'
'парат'
'паразит'
'паперу_'
'пано'
'палив'
'палет'
'пале'
'палат'
'пала'
'паз'
'падає_'
'пi'
'оя'
'ощ'
'очікується_'
'очіку'
'очно'
'очки_'
'очевидно_'
'очах_'
'оцінювати_'
'оцінк'
'оцінит'
'охопи'
'офіційно_'
'офіціино'
'офіцер'
'офісу_'
'оформити_'
'офо'
'оту'
'отриму'
'оточен'
'острові_'
'остр'
'осто'
'ости'
'остат'
'останніи_'
'останнє_'
'останн'
'особливіст'
'особливого_'
'особливий_'
'особистіст'
'особисті_'
'особисто'
'особам'
'основними_'
'основним_'
'основна_'
'основа_'
'основ'
'осн'
'осл'
'освітою_'
'освітлю'
'оса'
'орієнт'
'орі_'
'орц'
'ору'
'орту'
'ормл'
'організува'
'організм'
'організатор'
'органами_'
'орам'
'оральний_'
'опублікувал'
'опублікува'
'опубліковано'
'опублікован'
'опто'
'оптимізації_'
'оптимальне_'
'оприлюдн'
'опол'
'опод'
'опові'
'оплат'
'описує_'
'опис_'
'операція'
'оператор'
'оператив'
'опал'
'опаді'
'онів_'
'онни'
'онез'
'оліт'
'олімпійськ'
'олів'
'оли_'
'оли'
'ол'
'окуляр'
'окрім_'
'окремо_'
'окл'
'океанськ'
'океан'
'озу_'
'озд'
'ожи'
'оже'
'одяга'
'однієі_'
'однос'
'однор'
'одних_'
'однакови'
'одержува'
'ограм'
'огр'
'оголосил'
'огляду_'
'огля'
'оги'
'ога_'
'овір'
'овш'
'овують'
'овуванн'
'овор'
'оволь'
'овка_'
'овити'
'овиж'
'овж'
'ованого_'
'оване_'
'обчислю'
'обхід'
'обумов'
'обстеження_'
'обстановк'
'образи'
'оборон'
'обол'
'обн'
'обмежу'
'обманю'
'обма'
'обліков'
'обличч'
'област'
'обладнан'
'обережно_'
'обговорюва'
'ніяк_'
'нія_'
'нічного_'
'ніс'
'німців_'
'ніжно'
'ніж'
'нігті'
'няття_'
'нял'
'ню'
'нш'
'нче'
'нч'
'нукл'
'нудн'
'нувати_'
'нування_'
'ну'
'нтува'
'нту'
'нтон_'
'нтов'
'нтн'
'нтаж'
'нсько'
'нський_'
'нська_'
'нсе'
'ноутбук'
'нота'
'ност'
'нормально'
'нора'
'номі'
'номером_'
'ноже'
'ногу_'
'ног'
'новітн'
'нові'
'новина'
'ннями_'
'нків'
'нков'
'ничі'
'нитк'
'нирок_'
'нирк'
'нинішньо'
'нині_'
'нил'
'никам_'
'нижчи'
'ниж'
'нз'
'нець_'
'нехай_'
'нех'
'неу'
'неспо'
'нерухомості_'
'неповн'
'неперевершен'
'неодмінно_'
'неод'
'немов'
'неком'
'нек'
'неимовірн'
'незм'
'незд'
'незвичайн'
'незадов'
'незабаром_'
'недостатньо'
'недост'
'недалеко'
'недавно_'
'негайн'
'невідом'
'невід'
'невинн'
'невидим'
'невеликі_'
'невелика_'
'небі_'
'небесн'
'небезпеку_'
'небажан'
'неб'
'ндерні_'
'ндер'
'нгтон'
'нб'
'нашими_'
'наш'
'начин'
'начальник'
'націоналі'
'національного_'
'науковим'
'натуральн'
'нато'
'натиска'
'насіння'
'насті'
'наступно'
'наступни'
'насос_'
'наслідків_'
'насил'
'насамперед_'
'насад'
'народно'
'напрям'
'напоїв_'
'напої_'
'напоі'
'написати_'
'напе'
'нападу_'
'нано'
'нанесення_'
'намал'
'намагає'
'нам'
'налічує_'
'нальн'
'належать_'
'налагодж'
'накле'
'найпопулярніш'
'найкращих_'
'найг'
'наистар'
'наис'
'наивищ'
'називал'
'назван'
'назвав'
'назва'
'надії_'
'надлиш'
'надаються_'
'наданн'
'нагр'
'нагальн'
'наг'
'навчає'
'навчанн'
'наведен'
'навантаж'
'міч'
'міцн'
'міцин'
'міхур'
'місцеві_'
'місцевого_'
'місцев'
'місту_'
'місто'
'мірою_'
'мірн'
'міркуван'
'міністр_'
'міністерств'
'мінімуму_'
'мінімум_'
'мін_'
'мільярдів_'
'мільионів_'
'міл'
'мікробі'
'міз'
'міжнародни'
'міжна'
'мусульмани'
'мусульман'
'муси'
'мус'
'мура'
'мулятор'
'мультимедійн'
'музично'
'музични'
'музикант'
'музи'
'мудр'
'мріє'
'моєї_'
'мосфер'
'морських_'
'морськи'
'монітор'
'моні'
'монети'
'монасти'
'момент'
'молока_'
'молодш'
'мологі'
'можливост'
'можлив'
'модуль'
'модни'
'модифік'
'моде'
'могла_'
'мово'
'мови'
'мн'
'мить_'
'миттєво'
'митни'
'мислив'
'мисли'
'мирни'
'мину'
'миль'
'мешканці'
'мешка'
'меч'
'метри'
'метра'
'мери'
'мережах_'
'мереж_'
'менінг'
'менші'
'менструа'
'мено'
'менеджмент'
'меду_'
'медичні_'
'медичного_'
'медик'
'мбу'
'мбр'
'матч_'
'материнс'
'матер'
'математичн'
'масо'
'масло_'
'масла'
'маски_'
'маси_'
'маршрути'
'марки_'
'маніпуля'
'малого_'
'маленький_'
'максимуму_'
'майданчик'
'майбут'
'маист'
'маибутнє_'
'мад'
'магістра'
'магн'
'магазинів_'
'магазині_'
'мага'
'літі'
'літературн'
'літаків_'
'літак'
'лісі'
'лімф'
'лікуванн'
'лікувальн'
'ліку'
'лікарнян'
'лікарем_'
'лізован'
'лізації_'
'ліза'
'ліжко_'
'ліду'
'лідерам'
'лідер_'
'ліво'
'ліб'
'ляє'
'ляю'
'лячи'
'ляч'
'ляну'
'ляльк'
'ляка'
'ляд'
'лює_'
'людського_'
'любити_'
'льот'
'льодо'
'льова'
'льну_'
'льної_'
'льно'
'льни'
'лугову'
'лоси'
'лор'
'локу'
'локалі'
'лоди'
'лодж'
'логістик'
'логотип'
'лого'
'лог_'
'лоб'
'лло'
'лихо'
'литовськ'
'лил'
'лиж'
'ливс'
'ливо_'
'лив'
'лер_'
'лено_'
'ленням'
'лений_'
'легке_'
'легка_'
'леген'
'лев'
'лд'
'латинськ'
'лар'
[...]
